i n 204298
a n 168322
r e 161462
e r</w> 149986
a r 121362
c o 113897
e r 109242
a s 105087
o r 103026
l e 100878
i t 99029
a c 96723
l o 93997
s t 90526
a t 86541
a l 85123
s h 84806
o n 82942
e n 75934
o n</w> 72904
o r</w> 71209
c h 67484
l e</w> 65575
l i 64200
r o 63378
in g</w> 62267
s e 59847
a l</w> 56614
d i 54136
m e 53487
f or</w> 52856
s i 52660
b a 52633
t o 50910
u n 50549
e s</w> 50251
a i 48359
t i 47838
r i 47233
a m 47125
b o 47095
e d</w> 45980
l u 44563
s s</w> 42202
m a 41504
t h 41198
p o 41026
i r 40616
n e 39990
l a 38947
e l 38232
an d</w> 38055
u r 34752
i c 34539
i n</w> 34013
r a 33875
a n</w> 33178
現 貨</w> 32966
s p 31740
i g 31572
t s</w> 30463
o l 29678
p h 29568
n i 29279
e a 29113
ac k</w> 28865
c as 28348
a p 28226
on e</w> 27885
m o 27733
sh o 27718
t e 27699
s u 27453
me n</w> 27287
u s 27067
d e 26927
m i 26865
m l</w> 26321
k e</w> 25920
k e 25674
a b 25471
u l 25446
新 款 25267
d re 25209
w it 25051
s o 24278
ba g</w> 24164
an d 22923
k i 22781
e l</w> 22691
c h</w> 22666
wit h</w> 22649
t t 22176
p r 21633
se t</w> 21494
dre ss</w> 21357
w o 21102
i on</w> 20788
k o 20720
運 動 20321
q u 20316
時 尚 19985
v e</w> 19688
cas e</w> 19567
b y</w> 19562
e n</w> 19276
d a 19224
d s</w> 19220
ir t</w> 19173
d er</w> 19039
b r 18885
p re 18689
b l 18647
m e</w> 18394
g e</w> 17934
as h 17928
p p 17897
w h 17774
休 閒 17685
p lu 17490
ph one</w> 17400
a u 17397
m in 17064
ni ke</w> 16993
現 貨 16779
a d 16708
co d</w> 16658
c ar 16609
簡 約 16519
c e</w> 16484
h o 16465
ab le</w> 16444
i l 16442
ai r</w> 16407
g u 16377
ne w</w> 16336
v er</w> 15928
sh irt</w> 15902
t e</w> 15768
s t</w> 15739
家 用 15690
b i 15643
re d</w> 15630
v er 15540
it e</w> 15528
m p 15466
c k</w> 15295
l as 15160
c k 15086
z e</w> 14922
to p</w> 14812
s e</w> 14730
c s</w> 14660
wo men</w> 14646
t er 14605
全 新 14538
n o 14507
ti c</w> 14479
p ro 14383
al l</w> 14361
收 納 14340
a r</w> 14250
t y</w> 14222
c u 14222
plu s</w> 14142
d o 14031
w at 14002
韓 版 13920
男 女 13882
g h 13864
bl ack</w> 13741
t er</w> 13651
d e</w> 13637
s k 13591
兒 童 13500
日 本 13493
t r 13408
o f</w> 13379
ko re 13205
si ze</w> 13105
b u 12966
i c</w> 12964
ac e</w> 12928
p a 12799
in g 12774
e ar 12702
a di 12636
c re 12550
lo v 12512
ol d</w> 12435
f ash 12310
p cs</w> 12178
v i 12135
p er 12104
sh or 11999
w e 11916
b lu 11841
w i 11795
手 機 11704
百 搭 11680
f re 11641
or ig 11618
orig in 11420
it y</w> 11403
m ar 11356
o o 11320
kore an</w> 11318
s s 11306
b e 11252
短 袖 11214
c i 11191
背 包</w> 11173
學 生 11172
f l 11168
f i 11161
co n 11098
th e</w> 10943
代 購</w> 10899
fash ion</w> 10865
al e</w> 10850
ch ar 10833
l o</w> 10788
u m</w> 10737
l ing</w> 10724
f f 10679
sho es</w> 10674
lov ed</w> 10649
d y</w> 10640
ar d</w> 10579
ba by</w> 10530
免 運</w> 10512
i phone</w> 10510
wh ite</w> 10453
p i 10449
da s</w> 10420
p e 10374
pr o</w> 10369
in e</w> 10344
a m</w> 10289
r u 10285
adi das</w> 10267
男 士 10264
n o</w> 10249
p l 10235
s un 10231
p an 10213
ki ds</w> 10213
er s</w> 10173
e le 10116
創 意 10095
t o</w> 10051
s le 10028
un i 9992
lo n 9921
t a 9895
th en 9894
m at 9888
co l 9881
t ed</w> 9807
au then 9735
r y</w> 9673
origin al</w> 9671
authen tic</w> 9662
上 衣</w> 9656
t h</w> 9593
li gh 9551
sle e 9521
o u 9451
bo o 9394
全 新</w> 9386
情 侶 9342
ai n</w> 9253
韓 國 9185
us e</w> 9179
手 提 9134
ti on</w> 9108
min i</w> 9100
ac k 9072
a p</w> 9029
ea r</w> 8992
經 典 8977
m as 8921
pre loved</w> 8917
l y</w> 8900
c m</w> 8894
h ig 8885
p s</w> 8856
復 古 8848
p ack</w> 8824
m m 8744
夏 季 8723
m en 8711
外 套</w> 8622
at h 8615
s am 8581
休 閑 8574
g o</w> 8555
ma x</w> 8487
s h</w> 8474
gu c 8422
in k</w> 8419
二 手 8385
台 灣 8381
現 代 8370
e t</w> 8353
s ale</w> 8324
j u 8296
ur e</w> 8243
p u 8236
多 功 8125
單 肩 8125
a v 8080
ke t</w> 8070
b lo 8059
le ss</w> 8034
m m</w> 8033
si g 8029
co lo 7978
k it 7955
tt on</w> 7925
潮 流 7915
客 廳 7887
an g 7843
u s</w> 7832
pr in 7774
an t</w> 7696
防 水 7682
f or 7636
fre e</w> 7562
t 恤</w> 7555
g o 7549
多功 能 7470
m on 7452
f o 7416
a t</w> 7386
d u 7356
h u 7354
f u 7344
b le</w> 7307
f t</w> 7302
po w 7289
ac h</w> 7285
可 愛 7280
g old</w> 7270
st ic 7270
北 歐 7237
s li 7236
co r 7230
c ro 7222
hig h</w> 7207
blu e</w> 7203
lo w</w> 7184
f e 7120
t or 7107
i t</w> 7026
保 護 7005
k er</w> 7003
臥 室 7000
p le</w> 6948
h ea 6925
e x 6915
al ity</w> 6854
正 品 6846
b at 6820
al s</w> 6817
c e 6815
牛 仔 6803
sam sun 6797
ch e 6783
j e 6761
de sig 6750
寶 寶 6741
g ir 6733
samsun g</w> 6706
p er</w> 6669
qu ality</w> 6623
co tton</w> 6607
wat ch</w> 6595
ligh t</w> 6581
s m 6570
le t</w> 6546
p e</w> 6519
慢 跑 6518
h el 6490
t u 6424
正 品</w> 6406
g las 6376
s a 6364
裝 飾 6355
g re 6288
系 列</w> 6281
套 裝</w> 6264
w a 6253
置 物 6236
an i 6206
h e 6194
長 袖 6192
b b 6159
t ri 6138
di es</w> 6137
c le 6115
si l 6114
r ing</w> 6098
m i</w> 6091
迷 你 6090
s c 6078
e y 6065
bo x</w> 6052
p ri 6038
m ic 6032
shor ts</w> 6001
g i 5999
un d 5997
i l</w> 5955
st e 5951
玻 璃 5938
套 裝 5910
desig n</w> 5909
錢 包</w> 5900
ch an 5899
新 款</w> 5896
h and</w> 5884
g er</w> 5864
s ling</w> 5846
b al 5845
m b 5821
l ace</w> 5807
pan ts</w> 5806
le d</w> 5803
lon g</w> 5732
斜 挎 5730
shor t</w> 5728
sho ul 5723
x y</w> 5717
bo dy</w> 5705
u p</w> 5702
ing s</w> 5698
la dies</w> 5676
y s</w> 5667
g r 5653
牛 皮 5638
li p</w> 5637
ter no</w> 5633
l s</w> 5631
at e</w> 5627
st u 5626
美 國 5615
w al 5612
s and 5588
p ink</w> 5580
化 妝 5540
f f</w> 5534
x l</w> 5523
e d 5521
加 厚 5497
shoul der</w> 5491
sp or 5455
n at 5451
cre am</w> 5442
g ra 5436
mas k</w> 5432
y o 5431
t re 5426
黑 色 5388
le n 5358
b as 5349
p ar 5341
慢跑 鞋</w> 5336
個 性 5331
ma n</w> 5312
r y 5307
折 疊 5301
se l 5300
沙 發 5299
純 棉 5289
汽 車 5266
ma g 5252
j o 5244
co ver</w> 5216
fl or 5188
colo r</w> 5187
le s</w> 5163
in s 5160
us b</w> 5150
充 電 5140
網 紅 5126
i s</w> 5124
免 運 5116
t ra 5103
h er 5097
透 氣 5095
新 品 5093
b ack 5085
ic e</w> 5076
d en 5070
s on 5053
電 腦 5044
運動 鞋</w> 5042
ac h 5040
l v 5031
真 皮 5028
glas s</w> 5014
女 士 5013
kit ty</w> 5011
l er</w> 5004
c i</w> 4994
pro of</w> 4989
i es</w> 4962
廚 房 4949
k s</w> 4936
pi e 4931
g en 4930
ath er</w> 4924
flor al</w> 4922
p en 4921
an s</w> 4895
a s</w> 4891
手 錶</w> 4883
l a</w> 4880
b er 4872
p or 4870
sh i 4845
to o 4841
t i</w> 4840
實 木 4829
s er 4828
or d 4825
辦 公 4816
b ro 4811
b ea 4807
or s</w> 4800
an ce</w> 4787
di s 4783
blo use</w> 4780
二 手</w> 4778
c lo 4770
w ear</w> 4767
so ap</w> 4757
co ach</w> 4743
l v</w> 4742
t y 4726
耳 環</w> 4723
a ge</w> 4720
t en 4716
sil ver</w> 4712
se x</w> 4708
f lo 4706
洋 裝</w> 4702
t 恤 4701
秋 冬 4693
hel lo</w> 4689
印 花 4683
slee v 4682
m a</w> 4664
st ri 4649
b e</w> 4648
v en 4643
代 購 4641
l it 4632
i on 4622
特 價</w> 4620
i a</w> 4620
d a</w> 4572
st y 4562
預 購</w> 4531
s wi 4530
針 織 4521
le ather</w> 4514
b ur 4510
ck s</w> 4502
修 身 4496
玩 具 4493
造 型 4468
i d</w> 4467
w n</w> 4464
f ace</w> 4462
m an 4461
z er</w> 4458
st a 4457
卡 通 4445
b el 4444
t w 4440
g s</w> 4435
h ard</w> 4432
at ion</w> 4431
a k 4422
男 鞋</w> 4404
h ol 4346
o pp 4341
ar e</w> 4335
t a</w> 4315
g b</w> 4311
or g 4309
i m</w> 4306
guc ci</w> 4294
t able</w> 4292
c o</w> 4279
uni sex</w> 4278
h and 4271
boo k</w> 4270
g a</w> 4262
顯 瘦 4262
c t 4251
c tion</w> 4231
性 感 4225
ai r 4225
手 工 4219
圓 領 4217
手提 包</w> 4203
v a</w> 4190
便 攜 4182
戶 外 4182
men t</w> 4172
黑 色</w> 4153
b ack</w> 4148
m u 4129
歐 美 4124
精 品 4124
te mp 4118
c las 4113
專 用 4111
tr a</w> 4107
su it</w> 4104
特 價 4101
back pack</w> 4092
短 t</w> 4080
sm all</w> 4076
li ve</w> 4073
f la 4072
嬰 兒 4061
自 動 4033
禮 物</w> 4025
h air</w> 4020
v e 4020
公 司 4015
c am 4014
下 殺</w> 4009
l ar 4002
o il</w> 3995
u al</w> 3993
商 務 3985
st ra 3985
帆 布 3975
guc ci 3968
跑 步 3958
上 衣 3955
簡 易 3950
女 生 3950
男 生 3941
sk in</w> 3937
女 包</w> 3934
hea d 3934
包 包</w> 3927
t in 3923
oo d</w> 3907
電 動 3904
m ul 3904
gre en</w> 3904
b an 3889
c t</w> 3870
ul l</w> 3869
不 銹 3868
st er</w> 3852
氣 質 3851
li p 3843
休閒 鞋</w> 3841
us h</w> 3826
on e 3824
pie ce</w> 3820
大 容 3806
短 袖</w> 3803
e red</w> 3798
pa d</w> 3790
單肩 包</w> 3776
迪 士 3770
f ro 3759
m s</w> 3754
st ar</w> 3752
籃 球 3746
v el</w> 3744
w or 3743
蕾 絲 3733
ch a 3719
w er</w> 3707
女 鞋</w> 3696
旅 行 3692
懶 人 3683
透 明 3676
opp o</w> 3671
手 拿 3656
p ap 3647
po lo</w> 3646
den im</w> 3643
st o 3637
a we 3622
br ac 3622
ne ck 3612
la y 3602
c y 3595
f il 3588
拖 鞋</w> 3584
b ri 3578
f r 3576
u ch</w> 3573
系 列 3573
u t</w> 3556
咖 啡 3552
短 褲</w> 3548
ver s 3548
cas ual</w> 3546
v o</w> 3544
g e 3542
不銹 鋼 3539
g ar 3538
m y</w> 3536
p c</w> 3532
me di 3531
b a</w> 3528
fi t</w> 3513
c an 3497
br and</w> 3497
生 活 3491
k a 3488
c ar</w> 3487
ho o 3475
o ver 3454
c a 3453
c le</w> 3441
slee ve</w> 3434
sty le</w> 3434
am e</w> 3429
玩 具</w> 3428
temp ered</w> 3423
wal let</w> 3413
鑰 匙 3403
斜挎 包</w> 3403
no te</w> 3400
o ff</w> 3399
sta in 3397
bea u 3396
awe i</w> 3395
v in 3393
成 人 3389
al i 3385
金 屬 3382
gir l</w> 3380
現代 簡約 3378
stic k</w> 3373
neck lace</w> 3371
g g 3368
出 貨</w> 3358
so ft</w> 3356
la y</w> 3355
j ord 3354
愛 迪 3351
ig h 3350
太 陽 3348
pro te 3346
寬 松 3343
玫 瑰 3341
as s 3326
n y</w> 3323
j ac 3322
an s 3313
stain less</w> 3307
連 帽 3300
b all</w> 3294
無 線 3292
k in 3285
防 滑 3277
blu e 3276
mat te</w> 3272
mi l 3260
sk irt</w> 3252
i al</w> 3251
t on</w> 3246
置物 架 3246
d d 3243
wat er 3239
w ai 3236
小 型 3228
手機 殼</w> 3227
o p 3221
r un 3211
l in 3200
m k</w> 3200
le d 3198
per fu 3198
n e</w> 3193
儲 物 3189
組 合 3188
f ac 3181
o l</w> 3180
swi m 3177
r ings</w> 3175
精 品</w> 3175
hol der</w> 3166
簡約 現代 3160
lo ve</w> 3153
jord an</w> 3152
原 廠 3146
i o</w> 3142
sand als</w> 3131
mi cha 3130
防 曬 3125
連 身 3120
po p</w> 3120
h y 3116
p ur 3115
si on</w> 3109
d i</w> 3107
st re 3106
ai l</w> 3105
側 背包</w> 3091
men s</w> 3090
al a 3088
mm er</w> 3084
ch o 3077
出 清</w> 3075
同 款 3074
as h</w> 3065
c ket</w> 3058
tt e</w> 3057
d r 3056
g el</w> 3056
st or 3055
te e</w> 3053
un d</w> 3051
wat er</w> 3047
寬 鬆 3045
sp e 3040
家 居 3033
ne ck</w> 3033
lar ge</w> 3029
sho p</w> 3023
pl ain</w> 3021
k ing</w> 3015
限 定 3015
prin ted</w> 3014
大容 量 3009
brac ele 3008
cu te</w> 3007
長 褲</w> 3003
hu awei</w> 3001
chan el</w> 3000
長 款 2995
c ap 2994
d ol 2992
用 品</w> 2992
micha el</w> 2991
白 色 2989
ter y</w> 2989
su per</w> 2987
蝴 蝶 2983
z ed</w> 2982
正 版 2981
too th</w> 2980
連 衣 2979
落 地 2974
ul tra</w> 2973
v it 2971
la r</w> 2964
n er</w> 2963
mo bi 2953
jac ket</w> 2953
si c</w> 2946
t ro 2941
襯 衫</w> 2937
car d</w> 2936
天 然 2923
so cks</w> 2914
w el 2913
限 時 2912
on ly</w> 2906
sp i 2905
gir ls</w> 2893
lo go</w> 2891
bo tt 2891
t on 2888
se xy</w> 2881
blue tooth</w> 2878
bracele t</w> 2877
爆 款 2876
co u 2867
保 暖 2862
bat tery</w> 2856
perfu me</w> 2853
pow er</w> 2847
舒 適 2846
居 家 2838
新 品</w> 2836
pre mi 2836
pp er</w> 2835
m er 2834
d ri 2832
條 紋 2831
t le</w> 2827
l ite</w> 2826
de n</w> 2823
兩 件 2821
ru bb 2820
香 奈 2819
x i 2817
da y</w> 2814
or ted</w> 2811
k a</w> 2810
通 用 2809
f ull</w> 2809
ki t</w> 2804
s n 2802
h ear 2800
衛 生 2797
外 套 2794
刺 繡 2790
大 碼 2788
sh e 2788
ke y</w> 2786
立 體 2785
背 心</w> 2785
d y 2784
專 櫃 2777
長 夾</w> 2775
m p</w> 2773
s qu 2772
水 晶 2772
寵 物 2771
ear rings</w> 2764
o ff 2758
設 計 2754
h i 2751
to y</w> 2750
c ur 2748
ap e</w> 2743
mobi le</w> 2743
wh it 2740
c a</w> 2739
an ti</w> 2737
進 口 2733
b re 2730
am p</w> 2730
短袖 t恤</w> 2723
保 濕 2719
歐 式 2718
k o</w> 2717
c able</w> 2716
ss en 2716
char ger</w> 2715
陶 瓷 2714
公司 貨</w> 2713
b en 2712
lo u 2711
安 全 2705
ap ple</w> 2704
se s</w> 2698
f e</w> 2697
w ar 2694
手拿 包</w> 2694
生 日 2686
pow der</w> 2677
ch ain</w> 2675
ju mp 2673
lon g 2668
小 戶 2667
a g 2662
z i 2659
ch es</w> 2659
限 量 2657
ey e 2657
按 摩 2652
ma de</w> 2652
wo o 2650
d er 2648
p h</w> 2644
br ush</w> 2643
me s</w> 2638
ma x 2630
衣 服 2625
f un 2623
打 底 2620
少 女 2617
mo tor 2617
medi um</w> 2614
water proof</w> 2613
ke y 2610
br and 2605
premi um</w> 2600
蘋 果 2598
實 拍</w> 2590
j ap 2590
n ing</w> 2588
su mmer</w> 2587
t al</w> 2584
sk in 2584
at ed</w> 2583
u r</w> 2580
d ar 2568
大 號 2564
ch i 2561
平 底 2560
no va</w> 2559
je ans</w> 2557
貼 紙</w> 2556
pr e</w> 2554
en ing</w> 2552
ba gs</w> 2548
col le 2546
bi g</w> 2543
re n 2540
rubb er</w> 2540
雙 肩 2539
皮 帶</w> 2535
ste el</w> 2531
用 品 2530
床 頭 2530
pri me</w> 2526
公 仔</w> 2524
s we 2523
wa y</w> 2521
h ar 2519
y a</w> 2519
賣 場</w> 2517
po uch</w> 2514
ou t</w> 2512
it ion</w> 2510
wi re 2506
en t</w> 2505
c and 2503
i s 2500
b ar 2498
co s 2498
ber ry</w> 2496
li c</w> 2495
k ors</w> 2491
日 本</w> 2490
d v 2488
wai st</w> 2485
n u 2484
t ing</w> 2482
g lu 2479
室 內 2479
小戶 型 2474
w in 2470
路 易 2470
por table</w> 2467
ct or</w> 2463
sleev es</w> 2462
情 趣 2461
宿 舍 2455
熱 賣 2453
c d</w> 2447
co mp 2446
v u 2445
su per 2445
o m</w> 2444
beau ty</w> 2439
娃 娃</w> 2435
板 鞋</w> 2434
s ch 2432
lo tion</w> 2432
bott le</w> 2424
m it 2423
v ic 2420
mag ic</w> 2420
t ur 2419
wire less</w> 2418
co m 2417
se cre 2413
d ed</w> 2410
n a</w> 2407
h a 2391
j a 2390
x s</w> 2381
香 水</w> 2378
清 新 2377
ff e 2377
prin t</w> 2377
c el 2373
st ar 2372
e ssen 2371
g ala 2371
tre n 2369
ty pe</w> 2365
路易 威 2364
ser ies</w> 2358
p u</w> 2350
鏈 條 2350
v o 2349
熱 賣</w> 2349
tt er</w> 2348
字 母 2343
ou t 2343
do u 2342
vu it 2340
k g</w> 2339
vi vo</w> 2339
s an 2337
正 韓 2337
l ine</w> 2330
tra vel</w> 2330
浴 室 2329
ap p 2329
gala xy</w> 2329
女 童 2327
m al</w> 2327
爆 款</w> 2326
購 物 2323
後 背包</w> 2323
皮 夾</w> 2322
氣 墊 2322
百 搭</w> 2318
bo ard</w> 2318
珍 珠 2315
吊 帶 2312
spor ts</w> 2310
er a</w> 2309
b und 2306
公 主 2306
di e</w> 2304
背 包 2302
手 錶 2301
br a</w> 2299
神 器 2297
di y 2297
雪 紡 2296
spor t</w> 2296
fro m</w> 2293
d o</w> 2292
t shirt</w> 2289
快 速 2286
whit ening</w> 2280
f ig 2277
籃球 鞋</w> 2277
日 系 2273
兩 用 2271
拉 鏈 2268
pap er</w> 2267
secre t</w> 2264
co n</w> 2261
bo y</w> 2261
cy cle</w> 2259
a o 2254
不 鏽 2253
on s</w> 2249
g ood</w> 2248
igh t</w> 2246
on g</w> 2243
car e</w> 2240
健 身 2239
h al 2236
p en</w> 2234
flo wer</w> 2234
p at 2233
as us</w> 2231
to ps</w> 2230
clas sic</w> 2225
保 溫 2219
sho ck</w> 2219
ri st 2214
吊 飾</w> 2213
雙 人 2211
cou ple</w> 2208
m or 2205
熱 銷 2205
s l 2204
m ir 2204
f in 2204
nat ur 2204
ne y</w> 2199
春 夏 2197
an g</w> 2194
stra p</w> 2192
包 包 2191
sel ling</w> 2191
lou is</w> 2190
高 腰 2189
lo go 2189
ass orted</w> 2189
c al 2187
小 舖</w> 2186
p il 2184
c ti 2183
bat h</w> 2181
ro se</w> 2180
商 品</w> 2179
c ap</w> 2178
as t</w> 2178
di g 2178
f it 2177
motor cycle</w> 2174
bund le</w> 2173
工 具 2170
禮 物 2169
hear t</w> 2169
藍 牙 2165
薄 款 2164
cas io</w> 2162
零 錢包</w> 2159
f en 2159
v al</w> 2155
d ra 2153
s cre 2150
k y 2148
ad e</w> 2147
編 織 2145
白 色</w> 2144
l l</w> 2138
女 裝 2137
單 人 2135
o z</w> 2133
防 摔 2131
娃 娃 2131
工 作 2126
實 拍 2126
熱 銷</w> 2124
in s</w> 2124
w ash 2123
智 能 2122
at ing</w> 2122
ra y</w> 2117
必 備</w> 2114
迪士 尼 2109
雙 層 2108
ele c 2107
clo th 2107
衛生 間 2106
沙 灘 2102
z z 2098
眼 鏡</w> 2092
純 銀 2090
清 潔 2090
石 英 2090
k ni 2088
鐵 藝 2088
l and</w> 2087
拼 接 2085
ho me</w> 2084
do or</w> 2077
ta ge</w> 2077
s y 2074
肩 背包</w> 2069
正 版</w> 2067
桌 面 2066
to ys</w> 2066
電 子 2065
男 款 2064
塑 料 2063
l an 2061
b ir 2058
v in</w> 2056
c m 2056
時 尚</w> 2054
ro und</w> 2054
l y 2051
us b 2051
e m</w> 2050
ho t</w> 2049
b ang 2048
stic ker</w> 2046
sh ir 2037
at e 2036
ad ul 2035
sp ea 2034
stri p 2034
dou ble</w> 2032
bel t</w> 2031
con ver 2028
餐 廳 2025
k n 2016
m on</w> 2014
in e 2014
c lu 2013
si li 2012
boo st</w> 2010
茶 幾 2007
b la 2007
org an 2004
jap an</w> 2003
st and</w> 2002
in spi 2000
p ack 1998
el s</w> 1996
char g 1996
專 業 1995
tw o</w> 1993
g a 1992
b and</w> 1992
inspi red</w> 1992
ac t</w> 1990
潮 牌 1988
ir e</w> 1988
d ing</w> 1986
ac ce 1984
mo use</w> 1984
聖 誕 1979
鞋 女 1978
char ac 1977
tin t</w> 1976
s mar 1974
配 件</w> 1974
保護 套</w> 1964
h a</w> 1962
專 用</w> 1962
男女 鞋</w> 1962
一 字 1960
ele ss</w> 1959
uni vers 1958
f an</w> 1956
ni ke 1956
p as 1955
p top</w> 1955
che c 1953
bro wn</w> 1953
vic tor 1952
p v 1951
r o</w> 1950
n s</w> 1950
p and 1948
te a</w> 1948
org ani 1946
dis ney</w> 1945
背 心 1944
大 尺 1943
vuit ton</w> 1943
愛迪 達</w> 1940
夏季 新款 1935
f ri 1934
g en</w> 1933
in ches</w> 1927
h on 1924
li qu 1923
ph o 1923
lu x 1921
跑步 鞋</w> 1921
b ra 1918
純 色 1917
家 居</w> 1916
二手 書</w> 1914
v el 1910
son y</w> 1907
三 葉 1904
lo o 1903
女 款 1900
下 標</w> 1899
p las 1898
短袖 t恤 1894
vin tage</w> 1893
ar y</w> 1887
限 定</w> 1886
遮 陽 1882
多 層 1880
mp er</w> 1880
f ol 1877
耳 機</w> 1876
ar a</w> 1875
ar m 1874
同 款</w> 1871
su pp 1870
univers al</w> 1868
r e</w> 1866
美 式 1866
壁 掛 1866
隨 身 1865
d as 1864
ss or 1864
短 褲 1863
a d</w> 1861
車 載 1861
ta ke</w> 1861
nat ure</w> 1861
涼 鞋</w> 1857
s au 1856
c at</w> 1855
布 藝 1853
sleev eless</w> 1852
am s</w> 1851
per son 1849
le tte</w> 1848
下 單 1846
s ne 1845
合 金 1843
飾 品</w> 1840
電 視 1838
ed ition</w> 1838
幼 兒 1837
皮 革 1834
s on</w> 1833
lo n</w> 1832
ban k</w> 1828
co o 1827
th er 1827
p lay 1822
s en 1819
韓 國</w> 1819
ic k</w> 1818
o s</w> 1817
acce ssor 1817
s a</w> 1816
cu t</w> 1816
高 跟 1815
擺 件 1815
cle ar</w> 1814
蝴蝶 結 1812
r s</w> 1811
ac e 1811
tri c</w> 1811
b ts</w> 1810
秋 季 1809
不鏽 鋼 1808
spea ker</w> 1808
y u 1807
動 漫 1807
bu y</w> 1807
辦公 室 1804
斜 背包</w> 1800
le y</w> 1798
plas tic</w> 1796
機 械 1795
彩 色 1795
厚 底 1793
錢 夾</w> 1790
charac ter</w> 1790
三 角 1789
s si 1787
雙 面 1787
to te</w> 1785
lip stick</w> 1784
彈 力 1782
at or</w> 1782
牛仔 褲</w> 1782
m o</w> 1781
on hand</w> 1781
n av 1779
ch il 1779
po cket</w> 1778
cam era</w> 1775
s m</w> 1774
項 鍊</w> 1774
方 形 1773
紅 色 1772
優 惠</w> 1770
se d</w> 1770
mil k</w> 1768
am po 1765
an a</w> 1763
mat e</w> 1763
am a</w> 1759
免運 費</w> 1758
黑 白 1756
經 濟 1752
fla t</w> 1750
shir ts</w> 1750
organi zer</w> 1750
s wit 1748
男 鞋 1748
be st</w> 1748
格 子 1746
natur al</w> 1745
c al</w> 1741
f ra 1739
圓 形 1738
le go</w> 1737
s y</w> 1735
飾 品 1735
cro p</w> 1735
p ra 1734
日 式 1734
fo re 1733
cand y</w> 1730
adul t</w> 1727
襯 衫 1725
colle ction</w> 1725
si de</w> 1724
gu ard</w> 1724
pp ing</w> 1722
ba r</w> 1720
t pu</w> 1719
on es</w> 1717
f le 1715
黑 白</w> 1715
陽 臺 1714
皮 套</w> 1713
藍 色 1713
swim suit</w> 1712
sh ad 1711
z en 1709
耳 機 1708
v 領 1706
ma h</w> 1706
k i</w> 1703
victor ia</w> 1700
du al</w> 1699
la u 1698
i e</w> 1696
腕 錶</w> 1696
liqu id</w> 1696
p ure</w> 1695
美 甲 1694
in t</w> 1694
b b</w> 1692
y el 1692
t or</w> 1690
三 件 1689
g ri 1686
kni t</w> 1684
am a 1683
k u 1681
少 年 1680
mic ro 1680
z oo 1675
f oo 1675
fre e 1675
dar k</w> 1675
d ge</w> 1672
i i</w> 1671
g ame</w> 1670
sp ray</w> 1669
手機 殼 1668
遊 戲 1667
st r 1667
ear s</w> 1666
ke t 1664
re mo 1663
me tal</w> 1663
je wel 1663
c er 1662
bo ys</w> 1661
n y 1660
情侶 鞋</w> 1660
po lo 1659
棒 球 1657
ch rist 1657
運動 鞋 1657
海 賊 1656
迪士 尼</w> 1656
adi das 1655
c at 1652
運 動</w> 1652
b or 1648
m d</w> 1648
a c</w> 1646
f ood</w> 1646
ru n</w> 1645
餐 桌 1644
dv d</w> 1641
mul ti 1639
yel low</w> 1638
und er 1637
scre en</w> 1637
mo i 1636
神 器</w> 1635
格 紋 1635
col ors</w> 1635
衛 衣</w> 1634
co ffe 1634
水 果 1632
ho use</w> 1631
organ ic</w> 1631
h app 1629
筆 記 1627
明 星 1627
accessor ies</w> 1626
b s</w> 1625
眼 鏡 1625
b y 1621
o w</w> 1620
kore a</w> 1620
連衣 裙 1620
dol l</w> 1618
綁 帶 1616
bal ance</w> 1616
g am 1615
w all</w> 1614
伸 縮 1614
th e 1609
cor n</w> 1609
ne t</w> 1606
cle ans 1606
coffe e</w> 1606
g lo 1605
優 惠 1602
w s</w> 1602
qu e 1602
學 院 1600
hig h 1600
sli m</w> 1600
ey e</w> 1600
長 版 1599
克 力 1596
整 理 1595
stri pe</w> 1595
斜 跨 1594
chan el 1594
ou r</w> 1593
短 夾</w> 1591
k y</w> 1591
藍 色</w> 1591
ar ri 1590
bo w</w> 1589
co st 1588
gra y</w> 1588
d mi</w> 1587
架 子 1587
下 標 1585
y e 1583
紅 色</w> 1582
休 閒</w> 1581
靜 音 1579
sp a 1577
ba n</w> 1576
brand ed</w> 1576
聯 名 1575
支 架</w> 1575
復 古</w> 1573
d ant</w> 1572
收 納</w> 1571
ma ke 1570
e p</w> 1568
a lo 1567
h d</w> 1567
情 人 1567
mi st</w> 1566
kn it 1566
hea d</w> 1563
or a</w> 1560
min i 1560
大 學 1559
成 新</w> 1558
m l 1557
ro mper</w> 1557
z y</w> 1556
全新 未 1556
動 物 1555
do g</w> 1554
椅 子 1553
防 塵 1552
發 票</w> 1551
洗 衣 1551
m g</w> 1550
正 韓</w> 1550
elec tric</w> 1550
粉 色 1549
古 馳 1548
di y</w> 1547
百 貨</w> 1542
conver se</w> 1542
sh ampo 1541
矽 膠 1540
ch er 1540
re p 1539
面 膜</w> 1538
透 氣</w> 1538
ch en</w> 1538
tren dy</w> 1536
英 倫 1534
par ty</w> 1533
lit tle</w> 1532
shampo o</w> 1532
展 示 1530
oo l</w> 1530
stor age</w> 1530
x r</w> 1526
鏤 空 1525
t an 1524
car to 1524
at er</w> 1522
origin als</w> 1522
加 絨 1521
a i</w> 1519
v ans</w> 1519
愛 心 1519
essen ti 1519
w ash</w> 1516
行 李 1514
專 屬 1514
d r</w> 1513
皮 帶 1511
支 架 1509
ko ut</w> 1509
定 制 1507
d ro 1506
m k 1505
玄 關 1505
ter s</w> 1505
gr ams</w> 1499
貓 咪 1497
c ra 1496
head set</w> 1496
四 季 1495
mul ti</w> 1495
smar t</w> 1495
超 薄 1494
pow er 1494
台灣 製 1493
jewel ry</w> 1493
in ch</w> 1492
sli p</w> 1492
錢 包 1491
書 桌 1490
女 孩 1489
t as 1488
t ain</w> 1484
下 殺 1483
冬 季 1483
c es</w> 1482
全 自動 1481
德 國 1481
c lip</w> 1480
fl y 1480
nav y</w> 1480
s ing 1479
pu ma</w> 1479
for ce</w> 1477
男 女</w> 1475
hoo die</w> 1475
質 感 1471
cloth es</w> 1471
make up</w> 1469
n ba</w> 1467
品 質 1467
促 銷</w> 1467
kin i</w> 1466
小 白 1465
st one</w> 1465
遙 控 1464
內 衣 1463
ti e</w> 1462
che ck</w> 1461
牛 皮</w> 1459
相 機 1459
con e</w> 1457
fac ial</w> 1457
co stu 1455
香奈 兒 1455
us t</w> 1454
swit ch</w> 1454
環 保 1450
適 用 1450
時尚 百搭 1450
g g</w> 1448
工 具</w> 1447
stre t 1445
s ur 1444
carto on</w> 1443
an ge</w> 1442
sand o</w> 1441
zoo m</w> 1438
c ry 1436
su pre 1435
arri val</w> 1435
衛 衣 1434
移 動 1434
b ear</w> 1433
拉 鍊 1433
配 件 1432
短 款 1432
電 池</w> 1431
v ing</w> 1431
ph i 1431
sch ool</w> 1431
內 褲</w> 1430
gi ft</w> 1430
vit am 1430
學 習 1427
li sh</w> 1426
收納 盒</w> 1424
b er</w> 1423
防 風 1423
輕 奢 1422
g low</w> 1421
l ler</w> 1420
廠 家 1420
skin ny</w> 1419
en g 1418
三 眼 1417
可 選</w> 1416
全 場 1416
on al</w> 1416
col la 1416
bro w</w> 1415
t c</w> 1413
收納 盒 1413
模 型 1411
海 外 1410
mic key</w> 1410
全 館 1409
sho ck 1409
char m</w> 1409
w el</w> 1408
男 童 1407
c c</w> 1407
仿 真 1407
la ptop</w> 1407
xi ao 1407
機 車 1406
fore ver</w> 1406
at s</w> 1405
手 鍊</w> 1404
f i</w> 1404
置物 架</w> 1403
pil low</w> 1402
cu p</w> 1401
美 容 1400
公 分</w> 1400
di o</w> 1400
fu l</w> 1399
h p</w> 1397
d ai 1397
靠 背 1394
wor ks</w> 1394
口 袋 1391
出 清 1391
qu e</w> 1390
尺 寸</w> 1388
ad ap 1388
ai d</w> 1387
so u 1387
k en 1386
沐 浴 1386
潮 流</w> 1385
中 長款 1385
prote ctor</w> 1385
f one</w> 1383
新款 韓版 1383
plu s 1383
生活 館</w> 1383
耳 環 1382
pe t</w> 1382
a j</w> 1381
批 發</w> 1380
fash ion 1380
n on</w> 1379
ci l</w> 1377
s l</w> 1374
happ y</w> 1374
設 計</w> 1373
t ab 1372
sp f</w> 1372
tr o</w> 1371
甜 美 1368
bal lo 1368
dig it 1368
xiao mi</w> 1368
ac ti 1367
手 環</w> 1365
on d</w> 1365
服 裝 1364
巴 寶 1364
香 港 1360
at a</w> 1360
春 秋 1359
ar i 1359
e f</w> 1358
精 華 1358
bur berry</w> 1356
a f</w> 1355
s o</w> 1354
衣 服</w> 1354
el l</w> 1354
女 包 1353
sili cone</w> 1353
o m 1352
pan ty</w> 1352
cry st 1352
l amp</w> 1351
氣 墊</w> 1351
max i</w> 1350
流 蘇 1347
耐 吉 1347
di or</w> 1347
鋼 化 1345
pen dant</w> 1344
r or</w> 1343
組 合</w> 1342
it al 1342
mm y</w> 1341
chec kout</w> 1339
手 作 1338
i pad</w> 1337
春 季 1337
原 裝 1336
yo u</w> 1336
金 色 1331
風 扇</w> 1331
in er</w> 1329
gh t</w> 1329
uni corn</w> 1329
c li 1328
shi pping</w> 1326
s w 1325
小 孩 1324
costu me</w> 1323
超 級 1322
模 型</w> 1322
te es</w> 1321
at i 1320
韓 版</w> 1319
女 鞋 1318
日 版</w> 1317
strip es</w> 1317
b and 1316
拖 鞋 1316
pa j 1316
av ai 1316
ren t</w> 1316
h an 1315
fr on 1315
中 文 1313
保護 殼</w> 1313
頂 級 1312
bu tt 1312
編 織</w> 1311
s no 1310
v a 1310
shad ow</w> 1310
zen fone</w> 1310
in a</w> 1309
cos me 1309
k ers</w> 1307
w il 1306
re l</w> 1306
ital y</w> 1306
愛迪 達 1305
knit ted</w> 1305
旋 轉 1304
自 行 1303
bo dy 1303
swim wear</w> 1303
經 典</w> 1302
pen cil</w> 1302
li fe</w> 1299
香奈 兒</w> 1299
耐 吉</w> 1297
床 上 1296
全新 現貨</w> 1295
夏 天 1294
書 架 1294
長 褲 1293
棉 麻 1292
ma s</w> 1292
中 國 1291
ar t</w> 1290
n md</w> 1289
台灣 現貨</w> 1289
to wel</w> 1287
sne ak 1287
f ast</w> 1286
bi kini</w> 1285
塑 膠 1284
ri bb 1283
co ach 1282
ser um</w> 1282
訓 練 1281
am p 1278
mir ror</w> 1278
空 氣 1276
lo ck</w> 1276
con d 1276
經濟 型 1276
音 樂 1275
桌 子 1275
下 單</w> 1273
fra gr 1271
n ight</w> 1270
打 孔 1270
阿 瑪 1270
ele g 1270
hand bag</w> 1270
s al 1269
po l 1269
古 奇 1268
tor y</w> 1268
digit al</w> 1268
m y 1266
m er</w> 1266
st ring</w> 1265
se y</w> 1265
l un 1264
西 裝 1264
ea u</w> 1264
裝 飾</w> 1263
蘋 果</w> 1263
si ve</w> 1263
五 分 1262
fre sh</w> 1262
抽 屜 1259
el ly</w> 1259
小 米 1258
th er</w> 1258
小 清新 1257
可 調 1256
su n</w> 1256
連衣 裙</w> 1256
fig ure</w> 1256
翻 蓋 1255
c r 1253
e mb 1252
水 桶 1252
單肩 包 1252
防 水</w> 1251
a o</w> 1250
無 袖 1250
預 購 1250
cho col 1250
品 牌 1248
sel ler</w> 1248
v an 1247
貼 紙 1247
cu sto 1247
a h</w> 1246
套 頭 1244
游 戲 1244
glas ses</w> 1244
can v 1244
t g</w> 1243
一 體 1243
日 韓 1242
ch ic 1242
特 惠</w> 1241
pl an 1241
青 年 1239
路易威 登</w> 1239
or ange</w> 1238
she et</w> 1238
手 套</w> 1236
內 衣</w> 1236
全新 正品</w> 1236
len s</w> 1236
s k</w> 1235
cro ss</w> 1235
斜挎 包 1235
ki d</w> 1234
d or 1233
or der</w> 1233
b t</w> 1232
臺 式 1232
l d</w> 1232
z en</w> 1232
高 清 1232
re al</w> 1231
lu ck 1231
ka y</w> 1231
a qu 1230
香 水 1229
che e 1228
蛋 糕 1226
家 用</w> 1226
shock proof</w> 1226
ou s</w> 1225
cost e</w> 1225
行 動 1224
to yo 1224
bas ket 1223
d s 1222
sneak ers</w> 1220
小 方 1219
p ad 1219
m ac 1219
必 備 1219
擺 件</w> 1219
gen u 1218
全 包 1217
ci al</w> 1217
ligh t 1217
la coste</w> 1216
pp ers</w> 1215
輕 便 1214
梳 妝 1214
增 高 1213
o em</w> 1211
squ are</w> 1211
貝 殼 1210
basket ball</w> 1210
sing le</w> 1209
it h</w> 1208
v en</w> 1207
f ab 1207
英 國 1206
便攜 式 1206
f an 1205
genu ine</w> 1205
in ten 1204
g ro 1203
唇 膏</w> 1203
s po 1201
公 仔 1200
las h</w> 1199
r ac 1198
米 奇 1198
vitam in</w> 1198
車 用 1197
ni e</w> 1197
cryst al</w> 1197
小 香 1196
c en 1195
腰 帶</w> 1195
ra in 1195
可 愛</w> 1193
j i 1193
包 裝 1192
小 熊 1190
fl y</w> 1189
p ear 1187
衣 架 1187
禮 盒</w> 1187
ar m</w> 1187
z ing</w> 1185
i ph 1185
w n 1185
ic al</w> 1185
d c</w> 1183
i mp 1183
re al 1182
商 品 1181
g ger</w> 1180
背 景 1180
kit chen</w> 1180
hand le</w> 1180
fri en 1180
di am 1179
mi o</w> 1179
eleg ant</w> 1179
mi x</w> 1178
fo am</w> 1178
key chain</w> 1178
toyo ta</w> 1178
r a</w> 1176
sto ck</w> 1176
指 甲 1175
bi e</w> 1175
適 用</w> 1174
精 緻 1174
x l 1173
cher ry</w> 1173
mic ro</w> 1171
海賊 王</w> 1171
v et</w> 1170
z o 1170
t ape</w> 1169
w l</w> 1169
col or 1169
t al 1166
毛 衣</w> 1166
工 業 1166
sh a 1166
one si 1165
run s</w> 1165
推 薦</w> 1164
抖 音 1163
化妝 包</w> 1163
帆布 鞋</w> 1163
per fe 1162
ap pa 1159
he al 1159
am i 1158
it ion 1157
un der</w> 1157
學院 風 1157
t v</w> 1156
媽 媽 1156
中 式 1156
進 口</w> 1156
gg ings</w> 1154
wh e 1153
on ic</w> 1152
f a 1151
跑 鞋</w> 1151
童 裝</w> 1150
p a</w> 1149
ma t</w> 1149
神 奇 1148
b ul 1146
z e 1146
泡 泡 1146
優 質 1145
愛 馬 1144
t ure</w> 1141
英 文 1141
ea ble</w> 1141
hon da</w> 1140
fr ame</w> 1138
p on 1136
家 具 1136
雜 貨 1135
直 筒 1134
戒 指</w> 1134
g ol 1133
ic s</w> 1133
ma ke</w> 1131
over runs</w> 1131
j er 1130
colla gen</w> 1130
b on 1129
十 字 1129
生 活</w> 1127
孕 婦 1126
er ing</w> 1126
四 件 1124
鑰匙 圈</w> 1124
周 邊 1123
it e 1123
cap su 1123
羊 皮 1122
洗 手 1122
台灣 製</w> 1121
路易威 登 1121
po d</w> 1119
bu tton</w> 1118
g lit 1117
f er 1117
li mit 1117
雙肩 包</w> 1116
磨 砂 1115
時尚 潮流 1115
ju st 1115
chocol ate</w> 1115
co mb 1114
手提 包 1113
essenti al</w> 1111
泰 國 1109
耐 克 1108
m ale</w> 1106
mon o 1106
appa rel</w> 1106
ton er</w> 1105
y l</w> 1104
無 痕 1104
寶 可 1104
p le 1103
糖 果 1103
高 檔 1102
k le</w> 1101
筆記 本 1101
re dmi</w> 1100
t s 1099
藍 芽 1099
帽 t</w> 1099
adap ter</w> 1099
t w</w> 1098
老 爹 1098
法 國 1098
荔 枝 1097
禮 品 1095
百 貨 1094
最 新 1093
阿 迪 1093
j an 1092
內 搭 1092
ca ke</w> 1091
n ail</w> 1090
li n</w> 1090
k le 1089
con tro 1089
canv as</w> 1089
wo mens</w> 1088
腳 踏 1087
tu be</w> 1087
b v 1086
原 宿 1086
ne w 1086
mon th 1086
her mes</w> 1086
耐 磨 1085
for mal</w> 1085
zi pper</w> 1085
fashion able</w> 1085
g y</w> 1084
z ara</w> 1084
w ra 1084
ig e</w> 1084
x xl</w> 1083
te l</w> 1082
可 拆 1081
空 調 1080
p in 1079
游 泳 1079
c an</w> 1079
an o</w> 1079
paj ama</w> 1079
d ry</w> 1078
棉 質 1078
持 久 1078
chil dre 1078
p lay</w> 1077
簡 約</w> 1076
sh i</w> 1076
b o</w> 1075
co at</w> 1075
di sp 1075
休閒 運動 1075
c ity</w> 1074
ch able</w> 1074
花 朵 1073
cor e</w> 1073
po s 1072
fun ko</w> 1071
家 具</w> 1070
紀 念 1070
ti me</w> 1070
au to 1069
cle an 1069
run ning</w> 1069
s mo 1068
m bl 1068
el d</w> 1068
b le 1066
gu e 1066
fron t</w> 1066
g un 1065
bu m</w> 1065
彈 性 1064
造 型</w> 1064
re n</w> 1064
t at 1063
ce ss</w> 1063
t b</w> 1062
垃 圾 1062
ph ones</w> 1062
s at 1060
通 用</w> 1060
水 洗 1060
女 性 1060
二手 書 1060
老 花 1059
快速 出貨</w> 1059
夏 裝 1058
硅 膠 1058
初 學 1057
牛仔 褲 1057
sau di</w> 1057
官 方 1056
木 質 1055
保護 貼</w> 1055
limit ed</w> 1055
t p</w> 1054
日本 製</w> 1054
supre me</w> 1053
b l</w> 1052
情侶 款</w> 1052
s d</w> 1051
隱 形 1051
woo d</w> 1051
s old</w> 1050
禮 盒 1050
批 發 1050
板 鞋 1049
jump suit</w> 1049
毛 衣 1045
風 格 1045
bi es</w> 1045
三葉 草</w> 1045
新 生 1044
bl an 1044
pur se</w> 1044
強 力 1043
mi c</w> 1043
sli ppers</w> 1043
免 打孔 1042
p air</w> 1041
男 孩 1041
li e</w> 1041
植 物 1040
招 財 1040
re s</w> 1040
涼 鞋 1039
luck y</w> 1039
男 款</w> 1038
b al</w> 1036
收納 架 1036
ro y 1034
t t</w> 1032
外 線 1032
品 質</w> 1032
可 折疊 1031
le ggings</w> 1031
s p</w> 1030
毛 絨 1030
f ru 1030
世 界 1030
韓版 潮流 1029
t ail</w> 1028
y o</w> 1028
y ears</w> 1028
荷 葉 1028
si mp 1028
客 訂</w> 1027
ber ry 1026
vel vet</w> 1026
洗 髮 1025
ko k</w> 1025
粉 色</w> 1024
扭 蛋</w> 1024
撞 色 1024
大尺 碼 1024
month s</w> 1024
h ang 1023
fly knit</w> 1022
小 包</w> 1021
男 裝 1019
bo x 1019
la dy</w> 1018
woo den</w> 1017
帶 回</w> 1016
圍 巾</w> 1015
diam ond</w> 1015
歐 洲 1014
c y</w> 1014
星 星 1014
婚 禮 1014
re tro</w> 1014
sho e</w> 1014
沙 發</w> 1013
que en</w> 1013
pear l</w> 1012
小 號 1011
bir th 1010
bang kok</w> 1010
台灣製 造</w> 1010
childre n</w> 1010
k l</w> 1009
boo ks</w> 1009
黃 金 1008
tr an 1008
廠家 直 1008
kit ty 1007
自 然 1006
ba by 1006
ap er</w> 1006
e p 1005
pu mp</w> 1005
電 源</w> 1004
k er 1004
w e</w> 1002
bla zer</w> 1002
送 一</w> 1001
ic ial</w> 1001
co in</w> 1000
酒 店 998
色 可選</w> 997
摩 托 997
charg ing</w> 997
le gen 995
k ate</w> 994
促 銷 993
親 子 993
v y</w> 992
抱 枕 992
ri c</w> 992
超 輕 991
低 幫 991
person ali 991
碎 花 989
流 行 988
st ate 988
no t</w> 988
cond ition 988
h il 986
dri ve</w> 986
w ire</w> 985
合 一 985
k in</w> 984
洋 裝 984
bur berry 984
spe cial</w> 984
re ju 981
christ mas</w> 981
補 水 980
皮 革</w> 979
a f 978
y rs</w> 978
ne ss</w> 978
ro id</w> 977
j elly</w> 976
pp ed</w> 976
or i 975
te ster</w> 975
man i</w> 975
計 時 974
to uch</w> 974
圖 案 973
墨 鏡</w> 973
la ble</w> 972
玩 偶</w> 971
基 本 971
ear phone</w> 970
fi er</w> 970
wash able</w> 970
state ment</w> 970
便 宜 969
er o</w> 969
角 落 968
風 扇 967
出 貨 966
豆 豆 966
pa lette</w> 965
情侶 款 965
f ir 964
九 分 964
th ai 964
ad just 964
gre y</w> 963
ye e 963
寫 字 962
am er 962
阿迪 達 961
機 器 960
p ul 959
m ol 959
情人 節 959
純 棉</w> 958
u v</w> 957
c ri 957
釣 魚 957
st er 957
粉 紅 956
colo ur 956
大 理 955
抱 枕</w> 955
jo gger</w> 955
m ach 954
i r</w> 954
c c 954
益 智 954
ver y</w> 954
平 板 953
ba vin</w> 952
保護 套 952
power bank</w> 952
h i</w> 951
客 製 951
品 牌</w> 951
mm ing</w> 951
gra ph 951
fil ter</w> 951
電 源 950
灰 色</w> 950
攝 影 950
se mi</w> 950
古 馳</w> 949
ar mani</w> 949
slee p 949
改 裝 948
in o</w> 948
to dd 948
wh o 947
bor n</w> 946
充 氣 945
m bo 945
腰 包</w> 945
智 慧 944
or t</w> 944
ro i 944
pri ce</w> 944
s co 943
女 神 942
mar vel</w> 942
clas s</w> 942
t ai 941
t ch</w> 941
特 惠 941
j o</w> 941
優 雅 941
stu ri 941
pv c 941
材 料</w> 940
ba g 939
托 特 938
ar mo 938
現貨 供 937
pand ora</w> 937
co ol</w> 936
and roid</w> 936
女 款</w> 935
生日 禮物</w> 935
bi ke</w> 934
pv c</w> 934
ribb on</w> 934
w a</w> 933
狗 狗 933
moi sturi 933
out door</w> 932
睡 衣 931
at ion 931
re l 930
blu sh</w> 930
he els</w> 930
限 量</w> 929
al bum</w> 929
ru b</w> 929
prin cess</w> 929
材 質</w> 928
拼 色 928
商 用 928
收納 袋</w> 928
fab ric</w> 928
素 面 927
材 料 926
素 色 926
ur a</w> 926
ing er</w> 926
m c 925
滑 板 925
直 播 924
in st 923
sc en 923
clo th</w> 923
奶 茶 922
adjust able</w> 922
大 利 921
藝 術 921
萬 用 920
頭 層 920
fragr ance</w> 920
personali zed</w> 920
r x</w> 919
淡 香水</w> 919
冰 絲 919
帽 子 918
re ad 918
ju ice</w> 918
too l</w> 918
comp le 918
perfe ct</w> 918
翻 領 917
l am 916
包 裝</w> 916
寶 貝 916
小 腳 914
巴 黎 914
洋 氣 914
休閒 鞋 914
off ice</w> 914
大學 t</w> 914
al u 912
l i</w> 911
長 方形 911
升 降 911
ar o 911
jer sey</w> 911
g le</w> 910
馬 克 910
腰 帶 910
mar i 910
f t 909
re charg 909
sp ade</w> 909
美國 代購</w> 909
國 際 908
uni q 908
f ur 907
男 錶</w> 907
ro om</w> 907
glu t 907
e ds</w> 906
客 訂 906
房 間 905
ma c</w> 905
半 袖 904
ballo on</w> 904
condition er</w> 904
a 字 903
寶 貝</w> 903
custo mi 903
t one</w> 902
固 定 902
tr u 902
柔 軟 901
bl ack 901
g oo 900
pra da</w> 900
ar t 898
灰 色 897
be ach</w> 897
ed ge</w> 897
打底 衫 897
pho to 897
ic a</w> 896
mag ne 896
pie ces</w> 896
魔 法 895
it i 895
餐 具 894
ti cs</w> 894
現貨 免運</w> 894
car ds</w> 894
bas ic</w> 893
男 包</w> 892
桌 椅 891
real me</w> 891
遊 戲</w> 890
青 少年 890
thai land</w> 890
水 杯 889
avai lable</w> 889
v ac 888
舒 適</w> 888
da m</w> 888
mb er</w> 888
a z 887
長 袖</w> 887
mo s</w> 887
air po 887
j i</w> 886
洗 澡 886
us a</w> 886
fo und 886
h er</w> 885
連 體 885
tan k</w> 885
h k</w> 884
帽 子</w> 884
er o 884
sel f</w> 884
birth day</w> 884
b len 882
代 理 882
保 證 882
sh a</w> 882
no te 882
emb roi 882
yee zy</w> 882
推 車 881
收納 包</w> 881
櫻 花 880
阿瑪 尼 879
ir on</w> 878
stret chable</w> 878
mat ic</w> 877
blo ck</w> 876
毛 巾 875
尖 頭 875
co de</w> 875
g ap</w> 874
太陽 眼鏡</w> 874
w are</w> 872
枕 頭 872
自行 車 872
手 機</w> 871
p in</w> 871
mo un 870
fil a</w> 870
購物 袋</w> 870
羊 毛 869
ko be</w> 869
登 山 868
r al 867
凳 子 867
gam ing</w> 867
wra p</w> 867
露 肩 866
g ar</w> 865
中文 版</w> 865
大理 石 865
迷 彩 864
男女 款</w> 864
fo il</w> 864
d able</w> 863
y sl</w> 862
一 組</w> 862
馬 桶 862
ver sion</w> 862
off icial</w> 862
t d</w> 860
wor ld</w> 860
ch u 859
l g</w> 858
pur ple</w> 858
com for 856
mach ine</w> 856
colo red</w> 855
recharg eable</w> 855
麥 克 854
it s</w> 854
e y</w> 852
g y 852
鋁 合金 852
dre am</w> 852
保 鮮 851
真 空 851
實 用 851
食 品 850
f lip</w> 850
浪 漫 849
ch amp</w> 849
便 當 848
膠 帶</w> 848
ne o 848
n b</w> 847
stic kers</w> 847
found ation</w> 847
原 價</w> 846
ss a</w> 846
b ed</w> 845
原 單</w> 845
航 海 845
u sed</w> 843
鬆 緊 843
桌 子</w> 843
cti ve</w> 843
x a</w> 842
co sp 842
te ch</w> 842
eye brow</w> 842
茶 具 841
me t</w> 841
美 國</w> 840
酒 吧 840
swe et</w> 840
y sl 839
b on</w> 838
肩 帶 838
密 封 838
魔 術 837
床 邊 837
a a</w> 836
周 邊</w> 836
to m</w> 836
cleans ing</w> 835
butt er 835
小 牛皮 834
s f</w> 834
卡 夾</w> 834
特 賣</w> 834
alo e</w> 834
媽 咪 833
cro ss 833
喇 叭 832
摺 疊 832
air s</w> 832
尼 龍 830
f lash</w> 830
gue ss</w> 830
x s 829
de l</w> 829
ey el 829
三葉 草 829
書 房 828
綠 色 828
pl ate</w> 828
女 裝</w> 827
me ter</w> 826
七 分 824
巴寶 莉 824
y ama 823
反 光 823
too th 823
y our</w> 822
外 穿 822
p al 822
arm or</w> 822
斜跨 包</w> 822
wa ve</w> 821
arm ani 821
全 棉 820
風 衣 820
包 屁 819
dra g 819
h at</w> 818
夏 日 818
wo man</w> 818
收納 架</w> 818
輕 量 817
禮 服 817
街 頭 817
優 品</w> 817
w on 817
組 裝 817
wal l 817
s or</w> 816
網 面 816
y a 815
軟 殼</w> 815
噴 霧</w> 815
羽 絨 815
se i 815
結 婚 814
台灣 現貨 813
t su 812
電腦 桌 812
美 白 811
se a 811
lay er</w> 811
書 包</w> 810
太 空 810
活 動 810
u kay</w> 809
s ing</w> 809
噴 霧 809
in f 809
her o</w> 809
洗 臉 808
廁 所 808
head band</w> 808
dd ing</w> 808
ro ller</w> 807
lu tion</w> 806
un g</w> 805
bo t 805
女 錶</w> 804
co ol 804
小 說</w> 803
w r 803
普 拉 803
附 購 802
麂 皮</w> 802
電 池 801
景 品</w> 801
ni s 801
內 褲 800
sh ar 800
眼 影 799
al ph 799
car ter</w> 799
sc rub</w> 799
cur tain</w> 799
手 持 798
加 大 798
附 發票</w> 798
修 護 798
ma y 798
日本 代購</w> 798
wi fi</w> 798
pl ated</w> 798
bal m</w> 798
v ol 797
網 紗 797
短袖 上衣</w> 797
brand new</w> 797
三 麗 796
外 出 796
k ar 796
i p 796
an e 796
mi x 796
key board</w> 796
鏈條 包</w> 796
三 星 795
纖 維 794
彩 虹 793
菱 格 793
re o</w> 793
pro du 793
chee k</w> 793
包 臀 792
精 華</w> 792
do wn</w> 792
tu mbl 792
大容 量</w> 792
隔 斷 791
be d 791
hu man</w> 791
t r</w> 790
短 版 790
公 文 790
三 星</w> 789
m r</w> 789
in fin 789
長 裙</w> 788
寶 二手書 788
re e 788
prote ction</w> 788
s b</w> 787
水 鑽 787
c g</w> 787
緊 身 787
咖 啡</w> 787
半 身 786
配 色</w> 786
良 好</w> 786
fi ber</w> 786
long sleeve</w> 786
經典 款 785
文 具 784
te n</w> 784
寶 寶</w> 783
e as 782
d es</w> 782
di or 782
si s</w> 782
an na</w> 781
原 創 780
z a</w> 779
li ps</w> 779
h o</w> 778
pur po 778
g et</w> 777
睫 毛 777
jump er</w> 777
a k</w> 776
w ing</w> 776
乾 燥 776
ri e</w> 776
sp on 776
跑步 鞋 776
小 學生 775
華 為 775
吸 頂 775
over run</w> 775
休閑 鞋</w> 774
av on</w> 774
懶人 鞋</w> 774
ral ph</w> 774
n or 773
lo t</w> 773
h or 772
g er 772
水 壺</w> 772
摩托 車 772
p ull</w> 771
polo 衫</w> 770
紫 外線 769
to i 769
z u 768
m all</w> 768
c er</w> 768
ac tion</w> 768
pa wn 768
d on 767
防 護 767
高 品質 767
x t</w> 767
st on</w> 767
pa ds</w> 767
褲 子</w> 766
tt i</w> 766
one y</w> 766
全館 免運</w> 766
e s 765
u p 765
am ic</w> 765
bi o 764
鋼化 玻璃 764
防 刮 763
m x</w> 763
c lay</w> 763
鑽 石 763
eye shadow</w> 763
初學 者 763
寶二手書 t</w> 763
s so 762
書 寶二手書t</w> 762
自 慰 762
吊 燈 762
睡 衣</w> 762
化妝 品 762
ne o</w> 761
cleans er</w> 760
粉 底 759
高 端 759
小 鋪</w> 758
衣 架</w> 758
超 大 758
幾 何 758
le x</w> 758
pol ka</w> 758
小 米</w> 757
s ses</w> 757
純 銀</w> 757
we dge</w> 757
泳 衣 756
in nis 756
me sh</w> 756
fol dable</w> 756
lau ren</w> 756
一 次 755
童 裝 755
di aper</w> 755
swe ater</w> 755
li ving</w> 754
foo t</w> 754
手 作</w> 753
p ic 753
門 口 753
ff on</w> 753
fe ssi 753
正品 代購</w> 753
老爹 鞋</w> 753
高 幫 752
it o</w> 752
kle in</w> 752
感 應 751
for d</w> 751
armo ur</w> 750
首 飾 749
bo y 749
de li 749
ad he 749
ani mal</w> 749
連帽 外套</w> 749
chi ffon</w> 749
todd ler</w> 749
褲 子 748
re si 748
il y</w> 748
hal ter</w> 748
customi zed</w> 748
fac e 747
x r 746
r ack</w> 745
夜 光 745
f s</w> 745
仙 女 744
uniq lo</w> 744
sp ar 743
刷 毛 742
麵 包 741
colour pop</w> 741
卡 西 740
座 椅 740
shi eld</w> 740
下單 區</w> 740
文 藝 739
ni c</w> 738
秋冬 新款 738
玫瑰 金 738
過 濾 737
se l</w> 737
tre e</w> 737
hal f</w> 737
托特 包</w> 737
d on</w> 736
裝飾 品 736
粗 跟 735
現貨供 應</w> 735
yama ha</w> 735
a ker</w> 734
s c</w> 734
帶 蓋 734
de co 734
glu ta</w> 734
essen ce</w> 734
iph one 734
儲物 柜 732
交 叉 731
七 龍 731
鑲 鑽 731
榻 榻 731
經典 款</w> 731
fru it</w> 731
客廳 臥室 730
fir st</w> 730
e x</w> 729
n ur 729
樂 高</w> 729
ke n</w> 729
spe ed</w> 729
l t</w> 728
l er 728
sh ion</w> 728
th ing</w> 728
mar c</w> 728
sa fe 728
sou ven 727
保 固</w> 726
記 憶 726
學生 宿舍 726
小 物</w> 725
g h</w> 725
n ar 725
品 下殺</w> 725
全新未 拆</w> 725
k u</w> 724
pho to</w> 724
全 套 723
f am 723
喇 叭</w> 723
推 車</w> 723
烘 焙 723
to mic 723
de red</w> 723
body con</w> 723
搭 配 722
坐 墊 722
積 木 722
st ed</w> 722
潮 男 721
i an</w> 721
l ink</w> 720
系 帶 720
瑜 伽 720
re pl 720
li ca</w> 720
cor d</w> 720
bur ch</w> 720
comple te</w> 720
窗 簾 719
mas sa 719
生日 禮物 719
兒 童</w> 718
家 庭 718
ch ro 718
lon e</w> 718
pack age</w> 718
專屬 賣場</w> 718
手 表 717
m b</w> 717
鞋 子 717
de cor 717
tt y</w> 717
fessi onal</w> 717
吊 墜 716
supp ort</w> 716
magne tic</w> 716
鞋 柜 715
ear ring</w> 715
ex ten 715
雙 色 714
sh ine</w> 714
寶可 夢</w> 714
cel l 713
書 包 712
馬 卡 712
as e</w> 712
gun dam</w> 712
闊 腿 711
so s</w> 711
牛 奶 710
全 身 710
under wear</w> 710
件 組</w> 709
旗 艦 709
g t</w> 708
l ing 708
v i</w> 708
c f</w> 708
完 美 708
耳 釘 708
po ke 708
el a</w> 708
t u</w> 707
三 層 707
拉 拉 707
定 制</w> 707
ac ry 707
fen di</w> 707
健 康 706
腕 錶 706
隔 熱 706
note book</w> 706
奢 華 705
慢跑 鞋 705
v ap 704
ki e</w> 704
cu shion</w> 704
por t</w> 704
strip ed</w> 704
reju ven 704
tumbl er</w> 704
童 鞋</w> 703
ver a</w> 703
ta g</w> 703
d ata</w> 702
g r</w> 702
包 郵</w> 702
聯 名</w> 702
桌 上 702
bra ke</w> 702
o h</w> 701
x e</w> 701
mi s 701
ss y</w> 701
e tu 700
夜 店 700
n a 699
拉 桿 699
法 式 699
空 間 699
ol s</w> 699
r at 698
mo del</w> 698
lov e 698
stu d</w> 698
capsu les</w> 698
衣 帽 697
夏 季</w> 697
col d</w> 697
立 式 696
海 洋 696
戒 指 696
檸 檬 696
鉛 筆 696
le ts</w> 696
min t</w> 696
ins 風 696
butter fly</w> 695
acry lic</w> 695
手 動 694
學 生</w> 694
短 裙</w> 694
su gar</w> 694
裙 子 693
衣 物 693
香 氛 693
偏 光 693
to mmy</w> 693
lu s</w> 693
tr ans 693
fl ats</w> 693
修身 顯瘦 692
fil m</w> 692
har d 692
aqu a</w> 692
pos able</w> 692
套 組</w> 691
拍 照 691
bv l 691
精 油 690
羅 馬 690
水桶 包</w> 690
數 位 689
pro fessional</w> 689
籃球 鞋 689
美 人 688
零 食 688
飛 機 688
項 鏈</w> 688
綠 色</w> 688
at es</w> 688
pra da 688
contro l</w> 688
or e</w> 687
dis posable</w> 687
can on</w> 687
rel la</w> 687
襪 子 686
鴨 舌 686
li d</w> 686
purpo se</w> 686
原 單 685
螢 幕 685
an y</w> 685
adhe sive</w> 685
多 肉 684
淡 香 684
公司 貨 684
cal vin</w> 684
bvl gar 684
發 貨</w> 683
ang le</w> 683
t an</w> 682
p an</w> 682
m us 682
c p</w> 682
露 營 682
冰 箱 682
比 基 682
inf ant</w> 682
項 鏈 681
tran spa 681
絕 版 680
min nie</w> 680
手 包</w> 679
型 號</w> 679
le e</w> 679
le mon</w> 679
ach e</w> 679
fro zen</w> 679
super star</w> 679
幼兒 園 679
h tc</w> 678
e t 678
g ear</w> 678
ti n</w> 678
收納 柜 678
we dding</w> 678
par is</w> 678
秋冬 季 678
rejuven ating</w> 678
in ter 677
cu tter</w> 677
ati ve</w> 677
耐 克</w> 676
空 壓 676
s i</w> 675
l cd</w> 675
標 準 675
en s</w> 675
bu il 675
war s</w> 675
ky rie</w> 675
ny lon</w> 675
innis free</w> 675
機 家用 674
史 努 674
東 京 674
耳 釘</w> 674
ro se 674
ru ff 674
hy dr 674
cosme tics</w> 674
愛馬 仕 674
e u 673
s er</w> 673
絨 毛 673
mi d</w> 673
gu lar</w> 673
變 頻 672
ur ban</w> 672
ang el</w> 672
ex o</w> 672
ord in 672
transpa rent</w> 672
b m 671
水 壺 671
襪 子</w> 671
超 人 671
積 木</w> 671
de o</w> 671
pp y</w> 671
全新 正品 671
連身 裙</w> 671
轉 接 670
漁 夫 670
bi t</w> 670
充電 器</w> 670
d le</w> 669
球 鞋</w> 669
功 夫 669
re e</w> 669
ter n</w> 669
大尺 碼</w> 669
航海 王</w> 669
deco r</w> 669
漫 畫</w> 668
person al</w> 668
真 皮</w> 667
夾 克 667
h oney</w> 666
f lu 666
fe male</w> 666
sl ing 666
str ai 666
who le 666
sea led</w> 666
etu de</w> 666
龍 頭 665
美 樂 665
慢 跑</w> 665
w m 665
專 賣 665
秒 殺</w> 665
帥 氣 665
wil d</w> 665
聖 羅 664
le x 664
al lo 663
休閑 鞋 663
棒球 帽</w> 663
行動 電源</w> 663
點 點 662
微 波 662
最 新款 662
ch et</w> 662
se at</w> 662
el la</w> 662
stu ff 662
vin yl</w> 662
pawn able</w> 662
tomic a</w> 662
大 氣 661
u a</w> 661
滿 版 661
資 料 661
新 娘 660
s ol 660
il la</w> 660
新品 上 660
wall paper</w> 660
勞 力 659
ro u 659
pu b 659
flo w 659
大 型 658
len ci 658
全新 品</w> 657
雙肩 包 657
榻榻 米 657
s sed</w> 656
第 一 656
ex tra</w> 656
long champ</w> 656
graph ic</w> 656
t ar 655
發 光 655
中 性 655
日 常 655
超 值 655
情 侶</w> 655
安 卓 655
se eds</w> 655
sm ith</w> 655
fit s</w> 655
o v 654
拼 圖</w> 654
ki a</w> 654
simp le</w> 654
t un 653
自 拍 653
高 級 653
car a</w> 653
pe sos</w> 653
ath ering</w> 653
ba bies</w> 652
cu s</w> 652
bas e 652
rain bow</w> 652
pon y</w> 652
cell phone</w> 652
a ero 651
水 晶</w> 651
m am 651
c d 651
吧 臺 651
單肩 斜挎包</w> 651
s car 650
魔 鬼 650
si ble</w> 650
高 爾 649
su e 649
手拿 包 648
rac ing</w> 648
clean er</w> 648
角落 生 648
read y</w> 648
ri ce</w> 647
mu sic</w> 647
ite ms</w> 647
不 規 646
x x 646
mat er 646
gra de</w> 646
兩件 套 646
drag on</w> 646
s or 645
獨 家 645
ste reo</w> 645
v s</w> 644
印 花</w> 644
auto matic</w> 644
h air 643
i one</w> 643
夢 幻 643
ch amp 643
ligh ts</w> 643
r and 642
餐 椅 642
交 換 642
優 品 642
升 級 642
手 抓 641
p airs</w> 641
k t 641
禮 服</w> 641
第 二 641
li ke</w> 641
to ols</w> 641
clu tch</w> 641
gri p</w> 641
行李 箱 641
男 性 640
朋 友 640
g athering</w> 639
衣 柜 639
深 藍</w> 639
工 裝 638
ac er</w> 638
lo r</w> 638
st it 638
ki d 638
玫瑰 金</w> 638
立 領 637
顯 示 637
sil k</w> 637
包屁 衣</w> 637
p am 636
低 價</w> 636
as s</w> 636
le br 636
poke mon</w> 636
n al</w> 635
尺 寸 635
雙 g 635
瀝 水 635
bo ss</w> 635
pa int</w> 635
ath ione</w> 635
sc ent</w> 635
手 鏈</w> 634
me ga</w> 634
ba lenci 634
韓版 百搭 634
gra m</w> 634
remo ver</w> 634
le g 633
hea vy</w> 633
po t</w> 632
ke ts</w> 632
mor e</w> 632
roy al</w> 632
名 媛 631
m al 631
草 莓 631
椅 子</w> 631
巧 克力 631
qu ick</w> 631
rep lica</w> 631
ree bo 631
身 體 630
i x</w> 630
ph p</w> 630
ea t</w> 630
de ep</w> 630
男女 款 630
一字 領 630
e ts</w> 629
兔 子 629
保 固 629
工 藝 629
買 一 629
plu sh</w> 629
sc o</w> 629
r ash 628
收 腰 628
盒 裝</w> 628
束 口 628
送 禮 628
un k</w> 628
pre st 628
多功 能</w> 628
小白 鞋</w> 628
z ero</w> 627
i p</w> 627
古 奇</w> 627
震 動 627
ke red</w> 627
星 巴 626
世 界</w> 626
嘻 哈 626
car dig 626
相機 包</w> 626
雨 傘 625
遮 光 625
鍵 盤 625
田 園 625
汽 車</w> 625
安 德 625
in o 625
vers ace</w> 625
ja co 625
r ai 624
b ath 624
st an</w> 624
sh ape</w> 624
mo on</w> 624
使 用</w> 623
下標 區</w> 623
新生 兒 623
單 鞋 622
f a</w> 622
黃 色 622
洗髮 精</w> 622
p m</w> 621
金 證</w> 621
五 金 621
背 帶 621
ro o 621
star bu 621
中國 風 621
出 版</w> 620
c am</w> 620
破 洞 620
民 族 620
青 春 620
micro phone</w> 619
男 子 618
髮 夾</w> 618
歡 迎 618
sp ring</w> 618
no vo</w> 618
mu g</w> 618
少女 心 618
glit ter</w> 618
老 人 617
ro ll</w> 617
ho u 617
mas ter</w> 617
北歐 風 617
long sleeves</w> 617
lebr on</w> 617
迪 奧 616
掛 件 616
禮 品</w> 616
橡 膠 616
onesi e</w> 616
glut athione</w> 616
l c</w> 615
液 晶 615
pe ach</w> 615
平底 鞋</w> 615
whole sale</w> 615
不規 則 615
寬 褲</w> 614
ko j 614
韓國 代購</w> 614
heal th</w> 614
legen ds</w> 614
safe ty</w> 614
小 小 613
騎 士 613
airpo ds</w> 613
l li 612
一 番 612
休閒 運動鞋</w> 612
mon ey</w> 612
r on 611
加 厚</w> 611
數 字 611
mo tor</w> 611
mi ss</w> 611
mar o 611
a e 610
賣 場 610
sue de</w> 610
小 時 609
t it 609
收 藏 609
材 質 609
閨 蜜 609
off shoulder</w> 609
fol ding</w> 609
s d 608
毛 巾</w> 608
i zed</w> 608
鞋 架 608
刺 繡</w> 608
in ner</w> 608
h d 607
假 兩件 607
c ir 607
海 綿 607
q t</w> 607
an ti 607
ch er</w> 607
休閒 褲</w> 607
imp orted</w> 607
g la 606
喬 丹</w> 606
總 動 606
真 品</w> 605
原 廠</w> 605
i o 605
台 北 605
re ar</w> 605
ra di 605
pl y</w> 605
man go</w> 605
小方 包</w> 605
bed sheet</w> 605
洗 面 604
騎 行 604
vers ace 604
bar bie</w> 604
loo se</w> 604
c b</w> 603
c it 603
潤 滑 603
道 具</w> 603
吸 水 603
st a</w> 603
st and 603
te en</w> 603
te red</w> 603
il a</w> 603
防水 防 603
h am 602
sun glasses</w> 602
紙 巾 601
授 權</w> 601
th ick</w> 601
jo y</w> 601
海外 代購</w> 601
new born</w> 601
fam ily</w> 601
o g</w> 600
fi e</w> 600
pan as 600
梳妝 臺 600
t wi 599
飛 行 599
我 的 599
燒 烤 599
專櫃 正品</w> 599
color ful</w> 599
p o</w> 598
韓 式 598
折 扣 598
專 屬</w> 598
反 光</w> 598
reebo k</w> 598
大 童 597
b i</w> 597
k ne 597
二 次 597
si z 597
cro chet</w> 597
bla de</w> 597
文 件 596
v ol</w> 595
可 以 595
音 響 595
wa ys</w> 595
fun ction</w> 595
口 紅 594
克 力</w> 594
an de 594
b c</w> 593
郵 差 593
吸 塵 593
so lar</w> 593
bvlgar i</w> 593
sling bag</w> 593
防 彈 592
奶 油 592
c lin 592
創 意</w> 592
kin a</w> 592
chec kered</w> 592
三件 套 592
va len 592
荔枝 紋 592
cross body</w> 592
水 杯</w> 591
c ab 591
ac id</w> 591
安全 帽</w> 591
zi p</w> 591
絕 版</w> 590
無線 藍牙 590
按摩 棒</w> 590
h c</w> 589
e li 589
n inten 589
掛 式 589
寶 石 589
設計 師 589
小 巧 588
e ach</w> 588
紫 色 587
公 分 587
co un 587
stor e</w> 587
maro on</w> 587
公 主</w> 586
sh ing</w> 586
dre sses</w> 586
min um</w> 586
hang ing</w> 586
螺 絲 585
to o</w> 585
el ite</w> 585
vi o 585
be st 585
長袖 上衣</w> 585
t x</w> 584
卸 妝 584
sh ell</w> 584
du ty</w> 584
電 競 583
迪 奧</w> 583
史 迪 583
髮 飾</w> 583
dr ink</w> 583
手 提</w> 582
b u</w> 582
義 大利 582
me tal 582
b f 581
玻璃 貼</w> 581
win do 581
臺 灣 580
卡 通</w> 580
p k</w> 580
牙 刷 580
gh ten 580
moisturi zing</w> 580
t us</w> 579
輕 量</w> 579
in i</w> 579
sk i</w> 579
ag ing</w> 579
ninten do</w> 579
手 套 578
p p</w> 578
o c 578
毛 線 578
紋 身 578
開 衫 578
道 具 578
co co</w> 578
el le</w> 578
pand a</w> 578
lux e</w> 578
v ir 577
加 長 577
f ai 577
mas cara</w> 577
k ing 576
情 趣</w> 576
絲 絨 576
th in</w> 576
ap y</w> 576
sno op 576
風 格</w> 575
gh e 575
ion al</w> 575
手 鏈 574
花 花 574
lov es</w> 574
alu minum</w> 574
chro me</w> 574
口 罩</w> 573
k or 573
平 口 573
ur y</w> 573
運動 褲</w> 573
ak i</w> 573
l ac 572
v al 572
鋼 帶 572
毛 呢 572
ch am 572
car bon</w> 572
disp lay</w> 572
embroi dered</w> 572
rand om</w> 572
攜 帶 571
米 奇</w> 571
角 色 571
mar k</w> 571
plan ner</w> 571
中 筒 570
mari kina</w> 570
學 步 569
泰 迪 569
co al</w> 569
ma lone</w> 569
so le</w> 569
no w</w> 569
fl ash 569
cle an</w> 569
tur ban</w> 569
sili con</w> 569
dai ly</w> 569
a ff 568
a ga</w> 568
萬 聖 568
l l 568
潮 牌</w> 568
c in 568
愛 麗 568
w d</w> 568
音 響</w> 568
傳 輸 568
to u 568
馬克 杯</w> 568
wm ns</w> 568
h s</w> 567
c ts</w> 567
sp ir 567
創意 個性 567
sn ap</w> 567
服裝 店 567
starbu cks</w> 567
p la 566
高 領 566
bo u 566
pul lo 566
f c</w> 565
消 毒 565
cardig an</w> 565
e ver 564
p ig 564
防 蚊 564
m 號</w> 564
平 衡 564
se a</w> 564
小 卡</w> 563
地 墊</w> 563
午 睡 563
照 片 563
hel met</w> 563
shi p</w> 563
sn ail</w> 563
s an</w> 562
鏡 子 562
蔻 馳 562
le novo</w> 562
pa in 562
bang le</w> 562
nur sing</w> 562
高 品質</w> 561
蝦 皮 561
調 味 561
boo ts</w> 561
hu ar 561
zz le</w> 561
may bel 561
機 能 560
派 對 560
bo wl</w> 560
wh y</w> 560
jo h 560
ki es</w> 559
日本 帶回</w> 559
pl at 559
for m</w> 559
p g</w> 558
衣 櫃 558
馬 丁 558
現貨 免運 558
現貨 實拍</w> 558
c l 557
高 腳 557
po c 557
手提 袋</w> 557
cer amic</w> 557
s r</w> 556
髮 圈</w> 556
付 款</w> 556
ac le</w> 556
sho wer</w> 556
oo td</w> 556
裝飾 畫 556
抽屜 式 556
d ry 555
顏 色 555
bre ath 555
v es</w> 554
地 毯 554
墨 鏡 554
prin ts</w> 554
pas te</w> 554
韓 系 553
時尚 休閒 553
sn ap 553
spo on</w> 553
j ust</w> 552
al co 552
fi sh</w> 552
spa ghe 552
手 環 551
f au 551
超 火 551
餅 乾</w> 551
or k</w> 551
car s</w> 551
band ai</w> 551
高爾 夫 551
乳 液</w> 550
r c</w> 550
n i</w> 550
n c</w> 550
日 版 550
香 薰 550
lu min 550
fla v 550
high waist</w> 550
cosme tic</w> 550
v ari 549
面 膜 549
玩 偶 549
推 薦 549
bas ed</w> 549
精 靈 548
思 哲 548
鄉 村 548
su b 548
lux ury</w> 548
u mb 547
變 形 547
裙 子</w> 547
m aid</w> 547
蛋 白 547
正 貨</w> 547
per ia</w> 547
con ce 547
pi g</w> 547
轉 賣</w> 546
五 金</w> 546
粉 紅</w> 546
d ea 545
g al 545
牛 津 545
全 白</w> 545
玻 璃</w> 545
飄 窗 545
幸 福 545
lo w 545
mo ss</w> 545
op en</w> 545
馬卡 龍 545
champ ion</w> 545
e va</w> 544
滿 千 544
地 墊 544
f m</w> 544
嚴 選</w> 544
se as 544
brac ket</w> 544
全新未 拆 544
神奇 寶貝</w> 544
gol den</w> 544
信 封 543
pre ne</w> 543
go wn</w> 543
爆 米 542
高 筒 542
實 體 541
滋 潤 541
spaghe tti</w> 541
p s 540
金 色</w> 540
果 凍 540
as t 540
sh e</w> 540
購 入</w> 539
簡 單 539
鏡 頭 539
筆 電 539
打 火 539
專 區</w> 539
dis k</w> 539
充 電</w> 538
鋼 圈 538
f er</w> 538
ta y 538
clas sy</w> 538
高跟 鞋</w> 538
多 用 537
j en 537
方 向 537
買 二 537
me li 537
stre et</w> 537
koj ic</w> 537
a q</w> 536
抽 繩 536
文 化</w> 536
秋 裝 536
森 林 536
au to</w> 536
sa int</w> 536
s war 535
肩 背 535
不 用 535
小 夜 534
p ac 534
零 食</w> 534
精 油</w> 534
開 發票</w> 534
plu g</w> 534
ho w</w> 534
購物 包</w> 534
b n</w> 533
女 學生 533
毛 孔 533
泡 茶 533
顯 瘦</w> 533
con t 533
ky lie</w> 533
free size</w> 533
remo te</w> 533
stit ch</w> 533
g d</w> 532
男 用 532
c ed</w> 532
洗 漱 532
me d</w> 532
po st 532
sli mming</w> 532
充電 線</w> 532
兩件 套</w> 532
代理 版</w> 532
neo prene</w> 532
哈 倫 531
v ed</w> 531
防 摔</w> 531
男 錶 531
亮 片 531
pre ss</w> 531
jan sport</w> 531
阿迪達 斯 531
卡 片 530
皮 卡 530
度 假 530
ani me</w> 530
新品 下殺</w> 530
m c</w> 529
明 信 529
海 報</w> 529
蝙 蝠 529
re pub 529
ti es</w> 529
hel lo 529
ane se</w> 529
a b</w> 528
自 由 528
四 角 528
居 家</w> 528
隔 離 528
頭層 牛皮 528
手 辦 527
b v</w> 527
凡 賽 527
li es</w> 527
玩具 總動 527
吊 燈</w> 526
恐 龍 526
鎖 骨 526
葡 萄 526
fl are</w> 526
v ape</w> 525
皮 鞋 525
壓 克力 525
colle cti 525
swar ov 525
冷 氣 524
me s 524
sk y 524
sli pper</w> 524
辦公 桌 524
light ning</w> 524
x i</w> 523
ma ong</w> 523
we st</w> 523
mag net</w> 523
cap s</w> 523
訂 製 522
c ac 522
星 空 522
風 衣</w> 522
控 油 522
ac ne</w> 522
balenci aga</w> 522
huar ache</w> 522
n er 521
面 交</w> 521
遮 瑕 521
名 片 521
m t</w> 521
天 使 521
sp ace</w> 521
p ush</w> 520
有 機 520
毛 毛 520
珊 瑚 520
er e</w> 520
ch y</w> 520
us er</w> 520
cro ptop</w> 520
eas y</w> 520
透 明</w> 519
吸 盤 519
siz es</w> 519
g p</w> 518
保 險 518
可 坐 518
i co 518
議 價</w> 518
ar ti 518
al er</w> 518
jap anese</w> 518
擺 飾</w> 517
密 碼 517
ch air</w> 517
to p 517
su l 517
bas e</w> 517
限定 下標</w> 517
pat tern</w> 517
電視 柜 517
s w</w> 516
卡 片</w> 516
p es</w> 516
名 牌 516
護 膚 516
x peria</w> 516
泳 裝</w> 516
an kle</w> 516
pp er 516
xl 碼</w> 516
p t 515
防 紫外線 515
風 水 515
彩 繪 515
練 習 515
床 包 515
低 音 515
ic an</w> 515
sp a</w> 515
char ge</w> 515
bat man</w> 515
bea ds</w> 515
lux xe</w> 515
公文 包</w> 515
g loves</w> 514
whe els</w> 514
e w</w> 513
萬 能 513
車 內 513
澳 洲 513
re ad</w> 513
臥室 床頭 513
ste m</w> 513
tw ice</w> 513
一次 性 513
jaco bs</w> 513
小 店</w> 512
螢 光 512
tu tu</w> 512
wa x</w> 512
紙 膠帶</w> 511
架 子</w> 511
修 復 511
低 價 511
聚 攏 511
jo y 511
vio let</w> 511
盒 子 510
樂 高 510
樂 器</w> 510
床 單 510
so o 510
mit su 510
秋季 新款 510
a ya</w> 509
e gg</w> 509
g x</w> 509
靠 墊 509
緬 甸 509
co co 509
ti re</w> 509
te c</w> 509
vi sor</w> 509
四件 套 509
電 熱 508
花 邊 508
粉 餅</w> 508
偶 像 508
徽 章</w> 508
me mor 508
ig o</w> 508
sk y</w> 508
kne e</w> 508
repub lic</w> 508
so ck</w> 507
qu art 507
prote ctive</w> 507
cti onal</w> 507
工業 風 507
f l</w> 506
英 雄 506
精 美 506
ri er</w> 506
po lish</w> 506
dra w 506
sne aker</w> 506
frien ds</w> 506
e e 505
o d</w> 505
老 年 505
in ing</w> 505
infin ity</w> 505
d ani 504
不 含 504
連 線</w> 504
怪 獸 504
el lo</w> 504
ki ss</w> 504
tre at 504
she ets</w> 504
umb rella</w> 504
手 袋</w> 503
女 童</w> 503
凱 蒂 503
杯 子 503
四 輪 503
施 華 503
fo cus</w> 503
blan ket</w> 503
bm w</w> 503
r ain</w> 502
g ne</w> 502
全 黑</w> 502
古 著</w> 502
潛 水 502
迷你 小 502
souven ir</w> 502
e m 501
嬰 幼兒 501
sh ap 501
char coal</w> 501
防彈 少年 501
手 電 500
h l</w> 500
b k</w> 500
b ble</w> 500
保 養 500
胸 包</w> 500
cand le</w> 500
cloth ing</w> 500
repl ace 500
quart z</w> 500
u v 499
y ear</w> 499
m ing</w> 499
玫 瑰</w> 499
鞋 子</w> 499
近 全新</w> 499
vit a</w> 499
sleep wear</w> 499
飲 料 498
le tter</w> 498
gu n</w> 498
no kia</w> 498
be ige</w> 498
pap er 498
y i</w> 497
y ou 497
門 廳 497
di c 497
cle ar 497
充電 式 497
咖啡 廳 497
maybel line</w> 497
cont act</w> 497
e qt</w> 496
d w 496
s ci 496
果 汁 496
k d</w> 496
mo ther</w> 496
bel l</w> 496
allo y</w> 496
柜 子 495
夾 克</w> 495
投 影 495
te e 495
bag pack</w> 495
moun t</w> 495
大 功 494
迷 你</w> 494
深 藍 494
be e</w> 494
hoo d</w> 494
metal lic</w> 494
護 理 493
高 筒</w> 493
台 中 493
藍 光 493
補 充 493
滑 板鞋</w> 493
wi de</w> 493
一番 賞</w> 493
美 妝 492
長 t</w> 492
防 撞 492
毛 球 492
媽 咪</w> 492
j ade</w> 492
米 妮 492
moi st 492
treat ment</w> 492
t ami 491
雜 貨</w> 491
si m</w> 491
th o 491
vi a</w> 491
情趣 用品</w> 491
新 年 490
a x</w> 490
卡 包</w> 490
多 款 490
科 技 490
泳 衣</w> 490
min e</w> 490
c ru 489
餐 具</w> 489
j s</w> 489
d w</w> 488
會 議 488
c ul 488
清 洗 488
雪 花 488
旅 遊 488
離 子 488
ti ger</w> 488
洗衣 機 488
s ke 487
秒 殺 487
ga mes</w> 487
廠家直 銷</w> 487
amer ican</w> 487
d an 486
襯 衣 486
ba mbo 486
ea m</w> 486
te ens</w> 486
運動 休閒 486
sig nature</w> 486
onesi es</w> 486
stuff ed</w> 486
三 色 485
f y</w> 485
護 手 485
棋 盤 485
li pp 485
so cket</w> 485
tab let</w> 485
replace ment</w> 485
t l</w> 484
掛 畫 484
貨 到 484
泡 沫 484
省 空間 484
er y</w> 484
cor te 484
dro p</w> 484
廠家直 銷 484
微波 爐 484
人 字 483
開 叉 483
吹 風 483
to ur</w> 483
du o</w> 483
bambo o</w> 483
s u</w> 482
掛 鉤 482
f um</w> 482
壓 花 482
優 選</w> 482
餅 乾 482
打底 衫</w> 482
alo g</w> 482
h dmi</w> 481
k at 481
超 取 481
vi s</w> 481
stu dio</w> 481
mer maid</w> 481
英倫 風 481
smo o 481
交換 禮物</w> 481
windo w</w> 481
大 衣</w> 480
b ear 480
單 鞋</w> 480
便 利 480
開 口 480
抗 菌 480
se ts</w> 480
ear phones</w> 480
ve st</w> 480
rash guard</w> 480
u n</w> 479
服 飾</w> 479
鉚 釘 479
提 袋</w> 479
瑞 士 479
ri o</w> 479
cro cs</w> 479
雙 人</w> 478
銀 色 478
古 典 478
露 背 478
ch i</w> 478
cro wn</w> 478
女 孩</w> 477
re gular</w> 477
lo ck 477
ro moss</w> 477
sho p 477
pat ch</w> 477
明星 同款 477
rep air</w> 477
j a</w> 476
吸 管 476
col lar</w> 476
blo sso 476
春夏 新款 476
七龍 珠</w> 476
手 繪 475
錶 帶</w> 475
髮 帶</w> 475
mir acle</w> 475
巴寶 莉</w> 475
g th</w> 474
原 木 474
室 外 474
平 安 474
圍 巾 474
婚 紗 474
豹 紋 474
ar i</w> 474
de o 474
so lid</w> 474
bu tter</w> 474
pe t 474
tri ple</w> 474
電腦 椅 474
短 裙 473
制 服 473
te x</w> 473
pl ant</w> 473
背景 墻 473
一 件 472
自 粘 472
古 著 472
聊 聊 472
鱷 魚 472
por e</w> 472
stra w 472
nu de</w> 472
comp u 472
小香 風 472
face mask</w> 472
tami ya</w> 472
s 號</w> 471
器 材 471
an alog</w> 471
re fil 471
春季 新款 471
whe el</w> 471
panas onic</w> 471
花 盆 470
p t</w> 470
皮 鞋</w> 470
o ver</w> 470
好 市 470
珠 寶 470
牙 刷</w> 470
法 蘭 470
av eng 470
tsu m</w> 470
h g</w> 469
子 母 469
m tg</w> 469
護 髮 469
庭 院 469
港 風 469
ch lo 469
wo ven</w> 469
ho l</w> 469
普拉 達 469
vap or 469
breath able</w> 469
j ack</w> 468
深 層 468
ba king</w> 468
長袖 t恤</w> 468
par fum</w> 468
fun ctional</w> 468
k ong</w> 467
台 風 467
垂 墜 467
en g</w> 467
te ch 467
pas tel</w> 467
三麗 鷗</w> 467
專賣 店</w> 467
mitsu bi 467
o d 466
書 柜 466
盒 裝 466
淺 口 466
綜 合 466
to e</w> 466
pi o</w> 466
av ent</w> 466
fe ed 466
dd r</w> 466
淡香 精</w> 466
s ko 465
相 機</w> 465
ra m</w> 465
mi t</w> 465
運動 套裝</w> 465
ta k 465
gr and</w> 465
愛馬 仕</w> 465
aveng ers</w> 465
t es</w> 464
收 藏</w> 464
換 鞋 464
清 爽 464
證 件 464
her mes 464
懶人 沙發 464
基本 款</w> 464
附購 證</w> 464
spon ge</w> 464
b r</w> 463
包 郵 463
食 物 463
m in</w> 463
k ap 463
低 筒</w> 463
bri ef</w> 463
gar den</w> 463
波 浪 462
d 立體 462
電 腦</w> 462
加 熱 462
m me</w> 462
f al 462
gu it 462
可愛 卡通 462
r h 461
e mp 461
軟 底 461
base ball</w> 461
corte z</w> 461
燈 具</w> 460
po ol</w> 460
ap pro 460
mo squ 460
mar y</w> 460
mon ster</w> 460
lan e 460
出 售</w> 459
長 條 459
短 tee</w> 459
官 網 459
un o</w> 459
ho t 459
ff y</w> 459
sand al</w> 459
lun ch</w> 459
d f</w> 458
b il 458
變 色 458
蛋 黃 458
ni a</w> 458
收納 櫃</w> 458
lin er</w> 458
sat in</w> 458
fai ry</w> 458
n d</w> 457
午 休 457
原 版 457
衛 浴 457
海 軍 457
養 生 457
ro w</w> 457
ed t</w> 457
spe e 457
ballo ons</w> 457
p au 456
專 輯</w> 456
勁 戰</w> 456
el ing</w> 456
fan tas 456
g an</w> 455
便 宜</w> 455
女 生</w> 455
c l</w> 455
an ne</w> 455
le g</w> 455
el f</w> 455
ic y 455
fle x</w> 455
pad ded</w> 455
買二 送一</w> 455
電 話 454
f ine</w> 454
超 商 454
gen t</w> 454
gg age</w> 454
stor y</w> 454
小 花 453
g in 453
萬 向 453
y u</w> 453
尺 碼</w> 453
j u</w> 453
an ello</w> 453
or o 453
clu b</w> 453
feed ing</w> 453
y ar 452
特 別 452
兩 用</w> 452
k pop</w> 452
潮 鞋 452
送 禮</w> 452
台 灣</w> 452
pu ff</w> 452
phi lips</w> 452
三眼 計時 452
ico nic</w> 452
小 圓 451
b d</w> 451
p ing</w> 451
印 章</w> 451
棉 t</w> 451
工 廠 451
簽 名 451
廣 告 451
豪 華 451
swe at 451
r are</w> 450
美 麗 450
轉 蛋</w> 450
sh u 450
sh er</w> 450
ni ss 450
foo t 450
a v</w> 449
皮 夾 449
皮 質 449
磁 吸 449
ti er</w> 449
pro je 449
o pen 448
腳 蹬 448
模 具</w> 448
en d</w> 448
car rier</w> 448
個性 創意 448
ori g</w> 448
a g</w> 447
d ers</w> 447
排 扣 447
調 料 447
we e 447
glo ssy</w> 447
draw string</w> 447
施華 洛 447
電 影 446
n ice</w> 446
銀 色</w> 446
錢 夾 446
老 虎 446
櫻 桃 446
使 用 446
麂 皮 446
ad a</w> 446
dol ph 446
正版 授權</w> 446
ben e 446
hil fig 446
郵差 包</w> 446
手 鐲</w> 445
a me 445
d ur 445
o x 445
有 線 445
公 事 445
st ation</w> 445
se ven 445
desig ns</w> 445
麥克 風</w> 445
音 箱 444
另 有 444
ro ck</w> 444
針織 衫 444
fen di 444
空壓 殼</w> 444
mitsubi shi</w> 444
大 人 443
b un 443
n max</w> 443
配 色 443
料 理 443
日 曆 443
華 碩</w> 443
隨 機 443
ti ff 443
日本 製 443
pu zzle</w> 443
mosqu ito</w> 443
新 中式 442
代 理</w> 442
n ai 442
水 器 442
短 t 442
椰 子 442
yo ung</w> 442
巴黎 世 442
p c 441
條 紋</w> 441
圓 領</w> 441
潮 人 441
廚房 置物架 441
太陽 鏡 441
jump short</w> 441
win ter</w> 441
alco hol</w> 441
d ust</w> 440
v ea 440
保 暖</w> 440
掛 勾</w> 440
轉 換 440
文 胸 440
霧 面 440
q q 440
營 養 440
幸 運 440
se am 440
au dio</w> 440
男女 情侶 440
女 用 439
男 生</w> 439
清 倉 439
蜜 蜂 439
芬 迪 439
冰 雪 439
we t</w> 439
sli t</w> 439
gucci 古馳 439
wash i</w> 439
sal t</w> 439
prest o</w> 439
龍 頭</w> 438
e ffe 438
b ig 438
球 衣</w> 438
無 鋼圈 438
地 板 438
磁 性 438
j et</w> 438
東 大 438
被 子 438
on a</w> 438
ba ba</w> 438
her bal</w> 438
電動 車 438
disp en 438
xs max</w> 438
deli very</w> 438
人 體 437
合 金</w> 437
me i 437
la b</w> 437
新款 時尚 437
fl at 437
con ta 437
bas ket</w> 437
bri lli 437
茶 杯 436
長 夾 436
拉 鍊</w> 436
週 年 436
in es</w> 436
se ed</w> 436
lu ggage</w> 436
手機 套</w> 436
展示 架 436
d al</w> 435
b are</w> 435
爆 品下殺</w> 435
男 包 435
吊 墜</w> 435
邊 幾 435
tt ing</w> 435
男女 同款</w> 435
ta b</w> 435
snoop y</w> 435
褲 女 434
溫 泉 434
in clu 434
er t</w> 434
ro l 434
ic y</w> 434
pp e</w> 434
牛仔 短褲</w> 434
sno w</w> 434
mis sha</w> 434
rai der</w> 434
straw berry</w> 434
r an 433
s ab 433
全 套</w> 433
翡 翠 433
li on</w> 433
we ight</w> 433
hu b</w> 433
hand made</w> 433
旅行 包</w> 433
電 鍍 432
多 卡 432
維 尼</w> 432
文 具</w> 432
帆 布</w> 432
da u 432
da y 432
ans i</w> 432
fac tory</w> 432
不鏽 鋼</w> 432
tay lor</w> 432
r on</w> 431
一 對 431
維 尼 431
平 角 431
野 餐 431
ch e</w> 431
da ys</w> 431
glo ss</w> 431
stand ard</w> 431
花 卉 430
保 證</w> 430
桌 遊</w> 430
當 天 430
畢 業 430
an e</w> 430
貨到 付款</w> 430
小 姐 429
h un 429
l ers</w> 429
罩 衫</w> 429
資 生 429
被 套 429
po ster</w> 429
so lution</w> 429
吸頂 燈 429
meli ssa</w> 429
靜 電 428
背 帶</w> 428
磁 鐵 428
二 代 428
墻 上 428
bo s 428
sa k 428
民族 風 428
小 童 427
l and 427
男 裝</w> 427
第 三 427
po ly 427
sp ande 427
tra y</w> 427
swarov ski</w> 427
moist ure</w> 427
z x</w> 426
素 t</w> 426
耳 針</w> 426
存 錢 426
花 園 425
z o</w> 425
短 靴</w> 425
c la 425
分 裝 425
睡 眠 425
inst ant</w> 425
手抓 包</w> 425
blosso m</w> 425
guit ar</w> 425
dispen ser</w> 425
spande x</w> 425
e e</w> 424
d dy</w> 424
多 色 424
增 高</w> 424
快 充 424
降 價</w> 424
pre tty</w> 424
韓版 修身 424
vi vo 424
gi vea 424
stu ff</w> 424
口 罩 423
防 潮 423
工 程 423
米 妮</w> 423
蔻 馳</w> 423
散 熱 423
ne l</w> 423
cy c 423
ali baba</w> 423
透 視 422
啦 a 422
演 出 422
bo ho</w> 422
tt a</w> 422
char ms</w> 422
pullo ver</w> 422
e sp 421
女 式 421
數 據 421
先 生</w> 421
良 品</w> 421
me ters</w> 421
gu e</w> 421
hea t</w> 421
針織 上衣</w> 421
小白 鞋 421
niss an</w> 421
r d</w> 420
紫 色</w> 420
天 天 420
飛 線 420
吊 飾 420
主 機 420
韓版 時尚 420
hol li 420
acti ve</w> 420
cosp lay</w> 420
茶 葉 419
k on</w> 419
避 震 419
or y</w> 419
bo t</w> 419
bu lar</w> 419
bal l 419
lit er</w> 419
電 磁 418
l x</w> 418
帶 回 418
七 彩 418
披 肩</w> 418
躺 椅 418
am ansi</w> 418
el y</w> 418
新 貨 417
a y</w> 417
g m</w> 417
電 瓶 417
點 心 417
直 送</w> 417
包 頭 417
st i 417
日本 進口 417
北歐 簡約 417
tu bular</w> 417
len t</w> 417
vac u 417
g as</w> 416
三 合一 416
斜 背 416
行 車 416
漫 畫 416
入 耳 416
飼 料</w> 416
ar my</w> 416
it a</w> 416
al a</w> 416
時尚 商務 416
bu cket</w> 416
glu e</w> 416
smar t 416
comb o</w> 416
valen tin 416
紅 酒 415
排 汗 415
吉 他 415
j p</w> 415
分 體 415
T M</w> 415
pre ss 415
car tri 415
mon o</w> 415
聖誕 節 415
高跟 鞋 415
memor y</w> 415
雙 頭 414
快 樂 414
個 性</w> 414
細 跟 414
上 班 414
誘 惑 414
di a</w> 414
th ree</w> 414
po li 414
ck er</w> 414
荷葉 邊 414
a re 413
雜 物 413
加 濕 413
c r</w> 413
飛 利 413
ro she</w> 413
op ti 413
cur ry</w> 413
wash ing</w> 413
mac book</w> 413
capsu le</w> 413
小 胸 412
三 折 412
戶 外</w> 412
過 道 412
春 裝 412
活 動</w> 412
寫 真 412
吃 飯 412
佈 置</w> 412
it em</w> 412
ti l 412
am ing</w> 412
ra y 412
ben z</w> 412
ther apy</w> 412
won der</w> 412
hilfig er</w> 412
b icy 411
v ic</w> 411
六 角 411
w rist 411
墊 子 411
sc ale</w> 411
餐桌 椅 411
cra ft</w> 411
水 龍頭 410
j as 410
亞 克力 410
派 對</w> 410
ver se</w> 410
las er</w> 410
mar mon 410
化妝 水</w> 410
fr an 410
stret ch</w> 410
傳輸 線</w> 410
lane ige</w> 410
vacu um</w> 410
戰 士</w> 409
t le 409
衣 著</w> 409
眼 睛 409
氣 質</w> 409
繡 花 409
pro mo</w> 409
do m</w> 409
wi fi 409
pe e</w> 409
dr i</w> 409
sen se</w> 409
涼 感 408
re act</w> 408
ch a</w> 408
ni es</w> 408
go t</w> 408
gen er 408
hoo k</w> 408
bul b</w> 408
阿迪達 斯</w> 408
客製 化 408
美 背 407
防 潑 407
f ire</w> 407
迷 妳 407
潔 面 407
co con 407
mi di</w> 407
ve lo 407
bri ght</w> 407
半身 裙 407
卡 其 406
膠 原 406
特 賣 406
防 盜 406
f inger</w> 406
c q</w> 406
餐 椅</w> 406
超 美 406
亞 麻 406
宅 配 406
st ic</w> 406
ro lex</w> 406
ti s</w> 406
ic e 406
休閑 運動 406
連身 褲</w> 406
連身 衣</w> 406
dolph in</w> 406
a bo 405
高 雄 405
黑 紅</w> 405
項 鍊 405
攪 拌 405
elec tr 405
box er</w> 405
g ab 404
b ears</w> 404
兩 色</w> 404
適 合 404
頭 戴 404
秋 冬</w> 404
蔬 菜 404
樹 脂 404
煞 車 404
el as 404
蝴蝶 結</w> 404
vo lu 404
角色 扮 404
玩具總動 員</w> 404
獨 角 403
不 對 403
短 靴 403
眼 影</w> 403
披 肩 403
質 感</w> 403
錄 音 403
剪 刀</w> 403
全新 現貨 403
sou l</w> 403
hou se 403
二次 元 403
seam less</w> 403
三 人 402
美 妝</w> 402
陽 台 402
w an</w> 402
蜘 蛛 402
an as</w> 402
re li 402
大 象 401
n ity</w> 401
筆 袋</w> 401
燈 具 401
種 子</w> 401
塗 鴉 401
co d 401
at in</w> 401
de c 401
ho li 401
tr y</w> 401
men ts</w> 401
av es</w> 401
fla ge</w> 401
tab lets</w> 401
保 濕</w> 400
維 修 400
鏡 面 400
植 物</w> 400
w ri 400
連 線 400
寢 室 400
cas h</w> 400
新款 男士 400
男女 士 400
鴨舌 帽</w> 400
比基 尼 400
kor s 400
d b</w> 399
高 溫 399
近 視 399
九 成新</w> 399
en er 399
bo b</w> 399
char les</w> 399
ation s</w> 399
u res</w> 398
屏 風 398
co ver 398
on ex 398
so ft 398
las ting</w> 398
mat ion</w> 398
boo k 398
sta y</w> 398
acti v 398
flav or</w> 398
cocon ut</w> 398
金 剛 397
零 錢包 397
馬 甲 397
褲 裙</w> 397
阿 甘 397
淋 浴 397
mi z 397
pp le</w> 397
長袖 t恤 397
sel fie</w> 397
帆布 鞋 397
連身 裙 397
大功 率 397
圖 案</w> 396
棉 花 396
圓 頭 396
i os</w> 396
精 選 396
巧 克力</w> 396
si zed</w> 396
wh i 396
yo ga</w> 396
mono gram</w> 396
長 裙 395
衣 櫥 395
男 士</w> 395
少 女</w> 395
or o</w> 395
st ation 395
壁掛 式 395
tas sel</w> 395
xr m</w> 395
冰雪 奇 395
y an</w> 394
單 車 394
體 恤 394
雕 花 394
cre ative</w> 394
con ne 394
ligh ter</w> 394
run ner</w> 394
sy stem</w> 394
clear ance</w> 394
bicy cle</w> 394
手 包 393
g ap 393
b sco</w> 393
p ling</w> 393
膠 囊</w> 393
k an 393
型 男 393
枕 頭</w> 393
凝 膠</w> 393
ro t 393
ki e 393
swi mming</w> 393
施華洛 世 393
折 扣</w> 392
速 干 392
晚 宴 392
gi ven 392
toi lette</w> 392
compu ter</w> 392
g i</w> 391
卡 娜 391
音 箱</w> 391
玻 尿 391
潘 朵 391
入 組</w> 391
安 裝</w> 391
余 文 391
re no</w> 391
la p</w> 391
現貨 實拍 391
tr ac 391
tat tered</w> 391
cartri dge</w> 391
e co</w> 390
s ki 390
口 味</w> 390
零 錢 390
分 離 390
店 鋪 390
le af</w> 390
收納 袋 390
gh ter</w> 390
單肩 斜挎 390
cam ou 390
stra w</w> 390
太陽 能 390
gy m</w> 390
s mi 389
書 桌</w> 389
達 人</w> 389
洞 洞 389
基 礎 389
賽 車 389
in ci 389
po p 389
mo der 389
us able</w> 389
簡約 時尚 389
韓版 潮 389
dis c</w> 389
三件 套</w> 389
行李 箱</w> 389
e a</w> 388
y ard</w> 388
掛 脖 388
m sm</w> 388
超 人</w> 388
開 車 388
tre me</w> 388
商務 休閒 388
cap tain</w> 388
落地 式 388
tren d</w> 388
massa ge</w> 388
角落生 物</w> 388
p un 387
掛 件</w> 387
原 裝</w> 387
聯 盟</w> 387
網 布</w> 387
顏 色</w> 387
濾 網</w> 387
兒童 玩具 387
stic ks</w> 387
mu st 387
粉底 液</w> 387
vapor max</w> 387
水 槽 386
最 後 386
網 路 386
含 運</w> 386
裝飾 品</w> 386
ja mes</w> 386
潤滑 液</w> 386
防彈少年 團</w> 386
cyc ling</w> 386
小 姐</w> 385
n g</w> 385
掛 鐘 385
轉 角 385
厚 底</w> 385
f old</w> 385
床 墊</w> 385
su e</w> 385
cho co</w> 385
aff ord 385
s ar 384
o k 384
滿 版</w> 384
門 簾 384
韓 風 384
可 用</w> 384
螺 絲</w> 384
安 撫 384
輔 助 384
ti mate</w> 384
for mul 384
lip tint</w> 384
兩件 式 384
遮陽 帽</w> 384
frien d</w> 384
雜貨 鋪</w> 384
exten sion</w> 384
旗艦 店</w> 384
hello kitty</w> 384
h avai 383
b q</w> 383
n am 383
水 器</w> 383
寬 鬆</w> 383
re usable</w> 383
mo m</w> 383
簡約 百搭 383
收納 箱 383
sa w</w> 383
mol y</w> 383
leg it</w> 383
inci pio</w> 383
b el</w> 382
鍵 盤</w> 382
仿 古 382
bu bble</w> 382
tri pod</w> 382
par t</w> 382
com b</w> 382
ine se</w> 382
resi st 382
卡西 歐 382
soo thing</w> 382
小 桌子 381
外 貿 381
o k</w> 381
式 耳環</w> 381
針 織</w> 381
傢 俱 381
ba y 381
am y</w> 381
mo u 381
plu m</w> 381
clo ck</w> 381
ban ana</w> 381
conce aler</w> 381
衣 櫃</w> 380
套 腳 380
鋼 鐵 380
超 好 380
j bl</w> 380
播 放 380
新款 潮 380
現貨 在 380
正品 代購 380
聖羅 蘭</w> 380
e du 379
輕 薄 379
武 士</w> 379
雙 耳 379
可 議價</w> 379
羊 皮</w> 379
墻 壁 379
ma z 379
男女 同款 379
pu ma 379
bas s</w> 379
op po 379
lau rent</w> 379
blen d</w> 379
現 代</w> 378
黃 色</w> 378
薰 衣 378
ic k 378
台灣 出貨</w> 378
head phone</w> 378
玫瑰 花 378
風衣 外套</w> 378
electr onic</w> 378
卡娜 赫 378
r l</w> 377
服 裝</w> 377
耐 磨</w> 377
種 子 377
骷 髏 377
produ cts</w> 377
魔鬼 氈</w> 377
spee dy</w> 377
afford able</w> 377
o b 376
坐 墊</w> 376
迷 彩</w> 376
滑 鼠 376
la n</w> 376
收納 箱</w> 376
head phones</w> 376
star ter</w> 376
eng lish</w> 376
d el 375
配 方</w> 375
肩 背包 375
雕 刻 375
洗 碗 375
旗 袍 375
ro pe</w> 375
clo u 375
tw in 375
太陽 鏡</w> 375
cosp lay 375
flow ers</w> 375
scar f</w> 375
holli ster</w> 375
三 色</w> 374
一 般 374
掛 衣架 374
插 卡 374
鏡 子</w> 374
海 報 374
松 糕 374
蠶 絲 374
me lo 374
精華 液</w> 374
極 簡 373
i ke 373
靠 枕 373
壁 貼</w> 373
閃 光 373
任 選</w> 373
ol a</w> 373
br u 373
長袖 襯衫</w> 373
wel l</w> 373
out fit</w> 373
原宿 風 373
eyel iner</w> 373
conta iner</w> 373
formul a</w> 373
s ai 372
遮 肚 372
k h 372
c p 372
c ent</w> 372
紙 盒</w> 372
上 下 372
to mat 372
pri vac 372
gi o</w> 372
dri ll</w> 372
san disk</w> 372
下殺 價</w> 372
deo dor 372
波 士 371
u 型 371
o tg</w> 371
掛 飾</w> 371
m d 371
f y 371
k t</w> 371
清 潔</w> 371
製 作 371
開 關</w> 371
ki pling</w> 371
bi ble</w> 371
加絨 加厚 371
camou flage</w> 371
privac y</w> 371
b bit</w> 370
進 門 370
調 理 370
le tt 370
den t</w> 370
寶可 夢 370
七分 袖 370
買一 送一</w> 370
折 疊</w> 369
內 增高 369
早 餐 369
in der</w> 369
st ain</w> 369
at o 369
de luxe</w> 369
au th</w> 369
min er 369
優惠 價</w> 369
s n</w> 368
s ni 368
f x</w> 368
f w</w> 368
襪 套</w> 368
清 新</w> 368
刀 劍 368
床 墊 368
表 演 368
墻 面 368
冠 軍 368
ma y</w> 368
pi pe</w> 368
pap aya</w> 368
spi der 368
san rio</w> 368
comfor table</w> 368
havai anas</w> 368
中 跟 367
舒 緩 367
開 關 367
莫 代 367
耳 夾</w> 367
空 軍 367
主 機</w> 367
in vit 367
di e 367
sho pee</w> 367
su zu 367
vi sion</w> 367
christ ian</w> 367
iph onex 367
眼影 盤</w> 367
dau ghter</w> 367
n p</w> 366
掛 鉤</w> 366
鏡 頭</w> 366
百 褶 366
愛 心</w> 366
天 鵝 366
閱 讀 366
lo gy</w> 366
vi br 366
tur tle</w> 366
van illa</w> 366
tooth paste</w> 366
圖 騰 365
o t</w> 365
韓 妞 365
短 襪</w> 365
盒 子</w> 365
w in</w> 365
空 間</w> 365
ri s</w> 365
日本 進口</w> 365
鑰匙 扣 365
bott les</w> 365
supp lies</w> 365
essenti als</w> 365
情人節 禮物</w> 365
bot tom</w> 365
refil l</w> 365
公事 包</w> 365
薄 荷 364
k k</w> 364
白 金 364
職 業 364
ch inese</w> 364
vuit ton 364
u ri 363
b us 363
全 球 363
f b</w> 363
k w</w> 363
潮 鞋</w> 363
c ca</w> 363
j uni 363
椰 子</w> 363
懷 舊 363
pri mer</w> 363
shi sei 363
man ual</w> 363
ker atin</w> 363
不用 等</w> 363
n igh 362
防 滑</w> 362
f ul 362
i se</w> 362
的 店</w> 362
入 門 362
ma kap 362
ul zz 362
牛仔 長褲</w> 362
win d 362
pack aging</w> 362
小 眾 361
出 租 361
o live</w> 361
動 物</w> 361
水 管 361
浮 雕 361
德 國</w> 361
史 密 361
攝 像 361
an ces</w> 361
ch el</w> 361
to my</w> 361
ab er 361
amer ica</w> 361
機器 人 361
ri pped</w> 360
mb o</w> 360
字母 印花 360
氣墊 鞋</w> 360
pack s</w> 360
爆米 花 360
s coo 359
n t</w> 359
z y 359
價 格 359
時 鐘 359
冷 熱 359
瑜 珈 359
ul tra 359
car go</w> 359
pl aid</w> 359
fu n</w> 359
sty lish</w> 359
flash light</w> 359
全新未拆 封</w> 359
a x 358
寶 格 358
眼 線 358
蝦 皮</w> 358
帳 篷 358
un a</w> 358
do t</w> 358
男女 通用 358
colo gne</w> 358
kni fe</w> 358
cer ity</w> 358
內搭 褲</w> 358
chu ck</w> 358
款 式 357
b ac 357
口 紅</w> 357
n ak 357
膠 帶 357
光 療 357
星 際 357
x und 357
w ol 357
樂 福 357
魚 尾 357
側 背包 357
碳 纖維 357
悠 遊 357
sa fe</w> 357
tri bal</w> 357
sw eat</w> 357
produ ct</w> 357
全 皮 356
繽 紛 356
ra dio</w> 356
ra bbit</w> 356
cu p 356
針織 衫</w> 356
beau ti 356
保溫 杯</w> 356
拖 鞋女 355
夾 腳 355
k ir 355
le a 355
ch ers</w> 355
ga me 355
奶茶 店 355
makap al</w> 355
小 屋</w> 354
同 人 354
底 座 354
中 大童 354
壓 縮 354
宴 會 354
上 市</w> 354
觸 控 354
ve ge 354
tooth brush</w> 354
moder n</w> 354
xund d</w> 354
茶 几</w> 353
嬰 兒童 353
軟 殼 353
拼 裝 353
彩 妝 353
耐 熱 353
鈦 鋼 353
縮 口 353
彪 馬 353
le ar 353
la ven 353
mi d 353
運動 休閒鞋</w> 353
限時 下殺</w> 353
舒適 透氣 353
sak ura</w> 353
a ha</w> 352
b new</w> 352
n ut</w> 352
m ai 352
j un 352
速 乾 352
公 路 352
床 包</w> 352
睡 覺 352
q c</w> 352
spor ty</w> 352
ca re 352
har ry</w> 352
ha y</w> 352
情人 節</w> 352
fer ra 352
sleep ing</w> 352
strai ght</w> 352
大 號</w> 351
烤 漆 351
防 雨 351
j ar</w> 351
商 城</w> 351
的 小 351
詢 問</w> 351
co ordin 351
at h</w> 351
運動 休閑 351
pe eling</w> 351
情侶 鞋 351
her o 351
垃圾 桶 351
萬聖 節 351
sko ol</w> 351
seven teen</w> 351
花 架 350
無 印 350
功 能 350
冰 箱</w> 350
ch ic</w> 350
se le 350
and er</w> 350
ash a</w> 350
電腦 包</w> 350
flo or</w> 350
ny x</w> 350
人 氣 349
g l 349
s ach 349
臺 燈 349
薄 款</w> 349
漢 服 349
合 一</w> 349
早 教 349
as ics</w> 349
do ve</w> 349
blo cks</w> 349
hoo ded</w> 349
nor th</w> 349
decor ation</w> 349
勞力 士</w> 349
laven der</w> 349
手 鐲 348
特 殊 348
女 錶 348
k es</w> 348
i sh 348
吃 雞 348
越 野 348
te x 348
dri ver</w> 348
s in 347
k not</w> 347
奶 瓶 347
中 長 347
頭 飾 347
頭 盔 347
側 背 347
售 出</w> 347
安 裝 347
故 事 347
la s</w> 347
ry x</w> 347
ben ch</w> 347
阿瑪 尼</w> 347
史努 比 347
ike a</w> 347
曼 尼 346
大 衣 346
茶 幾</w> 346
h tp</w> 346
棉 褲</w> 346
火 鍋 346
烤 箱 346
性 感</w> 346
貓 咪</w> 346
超 長 346
溫 馨 346
宜 家 346
搖 搖 346
di fier</w> 346
me l 346
so ph 346
時尚 百搭</w> 346
cro m 346
防摔 殼</w> 346
四季 通用 346
衣帽 架 346
spider man</w> 346
suzu ki</w> 346
d ang 345
一 起 345
可 穿</w> 345
f b 345
唇 膏 345
li a</w> 345
di sh</w> 345
兒童 房 345
lon don</w> 345
ed p</w> 345
ine ss</w> 345
鞋女 鞋 345
機械 錶</w> 345
tru e</w> 345
tomat o</w> 345
小 鋪 344
大 小 344
茶 几 344
h im</w> 344
n an 344
z b</w> 344
可 開發票</w> 344
全 家 344
全 掌 344
分 裝</w> 344
盆 栽 344
指 環 344
騎 士</w> 344
un ce</w> 344
da i</w> 344
fu ji 344
動漫 周邊 344
ble ach 344
t ap 343
a a 343
z ak 343
肩 帶</w> 343
肩 背</w> 343
高 中 343
耳 朵 343
纖 維</w> 343
in t 343
le t 343
it or</w> 343
th y</w> 343
cas es</w> 343
ck le</w> 343
電腦 桌</w> 343
crom bie</w> 343
小 包 342
綁 帶</w> 342
不 沾 342
復 仇 342
專 櫃</w> 342
胖 mm 342
城 市 342
哺 乳 342
co ur 342
pe an 342
for m 342
cro pped</w> 342
chlo e</w> 342
戰 鬥 341
t m</w> 341
d unk</w> 341
g ig 341
s x</w> 341
兔 兔 341
m n</w> 341
c ing</w> 341
模 具 341
之 家</w> 341
re f</w> 341
lu x</w> 341
br on 341
限量 版</w> 341
聯名 款</w> 341
十字 紋 341
不對 稱 341
d g 340
口 袋</w> 340
束 腳 340
送 女 340
er as 340
so und</w> 340
vi e</w> 340
sli de</w> 340
臥室 客廳 340
swi m</w> 340
der m</w> 340
comb in 340
乳 膠 339
d m</w> 339
花 束</w> 339
保 健 339
超 取</w> 339
彈 簧 339
切 割 339
哆 啦a 339
si a</w> 339
prote ct</w> 339
nu mber</w> 339
gri ll</w> 339
美容 院 339
p ti 338
漆 皮 338
高 效 338
合 售</w> 338
福 利 338
in flat 338
se n</w> 338
de sk 338
現貨 秒 338
ad v</w> 338
ad ven 338
手機 包</w> 338
pe el</w> 338
cho ker</w> 338
aber crombie</w> 338
n ed</w> 337
武 士 337
日 貨</w> 337
拼 接</w> 337
窗 戶 337
美國 代購 337
over lap</w> 337
sau ce</w> 337
海賊 王 337
brilli ant</w> 337
a w</w> 336
g shock</w> 336
i de</w> 336
護 眼 336
j c</w> 336
去 角 336
邊 柜 336
pre ci 336
男女 生 336
wi red</w> 336
appro x</w> 336
inflat able</w> 336
橡 皮 335
筷 子 335
宮 廷 335
me lon</w> 335
ke ith</w> 335
夏季 薄款 335
loo k</w> 335
contro ller</w> 335
aero x</w> 335
線 條 334
自 取</w> 334
超 強 334
釣 具</w> 334
年 新款 334
蠟 筆 334
蠟 燭 334
螢 幕</w> 334
pu re 334
wel ling 334
clean ing</w> 334
護手 霜</w> 334
pau l</w> 334
戰 靴</w> 333
d x</w> 333
請 先 333
掛 畫</w> 333
裝 備 333
編 號</w> 333
壓 紋 333
海 邊 333
st amp</w> 333
di al</w> 333
vi ew</w> 333
豆豆 鞋</w> 333
fur y</w> 333
洗面 乳</w> 333
pt cg</w> 333
e u</w> 332
延 長 332
極 度 332
二 代</w> 332
洗 車 332
gar ter 332
床頭 柜 332
換鞋 凳 332
e th 331
d ash 331
皮 套 331
能 量 331
格 紋</w> 331
最 新款</w> 331
泳 裝 331
壁 畫 331
冰 淇 331
re ct 331
ch ang 331
go pro</w> 331
bath room</w> 331
wri st</w> 331
小 黑 330
s sion</w> 330
o mega</w> 330
公 斤</w> 330
se e</w> 330
el li 330
sho ppe</w> 330
de cal</w> 330
手機 支架</w> 330
cel l</w> 330
筆記 本</w> 330
mus cle</w> 330
功夫 茶具 330
手 珠</w> 329
r ush</w> 329
g ical</w> 329
鋼 琴 329
假 髮 329
i pad 329
母 親 329
褲 男 329
飯 盒 329
黃 銅 329
鯊 魚 329
任 天 329
ar ts</w> 329
co me</w> 329
休閒 百搭 329
情侶 裝 329
潮流 時尚 329
懶人 鞋 329
usb 充電 329
可調 節 329
station ery</w> 329
ferra gam 329
b f</w> 328
口 水 328
l te</w> 328
z el</w> 328
女 夏 328
c lar 328
跑 鞋 328
家 家 328
涼 拖鞋</w> 328
走 廊 328
跳 蛋</w> 328
co p 328
ri de</w> 328
ma ker</w> 328
do ts</w> 328
wat ches</w> 328
dri fit</w> 328
玻尿 酸 328
輕 鬆 327
加 肥 327
歐 美</w> 327
蛋 糕</w> 327
襯 衣</w> 327
腰 包 327
首 選</w> 327
se qu 327
台灣 公司貨</w> 327
mic s</w> 327
鑰匙 包</w> 327
gg ing</w> 327
限定 版</w> 327
sei ko</w> 327
明信 片</w> 327
smoo th</w> 327
n ano</w> 326
吸 汗 326
麋 鹿 326
in k 326
le aves</w> 326
cas t</w> 326
sat chel</w> 326
麥克 風 326
史努 比</w> 326
吸塵 器</w> 326
tiff any</w> 326
雨 衣</w> 325
手 表</w> 325
手 柄 325
大 牌 325
h m</w> 325
d an</w> 325
l 號</w> 325
出 風 325
鏡 片</w> 325
園 藝 325
耳 飾</w> 325
de sk</w> 325
ul timate</w> 325
tr i</w> 325
手機 架</w> 325
tra vel 325
精品 下殺</w> 325
hear ts</w> 325
comp act</w> 325
bos ch</w> 325
maz da</w> 325
掛 墻 324
雜 誌 324
絲 光 324
丹 寧 324
米 亞 324
減 震 324
魚 子 324
po in 324
po tter</w> 324
ne on</w> 324
ab sor 324
for k</w> 324
cli ps</w> 324
可拆 洗 324
波士 頓 324
莫代 爾 324
e mer 323
y ork</w> 323
杯 子</w> 323
高 速 323
甜 甜 323
圍 兜</w> 323
喬 丹 323
足 球 323
研 磨 323
te le 323
vi vi 323
牛仔 外套</w> 323
skin cerity</w> 323
high lighter</w> 323
補水 保濕 323
r m</w> 322
b g</w> 322
一 腳蹬 322
k no 322
c j</w> 322
高 壓 322
紗 布 322
意 大利 322
樂 園</w> 322
先 生 322
擺 設 322
艾 米 322
替 換 322
as p 322
da vi 322
男女 鞋 322
ing er 322
fre sh 322
hu mi 322
super man</w> 322
五分 褲</w> 322
hang er</w> 322
rose gold</w> 322
手 辦</w> 321
d am 321
b w</w> 321
p li 321
鋼 彈</w> 321
書 架</w> 321
北 歐</w> 321
x x</w> 321
飯 店 321
唇 釉</w> 321
co mm 321
hy un 321
elas tic</w> 321
n ame</w> 320
o p</w> 320
轉 賣 320
全 銅 320
字 母</w> 320
w ren 320
除 臭 320
過 膝 320
低 筒 320
舞 蹈 320
en ce</w> 320
ch al 320
bo w 320
yu an 320
ssi l</w> 320
massa ger</w> 320
sach et</w> 320
bleach ing</w> 320
a h 319
n in 319
z z</w> 319
可 面交</w> 319
零 件 319
珍 珠</w> 319
米 白</w> 319
趣 味 319
緊 緻 319
炫 彩 319
壁 燈 319
含 稅</w> 319
an as 319
me ssen 319
小 羊皮 318
一 套</w> 318
服 飾 318
不 挑 318
m un 318
餐 桌</w> 318
拼 圖 318
fo ssil</w> 318
tu al</w> 318
ey es</w> 318
mag ical</w> 318
head light</w> 318
tro l 318
布藝 沙發 318
polo 衫 318
rain coat</w> 318
垃圾 桶</w> 318
卡西 歐</w> 318
星巴 克 318
ske chers</w> 318
rh ine 318
y e</w> 317
布 丁 317
c x</w> 317
清 淨 317
微 型 317
串 珠 317
鬼 滅 317
sh in 317
cu ps</w> 317
pu ri 317
supre me 317
馬丁 靴 317
volu me</w> 317
大 碼</w> 316
r b</w> 316
滿 額 316
保 留 316
可 充電 316
管 理 316
j r</w> 316
漸 層 316
草 本 316
榨 汁 316
in et</w> 316
po int</w> 316
lv 路易威登 316
cel ine</w> 316
吊帶 褲</w> 316
micro fiber</w> 316
legen d</w> 316
三 輪 315
笑 臉 315
書 本 315
m j</w> 315
f r</w> 315
台 式 315
細 肩帶 315
蕾 絲</w> 315
玉 米 315
降 價 315
ti s 315
ri p 315
mon key</w> 315
gen tle</w> 315
情趣 內衣 315
star s</w> 315
blen der</w> 315
ever y 315
s cu 314
l p</w> 314
冬 天 314
洽 談 314
詹 姆 314
at ure</w> 314
ap ri 314
cu be</w> 314
歐美 風 314
不銹 鋼</w> 314
whit e 314
supp le 314
ghten ing</w> 314
deodor ant</w> 314
小 物 313
t f</w> 313
電 影</w> 313
f ate</w> 313
i que</w> 313
c tor 313
羽 毛 313
ri ch</w> 313
短袖 t</w> 313
保護 殼 313
mb er 313
hy bri 313
鏈條 包 313
scen ted</w> 313
網面 透氣 313
cab inet</w> 313
fantas y</w> 313
小 豬 312
手 帳 312
e ver</w> 312
n it 312
自 己 312
複 古 312
海 灘 312
臥 室</w> 312
詢 問 312
in di 312
lo we 312
fu r</w> 312
ex tr 312
帆布 包</w> 312
ban ner</w> 312
dv d 312
comb i</w> 312
復仇 者 312
z u</w> 311
收 銀 311
記 錄 311
奶 嘴 311
工 坊</w> 311
貓 頭 311
贈 品</w> 311
活 力 311
酵 素 311
ch opp 311
ch ron 311
ash ley</w> 311
ad van 311
三麗 鷗 311
h old</w> 310
一 組 310
掛 飾 310
器 家用 310
夾 子 310
k g 310
w as 310
平 價 310
相 框 310
芝 麻 310
er ie</w> 310
al mon 310
lov ely</w> 310
fre n 310
sig n</w> 310
yo ur 310
抖音 同款 310
附購 買 310
hyun dai</w> 310
s ac 309
花 紋 309
美 女 309
肩 包</w> 309
防 油 309
成 品 309
坐 便 309
浴 巾</w> 309
sh ade</w> 309
bo he 309
sun nies</w> 309
按摩 器</w> 309
耐吉 nike</w> 309
shisei do</w> 309
b j</w> 308
n ba 308
滿 天 308
加 強 308
科 技</w> 308
奶 瓶</w> 308
中 古 308
精 選</w> 308
最 低價</w> 308
拍 攝 308
皇 家 308
婚 慶 308
吸 管</w> 308
山 地 308
悟 空</w> 308
co m</w> 308
th r 308
mi a</w> 308
bu ds</w> 308
pan el</w> 308
小戶型 客廳 308
custo m</w> 308
ster ling</w> 308
humi difier</w> 308
wren ch</w> 308
款 式</w> 307
三 腳 307
y y</w> 307
v r</w> 307
可 刷 307
蜂 蜜 307
剪 刀 307
me i</w> 307
ba hay</w> 307
mas ks</w> 307
ins 網紅 307
下單 處</w> 307
alph a</w> 307
ordin ary</w> 307
請 勿 306
收 腹 306
鞋 櫃</w> 306
提 亮 306
側 掀 306
li li 306
no se</w> 306
do gs</w> 306
vi deo</w> 306
pe pp 306
hy per 306
eye glasses</w> 306
loo p</w> 306
cli ck</w> 306
cool er</w> 306
勞力 士 306
mater nity</w> 306
n b 305
掛 繩</w> 305
零 件</w> 305
底 座</w> 305
客 廳</w> 305
旅 游 305
涼 鞋女 305
別 墅 305
控 制 305
芬 迪</w> 305
彪 馬</w> 305
擋 風 305
忍 者 305
bea t</w> 305
gucci 古奇 305
聖誕 節</w> 305
fragr ances</w> 305
coordin ates</w> 305
messen ger</w> 305
hybri d</w> 305
手 工</w> 304
萬 寶 304
一 件</w> 304
金 屬</w> 304
臉 部 304
f u</w> 304
激 光 304
中 文</w> 304
中 老年 304
改 裝</w> 304
繪 本</w> 304
封 口 304
黏 土 304
福 袋</w> 304
湯 匙</w> 304
co s</w> 304
ul tr 304
ho se</w> 304
收納 櫃 304
wi pes</w> 304
hel d</w> 304
led 燈 304
pack ed</w> 304
play station</w> 304
小方 包 304
線 器</w> 303
動 漫</w> 303
可 移動 303
顆 粒 303
擺 設</w> 303
閃 亮 303
慵 懶 303
re ce 303
flo p</w> 303
spi der</w> 303
小夜 燈</w> 303
凡賽 斯 303
大 師 302
純 銅 302
護 頸 302
日 系</w> 302
w k</w> 302
老 帽</w> 302
分 類 302
做 舊 302
到 貨</w> 302
雛 菊 302
wa y 302
az tec</w> 302
cup cake</w> 302
desk top</w> 302
g k</w> 301
o sh 301
重 低音 301
i k 301
護 唇膏</w> 301
c ali 301
超 可愛 301
w t</w> 301
十 二 301
桌 布 301
滑 鼠</w> 301
選 擇</w> 301
lo l</w> 301
ba k 301
ni s</w> 301
vi l</w> 301
sam ple</w> 301
cor ner</w> 301
fit ness</w> 301
photo card</w> 301
yuan r 301
小 茶幾 300
e k</w> 300
輕 巧 300
女 王 300
鼠 標 300
m old</w> 300
re d 300
al l 300
ho me 300
限時 下殺 300
石英 錶</w> 300
ther mal</w> 300
multi functional</w> 300
phi lipp 300
藍芽 耳機</w> 300
便宜 賣</w> 300
invit ation</w> 300
nak ed</w> 300
v p</w> 299
真 絲 299
f our</w> 299
时 尚 299
紙 盒 299
最 愛 299
速 發</w> 299
鋪 棉 299
褲 襪</w> 299
re fle 299
le n</w> 299
der y</w> 299
vo lution</w> 299
保溫 瓶</w> 299
sur gical</w> 299
g tx</w> 298
y ang</w> 298
美 髮 298
收 縮 298
氣 球</w> 298
個 人 298
co ck 298
so fi 298
ste p</w> 298
play er</w> 298
秒殺 價</w> 298
茶 壺 297
h b</w> 297
代 步 297
l ate 297
件 套</w> 297
單 肩</w> 297
權 志 297
油 畫 297
華 為</w> 297
錶 盤 297
co mics</w> 297
as a</w> 297
pre ssed</w> 297
boo ster</w> 297
女生 包包</w> 297
eyel ash</w> 297
手 搖 296
手 推車</w> 296
r t</w> 296
廚 房</w> 296
n m</w> 296
單 人</w> 296
單 品</w> 296
車 貼</w> 296
實 用</w> 296
mi an</w> 296
ing o</w> 296
ge or 296
手 鍊 295
紅 米 295
多 色可選</w> 295
m ang 295
j y</w> 295
劉 海 295
皇 冠 295
錶 帶 295
寬 版 295
早 春 295
go d</w> 295
len gth</w> 295
op ard</w> 295
沙灘 鞋</w> 295
豆豆 鞋 295
poc kets</w> 295
valentin o</w> 295
juni or</w> 295
extr act</w> 295
茶 桌 294
r ash</w> 294
s g</w> 294
購 買 294
水 滴 294
白 黑</w> 294
旅 行</w> 294
w anna</w> 294
魚 缸 294
st us 294
ba t</w> 294
sun flower</w> 294
自行 車</w> 294
貝殼 包</w> 294
d ash</w> 293
單 車</w> 293
數 碼 293
燈 籠 293
蠟 燭</w> 293
扶 手 293
含 稅 293
鋯 石 293
鉛 筆</w> 293
ro bot</w> 293
ex treme</w> 293
pam bahay</w> 293
小 包包 292
u re 292
b p</w> 292
多 種 292
出 版 292
o ce 292
溫 和 292
q s</w> 292
le vi</w> 292
tra ining</w> 292
wor k</w> 292
家居 服 292
hi p</w> 292
cur ler</w> 292
melo dy</w> 292
g il 291
s av 291
塑 身 291
女 韓版 291
書 籍</w> 291
香 爐 291
髮 箍</w> 291
嚴 選 291
ni kon</w> 291
休閒 短褲</w> 291
las t</w> 291
wat ts</w> 291
tw in</w> 291
兩用 包</w> 291
fin i 291
under arm</w> 291
星巴 克</w> 291
dic kies</w> 291
nai ls</w> 291
edu cat 291
beauti ful</w> 291
h en 290
保 冷 290
防 走 290
雙 子 290
免 費 290
m me 290
時 鐘</w> 290
網 眼 290
空 運</w> 290
定 做 290
森 系 290
導 航 290
ig gle</w> 290
fl am 290
dy e</w> 290
bir ken 290
phi lip 290
雨 傘</w> 289
魯 夫</w> 289
r gb</w> 289
y n</w> 289
純 手工 289
下 擺 289
主 播 289
短袖 上衣 289
wal ker</w> 289
免運 直 289
back less</w> 289
wor k 289
lin e 289
win d</w> 289
健身 器材 289
cen tr 289
ple ated</w> 289
拉拉 熊</w> 289
資料 夾</w> 289
seas on</w> 289
好市 多 289
bun ny</w> 289
resist ant</w> 289
手 推車 288
大 方 288
多 美 288
不 粘 288
不 掉 288
男 友 288
x box</w> 288
穿 搭</w> 288
淑 女 288
st ru 288
ne x 288
gu ar 288
per i 288
gr an 288
三件 組</w> 288
joh n</w> 288
法蘭 絨 288
a e</w> 287
繫 帶 287
繁 體 287
di ff 287
ho le</w> 287
sk ater</w> 287
jo ur 287
she er</w> 287
sy n 287
婚禮 小物</w> 287
pain ting</w> 287
台風 行</w> 287
多卡 位 287
頭戴 式 287
小 號</w> 286
木 工 286
登 機 286
淨 化 286
強 化 286
re ver 286
ph il</w> 286
sho t</w> 286
ki lo</w> 286
il s</w> 286
av en 286
adul ts</w> 286
糖果 色 286
保固 一 286
東大 門 286
givea ways</w> 286
入耳 式 286
ulzz ang 286
bohe mian</w> 286
educat ional</w> 286
t mx</w> 285
d d</w> 285
s and</w> 285
l or 285
美 少女 285
z c</w> 285
杯 墊</w> 285
羊 絨 285
開 運 285
阿 贊 285
as se 285
sun screen</w> 285
mon itor</w> 285
sleev ed</w> 285
bre ak</w> 285
吊帶 裙</w> 285
shad es</w> 285
cir cle</w> 285
人 偶</w> 284
v ice</w> 284
i ma 284
c ele 284
二 合一 284
文 字 284
節 能 284
壓 器</w> 284
內 飾 284
正 裝 284
除 濕 284
伴 娘 284
紀 梵 284
樓 梯 284
ch ia</w> 284
bu mper</w> 284
ss d</w> 284
tas ia</w> 284
rat tan</w> 284
聖羅 蘭 284
新 鮮 283
d v</w> 283
d l</w> 283
電 視</w> 283
花 園</w> 283
n es</w> 283
衣 櫥</w> 283
原 子 283
桃 紅</w> 283
吊 牌</w> 283
藤 原 283
紳 士 283
li ve 283
tr ack</w> 283
par ts</w> 283
旅行 箱 283
gar lic</w> 283
cra y 283
洗手 間 283
cool ing</w> 283
supple ment</w> 283
e qu 282
l b</w> 282
便 攜</w> 282
座 椅</w> 282
古 風 282
只 有 282
專 柜 282
li fe 282
li zer</w> 282
正品 現貨</w> 282
remo val</w> 282
女性 淡香水</w> 282
fau x</w> 282
牛津 布 282
marmon t</w> 282
鬼滅 之 282
大 頭 281
人 物 281
a 貨 281
版 本</w> 281
軟 妹 281
洗 菜 281
腳 墊 281
朋 友</w> 281
q 版 281
認 證</w> 281
in sul 281
at o</w> 281
ti que</w> 281
ab i 281
che st</w> 281
her sch 281
chanel 香奈兒 281
蠟筆 小 281
大 學生 280
r g</w> 280
g d 280
棒 棒 280
隔 板 280
緩 震 280
le opard</w> 280
su its</w> 280
sm iggle</w> 280
pri se</w> 280
ion s</w> 280
san iti 280
hon or</w> 280
比基 尼</w> 280
sni per</w> 280
hero es</w> 280
a y 279
防 爆 279
食 品</w> 279
f k</w> 279
方 便 279
合 身 279
燙 金 279
矯 正 279
re g 279
原廠 公司貨</w> 279
ton y</w> 279
bra lette</w> 279
body suit</w> 279
chic ken</w> 279
comfor t</w> 279
美樂 蒂</w> 279
凱蒂 貓</w> 279
paper back</w> 279
bus iness</w> 279
u k</w> 278
文 化 278
修 容 278
隔 音 278
走 秀 278
買 家 278
范 思哲 278
惡 魔 278
se al</w> 278
mo d</w> 278
現貨 出清</w> 278
flo ps</w> 278
ass i</w> 278
bre ast</w> 278
保鮮 盒</w> 278
iphone x</w> 278
sweat shirt</w> 278
fren ch</w> 278
大 童</w> 277
女 人 277
打 包 277
靠 枕</w> 277
低 跟 277
掃 地 277
as si 277
ri ght</w> 277
pu t</w> 277
man ila</w> 277
限時 特價</w> 277
fa ke</w> 277
便當 盒</w> 277
buil ding</w> 277
安德 瑪</w> 277
val ve</w> 277
snap back</w> 277
皮卡 丘</w> 277
現貨在 台</w> 277
t eam</w> 276
s g 276
直 購 276
長 洋裝</w> 276
中 華 276
優 選 276
貨 架 276
紋 繡 276
商 店</w> 276
傳 統 276
宇 宙 276
an y 276
li ly</w> 276
ro s 276
and a</w> 276
百搭 時尚 276
化妝 包 276
充電 器 276
愛麗 絲 276
pac i 276
anas tasia</w> 276
小 沙發 275
廚 師 275
m als</w> 275
工 廠</w> 275
盒 玩</w> 275
馬 鞍 275
耐 高溫 275
唯 美 275
芳 香 275
bi b</w> 275
辦公 椅 275
hand held</w> 275
安全 帽 275
fen g</w> 275
毛絨 玩具 275
珊瑚 絨 275
fy ing</w> 275
手 感 274
n ine</w> 274
z a 274
日 文 274
j in</w> 274
時 間 274
de t 274
bi o</w> 274
男士 商務 274
咖啡 色</w> 274
鑰匙 扣</w> 274
tat too</w> 274
black pink</w> 274
普拉 達</w> 274
clin ique</w> 274
紅 米</w> 273
r j</w> 273
美 體 273
件 套 273
k ai 273
男 式 273
訂 製</w> 273
好 貨 273
x z</w> 273
殺 菌 273
連 接 273
素 顏 273
to y 273
休閒 長褲</w> 273
ad o</w> 273
單肩 斜跨包</w> 273
sli me</w> 273
supp ly</w> 273
五分 褲 273
ep son</w> 273
mix ed</w> 273
hydr ating</w> 273
press ure</w> 273
miner al</w> 273
t f 272
購 物</w> 272
p b</w> 272
p r</w> 272
美 肌 272
獨 立 272
插 電 272
器 材</w> 272
水 波 272
k al 272
超 市 272
圍 欄 272
草 編 272
絕 對 272
歡 樂 272
an th 272
lo tte</w> 272
mo on 272
現貨 不用等</w> 272
per s</w> 272
單肩 斜跨 272
pas sport</w> 272
cra f 272
sub li 272
lowe en</w> 272
雨 衣 271
一 盒</w> 271
z s</w> 271
c w</w> 271
清 倉</w> 271
中 號 271
w ang</w> 271
授 權 271
露 趾 271
上 新</w> 271
耳 針 271
指 紋 271
支 撐 271
ri se</w> 271
男女 童 271
ex clu 271
air max</w> 271
fit ted</w> 271
ball pen</w> 271
hersch el</w> 271
茶 道 270
金 剛</w> 270
機 芯</w> 270
k 歌 270
潮 t</w> 270
丹 尼 270
復 刻 270
網 布 270
酒 柜 270
範 思哲 270
en velo 270
pe g 270
colo ur</w> 270
圓領 短袖</w> 270
居家 裝飾 270
藍牙 耳機 270
bir d</w> 270
多 色</w> 269
k n</w> 269
深 藍色</w> 269
琉 璃 269
in fe 269
am i</w> 269
ne u 269
mo sch 269
de gre 269
mar ble</w> 269
可愛 小 269
over sized</w> 269
perfu mes</w> 269
ben to</w> 269
限量 版 269
out let</w> 269
雪紡 上衣</w> 269
藍牙 耳機</w> 269
靠背 椅 269
shap ed</w> 269
出風 口 269
pepp a</w> 269
yuanr oro 269
抹 胸 268
維 他 268
掛 繩 268
加 拿 268
加 大</w> 268
陽 光 268
m and 268
極 致 268
鞋 櫃 268
珠 光 268
精 鋼 268
貼 膜</w> 268
樂 器 268
修 身</w> 268
籃 球</w> 268
活 性 268
lo g 268
li t</w> 268
de ter 268
情侶 裝</w> 268
ins 超火 268
cap ac 268
goo d 268
史迪 奇</w> 268
ener gy</w> 268
小 馬 267
波 西 267
雅 詩 267
f ar 267
i ve</w> 267
製 造</w> 267
成 人</w> 267
硬 殼</w> 267
扣 式 267
閃 電 267
隨 行 267
跳 跳 267
re r</w> 267
ch ing</w> 267
si an</w> 267
sp y</w> 267
家用 客廳 267
ex p 267
tri mmer</w> 267
pen s</w> 267
lin ing</w> 267
資生 堂</w> 267
大 眼 266
g l</w> 266
u e</w> 266
雜 誌</w> 266
車 身 266
把 手 266
m u</w> 266
m ur 266
休 閑</w> 266
燈 飾</w> 266
你 的 266
飲 水 266
思 哲</w> 266
收納 包 266
休閑 百搭 266
特價 中</w> 266
mer ry</w> 266
multi color</w> 266
hor se</w> 266
dang ling</w> 266
rever sible</w> 266
小 說 265
p l</w> 265
布 料 265
保 留</w> 265
防 燙 265
m ala 265
南 瓜 265
個 月 265
牙 膏</w> 265
黑 灰</w> 265
後 背包 265
貼 片</w> 265
春 夏季 265
方 便</w> 265
吸 濕 265
亮 面 265
搶 購</w> 265
軌 道 265
di sh 265
br e</w> 265
be at 265
slee p</w> 265
wal k</w> 265
ama zing</w> 265
spon ge 265
史迪 奇 265
大 馬 264
z ar 264
棉 衣 264
木 製 264
m um</w> 264
中 年 264
分 格 264
校 園 264
平 光 264
拍 攝</w> 264
春 秋季 264
負 離子 264
in tel</w> 264
st le</w> 264
韓版 寬松 264
go d 264
gi or 264
cam ping</w> 264
娃娃 機 264
明星 同款</w> 264
moisturi zer</w> 264
kid die</w> 264
tak ara</w> 264
巴黎世 家</w> 264
lear ning</w> 264
h co</w> 263
b it 263
n on 263
加 大碼 263
烤 肉 263
水 鉆 263
f av 263
漸 變 263
刷 破 263
甜 品 263
店 鋪</w> 263
指 定 263
滋 養 263
st an 263
ro ck 263
ti p</w> 263
ti mber 263
ri ck</w> 263
sam e</w> 263
沙發 墊 263
ven e 263
cam i</w> 263
coo kie</w> 263
棒球 帽 263
洗臉 盆 263
雅詩 蘭 263
一 個</w> 262
拖 把 262
面 部 262
男 童</w> 262
斜 背</w> 262
亞 瑟 262
演 唱 262
ch o</w> 262
to kong</w> 262
fo li 262
kin s</w> 262
儲物 櫃 262
ben assi</w> 262
fit ch</w> 262
the me</w> 262
the ft</w> 262
九分 褲</w> 262
bot te 262
吸頂 燈</w> 262
自慰 器</w> 262
電磁 爐 262
kie hl</w> 262
冰淇 淋 262
osh ko 262
l at 261
直 銷</w> 261
o me 261
火 影 261
不 傷 261
女 寶寶 261
訂 單</w> 261
英 雄</w> 261
扭 蛋 261
an i</w> 261
am er</w> 261
ne y 261
ph y 261
su s</w> 261
運動 短褲</w> 261
ff le</w> 261
tra iner</w> 261
沐浴 乳</w> 261
拉拉 熊 261
best seller</w> 261
reli ef</w> 261
阿甘 鞋</w> 261
rhine stone</w> 261
tis sue</w> 261
exclu sive</w> 261
茶 盤 260
h an</w> 260
花 瓶 260
o li 260
可 躺 260
愛 情 260
w u</w> 260
調 整 260
鋁 合金</w> 260
胡 桃 260
教 學 260
as o 260
po oh</w> 260
ab e 260
tt le</w> 260
sc ra 260
tin a</w> 260
西裝 外套</w> 260
color ing</w> 260
神奇 寶貝 260
角落生 物 260
adven ture</w> 260
v neck</w> 259
插 座 259
特 級 259
吉 他</w> 259
啞 光 259
公 克</w> 259
牆 面 259
餃 子 259
壁 燈</w> 259
唐 老 259
mo to 259
de si 259
北歐 實木 259
com fy</w> 259
scre w</w> 259
organ ics</w> 259
防風 外套</w> 259
女性 淡香精</w> 259
保固一 年</w> 259
sponge bob</w> 259
t z</w> 258
r n</w> 258
e co 258
s ad 258
v an</w> 258
v il 258
紫 砂 258
真 品 258
筆 電</w> 258
眼 霜</w> 258
m h</w> 258
k 金 258
制 作 258
正 生 258
最 愛</w> 258
露 營</w> 258
蚊 帳 258
止 滑 258
圣 誕 258
st ones</w> 258
bo l 258
car tier</w> 258
stic ky</w> 258
coo ker</w> 258
貝殼 頭</w> 258
cen ter</w> 258
機器 人</w> 258
魔術 貼 258
打火 機</w> 258
bru sh 258
garter ized</w> 258
deter gent</w> 258
gior gio</w> 258
g b 257
y i 257
p d</w> 257
l u</w> 257
接 待 257
o id</w> 257
水 族 257
燈 泡</w> 257
麻 花 257
低 腰 257
冷 凍 257
搖 滾 257
緹 花 257
sp ro 257
新款 夏季 257
hal loween</w> 257
桌椅 組合 257
闊腿 褲 257
given chy</w> 257
乳 霜</w> 256
水 潤 256
打 印 256
c et</w> 256
台 南 256
公 升</w> 256
腮 紅</w> 256
st roller</w> 256
bo lt</w> 256
mi u</w> 256
so fa</w> 256
da r</w> 256
日本 原裝 256
nat ional</w> 256
stri p</w> 256
電視 機 256
rac er</w> 256
歐洲 站 256
miz uno</w> 256
紅 外線 255
t ela</w> 255
h w</w> 255
p it 255
面 料 255
i ii</w> 255
微 笑 255
廠 商 255
補 光 255
彩 虹</w> 255
瘦 身 255
chanel 香奈兒</w> 255
拉桿 箱 255
you th</w> 255
diff user</w> 255
小 飛 254
茶 水 254
h f</w> 254
地 毯</w> 254
木 頭 254
水 鑽</w> 254
快 充</w> 254
古 裝 254
照 明 254
拍 立 254
春 夏</w> 254
華 碩 254
瑪 瑙 254
捲 髮 254
親 膚 254
良 品 254
be ach 254
單肩 斜挎包 254
du ction</w> 254
化妝 桌 254
清潔 劑</w> 254
wr it 254
漁夫 帽</w> 254
joh n 254
星際 大 254
e c</w> 253
d ell</w> 253
g sm</w> 253
美 甲</w> 253
防 寒 253
古 巴 253
健 身</w> 253
w ine</w> 253
網 紅</w> 253
售 價</w> 253
浴 巾 253
me al</w> 253
si ded</w> 253
運動 外套</w> 253
do ctor</w> 253
夏季 新款</w> 253
圓領 t恤</w> 253
保溫 杯 253
滿千 減</w> 253
must ard</w> 253
薰衣 草 253
birken stock</w> 253
防 曬</w> 252
k on 252
c ct 252
餐 巾 252
實 物 252
奇 奇 252
減 肥 252
耳 墜 252
灰 白</w> 252
契 爾 252
co le</w> 252
le ver</w> 252
ac tual</w> 252
ch en 252
to shi 252
car ters</w> 252
blo om</w> 252
blo od</w> 252
ani mals</w> 252
針織 外套</w> 252
ban g</w> 252
dol ce</w> 252
工作 服 252
butt ons</w> 252
國際 牌</w> 252
bac ter 252
免 洗 251
刷 毛</w> 251
停 車 251
耐 用 251
招 財</w> 251
寬 口 251
拋 光 251
as ter</w> 251
al arm</w> 251
ea gle</w> 251
cu tting</w> 251
be cca</w> 251
客廳 沙發 251
ex cel 251
tu pper 251
gi e</w> 251
sty lus</w> 251
成人 兒童 251
dr in 251
熱賣 款</w> 251
aro und</w> 251
nar u 251
實體 店 251
萬向 輪 251
dec als</w> 251
cock tail</w> 251
cct v</w> 251
t am 250
h r</w> 250
h ic 250
d less</w> 250
s j</w> 250
花 灑 250
p ick</w> 250
掛 鐘</w> 250
短 夾 250
可 當 250
護 照 250
j d</w> 250
公 斤 250
香 蕉 250
蓮 花 250
佩 佩 250
濃 縮 250
in door</w> 250
le m</w> 250
di re 250
時尚 簡約 250
ligh ten</w> 250
prin ter</w> 250
for tun 250
gen eva</w> 250
ten t</w> 250
bel le</w> 250
展示 架</w> 250
全場 買二送一</w> 250
wrist let</w> 250
oce an</w> 250
小 型</w> 249
龍 貓 249
戰 術 249
g in</w> 249
美 術 249
瓷 磚 249
可 選 249
鞋 架</w> 249
超 亮 249
w ings</w> 249
貼 膜 249
景 觀 249
lo s</w> 249
mo du 249
fi eld</w> 249
bat ch</w> 249
網紅 款 249
美式 鄉村 249
sen sor</w> 249
fle xi 249
ling erie</w> 249
小 可愛</w> 248
r inger</w> 248
h it 248
b by</w> 248
同 步 248
粉 紅色</w> 248
壓 式 248
連 帽</w> 248
影 音 248
柔 軟</w> 248
店 長 248
過 敏 248
凳 子</w> 248
強 光 248
循 環 248
on y</w> 248
ash es</w> 248
il l</w> 248
be y 248
pe plum</w> 248
fo x</w> 248
he el</w> 248
lun a</w> 248
heal thy</w> 248
七龍 珠 248
inclu ded</w> 248
余文 樂</w> 248
小 香</w> 247
雨 鞋 247
h t</w> 247
立 牌</w> 247
印 章 247
女 子 247
k elly</w> 247
杯 緣 247
超 細 247
老 式 247
平 滑 247
團 購 247
空 運 247
蓬 蓬 247
串 珠</w> 247
驅 蚊 247
永 生 247
to x</w> 247
la und 247
sp en 247
sk ir 247
dis infe 247
gar ter</w> 247
fig ures</w> 247
熱銷 款</w> 247
won der 247
茶 花 246
e h</w> 246
卡 包 246
n ap 246
出 口 246
門 簾</w> 246
歐 米 246
k k 246
氣 球 246
拉 格 246
時 光 246
甜 心 246
貼 布 246
脫 毛 246
方 型 246
橄 欖 246
mar ker</w> 246
con tour</w> 246
fo g</w> 246
sc rip 246
nat asha</w> 246
ass y</w> 246
rubb er 246
inten se</w> 246
客製 化</w> 246
工藝 品 246
緬甸 玉 246
可刷 卡</w> 246
生 日</w> 245
p i</w> 245
接 頭</w> 245
妝 前 245
可 可 245
桃 園 245
藤 編 245
驚 喜 245
蛤 蟆 245
sp ig 245
cor al</w> 245
加厚 保暖 245
快速 出貨 245
ther mo 245
dai sy</w> 245
shar k</w> 245
ghten er</w> 245
多用 途 245
kir k 245
peg asus</w> 245
tupper ware</w> 245
t shirts</w> 244
作 者</w> 244
保 守 244
標 籤 244
管 理</w> 244
送 一 244
w ar</w> 244
涼 拖鞋 244
方 頭 244
周 年 244
被 套</w> 244
sh er 244
mi u 244
ul a</w> 244
新款 女士 244
dre ss 244
kit a</w> 244
go g 244
her e</w> 244
clas si 244
eng ine</w> 244
spo t</w> 244
eli z 244
fau cet</w> 244
去角 質 244
紅米 note</w> 244
flam ingo</w> 244
subli mation</w> 244
手 幅</w> 243
t ine</w> 243
d p</w> 243
b m</w> 243
n ac</w> 243
z i</w> 243
彩 繪</w> 243
耳 塞 243
貔 貅 243
樣 板 243
lo e 243
fe min 243
置物 櫃</w> 243
bal let</w> 243
圓領 短袖 243
bri ghtening</w> 243
限時 促銷</w> 243
war m</w> 243
chil d</w> 243
三眼 怪</w> 243
新品上 市</w> 243
botte ga</w> 243
laund ry</w> 243
整 套 242
書 店</w> 242
熊 貓 242
c ci</w> 242
x c</w> 242
頭 飾</w> 242
成 新 242
平 板</w> 242
蒸 汽 242
角 幾 242
倉 庫</w> 242
en ta</w> 242
la k 242
su c 242
ki mono</w> 242
ho mme</w> 242
ack s</w> 242
ce ta 242
網紅 同款 242
bel la</w> 242
wor d</w> 242
洗手 盆 242
ruff led</w> 242
sci ss 242
d z</w> 241
v c</w> 241
無 限 241
放 大 241
全 效 241
i m 241
絨 布 241
黑 頭 241
雷 射 241
訓 練</w> 241
西 班 241
ap i 241
vi t</w> 241
ci vic</w> 241
北歐 風格 241
gra ph</w> 241
充電 寶 241
tin y</w> 241
mono pod</w> 241
mix er</w> 241
hor n</w> 241
plat form</w> 241
偶像 學 241
補充 包</w> 241
史密 斯</w> 241
almon d</w> 241
r i</w> 240
r am 240
u ses</w> 240
不 可 240
本 舖</w> 240
圓 盤 240
紙 袋</w> 240
絲 襪</w> 240
改 良 240
玉 石 240
圍 裙</w> 240
香 皂 240
髮 束</w> 240
寵 物</w> 240
信 用 240
支 持 240
凝 露</w> 240
咖啡 色 240
五分 袖 240
rou gh</w> 240
bou tique</w> 240
d t</w> 239
g as 239
b one</w> 239
女 士</w> 239
i v 239
客 服</w> 239
超 仙 239
百 變 239
絲 巾</w> 239
起 子 239
涼 席 239
視 頻 239
和 風 239
隱 藏 239
月 亮 239
踏 板 239
sh ka</w> 239
bo und</w> 239
運動 長褲</w> 239
qu il 239
dis ney 239
連帽 衛衣</w> 239
chil i</w> 239
長版 上衣</w> 239
下標 處</w> 239
sur prise</w> 239
light weight</w> 239
夏裝 新款 239
kar ao 239
空軍 一 239
克 羅 238
面 包 238
面 料</w> 238
機 車</w> 238
防 臭 238
夏 裝</w> 238
水 泥 238
雙 向 238
科 學 238
中 型 238
擴 香 238
側 邊 238
毫 安 238
in sta 238
lo ft 238
gi f 238
tw s</w> 238
lin en</w> 238
沙灘 鞋 238
spig en</w> 238
國 際</w> 237
直 接 237
櫃 子 237
抽 象 237
睫 毛</w> 237
軟 糖</w> 237
魔 力 237
樂 園 237
桌 家用 237
年 保固</w> 237
腕 表</w> 237
靠 墊</w> 237
博 柏 237
ul t</w> 237
運動 套裝 237
現貨 特價</w> 237
百搭 款</w> 237
mat ting</w> 237
ang er</w> 237
fla w 237
chi ps</w> 237
sy ru 237
swit ch 237
喇叭 袖 237
spar kle</w> 237
poin ted</w> 237
sofi a</w> 237
flexi ble</w> 237
ceta phil</w> 237
卡 套</w> 236
配 飾 236
可 樂 236
磁 鐵</w> 236
高 精 236
頸 椎 236
香 檳 236
香 氛</w> 236
跳 舞 236
匡 威</w> 236
兒童 玩具</w> 236
休閑 褲 236
sa f 236
美國 正品</w> 236
ins 潮 236
男鞋 女鞋</w> 236
cat s</w> 236
ribb ed</w> 236
tai wan</w> 236
photo cards</w> 236
名片 夾</w> 236
lili w</w> 236
手 腕 235
g c</w> 235
皮 膚 235
兔 子</w> 235
al ice</w> 235
sp icy</w> 235
mo to</w> 235
bu ckle</w> 235
be an</w> 235
pri me 235
fla p</w> 235
旅行 包 235
is bn</w> 235
dv r</w> 235
單人 雙人 235
遮陽 帽 235
可拆 卸 235
blan c</w> 235
滑板 車 235
dani el</w> 235
潘朵 拉</w> 235
karao ke</w> 235
小 熊</w> 234
d x 234
b w 234
p y 234
o w 234
掛 架 234
帶 燈 234
精 致 234
燈 飾 234
輪 胎 234
達 菲 234
尿 布 234
滾 筒 234
魅 力 234
檯 燈</w> 234
mo ther 234
韓版 學生 234
男女 學生 234
mar io</w> 234
wa s</w> 234
lit ers</w> 234
man o</w> 234
lou is 234
洗衣 機</w> 234
gol f</w> 234
pla ins</w> 234
saniti zer</w> 234
小 洋裝</w> 233
小 汽車</w> 233
e b</w> 233
s wa 233
一 對</w> 233
牛 仔</w> 233
心 機 233
男 孩</w> 233
i de 233
j t</w> 233
精 靈</w> 233
上 新 233
華 麗 233
墻 貼 233
as ure</w> 233
so l</w> 233
bu t</w> 233
be ver 233
par k</w> 233
廚房 用品 233
sto ck 233
ka i</w> 233
限定 賣場</w> 233
bre ast 233
石英 錶 233
空氣 清淨 233
a字 裙 233
resi n</w> 233
coun t</w> 233
plat in 233
ctor s</w> 233
出版 社</w> 233
femin ine</w> 233
y y 232
櫥 柜 232
櫥 窗 232
盤 子 232
記 事 232
客 人 232
雪 花</w> 232
x y 232
硬 殼 232
華 萊 232
留 言 232
相 框</w> 232
側 翻 232
肥 皂 232
坡 跟 232
un i</w> 232
家用 小型 232
pu ppy</w> 232
tre tta</w> 232
lv 路易威登</w> 232
海外 代購 232
chee se</w> 232
小熊 維尼</w> 232
小腳 褲 232
ruff le</w> 232
束口 袋</w> 232
紙巾 盒 232
大 框 231
a ke</w> 231
e c 231
e mbo 231
約 會 231
布 料</w> 231
轉 運 231
可 放 231
時 裝 231
海 綿</w> 231
吧 台 231
繪 畫 231
燃 氣 231
切 菜 231
試 用 231
售 完 231
焦 糖 231
ash i</w> 231
男女 通用</w> 231
牛仔 短褲 231
大碼 女裝 231
squ ish 231
airpo ds 231
strai ghtener</w> 231
獨角 獸 231
combin ation</w> 231
復仇者 聯盟</w> 231
g el 230
電 風扇</w> 230
n au 230
一 個 230
帶 鎖 230
警 示 230
糖 果</w> 230
f igh 230
k b</w> 230
挎 包</w> 230
孩 子 230
w i</w> 230
產 品 230
寄 出</w> 230
泰 國</w> 230
鳳 梨 230
re volution</w> 230
th is</w> 230
so me</w> 230
ele ph 230
歐美 時尚 230
cos rx</w> 230
coo king</w> 230
om ing</w> 230
heal ing</w> 230
fer r 230
打火 機 230
cac tus</w> 230
kirk land</w> 230
紅 包 229
a de 229
d k 229
v ar 229
特 典</w> 229
m n 229
成 長 229
法 拉 229
琺 瑯 229
團 購</w> 229
鐘 表 229
耳 夾 229
en han 229
ri t</w> 229
vi sible</w> 229
化妝 臺 229
沙發 椅 229
秋冬 款 229
設計 感 229
cur ity</w> 229
pil low 229
ky o</w> 229
loo t</w> 229
轉接 頭</w> 229
方向 盤 229
悠遊 卡</w> 229
skir ts</w> 229
syru p</w> 229
戰 士 228
新 百 228
電 風扇 228
美 顏 228
金 標</w> 228
體 重 228
水 瓶</w> 228
毛 帽</w> 228
阿 曼尼 228
冰 鞋 228
肌 膚 228
休閒 褲 228
cre w</w> 228
swe e 228
指甲 油</w> 228
四件 組</w> 228
百貨 店</w> 228
armani 阿瑪尼 228
toi let</w> 228
男性 淡香水</w> 228
collecti ons</w> 228
母親 節 228
r r</w> 227
e v 227
s j 227
s z</w> 227
號 店</w> 227
雙 c 227
文 青 227
星 星</w> 227
實 戰 227
w an 227
黑 膠 227
四 色 227
奈 米 227
圍 裙 227
宅 配</w> 227
航 空 227
搖 擺 227
賓 士</w> 227
橘 色</w> 227
le vis</w> 227
wo ol</w> 227
do or 227
gh z</w> 227
pan ini</w> 227
spor t 227
lv 女包</w> 227
ber shka</w> 227
鑰匙 圈 227
四件 套</w> 227
hard cover</w> 227
twi st</w> 227
卡娜赫 拉 227
stus sy</w> 227
asse mbl 227
platin um</w> 227
變 壓器</w> 226
防 漏 226
發 熱 226
軟 膠 226
頭 皮 226
古 銅 226
黑 武士</w> 226
分 期</w> 226
窗 簾</w> 226
後 視 226
逼 真 226
初 中 226
徽 章 226
企 業 226
ro l</w> 226
po st</w> 226
la bel</w> 226
so da</w> 226
pa w</w> 226
pi lot</w> 226
spe ed 226
out let 226
zz a</w> 226
全場 免運</w> 226
保證 正品</w> 226
kt v 226
t b 225
h e</w> 225
卡 地 225
輕 便</w> 225
納 米 225
車 門 225
奶 嘴</w> 225
馬 達</w> 225
中 腰 225
j m</w> 225
壓 力 225
開 門 225
專 利 225
仙 人 225
牆 壁 225
週 年</w> 225
低 幫</w> 225
帳 篷</w> 225
菲 利 225
倉 鼠 225
lo af 225
di ffe 225
el l 225
ig n 225
du st 225
tw ork</w> 225
雙肩 背包</w> 225
ku ma</w> 225
適用 于 225
麵包 超人 225
oshko sh</w> 225
e i 224
z one</w> 224
m ani 224
熊 熊 224
中 夾</w> 224
貓 窩 224
幼 稚 224
麻 將 224
主 題 224
腮 紅 224
am o 224
ir s</w> 224
pi x 224
純棉 圓領 224
t恤 女 224
特價 免運</w> 224
dol ls</w> 224
natur als</w> 224
emb lem</w> 224
筆記本 電腦 224
ble ach</w> 224
學步 鞋</w> 224
吹風 機</w> 224
clou d</w> 224
eras er</w> 224
直購 價</w> 224
小 清新</w> 223
手 指 223
r ing 223
h 出貨</w> 223
e ven 223
設 備 223
保 羅 223
物 語</w> 223
加 粗 223
衣 著 223
c s 223
第 五 223
甜 蜜 223
暗 黑 223
素 面</w> 223
駕 車 223
佛 牌 223
螺 紋 223
髮 飾 223
碗 碟 223
恐 龍</w> 223
鸚 鵡 223
竹 節 223
獅 子 223
野 營 223
现 货 223
永 久 223
現貨 特價 223
ear th</w> 223
gi ant</w> 223
廚房 收納</w> 223
pen shoppe</w> 223
辦公 桌</w> 223
ve hic 223
the tic</w> 223
整理 箱 223
acti cal</w> 223
frien d 223
九分 褲 223
ferragam o</w> 223
絲光 棉 223
小 桌子</w> 222
大 logo</w> 222
a j 222
a way</w> 222
d un 222
花 茶 222
l m</w> 222
布 置 222
機 油 222
陶 瓷</w> 222
發 貨 222
f all</w> 222
k yo 222
明 星</w> 222
專 賣</w> 222
泡 澡 222
亮 白 222
冷 氣</w> 222
各 種 222
輻 射 222
po ur</w> 222
cas tle</w> 222
日本 正版</w> 222
hu go</w> 222
nat ive</w> 222
man y</w> 222
dr e</w> 222
限定 款</w> 222
coo kies</w> 222
腳踏 車</w> 222
小夜 燈 222
角色扮 演</w> 222
施華洛世 奇 222
口水 巾</w> 222
t bag</w> 221
a le 221
e z</w> 221
科 比</w> 221
吉 祥 221
軟 皮 221
護 腰 221
超 薄</w> 221
珍 藏 221
絲 襪 221
個 月</w> 221
老 鼠 221
限 時</w> 221
其 他 221
典 藏 221
療 癒 221
熒 光 221
霸 氣 221
韓版 新款 221
韓版 簡約 221
二手 精品</w> 221
ins ert</w> 221
wai sted</w> 221
購物 袋 221
cal amansi</w> 221
play boy</w> 221
chopp er</w> 221
波西 米亞 221
desi re</w> 221
人 偶 220
三 代 220
面 霜</w> 220
靜 音</w> 220
加 寬 220
前 後 220
全 實木 220
圓 形</w> 220
休 闲 220
拼 布 220
老 師 220
天 空 220
聯 繫 220
音 樂</w> 220
胸 包 220
蜜 桃 220
滑 板</w> 220
睡 裙 220
富 士 220
瘋 狂 220
晾 衣架 220
緞 面 220
鐳 射 220
re a 220
lo g</w> 220
al ler 220
ba o</w> 220
ba o 220
to tal</w> 220
ic o</w> 220
de fen 220
pre love</w> 220
fi ve</w> 220
裝飾 畫</w> 220
stu dent</w> 220
汽車 用 220
新品 免運</w> 220
戶外 運動 220
medi a</w> 220
防曬 衣 220
氣墊 粉餅</w> 220
高腰 顯瘦 220
鋼化 膜</w> 220
馬克 杯 220
鴨舌 帽 220
高爾夫 球 220
vege table</w> 220
trol ley</w> 220
fini sh</w> 220
assembl y</w> 220
r us 219
e z 219
b es</w> 219
花 草 219
o t 219
水 餃 219
透 膚 219
只 要</w> 219
開 衩 219
典 雅 219
螺 旋 219
推 拉 219
彌 月 219
ro ad</w> 219
ti me 219
sho pping</w> 219
wit ho 219
sle y</w> 219
mm a</w> 219
ath er 219
手工 編織 219
情趣 精品</w> 219
ja g</w> 219
under wire</w> 219
遙控 器 219
adap tor</w> 219
基本 款 219
行車 記錄 219
envelo pe</w> 219
bacter ial</w> 219
flaw less</w> 219
小 丸 218
h z</w> 218
n u</w> 218
環 球 218
保 護</w> 218
加 固 218
防 身 218
防 震 218
短 筒 218
全 能 218
f d</w> 218
f ic 218
f ic</w> 218
打 孔</w> 218
激 情 218
憑 證</w> 218
斜 挎</w> 218
天 使</w> 218
黑 紅 218
牆 上 218
賦 活 218
con sole</w> 218
con centr 218
保護 膜</w> 218
gr inder</w> 218
dor ae 218
iti ve</w> 218
embroi dery</w> 218
皮卡 丘 218
隨機 出貨</w> 218
soph ie</w> 218
送女 友 218
advan ced</w> 218
witho ut</w> 218
小 紅 217
手 袋 217
杏 仁 217
d ear</w> 217
電 玩</w> 217
s lot</w> 217
花 束 217
下 午 217
愛 的 217
燈 芯 217
豆 腐 217
bo bb 217
la i</w> 217
ab s</w> 217
lv 包包</w> 217
shi mano</w> 217
ali st</w> 217
美人 魚</w> 217
bene fit</w> 217
smi le</w> 217
小 童</w> 216
雨 鞋</w> 216
電 器</w> 216
b h</w> 216
外 線</w> 216
獨 特 216
長 柄 216
五 月 216
拉 桿</w> 216
斜 背包 216
天 然</w> 216
床 罩 216
引 擎 216
卷 發 216
te ddy</w> 216
car d 216
ju ju 216
blo uses</w> 216
prin ting</w> 216
美國 隊 216
秋冬 新款</w> 216
bur y</w> 216
卡通 可愛 216
拉鏈 錢包</w> 216
滑板 車</w> 216
存錢 筒</w> 216
philip p</w> 216
u a 215
皮 面 215
簡 體 215
書 法 215
假 髮</w> 215
f on 215
x p</w> 215
古 董 215
公 司</w> 215
禪 意 215
過 敏</w> 215
彈 性</w> 215
試 衣 215
re ser 215
sp lus</w> 215
vi os</w> 215
短袖 襯衫</w> 215
情侶 對 215
ack er</w> 215
玻璃 杯</w> 215
太陽 眼鏡 215
儲物 架 215
tro p 215
com pre 215
優惠 中</w> 215
預購 款</w> 215
aqu ari 215
小腳 褲</w> 215
a字 裙</w> 215
souven irs</w> 215
abe th</w> 215
eleph ant</w> 215
a lex 214
n s 214
n n</w> 214
無 毒 214
滿 鑽 214
排 汗</w> 214
粉 嫩 214
內 置 214
羊 羔 214
織 帶 214
四 代 214
慕 斯 214
棕 色</w> 214
lu lu 214
te st</w> 214
fi re 214
fi ed</w> 214
ten s</w> 214
寬松 顯瘦 214
der ma</w> 214
om ni</w> 214
amp li 214
scen ts</w> 214
cham pi 214
eliz abeth</w> 214
大 師</w> 213
h r 213
g u</w> 213
g lam 213
圖 書 213
便 條 213
打 氣 213
奶 茶</w> 213
i st</w> 213
折 優惠</w> 213
貓 抓 213
j v</w> 213
效 期</w> 213
櫻 花</w> 213
溫 度 213
菲 拉格 213
劇 場 213
an ni 213
me chan 213
ke e</w> 213
bi c</w> 213
bal an 213
gucci 古馳</w> 213
mil k 213
dol l 213
歐洲 代購</w> 213
mater ial</w> 213
ham mer</w> 213
lumin ous</w> 213
cac ao</w> 213
geor ge</w> 213
小 麥 212
立 體</w> 212
排 氣 212
武 器 212
k l 212
雪 莉 212
精 梳 212
牙 膏 212
話 筒 212
陳 列 212
潔 膚 212
热 销</w> 212
sh elf</w> 212
di um</w> 212
ba pti 212
am ber</w> 212
gre at</w> 212
增高 鞋</w> 212
游泳 衣 212
proje ct</w> 212
飛利 浦</w> 212
conne ctor</w> 212
cour t</w> 212
gog oro</w> 212
新 手 211
夜 視 211
y x</w> 211
克 斯 211
體 驗 211
夾 縫 211
i do 211
c u</w> 211
高 質感 211
j on 211
項 圈</w> 211
相 片 211
耳 飾 211
爬 行 211
綠 茶 211
掀 蓋 211
陀 螺</w> 211
to wer</w> 211
th ri 211
休閒 套裝</w> 211
do me</w> 211
fi le</w> 211
pan ties</w> 211
免運 費 211
tin ted</w> 211
wai i</w> 211
儲物 柜</w> 211
限時 優惠</w> 211
fit flop</w> 211
短袖t恤 女 211
電瓶 車 211
冰雪奇 緣</w> 211
pean ut</w> 211
toshi ba</w> 211
h at 210
直 郵</w> 210
保 存 210
水 彩 210
前 短 210
背 蓋</w> 210
實 木</w> 210
制 冷 210
彩 色</w> 210
樂 樂 210
淨 白 210
野 外 210
or a 210
ur ing</w> 210
bl ing</w> 210
ligh ting</w> 210
ste ph 210
temp o</w> 210
原廠 公司貨 210
hy dro 210
stre aming</w> 210
正版 dvd</w> 210
bar ley</w> 210
super dry</w> 210
multi function</w> 210
全場 秒殺</w> 210
小 鹿 209
小 吃 209
e vo</w> 209
生 物 209
萬 代</w> 209
滅 蚊 209
水 龍頭</w> 209
m si</w> 209
老 花</w> 209
帽 t 209
漫 威 209
綠 蘿 209
港 味 209
丁 字 209
鬧 鐘 209
co il</w> 209
se curity</w> 209
ti sso 209
th ai</w> 209
po lar 209
la zy</w> 209
ad ri 209
be e 209
韓國 連線</w> 209
臥室 燈 209
gre en 209
gen ic</w> 209
自動 機械 209
fro sted</w> 209
外套 女 209
ken zo</w> 209
butt on 209
sno w 209
指甲 油 209
腳踏 墊</w> 209
cri b</w> 209
lam in 209
tru ck</w> 209
手電 筒</w> 209
naru to</w> 209
a ge 208
d den</w> 208
三 菱</w> 208
件 式 208
水 性 208
光 碟</w> 208
葉 子 208
原 創</w> 208
i d 208
粉 刺 208
日 期 208
奇 蹟 208
法 國</w> 208
耐 用</w> 208
比 賽 208
in c</w> 208
re max</w> 208
re stock</w> 208
cas io 208
家用 多功能 208
全新 真品</w> 208
do zen</w> 208
mar ine</w> 208
短袖 polo衫</w> 208
學生 用 208
經典 商務 208
沙發 床 208
寬鬆 顯瘦 208
war ri 208
經濟 型</w> 208
優質 賣場</w> 208
凡賽 斯</w> 208
小 魚 207
小 怪獸 207
人 造 207
b n 207
美 津 207
單 層 207
嬰 幼 207
水 鬼 207
假 面 207
銀 針 207
英 國</w> 207
油 煙 207
桌 遊 207
就 是 207
al d</w> 207
se con 207
ti cal</w> 207
ma m</w> 207
ma kita</w> 207
su it 207
pri de</w> 207
gr am 207
cy lin 207
dra wer</w> 207
zo o</w> 207
安德 瑪 207
滿天 星 207
ferr ari</w> 207
juju be</w> 207
功 能</w> 206
j k</w> 206
除 毛 206
駕 駛 206
蕾 哈 206
壁 紙 206
非 常 206
橡 木 206
麋 鹿</w> 206
暢 銷 206
an t 206
al tis</w> 206
mo vie</w> 206
de tox</w> 206
gu ide</w> 206
日本 帶回 206
手機 支架 206
mon t 206
套裝 女 206
bri ck</w> 206
蘋果 x 206
diy 手工 206
美人 魚 206
加拿 大 206
scrip tion</w> 206
s lo 205
p ea 205
金 銀 205
z ir 205
掛 衣 205
地 中 205
水 洗</w> 205
k ak 205
餐 盤</w> 205
噴 頭 205
搭 配</w> 205
母 乳 205
飛 線</w> 205
吊 牌 205
圈 圈 205
髮 夾 205
王 國</w> 205
潔 顏 205
隨 手 205
靴 子 205
in d</w> 205
en a</w> 205
時尚 個性 205
pa zz 205
pu mp 205
bro ther</w> 205
dai so</w> 205
band s</w> 205
ler y</w> 205
effe ct</w> 205
syn thetic</w> 205
timber land</w> 205
購 入 204
p f</w> 204
l 型 204
v ga</w> 204
棉 質</w> 204
面 盆 204
理 發 204
套 餐</w> 204
對 折 204
南 極 204
藝 術</w> 204
氣 動 204
燕 麥 204
桃 花 204
素 色</w> 204
拍 賣</w> 204
雞 肉 204
碳 纖維</w> 204
豐 田</w> 204
si cal</w> 204
so lu 204
au x</w> 204
shor t 204
fi x</w> 204
pe ts</w> 204
ju mbo</w> 204
fu sion</w> 204
咖啡 杯 204
ca fe</w> 204
玄關 柜 204
glit ters</w> 204
螢幕 保護貼</w> 204
美樂 蒂 204
sol o</w> 204
護膚 品 204
wol f</w> 204
g li 203
i or</w> 203
j ol 203
w cf</w> 203
漱 口 203
貼 身 203
桌 椅</w> 203
蜜 粉</w> 203
方 形</w> 203
罩 衫 203
鋰 電池</w> 203
穿 搭 203
野 生 203
忍 者</w> 203
an n 203
st eam</w> 203
po ds</w> 203
te k 203
de ck</w> 203
ele ct 203
cor re 203
gi oh</w> 203
eye glass</w> 203
yu gioh</w> 203
媽媽 包</w> 203
bul let</w> 203
促銷 價</w> 203
升級 版</w> 203
your self</w> 203
維他 命 203
g ur 202
o s 202
維 修</w> 202
長 筒 202
長 襪</w> 202
車 用</w> 202
裝 備</w> 202
c ad 202
絨 面 202
時 髦 202
斑 馬 202
托 盤 202
胸 前 202
切 片 202
雞 蛋 202
王 子 202
入 戶 202
聲 波 202
葫 蘆 202
販 售</w> 202
re st</w> 202
bo ar 202
日本 迪士尼 202
cre amy</w> 202
war ran 202
ag a 202
san ta</w> 202
cat cher</w> 202
lock ed</w> 202
ame l</w> 202
smart phone</w> 202
fuji film</w> 202
capac ity</w> 202
奇奇 蒂 202
warran ty</w> 202
t n</w> 201
e ce</w> 201
b in</w> 201
y es</w> 201
一 代 201
一 包</w> 201
o wl</w> 201
獨 家</w> 201
膚 色 201
提 花 201
網 面</w> 201
伴 手 201
蔬 果 201
教 師 201
庫 存 201
凝 膠 201
ch ed</w> 201
to ms</w> 201
針織 毛衣</w> 201
sto ve</w> 201
連帽 衛衣 201
ly n</w> 201
聯名 款 201
拉鍊 長夾</w> 201
cli pper</w> 201
現貨供 應 201
哈倫 褲 201
防潑 水</w> 201
disinfe ct 201
紅 白 200
大 利</w> 200
e g</w> 200
g es</w> 200
卡 其</w> 200
單 件 200
書 櫃 200
i i 200
絲 巾 200
正 貨 200
細 肩 200
佛 牌</w> 200
按 摩</w> 200
刻 字 200
抗 皺 200
片 裝</w> 200
竹 炭 200
橘 色 200
in visible</w> 200
ch un 200
ph e</w> 200
ad v 200
ver s</w> 200
男士 腕錶</w> 200
sun block</w> 200
化妝 鏡 200
旅行 組</w> 200
hon ey 200
羽絨 外套</w> 200
alph ab 200
明信 片 200
preci ous</w> 200
dish washing</w> 200
squish y</w> 200
波 點 199
款 號</w> 199
大 地 199
h ai 199
e tc</w> 199
萬 年 199
變 速 199
把 手</w> 199
全 店 199
贈 送 199
酒 紅</w> 199
妹 妹 199
冷 藏 199
故 事</w> 199
煙 灰 199
傢 俱</w> 199
渡 假 199
bb q</w> 199
新品 熱賣</w> 199
ali an</w> 199
ag nes</w> 199
glo be</w> 199
材料 包</w> 199
泳衣 女 199
pic ture</w> 199
tou gh</w> 199
post ale</w> 199
當天 出貨</w> 199
gener ation</w> 199
cop y</w> 199
dorae mon</w> 199
elect ro 199
小 包包</w> 198
小 朋友 198
b ws</w> 198
n x</w> 198
直 播</w> 198
薄 外套</w> 198
f arm</w> 198
c el</w> 198
證 明</w> 198
雪 地 198
貓 眼 198
透 光 198
街 拍 198
最 新</w> 198
破 壞 198
涼 拖 198
容 量 198
麻 辣 198
降 噪 198
蚊 帳</w> 198
辣 椒 198
拳 擊 198
ki ds 198
運動 褲 198
收納 筐 198
男女 孩 198
fu ture</w> 198
精品 代購</w> 198
嬰兒 床 198
stre n 198
vo ice</w> 198
熱銷 款 198
手機殼 iphone</w> 198
睡衣 女 198
一件 免運</w> 198
原子 筆</w> 198
vene ta</w> 198
小 美 197
r ace</w> 197
y ao</w> 197
鋼 絲 197
發 財 197
可 水洗 197
磁 力 197
免 打孔</w> 197
全 網 197
i ri 197
c lamp</w> 197
超 低價</w> 197
天 絲 197
場 景 197
香 皂</w> 197
盆 栽</w> 197
深 v 197
刺 激 197
鬧 鐘</w> 197
茉 莉 197
an k 197
mo ti 197
mi lit 197
家用 臥室 197
充電 寶</w> 197
ban a</w> 197
lay ered</w> 197
mil ky</w> 197
中筒 襪</w> 197
飛利 浦 197
lea gue</w> 197
game pad</w> 197
mosch ino</w> 197
茶 具</w> 196
g inger 196
b li 196
購 買</w> 196
v at 196
o ven</w> 196
寶 石</w> 196
童 話 196
不 易 196
可 伸縮 196
磁 扣 196
軟 包 196
打 磨 196
系 統</w> 196
預 訂</w> 196
籠 子 196
戀 愛 196
狂 歡 196
堅 果 196
am as</w> 196
th ings</w> 196
ur s</w> 196
時尚 休閑 196
min er</w> 196
jo gging</w> 196
bea ded</w> 196
squ a 196
eye wear</w> 196
dar t</w> 196
mor ning</w> 196
香港 代購</w> 196
水桶 包 196
飛機 杯</w> 196
無線藍牙 耳機 196
防潑 水 196
膠原 蛋白 196
地中 海 196
d ino 195
臺 燈</w> 195
n en 195
v t</w> 195
保 養</w> 195
板 凳 195
寶 馬 195
不 倒 195
木 紋 195
家 族</w> 195
日 發 195
語 音 195
j in 195
兄 弟 195
後 背 195
社 團 195
企 鵝 195
縫 隙 195
lo lit 195
ch ea 195
li an</w> 195
ro be</w> 195
th y 195
ni sh</w> 195
ke e 195
運動 拖鞋</w> 195
per a</w> 195
pi e</w> 195
chan nel</w> 195
son s</w> 195
swi ft</w> 195
限量 款</w> 195
roy ale</w> 195
寫字 桌 195
spar k</w> 195
棋盤 格 195
b bies</w> 194
花 瓣 194
銀 飾 194
製 作</w> 194
粉 紅色 194
家 電</w> 194
晶 鑽 194
附 贈 194
達 人 194
晚 安 194
方 塊 194
剎 車 194
私 密 194
已 售出</w> 194
監 控 194
ro man 194
di vi 194
ni pple</w> 194
tt ed</w> 194
ad di 194
創意 家居 194
ju mp</w> 194
je ju</w> 194
網紅 ins 194
ak o</w> 194
pat ches</w> 194
vitam ins</w> 194
imp act</w> 194
精靈 寶可夢</w> 194
open er</w> 194
寶格 麗</w> 194
insul ated</w> 194
ampli fier</w> 194
小 牛皮</w> 193
小 雛菊 193
d k</w> 193
g f</w> 193
無 線</w> 193
印 度 193
掛 架</w> 193
童 書</w> 193
零 碼 193
m ama</w> 193
中 心</w> 193
實 驗 193
j f</w> 193
時 代 193
精 準 193
虎 頭 193
減 壓 193
即 期 193
去 污 193
踏 板</w> 193
緞 帶</w> 193
吐 司 193
an gular</w> 193
se wing</w> 193
me d 193
to pper</w> 193
to kyo</w> 193
de st 193
pl ace</w> 193
av e 193
mb ers</w> 193
son ic</w> 193
bro w 193
inten sive</w> 193
pon y 193
comfor ter</w> 193
radi ation</w> 193
超取 請 193
數據 線 193
exp lo 193
手 把</w> 192
大 燈 192
e ste 192
g inger</w> 192
u le</w> 192
b ts 192
n lighten</w> 192
克 斯</w> 192
k at</w> 192
馬 車 192
數 位</w> 192
藍 光</w> 192
規 格</w> 192
路 亞 192
擺 攤 192
稀 有 192
鋁 箔 192
觀 音 192
腋 下 192
蘑 菇 192
逛 街 192
ar gan</w> 192
sh aper</w> 192
so ap 192
no uri 192
男女 寶寶 192
sun ny</w> 192
cor dless</w> 192
ex foli 192
gr ass</w> 192
back case</w> 192
特價 出清</w> 192
hear t 192
cond ition</w> 192
aero postale</w> 192
床包 組</w> 192
滑鼠 墊</w> 192
jour nal</w> 192
平滑 扣 192
aquari um</w> 192
p tor</w> 191
五 角 191
兩 折 191
f at</w> 191
餐 飲 191
黑 曜 191
質 量 191
開 光 191
平 跟 191
酒 精 191
定 時 191
箱 子 191
早 期 191
寫 真</w> 191
安 卓</w> 191
緞 帶 191
it ed</w> 191
si e</w> 191
ri der</w> 191
bo at</w> 191
ol y 191
兒童 寶寶 191
tri angle</w> 191
sc rat 191
純棉 短t</w> 191
ten nis</w> 191
ve a</w> 191
bri cks</w> 191
按摩 棒 191
comp ati 191
tur bo</w> 191
三角 褲</w> 191
漁夫 帽 191
clin ic</w> 191
g round</w> 190
s max</w> 190
s ata</w> 190
b in 190
生 肖 190
花 漾 190
多 美</w> 190
p ins</w> 190
膠 囊 190
f el 190
護 目 190
英 語 190
北 海 190
藍 芽</w> 190
潤 膚 190
完 整 190
浴 缸 190
月 光 190
穿 鞋 190
溜 溜 190
芭 比 190
簍 空 190
棕 色 190
酵 素</w> 190
ck ed</w> 190
pu s</w> 190
北歐 輕奢 190
tri al</w> 190
小型 犬 190
家居 服</w> 190
床頭 櫃 190
cr v</w> 190
aro mat 190
枕頭 包</w> 190
蛋黃 哥 190
activ ity</w> 190
小 叮 189
e di 189
s am</w> 189
毛 邊 189
i z</w> 189
餐 盒</w> 189
英 文</w> 189
高 低 189
白 紅</w> 189
老 板 189
黑 金 189
麗 嬰 189
枕 套</w> 189
軍 綠</w> 189
降 溫 189
肌 肉 189
橘 子 189
an k</w> 189
le vel</w> 189
ra z 189
sp l</w> 189
av a</w> 189
ex er 189
bre aker</w> 189
遊戲 王</w> 189
ml b</w> 189
simp ly</w> 189
hil ls</w> 189
宅配 免運</w> 189
alphab et</w> 189
milit ary</w> 189
茶 臺 188
通 勤 188
v ans 188
插 頭</w> 188
防 踢 188
鋼 彈 188
下 水 188
k c</w> 188
c iti 188
紙 巾</w> 188
紗 裙</w> 188
顆 粒</w> 188
黑 金</w> 188
米 色 188
繪 本 188
修 補 188
佛 教 188
宿 舍</w> 188
溫 柔 188
松 緊 188
社 會 188
沒 有 188
in sp 188
re la 188
cre me</w> 188
pe o 188
fe ather</w> 188
ani um</w> 188
bri e 188
現代簡約 客廳 188
按摩 器 188
ze bra</w> 188
帽子 女 188
shar p</w> 188
bf 風 188
dry er</w> 188
餐桌椅 組合 188
任天 堂</w> 188
g els</w> 187
無 敵 187
棉 服 187
加 購 187
防 刮</w> 187
銀 飾</w> 187
搭 扣 187
巴 斯 187
香 草 187
史 萊 187
暖 手 187
識 別 187
壁 紙</w> 187
壁 畫</w> 187
穿 衣 187
參 考</w> 187
舞 臺 187
供 應 187
搞 怪 187
妖 怪 187
匡 威 187
di va</w> 187
ab c</w> 187
dre am 187
au tu 187
套裝 家用 187
temp er 187
sn ack</w> 187
dra wing</w> 187
夏季新款 韓版 187
fle ece</w> 187
男童 女童 187
貝殼 頭 187
todd lers</w> 187
spar k 187
吸塵 器 187
萬聖 節</w> 187
gal lon</w> 187
凱蒂 貓 187
hun ter</w> 187
nigh t 187
bron ze</w> 187
vehic le</w> 187
cylin der</w> 187
抹 茶 186
d c 186
外 接 186
v n</w> 186
同 步</w> 186
理 髮 186
銀 針</w> 186
軟 毛 186
f light</w> 186
客 製</w> 186
鞋 墊</w> 186
白 底 186
白 鐵 186
麥 當 186
飛 機</w> 186
蕾 蕾 186
俏 皮 186
益 生 186
韩 版 186
an n</w> 186
wi g</w> 186
fe et</w> 186
圓領 短t</w> 186
lan come</w> 186
play ed</w> 186
移動 電源</w> 186
青少年 學生 186
bear ing</w> 186
jas mine</w> 186
防走 光 186
星際大 戰</w> 186
pillow case</w> 186
diffe rent</w> 186
幼稚 園 186
champi on 186
前短 後 186
exer ci 186
g n</w> 185
無 穀 185
全 民 185
巴 黎</w> 185
平 面 185
未 來 185
段 變頻 185
官 方</w> 185
芭 蕾 185
st y</w> 185
st am 185
el sa</w> 185
qu ick 185
家用 室內 185
全新 公司貨</w> 185
cu cu 185
兒童 安全 185
ta was</w> 185
北歐 創意 185
置物 盒</w> 185
長袖 襯衫 185
bang les</w> 185
plus size</w> 185
床上 用品</w> 185
藍芽 喇叭</w> 185
box es</w> 185
收腰 顯瘦 185
tou ch 185
西班 牙 185
小 獅 184
小 舖 184
新 店 184
a ur 184
h q</w> 184
d g</w> 184
d ate</w> 184
g 點 184
g au 184
n k</w> 184
插 座</w> 184
斗 柜 184
韓 系</w> 184
歐 舒 184
k ra 184
i e 184
袋 子 184
內 刷毛 184
時 代</w> 184
流 行</w> 184
刀 架 184
消 防 184
調 節 184
旋 轉</w> 184
當 日 184
周 歲 184
東 方 184
陳 冠 184
深 藍色 184
定 型 184
添 加 184
re x</w> 184
bo ss 184
th or</w> 184
ni vea</w> 184
no tes</w> 184
百搭 休閒 184
韓國 製</w> 184
len a</w> 184
sto cks</w> 184
香港 代購 184
泡泡 袖 184
餐具 組</w> 184
buil t</w> 184
ros ary</w> 184
compati ble</w> 184
手 臂 183
s ity</w> 183
y un 183
出 國 183
版 型 183
特 色 183
火 爆 183
烤 盤</w> 183
植 村 183
餐 邊柜 183
蛋 白</w> 183
日 貨 183
風 琴 183
后 現代 183
和 服 183
模 特 183
定 做</w> 183
邊 框 183
壁 掛</w> 183
晴 雨 183
職 員 183
ac o</w> 183
st ers</w> 183
sh el 183
ba d</w> 183
ta ins</w> 183
gr ain</w> 183
工作 室</w> 183
厚底 鞋</w> 183
multi purpose</w> 183
sha ke</w> 183
who le</w> 183
麵包 超人</w> 183
記憶 卡</w> 183
多肉 植物</w> 183
od les</w> 183
every day</w> 183
rece i 183
e on</w> 182
d u</w> 182
s r 182
三 代</w> 182
花 盆</w> 182
l le</w> 182
金 證 182
o val</w> 182
轉 椅 182
水 箱 182
水 凝 182
k el 182
c av 182
財 神 182
孔 雀 182
杯 架 182
星 座 182
日 記 182
流 蘇</w> 182
鑲 鉆 182
桃 紅 182
定 位 182
鋰 電 182
拆 售</w> 182
湖 水 182
莎 拉 182
觸 摸 182
隨 機</w> 182
各 式 182
li ft</w> 182
si n</w> 182
ti ca</w> 182
th rough</w> 182
sho w</w> 182
ki ll</w> 182
per form 182
圓領 純棉 182
商務 休閑 182
簡易 家用 182
ka waii</w> 182
cho ice</w> 182
hi mala 182
移動 電源 182
腳踏 車 182
攝影 機</w> 182
dani el 182
分離 式 182
實體店 面</w> 182
cucu mber</w> 182
點 煙 181
直 徑</w> 181
計 算 181
掛 耳 181
防 霧 181
水 冷 181
圓 點 181
圓 圈 181
c all</w> 181
四 葉 181
乾 燥</w> 181
鍊 條 181
懶 懶 181
別 針</w> 181
墻 紙 181
爸 爸 181
ar ch</w> 181
ne ver</w> 181
de er</w> 181
mar ket</w> 181
ani e</w> 181
hand y</w> 181
air e</w> 181
旅行 袋</w> 181
旅行 箱</w> 181
zi p 181
平底 鞋 181
公主 風 181
pat rol</w> 181
娃娃 機</w> 181
連衣裙 女 181
cra zy</w> 181
sw ing</w> 181
paj amas</w> 181
智慧 型 181
repl ac 181
tee th</w> 181
電腦椅 家用 181
好市 多</w> 181
角色扮 演 181
刀劍 神 181
mid night</w> 181
gig ab 181
bever ly</w> 181
trop ical</w> 181
日發 完</w> 181
小 鳥 180
r in 180
g ate</w> 180
口 味 180
無 人 180
色 號</w> 180
環 保</w> 180
夏 新款 180
水 鬼</w> 180
兩 件</w> 180
f p</w> 180
f low</w> 180
藍 牙</w> 180
胖 子 180
史 黛 180
磨 毛 180
拆 封</w> 180
活 膚 180
滾 輪 180
霹 靂 180
梅 花 180
偵 探 180
en o</w> 180
ro m</w> 180
ti ons</w> 180
ma xi 180
ne xt</w> 180
te al</w> 180
ke ds</w> 180
br assi 180
prin ce</w> 180
圓領 套頭 180
歐美 代購</w> 180
hoo dies</w> 180
mer ic</w> 180
出清 價</w> 180
寫字 臺 180
半身 裙</w> 180
首飾 盒 180
顯示 器</w> 180
梳妝臺 臥室 180
棋盤 格</w> 180
kh aki</w> 180
asp ire</w> 180
thr ones</w> 180
mechan ical</w> 180
daniel welling 180
r it 179
u c</w> 179
花 朵</w> 179
配 飾</w> 179
防 風</w> 179
套 件</w> 179
發 票 179
夾 子</w> 179
星 光 179
都 會 179
洛 克 179
魚 竿 179
耶 誕 179
尿 布</w> 179
范 思哲</w> 179
wi sh</w> 179
手機 包 179
經典 logo 179
ang e 179
go gg 179
sli des</w> 179
fe e 179
gi es</w> 179
mag az 179
gen cy</w> 179
medi c 179
ca len 179
ther mos</w> 179
happ y 179
om bre</w> 179
可調 式 179
雜貨 店</w> 179
ite ch</w> 179
筆電 包</w> 179
哆啦a 夢</w> 179
bak una</w> 179
insta x</w> 179
perform ance</w> 179
e os</w> 178
g at 178
n ct</w> 178
p les</w> 178
j am</w> 178
洗 發 178
洗 頭 178
洗 顏 178
藍 白</w> 178
巴 西 178
硬 碟</w> 178
圍 兜 178
鐵 板 178
西 服 178
西 瓜 178
蘆 薈 178
鎖 扣 178
躺 椅</w> 178
陰 陽 178
现 货</w> 178
as cor 178
tt o</w> 178
mil d</w> 178
簡約現代 客廳 178
設計 款</w> 178
cal cul 178
yu n</w> 178
沐浴 露</w> 178
單肩包 斜挎包 178
trans fer</w> 178
hydr o</w> 178
vir gin</w> 178
巴黎世 家 178
冰雪奇 緣 178
degre e</w> 178
compre ssion</w> 178
a w 177
一 次</w> 177
牛 角 177
m 床 177
好 物</w> 177
頭 套</w> 177
開 始 177
效 果 177
過 年 177
廣 角 177
刺 青 177
豆 漿 177
褶 皺 177
撲 克 177
简 约 177
in ver 177
st ing</w> 177
si ons</w> 177
ri es</w> 177
po we 177
de tai 177
現貨 現貨 177
韓國 代購 177
ath le 177
bro o 177
stra ps</w> 177
dy n 177
ag ate</w> 177
dro ps</w> 177
批發 價</w> 177
乾燥 花</w> 177
垂墜 耳環</w> 177
ultra boost</w> 177
writ ing</w> 177
t ata</w> 176
美 發 176
直 購</w> 176
z on</w> 176
嬰 兒</w> 176
木 耳 176
鋼 筆 176
標 誌 176
發 飾 176
m s 176
圓 臉 176
i dea 176
c pu</w> 176
高 幫</w> 176
內 膽 176
白 雪 176
公 升 176
腳 架</w> 176
抗 uv 176
邊 桌 176
鍍 金 176
碗 筷 176
壽 司 176
se ga</w> 176
ic er</w> 176
ke vin</w> 176
日本 代購 176
pe pper 176
ele ment</w> 176
玻璃 杯 176
美國 正品代購</w> 176
jo e</w> 176
swi ss</w> 176
one piece</w> 176
lay ers</w> 176
over all</w> 176
限時 免運</w> 176
dri ed</w> 176
小戶 型</w> 176
win nie</w> 176
free bies</w> 176
str ong</w> 176
mc queen</w> 176
inter national</w> 176
顯示 器 176
tit anium</w> 176
zar a 176
燈芯 絨 176
este e</w> 176
oly mp 176
autu mn</w> 176
雨 靴 175
人 生 175
d get</w> 175
y am 175
外 穿</w> 175
p n</w> 175
o x</w> 175
o at 175
特 大號 175
歐 文</w> 175
毛 料 175
眼 部 175
圓 環 175
男 鞋女鞋 175
護 欄 175
馬 拉 175
氣 泡 175
白 藍</w> 175
第 四 175
風 火 175
系 統 175
w h</w> 175
w ea 175
最 便宜</w> 175
石 榴 175
台 製 175
輪 滑 175
檢 測 175
ba c</w> 175
po ly</w> 175
ki ller</w> 175
mp h</w> 175
mat ch</w> 175
迷你 小型 175
wal king</w> 175
ka was 175
專櫃 正品 175
squ ee 175
que en 175
親子 裝</w> 175
電腦桌 臺式 175
手電 筒 175
超商 取 175
gab bana</w> 175
棉花 糖 175
魚子 醬 175
emer gency</w> 175
亞瑟 士</w> 175
loe we</w> 175
小 狗 174
手 把 174
a 貨</w> 174
裙 式 174
夾 心 174
原 味</w> 174
奶 粉</w> 174
部 品</w> 174
高 清</w> 174
北 極 174
白 金</w> 174
風 景 174
黑 底 174
千 鳥 174
泡 腳 174
翡 翠</w> 174
浴 室</w> 174
月 子 174
蘭 蔻</w> 174
搖 籃 174
研 究 174
le go 174
un locked</w> 174
ur o</w> 174
ra w</w> 174
su i</w> 174
qu a 174
br y 174
男女 情侶款 174
ear buds</w> 174
mar ks</w> 174
現代 簡約</w> 174
ach i</w> 174
fro g 174
寬松 大碼 174
熱賣 中</w> 174
茶幾 組合 174
ari el</w> 174
十字 繡 174
pin ea 174
益智 玩具</w> 174
moun tain</w> 174
便當 盒 174
化妝品 收納盒 174
gla m</w> 174
爆米 花</w> 174
台風 行 174
holi day</w> 174
免運直 出</w> 174
電 壓</w> 173
o xi 173
布 偶</w> 173
排 釦 173
機 商用 173
前 臺 173
本 田</w> 173
兩 穿 173
膚 色</w> 173
餐 盤 173
星 球</w> 173
星 期 173
日 韓</w> 173
用 具</w> 173
倒 車 173
優 雅</w> 173
貨 號</w> 173
倫 敦 173
黑 灰 173
油 箱 173
淡 化 173
娜 美</w> 173
傳 說</w> 173
紐 約 173
遇 見 173
義 大利</w> 173
as ted</w> 173
le ft</w> 173
st d</w> 173
al ly</w> 173
al ia</w> 173
ro und 173
di ap 173
di ary</w> 173
si x</w> 173
ke to</w> 173
so up</w> 173
簡約 現代</w> 173
家用 廚房 173
no odles</w> 173
tr ain</w> 173
pe dal</w> 173
clo set</w> 173
ge ome 173
ton y 173
accessor y</w> 173
ssi mo</w> 173
ampo ule</w> 173
防塵 罩 173
角落 小 173
小胸 聚攏 173
出租 房 173
puri fier</w> 173
洗菜 盆 173
丹尼 爾 173
t k</w> 172
p ic</w> 172
房 子 172
長 效 172
特 大 172
車 貼 172
套 罩 172
水 池 172
粉 底</w> 172
格 子</w> 172
j j 172
聯 盟 172
分 隔 172
消 光 172
敏 感 172
模 擬 172
宣 傳 172
側 背</w> 172
綠 植 172
聊 聊</w> 172
烘 培 172
仰 臥 172
姓 名 172
ar c</w> 172
on line</w> 172
ri lak 172
wo c</w> 172
qu o 172
男士 手錶</w> 172
tri u 172
帆布 包 172
咖啡 杯</w> 172
medi cal</w> 172
鑰匙 包 172
hi king</w> 172
charac ters</w> 172
tab le 172
鬆緊 腰 172
pal m</w> 172
睫毛 膏</w> 172
nar s</w> 172
poc ket 172
鎖骨 鏈 172
collecti ble</w> 172
縮口 褲</w> 172
延長 線</w> 172
sac he 172
水波 紋 172
adv ance</w> 172
pinea pple</w> 172
小 雞 171
龍 貓</w> 171
電 工 171
球 鞋 171
p ass 171
o ther</w> 171
滿 月 171
板 手</w> 171
動 力 171
有 蓋 171
c f 171
媽 媽</w> 171
好 物 171
高 彈 171
節 日 171
絲 綢 171
專 輯 171
分 享 171
照 片</w> 171
網 絡 171
民 宿 171
浴 盆 171
搬 家 171
co ck</w> 171
st age</w> 171
at t 171
en er</w> 171
se al 171
ba y</w> 171
ma r</w> 171
us ers</w> 171
de scription</w> 171
運動 健身 171
wh at</w> 171
ter nal</w> 171
vi e 171
be ans</w> 171
uni que</w> 171
北歐 ins 171
電腦 臺式 171
mor phe</w> 171
fa b</w> 171
ster i 171
便當 袋</w> 171
ruff les</w> 171
身體 乳</w> 171
king dom</w> 171
nin ja</w> 171
paci fier</w> 171
高精 度 171
sache ts</w> 171
手 冊</w> 170
大 logo 170
三 角</w> 170
外 殼</w> 170
l bs</w> 170
一 直 170
一 片 170
單 反 170
排 水 170
雪 肌 170
拉 絲 170
成 品</w> 170
肚 子 170
沙 拉 170
床 單</w> 170
顯 示</w> 170
互 動 170
凈 化 170
我 愛 170
針 扣 170
瓦 斯 170
冠 軍</w> 170
晾 衣 170
an ch 170
re trac 170
co mic</w> 170
li e 170
se same</w> 170
ma p</w> 170
時尚 創意 170
bl k</w> 170
休閒 時尚 170
char lotte</w> 170
嬰兒 推車 170
ban presto</w> 170
is o</w> 170
pand ora 170
glo bal</w> 170
床上 用品 170
cen se</w> 170
小熊 維尼 170
gol d 170
超輕 量 170
dry ing</w> 170
snap s</w> 170
保留 中</w> 170
契爾 氏</w> 170
紅包 袋</w> 170
bobb i</w> 170
aromat her 170
茶 壺</w> 169
電 器 169
s ack</w> 169
三 用 169
代 言</w> 169
花 架</w> 169
美 食 169
收 音 169
地 球 169
柜 子</w> 169
女 神</w> 169
奶 粉 169
清 水 169
交 通 169
珠 寶</w> 169
流 沙 169
精 裝 169
藍 白 169
秋 千 169
飯 桌 169
墜 子</w> 169
索 尼 169
恒 溫 169
鑄 鐵 169
ac ade 169
al i</w> 169
mo tion</w> 169
休閒 商務 169
ear ings</w> 169
fi la 169
fi sher</w> 169
pi ston</w> 169
復古 風 169
desig ner</w> 169
out put</w> 169
kn ight</w> 169
gri d</w> 169
台灣製 造 169
鋼化玻璃 貼</w> 169
spir al</w> 169
數據 線</w> 169
spro cket</w> 169
kawas aki</w> 169
新 版</w> 168
t actical</w> 168
d j</w> 168
無 瑕 168
加 密 168
木 制 168
本 田 168
毛 毯</w> 168
日 記</w> 168
用 具 168
斜 紋 168
w u 168
開 業 168
四 驅 168
除 塵 168
樂 購 168
完 全 168
主 持 168
應 援 168
拇 指 168
滾 邊 168
怪 獸</w> 168
烘 焙</w> 168
re seller</w> 168
on o 168
ch oo 168
li me</w> 168
me l</w> 168
sp inner</w> 168
mo mmy</w> 168
ho bo</w> 168
cu ff</w> 168
for e</w> 168
北歐 現代簡約 168
gi a</w> 168
nu tr 168
tren ding</w> 168
lan yard</w> 168
一字 肩 168
隨身 碟</w> 168
棒球 外套</w> 168
han na</w> 168
fan cy</w> 168
男孩 女孩 168
sele ct</w> 168
davi d</w> 168
e g 167
d ance</w> 167
變 裝 167
l h</w> 167
m f</w> 167
矽 膠</w> 167
c n</w> 167
星 球 167
鑰 匙</w> 167
內 搭</w> 167
石 頭 167
刀 具 167
淡 斑 167
軍 事 167
蒸 氣 167
翅 膀 167
我 們 167
眉 筆</w> 167
基 酸 167
越 南 167
st ate</w> 167
su al</w> 167
br ai 167
家用 簡易 167
bu ff 167
短袖 套裝</w> 167
性感 蕾絲 167
water melon</w> 167
落地 多層 167
cou ture</w> 167
cur tains</w> 167
單人 床 167
coo k 167
esp adri 167
波士頓 包</w> 167
雅詩蘭 黛</w> 167
aller genic</w> 167
exerci se</w> 167
replac eable</w> 167
calcul ator</w> 167
大 底</w> 166
大 促銷</w> 166
t pu 166
p w</w> 166
一 生 166
棉 被 166
特 產 166
心 形 166
鏡 面</w> 166
f o</w> 166
領 帶 166
原 味 166
七 夕 166
托 盤</w> 166
萌 萌 166
復 刻</w> 166
幫 手</w> 166
冬 裝 166
液 體 166
杜 蘭 166
供 佛 166
染 發 166
re becca</w> 166
ni ll 166
mi st 166
ho bbies</w> 166
經典 時尚 166
hu a 166
fe el</w> 166
sa ver</w> 166
sc ar</w> 166
chan ge</w> 166
化妝 鏡</w> 166
ry x 166
dis ru 166
ven us</w> 166
咖啡 機</w> 166
無線 充電 166
nu mbers</w> 166
lau der</w> 166
foo ds</w> 166
dior 迪奧 166
鋼化玻璃 保護貼</w> 166
施華洛世 奇</w> 166
福利 品</w> 166
peo ple</w> 166
oat meal</w> 166
diap ers</w> 166
小 碎花 165
l g 165
牛 排 165
o c</w> 165
機 小型 165
紫 外線</w> 165
k m</w> 165
c n 165
粉 餅 165
運 費</w> 165
流 浪 165
起 司 165
米 家 165
博 士 165
刮 鬍 165
元 素 165
以 上 165
礦 物 165
富 貴 165
買 家</w> 165
嫁 接 165
ro lex 165
ing co</w> 165
fu el</w> 165
通用 型 165
娃娃 鞋</w> 165
下標 前 165
pad lock</w> 165
紀念 品</w> 165
萬用 包</w> 165
eu ro 165
prest ige</w> 165
twi sted</w> 165
dea d</w> 165
上班 族 165
貓頭 鷹 165
杯緣 子</w> 165
雨 刷</w> 164
乳 液 164
電 線 164
b en</w> 164
美 的 164
理 膚 164
免 釘 164
i so 164
自 黏 164
x b</w> 164
用 書</w> 164
雷 霆 164
預 定</w> 164
籃 子 164
狐 狸 164
潔 牙 164
燙 鑽 164
靴 子</w> 164
臻 品下殺</w> 164
菱 形 164
貿 易</w> 164
牡 丹 164
it h 164
ma am</w> 164
pro max</w> 164
學生 百搭 164
mas h</w> 164
go ur 164
gir l 164
chan ce</w> 164
充電 線 164
stre chable</w> 164
設計 款 164
明星 款 164
read ing</w> 164
哈倫 褲</w> 164
門廳 柜 164
dur able</w> 164
apri l</w> 164
philipp ines</w> 164
權志 龍</w> 164
brie fs</w> 164
retrac table</w> 164
nill kin</w> 164
紅 茶</w> 163
t ea 163
e k 163
卡 夾 163
直 銷 163
o phi 163
鍋 蓋 163
夏 天</w> 163
可 議</w> 163
m cm</w> 163
熱 門 163
制 服</w> 163
j ig 163
明 治 163
時 光</w> 163
去 除 163
緊 致 163
草 莓</w> 163
畫 畫 163
定 妝 163
秘 密 163
秘 密</w> 163
懸 掛 163
誘 惑</w> 163
勿 下單</w> 163
运 动 163
an dre 163
bo mb 163
po u 163
po made</w> 163
ne ver 163
we igh 163
pl ac 163
sa c</w> 163
tri o</w> 163
gr ace</w> 163
拉鏈 包</w> 163
包包 女</w> 163
衛生間 浴室 163
christ ening</w> 163
ken zo 163
van ity</w> 163
black head</w> 163
boy leg</w> 163
cir cu 163
愛麗 絲</w> 163
全掌 氣墊 163
雙子 星</w> 163
peri pera</w> 163
equ ip 163
drin king</w> 163
danielwelling ton 163
t n 162
t ell</w> 162
a vi 162
e mi 162
l ati 162
一 套 162
接 收 162
o va</w> 162
拖 地 162
遮 擋 162
書 櫃</w> 162
全 館</w> 162
領 帶</w> 162
袖 珍 162
i con</w> 162
馬 達 162
提 臀 162
拉 力 162
胸 針</w> 162
上 海 162
定 價</w> 162
縮 腰 162
蓮 蓬 162
迎 賓 162
搖 椅 162
縫 紉 162
檀 香 162
輔 食 162
穆 勒 162
鈴 鐺 162
扳 手 162
楠 竹 162
re new</w> 162
re vit 162
co pper</w> 162
li f 162
qu et</w> 162
家用 小 162
do min 162
潮流 百搭 162
長袖 帽t</w> 162
電腦 包 162
上衣 女 162
上衣 潮</w> 162
sn ake</w> 162
nu ts</w> 162
pil at 162
聖誕 禮物</w> 162
學院 風</w> 162
學習 桌 162
抖音 同款</w> 162
bon net</w> 162
inst a</w> 162
up tempo</w> 162
吹風 機 162
蛋黃 哥</w> 162
rect angular</w> 162
sciss ors</w> 162
菲利 普 162
gogg les</w> 162
aromather apy</w> 162
手 串 161
新 加 161
h x</w> 161
e mo 161
g ad 161
三 宅 161
花 架子 161
水 手 161
層 架</w> 161
i su 161
工 藝</w> 161
型 號 161
杯 架</w> 161
正 常</w> 161
w b</w> 161
刷 具 161
天 下 161
速 幹 161
組 裝</w> 161
山 茶花 161
冷 淡 161
私 人 161
奧 運 161
支 援 161
学 生 161
夥 伴</w> 161
鴛 鴦 161
ar on</w> 161
li s</w> 161
mo ssimo</w> 161
新款 百搭 161
so me 161
休閒 短t</w> 161
no vel</w> 161
gh am</w> 161
pe pper</w> 161
二手 衣</w> 161
shi mmer</w> 161
bea d</w> 161
bur ner</w> 161
mu sh 161
hy po 161
tro users</w> 161
she a</w> 161
motor s</w> 161
is land</w> 161
室內 外 161
熱賣 款 161
珍珠 耳環</w> 161
conver ter</w> 161
短袖t恤 男 161
sen s 161
動漫 周邊</w> 161
cost co 161
遙控 器</w> 161
kle in 161
graph y</w> 161
變形 金剛</w> 161
資生 堂 161
opti cal</w> 161
山地 車 161
居家裝飾 廚房收納</w> 161
空氣清淨 機</w> 161
anni vers 161
美津 濃</w> 161
squa red</w> 161
nen dor 161
powe red</w> 161
pepper mint</w> 161
小 屋 160
小 風扇 160
小 蜜蜂 160
手 拉 160
新 版 160
大 特價</w> 160
乳 器</w> 160
h eng</w> 160
g ps</w> 160
s kid</w> 160
尼 龍</w> 160
花 色 160
外 賣 160
計 時</w> 160
布 鞋 160
木 馬 160
鋼 筆</w> 160
k r</w> 160
適 合</w> 160
氣 囊 160
拉 鏈</w> 160
頂 級</w> 160
個 子 160
黑 藍</w> 160
穩 定 160
耳 罩 160
山 水 160
鋰 電池 160
王 者 160
碗 架 160
羽 毛球 160
睡 袋</w> 160
需 要 160
聲 光 160
滾 珠 160
企 鵝</w> 160
賓 士 160
in tex</w> 160
se c</w> 160
si m 160
現貨 速發</w> 160
je ssi 160
bal ls</w> 160
stre am</w> 160
squ are 160
情趣 內衣</w> 160
一字 扣 160
遊戲 片</w> 160
cost co</w> 160
mk 手錶 160
原裝 進口</w> 160
my phone</w> 160
ep ic</w> 160
桌上 型 160
魔鬼 氈 160
foot wear</w> 160
til ity</w> 160
寶格 麗 160
哆啦a 夢 160
馬鞍 包</w> 160
nap kin</w> 160
roman tic</w> 160
蕾蕾 小鋪 160
brassi ere</w> 160
人 生</w> 159
茶 杯</w> 159
g n 159
夜 燈</w> 159
s v</w> 159
三 聯 159
鬆 糕 159
單 寧 159
櫃 子</w> 159
烤 箱</w> 159
紫 水晶 159
心 理 159
夾 式耳環</w> 159
i v</w> 159
訂 單 159
跑 步</w> 159
皆 可 159
袋 裝</w> 159
j ar 159
頭 發 159
海 盜 159
世 紀 159
w y 159
後 庭 159
璀 璨 159
鋪 子</w> 159
腹 肌 159
墨 水 159
道 教 159
柴 犬 159
空 姐 159
到 付</w> 159
仿 舊 159
合 作 159
q i 159
俄 羅 159
魅 力</w> 159
鉑 金 159
an te 159
st at 159
am our</w> 159
lu ffy</w> 159
ir ving</w> 159
sp lash</w> 159
mo p</w> 159
au str 159
il ing</w> 159
男士 休閑 159
創意 園</w> 159
uni t</w> 159
bur st</w> 159
scre w 159
背心 裙</w> 159
米奇 米妮 159
短版 上衣</w> 159
pain ted</w> 159
骷髏 頭 159
chron o 159
gil dan</w> 159
thermo meter</w> 159
qua ff</w> 159
anch or</w> 159
小 黃 158
曼 尼</w> 158
e st</w> 158
外 殼 158
l n</w> 158
國 外 158
線 上 158
面 板 158
木 板 158
極 速 158
男 t</w> 158
實 心 158
超 軟 158
j l</w> 158
惠 靈 158
燈 泡 158
上 架</w> 158
方 領 158
牆 貼</w> 158
瑪 莎拉 158
培 訓 158
安 娜 158
梯 子 158
望 遠 158
俱 樂 158
祛 痘 158
染 髮 158
宮 崎 158
th u 158
la t</w> 158
pi d</w> 158
sm al</w> 158
玻璃 保護貼</w> 158
por ter</w> 158
lit ter</w> 158
dr um</w> 158
平板 電腦 158
hard bound</w> 158
pet ite</w> 158
mou th</w> 158
播放 器 158
shin y</w> 158
詹姆 斯</w> 158
最愛 二手精品</w> 158
john son</w> 158
dire ct</w> 158
scrat ch</w> 158
e tte</w> 157
g ho 157
n g 157
p ain</w> 157
美 腿 157
o per 157
維 多 157
光 學 157
領 劵 157
k ad 157
清 涼 157
超 大號 157
漸 層</w> 157
數 量 157
織 布 157
喜 歡 157
上 市 157
暖 暖 157
阿 拉 157
元 素</w> 157
碗 盤 157
絕 地 157
普 洱 157
爵 士 157
ar c 157
ch y 157
ba re 157
la d 157
wo w</w> 157
ho lic</w> 157
韓國 東大門 157
du ck</w> 157
牛仔 裙</w> 157
sc ape</w> 157
por ts</w> 157
zi pp 157
美式 復古 157
fore st</w> 157
chic co</w> 157
老爹 鞋 157
uniq lo 157
ame thy 157
mun a 157
louis vuitton</w> 157
inver ter</w> 157
大 全 156
大 眾 156
a u</w> 156
h m 156
e po 156
無 框 156
直 送 156
出 差 156
設 備</w> 156
單 個 156
膠 水 156
加 高 156
粘 貼 156
套 筒 156
重 複 156
i x 156
好 看 156
賣 家</w> 156
超 靜音 156
壓 紋</w> 156
醫 療 156
團 體 156
耳 麥 156
漢 堡 156
夢 想 156
衝 擊 156
lo real</w> 156
di l 156
ma dre</w> 156
時尚 潮流</w> 156
sun shine</w> 156
夏季 韓版 156
mon th</w> 156
fo aming</w> 156
tu red</w> 156
mb a</w> 156
ven t</w> 156
led 燈</w> 156
stor m</w> 156
ha wk</w> 156
電視 櫃 156
愛迪達 adidas</w> 156
隔斷 簾 156
trans for 156
鱷魚 紋 156
fal se</w> 156
chang ing</w> 156
蠟筆小 新</w> 156
演唱 會 156
beach kin</w> 156
店長 推薦</w> 156
理膚 寶 156
nendor oid</w> 156
手 推 155
d h</w> 155
d in 155
d ji</w> 155
花 苞 155
外 銷 155
號 店 155
眼 罩</w> 155
k ur 155
创 意 155
雪 茄 155
高 音 155
達 菲</w> 155
墊 子</w> 155
翻 新 155
落 肩 155
靠 墻 155
液 態 155
漂 亮 155
左 右 155
悟 空 155
認 證 155
唱 歌 155
啤 酒 155
re v 155
ac y</w> 155
ch as 155
de ca 155
mi mi</w> 155
wit ch</w> 155
br o</w> 155
il le</w> 155
sm o</w> 155
spor ts 155
pen gu 155
原廠 正品</w> 155
打底 褲 155
is ure</w> 155
is sey</w> 155
fron tro 155
ple in</w> 155
公文 包 155
dea d 155
house hold</w> 155
晚宴 包</w> 155
die sel</w> 155
cele br 155
secon d</w> 155
a ph 154
a aa</w> 154
r pm</w> 154
h in 154
d al 154
d hc</w> 154
電 壓 154
o dle</w> 154
水 平 154
重 磅 154
文 學 154
好 貨</w> 154
超 萌 154
w p</w> 154
台 中</w> 154
專 家</w> 154
貼 畫 154
史 奴 154
亮 面</w> 154
碳 粉 154
入 裝</w> 154
檀 木 154
衝 評 154
雲 朵 154
赤 足</w> 154
概 論</w> 154
ro d</w> 154
am g</w> 154
運動 服</w> 154
il lumin 154
do ctors</w> 154
mar t</w> 154
pi yao</w> 154
pl er</w> 154
經典 復古 154
ju icy</w> 154
北歐 風</w> 154
che tte</w> 154
pri ced</w> 154
化妝 桌</w> 154
war dro 154
床頭 櫃</w> 154
nu tri 154
情趣 用品 154
pin k 154
roo ts</w> 154
hot wheels</w> 154
海軍 藍</w> 154
gin gham</w> 154
紀梵 希 154
reser ved</w> 154
大 作 153
大 陸 153
t ation</w> 153
u b</w> 153
u l</w> 153
s mash</w> 153
點 點</w> 153
z on 153
門 墊 153
機 芯 153
發 夾 153
名 品 153
馬 來 153
超 高 153
情 侣 153
利 亞 153
蝴 蝶</w> 153
胸 章</w> 153
照 明</w> 153
勞 保 153
修 飾 153
草 機 153
椅 家用 153
惡 搞 153
菱 格紋 153
巨 無 153
lo west</w> 153
sh ed</w> 153
min d</w> 153
no ir</w> 153
收納 柜</w> 153
手機 通用 153
百搭 潮流 153
pan t</w> 153
sa y</w> 153
jo jo</w> 153
免運 中</w> 153
雙人 床 153
gro cer 153
tsu m 153
kid ston</w> 153
小小 兵 153
shu i</w> 153
屏風 隔斷 153
vibr ator</w> 153
現貨秒 發</w> 153
海邊 度假 153
late st</w> 153
prime knit</w> 153
calen dar</w> 153
triu mph</w> 153
frontro w</w> 153
大 氣</w> 152
y ab 152
純 金 152
金 扣</w> 152
長 洋</w> 152
面 板</w> 152
套 餐 152
書 套</w> 152
可 折疊</w> 152
兩 色 152
m mi 152
i mm 152
護 士 152
折 下殺</w> 152
成 年 152
油 漆 152
米 蘭 152
來 電 152
磨 刀 152
魚 嘴 152
抗 uv</w> 152
戴 妃 152
走 路 152
狗 窩 152
蒙 古 152
伸 縮</w> 152
八 五 152
re ci 152
it alian</w> 152
ac cent</w> 152
st e</w> 152
al li 152
li er</w> 152
to wn</w> 152
am u 152
bo ur 152
ne t 152
sp ray 152
時尚 氣質 152
休閒 運動</w> 152
vi p</w> 152
be ats</w> 152
多功能 家用 152
bre ad</w> 152
app li 152
cat h</w> 152
va ult</w> 152
臺式 電腦 152
頭層 牛皮</w> 152
台灣現貨 限時下殺 152
boy friend</w> 152
rou ge</w> 152
洗漱 臺 152
轉換 器</w> 152
dk ny</w> 152
stren gth</w> 152
丹尼爾 惠靈 152
equip ment</w> 152
annivers ary</w> 152
小 女孩 151
手 帕</w> 151
電 鍍</w> 151
b ong</w> 151
花 生 151
v able</w> 151
火 車 151
可 超取</w> 151
夾 式 151
圓 珠 151
c age</w> 151
杯 套</w> 151
j k 151
w w 151
胸 針 151
路 由 151
香 香 151
泡 泡</w> 151
摩 登 151
黏 土</w> 151
猴 子 151
or io</w> 151
me mo</w> 151
un ited</w> 151
mo us 151
收納 籃</w> 151
日本 原裝</w> 151
wi per</w> 151
男士 皮帶</w> 151
wal lets</w> 151
hol low</w> 151
dd ed</w> 151
skin care</w> 151
襯衫 女 151
航海 王 151
bath ing</w> 151
king ston</w> 151
rot ating</w> 151
附購買 證明</w> 151
steph en</w> 151
magaz ine</w> 151
muna fie</w> 151
小 禮服</w> 150
電 暖 150
y an 150
棉 衣</w> 150
面 具</w> 150
可 動 150
m r 150
f ry 150
男 人 150
鞋 柜</w> 150
紙 膠帶 150
中 號</w> 150
贈 品 150
w en</w> 150
呼 吸 150
分 鐘 150
兄 弟</w> 150
間 約 150
哥 吉 150
阿 甘</w> 150
鐵 皮 150
低 胸 150
菊 花 150
牽 引 150
in se 150
re cor 150
lu ck</w> 150
bu g</w> 150
boo st 150
休閑 運動鞋</w> 150
stic e</w> 150
ty pe 150
圓領 短袖t恤</w> 150
mu sical</w> 150
stra p 150
fr ance</w> 150
爆款 熱賣</w> 150
ag es</w> 150
tur meric</w> 150
清潔 刷</w> 150
plan e</w> 150
don ut</w> 150
activ ated</w> 150
卡娜赫 拉</w> 150
側掀 皮套</w> 150
nex t 150
bapti smal</w> 150
tek no</w> 150
citi zen</w> 150
紅 茶 149
a lex</w> 149
h ur 149
變 頻</w> 149
p ir 149
l bc</w> 149
無 縫 149
一 家 149
子 的 149
直 流 149
出 門 149
金 絲 149
服 務 149
包 鞋</w> 149
插 卡</w> 149
童 鞋 149
科 比 149
標 籤</w> 149
可 調</w> 149
m ama 149
全 面 149
c run 149
自 制 149
高 潮 149
白 光</w> 149
少 年</w> 149
酒 紅 149
方 巾</w> 149
畫 家 149
週 邊</w> 149
關 節 149
酷 奇 149
未 拆</w> 149
碳 素 149
森 林</w> 149
瑪 莉 149
荷 蘭 149
散 裝 149
喬 巴</w> 149
測 試 149
扳 手</w> 149
in side</w> 149
co t</w> 149
on ce</w> 149
sp l 149
sp in</w> 149
家用 門口 149
sk ull</w> 149
be ef</w> 149
be fore</w> 149
ru by</w> 149
復古 vintage</w> 149
pu 皮 149
sig nal</w> 149
tu b</w> 149
sil ky</w> 149
shi e</w> 149
sto p</w> 149
spe c 149
har ness</w> 149
吊帶 背心 149
glut amansi</w> 149
shar pen 149
超長 待 149
zak ka</w> 149
滿額 免運</w> 149
鬼滅之 刃</w> 149
rea der</w> 149
劇場 版</w> 149
南極 人 149
disinfect ant</w> 149
round neck</w> 149
brai ded</w> 149
紅 豆 148
u x</w> 148
s ink</w> 148
生 命 148
三 種 148
n sw</w> 148
純 白 148
爆 裂 148
儲 存 148
水 光 148
雙 門 148
m tb</w> 148
全 台 148
c ic 148
馬 自 148
鉆 石 148
正 方形 148
w y</w> 148
減 齡 148
蘇 打 148
撞 色</w> 148
蜂 巢 148
濾 芯</w> 148
任 選 148
涂 鴉 148
瀏 海 148
le isure</w> 148
di n</w> 148
bo mb</w> 148
ir on 148
el ine</w> 148
mi ss 148
fi x 148
ju n</w> 148
長袖 上衣 148
ach able</w> 148
手工 皂 148
居家 家</w> 148
fin al</w> 148
mini m 148
mini figure</w> 148
品質 保證</w> 148
eng ine 148
春秋 新款 148
手作 材料</w> 148
gro wer</w> 148
耐克 nike</w> 148
jan e</w> 148
tran scen 148
絨毛 娃娃</w> 148
pun ch</w> 148
rubber ized</w> 148
博柏 利 148
水餃 包</w> 148
pengu in</w> 148
小 提 147
手 拎 147
紅 木 147
u tility</w> 147
s se 147
b inder</w> 147
n n 147
l bj</w> 147
v on</w> 147
單 頭 147
有 現貨</w> 147
馬 尾 147
貓 狗 147
日 立</w> 147
超 低 147
風 機</w> 147
台 製</w> 147
藍 寶石 147
屁 屁 147
米 色</w> 147
汽 油 147
登 月</w> 147
拍 照</w> 147
q 版</w> 147
濾 心</w> 147
供 奉 147
求 生 147
庫 洛 147
儿 童 147
齊 全</w> 147
橢 圓 147
re packed</w> 147
co ated</w> 147
ro g</w> 147
si der</w> 147
th at</w> 147
ne eds</w> 147
mi k 147
ke ttle</w> 147
so f 147
ki m</w> 147
min a</w> 147
pro p 147
we st 147
手機 皮套</w> 147
uni form</w> 147
經典 老花 147
北歐 客廳 147
tor o</w> 147
ex o 147
ce ss 147
par i 147
廚房 收納 147
mu les</w> 147
太陽 帽 147
hi p 147
rep el 147
出貨 前 147
馬卡 龍</w> 147
旗艦 店 147
seas on 147
emp ty</w> 147
holi ka</w> 147
scoo ter</w> 147
樂福 鞋</w> 147
樣板 房 147
disru ptor</w> 147
isu zu</w> 147
wardro be</w> 147
小 外套</w> 146
a go</w> 146
h ush</w> 146
會 員 146
p sp</w> 146
l r</w> 146
純 色</w> 146
直 郵 146
線 器 146
線 控 146
套 書</w> 146
女 包包</w> 146
短 款</w> 146
歐 式</w> 146
發 售</w> 146
f lip 146
自 製 146
街 舞 146
海 鷗</w> 146
w c</w> 146
甜 點 146
四 代</w> 146
潤 澤 146
方 包</w> 146
饅 頭 146
緩 震</w> 146
狗 頭 146
紐 巴 146
沛 納 146
it su 146
at tire</w> 146
di a 146
po k 146
ra v</w> 146
手機 套 146
be dro 146
ju stice</w> 146
ex press</w> 146
cam er 146
led 吸頂燈 146
簡約現代 臥室 146
連身 洋裝</w> 146
cand les</w> 146
春夏 新款</w> 146
工具 箱 146
sau r</w> 146
眼鏡 框 146
sur face</w> 146
hil l</w> 146
aro ma</w> 146
gy mbo 146
tar te</w> 146
anti bacterial</w> 146
top shop</w> 146
yar n</w> 146
proje ctor</w> 146
加濕 器</w> 146
掛鐘 客廳 146
三輪 車 146
萬寶 龍 146
figh ter</w> 146
even ing</w> 146
friend ly</w> 146
ginger snaps</w> 146
nouri shing</w> 146
戰 靴 145
h y</w> 145
h ul 145
b d 145
無 紡 145
面 罩 145
機 油</w> 145
袖 上衣</w> 145
潮 款 145
c nc</w> 145
英 寸 145
折 起</w> 145
j j</w> 145
正 宗 145
w en 145
輪 胎</w> 145
網 格 145
甲 油 145
來 圖 145
圍 脖</w> 145
草 帽 145
阿 爾 145
空 機</w> 145
砧 板 145
松 木 145
冰 種 145
課 本</w> 145
儀 器 145
八 成新</w> 145
衝 浪 145
港 版</w> 145
認 明 145
re priced</w> 145
lo tus</w> 145
di p</w> 145
po chette</w> 145
de x</w> 145
mi ya 145
car pet</w> 145
ck y</w> 145
per ry</w> 145
bal i</w> 145
shi ft</w> 145
tin ts</w> 145
防滑 墊</w> 145
儲物 箱 145
spe ci 145
健身 房 145
lau ren 145
沐浴 露 145
西裝 褲</w> 145
工業 風</w> 145
禮盒 組</w> 145
sco pe</w> 145
升級 版 145
馬丁 靴</w> 145
人體 工 145
加濕 器 145
soft gels</w> 145
modu le</w> 145
tony moly</w> 145
rilak kuma</w> 145
pilat en</w> 145
chrono graph</w> 145
大 包</w> 144
r r 144
g tr</w> 144
電 扇</w> 144
s q</w> 144
三 色可選</w> 144
皮 包</w> 144
z r</w> 144
火 山 144
可 攜 144
全 包</w> 144
尾 牙 144
天 梭 144
網 卡</w> 144
香 爐</w> 144
紀 錄 144
早 秋 144
瑪 麗 144
競 技 144
親 筆 144
省 空間</w> 144
炒 菜 144
佈 置 144
泫 雅 144
at f</w> 144
di ent</w> 144
me as 144
bo ston</w> 144
lu re</w> 144
min ions</w> 144
car ol 144
家用 簡約 144
日本 限定</w> 144
bu y 144
防水 貼紙</w> 144
sa lon</w> 144
he m</w> 144
bb 霜</w> 144
代購 nike</w> 144
隨身 包</w> 144
sal vat 144
fer n</w> 144
材料 包 144
新品上 架</w> 144
cit y 144
蜘蛛 人</w> 144
鋼鐵 人</w> 144
oli via</w> 144
alex ander</w> 144
bry ant</w> 144
新 竹 143
r u</w> 143
h ang</w> 143
d squared</w> 143
s woo 143
學 院</w> 143
會 計 143
o h 143
火 焰 143
真 的 143
毛 筆 143
重 型 143
m po 143
i u</w> 143
餐 廳</w> 143
家 家</w> 143
百 分 143
老 闆 143
晚 禮服 143
墊 片</w> 143
探 索 143
按 鍵 143
未 來</w> 143
副 廠 143
索 隆</w> 143
教 育 143
慕 斯</w> 143
總 成</w> 143
蝸 牛 143
al le 143
si ze 143
un ds</w> 143
ri n</w> 143
th ro 143
sp lit</w> 143
de ss</w> 143
運動 服 143
運動 跑步 143
休閒 包</w> 143
全新 商品</w> 143
ci a</w> 143
pu pp 143
北歐 鐵藝 143
hea ds</w> 143
sil ver 143
新品 特價</w> 143
針織 背心</w> 143
fla vo 143
fla kes</w> 143
帆布 袋</w> 143
上衣 女</w> 143
hoo p</w> 143
bre ak 143
安全 帶 143
moi st</w> 143
鋼化 玻璃</w> 143
han abi 143
flu id</w> 143
瀝水 架 143
hd mi 143
hypo allergenic</w> 143
bedro om</w> 143
hanabi shi</w> 143
小 站</w> 142
手 寫 142
t wo 142
t ang 142
h as 142
電 焊 142
b z</w> 142
y as 142
直 發 142
o o</w> 142
o lay</w> 142
單 色 142
布 娃娃 142
保 時 142
櫥 櫃 142
防 輻射 142
可 用 142
可 自取</w> 142
熱 褲</w> 142
j ack 142
頭 枕 142
拼 貼</w> 142
天 堂 142
進 化 142
燈 光 142
蝶 古巴 142
商 場 142
胸 墊 142
素 材</w> 142
升 級</w> 142
春 款 142
漁 具 142
今 日 142
屏 幕 142
傳 說 142
處 理 142
站 立 142
st ance</w> 142
al do</w> 142
ai l 142
po re 142
mo de</w> 142
ki l 142
br ass</w> 142
秋冬 裝 142
cam o</w> 142
prote in</w> 142
fac ed</w> 142
寵物 用品</w> 142
吊帶 裙 142
沙灘 褲</w> 142
全包 防摔 142
real me 142
直筒 褲</w> 142
十字 架 142
bio aqua</w> 142
vap or</w> 142
日版 金證</w> 142
信封 包</w> 142
emp orio</w> 142
ful l 142
late x</w> 142
全店 免運</w> 142
小 凳子 141
t ing 141
夜 間 141
y r</w> 141
美 美 141
美 睫 141
單 雙人 141
加 贈 141
水 族</w> 141
雙 色</w> 141
背 後 141
f as 141
自 動</w> 141
高 雄</w> 141
超 美</w> 141
壓 克力</w> 141
霧 面</w> 141
內 裡 141
衛 褲 141
老 爺 141
豬 八 141
莫 斯 141
四 色</w> 141
商 店 141
姐 妹 141
圍 欄</w> 141
留 香 141
年 級 141
期 限</w> 141
旗 袍</w> 141
閃 耀 141
普 卡</w> 141
土 耳 141
搖 頭 141
買 就 141
an ten 141
re ll</w> 141
le mon 141
se ven</w> 141
su gar 141
da vis</w> 141
car ry</w> 141
ho pe</w> 141
cu tie</w> 141
kore a 141
cre di 141
夏季 透氣 141
blo oming</w> 141
clo se</w> 141
蕾絲 拼接 141
整理 箱</w> 141
fan tech</w> 141
英文 字母 141
工藝 品</w> 141
tit an</w> 141
snoop y 141
余文 樂 141
極度 乾燥</w> 141
坐便 器 141
收縮 毛孔 141
fortun er</w> 141
suc cu 141
dino saur</w> 141
raz or</w> 141
geome tric</w> 141
mush room</w> 141
手 掌 140
手 串</w> 140
款 可選</w> 140
大 錶盤 140
g gies</w> 140
球 球 140
球 衣 140
美 好 140
v r 140
v as 140
一 拖 140
子 彈 140
o int 140
o ils</w> 140
臉 盆 140
布 朗 140
維 生 140
車 上 140
鋼 管 140
浮 潛 140
光 澤 140
毛 圈 140
免 安裝 140
全 車 140
圓 框 140
自 帶 140
黑 魂</w> 140
貝 親 140
都 市 140
酒 櫃 140
十 一 140
刻 字</w> 140
活 頁 140
潔 淨 140
觸 屏 140
唐 裝 140
暈 染 140
ma h 140
po tat 140
mi zer</w> 140
ab s 140
ko se</w> 140
運動 上衣</w> 140
運動 內衣</w> 140
時尚 印花 140
il lu 140
gu m</w> 140
mar ie</w> 140
學生 韓版 140
ang ler</w> 140
fe e</w> 140
tra p</w> 140
ct ing</w> 140
女生 衣著</w> 140
jac kets</w> 140
lan tern</w> 140
nike 耐吉 140
bra d 140
fol ded</w> 140
mini ature</w> 140
sur f</w> 140
行動 電源 140
食品 級 140
rou ter</w> 140
pam pers</w> 140
攝像 頭 140
mang a</w> 140
隨行 杯</w> 140
唐老 鴨</w> 140
小獅 王 140
小 資 139
小 孩</w> 139
茶 樹 139
u ts</w> 139
n ers</w> 139
國 家 139
皮 衣 139
簡 易</w> 139
純 天然 139
克 蘭 139
o b</w> 139
包 巾</w> 139
掛 衣架</w> 139
水 機</w> 139
雙 層</w> 139
游 戲</w> 139
可 升降 139
假 發 139
f c 139
袖 套</w> 139
適 配 139
中 大尺碼</w> 139
精 工 139
鑲 嵌 139
米 白 139
來 令 139
彈 力</w> 139
罩 杯 139
冷 暖 139
抓 皺 139
首 爾 139
扶 手</w> 139
炸 鍋 139
隨 意 139
倉 庫 139
in du 139
in nova</w> 139
le le</w> 139
lo u</w> 139
cas tor</w> 139
ap e 139
mo d 139
car b</w> 139
簡約 客廳 139
gu c</w> 139
mar sh 139
韓國 進口 139
沙發 床</w> 139
tra ding</w> 139
新品 特價 139
辦公 室</w> 139
手工 diy 139
beau te 139
chi ef</w> 139
tur n</w> 139
工作 褲</w> 139
lan cer</w> 139
遮陽 傘 139
出清 特價</w> 139
fa ith</w> 139
大理石 紋 139
手持 式 139
乾燥 花 139
攜帶 式 139
tech no 139
獨角 獸</w> 139
任天 堂 139
加肥 加大碼 139
不挑 色</w> 139
三腳 架 139
pazz o</w> 139
dyn amic</w> 139
strap less</w> 139
transcen d</w> 139
pari sian</w> 139
flavo red</w> 139
小 蒼 138
紅 白</w> 138
g or 138
g ed</w> 138
y t</w> 138
p j</w> 138
座 墊 138
體 育</w> 138
車 牌 138
水 瓶 138
紫 羅 138
短 襪 138
真 人 138
f g</w> 138
i k</w> 138
二 合一</w> 138
x xl碼</w> 138
提 供 138
頭 髮 138
考 試 138
商 務</w> 138
補 水</w> 138
婚 紗</w> 138
亮 片</w> 138
集 中 138
al y 138
al ur 138
en e 138
se ph 138
di p 138
si de 138
el bow</w> 138
sp ice</w> 138
ter o</w> 138
bu s</w> 138
ru s</w> 138
gr and 138
stu di 138
gra dient</w> 138
折疊 桌 138
電腦 椅</w> 138
ten g</w> 138
lip o</w> 138
beau ty 138
防滑 耐磨 138
is er</w> 138
雪紡 衫 138
pat ter 138
大尺 寸</w> 138
lun ar</w> 138
zo di 138
sha wl</w> 138
托特 包 138
夾克 外套</w> 138
pig ment</w> 138
sci ence</w> 138
潘朵 拉 138
scoo p</w> 138
戰鬥 陀螺</w> 138
eth yl</w> 138
frog suit</w> 138
revit ali 138
screw driver</w> 138
salvat ore</w> 138
戰 馬 137
t 桖</w> 137
學 校 137
n ac 137
長 板 137
寶 緹 137
f icial</w> 137
舒 服 137
鏈 條</w> 137
健 腹 137
w x</w> 137
老 鼠</w> 137
居 家用 137
登 山</w> 137
調 光 137
瘦 腿 137
彈 跳 137
狗 狗</w> 137
儀 表 137
混 合 137
貴 妃 137
蔓 越 137
in te 137
re le 137
re ne</w> 137
or i</w> 137
on g 137
la p 137
cas e 137
sho o 137
ab u 137
新款 兒童 137
cu t 137
ru sh 137
che f</w> 137
tre ats</w> 137
折疊 床 137
性感 睡衣</w> 137
air con</w> 137
ka ws</w> 137
jord an 137
限定 下單</w> 137
ben t</w> 137
訓練 鞋</w> 137
light stick</w> 137
背景 布 137
衣帽 架</w> 137
welling ton</w> 137
好市多 代購</w> 137
log itech</w> 137
gif ts</w> 137
華萊 士 137
仙人 掌 137
pony tail</w> 137
aur ora</w> 137
minim alist</w> 137
oint ment</w> 137
小 個子 136
龍 婆 136
a z</w> 136
e ster</w> 136
d m 136
d n</w> 136
g s 136
電 玩 136
電 飯 136
電 繡 136
s ure</w> 136
多 媒 136
n ic 136
l w</w> 136
純 金</w> 136
輕 盈 136
夏 威 136
兩 個 136
銀 行 136
中 學生 136
提 拉 136
黑 眼 136
置 物</w> 136
疊 疊 136
冬 季</w> 136
空 專</w> 136
山 本 136
聚 寶 136
青 蛙 136
湯 鍋</w> 136
湯 姆 136
霸 王 136
幽 靈 136
sh f</w> 136
ti ble</w> 136
ma d</w> 136
la c</w> 136
la kers</w> 136
ic h</w> 136
ke l</w> 136
現貨 居家裝飾廚房收納</w> 136
pa m</w> 136
mar u 136
休閑 椅 136
客廳 燈 136
ang el 136
臥室 床邊 136
ce iling</w> 136
len e</w> 136
手工 皂</w> 136
便攜 式</w> 136
fro g</w> 136
蘋果 安卓 136
香港 正生 136
書架 組合 136
sco tch</w> 136
eyel ashes</w> 136
alph abo 136
鉛筆 盒</w> 136
聊聊 我</w> 136
東大 門</w> 136
演出 服 136
sai lor</w> 136
偶像學 園</w> 136
himala yan</w> 136
俄羅 斯 136
h av 135
u ce</w> 135
國 旗 135
v ity</w> 135
色 彩 135
單 售</w> 135
單 桿 135
物 理 135
價 格</w> 135
書 籍 135
m tp</w> 135
全 白 135
j e</w> 135
拼 色</w> 135
倒 流 135
w r</w> 135
除 臭</w> 135
彩 膜 135
胖 胖 135
店 面 135
秋 款 135
亞 馬 135
蓋 布 135
橫 條 135
浴 簾 135
鍍 膜 135
勺 子 135
膳 魔 135
鈕 扣 135
陀 螺 135
犀 牛 135
in it 135
as a 135
or al</w> 135
ba d 135
un sealed</w> 135
th row</w> 135
sp y 135
su spen 135
wat ch 135
be tter</w> 135
pi ano</w> 135
男士 真皮 135
二手 出清</w> 135
her b</w> 135
hy alur 135
xi e</w> 135
max x</w> 135
鏈條 單肩包</w> 135
adidas 愛迪達 135
大學 t 135
冬季 新款 135
tai l 135
客訂 商品</w> 135
手抓 包 135
oc to 135
arti ficial</w> 135
poli ce</w> 135
twin kle</w> 135
brush es</w> 135
zodi ac</w> 135
小 卡 134
小 豬</w> 134
人 的 134
人 魚 134
s ket 134
通 話 134
兔 毛 134
長 髮 134
號 碼 134
衣 物</w> 134
雙 眼 134
筆 袋 134
假 花 134
f ad 134
圓 桌 134
馬 上 134
x xxl</w> 134
百 年 134
貨 車 134
甜 美</w> 134
四 方 134
樂 活 134
榮 耀 134
幫 寶 134
深 海 134
顏 料 134
啟 動 134
邊 櫃 134
避 震</w> 134
閃 卡</w> 134
梨 花 134
租 房 134
on itsu 134
en ne</w> 134
ch an</w> 134
ro m 134
th read</w> 134
la ura</w> 134
sp read</w> 134
收納 置物架 134
兒童 小 134
yo yo 134
jo jo 134
嬰兒 寶寶 134
居家 生活 134
fen ty</w> 134
conver tible</w> 134
multi media</w> 134
斜跨 包 134
適用 於 134
休閒運動 慢跑鞋</w> 134
禮盒 裝</w> 134
valen tine</w> 134
荔枝紋 牛皮 134
螺絲 刀 134
高腳 凳 134
givea way</w> 134
遮肚 顯瘦 134
form ers</w> 134
拍立 得</w> 134
簡體 書</w> 134
奇奇蒂 蒂</w> 134
chun ky</w> 134
h ori 133
夜 光</w> 133
u m 133
圖 騰</w> 133
美 杜 133
v w</w> 133
點 心</w> 133
接 頭 133
o reo</w> 133
滿 意 133
布 魯 133
轉 售</w> 133
柜 組合 133
寶 藍</w> 133
曬 衣 133
心 率 133
銀 樓</w> 133
打 蛋 133
熊 本 133
自 助 133
好 運 133
袋 裝 133
j el 133
噴 漆 133
白 藍 133
衛 褲</w> 133
舒 這 133
健 康</w> 133
滑 輪 133
另 有</w> 133
表 情 133
羽 球 133
歲 寶寶 133
如 意 133
異 世界 133
澳 洲</w> 133
琥 珀 133
on ic 133
li sa</w> 133
ro ber 133
ba dge</w> 133
la dy 133
de ss 133
運動 風 133
be ast</w> 133
fi sh 133
ta gs</w> 133
ex ternal</w> 133
tri cal</w> 133
gi ord 133
ste amer</w> 133
gra pe 133
個性 百搭 133
ban ila</w> 133
氣質 百搭 133
ka y 133
water color</w> 133
進口 牛皮 133
連衣裙 女</w> 133
high quality</w> 133
英倫 學院風 133
canv ass</w> 133
ple ase</w> 133
涼鞋 女</w> 133
毛巾 架 133
七分 褲</w> 133
記憶 體</w> 133
闊腿 褲</w> 133
lett ers</w> 133
zak ka 133
武士 鞋</w> 133
丹尼爾惠靈 頓 133
維生 素 133
alphabo unce</w> 133
t ul 132
e uro</w> 132
d ami 132
電 子</w> 132
花 瓶</w> 132
外 搭 132
單 鞋女 132
棉 布</w> 132
掛 牆 132
收 纳 132
車 架</w> 132
防 塵</w> 132
雙 面</w> 132
鏡 片 132
極 限 132
c z</w> 132
財 務 132
中 藥 132
百 摺 132
風 味 132
旅 遊</w> 132
柔 光 132
胸 罩 132
床 笠 132
耳 墜</w> 132
滑 滑 132
空 白 132
廣 場 132
騎 車 132
閃 粉 132
芒 果 132
土 豆 132
鎖 頭 132
攝 影</w> 132
核 桃 132
捕 蚊 132
挑 戰 132
ar den</w> 132
co le 132
co tt 132
it an</w> 132
mo o 132
wh eat</w> 132
au di</w> 132
do ta</w> 132
兒童 成人 132
vi p 132
mar s</w> 132
be tty</w> 132
hu da</w> 132
ex pand 132
正品 保證</w> 132
沙發 邊幾 132
pie u</w> 132
精品 店</w> 132
cur l</w> 132
war mer</w> 132
ren a</w> 132
sch e</w> 132
tur tle 132
comple x</w> 132
櫻花 粉</w> 132
wr angler</w> 132
pig eon</w> 132
tho mas</w> 132
黏土 人</w> 132
慵懶 風 132
不粘 鍋 132
登機 箱</w> 132
鬼滅之 刃 132
det achable</w> 132
空軍一 號</w> 132
前短後 長 132
deca y</w> 132
手 柄</w> 131
手 排</w> 131
大 紅 131
e st 131
e va 131
廚 具 131
球 員 131
無 法 131
鬆 餅 131
加 絨</w> 131
女 寶 131
技 術 131
磁 扣</w> 131
免 稅 131
f ty</w> 131
k am 131
c v</w> 131
自 用 131
賣 家 131
超 大容量 131
j am 131
烏 龍 131
開 瓶 131
掌 上 131
淺 藍 131
酒 神 131
修 剪 131
藤 椅 131
去 黑頭 131
按 壓 131
拋 棄 131
姑 娘</w> 131
筷 子</w> 131
co phone</w> 131
st ack 131
ch u</w> 131
ch in 131
li m</w> 131
min e 131
bu bb 131
汽車 精品</w> 131
bar u</w> 131
ha ve</w> 131
純銀 耳環</w> 131
cm x</w> 131
水洗 棉 131
lex us</w> 131
新品上 市 131
液晶 電視</w> 131
bou quet</w> 131
權志 龍 131
餐巾 紙</w> 131
exfoli ating</w> 131
蕾蕾小鋪 正 131
swoo sh</w> 131
indu stri 131
哈 利 130
g w</w> 130
g ang</w> 130
s se</w> 130
b les</w> 130
n d 130
l ace 130
美 版</w> 130
帶 輪 130
斗 篷 130
雙 g</w> 130
m j 130
m ble</w> 130
全 氣墊</w> 130
護 具</w> 130
部 落 130
台 北</w> 130
刷 子 130
開 襟 130
貝 雷 130
亞 洲 130
滑 雪 130
及 膝 130
封 閉 130
從 零 130
西 餐 130
碗 柜 130
普 通 130
梳 子</w> 130
豐 田 130
勿 下標</w> 130
ar row</w> 130
ad d</w> 130
簡約 家用 130
gu er 130
we i</w> 130
mar ia</w> 130
男士 休閒 130
男士 腕錶 130
二手 非 130
nat ion 130
sty ling</w> 130
寬松 百搭 130
hy per</w> 130
mer cci</w> 130
ren ce</w> 130
bar s</w> 130
lan e</w> 130
棒球 服 130
包裝 袋</w> 130
荔枝 皮</w> 130
trans formers</w> 130
prada 普拉達 130
小小 兵</w> 130
best way</w> 130
子母 包</w> 130
老虎 頭 130
lett uce</w> 130
紀梵 希</w> 130
杜蘭 特</w> 130
onitsu ka</w> 130
小 柜子 129
大 量 129
d h 129
電 容 129
u 盤 129
多 彩 129
v alu 129
無 耳 129
z m</w> 129
o real</w> 129
插 頭 129
長 版</w> 129
抽 取 129
整 裝 129
夏 涼 129
短 版</w> 129
有 效 129
光 感 129
可 配 129
f ear</w> 129
k ed</w> 129
高 光 129
高 貴 129
星 辰 129
提 升 129
斜 肩 129
鏈 帶 129
最 佳 129
音 頻 129
商 業 129
彩 妝</w> 129
坐 姿 129
矮 凳 129
司 機 129
劃 痕 129
聲 寶</w> 129
買 菜 129
填 充 129
監 視 129
擦 拭 129
蒂 芬 129
再 生 129
sh u</w> 129
ba i 129
to l 129
so und 129
min iso</w> 129
car t</w> 129
ho p</w> 129
per man 129
學生 鞋</w> 129
ff el</w> 129
col a</w> 129
手提 袋 129
mm y 129
men t 129
blo wer</w> 129
客廳 茶幾 129
je sus</w> 129
化妝 臺</w> 129
over size</w> 129
置物架 落地 129
spe cs</w> 129
ja zz</w> 129
nike 耐克 129
絕版 品</w> 129
flow y</w> 129
radi ator</w> 129
pullo ut</w> 129
人字 拖</w> 129
韓妞 必備</w> 129
yuanroro 優質賣場</w> 129
fon dant</w> 129
北海 道 129
inse ct</w> 129
a cou 128
a ura</w> 128
b ond</w> 128
花 開 128
簡 潔 128
臉 書 128
便 捷 128
塑 鋼 128
防 過敏 128
可 拆</w> 128
f ted</w> 128
k as 128
k ang 128
熊 貓</w> 128
街 頭</w> 128
數 字</w> 128
托 架 128
聯 想 128
音 器</w> 128
柚 子 128
離 合 128
過 家家 128
漫 威</w> 128
東 立 128
椅 墊 128
知 名 128
刮 痧 128
元 氣 128
副 食品 128
傳 奇 128
省 力 128
檸 檬</w> 128
蘿 莉 128
re fri 128
co di 128
lo ws</w> 128
me at</w> 128
ba pe</w> 128
ti k 128
am d</w> 128
bo mber</w> 128
lu bri 128
ma de 128
ne ed 128
de rella</w> 128
min ers</w> 128
il l 128
mp ers</w> 128
pl ates</w> 128
長袖 衛衣</w> 128
sc ul 128
套裝 組</w> 128
新品 現貨</w> 128
辦公 椅</w> 128
圓領 短袖t恤 128
特價 下殺</w> 128
glu ta 128
一字 帶 128
mk 手錶</w> 128
太空 鋁 128
燒烤 爐 128
隔離 霜</w> 128
abo ut</w> 128
breast feeding</w> 128
spark ling</w> 128
init ial</w> 128
perman ent</w> 128
小 衫 127
神 秘 127
大 方</w> 127
大 台北 127
h u</w> 127
g m 127
臺 面 127
萬 圣 127
美 人</w> 127
直 排 127
童 車</w> 127
火 烈 127
不 凋 127
可 參考</w> 127
毛 毯 127
重 工 127
全 場</w> 127
領 結 127
凱 莉 127
奶 奶 127
好 好 127
實 品 127
成 功 127
老 師</w> 127
音 波 127
持 久</w> 127
指 示 127
干 濕 127
入 式 127
蘭 蔻 127
死 皮 127
測 量 127
擦 手 127
柯 南</w> 127
跨 境 127
遠 程 127
勁 戰 127
in kle</w> 127
al ma</w> 127
po ts</w> 127
時尚 潮 127
br it 127
韓版 寬鬆 127
tr ail</w> 127
pi er 127
防水 布 127
mon tero</w> 127
pow dered</w> 127
tre ss</w> 127
son y 127
玩具 店</w> 127
mu d</w> 127
fla g</w> 127
cam ry</w> 127
簡易 書架 127
現代簡約 小戶型 127
gg y</w> 127
gg ed</w> 127
家居 の 127
hi dden</w> 127
woo fer</w> 127
app le 127
the a</w> 127
梳妝 台 127
ster y</w> 127
漁夫 鞋</w> 127
tech ni 127
樂福 鞋 127
refle ctive</w> 127
藤原 浩 127
fav or 127
歐米 茄</w> 127
enhan cer</w> 127
ign ition</w> 127
defen se</w> 127
zir con</w> 127
超取請 聊聊我</w> 127
ryx skincerity</w> 127
gour met</w> 127
anten na</w> 127
來令 片</w> 127
g on</w> 126
生 存 126
多 拉 126
v 領</w> 126
件 免運</w> 126
半 高領 126
版 型</w> 126
抽 紙盒 126
寶 馬</w> 126
書 籤</w> 126
層 架 126
兩 面 126
i g</w> 126
i zer</w> 126
i sta</w> 126
高 潮</w> 126
家 電 126
j or 126
流 水 126
豬 小 126
貼 布</w> 126
擺 飾 126
柴 犬</w> 126
檔 案 126
等 身 126
髮 圈 126
冰 塊 126
普 普 126
黏 貼 126
衝 鋒 126
re scu 126
it i</w> 126
on yx</w> 126
ab ac 126
car amel</w> 126
簡約 創意 126
ju icer</w> 126
可愛 動物 126
cle s</w> 126
上衣 服 126
電動 牙刷 126
wai st 126
wash er</w> 126
sy nc</w> 126
hon g 126
polo shirt</w> 126
整理 盒</w> 126
冬季 保暖 126
全館 免運 126
wil l</w> 126
pos ket</w> 126
smo ke</w> 126
fru its</w> 126
歐洲 站</w> 126
armo ur 126
roo ts 126
tak al</w> 126
春裝 新款 126
marmon t 126
附購買 憑證</w> 126
recei ver</w> 126
俱樂 部</w> 126
transfor mer</w> 126
碳粉 匣</w> 126
哥吉 拉</w> 126
神 仙 125
大 全</w> 125
t wee 125
e ty</w> 125
g k 125
u pper</w> 125
三 條 125
n ms</w> 125
l tp</w> 125
金 箔 125
包 邊 125
加 大尺碼 125
不 退 125
心 型 125
有 貨</w> 125
名 偵探 125
全 家</w> 125
f las 125
k 金</w> 125
i q 125
管 道 125
紗 裙 125
珍 品下殺</w> 125
精 英 125
挎 包 125
雷 霆</w> 125
影 樓 125
魔 女 125
飛 人 125
速 出 125
喜 糖 125
褲 帶 125
桌 布</w> 125
婚 禮</w> 125
寬 肩帶 125
鏤 空</w> 125
班 服 125
唇 蜜</w> 125
初 音 125
碎 花</w> 125
枸 杞 125
父 親 125
誠 信 125
ma d 125
qu es</w> 125
tr unk</w> 125
ear ing</w> 125
be er</w> 125
短袖 衣服</w> 125
pi mp 125
經典 格紋 125
go o</w> 125
mb ps</w> 125
stu dded</w> 125
純棉 短袖</w> 125
pen c 125
mu ji</w> 125
男生 衣著</w> 125
fol der</w> 125
鋼化 膜 125
荔枝 皮 125
goo gle</w> 125
infin ite</w> 125
dior 迪奧</w> 125
panas onic 125
ox ford</w> 125
fresh ener</w> 125
reg ul 125
beat le</w> 125
stan ley</w> 125
sj cam</w> 125
後視 鏡 125
warri ors</w> 125
ave eno</w> 125
bomb shell</w> 125
refri ger 125
小 樣</w> 124
手 沖 124
大 力 124
大 氣墊</w> 124
r f</w> 124
s cho 124
三 合一</w> 124
圖 書</w> 124
o wn</w> 124
插 畫 124
防 蟲 124
水 溶 124
果 凍</w> 124
全 方 124
貓 砂 124
w yi</w> 124
涼 拖</w> 124
燈 led 124
腰 部 124
帽 衫</w> 124
腳 墊</w> 124
錶 盤</w> 124
腕 表 124
探 險 124
幻 彩 124
抗 菌</w> 124
西 裝</w> 124
造 景 124
塗 鴉</w> 124
森 女 124
安 全</w> 124
趴 趴 124
孫 悟空</w> 124
須 刀 124
守 護 124
熨 斗 124
終 極 124
誠 品 124
嚕 嚕 124
an o 124
lo ss</w> 124
lo ver</w> 124
sh ine 124
en ts</w> 124
th ers</w> 124
po le</w> 124
ic ure</w> 124
mo ul 124
mo st</w> 124
de te 124
de vice</w> 124
ko ko</w> 124
現貨 熱銷</w> 124
ele d</w> 124
ligh ten 124
手提 式 124
手提 肩背 124
sa ge</w> 124
牛皮 紙 124
透氣 舒適 124
女士 香水</w> 124
stri ps</w> 124
戶外 防水 124
stra ppy</w> 124
太陽 帽</w> 124
太陽 傘 124
連帽 外套 124
bar ako</w> 124
adidas 三葉草 124
一體 式 124
筆記本 電腦桌 124
荔枝 紋</w> 124
可拆 洗</w> 124
art ment</w> 124
黃色 小 124
平衡 車 124
自由 組合 124
潔面 乳</w> 124
sar ah</w> 124
三腳 架</w> 124
藤原 浩</w> 124
quil ted</w> 124
bao feng</w> 124
doll shoes</w> 124
丁字 褲</w> 124
伴手 禮</w> 124
kra ft</w> 124
spray er</w> 124
庫洛 魔法 124
無紡 布 124
土耳 其 124
potat o</w> 124
hyalur onic</w> 124
turtle neck</w> 124
大 風 123
t pad</w> 123
a q 123
a ero</w> 123
h g 123
h ex 123
d f 123
b ha</w> 123
卡 夢</w> 123
花 器</w> 123
美 味 123
直 條紋 123
克 麗 123
掛 袋 123
膠 水</w> 123
水 桶</w> 123
雙 拉鏈 123
可 樂</w> 123
眼 膜</w> 123
對 講 123
c g 123
鞋 架子 123
餐 盒 123
馬 甲</w> 123
複 合 123
藍 寶 123
網 球 123
稀 有</w> 123
紀 念</w> 123
鐵 盒</w> 123
傘 狀 123
黃 金</w> 123
碳 纖 123
胡 椒 123
奧 利 123
聲 控 123
強 效 123
湯 鍋 123
豹 紋</w> 123
徒 步 123
in as</w> 123
se tting</w> 123
di et</w> 123
ti c 123
ri ch 123
bo bo 123
ma inten 123
sp er 123
ap p</w> 123
運動 短褲 123
男女 生</w> 123
男女 情侶鞋</w> 123
pe ti 123
pe st</w> 123
sam pler</w> 123
cro codi 123
je an</w> 123
純棉 短袖 123
玩具 車</w> 123
vin ta 123
skin food</w> 123
chi p</w> 123
香奈兒 chanel 123
om nia</w> 123
英國 代購</w> 123
背景 牆 123
smo cked</w> 123
wr inkle</w> 123
郵差 包 123
玩具總動 員 123
蠟筆小 新 123
god dess</w> 123
embo ssed</w> 123
var sity</w> 123
四葉 草 123
台風行 家具</w> 123
emo ji</w> 123
rescu e</w> 123
多 件 122
l d 122
直 髮 122
服 務</w> 122
五 色 122
不 脫 122
水 藍</w> 122
發 泡 122
可 開 122
重 力 122
m vp</w> 122
圓 型 122
i ze</w> 122
i ris</w> 122
熱 敷 122
植 萃 122
家 族 122
x m</w> 122
袋 子</w> 122
j b</w> 122
微 電腦 122
專 業</w> 122
寬 褲 122
溜 冰鞋 122
足 浴 122
擋 板 122
削 肩 122
鍛 煉 122
ar bu 122
lo st</w> 122
al th</w> 122
ti de</w> 122
ne stle</w> 122
sho w 122
de fin 122
pre order</w> 122
bi scu 122
ver tical</w> 122
sk ort</w> 122
tri m</w> 122
sel l</w> 122
廚房 生活 122
gucci 古奇</w> 122
蕾絲 花邊 122
簡約現代 經濟型 122
長款 錢包</w> 122
保暖 外套</w> 122
chi e</w> 122
fen der</w> 122
sen sual</w> 122
筆記 型 122
古奇 gucci 122
pin ky</w> 122
af ter</w> 122
情人節 禮物 122
大型 犬 122
tee ther</w> 122
連線 代購</w> 122
火影 忍者</w> 122
新百 倫</w> 122
便條 紙</w> 122
mous se</w> 122
從零 開始 122
萬圣 節 122
e vil</w> 121
學 習</w> 121
一 代</w> 121
半 袖</w> 121
o u</w> 121
掛 袋</w> 121
座 墊</w> 121
膠 條</w> 121
特 典 121
水 鞋 121
尺 碼 121
雙 效 121
眼 睛</w> 121
軟 套</w> 121
i u 121
訂 做</w> 121
c di</w> 121
高 密 121
內 裡</w> 121
時 間</w> 121
幼 童 121
w m</w> 121
後 照 121
平 民 121
濕 紙巾</w> 121
產 品</w> 121
吊 籃 121
墨 水</w> 121
佛 像 121
仿 實木 121
邊 框</w> 121
拆 賣</w> 121
罐 頭</w> 121
私 處 121
煤 油 121
濃 密 121
迴 力 121
硫 化 121
al len</w> 121
to k</w> 121
ne g 121
ke ima 121
plu shie</w> 121
we i 121
uni verse</w> 121
che v 121
sa le 121
ste ering</w> 121
玻璃 殼</w> 121
par ty 121
man u 121
儲物 櫃</w> 121
條紋 上衣</w> 121
coach 蔻馳</w> 121
一體 成 121
reju vin 121
xs max 121
vol can 121
緊身 褲</w> 121
cham o 121
深層 清潔 121
cali for 121
素顏 霜</w> 121
mother care</w> 121
試用 包</w> 121
loaf ers</w> 121
菲拉格 慕 121
手 拿</w> 120
茶 包</w> 120
t ac 120
r ina</w> 120
g ps 120
n md 120
l f</w> 120
兔 兔</w> 120
金 盞 120
單 眼 120
厚 款 120
m 反光</w> 120
k ri 120
男 潮 120
熱 褲 120
文 胸</w> 120
x o</w> 120
快 遞 120
拉 手 120
精 萃 120
最 高 120
黑 板 120
貼 片 120
沙 龍 120
必 買 120
另 售 120
年 輕 120
遙 控</w> 120
刻 度 120
聖 誕</w> 120
賽 亞 120
隨 便 120
娜 娜 120
採 用 120
st ap 120
ch ri 120
ch op 120
li l</w> 120
si sley</w> 120
ra men</w> 120
mo ck</w> 120
te en 120
ke ys</w> 120
so dium</w> 120
運動 襪</w> 120
qu i 120
car har 120
ter ra</w> 120
全新 轉賣</w> 120
no v 120
男女 皆 120
男士 手錶 120
mas er 120
客廳 餐廳 120
沙發 椅</w> 120
por sche</w> 120
bur n</w> 120
bri dge</w> 120
咖啡 豆</w> 120
小型 迷你 120
stre ss</w> 120
tro user</w> 120
cal ci 120
辦公室 桌面 120
整理 盒 120
sou th</w> 120
sw ad 120
無袖 背心</w> 120
plan et</w> 120
auto light</w> 120
官方 正品</w> 120
東京 迪士尼 120
mam ba</w> 120
飛行 員 120
oc cas 120
ast ac 120
葡萄 酒 120
hermes 愛馬仕 120
薰衣 草</w> 120
史密 斯 120
撲克 牌</w> 120
風火 輪</w> 120
角落小 夥伴</w> 120
sharpen er</w> 120
gymbo ree</w> 120
小 美人魚</w> 119
大 臉 119
r ust</w> 119
作 品</w> 119
o wn 119
插 花 119
食 用 119
硅 膠</w> 119
圓 筒 119
i f</w> 119
跑 車 119
高 亮 119
北 京 119
中 秋 119
星 空</w> 119
x ion</w> 119
超 值</w> 119
禮 包</w> 119
頭 套 119
數 學 119
天 下</w> 119
雷 朋 119
油 性 119
上 盆 119
久 保 119
東 立</w> 119
年 終 119
草 帽</w> 119
草 坪 119
夫 妻 119
指 環</w> 119
冰 冰 119
橫 款 119
私 訊 119
合 成 119
萊 卡 119
q i</w> 119
采 用 119
re tail</w> 119
or ts</w> 119
le e 119
sh in</w> 119
ch ap 119
ma g</w> 119
ma king</w> 119
ki ki</w> 119
休閒 外套</w> 119
ho les</w> 119
ing a</w> 119
mar tin</w> 119
pi k 119
pe i</w> 119
ta c</w> 119
mat t</w> 119
夏季 男士 119
客廳 裝飾 119
多功能 防水 119
mon t</w> 119
fe mme</w> 119
par ker</w> 119
ach i 119
玩具 車 119
ge m</w> 119
家居 館</w> 119
ja y 119
usb 充電</w> 119
luck y 119
包裝 盒</w> 119
新生 兒</w> 119
cc it 119
sco tt</w> 119
奶茶 色</w> 119
drag on 119
eas y 119
joy stick</w> 119
coco a</w> 119
ox y 119
absor bent</w> 119
拍立 得 119
佩佩 豬 119
saf ari</w> 119
jon i</w> 119
kak ao</w> 119
史萊 姆 119
beaute derm</w> 119
美杜 莎 119
arbu tin</w> 119
rejuvin ating</w> 119
紅 綠 118
電 話</w> 118
多 款</w> 118
y p 118
p ai 118
無 煙 118
金 毛 118
o z 118
布 鞋</w> 118
門 市 118
衣 板 118
整 理</w> 118
防 藍光 118
女 男 118
可 口 118
可 發 118
毛 孔</w> 118
零 售</w> 118
打 亮 118
c ig 118
爽 膚 118
鞋 帶</w> 118
絲 滑 118
擴 充 118
海 馬 118
起 子</w> 118
母 嬰 118
油 畫</w> 118
少 量 118
褲 帶</w> 118
別 針 118
主 食 118
月 亮</w> 118
胡 迪</w> 118
首 刷 118
斐 樂 118
賽 車</w> 118
歲 月</w> 118
靴 女 118
言 情 118
彼 得 118
如 圖</w> 118
枚 入</w> 118
聰 明 118
co in 118
on i 118
th i 118
bl in 118
休閒 板鞋</w> 118
wat tpad</w> 118
per t</w> 118
創意 簡約 118
hu ggies</w> 118
tu res</w> 118
he li 118
套裝 女</w> 118
化妝 刷 118
沙發 凳 118
flor a</w> 118
電動 摩托車 118
小型 家用 118
bracele ts</w> 118
fun ny</w> 118
chi bi</w> 118
san it 118
工作 服</w> 118
石英 手錶 118
一字 拖 118
fra red</w> 118
原裝 進口 118
sw an</w> 118
sha ft</w> 118
空調 被 118
游泳 衣</w> 118
吧臺 椅 118
秋裝 新款 118
蝙蝠 俠 118
pli age</w> 118
含稅 附發票</w> 118
api eu</w> 118
yun teng</w> 118
冷淡 風 118
sens itive</w> 118
莫斯 奇 118
小 貓 117
小 宅 117
r k</w> 117
卡 拉 117
變 身 117
變 焦 117
多 多 117
圖 解 117
單 面 117
布 藝</w> 117
掛 勾 117
線 條</w> 117
長 頸 117
面 具 117
動 畫 117
火 星 117
盤 子</w> 117
夏 款 117
果 蔬 117
可 換 117
可 改 117
軟 管 117
f v</w> 117
f inger 117
k p</w> 117
i pa 117
護 膝 117
好 穿</w> 117
高 手</w> 117
貓 爬 117
絨 毛</w> 117
明 日 117
烏 龜 117
行 政 117
頂 上 117
海 豚 117
近 全新 117
榮 耀</w> 117
飯 盒</w> 117
摩 洛 117
扭 扭 117
邊 幾</w> 117
髮 膜</w> 117
未 開 117
聚 會 117
睡 袋 117
扇 子</w> 117
艾 斯</w> 117
索 尼</w> 117
杜 嘉 117
蒂 芙 117
in frared</w> 117
co w</w> 117
st he 117
en tal</w> 117
ro y</w> 117
di c</w> 117
la de 117
su ction</w> 117
mi le</w> 117
ab il 117
wh o</w> 117
休閒 百搭</w> 117
vi s 117
fi lip 117
con cer 117
客廳 玄關 117
hu ang</w> 117
je ggings</w> 117
chan g</w> 117
par adi 117
折疊 桌</w> 117
新品 優惠</w> 117
帆布 鞋女 117
落地 燈 117
限時 搶購</w> 117
蘋果 iphone</w> 117
is a</w> 117
the med</w> 117
內衣 女 117
必備 款</w> 117
gro w</w> 117
burberry 巴寶莉 117
媽咪 包</w> 117
羽絨 服 117
三星 s</w> 117
三星 標</w> 117
cin derella</w> 117
pig gy</w> 117
poly ester</w> 117
口罩 套</w> 117
esp rit</w> 117
given chy 117
多美 小汽車</w> 117
蛤蟆 鏡</w> 117
卡地 亞</w> 117
rele ase</w> 117
acou stic</w> 117
califor nia</w> 117
小 可愛 116
大 耳 116
h t 116
e ma</w> 116
d angle</w> 116
g ain</w> 116
g ly 116
u d</w> 116
u ten 116
y oo 116
無 痕</w> 116
直 營</w> 116
z inc</w> 116
員 工 116
車 充</w> 116
m igh 116
k ate 116
自 有 116
家 飾</w> 116
w and</w> 116
復 活 116
刷 街 116
黑 貓 116
開 心 116
淺 藍</w> 116
素 描 116
練 字 116
胖 妹妹 116
和 紙膠帶</w> 116
佛 珠 116
桌 墊</w> 116
香 港</w> 116
結 單</w> 116
蘇 菲 116
鐵 盒 116
坑 條 116
勇 士 116
q q</w> 116
刺 激</w> 116
段 式 116
薯 條 116
楊 冪 116
絞 肉 116
繃 帶 116
ar twork</w> 116
se t 116
th under</w> 116
de co</w> 116
ke ep</w> 116
so ul 116
運動 電子 116
da d</w> 116
兒童 床 116
pi zza</w> 116
防水 臺 116
bb w</w> 116
女士 手提包</w> 116
t恤 男 116
性感 百搭 116
防曬 衣</w> 116
dr one</w> 116
wel ding</w> 116
打底 褲</w> 116
公主 裙 116
清潔 劑 116
nike 耐吉</w> 116
電視 櫃</w> 116
play ing</w> 116
相機 包 116
ken ne 116
原裝 正品</w> 116
sha ver</w> 116
雜貨 舖</w> 116
人字 拖 116
shop kins</w> 116
轉換 器 116
bay max</w> 116
播放 器</w> 116
天鵝 絨 116
同人 誌</w> 116
int elli 116
indi an</w> 116
控制 器</w> 116
mang o 116
milk tea</w> 116
kl airs</w> 116
plac enta</w> 116
ante ed</w> 116
rev lon</w> 116
celebr ity</w> 116
hul k</w> 116
可攜 式 116
giord ano</w> 116
mainten ance</w> 116
杜嘉 班 116
小 金 115
小 禮服 115
杏 色</w> 115
t v 115
d j 115
花 藝 115
n r</w> 115
n as 115
y d</w> 115
l ang</w> 115
l tb</w> 115
一 生</w> 115
一 體</w> 115
z d</w> 115
o re 115
板 橋 115
不 二 115
不 是 115
套 装 115
女 夏季 115
書 房</w> 115
背 膠 115
全 罩 115
全 屏 115
極 光 115
護 理</w> 115
c as</w> 115
二 件式 115
高 山 115
高 腰</w> 115
實 惠 115
超 聲波 115
氣 壓 115
奇 異 115
建 築 115
數 顯 115
黑 糖 115
開 衫</w> 115
麗 莎 115
四 軸 115
皇 冠</w> 115
秋 季</w> 115
蜜 蜂</w> 115
鐘 錶 115
翻 蓋</w> 115
太 極 115
鑽 石</w> 115
種 植 115
滋 潤</w> 115
福 特</w> 115
艾 莉 115
貴 婦 115
蛇 紋 115
龐 克 115
曲 線 115
煥 膚 115
in i 115
re new 115
lo ne 115
ch el 115
ro asted</w> 115
am ore</w> 115
po mpo 115
sk ate 115
blu sher</w> 115
韓國 可愛 115
sam son 115
pu ff 115
單肩 手提 115
go ku</w> 115
bat e</w> 115
寶寶 兒童 115
wa ffle</w> 115
gi ve</w> 115
gra pe</w> 115
ach u</w> 115
印花 短t</w> 115
bel tbag</w> 115
hand s</w> 115
精品 包</w> 115
bri dal</w> 115
hoo dy</w> 115
組合 包</w> 115
ha zel</w> 115
tren ch</w> 115
sl r</w> 115
zz y</w> 115
摩托 車</w> 115
decor ative</w> 115
超人 氣 115
sol di 115
週年 紀念 115
中長 款</w> 115
萬寶 龍</w> 115
小丸 子 115
五角 星 115
植村 秀</w> 115
點煙 器 115
木耳 邊 115
mmi es</w> 115
iron man</w> 115
哈利 波 115
crocodi le</w> 115
雨 刷 114
r as 114
h ak 114
b x</w> 114
三 國 114
花 紋</w> 114
多 口袋 114
y ur 114
直 升 114
印 刷 114
式 耳機</w> 114
韓 風</w> 114
烤 漆</w> 114
防 腐 114
套 筒</w> 114
背 巾</w> 114
名 牌</w> 114
打 造 114
護 髮</w> 114
家 的 114
j h</w> 114
頭 巾</w> 114
開 檔 114
母 子 114
除 菌 114
平 安</w> 114
酒 紅色 114
玩 家</w> 114
秋 裝</w> 114
相 容</w> 114
的 家</w> 114
按 壓式 114
勇 者 114
炸 鍋</w> 114
寵 愛 114
章 魚 114
窄 管 114
毯 子</w> 114
紐 西 114
冒 險</w> 114
an ts</w> 114
se duction</w> 114
si on 114
to m 114
ti res</w> 114
th ong</w> 114
mo mo 114
ki sses</w> 114
ho tel</w> 114
ter ran 114
全新 正版</w> 114
男女 情侶款</w> 114
cre pe</w> 114
百搭 款 114
pi a</w> 114
pl s</w> 114
慢跑 褲</w> 114
her it 114
clo ver</w> 114
儲物 盒 114
stor ies</w> 114
衛生 棉</w> 114
der ma 114
衣服 架子 114
浴室 衛生間 114
fly knit 114
plan ts</w> 114
青年 學生 114
mol der</w> 114
保鮮 盒 114
eu c</w> 114
紙巾 盒</w> 114
泰迪 熊 114
arti st</w> 114
cover s</w> 114
零錢 袋</w> 114
die cast</w> 114
無印 良品</w> 114
guar anteed</w> 114
法拉 利 114
mont blanc</w> 114
divi ded</w> 114
stam ps</w> 114
choo se</w> 114
miya ke</w> 114
dess ert</w> 114
industri al</w> 114
regul ator</w> 114
小 款</w> 113
h ong</w> 113
代 籃球鞋 113
購 回</w> 113
卡 套 113
一 鍵 113
布 袋 113
面 紙 113
體 恤</w> 113
短 上衣</w> 113
名 器</w> 113
m hz</w> 113
雪 紡</w> 113
快 拆 113
斜 跨</w> 113
台 南</w> 113
四 層 113
四 腳 113
柔 膚 113
軍 綠 113
隔 層 113
造 景</w> 113
帆 船 113
睡 裙</w> 113
初 回 113
冒 險 113
藻 土 113
le ash</w> 113
st ella</w> 113
ro mpers</w> 113
un g 113
ti le</w> 113
bo ws</w> 113
po pu 113
and er 113
tt es</w> 113
qu ad</w> 113
收納 籃 113
do om</w> 113
gh ts</w> 113
con tin 113
hu a</w> 113
desig ned</w> 113
he i 113
sc ato</w> 113
cal ming</w> 113
conver se 113
nike 鞋</w> 113
新款韓版 百搭 113
游戲 機 113
招財 貓 113
pul ley</w> 113
電源 供應 113
customi ze</w> 113
多肉 植物 113
cit rus</w> 113
信封 包 113
ner f</w> 113
投影 儀 113
bey blade</w> 113
永生 花 113
thri fted</w> 113
巴斯 光 113
人體工 學 113
vinta ge 113
小 椰子</w> 112
手 帳</w> 112
新 勁戰</w> 112
大 燈</w> 112
t 卹</w> 112
e ter 112
b c 112
b ga</w> 112
卡 比 112
多 格 112
美 式</w> 112
牛 肉 112
增 壓 112
z el 112
o il 112
機 能</w> 112
童 趣 112
木 雕 112
水 管</w> 112
薄 紗 112
鼠 年 112
裝 修 112
假 睫毛 112
全 部 112
襪 套 112
男 表</w> 112
熊 大 112
百 合 112
內 襯 112
白 粉</w> 112
風 機 112
風 車</w> 112
洗 腳 112
w f</w> 112
屁 股 112
刀 片</w> 112
豬 豬 112
淺 色 112
醫 生 112
腰 掛 112
褲 襪 112
周 年</w> 112
溫 控 112
民 謠 112
翻 糖 112
福 袋 112
向 日 112
震 動</w> 112
什 麼 112
as tro</w> 112
st amp 112
li z</w> 112
ba i</w> 112
ti fied</w> 112
de light</w> 112
de vil</w> 112
qu in 112
vi al</w> 112
wi se</w> 112
ss o</w> 112
fl o</w> 112
av an 112
個性 時尚 112
沙發 背景墻 112
mag s</w> 112
ins 潮</w> 112
網紅 ins風 112
新品 促銷</w> 112
den tal</w> 112
卡通 印花 112
cha ins</w> 112
comp any</w> 112
star ry</w> 112
fin d</w> 112
工作 鞋</w> 112
全自動 機械 112
甜美 可愛 112
鋼化玻璃 膜</w> 112
flu ffy</w> 112
我的 英雄 112
刀劍 亂 112
ful ly</w> 112
無印 良品 112
sav ing</w> 112
唐老 鴨 112
sad dle</w> 112
concentr ate</w> 112
下午 茶 112
ido lish</w> 112
bee tle</w> 112
理發 店 112
boar d 112
lolit a 112
維多 利亞 112
戴妃 包</w> 112
rush guard</w> 112
lubri c 112
refriger ator</w> 112
小 車</w> 111
茶 葉</w> 111
r p</w> 111
e mul 111
g sc</w> 111
會 客 111
y ves</w> 111
牛 軋 111
金 邊 111
掛 布 111
不 會 111
水 機 111
兩 色可選</w> 111
m f 111
m to</w> 111
全 皮</w> 111
原 色 111
熱 帶 111
紙 尿 111
中 袖 111
禮 券</w> 111
愛 買</w> 111
頭 燈</w> 111
斜 口 111
老 公 111
殺 手包</w> 111
胸 罩</w> 111
扣 腰帶 111
吊 帶</w> 111
吸 盤</w> 111
應 急 111
巧 虎 111
王 子</w> 111
密 碼</w> 111
穿 戴 111
安 心 111
艾 灸 111
備 註 111
跳 蛋 111
复 古 111
講 義</w> 111
盥 洗 111
lo ad</w> 111
ti er 111
ra t</w> 111
mo cha</w> 111
新款 女 111
pr m</w> 111
car ry 111
韓版 休閒 111
創意 可愛 111
台灣 熱 111
jo ker</w> 111
lit e 111
one er</w> 111
mil l</w> 111
防曬 霜 111
pur itan</w> 111
浴室 鏡 111
三件 式 111
模型 車</w> 111
音樂 盒 111
my stery</w> 111
翻蓋 包</w> 111
便宜 出清</w> 111
goo ds</w> 111
記憶 棉 111
hd d</w> 111
無線藍牙 耳機</w> 111
吸盤 式 111
螢光 綠</w> 111
防彈少年 團 111
ox o</w> 111
分裝 瓶</w> 111
近視 眼鏡 111
請先 詢問 111
掛墻 式 111
棒棒 糖 111
door mat</w> 111
tisso t 111
假面 騎士</w> 111
soap s</w> 111
刀劍神 域</w> 111
olymp us</w> 111
新加 坡 111
oper ated</w> 111
馬自 達</w> 111
repel lent</w> 111
夏威 夷 111
volcan ic</w> 111
terran ova</w> 111
新 配色</w> 110
大 學</w> 110
a 款</w> 110
r anger</w> 110
三 重 110
代 餐 110
p al</w> 110
無 盒</w> 110
半 圓 110
金 絲絨 110
門 窗 110
面 紙盒</w> 110
儲 蓄 110
女 友 110
鋼 托 110
光 燈 110
筆 筒</w> 110
本 命 110
f li 110
男 褲</w> 110
馬 桶</w> 110
好 穿 110
中 小童 110
日 式</w> 110
超 可愛</w> 110
精 緻</w> 110
精 密 110
尾 燈</w> 110
世 家</w> 110
w th</w> 110
攜 帶</w> 110
現 場 110
分 售</w> 110
淺 灰</w> 110
除 螨 110
濕 巾</w> 110
產 后 110
酒 紅色</w> 110
上 的 110
耐 摔 110
呢 子 110
樹 葉 110
握 把</w> 110
導 航</w> 110
葡 萄</w> 110
鳥 籠 110
柵 欄 110
裸 色 110
st o</w> 110
en ix</w> 110
me x 110
bo unce</w> 110
lu s 110
ne st</w> 110
ic ed</w> 110
mo mo</w> 110
bl 漫畫</w> 110
cu xi</w> 110
tr ash</w> 110
bu dd 110
adi an</w> 110
潮流 鞋</w> 110
客廳 家用 110
客廳 小戶型 110
寶寶 嬰兒 110
汽車 用品</w> 110
flo ater</w> 110
圓領 t</w> 110
gar nish</w> 110
vin e 110
kin e 110
dr ain</w> 110
dri ving</w> 110
har den</w> 110
沙灘 褲 110
bir kin</w> 110
厚底 松糕 110
格子 襯衫</w> 110
adidas 愛迪達</w> 110
機車 包</w> 110
lun ar 110
diam on 110
英文 版</w> 110
孕婦 裝</w> 110
牛仔褲 女 110
inst ru 110
base us</w> 110
lac es</w> 110
可坐 可躺 110
證件 套</w> 110
嬰兒童 裝</w> 110
pean uts</w> 110
布丁 狗</w> 110
小包包 女</w> 110
toy castle</w> 110
飲水 機 110
phy si 110
妝前 乳</w> 110
行車記錄 器</w> 110
雪莉 玫</w> 110
detai ls</w> 110
seph ora</w> 110
concer t</w> 110
小 新 109
小 羊皮</w> 109
新 北 109
杏 色 109
g org 109
電 力 109
b ite</w> 109
b ale</w> 109
p on</w> 109
l j</w> 109
增 強 109
單 冷 109
保 潔 109
加 壓 109
不 要 109
烤 盤 109
水 感 109
兩 款 109
全 黑 109
f m 109
雪 糕 109
文 字</w> 109
好 禮</w> 109
紗 窗 109
霧 化 109
內 襯</w> 109
白 勾</w> 109
黑 粉</w> 109
攻 略</w> 109
細 緻 109
魔 幻 109
吊 床 109
救 生 109
彈 簧</w> 109
灰 黑</w> 109
年 中 109
山 居 109
菜 板 109
冰 涼 109
以 上</w> 109
懸 掛式 109
罐 裝</w> 109
砂 輪 109
朋 克 109
被 子</w> 109
市 集</w> 109
八 角 109
票 夾</w> 109
貔 貅</w> 109
扮 家家</w> 109
橢 圓形 109
鯉 魚 109
le y 109
st ande 109
di an</w> 109
ri hanna</w> 109
ic ks</w> 109
日本 正版 109
長袖 t</w> 109
長袖 衛衣 109
沙發 套 109
lv 皮帶</w> 109
歐美 爆款 109
歐美 潮牌 109
男生 女生 109
fil ler</w> 109
生活 館 109
家居 家具 109
保濕 面膜</w> 109
woo d 109
star wars</w> 109
fig u 109
下單 前 109
adidas 阿迪達斯 109
colla p 109
wil li 109
無袖 洋裝</w> 109
拉桿 箱</w> 109
gla di 109
四角 褲</w> 109
低音 炮 109
貓頭 鷹</w> 109
hyper dunk</w> 109
大師 圖書 109
button ed</w> 109
kee per</w> 109
陳冠 希 109
主持 人 109
square pants</w> 109
紐巴 倫</w> 109
新品特價 台灣熱 109
從零開始 的 109
ipa ky</w> 109
lade sh</w> 109
migh ty</w> 109
電源供應 器</w> 109
小 ck 108
小 風扇</w> 108
大 人</w> 108
茶 桌</w> 108
三 洋</w> 108
代 發</w> 108
通 訊</w> 108
多 多</w> 108
n j</w> 108
p aid</w> 108
無 油 108
接 口 108
克 拉 108
單 品 108
長 款</w> 108
機 械</w> 108
斗 櫃</w> 108
火 鍋</w> 108
體 育 108
發 卡 108
f fl 108
男 表 108
熊 抱 108
啞 鈴 108
烏 克麗 108
羊 毛</w> 108
貼 畫</w> 108
香 吉 108
相 冊 108
磨 砂</w> 108
翻 譯 108
落 地</w> 108
搶 先 108
船 型 108
刮 胡 108
睡 袍 108
比 熊 108
益 智</w> 108
ar s</w> 108
co b</w> 108
as us 108
en ti 108
to my 108
su baru</w> 108
us ing</w> 108
ab str 108
wo c 108
mar ch</w> 108
fi e 108
fi dget</w> 108
創意 時尚 108
men ow</w> 108
gra b</w> 108
女士 包包</w> 108
dis count</w> 108
ten er</w> 108
stri ke</w> 108
man icure</w> 108
戶外 登山 108
wel l 108
bre e 108
ha wai 108
拉鏈 長夾</w> 108
三眼 怪 108
全場 促銷</w> 108
pol kad 108
一體 機 108
直筒 牛仔褲</w> 108
初學 者</w> 108
blan k</w> 108
洗髮 乳</w> 108
自拍 神器</w> 108
防水防 油 108
鎖骨 鏈</w> 108
dw 手錶 108
fal con</w> 108
preci sion</w> 108
clar i 108
indi vi 108
美少女 戰士</w> 108
sg s 108
anth a</w> 108
excel lent</w> 108
iv ory</w> 108
法拉 利</w> 108
ascor bate</w> 108
一片 式 108
dil do</w> 108
理膚寶 水</w> 108
meas uring</w> 108
買就 送 108
herit age</w> 108
a ve</w> 107
h h 107
g t 107
s ap 107
s ala 107
三 明治 107
萬 代 107
n ine 107
n ina</w> 107
l s 107
l q</w> 107
子 彈</w> 107
純 淨 107
直 立 107
o ccit 107
料 理</w> 107
果 盤 107
發 射 107
筆 記</w> 107
可 機 107
全 系列 107
極 品 107
i pan 107
粉 碎 107
超 柔 107
運 費 107
古 早 107
休 息 107
w av 107
斑 馬</w> 107
容 量</w> 107
改 善 107
補 丁 107
預 定 107
春 天 107
磨 豆 107
深 灰</w> 107
椅 背 107
簽 字 107
潑 墨</w> 107
邊 桌</w> 107
綠 茶</w> 107
西 點 107
箱 子</w> 107
瑞 典 107
參 考 107
滴 膠 107
市 場 107
飄 逸 107
醬 油 107
逗 貓 107
虧 本 107
鑒 賞</w> 107
in fan 107
co se</w> 107
ch box</w> 107
ro s</w> 107
to s</w> 107
ti e 107
ir a</w> 107
ne twork</w> 107
la ge</w> 107
la gun 107
el er</w> 107
ph ar 107
cre e 107
wi d 107
短袖 襯衫 107
con stru 107
mas ter 107
休閑 板鞋</w> 107
北歐 簡約現代 107
bat tle</w> 107
gir dle</w> 107
sa ve</w> 107
sa em</w> 107
sc a 107
gra ded</w> 107
lv 新款 107
實木 質 107
印花 logo 107
stra y</w> 107
lip cream</w> 107
ge m 107
寬松 休閑 107
mer ce 107
she y</w> 107
拉鏈 錢夾</w> 107
bang ladesh</w> 107
bra zi 107
水果 盤 107
band ana</w> 107
ji mmy</w> 107
隱形 襪</w> 107
半袖 上衣 107
全新正品 nike</w> 107
老年 人 107
耐熱 玻璃 107
dg es</w> 107
調整 型 107
bol ts</w> 107
實物 拍攝</w> 107
克羅 心 107
蕾哈 娜 107
kids wear</w> 107
broo ch</w> 107
nutr ition</w> 107
大作 戰</w> 107
reci pe</w> 107
keima v</w> 107
popu lar</w> 107
vine gar</w> 107
大 大 106
大 款</w> 106
大 黃 106
作 業 106
p ine</w> 106
同 學 106
皮 質</w> 106
門 鎖 106
面 交 106
水 果</w> 106
k f</w> 106
男 真皮 106
打 擊 106
i als</w> 106
自 取 106
自 己</w> 106
二 層 106
文 學</w> 106
中 褲 106
中 童</w> 106
超 硬 106
白 綠</w> 106
羅 意 106
現 金 106
速 乾</w> 106
上 課 106
泡 面 106
瑪 瑙</w> 106
釘 珠 106
倍 思</w> 106
傳 奇</w> 106
湯 匙 106
檢 驗 106
永 恆 106
re tte</w> 106
as y 106
ro xy</w> 106
ti ck</w> 106
ne x</w> 106
la v 106
sp in 106
sho e 106
de tail</w> 106
pro ph 106
per spir 106
be be</w> 106
pi oneer</w> 106
pe an</w> 106
cor set</w> 106
正品 全新</w> 106
je t 106
he al</w> 106
跑步 健身 106
ge ment</w> 106
sl acks</w> 106
洗衣 精</w> 106
加絨 保暖 106
香港 迪士尼 106
精華 液 106
床上 用 106
西裝 夾</w> 106
cr ush</w> 106
gro up</w> 106
mono gram 106
pvc 配 106
armani 阿瑪尼</w> 106
toi le 106
過濾 器 106
過濾 器</w> 106
exten der</w> 106
收納柜 子 106
高級 感 106
調味 料 106
post card</w> 106
卡片 夾</w> 106
制服 誘惑 106
tiff any 106
big bang</w> 106
gab ri 106
一起 賣</w> 106
rect angle</w> 106
ferragam o 106
火影 忍者 106
空軍一 號 106
美國隊 長</w> 106
fire fly</w> 106
史黛 拉 106
euro pean</w> 106
jig saw</w> 106
瑪莎拉 蒂 106
gho st</w> 106
親筆 簽名 106
蝶古巴 特</w> 106
cut lery</w> 106
全方 位 106
carhar tt</w> 106
abstr act</w> 106
小 花</w> 105
d ora</w> 105
電 動</w> 105
s word</w> 105
l ashes</w> 105
z f</w> 105
z h</w> 105
z ers</w> 105
體 感 105
不 敗 105
筆 筒 105
可 貨到付款</w> 105
夾 式</w> 105
全 省 105
f g 105
f h</w> 105
f z</w> 105
原 文 105
粉 撲</w> 105
雪 靴</w> 105
紙 袋 105
園 藝</w> 105
托 腹 105
黑 藍 105
音 量 105
潤 髮 105
褲 裙 105
調 色 105
春 裝</w> 105
華 倫 105
耳 麥</w> 105
山 葉</w> 105
雞 肉</w> 105
博 士</w> 105
壁 飾 105
角 度 105
城 堡 105
叉 子</w> 105
教 室 105
澎 澎 105
支 裝 105
核 心</w> 105
巨 人</w> 105
坎 肩 105
re ra</w> 105
it as</w> 105
en chan 105
me ss 105
ti ps</w> 105
la bo</w> 105
ol d 105
so cial</w> 105
il ly</w> 105
do re 105
ci ous</w> 105
pan er 105
ele t</w> 105
復古 慢跑鞋</w> 105
sli cer</w> 105
cor por 105
ex pert</w> 105
ce e</w> 105
純棉 t恤</w> 105
秋冬 款</w> 105
秋冬 新款韓版 105
lit er 105
圓領 上衣</w> 105
精品 館</w> 105
透明 殼</w> 105
bri gh 105
dd le</w> 105
儲物 架</w> 105
cap ri</w> 105
限時 特賣</w> 105
外套 女</w> 105
床頭 燈 105
comp artment</w> 105
一字 領</w> 105
person a</w> 105
男鞋 子 105
multi ple</w> 105
ml x</w> 105
防塵 罩</w> 105
親子 裝 105
阿瑪尼 手錶</w> 105
仙女 風 105
buil d</w> 105
花盆 架 105
cray on</w> 105
吸濕 排汗 105
小叮 噹</w> 105
歐舒 丹</w> 105
掛耳 式 105
medic ine</w> 105
超商取 貨 105
仰臥 起 105
espadri lle</w> 105
engine ering</w> 105
season ing</w> 105
多媒 體 105
亞馬 遜 105
valu e</w> 105
flas k</w> 105
sanit ary</w> 105
kenne th</w> 105
collap sible</w> 105
神 明 104
新 色 104
大 包 104
人 緣 104
d l 104
電 推 104
s it 104
三 眼</w> 104
三 點 104
卡 牌 104
卡 貼</w> 104
卡 牌</w> 104
無 味 104
一 雙</w> 104
一 批</w> 104
o logy</w> 104
掛 式</w> 104
防 疫 104
防 霉 104
水 母 104
鋼 架 104
雙 翹 104
可 摺疊 104
食 玩</w> 104
m v 104
m ks</w> 104
男 短t</w> 104
c ani 104
郵 票</w> 104
六 月 104
中 控 104
噴 水 104
白 板 104
白 玉 104
白 灰</w> 104
海 苔 104
意 式 104
銷 售 104
露 臍 104
乾 濕 104
產 後 104
和 服</w> 104
麻 繩 104
來 自 104
圍 脖 104
頸 部 104
婚 房 104
指 針 104
菜 瓜 104
壁 式 104
未 拆封</w> 104
之 旅</w> 104
浪 漫</w> 104
娃 衣</w> 104
奧 迪 104
艾 瑪 104
舞 台 104
唱 片</w> 104
烘 干 104
喂 奶 104
st ent</w> 104
to e 104
to d</w> 104
to ur 104
to te 104
to toro</w> 104
am ar 104
新款 上市</w> 104
pp ee</w> 104
ho lo 104
兒童 益智 104
vi vi</w> 104
短袖 洋裝</w> 104
sun set</w> 104
ele s</w> 104
boo t</w> 104
mas s</w> 104
夏季 男生 104
ju li 104
sc al 104
ste am 104
man n</w> 104
hand ker 104
ct ure</w> 104
嬰兒 車 104
gar den 104
can adian</w> 104
hoo ks</w> 104
防滑 墊 104
長款 錢包 104
tro gen 104
hi fi</w> 104
三角 形 104
整理 架 104
mk s 104
無袖 上衣</w> 104
臺式 機 104
小方 巾</w> 104
es lite</w> 104
買一 送一 104
蝙蝠 俠</w> 104
床單 被套 104
卡其 色</w> 104
absor ber</w> 104
燈籠 袖 104
卡地 亞 104
pix el</w> 104
amethy st</w> 104
摩洛 哥 104
figu arts</w> 104
大 堂 103
h ab 103
e ve</w> 103
u f</w> 103
代 言 103
花 香 103
化 學 103
作 品 103
無 毒</w> 103
金 鍊 103
機 器</w> 103
防 丟 103
雙 排扣 103
夾 鏈 103
眼 罩 103
兩 輪 103
m t 103
m w</w> 103
m q</w> 103
f go</w> 103
k abu 103
男 子</w> 103
護 膝</w> 103
部 落</w> 103
好 吃 103
日 立 103
實 務</w> 103
頭 枕</w> 103
行 者 103
正 廠</w> 103
最 強 103
紋 牛皮 103
分 子 103
細 節 103
消 臭 103
釣 魚</w> 103
網 狀 103
頸 枕</w> 103
宅 急 103
讀 卡 103
奢 侈 103
冰 河 103
鍍 鉻 103
塔 羅 103
城 堡</w> 103
回 收 103
剪 裁 103
散 打 103
止 滑</w> 103
抑 菌 103
裹 胸 103
lo mo 103
ch ina</w> 103
cas h 103
de ser 103
dre ams</w> 103
ki ss 103
qu er</w> 103
pre paid</w> 103
ck 手錶</w> 103
韓版 休閑 103
tr on</w> 103
pa ge</w> 103
be anie</w> 103
fi shing</w> 103
pe di 103
裝飾 貼</w> 103
her shey</w> 103
真皮 皮帶</w> 103
女士 腕錶 103
bel ly</w> 103
mu gs</w> 103
gucci 女包</w> 103
男生 短t</w> 103
電動 車</w> 103
電動 牙刷</w> 103
鑰匙 套</w> 103
dar k 103
super hero</w> 103
pat ent</w> 103
bir th</w> 103
liqu e</w> 103
高跟 涼鞋</w> 103
美甲 店 103
格紋 襯衫</w> 103
環保 袋</w> 103
全場 下殺</w> 103
smo k</w> 103
牛仔褲 男 103
reju v</w> 103
鬆緊 帶 103
菱格 紋</w> 103
pic nic</w> 103
ae sthe 103
cit ron 103
小圓 桌 103
wee ken 103
多卡 位</w> 103
主機 板</w> 103
現貨秒 出</w> 103
ik ea 103
neu trogen 103
餃子 包</w> 103
打印 機 103
補光 燈 103
loaf er</w> 103
駕車 鞋</w> 103
edi f 103
懶懶 熊</w> 103
athle tic</w> 103
蒙古 包 103
techni ques</w> 103
pimp le</w> 103
peti t</w> 103
calci um</w> 103
oxy gen</w> 103
soldi er</w> 103
小 禮物</w> 102
手 槍 102
g 家 102
花 卉</w> 102
y te</w> 102
美 容</w> 102
皮 包 102
無 袖</w> 102
一 箱</w> 102
裙 擺 102
印 象 102
塑 膠</w> 102
韓 站</w> 102
瓶 裝</w> 102
薄 荷</w> 102
女 潮 102
m use</w> 102
f ter</w> 102
i mar 102
格 蘭 102
中 空 102
超 夯 102
快 手 102
內 附 102
古 龍 102
第 六 102
正 常 102
牙 齒 102
黑 綠</w> 102
開 學 102
分 褲</w> 102
潤 唇膏</w> 102
酒 杯 102
枕 套 102
方 塊</w> 102
腳 底 102
的 秘密</w> 102
亞 曼尼</w> 102
灰 藍</w> 102
牆 貼 102
仿 真</w> 102
墻 角 102
首 飾</w> 102
蘭 芝 102
唇 釉 102
扇 子 102
艾 草 102
止 癢 102
网 红 102
捕 夢 102
急 速 102
紐 扣 102
疲 勞 102
乒 乓 102
in ed</w> 102
co rol 102
ba be</w> 102
ni er</w> 102
新款 復古 102
時尚 男士 102
wh ip</w> 102
min ion</w> 102
簡約 休閒 102
收納 神器 102
兒童 學習 102
手機 電腦 102
學生 書包 102
ta les</w> 102
sam yang</w> 102
du al 102
個性 潮流 102
折疊 式 102
bro ws</w> 102
bur ger</w> 102
修身 小腳 102
專用 賣場</w> 102
lip sticks</w> 102
蕾絲 上衣</w> 102
can non</w> 102
現代簡約 臥室 102
防曬 乳</w> 102
天然 緬甸玉 102
居家 裝飾</w> 102
long back</w> 102
浴室 置物架 102
remo vable</w> 102
春秋 款 102
gro wth</w> 102
cen t 102
持久 淡香 102
垃圾 袋 102
促銷 活動</w> 102
自慰 杯</w> 102
cd g</w> 102
滿千 免運</w> 102
洞洞 鞋</w> 102
mou se 102
wind proof</w> 102
詹姆 斯 102
收銀 臺 102
ultr as 102
craf ts</w> 102
演唱 會</w> 102
hit achi</w> 102
fel t</w> 102
rela x 102
touch screen</w> 102
cook ware</w> 102
iso prop 102
austr alia</w> 102
超長待 機 102
雙眼 皮 102
誠品 eslite</w> 102
own ed</w> 102
samson ite</w> 102
ipan ema</w> 102
isoprop yl</w> 102
小 林 101
小 茶幾</w> 101
生 理 101
卡 夢 101
美 白</w> 101
v amp 101
克 萊 101
長 度</w> 101
女 潮</w> 101
短 洋裝</w> 101
雙 c</w> 101
雙 口袋 101
背 景</w> 101
性 愛 101
兩 種 101
領 口 101
極 緻 101
潮 品 101
打 蠟 101
鞋 男 101
高 質感</w> 101
編 號 101
拉 花 101
七 天 101
拼 布</w> 101
風 味</w> 101
w ard</w> 101
w we</w> 101
開 岔 101
連 續 101
速 出</w> 101
上 鋪 101
脖 子 101
翻 斗 101
牆 紙 101
啟 蒙 101
液 壓 101
穿 過 101
鈦 晶 101
恐 怖 101
回 力 101
任 意 101
營 業 101
農 用 101
薔 薇 101
in al</w> 101
co very</w> 101
le s 101
sh an 101
ro t</w> 101
ro cker</w> 101
di ce</w> 101
me et</w> 101
ri m</w> 101
ri x</w> 101
mi sh</w> 101
簡約 復古 101
pa y 101
pa ul 101
手機 架 101
短袖 短褲 101
pe ter</w> 101
pan ther</w> 101
ta i</w> 101
boo ties</w> 101
sam ur 101
fo un 101
ex p</w> 101
her bs</w> 101
新品 特惠</w> 101
懶人 沙發</w> 101
lin es</w> 101
cos 服 101
secre ts</w> 101
pil lows</w> 101
cti on 101
餐廳 燈 101
大尺 寸 101
free ship</w> 101
band age</w> 101
light ly</w> 101
英國 next 101
pear ls</w> 101
ation al</w> 101
自慰 套</w> 101
love live</w> 101
mater ials</w> 101
第二 彈</w> 101
sd hc</w> 101
方向 燈</w> 101
手辦 模型 101
緬甸 玉</w> 101
膠原 蛋白</w> 101
cover age</w> 101
vuitton 路易威登 101
艾米 家 101
繁體 中文版</w> 101
圣誕 節 101
記事 本 101
新百 倫 101
fic tion</w> 101
chea p</w> 101
黑曜 石 101
穆勒 鞋</w> 101
衝評 價</w> 101
inte gr 101
lagun a</w> 101
brazi lian</w> 101
citron ella</w> 101
corol la</w> 101
小 背心</w> 100
波 波 100
大 擺 100
抹 布 100
e ous</w> 100
e mma</w> 100
電 機 100
同 名 100
皮 筋 100
無 塵 100
一 年保固</w> 100
兔 裝</w> 100
色 系 100
z g</w> 100
棉 襪</w> 100
轉 印 100
拖 車 100
長 巾</w> 100
特 大</w> 100
不 透明 100
防 爆</w> 100
有 聲 100
光 面 100
毛 球</w> 100
m us</w> 100
f at 100
原 版</w> 100
打 結 100
客 戶 100
製 造 100
中 的 100
珠 珠 100
頭 盔</w> 100
起 泡 100
刷 色 100
碼 數</w> 100
平 底</w> 100
貼 鑽 100
視 覺 100
酒 瓶 100
場 景</w> 100
即 食 100
瘦 臉 100
的 好 100
滑 行 100
年 會 100
指 尖 100
安 瓶</w> 100
選 擇 100
買 到 100
野 餐</w> 100
蘿 蔔 100
股 東 100
鬍 子 100
in d 100
ch ase</w> 100
ro ses</w> 100
si l</w> 100
ai de 100
th rash 100
sp lus 100
ph an 100
su b</w> 100
su p 100
新款 真皮 100
so ur 100
時尚 單肩包</w> 100
時尚 流行 100
il ton</w> 100
las er 100
日本 精品</w> 100
手提 斜挎包</w> 100
手提 肩背包</w> 100
hu i</w> 100
gre et 100
son g</w> 100
gen tle 100
flo ur</w> 100
手工 藝 100
家居 裝飾品 100
兩件 套裝 100
歐式 復古 100
工具 套裝 100
pas sion</w> 100
短袖t恤 女</w> 100
bor o</w> 100
耳環 女 100
mac aron</w> 100
密封 罐</w> 100
首飾 盒</w> 100
decor ations</w> 100
mis sion</w> 100
第二 代 100
證件 夾</w> 100
避震 器</w> 100
公路 車 100
combin ed</w> 100
chal len 100
提亮 膚色 100
bey ond</w> 100
歐米 茄 100
corre ction</w> 100
穿衣 鏡 100
squee ze</w> 100
ting i</w> 100
tik tok</w> 100
金盞 花 100
paradi se</w> 100
山居 歲月</w> 100
從零開始的 異世界 100
perspir ant</w> 100
華倫 天 100
小 館</w> 99
大 批發</w> 99
大 學生宿舍 99
n am</w> 99
皮 面</w> 99
直 出</w> 99
滿 鋪 99
車 輪 99
曬 衣架</w> 99
水 墨 99
雙 用 99
光 動 99
假 睫毛</w> 99
全 明星 99
f ight</w> 99
極 新</w> 99
i kon</w> 99
工 地 99
部 屋</w> 99
二 館</w> 99
文 創 99
高 街 99
內 有 99
舒 壓 99
刷 具</w> 99
天 竺 99
和 平 99
甲 醛 99
的 一 99
合 奏 99
希 爾 99
鎮 宅 99
戀 與 99
福 斯</w> 99
青 花 99
斐 樂</w> 99
奧 特 99
回 饋</w> 99
任 何 99
異 形 99
急 救 99
裸 妝 99
埃 及 99
曲 面 99
檯 燈 99
螃 蟹 99
me tro 99
po me 99
el mo</w> 99
ic ash</w> 99
現貨 熱賣 99
bi a</w> 99
pro max 99
do w 99
pa gne</w> 99
sam antha</w> 99
he eled</w> 99
opp or</w> 99
精品 包包</w> 99
限定 版 99
nu t 99
mir age</w> 99
女裝 韓版 99
石英 手錶</w> 99
小米 手環</w> 99
必備 款 99
glit tery</w> 99
fur nit 99
連體 衣 99
jen ny</w> 99
lipp ie</w> 99
poly mer</w> 99
新貨 特價</w> 99
新貨 下殺</w> 99
衣帽架 落地 99
甜甜 圈 99
dam age</w> 99
佩佩 豬</w> 99
聯繫 客服</w> 99
情侶對 錶</w> 99
蕾哈 娜</w> 99
益生 菌</w> 99
ophi dia</w> 99
arc tic</w> 99
sports wear</w> 99
amu let</w> 99
recor der</w> 99
居家用 品</w> 99
tul le</w> 99
penc ils</w> 99
lighten ing</w> 99
emul sion</w> 99
wid th</w> 99
merce des</w> 99
小 兔</w> 98
波 希 98
新 色</w> 98
大 包包</w> 98
抹 布</w> 98
r v</w> 98
h ana</w> 98
s la 98
p ond</w> 98
v 轉</w> 98
皮 藝 98
o dy 98
棉 布 98
童 車 98
五 星 98
不 織布 98
防 掉 98
女 郎 98
雙 重 98
兩 款</w> 98
m ain</w> 98
銀 扣</w> 98
i da</w> 98
護 身 98
護 具 98
鞋 墊 98
自 然</w> 98
馬 戲 98
高 雅 98
折 優惠 98
x w</w> 98
幾 何</w> 98
快 煮 98
內 外 98
魔 方 98
室 內</w> 98
補 漏 98
網 美 98
修 眉 98
枕 芯 98
春 秋</w> 98
蜜 粉 98
腳 蹬</w> 98
年 新款</w> 98
到 貨 98
妞 妞 98
指 紋</w> 98
扭 結 98
黃 光</w> 98
抓 絨 98
屋 頂 98
氨 基酸 98
福 特 98
沖 擊 98
沖 洗 98
初 生 98
教 材</w> 98
赫 本 98
琪 琪 98
or nam 98
lo l 98
lo cal</w> 98
ro user</w> 98
se awe 98
di sco</w> 98
bo un 98
po sh</w> 98
su shi</w> 98
ko so</w> 98
運動 慢跑鞋</w> 98
運動 背心</w> 98
時尚 韓版 98
mp o</w> 98
日本 迪士尼</w> 98
ta in 98
mat tress</w> 98
韓國 氣質 98
韓國 進口</w> 98
韓國 空運</w> 98
colo ure 98
ce real</w> 98
長袖 洋裝</w> 98
玻璃 膜</w> 98
len ses</w> 98
bas ics</w> 98
透氣 網面 98
圓領 t恤 98
生活 百貨</w> 98
cur ved</w> 98
平底 鍋</w> 98
雙肩 背包 98
bar be 98
star t</w> 98
字母 logo 98
工具 箱</w> 98
sha ker</w> 98
可拆 式 98
低幫 鞋</w> 98
sco op 98
特惠 價</w> 98
優品 の 98
cham pagne</w> 98
ps v</w> 98
多款 可選</w> 98
effe ctive</w> 98
poli s</w> 98
大衣 外套</w> 98
gas ket</w> 98
dx f</w> 98
側翻 皮套</w> 98
tisso t</w> 98
麥當 勞 98
dami er</w> 98
pik achu</w> 98
家居家具 傢俱 98
handker chief</w> 98
samur ai</w> 98
小 推車 97
新 疆 97
紅 藍 97
人 緣</w> 97
b s 97
n ing 97
v ig 97
v oo 97
同 人</w> 97
無 糖 97
為 止</w> 97
色 眼影盤</w> 97
z ard</w> 97
機 動 97
遮 瑕</w> 97
水 袋 97
技 術</w> 97
m 反光 97
原 液 97
製 冰 97
好 看</w> 97
中 款</w> 97
川 久保 97
百 科</w> 97
j ag 97
擴 音 97
風 鈴 97
正 廠 97
開 發 97
飛 鏢 97
登 月 97
扣 環 97
魚 骨 97
墻 貼</w> 97
閃 電</w> 97
番 茄 97
備 箱 97
舞 會 97
潛 水</w> 97
異 味 97
炒 鍋 97
駝 色</w> 97
蔡 依 97
餵 食 97
茉 莉</w> 97
st abi 97
li st</w> 97
ai s</w> 97
ti les</w> 97
th ink 97
ne ed</w> 97
sp ace 97
ab le 97
ul er</w> 97
car bon 97
家用 折疊 97
tr acker</w> 97
百搭 休閑 97
短袖 套裝 97
學生 書包</w> 97
創意 客廳 97
ou l</w> 97
韓國 簡約 97
夏季 新品 97
ath y</w> 97
av ail</w> 97
客廳 創意 97
che ck 97
je wel</w> 97
bri de</w> 97
防曬 外套</w> 97
居家 服</w> 97
tur quo 97
cel ine 97
工作 桌</w> 97
沙灘 拖鞋</w> 97
電子 錶</w> 97
耳環 耳釘 97
預購 商品</w> 97
chic ago</w> 97
計時 碼 97
pic ks</w> 97
拍照 道具</w> 97
專賣 店 97
送禮 首選</w> 97
cl aire</w> 97
平角 褲 97
行車 紀錄 97
卡其 色 97
煞車 皮</w> 97
book mark</w> 97
夾腳 拖鞋</w> 97
除濕 機</w> 97
環球 影 97
羊羔 毛 97
gau ge</w> 97
fee der</w> 97
idea pad</w> 97
刮鬍 刀</w> 97
蓮蓬 頭</w> 97
camer as</w> 97
abac a</w> 97
gorg eous</w> 97
仰臥起 坐 97
neutrogen a</w> 97
aide lai</w> 97
greet ings</w> 97
coloure tte</w> 97
小 心機 96
g v</w> 96
b h 96
b ull</w> 96
臺 盆 96
生 態 96
卡 分期</w> 96
萬 斯</w> 96
n f</w> 96
l ala 96
v ary</w> 96
無 雙</w> 96
一 級 96
簡 單</w> 96
半 罩</w> 96
直 立式 96
接 線 96
布 貼</w> 96
能 量</w> 96
版 本 96
不 褪 96
水 上 96
女 王</w> 96
真 標 96
可 可</w> 96
夾 板 96
食 堂 96
全 系列</w> 96
k ki</w> 96
男 寶寶 96
跑 車</w> 96
鞋 套 96
六 針 96
中 長裙</w> 96
日 月 96
j di</w> 96
奇 妙 96
項 圈 96
繪 圖 96
旋 風 96
泡 麵 96
泡 麵</w> 96
相 容 96
空 調</w> 96
元 起 96
避 光 96
之 星</w> 96
之 心</w> 96
蠟 線 96
青 蘋果</w> 96
嫩 膚 96
煤 氣 96
祛 斑 96
纯 棉 96
臟 衣 96
现 代 96
沉 香 96
in cense</w> 96
re fre 96
as ia</w> 96
at i</w> 96
ch in</w> 96
un lock</w> 96
ma u 96
el le 96
運動 休閒鞋 96
時尚 手提包</w> 96
時尚 女包</w> 96
現貨 新品</w> 96
家用 小戶型 96
cu e</w> 96
男士 香水</w> 96
韓國 帶回</w> 96
sa i</w> 96
he at 96
he mat 96
ey elet</w> 96
化妝 品</w> 96
充電 式</w> 96
back packs</w> 96
can dies</w> 96
連帽 上衣</w> 96
正版 現貨</w> 96
premi ere</w> 96
dy son</w> 96
設計 師</w> 96
保濕 補水 96
情趣 睡衣</w> 96
宿舍 學生 96
hal o</w> 96
lan vin</w> 96
loo tbag</w> 96
全包 邊 96
ition al</w> 96
直筒 褲 96
泰國 佛牌 96
禮盒 裝 96
fir ming</w> 96
粉紅 豬小 96
柔軟 舒適 96
名媛 氣質 96
奶油 底</w> 96
coun ting</w> 96
cin nam 96
bene tton</w> 96
快充 線</w> 96
一般 小說</w> 96
ato my</w> 96
請勿 下標</w> 96
不掉 色 96
走秀 款 96
雅詩蘭 黛 96
偶像學 園 96
竹節 棉 96
ot to 96
球員 卡</w> 96
開瓶 器</w> 96
intelli gent</w> 96
gladi ator</w> 96
紅 棗 95
大 阪 95
大 叔 95
a ape</w> 95
h n</w> 95
s f 95
p unk</w> 95
美 品</w> 95
出 品</w> 95
計 步 95
印 刷</w> 95
棉 服</w> 95
棉 襖 95
保 羅</w> 95
帶 蓋</w> 95
武 器</w> 95
不 同 95
歐 洲</w> 95
心 靈 95
發 廊 95
可 穿 95
全 鋼 95
i as</w> 95
客 服 95
自 慰</w> 95
杯 墊 95
高 倍 95
超 大容量</w> 95
白 證</w> 95
海 鮮 95
開 幕 95
桃 紅色 95
達 爾</w> 95
瑕 疵 95
玩 家 95
溫 暖 95
滑 步 95
年 後</w> 95
低 調 95
低 音</w> 95
炫 酷 95
元 免運費</w> 95
鋁 框 95
之 戰</w> 95
副 廠</w> 95
揹 包</w> 95
聲 卡 95
瞬 間 95
屏 風</w> 95
勵 志 95
操 作 95
膝 蓋 95
疏 通 95
单 肩 95
al kal 95
ro w 95
me la</w> 95
me ga 95
bo s</w> 95
ur ine</w> 95
ra pid</w> 95
ap ex</w> 95
so il</w> 95
休閒 慢跑鞋</w> 95
現貨 熱銷 95
gu il 95
全新 原廠 95
兒童 節 95
ear ly</w> 95
pe ace</w> 95
sun day</w> 95
ta p</w> 95
slee k</w> 95
韓國 ins 95
韓國 連線 95
mm x</w> 95
休閑 褲</w> 95
潮流 個性 95
ang els</w> 95
fu ji</w> 95
ex cel</w> 95
gi s</w> 95
牛皮 材質 95
sel lers</w> 95
商務 女包</w> 95
男生 包包 95
gar min</w> 95
can ada</w> 95
over size 95
run way</w> 95
正版 二手 95
mer a</w> 95
mer ci 95
兩件 式</w> 95
squ ad</w> 95
床頭 燈</w> 95
藍牙 喇叭</w> 95
實拍 現貨</w> 95
石英 表</w> 95
sy m</w> 95
spea kers</w> 95
餐廳 吊燈 95
機械 腕錶</w> 95
str anger</w> 95
書桌 書架組合 95
sur vi 95
可調 整 95
ze us</w> 95
超輕 量</w> 95
鍵盤 鼠標 95
閨蜜 裝 95
飛行 器</w> 95
sky drive</w> 95
果汁 機</w> 95
午休 床 95
功能 正常</w> 95
dash board</w> 95
加肥 加大 95
emer ald</w> 95
davi do 95
棒棒 糖</w> 95
茶水 柜 95
modu lar</w> 95
pump s</w> 95
千鳥 格 95
數量 有 95
carol ina</w> 95
fad ed</w> 95
新品特價台灣熱 售 95
turquo ise</w> 95
alkal ine</w> 95
小 愛 94
小 艾 94
小 丑 94
手 縫 94
大 腿 94
大 象</w> 94
乳 酸 94
r astac 94
h am</w> 94
g gie</w> 94
口 金 94
三 隻 94
花 梨 94
很 仙 94
美 工 94
色 系</w> 94
配 方 94
布 置</w> 94
掛 包 94
動 畫</w> 94
特 種 94
爆 乳 94
整 套</w> 94
理 論 94
火 車</w> 94
火 箭 94
韓 站 94
女 表</w> 94
鋼 圈</w> 94
鋼 針 94
心 經 94
可 旋轉 94
極 細 94
原 宿</w> 94
c ure</w> 94
j z</w> 94
j tc</w> 94
行 銷 94
優 質</w> 94
破 盤 94
涼 爽 94
後 車 94
貝 殼</w> 94
貝 親</w> 94
路 跑 94
泳 褲</w> 94
帽 衫 94
沙 灘</w> 94
事 務 94
鐘 錶</w> 94
深 度 94
控 油</w> 94
敬 酒 94
太 郎</w> 94
松 鼠 94
王 者</w> 94
獵 人</w> 94
踏 墊</w> 94
蠟 筆</w> 94
蓬 鬆 94
滴 塑 94
嫩 白 94
八 卦 94
固 體 94
初 版</w> 94
已 預訂</w> 94
教 學</w> 94
梳 子 94
膝 上 94
毯 子 94
許 願 94
境 內 94
鼻 子 94
熨 燙 94
in spir 94
an a 94
co l</w> 94
or ing</w> 94
or ia</w> 94
st ro 94
st ir 94
st rings</w> 94
st ix</w> 94
se ssion</w> 94
新款 熱銷</w> 94
so y</w> 94
so le 94
qu a</w> 94
gu mmy</w> 94
bi lena</w> 94
pro bio 94
日本 直送</w> 94
tr d</w> 94
pa ges</w> 94
pe eler</w> 94
休閑 時尚 94
二手 片</w> 94
客廳 裝飾畫 94
tor ch</w> 94
牛皮 壓花 94
stu dy</w> 94
無線 耳機</w> 94
落地 置物架 94
限時 優惠 94
預購 中</w> 94
米奇 米妮</w> 94
包裝 袋 94
寫字 桌</w> 94
cri ss</w> 94
毛巾 架</w> 94
眼影 盤 94
瀝水 架</w> 94
balenci aga 94
歡迎 詢問</w> 94
gla n</w> 94
lac ed</w> 94
滿千 折 94
appro ved</w> 94
dur ant</w> 94
whi stle</w> 94
cp 值 94
拖鞋女 夏 94
好貨 下殺</w> 94
爬行 墊 94
button down</w> 94
煙灰 缸 94
晴雨 兩用 94
andre a</w> 94
hip ster</w> 94
拋棄 式 94
香吉 士</w> 94
deser t</w> 94
furnit ure</w> 94
小 店 93
小 汽車 93
新 書</w> 93
大 口袋 93
t cg</w> 93
a pol 93
r asp 93
e o</w> 93
d mc</w> 93
u ku 93
u em 93
s ent</w> 93
s sey</w> 93
s lightly</w> 93
v g</w> 93
半 截 93
鋼 琴</w> 93
發 行</w> 93
可 水洗</w> 93
續 航 93
m 號 93
銀 河 93
葉 黃 93
圓 球 93
奶 器</w> 93
i pod</w> 93
護 腕 93
清 透 93
鞋 面 93
證 書</w> 93
自 來 93
高 達 93
中 壢 93
x u 93
日 歷 93
日 文</w> 93
噴 劑</w> 93
內 出貨</w> 93
時 空 93
老 二 93
黑 白色 93
規 格 93
四 月 93
商 用</w> 93
硬 幣 93
和 尚 93
盆 帽 93
抗 敏 93
髮 帶 93
景 德 93
售 完</w> 93
壹 腳蹬 93
握 把 93
捲 線器</w> 93
揹 巾</w> 93
這 樣 93
鴨 嘴 93
鱷 魚</w> 93
潛 航 93
凹 凸 93
幸 福</w> 93
辛 巴</w> 93
站 立</w> 93
決 戰</w> 93
碧 璽 93
芥 末 93
卧 室 93
逍 遙 93
re born</w> 93
re cord</w> 93
en e</w> 93
to ds 93
bo o</w> 93
th in 93
ap ron</w> 93
su ga</w> 93
新款 熱賣</w> 93
tt er 93
gu det 93
全新 盒裝</w> 93
do wn 93
百搭 韓版 93
mar k 93
pe tal</w> 93
mat tel</w> 93
mat cha</w> 93
防水 袋</w> 93
美國 大 93
上衣 服</w> 93
head bands</w> 93
情趣 精品 93
雪紡 衫</w> 93
cal yp 93
娃娃 領 93
chocol ates</w> 93
指甲 剪</w> 93
glit tered</w> 93
粉底 液 93
小時 出貨</w> 93
洗面 奶 93
便利 貼</w> 93
fendi 芬迪 93
茶葉 罐 93
ato mizer</w> 93
早春 新款 93
spen cer</w> 93
後視 鏡</w> 93
小丸 子</w> 93
芭蕾 舞 93
湖水 綠</w> 93
圍兜 兜</w> 93
cn c 93
circu lar</w> 93
grocer ies</w> 93
octo pus</w> 93
rom ance</w> 93
hawai ian</w> 93
aesthe tic</w> 93
rastac lat</w> 93
手 賬 92
r ca</w> 92
h ats</w> 92
e ve 92
u te</w> 92
v als</w> 92
金 標 92
z ero 92
o le</w> 92
掛 簾 92
雜 糧 92
地 區 92
抽 屜</w> 92
防 靜電 92
紫 水晶</w> 92
女 帝</w> 92
真 愛 92
可 移 92
量 販 92
毛 領 92
m se</w> 92
軟 木 92
k ick</w> 92
男 用</w> 92
客 制 92
文 創</w> 92
好 用 92
高 彈力 92
中 心 92
中 島 92
中 古</w> 92
中 小學生 92
貓 罐</w> 92
x f</w> 92
百 元 92
園 林 92
壓 花</w> 92
飾 條</w> 92
披 風 92
正 規 92
開 運</w> 92
分 層 92
跟 鞋</w> 92
燈 家用 92
乾 洗 92
吋 盆</w> 92
春 季</w> 92
模 組</w> 92
吸 血 92
空 中 92
魚 鱗 92
按 扣 92
潑 墨 92
景 品 92
瑪 利 92
蘭 芝</w> 92
喬 登</w> 92
貴 賓 92
就 愛 92
辟 邪 92
演 奏 92
支 裝</w> 92
賓 館 92
監 測 92
兼 容 92
菱 格</w> 92
染 色 92
鳳 梨</w> 92
柑 仔 92
in ty</w> 92
ar du 92
as i 92
ac s</w> 92
en ter 92
ch ris</w> 92
to day</w> 92
un de 92
bo tan 92
休閒 上衣</w> 92
家用 成人 92
no ise</w> 92
vi i</w> 92
手機 保護殼</w> 92
mon c 92
北歐 大理石 92
fe li 92
he x</w> 92
he ist</w> 92
透氣 網 92
新品 热销</w> 92
廚房 衛生間 92
精品 代購 92
ca y 92
寬松 韓版 92
限時 特價 92
舒適 透氣</w> 92
衛生 紙 92
ag ed</w> 92
雪紡 洋裝</w> 92
健身 器材</w> 92
保溫 袋</w> 92
單人 沙發 92
yu mi</w> 92
nav ar 92
que st</w> 92
學習 桌</w> 92
colla red</w> 92
tab s</w> 92
sha w</w> 92
真空 壓縮 92
sub woofer</w> 92
jen na</w> 92
top sider</w> 92
同人 本</w> 92
搖搖 椅 92
chal k</w> 92
cali per</w> 92
廠商 直送</w> 92
dress ing</w> 92
售完 不 92
lamin ated</w> 92
bn wt</w> 92
cad bury</w> 92
quick sand</w> 92
gigab yte</w> 92
never full</w> 92
lati v</w> 92
沛納 海</w> 92
credi t</w> 92
廣場 舞 92
ffl er</w> 92
davido ff</w> 92
小 書架 91
新 穎 91
r c 91
h h</w> 91
e book</w> 91
三 頭 91
多 益 91
多 層</w> 91
外 置 91
p ear</w> 91
直 條 91
包 入</w> 91
門 后 91
板 式 91
長 方 91
機 多功能 91
機 全自動 91
抽 拉 91
韓 范 91
鋼 帶</w> 91
書 柜</w> 91
筆 芯</w> 91
可 動</w> 91
毛 器 91
重 量 91
袖 口 91
工 場</w> 91
x treme</w> 91
內 增高</w> 91
托 德 91
黑 勾</w> 91
黑 銀</w> 91
進 擊 91
開 拓 91
吧 椅 91
佳 能 91
喵 喵 91
河 馬 91
離 子</w> 91
千 層 91
吊 椅 91
公 牛 91
調 酒 91
救 援 91
吸 油 91
夢 幻</w> 91
爬 服</w> 91
拆 封 91
我 是 91
售 出 91
儀 器</w> 91
每 日 91
挖 寶 91
教 練 91
核 心 91
認 知 91
孫 芸 91
鳳 凰 91
宽 松 91
削 皮 91
co lic</w> 91
on ion</w> 91
en gra 91
di stri 91
si des</w> 91
th a</w> 91
la w</w> 91
cas ing</w> 91
時尚 女士 91
收納 架子 91
be be 91
fi fty</w> 91
pi ping</w> 91
pan ty 91
防水 包</w> 91
sli der</w> 91
牛仔 布 91
che w 91
mag enta</w> 91
pen is</w> 91
ser vice</w> 91
自動 鉛筆</w> 91
gucci 新款 91
wor kout</w> 91
beau te</w> 91
ali ve</w> 91
置物架 壁掛 91
限時 特惠</w> 91
hi lux</w> 91
字母 刺繡 91
multi vitamins</w> 91
枕頭 套</w> 91
文件 夾</w> 91
pac o</w> 91
蝙蝠 袖 91
電視柜 組合 91
清洗 劑 91
平安 符 91
travel er</w> 91
雙子 星 91
華萊 士</w> 91
mn l</w> 91
dust bag</w> 91
kyo wa</w> 91
lulu lemon</w> 91
suit case</w> 91
gur t</w> 91
ank let</w> 91
swad dle</w> 91
lubric ant</w> 91
corpor ate</w> 91
ultras onic</w> 91
小 馬</w> 90
雨 靴</w> 90
新 包裝</w> 90
人 頭 90
t les</w> 90
e q</w> 90
s ss</w> 90
臺 布 90
花 香</w> 90
多 肉</w> 90
v s 90
v d</w> 90
皮 皮 90
一 盒 90
純 白</w> 90
半 透明 90
出 遊 90
金 士 90
桶 裝 90
掛 包</w> 90
掛 燙 90
綁 繩 90
木 炭 90
車 頂 90
車 業</w> 90
防 紫外線</w> 90
女 襪</w> 90
戲 水 90
可 定制 90
名 品</w> 90
夾 棉 90
眼 唇 90
全 自動</w> 90
k z</w> 90
i vy</w> 90
客 厅 90
c la</w> 90
c ation</w> 90
自 留 90
馬 蹄 90
超 小 90
j c 90
拉 杆 90
行 軍 90
微 景觀 90
世 代</w> 90
刷 牙 90
刷 頭</w> 90
影 片</w> 90
拍 拍 90
沙 袋 90
東 西 90
畫 冊</w> 90
夢 遊 90
寬 松</w> 90
西 洋 90
思 思 90
肌 因 90
荷 花 90
傳 動 90
伊 布</w> 90
牧 田</w> 90
求 婚 90
蘿 卜 90
剃 須刀 90
晾 曬 90
侃 爺 90
鯨 魚 90
in y</w> 90
in do 90
re du 90
st abil 90
me tro</w> 90
si um</w> 90
la va</w> 90
ra glan</w> 90
te k</w> 90
mi se</w> 90
da inty</w> 90
cu bic</w> 90
兒童 卡通 90
ci e</w> 90
ta s</w> 90
col gate</w> 90
boo m</w> 90
二手 商品</w> 90
sli m 90
牛仔 長褲 90
stu ds</w> 90
汽車 用品 90
lv 老花 90
廚房 用品</w> 90
sta y 90
air plane</w> 90
gg ay</w> 90
儲物 盒</w> 90
寬鬆 短袖</w> 90
兩件 組</w> 90
歐式 創意 90
brand ing</w> 90
is sue</w> 90
購物 車 90
bund les</w> 90
pat rick</w> 90
nike 耐克</w> 90
fri dge</w> 90
pho enix</w> 90
micro matic</w> 90
cher ry 90
衛衣 女 90
超級 賽亞 90
wil d 90
fab er</w> 90
包裝 盒 90
tal kie</w> 90
耐磨 防滑 90
毛衣 女 90
birth stone</w> 90
釣魚 竿 90
羽絨 服</w> 90
偏光 太陽眼鏡</w> 90
mam on 90
高爾 夫</w> 90
hair pin</w> 90
lac quer</w> 90
投影 機 90
dan cing</w> 90
bear d</w> 90
婚紗 禮服 90
jas on</w> 90
短靴 女 90
請先 詢問</w> 90
sequ ins</w> 90
advan tage</w> 90
philipp ine</w> 90
保冷 袋</w> 90
work book</w> 90
cray ola</w> 90
走秀 款</w> 90
ale xa</w> 90
美國隊 長 90
lamin ating</w> 90
松緊 腰 90
weigh ing</w> 90
lif ting</w> 90
無耳 洞 90
高密 度 90
bree ze</w> 90
mess age</w> 90
foun tain</w> 90
rasp berry</w> 90
小 咪 89
大 air</w> 89
人 類 89
h is</w> 89
d ining</w> 89
充 氣</w> 89
生 產 89
口 腔 89
會 場 89
n l</w> 89
無 限</w> 89
一 年 89
立 領</w> 89
單 機 89
掛 表 89
轉 蛋 89
地 面 89
智 慧</w> 89
理 療 89
火 辣 89
套 装</w> 89
雙 排 89
前 置 89
發 箍 89
可 爱 89
m rs</w> 89
銀 鍊</w> 89
軟 膠</w> 89
鞋 帶 89
植 絨 89
二 用 89
文 青</w> 89
x in</w> 89
日 常</w> 89
擴 大 89
挺 版 89
束 腰 89
披 風</w> 89
開 放 89
四 合一 89
醫 用 89
貝 兒 89
柔 順 89
床 尾 89
香 味</w> 89
亞 曼尼 89
阿 卡 89
報 警 89
靠 背</w> 89
砧 板</w> 89
菜 刀 89
閃 燈 89
班 服</w> 89
壹 家 89
蚊 香 89
唇 彩</w> 89
得 力 89
固 齒 89
統 一 89
野 獸 89
值 得 89
煥 白 89
丸 子 89
in ers</w> 89
in voice</w> 89
al lure</w> 89
to go 89
ti ghts</w> 89
th ank</w> 89
ph a</w> 89
運動 跑步鞋</w> 89
休閒 長褲 89
現貨 下殺</w> 89
全新 coach</w> 89
tr on 89
bu tt</w> 89
cre ed</w> 89
vi et 89
pan g</w> 89
du ffy</w> 89
正品 現貨 89
長袖 外套</w> 89
tri gger</w> 89
sc allo 89
shoul ders</w> 89
par a 89
新品 熱銷</w> 89
顯瘦 百搭 89
便攜 折疊 89
特價 促銷</w> 89
gucci 皮帶</w> 89
男生 t恤</w> 89
ge ts</w> 89
ca ged</w> 89
玫瑰 花</w> 89
專櫃 貨</w> 89
hi k 89
jump shorts</w> 89
mor inga</w> 89
防摔 手機殼</w> 89
石英 腕錶</w> 89
organi x</w> 89
運動鞋 跑步鞋 89
mini figures</w> 89
書桌 椅 89
sur plus</w> 89
cli o</w> 89
tal k</w> 89
孕婦 裝 89
cc 霜</w> 89
fur y 89
photo book</w> 89
ip x</w> 89
瑜伽 墊 89
慢跑鞋 籃球鞋 89
swarov ski 89
臥室床頭 燈 89
chlo e 89
yar is</w> 89
til bury</w> 89
ax is</w> 89
十字紋 牛皮 89
飲水 機</w> 89
日本原裝 進口 89
博柏 利</w> 89
temper ature</w> 89
當日 出貨</w> 89
宮崎 駿</w> 89
aph ro 89
八五 折</w> 89
路由 器 89
vas eline</w> 89
蔓越 莓 89
監視 器</w> 89
火烈 鳥 89
家居家具傢俱 用品</w> 89
stabi lizer</w> 89
景德 鎮 89
gudet ama</w> 89
小 木 88
龍 泉 88
e ss</w> 88
g w 88
夜 燈 88
u ps</w> 88
花 果 88
n asa</w> 88
棒 壘 88
v ine</w> 88
克 洛 88
立 牌 88
單 雙 88
加 油 88
抽 獎 88
寶 藍 88
整 箱 88
季 節 88
浮 雕</w> 88
前 衛 88
可 單 88
毛 怪</w> 88
m ga</w> 88
f air 88
領 巾</w> 88
男 神 88
日 用 88
日 產</w> 88
愛 運動</w> 88
成 套 88
優 優 88
w ick</w> 88
汽 材</w> 88
辦 公</w> 88
抱 抱 88
頸 鍊</w> 88
燃 脂 88
斯 特 88
飲 料</w> 88
程 式 88
嘻 哈</w> 88
干 花 88
啦 啦 88
筋 膜 88
回 彈 88
竹 編 88
喬 巴 88
閨 蜜</w> 88
所 有 88
僅 試 88
駝 背 88
義 式 88
滲 透 88
瑤 瑤 88
le tt</w> 88
st en 88
st opp 88
sh o</w> 88
se oul</w> 88
th an</w> 88
el lar</w> 88
te s 88
mi mi 88
ki sh</w> 88
da w 88
家用 學生 88
家用 創意 88
全新 品 88
bu t 88
mar tens</w> 88
ff in</w> 88
sun glass</w> 88
情侶 手錶</w> 88
du ffle</w> 88
du bai</w> 88
tu ff</w> 88
置物 袋</w> 88
tri logy</w> 88
bal ly</w> 88
bal ly 88
jo int</w> 88
透氣 鞋</w> 88
lv 男士 88
女士 手錶</w> 88
sty le 88
bur ch 88
mu ffler</w> 88
商務 包</w> 88
sto re 88
咖啡 壺</w> 88
ge e</w> 88
beau t 88
ali en</w> 88
cou ples</w> 88
通用 型</w> 88
super dry 88
free shipping</w> 88
cr ack 88
gro oming</w> 88
藍芽 耳機 88
露肩 上衣</w> 88
密封 罐 88
七分 褲 88
hydr ation</w> 88
手辦 模型</w> 88
壓克力 吊飾</w> 88
可坐 躺 88
effe cts</w> 88
rol ls</w> 88
rot ary</w> 88
clou d 88
jun e</w> 88
束腳 褲</w> 88
dash cam</w> 88
馬丁靴 女 88
滿天 星</w> 88
mme e</w> 88
平光 鏡 88
影音 大批發</w> 88
蛤蟆 鏡 88
gli de</w> 88
無人 機 88
洗發 水 88
acade mia</w> 88
四驅 車</w> 88
jessi ca</w> 88
pok é 88
黑眼 圈 88
hex ag 88
budd ha</w> 88
stande e</w> 88
occit ane</w> 88
mouse pad</w> 88
vamp ire</w> 88
夢遊 仙 88
小 桃 87
小 背包</w> 87
大 廳 87
t 型 87
電 機</w> 87
臺 上盆 87
卡 卡 87
圖 片 87
l ain</w> 87
半 月 87
出 租</w> 87
o ts</w> 87
單 孔 87
保 溫</w> 87
短 t恤</w> 87
鋼 化</w> 87
書 坊</w> 87
歐 貨 87
光 碟 87
m rl</w> 87
軟 管</w> 87
f arm 87
原 液</w> 87
男 朋友 87
c ro</w> 87
粉 彩 87
漆 皮</w> 87
日 空 87
超 厚 87
j p 87
j w</w> 87
古 曼 87
束 帶</w> 87
海 底 87
鑲 鑽</w> 87
幼 兒</w> 87
w s 87
黑 暗 87
雷 姆</w> 87
拿 鐵</w> 87
佳 麗 87
米 白色</w> 87
桃 園</w> 87
桃 紅色</w> 87
公 園 87
十 足</w> 87
去 汙 87
方 格 87
方 框 87
歷 史 87
吸 水</w> 87
冰 霸 87
角 幾</w> 87
月 餅 87
酸 奶 87
睡 墊</w> 87
康 是 87
喬 治 87
嘟 嘟 87
概 念 87
範 思哲</w> 87
舖 棉 87
热 销 87
菠 蘿 87
霓 淨 87
re i 87
le an</w> 87
le ss 87
lo lli 87
se agate</w> 87
to mmy 87
un ion</w> 87
bo se</w> 87
ne il</w> 87
de ath</w> 87
and y</w> 87
運動 t恤</w> 87
現貨 熱賣</w> 87
簡約 氣質 87
bi e 87
no odle</w> 87
pro polis</w> 87
韓版 復古 87
vi be</w> 87
手機 座</w> 87
mon arch</w> 87
fo g 87
北歐 現代 87
北歐 ins風 87
臥室 家用 87
sa g 87
ste p 87
ste ve</w> 87
wal kie</w> 87
代購 adidas</w> 87
lit hi 87
hand bags</w> 87
wor th</w> 87
cur ling</w> 87
bre mod</w> 87
is on</w> 87
室內 拖鞋</w> 87
coo per</w> 87
長版 外套</w> 87
仿真 花 87
百貨 鋪</w> 87
國際 牌 87
ysl 聖羅蘭 87
iphone 手機殼</w> 87
交叉 綁帶 87
襪子 鞋</w> 87
windo ws</w> 87
bou ght</w> 87
有機 棉 87
rol ling</w> 87
twin ning</w> 87
tap es</w> 87
不挑 款</w> 87
護頸 枕 87
健身器材 家用 87
ide al</w> 87
警示 燈</w> 87
菲拉格 慕</w> 87
slo ts</w> 87
現貨供應 中</w> 87
不倒 翁 87
麥當 勞</w> 87
流浪 包</w> 87
巨無 霸 87
succu lent</w> 87
hong kong</w> 87
paner ai</w> 87
edif ice</w> 87
phan tom</w> 87
戀與 製作 87
lithi um</w> 87
小 車 86
小 公主 86
哈 士 86
曼 谷 86
人 像 86
t au 86
h si 86
g ms</w> 86
電 鍋 86
萬 斯 86
花 樣 86
n ah</w> 86
國 旗</w> 86
請 看 86
無 葉 86
單 排扣 86
面 霜 86
膠 底</w> 86
五 代 86
水 槍 86
女 寶</w> 86
午 後 86
可 立 86
可 挑 86
毛 器</w> 86
夾 層 86
重 機 86
潮 吹 86
鞋 匯</w> 86
自 在 86
j x</w> 86
透 亮 86
奇 哥</w> 86
幼 犬 86
老 闆</w> 86
釣 竿 86
路 跑</w> 86
扣 頭 86
春 夏季新款 86
耳 塞</w> 86
年 度 86
深 灰 86
饅 頭</w> 86
太 陽</w> 86
簽 名</w> 86
移 門 86
切 肉 86
樹 枝 86
壹 灣 86
入 門</w> 86
唇 彩 86
青 木 86
蜂 窩 86
初 秋 86
晾 衣架</w> 86
端 子</w> 86
庫 存</w> 86
豎 款 86
in duction</w> 86
as std</w> 86
en ga 86
se en</w> 86
ba s</w> 86
to mmee</w> 86
ri ver</w> 86
ma je 86
sp litter</w> 86
de w</w> 86
de mon</w> 86
新款 歐美 86
運動 休閑鞋</w> 86
da zz 86
bl u</w> 86
wh ere</w> 86
min is</w> 86
ter ry</w> 86
兒童 學生 86
cre ations</w> 86
mat h</w> 86
復古 鞋</w> 86
ang eles</w> 86
fu ch 86
保護 貼 86
gre e</w> 86
玻璃 貼 86
美國 正品 86
美國 進口 86
gen i 86
ser pen 86
tw illy</w> 86
ak es</w> 86
ve gan</w> 86
簡易 衣柜 86
lip balm</w> 86
lin ers</w> 86
tro o 86
工具 組</w> 86
bla ze</w> 86
隨身 瓶</w> 86
靠背 椅</w> 86
jan o 86
持久 留香 86
平板 電腦</w> 86
armani 阿曼尼 86
infin ix</w> 86
purpo ses</w> 86
褲子 男 86
轉接 線</w> 86
防水防 汗 86
oc ado</w> 86
海軍 風 86
散熱 器</w> 86
bron zer</w> 86
去角 質</w> 86
走廊 過道 86
艾米 家</w> 86
pli ers</w> 86
代步 車 86
lor d</w> 86
好貨 促銷</w> 86
隱藏 式 86
記事 本</w> 86
realme c</w> 86
名偵探 柯南</w> 86
未開 刃</w> 86
巴斯光 年</w> 86
toile try</w> 86
ody ssey</w> 86
poké mon</w> 86
人 工 85
r ange</w> 85
u de</w> 85
y h</w> 85
美 女</w> 85
件 組 85
金 泰 85
說 話 85
印 表 85
功 率 85
地 藏 85
智 力 85
整 組</w> 85
韓 貨</w> 85
水 泵 85
歐 風 85
下 鋪 85
放 置 85
圓 凳 85
k an</w> 85
i bo</w> 85
粉 藍</w> 85
二 色</w> 85
六 字 85
折 免運</w> 85
星 辰</w> 85
超 越</w> 85
j h 85
j ill</w> 85
白 銀</w> 85
精 工</w> 85
品 味 85
斜 肩包</w> 85
字 紋</w> 85
附 原廠 85
w w</w> 85
數 學</w> 85
殺 人 85
質 量</w> 85
聯 合 85
涼 感</w> 85
桃 心 85
完 美</w> 85
洋 芋 85
皇 后 85
桌 球 85
草 機</w> 85
主 管 85
療 癒</w> 85
綿 羊 85
切 絲 85
淋 雨 85
混 色 85
票 卡夾</w> 85
教 具</w> 85
垂 釣 85
省 電 85
燜 燒 85
住 宿 85
汪 汪 85
an ner</w> 85
re ar 85
co me 85
le a</w> 85
en lar 85
di x</w> 85
me mber</w> 85
ti sh</w> 85
ir o</w> 85
su p</w> 85
mi ku</w> 85
休閒 椅</w> 85
休閒 t恤</w> 85
全新 含 85
韓版 可愛 85
ear t</w> 85
手機 袋</w> 85
con fe 85
情侶 拖鞋</w> 85
av ocado</w> 85
sm ith 85
tu mmy</w> 85
ani mation</w> 85
玻璃 瓶</w> 85
修身 百搭 85
歐美 復古 85
hoo ps</w> 85
spi rit</w> 85
har ley</w> 85
com bat</w> 85
supp lier</w> 85
ama zon</w> 85
手機殼 蘋果</w> 85
防塵 套</w> 85
小白 鞋女 85
sal mon</w> 85
抽屜 櫃</w> 85
棉質 上衣</w> 85
老花 鏡 85
cri ssa</w> 85
桌椅 組合</w> 85
moun ted</w> 85
don na</w> 85
自慰 器 85
mus k</w> 85
自拍 桿 85
sd xc</w> 85
sul wh 85
名牌 包包</w> 85
百褶 裙 85
ax le</w> 85
眼線 筆</w> 85
nan cy</w> 85
chron ic 85
活性 碳 85
吸濕 排汗</w> 85
日本原裝 進口</w> 85
fortun e</w> 85
零碼 出清</w> 85
穿鞋 凳 85
dead pool</w> 85
lace y</w> 85
scho ol 85
庫洛魔法 使</w> 85
迴力 車</w> 85
coin purse</w> 85
fie sta</w> 85
clari fying</w> 85
sala d</w> 85
菜瓜 布</w> 85
dow ny</w> 85
[...]
