i n 165705
r e 137388
a n 133452
e r</w> 130396
a r 96874
c o 91939
s h 87945
e r 84770
l a 81883
s t 81079
l e 80585
l o 80364
i t 79982
b a 72953
o r 72284
l e</w> 67913
o r</w> 63997
o n</w> 61482
e n 60980
a t 60634
o n 60467
l i 56510
in g</w> 56120
s e 53980
c a 52757
r o 51864
c h 51606
r a 49772
m a 49478
f or</w> 48938
s i 48337
e s</w> 45609
e n</w> 44962
s s</w> 43918
c k</w> 42775
t o 42469
e d</w> 42207
u n 40528
現 貨</w> 40506
t i 39049
i r 38469
a l</w> 38225
s e</w> 38192
r i 37849
a l 37822
b o 36974
p a 36074
t h 35324
c k 34813
an d</w> 34776
l u 33586
i n</w> 32781
n e 32308
p o 32191
d i 32091
e a 29900
新 款</w> 29751
e l 27630
t s</w> 27200
c e</w> 27037
s u 26783
m i 26427
s a 25828
i g 25766
f a 25674
m en</w> 25640
o l 24259
o u 23605
d re 23375
w it 22784
s p 22462
ba g</w> 22406
t t 22233
b le</w> 22224
c h</w> 22023
全 新</w> 21892
wit h</w> 21365
t a 20880
u r 20808
re a 20504
dre ss</w> 20253
d e 20142
t e 19923
se t</w> 19863
p h 19701
an d 19444
on e</w> 19392
m o 19330
s o 18985
w o 18812
k i 18495
i on</w> 18209
p p 18025
ca se</w> 17905
sh o 17800
ir t</w> 17616
q u 17408
e l</w> 17125
m e</w> 16974
b y</w> 16632
v e</w> 16594
d er</w> 16523
e t</w> 16443
a i 16217
d s</w> 16133
co d</w> 15881
p re 15804
簡 約</w> 15668
k o 15451
家 用</w> 15374
日 本</w> 15202
p r 15130
s t</w> 15129
m e 15075
g e</w> 14985
u l 14957
b la 14951
m p 14871
w h 14728
s h</w> 14638
sh irt</w> 14462
c ar 14362
代 購</w> 14284
s k 14259
b i 14259
短 袖</w> 14246
m in 14104
re d</w> 14012
v er</w> 13898
f i 13857
wo men</w> 13835
t e</w> 13801
to p</w> 13686
ne w</w> 13580
a u 13309
c u 13220
時 尚</w> 13059
男 女</w> 13037
d e</w> 12981
z e</w> 12862
r u 12848
d a 12784
背 包</w> 12776
w at 12625
正 品</w> 12523
bla ck</w> 12464
it e</w> 12429
上 衣</w> 12372
二 手</w> 12228
a m 12173
o f</w> 12006
o o 11916
p i 11747
運 動</w> 11726
si ze</w> 11703
g h 11668
v er 11537
ph one</w> 11522
ti c</w> 11490
k e</w> 11472
i c</w> 11470
p ro 11459
fa sh 11436
c t 11427
w i 11338
sh or 11319
lo v 11244
s s 11236
t y</w> 11236
ol d</w> 11072
e ar 11013
b u 10956
p lu 10928
p la 10860
v i 10855
b lu 10761
外 套</w> 10748
rea n</w> 10744
ko rean</w> 10725
韓 版</w> 10551
n i 10524
er s</w> 10454
l l</w> 10432
d o 10418
兒 童</w> 10360
收 納 10354
in g 10338
l ing</w> 10300
男 士</w> 10170
it y</w> 10169
lov ed</w> 10116
fash ion</w> 10111
sho es</w> 9976
t ed</w> 9954
免 運</w> 9896
b r 9886
c e 9816
f re 9781
休 閒</w> 9737
ch ar 9719
t h</w> 9662
l y</w> 9528
ar d</w> 9521
p er 9506
d y</w> 9487
ki ds</w> 9467
w e 9398
co lo 9398
系 列</w> 9368
th en 9319
學 生</w> 9306
u m</w> 9306
s le 9298
p an 9282
le ss</w> 9250
co n 9248
or ig 9243
f lo 9228
t er</w> 9225
au then 9184
wh ite</w> 9168
in al</w> 9145
運 動 9133
authen tic</w> 9121
c i 9102
夏 季</w> 9056
黑 色</w> 9040
g a 9004
w a 8975
plu s</w> 8966
ba by</w> 8956
sle e 8946
情 侶</w> 8945
st a 8918
orig inal</w> 8914
潮 流</w> 8903
套 裝</w> 8878
創 意</w> 8870
un i 8791
j a 8759
t er 8731
le t</w> 8675
th e</w> 8613
p er</w> 8500
lo n 8497
li gh 8486
pre loved</w> 8483
ti on</w> 8457
t o</w> 8376
n o 8349
防 水</w> 8340
m ar 8328
m at 8297
功 能</w> 8263
新 品</w> 8256
in e</w> 8155
h ig 8076
韓 國</w> 8018
s un 8011
f e 7998
n o</w> 7984
經 典</w> 7930
h o 7908
ea r</w> 7901
e y 7876
pa ck</w> 7861
st i 7859
sa le</w> 7855
l o</w> 7821
多 功能</w> 7751
c ro 7742
g u 7603
m en 7575
j u 7571
特 價</w> 7563
p e</w> 7459
in k</w> 7440
b lo 7422
tt on</w> 7420
b e 7382
玩 具</w> 7371
si g 7251
min i</w> 7206
跑 鞋</w> 7161
r y</w> 7086
pr in 7054
at h 7029
an t</w> 6919
ai r</w> 6887
休 閒 6849
客 廳</w> 6831
ra l</w> 6814
d u 6803
精 品</w> 6756
臥 室</w> 6716
牛 皮</w> 6707
g old</w> 6663
an g 6660
s c 6571
hig h</w> 6547
f la 6546
blu e</w> 6544
ma s 6534
al ity</w> 6527
f u 6488
fre e</w> 6480
ch a 6450
w al 6449
g la 6439
s li 6406
bo o 6389
h ea 6383
po w 6338
i l</w> 6332
qu ality</w> 6320
i t</w> 6281
ur e</w> 6260
co tton</w> 6219
牛 仔</w> 6204
de sig 6172
p s</w> 6163
t r 6157
百 搭</w> 6145
迷 你</w> 6126
ch e 6123
l l 6122
現 代</w> 6118
ck et</w> 6036
f t</w> 5999
g ra 5981
手 提 5979
wat ch</w> 5963
ligh t</w> 5959
g ir 5952
r ing</w> 5945
t ra 5921
a d 5918
a c 5903
an i 5891
sa m 5882
現 貨 5875
肩 包</w> 5868
男 鞋</w> 5863
di es</w> 5806
p e 5803
m b 5797
h a 5795
加 厚</w> 5785
c s</w> 5785
慢 跑鞋</w> 5757
b ra 5744
lo w</w> 5715
m m 5692
n a 5690
f or 5689
shor ts</w> 5685
f o 5628
禮 物</w> 5624
c le 5624
ou l 5588
o f 5587
b ea 5578
h and</w> 5577
s ling</w> 5554
co r 5530
運動 鞋</w> 5503
la ce</w> 5502
透 氣</w> 5500
pan ts</w> 5461
裝 飾</w> 5452
h u 5442
j e 5439
用 品</w> 5424
desig n</w> 5413
shor t</w> 5394
la dies</w> 5385
專 用</w> 5384
un d 5376
ter no</w> 5373
si l 5370
c rea 5367
lon g</w> 5363
sh oul 5361
k e 5308
造 型</w> 5291
sun g</w> 5291
l s</w> 5290
女 士</w> 5264
玻 璃</w> 5263
u s 5245
g i 5238
預 購</w> 5234
sam sung</w> 5233
g re 5229
bo dy</w> 5205
手 機</w> 5204
汽 車</w> 5198
bo x</w> 5188
i phone</w> 5185
ck s</w> 5160
shoul der</w> 5152
li p</w> 5147
真 皮</w> 5140
ing s</w> 5140
v e 5133
s and 5129
手提 包</w> 5116
pr o</w> 5110
mas k</w> 5079
u se</w> 5076
m i</w> 5072
p u 5064
置 物 5056
台 灣</w> 5033
北 歐</w> 5032
p ink</w> 5028
g er</w> 5022
印 花</w> 5015
拖 鞋</w> 5001
女 鞋</w> 4998
co l 4998
crea m</w> 4996
e x 4980
耳 環</w> 4963
保 護 4950
st u 4945
st e 4928
k it 4918
白 色</w> 4908
手 機 4889
le d</w> 4883
t u 4871
h e 4865
co ver</w> 4865
包 包</w> 4848
正 版</w> 4832
u p</w> 4826
m on 4820
爆 款</w> 4819
挎 包</w> 4817
er i 4812
b b 4793
c la 4768
x y</w> 4763
卡 通</w> 4752
洋 裝</w> 4726
a n</w> 4721
so a 4720
短 褲</w> 4697
s ma 4677
flo ral</w> 4674
百 搭 4660
pro of</w> 4652
sh a 4649
y s</w> 4632
收 納</w> 4623
同 款</w> 4620
n at 4611
sp or 4605
en i 4597
女 生</w> 4587
colo r</w> 4579
st ra 4574
廚 房</w> 4573
修 身</w> 4551
ba ck 4551
blo use</w> 4546
or i 4541
ch i 4522
背 心</w> 4487
to o 4484
斜 挎包</w> 4477
h el 4475
se x</w> 4470
soa p</w> 4470
le g 4455
置物 架</w> 4451
gla ss</w> 4414
w ear</w> 4393
p ri 4380
le s</w> 4373
ma n</w> 4369
ta ble</w> 4369
ath er</w> 4358
s si 4342
pi e 4322
p ar 4321
c lo 4303
st ri 4297
生 活</w> 4291
i d</w> 4285
sil ver</w> 4285
手 工</w> 4256
t i</w> 4253
t re 4247
k er</w> 4212
le n 4203
性 感</w> 4200
c t</w> 4186
h ard</w> 4183
k a 4182
al s</w> 4169
娃 娃</w> 4161
p or 4157
p en 4155
飾 品</w> 4148
限 定</w> 4139
ma g 4137
秋 冬</w> 4132
美 國</w> 4127
化 妝 4117
家 居</w> 4107
e d 4098
l ar 4095
b ro 4088
男 生</w> 4086
uni sex</w> 4082
女 包</w> 4075
m u 4066
休閒 鞋</w> 4058
熱 賣</w> 4054
s wi 4053
i on 4041
寶 寶 4030
衣 服</w> 4030
公 司</w> 4017
le ather</w> 4005
韓 版 3993
sh i 3988
c tion</w> 3975
圓 領</w> 3972
z er</w> 3971
oo d</w> 3970
ni ke</w> 3970
b el 3967
純 棉</w> 3963
l an 3956
透 明</w> 3953
ou t</w> 3945
襯 衫</w> 3939
or g 3939
跑 步</w> 3924
容 量</w> 3919
可 愛 3916
h and 3915
嬰 兒</w> 3910
fa ce</w> 3907
b ri 3900
su it</w> 3871
st y 3851
e red</w> 3836
w n</w> 3834
t en 3831
ba ck</w> 3826
er y</w> 3805
us b</w> 3795
v en 3789
sma ll</w> 3774
st er</w> 3764
件 套</w> 3759
v a 3753
神 器</w> 3749
t ri 3747
h air</w> 3732
電 腦</w> 3726
m er 3725
s on 3719
back pack</w> 3695
hea d 3686
c re 3680
h ol 3680
手機 殼</w> 3672
f f 3658
o il</w> 3649
球 鞋</w> 3648
at ion</w> 3628
boo k</w> 3621
l it 3620
出 貨</w> 3617
li ve</w> 3612
氣 質</w> 3606
c y 3604
熱 銷</w> 3603
men t</w> 3599
士 尼</w> 3587
蘋 果</w> 3586
迪 士尼</w> 3584
an s</w> 3566
gre en</w> 3565
sk in</w> 3562
公 仔</w> 3551
an s 3545
c le</w> 3527
單 肩包</w> 3526
m s</w> 3510
進 口</w> 3508
su al</w> 3504
防 滑</w> 3499
個 性</w> 3489
p le</w> 3489
s se 3483
自 動</w> 3477
d eni 3476
g s</w> 3472
充 電 3465
r y 3454
t in 3452
pie ce</w> 3446
ul l</w> 3434
ca r</w> 3426
se l 3422
al l</w> 3417
b e</w> 3416
f ro 3413
通 用</w> 3411
原 廠</w> 3404
針 織</w> 3404
deni m</w> 3399
te mp 3396
大 容量</w> 3389
y o 3382
ne ck 3382
折 疊</w> 3378
w er</w> 3369
m ul 3368
v el</w> 3361
ca sual</w> 3358
貼 紙</w> 3352
小 型</w> 3348
沙 發</w> 3339
di s 3331
居 家</w> 3328
u s</w> 3324
w or 3324
ci al</w> 3322
鑰 匙</w> 3321
kit ty</w> 3316
h i 3311
li p 3305
t or 3304
成 人</w> 3302
香 水</w> 3284
舒 適</w> 3279
u ch</w> 3279
j o 3279
手 提</w> 3274
k s</w> 3269
黑 白</w> 3267
ar e</w> 3265
sp i 3258
br and</w> 3250
配 件</w> 3242
slee ve</w> 3239
ig h 3220
st o 3218
d d 3197
組 合</w> 3194
ma x</w> 3192
眼 鏡</w> 3188
me di 3182
wal let</w> 3171
sta in 3169
玫 瑰</w> 3166
保 暖</w> 3165
愛 迪 3162
neck lace</w> 3162
工 具</w> 3157
無 線</w> 3157
v es</w> 3149
商 品</w> 3147
簡 易</w> 3142
金 屬</w> 3130
g en 3128
寶 寶</w> 3123
sk irt</w> 3117
sti ck</w> 3115
電 動</w> 3093
stain less</w> 3091
m ou 3082
pro te 3080
編 織</w> 3072
mat te</w> 3067
hel lo</w> 3045
不 銹 3043
不銹 鋼</w> 3035
a we 3026
so ft</w> 3021
o pp 3020
o ver 3019
w ai 3016
l a</w> 3012
連 帽</w> 3008
fi t</w> 3008
blu e 3007
gir l</w> 3007
sti ck 3001
天 然</w> 2999
皮 帶</w> 2998
紅 色</w> 2996
po lo</w> 2994
a t</w> 2993
女 童</w> 2992
愛迪 達</w> 2992
hol der</w> 2990
網 紅</w> 2988
per fu 2984
藍 色</w> 2981
水 晶</w> 2977
單 肩</w> 2977
wat er 2977
限 時</w> 2974
swi m 2970
a ge</w> 2966
sand als</w> 2966
b an 2965
p cs</w> 2954
必 備</w> 2951
耳 機</w> 2948
支 架</w> 2946
r ings</w> 2939
bea u 2935
temp ered</w> 2928
ba ll</w> 2925
男 款</w> 2924
sty le</w> 2916
蝴 蝶</w> 2915
少 女</w> 2912
t a</w> 2912
g o</w> 2909
咖 啡</w> 2899
h er 2895
ey e 2878
衣 裙</w> 2875
men s</w> 2875
擺 件</w> 2870
ne ck</w> 2870
pa d</w> 2867
pla in</w> 2863
awe i</w> 2862
an ce</w> 2853
p ur 2849
prin ted</w> 2847
cu te</w> 2845
bra ce 2843
l er</w> 2839
lar ge</w> 2837
限 量</w> 2828
ru sh</w> 2819
e y</w> 2810
mm er</w> 2806
ba tt 2799
z ed</w> 2797
wat er</w> 2797
t w 2796
too th</w> 2795
un d</w> 2787
實 拍</w> 2779
c o</w> 2778
公 主</w> 2769
c a</w> 2769
皮 革</w> 2765
歐 式</w> 2757
ll er</w> 2751
v o</w> 2749
a r</w> 2732
so cks</w> 2732
g o 2722
ca l</w> 2711
brace let</w> 2706
of f</w> 2705
blue tooth</w> 2702
生 日</w> 2700
賣 場</w> 2698
mo bi 2696
pp er</w> 2694
保護 套</w> 2693
car d</w> 2688
se xy</w> 2686
e le 2684
gir ls</w> 2684
g ar 2683
bo tt 2678
香 奈 2674
opp o</w> 2674
perfu me</w> 2674
on ly</w> 2671
or ted</w> 2666
ja cket</w> 2664
f ra 2657
ch o 2652
涼 鞋</w> 2651
g el</w> 2651
co u 2651
可 愛</w> 2650
專 櫃</w> 2649
零 錢</w> 2648
ru bb 2647
k in 2627
設 計</w> 2624
d a</w> 2623
mp er</w> 2622
女 款</w> 2619
c an 2608
ba l 2599
收納 盒</w> 2597
衛 衣</w> 2591
戶 外</w> 2591
h oo 2591
er ry</w> 2591
mi l 2590
ear rings</w> 2590
陶 瓷</w> 2587
香奈 兒</w> 2587
tt e</w> 2586
連 身</w> 2585
an ti</w> 2585
d ri 2579
n y</w> 2576
v it 2573
at e</w> 2573
清 新</w> 2567
ca ble</w> 2566
po p</w> 2566
字 母</w> 2564
模 型</w> 2562
r un 2561
mobi le</w> 2561
d ol 2557
m a</w> 2556
打 底</w> 2552
batt ery</w> 2551
i s</w> 2533
宿 舍</w> 2532
r on 2531
a m</w> 2530
co m 2528
tr a</w> 2524
大 碼</w> 2517
手 拿 2514
cha in</w> 2514
p en</w> 2512
m y</w> 2511
m p</w> 2506
hu awei</w> 2503
正 韓</w> 2501
小 戶</w> 2499
ki t</w> 2499
cy cle</w> 2497
g e 2496
g r 2494
f ull</w> 2488
立 體</w> 2487
t y 2483
顯 瘦</w> 2479
t ro 2479
l in 2477
旅 行</w> 2468
寵 物</w> 2466
k ing</w> 2466
char ger</w> 2466
water proof</w> 2466
吊 飾</w> 2464
medi um</w> 2459
en ing</w> 2456
pow der</w> 2451
a pp 2450
ct or</w> 2440
wh it 2436
br and 2436
b rush</w> 2435
粉 色</w> 2428
st re 2428
st ic</w> 2427
mo tor 2423
落 地</w> 2420
pow er</w> 2419
to y</w> 2416
兩 用</w> 2409
su per</w> 2407
pa n</w> 2403
n er</w> 2395
pre mi 2395
n e</w> 2393
a ss 2388
x i 2387
pr e</w> 2385
rubb er</w> 2385
手拿 包</w> 2383
珍 珠</w> 2381
v in 2381
時 尚 2375
v a</w> 2371
ba gs</w> 2369
po uch</w> 2363
實 木</w> 2359
me t 2358
ste el</w> 2352
wai st</w> 2348
si on</w> 2344
su mmer</w> 2338
h ear 2336
sk in 2336
por table</w> 2336
la r</w> 2334
slee ves</w> 2331
je ans</w> 2331
免 運 2327
古 馳</w> 2312
sh e 2312
拼 接</w> 2310
n u 2310
帆 布 2308
g lu 2306
薄 款</w> 2303
lo ve</w> 2303
k ey 2300
re less</w> 2299
ma de</w> 2296
大 號</w> 2292
潮 牌</w> 2292
s qu 2290
co o 2289
st or 2283
bi g</w> 2282
eri es</w> 2281
情 趣</w> 2278
ss en 2276
c ti 2274
浴 室</w> 2270
女 裝</w> 2263
e t 2263
威 登</w> 2260
韓 國 2256
h y 2253
lo tion</w> 2253
sp e 2253
f un 2244
皮 夾</w> 2243
快 速</w> 2242
c ur 2242
易 威登</w> 2241
w el 2240
bott le</w> 2238
s er 2237
n ing</w> 2233
premi um</w> 2232
冬 季</w> 2230
錢 包</w> 2228
lon g 2223
c and 2219
wi reless</w> 2218
b und 2214
li c</w> 2208
z i 2206
it ion</w> 2206
適 用</w> 2202
da y</w> 2201
tt er</w> 2198
內 衣</w> 2197
en t</w> 2195
igh t</w> 2193
合 金</w> 2191
春 夏</w> 2191
a di 2190
le a 2190
col le 2189
tre n 2175
f fe 2170
s we 2169
ma l</w> 2168
尺 寸</w> 2167
v y</w> 2166
tra vel</w> 2165
whit ening</w> 2163
wo o 2160
beau ty</w> 2159
a li 2157
fro m</w> 2156
a ct 2149
b a</w> 2147
s pa 2135
保 濕</w> 2129
prin t</w> 2128
商 務</w> 2124
t shirt</w> 2124
spor ts</w> 2124
mag ic</w> 2124
品 牌</w> 2123
to ps</w> 2122
ele ct 2121
日 系</w> 2118
下 標</w> 2117
優 惠</w> 2114
s eries</w> 2114
org ani 2114
d en</w> 2111
pa per</w> 2105
d r 2103
智 能</w> 2100
se cre 2098
特 惠</w> 2097
架 子</w> 2097
d ra 2094
耐 吉</w> 2092
女 孩</w> 2080
r s</w> 2079
定 制</w> 2077
促 銷</w> 2077
cou ple</w> 2072
毛 衣</w> 2066
ass orted</w> 2064
bund le</w> 2063
motor cycle</w> 2062
a ble</w> 2061
桌 子</w> 2060
ver s 2060
現 代 2059
bo ard</w> 2057
sel ling</w> 2055
百 貨</w> 2050
克 力</w> 2048
car e</w> 2048
a v 2046
拉 鏈</w> 2040
d ar 2038
br a</w> 2038
歐 美</w> 2037
g ood</w> 2037
stra p</w> 2037
家 具</w> 2036
ba th</w> 2036
品 質</w> 2035
di e</w> 2035
d ou 2032
flo wer</w> 2032
生 間</w> 2031
d y 2031
歐 美 2030
桌 面</w> 2029
雙 層</w> 2021
d i</w> 2015
sta r</w> 2015
沙 灘</w> 2014
b ar 2003
i ce</w> 2002
w ar 1996
內 褲</w> 1995
nat u 1995
sc re 1993
secre t</w> 1993
v al</w> 1991
氣 墊</w> 1987
k a</w> 1986
m it 1984
da s</w> 1984
k o</w> 1980
d ing</w> 1974
su r 1973
on s</w> 1971
寬 松</w> 1970
h on 1966
clo th 1966
a p 1962
vi vo</w> 1960
che ck 1958
吊 帶</w> 1956
p at 1955
t le</w> 1955
d ed</w> 1952
ca p</w> 1952
鏈 條</w> 1948
t ur 1946
spor t</w> 1933
禮 盒</w> 1931
條 紋</w> 1931
椅 子</w> 1925
e ssen 1925
m an 1925
厚 底</w> 1924
co n</w> 1924
hear t</w> 1924
儲 物 1923
電 池</w> 1919
h al 1918
風 扇</w> 1917
小 米</w> 1914
spi red</w> 1913
美 國 1912
p u</w> 1911
ad ul 1910
in spired</w> 1908
面 膜</w> 1903
ro und</w> 1903
stick er</w> 1903
do or</w> 1902
sp ea 1899
小 包</w> 1895
b ang 1895
美 式</w> 1894
公 室</w> 1894
g ing</w> 1893
stri p 1892
公 分</w> 1888
si li 1887
帆 布</w> 1885
o m</w> 1885
b and</w> 1885
char act 1884
方 形</w> 1883
adi das</w> 1880
w in 1872
at ing</w> 1872
or s</w> 1871
sse s</w> 1869
n ai 1866
石 英</w> 1865
彩 色</w> 1864
co a 1864
st and</w> 1864
塑 料</w> 1863
秋 季</w> 1863
p h</w> 1863
網 紅 1862
口 袋</w> 1861
wa y</w> 1859
bel t</w> 1859
d er 1858
皮 套</w> 1848
ir ts</w> 1845
t on 1844
tin t</w> 1839
h ar 1838
衣 架</w> 1836
mou se</w> 1834
f ig 1829
周 邊</w> 1827
st e</w> 1827
ro se</w> 1824
ga la 1823
slee ve 1822
ch es</w> 1821
dou ble</w> 1821
ir e</w> 1819
uni vers 1819
保 護</w> 1816
錢 夾</w> 1815
遊 戲</w> 1812
中 長</w> 1808
金 色</w> 1805
安 全</w> 1800
雙 人</w> 1797
ac ce 1796
l y 1794
co mp 1793
bo y</w> 1790
g a</w> 1789
on e 1789
to ys</w> 1788
a s</w> 1784
ho t</w> 1781
折 疊 1779
材 料</w> 1777
多 層</w> 1767
p top</w> 1766
d o</w> 1765
sleeve less</w> 1765
fa n</w> 1764
ja pan</w> 1762
ju mp 1762
日 式</w> 1761
灰 色</w> 1761
t ing</w> 1761
健 身</w> 1760
pa re 1759
明 星</w> 1758
ca mer 1758
y a</w> 1756
ty pe</w> 1756
cla ssi 1755
tw o</w> 1755
ho me</w> 1754
ra y</w> 1751
y a 1750
univers al</w> 1750
太 陽 1747
s ch 1747
童 裝</w> 1744
手 套</w> 1741
車 載</w> 1741
l ite</w> 1740
格 子</w> 1738
戒 指</w> 1736
少 年</w> 1733
e m</w> 1733
純 色</w> 1732
on g</w> 1732
per son 1727
of fi 1727
te a</w> 1726
ori es</w> 1726
gala xy</w> 1726
平 底</w> 1724
pp y</w> 1722
el s</w> 1720
charact er</w> 1720
板 鞋</w> 1717
x l</w> 1717
fi l 1717
ul tra</w> 1713
桌 椅</w> 1711
c el 1711
bro wn</w> 1709
on hand</w> 1707
美 甲</w> 1706
f e</w> 1704
cu t</w> 1704
i r</w> 1701
pla stic</w> 1699
vi ct 1699
日 版</w> 1698
li qu 1698
spea ker</w> 1698
耐 克</w> 1694
f ol 1692
ou t 1692
a o 1691
cle ar</w> 1691
l ine</w> 1688
懶 人 1687
帽 子</w> 1683
隨 身</w> 1680
f it 1679
葉 草</w> 1677
批 發</w> 1677
商 務 1674
l d</w> 1674
pi l 1670
organi zer</w> 1670
sa u 1668
b ir 1666
s mar 1665
ph o 1665
米 奇</w> 1664
專 屬</w> 1664
fla t</w> 1663
coa ch</w> 1661
床 頭</w> 1660
動 漫</w> 1659
ar y</w> 1658
acce ss 1657
c lu 1656
mil k</w> 1656
雙 面</w> 1651
n it 1650
ma x 1648
經 典 1647
re mo 1645
超 薄</w> 1644
lip stick</w> 1644
g en</w> 1643
手 作</w> 1641
學 院</w> 1640
st ar 1638
cro p</w> 1637
m l</w> 1633
彈 力</w> 1631
發 票</w> 1630
lo o 1629
le tte</w> 1628
camer a</w> 1628
帆布 鞋</w> 1627
l and</w> 1626
b ur 1626
sh irts</w> 1625
收納 架</w> 1625
圓 形</w> 1624
app le</w> 1623
adul t</w> 1623
實 木 1622
相 機</w> 1620
to te</w> 1620
swim suit</w> 1618
專 業</w> 1616
ed ition</w> 1614
ban k</w> 1614
ri st 1613
co s 1612
餐 廳</w> 1610
s er</w> 1610
org an 1610
po cket</w> 1608
懶 人</w> 1607
客 訂</w> 1606
ca p 1606
m or 1605
te e</w> 1604
am po 1601
pp ing</w> 1600
sho p</w> 1600
se d</w> 1599
睡 衣</w> 1598
sho ck</w> 1598
成 新</w> 1596
t or</w> 1593
si de</w> 1591
classi c</w> 1591
mi c</w> 1587
gu ard</w> 1586
聯 名</w> 1585
du al</w> 1584
鐵 藝</w> 1582
電 子</w> 1581
be st</w> 1580
vict ori 1577
海 賊</w> 1574
推 薦</w> 1574
s y 1574
手 環</w> 1570
f f</w> 1570
lu x 1568
liqu id</w> 1568
y el 1567
natu ral</w> 1567
b en 1565
古 奇</w> 1564
經 濟 1563
男 童</w> 1561
nat ure</w> 1560
elect ri 1556
防 曬</w> 1555
ba r</w> 1555
s on</w> 1554
sp ray</w> 1554
cand y</w> 1553
三 角</w> 1551
ta ke</w> 1548
三 葉草</w> 1546
t on</w> 1545
情 人</w> 1544
禮 品</w> 1542
g lo 1540
f in 1540
s ne 1537
r o</w> 1536
c at 1534
c es</w> 1534
f ood</w> 1534
水 果</w> 1533
scre en</w> 1533
organ ic</w> 1533
yel low</w> 1533
s an 1532
動 物</w> 1528
出 清</w> 1527
加 大</w> 1527
dar k</w> 1525
衛 生間</w> 1524
電 源</w> 1523
sne a 1521
泳 衣</w> 1520
短 夾</w> 1519
no te</w> 1519
bo ys</w> 1517
met al</w> 1517
t pu</w> 1515
su pp 1514
太 陽</w> 1513
v o 1513
pa ck 1513
全 館</w> 1512
兩 件</w> 1511
ar ri 1511
保護 殼</w> 1511
stri pe</w> 1511
靜 音</w> 1510
電 腦 1509
je wel 1509
colle ction</w> 1508
原 裝</w> 1507
v el 1507
access ories</w> 1506
可 選</w> 1505
g ri 1505
g am 1501
短 款</w> 1500
世 界</w> 1499
k ers</w> 1499
co ffe 1499
th er 1499
nai l</w> 1498
單 人</w> 1496
st at 1495
i l 1494
ba sk 1492
s ou 1491
brand ed</w> 1491
gra y</w> 1490
mul ti 1489
三 星</w> 1488
mo i 1488
h ou 1485
k i</w> 1483
cor n</w> 1482
ro mper</w> 1481
d ge</w> 1479
wal l</w> 1479
coffe e</w> 1478
victori a</w> 1474
cle ans 1472
s na 1471
喇 叭</w> 1470
m o</w> 1469
hig h 1469
高 腰</w> 1468
c c 1468
sli m</w> 1468
四 季</w> 1466
do w</w> 1465
lo n</w> 1464
全 場</w> 1461
ga me</w> 1460
mi st</w> 1459
dol l</w> 1459
s a</w> 1458
n a</w> 1454
玩 偶</w> 1453
m on</w> 1453
d ant</w> 1453
現貨 免</w> 1453
car to 1452
stor age</w> 1452
春 秋</w> 1450
鞋 子</w> 1448
le y</w> 1447
mi cro 1446
electri c</w> 1446
三 眼</w> 1441
餐 桌</w> 1441
ey e</w> 1441
唇 膏</w> 1440
di g 1440
und er 1439
甜 美</w> 1436
t ch</w> 1434
輕 量</w> 1433
a lo 1432
矽 膠</w> 1431
夏 天</w> 1431
羊 皮</w> 1431
大 學</w> 1429
格 紋</w> 1429
p ure</w> 1429
sh ampo 1426
pla y 1424
愛 心</w> 1423
德 國</w> 1423
免運 費</w> 1423
蛋 糕</w> 1422
香 港</w> 1419
褲 子</w> 1419
tren dy</w> 1418
shampo o</w> 1418
a b 1417
ta ge</w> 1417
辦 公 1416
in s</w> 1413
bo w</w> 1413
head set</w> 1413
書 架</w> 1411
do g</w> 1411
機 車</w> 1410
攜 式</w> 1410
ca t</w> 1408
on es</w> 1406
風 格</w> 1404
按 摩</w> 1403
wa sh</w> 1403
hea d</w> 1402
ll a</w> 1401
經濟 型</w> 1401
an a</w> 1400
an ge</w> 1399
耐 磨</w> 1398
原 單</w> 1398
ca n</w> 1398
墨 鏡</w> 1396
f ri 1390
s y</w> 1389
整 理</w> 1388
充 電</w> 1387
ne y</w> 1387
v ing</w> 1386
carto on</w> 1386
f oo 1384
打 孔</w> 1383
ma ke 1383
in e 1381
co stu 1381
ne t</w> 1381
綠 色</w> 1380
春 季</w> 1379
par ty</w> 1379
c ra 1378
材 質</w> 1377
bu y</w> 1375
sand o</w> 1374
cloth es</w> 1374
優 品</w> 1372
j am 1372
oo l</w> 1372
mul ti</w> 1372
arri val</w> 1370
fre e 1368
c lip</w> 1365
d ro 1365
jewel ry</w> 1365
s ing 1364
m ir 1364
學 習</w> 1363
fa cial</w> 1361
ear s</w> 1361
con e</w> 1361
便 宜</w> 1360
p c</w> 1358
海 外</w> 1357
b erry</w> 1357
c er 1356
ti e</w> 1351
mi ck 1351
小 熊</w> 1346
按 摩 1345
k nit 1345
旅 行 1344
se a 1343
s en 1341
b or 1340
幼 兒</w> 1339
玄 關</w> 1338
skin ny</w> 1338
che ck</w> 1337
make up</w> 1337
大 尺</w> 1336
colo rs</w> 1335
小 孩</w> 1334
洗 衣</w> 1333
純 銀</w> 1332
kin i</w> 1332
la y 1331
反 光</w> 1330
pri me</w> 1329
餐 具</w> 1328
ko re 1328
a da 1326
噴 霧</w> 1325
植 物</w> 1325
ta in</w> 1323
b er</w> 1322
at er</w> 1322
bro w</w> 1322
p and 1321
st one</w> 1321
on al</w> 1320
pen ci 1319
h a</w> 1318
一 字</w> 1316
to w 1314
da n</w> 1313
ma s</w> 1311
tr ans 1311
頂 級</w> 1310
sh i</w> 1309
col la 1309
k y 1308
f le 1308
d mi</w> 1307
水 桶</w> 1305
聖 誕 1305
v in</w> 1303
char m</w> 1302
chi l 1302
巴 寶 1299
下 單</w> 1295
ss y</w> 1295
ca si 1293
ou r</w> 1291
na vy</w> 1291
prote ctor</w> 1291
hoo die</w> 1290
si c</w> 1287
cu p</w> 1287
sch ool</w> 1287
寶 貝</w> 1286
pan ty</w> 1286
vin tage</w> 1286
th e 1285
m er</w> 1284
smar t</w> 1283
伸 縮</w> 1282
pil low</w> 1282
直 銷</w> 1281
保 固</w> 1278
ar i 1277
仿 真</w> 1276
ba n</w> 1276
gi ft</w> 1276
fash ion 1275
u r</w> 1271
wor ks</w> 1271
sili cone</w> 1271
dig it 1268
mick ey</w> 1268
mar i 1265
n on</w> 1264
te es</w> 1262
圖 案</w> 1259
c y</w> 1259
shi pping</w> 1259
costu me</w> 1257
遮 陽 1255
g low</w> 1255
清 潔</w> 1254
xi ao 1254
ar a</w> 1251
超 級</w> 1250
pen dant</w> 1250
腰 包</w> 1249
la ptop</w> 1248
ch an 1248
max i</w> 1248
con d 1247
n ight</w> 1246
bal lo 1246
抽 屜</w> 1244
lit tle</w> 1244
check out</w> 1242
經典 款</w> 1242
knit ted</w> 1242
kore a</w> 1240
x s</w> 1237
mir r 1236
f ron 1235
xiao mi</w> 1235
雪 紡</w> 1234
代 理</w> 1234
uni corn</w> 1233
咖 啡 1232
strip es</w> 1232
at ed</w> 1231
mi cha 1230
加 絨</w> 1229
青 年</w> 1229
記 本</w> 1229
廠 家</w> 1228
ada p 1228
tow el</w> 1226
背 景</w> 1224
l v</w> 1223
pa ir</w> 1223
pow er 1223
增 高</w> 1222
男 裝</w> 1221
全 套</w> 1221
an g</w> 1221
casi o</w> 1221
swim wear</w> 1219
essen ti 1219
購 物 1217
棉 麻</w> 1216
雙 肩包</w> 1215
al y</w> 1215
fu l</w> 1215
純 銀 1214
penci l</w> 1214
a ir 1213
收納 袋</w> 1213
自 行</w> 1211
高 清</w> 1210
ligh t 1207
b ear</w> 1206
五 分</w> 1204
b ts</w> 1204
st ring</w> 1204
dis ney</w> 1204
c ry 1203
e leg 1203
最 新</w> 1202
bo dy 1202
su per 1202
hand bag</w> 1201
防 風</w> 1200
it aly</w> 1200
ri bb 1200
麂 皮</w> 1199
化妝 包</w> 1198
全 自動</w> 1196
da ble</w> 1196
cos me 1196
保 證</w> 1193
se ller</w> 1192
sli p</w> 1192
蕾 絲</w> 1190
阿 瑪 1189
風 衣</w> 1189
官 方</w> 1189
fo re 1189
fra gr 1189
保 溫</w> 1188
i ck</w> 1188
bu tt 1187
行 李 1186
mirr or</w> 1186
e mb 1185
cho co 1185
包 裝</w> 1184
襪 子</w> 1182
創 意 1182
p et</w> 1181
digit al</w> 1181
t an 1178
花 朵</w> 1177
fa st</w> 1175
配 色</w> 1174
小 白 1173
la te</w> 1171
泡 泡</w> 1170
on d</w> 1170
ch en</w> 1170
沙 發 1168
ser um</w> 1168
len s</w> 1167
bi kini</w> 1164
r e</w> 1163
cha ble</w> 1163
男 孩</w> 1162
移 動</w> 1162
cc i</w> 1162
糖 果</w> 1161
平 板</w> 1159
迷 彩</w> 1159
禮 服</w> 1158
超 大</w> 1158
li sh</w> 1158
cu sto 1158
吊 燈</w> 1157
儲 物</w> 1156
美國 代購</w> 1155
micha el</w> 1155
零 食</w> 1153
sho ck 1153
夏 裝</w> 1152
水 壺</w> 1150
si ve</w> 1150
gla sses</w> 1150
合 一</w> 1149
水 洗</w> 1148
星 星</w> 1147
圍 巾</w> 1147
針 織 1146
持 久</w> 1146
b rea 1146
毛 巾</w> 1145
pp ers</w> 1145
no va</w> 1145
藍 芽</w> 1144
cro ss</w> 1144
無 袖</w> 1143
u t</w> 1142
巴寶 莉</w> 1142
棉 質</w> 1141
d in 1141
ki d</w> 1141
o s</w> 1140
su s</w> 1140
ke y</w> 1138
sing le</w> 1138
cry st 1138
中 式</w> 1137
am in</w> 1137
裙 子</w> 1134
la y</w> 1134
sa ble</w> 1134
bask et 1134
che e 1130
in t</w> 1129
or ange</w> 1129
vit amin</w> 1128
squ are</w> 1127
she et</w> 1125
fig ure</w> 1125
basket ball</w> 1125
女 性</w> 1123
優 質</w> 1122
扭 蛋</w> 1121
s o</w> 1120
eleg ant</w> 1120
塑 膠</w> 1118
訓 練</w> 1118
老 花</w> 1117
o em</w> 1117
短 裙</w> 1116
key chain</w> 1116
snea kers</w> 1116
en d</w> 1115
ca l 1115
小 號</w> 1112
書 桌</w> 1112
壁 掛</w> 1112
run s</w> 1112
in ches</w> 1111
ta b 1111
m k</w> 1110
男 包</w> 1109
神 奇</w> 1109
精 油</w> 1109
shock proof</w> 1109
優 惠 1108
車 用</w> 1108
簡 約 1108
ch rist 1107
ha ppy</w> 1107
工 作</w> 1106
道 具</w> 1106
枕 頭</w> 1106
購 物</w> 1106
r a</w> 1105
c en 1103
文 版</w> 1101
書 包</w> 1101
荔 枝</w> 1101
n y 1101
lo ck</w> 1101
in er</w> 1100
fre sh</w> 1100
軟 殼</w> 1098
美 容</w> 1097
j or 1097
qu e</w> 1093
one si 1093
or der</w> 1092
can va 1092
滑 板</w> 1091
電 視</w> 1090
la co 1090
hand le</w> 1090
kit chen</w> 1089
無 痕</w> 1087
清 潔 1087
z ing</w> 1087
愛 馬 1086
ea ble</w> 1086
ka y</w> 1084
藍 牙</w> 1083
p lan 1083
機 械</w> 1081
特 賣</w> 1081
over runs</w> 1080
c d</w> 1078
ea u</w> 1077
ma t</w> 1076
皮 鞋</w> 1074
fo am</w> 1074
英 倫 1070
g ings</w> 1070
水 杯</w> 1069
單 鞋</w> 1069
laco ste</w> 1069
慢 跑</w> 1068
彈 性</w> 1065
mat e</w> 1065
gu cci</w> 1065
流 行</w> 1064
泰 國</w> 1064
sto ck</w> 1064
n ba</w> 1063
s po 1062
gen u 1062
高 檔</w> 1061
巴 黎</w> 1061
la mp</w> 1061
er ing</w> 1060
jam a</w> 1060
it ion 1059
at a</w> 1059
奶 茶</w> 1058
s m</w> 1058
jo g 1057
盒 裝</w> 1056
k ors</w> 1056
食 品</w> 1055
ta pe</w> 1055
genu ine</w> 1055
p ear 1053
一 組</w> 1052
大 利</w> 1052
yo u</w> 1052
女 神</w> 1051
磨 砂</w> 1051
at i 1051
ma le</w> 1051
po l 1051
ph ones</w> 1050
am p</w> 1050
凳 子</w> 1049
c li 1049
colla gen</w> 1049
ar m</w> 1046
v et</w> 1044
ph i 1044
ch erry</w> 1043
th er</w> 1043
el l</w> 1043
fra me</w> 1043
寶 可 1042
實 用</w> 1042
ra in 1041
su n</w> 1040
bu tton</w> 1040
for mal</w> 1040
布 藝</w> 1039
素 面</w> 1039
fashion able</w> 1039
老 爹</w> 1038
ap pare 1038
掛 式</w> 1037
di a 1037
眼 影</w> 1035
n t</w> 1035
ga n</w> 1035
ea ch</w> 1034
藍 牙 1033
抖 音</w> 1033
c ro</w> 1033
華 為</w> 1032
sh ing</w> 1032
碎 花</w> 1030
c er</w> 1030
b re 1030
z z 1030
pa jama</w> 1030
撞 色</w> 1029
素 色</w> 1028
ck y</w> 1028
choco late</w> 1028
cryst al</w> 1028
u re 1027
小白 鞋</w> 1027
di o</w> 1026
he al 1026
e f</w> 1025
in a</w> 1024
appare l</w> 1024
媽 媽</w> 1022
木 質</w> 1021
工 作 1019
設 計 1017
l un 1017
狗 狗</w> 1016
a qu 1016
at or</w> 1016
ca ke</w> 1016
j el 1015
ou s</w> 1015
wo mens</w> 1015
三 件套</w> 1014
使 用</w> 1013
e ts</w> 1011
mi o</w> 1011
min i 1011
ton er</w> 1011
jor dan</w> 1011
鋼 化</w> 1010
k le</w> 1010
阿 迪 1009
雜 貨</w> 1009
chil dre 1009
fron t</w> 1008
w ra 1007
co at</w> 1007
sha dow</w> 1007
f i</w> 1005
tu be</w> 1005
龍 頭</w> 1004
酒 店</w> 1004
直 播</w> 1003
cle an 1003
新 生</w> 1001
空 間</w> 1001
鏤 空</w> 1001
g ro 1000
qu e 1000
跟 鞋</w> 999
per fe 999
zi pper</w> 999
g lit 997
冰 箱</w> 996
con tro 996
jump suit</w> 996
角 落</w> 995
s old</w> 995
in ten 995
di sp 995
行 動</w> 994
o m 994
v en</w> 993
卡 片</w> 992
j er 991
l ing 990
o p 990
a ven 990
k y</w> 990
ba l</w> 990
彩 虹</w> 989
音 響</w> 989
sli ppers</w> 989
li mit 988
pur se</w> 988
cap su 988
mp le</w> 987
av ai 987
懶人 鞋</w> 987
手 表</w> 985
高 跟鞋</w> 985
茶 具</w> 984
五 金</w> 984
漫 畫</w> 983
stre t 983
精 華 982
w s</w> 982
s al 982
w l</w> 981
b ul 981
裝 飾品</w> 980
半 袖</w> 980
adap ter</w> 980
t wi 979
ad ju 978
re al</w> 977
bi es</w> 977
se s</w> 976
巧 克力</w> 975
餐 椅</w> 975
re dmi</w> 975
掛 件</w> 974
牙 刷</w> 974
y l</w> 974
hou se</w> 974
ta il</w> 973
商 用</w> 971
硅 膠</w> 971
or a</w> 971
sau di</w> 971
高 品質</w> 970
di am 970
bu m</w> 970
行李 箱</w> 970
d ai 969
run ning</w> 969
文 具</w> 968
改 裝</w> 966
la ble</w> 966
網 面</w> 965
機 器</w> 965
canva s</w> 965
fore ver</w> 964
s ing</w> 963
ar t</w> 963
小 牛皮</w> 962
旋 轉</w> 961
au to 961
紫 色</w> 960
摩 托</w> 960
s mo 960
b s</w> 960
c ing</w> 959
woo den</w> 959
英 國</w> 958
limit ed</w> 958
益 智</w> 956
po d</w> 956
基 本</w> 955
wit ch</w> 955
char ging</w> 955
樂 高</w> 953
一 體</w> 953
e ment</w> 952
收納 包</w> 952
leg gings</w> 951
b er 950
k u 950
childre n</w> 948
游 戲</w> 947
ver se</w> 947
座 椅</w> 946
f ru 946
迪 奧</w> 945
a sus</w> 945
雙 肩</w> 944
口 罩</w> 944
超 人</w> 944
絕 版</w> 943
強 力</w> 942
h ang 942
bang ko 942
法 國</w> 941
貓 咪</w> 941
自 然</w> 941
球 帽</w> 939
豆 豆</w> 939
精 華</w> 939
se y</w> 939
person ali 939
夾 克</w> 938
服 裝</w> 938
f an 937
高 筒</w> 936
靠 背</w> 936
ce ss</w> 935
ma ke</w> 933
stat ement</w> 933
九 分</w> 932
刷 毛</w> 931
bangko k</w> 931
ru n</w> 930
電 視 929
co mb 929
床 上</w> 928
釣 魚</w> 926
最 新款</w> 926
bir th 926
活 動</w> 925
co in</w> 925
ni e</w> 925
r an 924
e p</w> 923
re ju 923
sho e</w> 922
ear phone</w> 922
wa sha 922
ch et</w> 921
pp ed</w> 921
w ire</w> 920
washa ble</w> 920
空 氣</w> 919
h d</w> 919
ig e</w> 919
mm y</w> 919
十 字</w> 918
sta ble</w> 918
cond ition 917
推 車</w> 915
th ai 915
mi cro</w> 915
寶可 夢</w> 915
z en 914
vel vet</w> 913
z en</w> 912
購物 袋</w> 912
小 物</w> 911
pear l</w> 910
搭 配</w> 909
no t</w> 909
項 鏈</w> 908
con ta 908
乾 燥</w> 907
童 鞋</w> 905
魔 法</w> 905
升 降</w> 904
f ly</w> 904
托 特</w> 903
杯 子</w> 902
to dd 902
隱 形</w> 901
防 曬 901
ti me</w> 900
mm ing</w> 900
i mp 898
fi er</w> 898
防 塵</w> 897
中 文版</w> 897
理 石</w> 897
浪 漫</w> 897
柔 軟</w> 897
ar m 896
christ mas</w> 896
大 理石</w> 895
紫 外</w> 895
折 扣</w> 892
se mi</w> 892
essenti al</w> 892
組 合 891
t at 891
re char 891
pri ce</w> 890
二 代</w> 888
青 少年</w> 888
多 色</w> 888
p li 888
t v</w> 888
fa bri 888
阿迪 達 888
北 歐 886
垃 圾 886
jel ly</w> 886
送 禮</w> 885
m bo 885
j an 885
he els</w> 885
fil ter</w> 885
boo ks</w> 883
玻 璃 882
fun ko</w> 882
lu cky</w> 881
diam ond</w> 880
顏 色</w> 879
mi x</w> 879
ribb on</w> 879
辦 公</w> 878
現貨 實</w> 878
adju stable</w> 878
拼 色</w> 877
ru b</w> 877
朋 友</w> 876
大 氣</w> 876
頭 層</w> 876
stu ri 876
羊 毛</w> 875
收 藏</w> 875
slee p 875
棒 球帽</w> 873
gh t</w> 873
愛馬 仕</w> 873
clo th</w> 872
盒 子</w> 871
personali zed</w> 871
安 全 870
跨 包</w> 870
質 感</w> 869
wh e 869
spe cial</w> 869
fabri c</w> 869
滿 版</w> 868
m y 868
son y</w> 868
moi sturi 868
柜 子</w> 867
孕 婦</w> 867
現貨 供</w> 867
emb ro 867
包 女</w> 866
米 妮</w> 866
ba vin</w> 866
台 灣 865
in ch</w> 865
ma ch 865
螢 幕</w> 864
d or 864
生 物</w> 863
ac ti 863
p on 862
c ri 860
no w</w> 860
bor n</w> 860
烘 焙</w> 859
ne w 859
夏 日</w> 858
鏡 子</w> 858
custo mi 857
毛 絨</w> 856
fragr ance</w> 856
藝 術</w> 855
拼 圖</w> 854
offi ce</w> 854
粉 紅</w> 853
腰 帶</w> 853
手 鏈</w> 852
景 品</w> 852
li e</w> 852
充電 器</w> 852
房 間</w> 851
方 包</w> 851
h an 851
sh a</w> 851
pa lette</w> 851
英 文</w> 850
el d</w> 850
comp le 850
avai lable</w> 850
al bum</w> 849
blu sh</w> 849
連 線</w> 848
g y</w> 847
bi ke</w> 847
and ro 846
thai land</w> 846
裝 飾 845
空 調</w> 845
翻 蓋</w> 845
拍 照</w> 844
to uch</w> 844
power bank</w> 844
ju ice</w> 843
貝 殼</w> 841
原 價</w> 841
ver sion</w> 841
g eable</w> 840
k ni 840
s at 839
it e 839
condition er</w> 839
too l</w> 838
學 者</w> 837
上 市</w> 837
colo ur 837
stret chable</w> 837
le ts</w> 836
en ds</w> 836
wh o 836
g un 835
jer sey</w> 833
embro i 833
te ster</w> 832
mag ne 832
發 貨</w> 830
st ed</w> 830
woo d</w> 830
喬 丹</w> 829
夜 光</w> 829
b and 829
car ds</w> 829
prin cess</w> 829
ballo on</w> 829
t g</w> 828
兔 子</w> 827
真 品</w> 827
out door</w> 827
jog ger</w> 827
andro id</w> 826
ing er</w> 825
香 氛</w> 823
bea ch</w> 823
ver y</w> 822
酒 吧</w> 821
dri ve</w> 821
連 體</w> 820
包 郵</w> 820
古 著</w> 819
w are</w> 819
p ul 819
y u 819
mat ic</w> 819
birth day</w> 819
數 位</w> 818
機 殼</w> 817
直 筒</w> 817
colo red</w> 817
s witch</w> 815
轉 賣</w> 814
洗 澡</w> 812
bi e</w> 812
gre y</w> 812
阿瑪 尼</w> 812
or y</w> 811
銀 色</w> 810
rechar geable</w> 810
b b</w> 809
er o 809
it i 809
th ro 809
wra p</w> 808
安全 帽</w> 808
耳 釘</w> 807
鞋 柜</w> 807
遙 控</w> 807
y ears</w> 806
no te 804
套 頭</w> 803
環 保</w> 802
帶 回</w> 801
七 分</w> 801
c ity</w> 801
h er</w> 801
lo u 801
歐 洲</w> 799
n s</w> 799
海 王</w> 798
a f 798
m es</w> 798
di y</w> 798
智 慧</w> 797
c m</w> 797
eye brow</w> 797
pho to 797
mach ine</w> 797
stick ers</w> 796
pur ple</w> 796
阿迪達 斯</w> 796
offi cial</w> 795
肩 帶</w> 794
展 示</w> 794
授 權</w> 794
e ds</w> 794
b ed</w> 794
ar t 794
ne ss</w> 794
perfe ct</w> 794
健 康</w> 793
真 空</w> 793
v ed</w> 793
cti ve</w> 793
萬 用</w> 792
外 出</w> 792
仙 女</w> 792
音 箱</w> 790
bla zer</w> 790
mb er</w> 790
衣 物</w> 789
背 帶</w> 789
f one</w> 789
tan k</w> 789
組 裝</w> 788
大 衣</w> 788
航 海王</w> 788
u sed</w> 788
com for 788
平 底 787
平底 鞋</w> 786
j i 785
鏡 頭</w> 784
結 婚</w> 784
尖 頭</w> 784
筆 記本</w> 783
披 肩</w> 783
s k</w> 783
blo ck</w> 783
dd ing</w> 783
c ed</w> 782
洋 氣</w> 781
卡 夾</w> 781
深 藍</w> 781
al u 780
gu e 780
fo und 780
alo e</w> 780
m ang 779
z ara</w> 779
gra ph 779
麥 克 778
高 端</w> 777
d ry</w> 777
ir on</w> 776
cla ss</w> 776
首 飾</w> 773
良 好</w> 773
to yo 773
head band</w> 773
bo x 772
too th 772
幾 何</w> 771
gra ms</w> 771
ti cs</w> 770
sel f</w> 770
gam ing</w> 770
型 號</w> 769
pla te</w> 769
短 靴</w> 768
地 毯</w> 768
補 水</w> 768
la dy</w> 768
mon th 768
化妝 品</w> 768
chan el</w> 768
f lip</w> 767
mar vel</w> 767
toyo ta</w> 767
工 業</w> 766
音 樂</w> 766
翻 領</w> 766
p in 766
leg o</w> 766
spa de</w> 766
西 裝</w> 765
b lan 765
f ir 765
pla y</w> 765
騎 士</w> 764
ba g 764
li fe</w> 764
b len 763
草 莓</w> 761
t al</w> 761
en g 761
ro ller</w> 760
羅 蘭</w> 759
款 式</w> 759
o z</w> 759
w ing</w> 759
pla ted</w> 759
fo il</w> 759
of f 759
cleans ing</w> 759
展 示 758
超 取</w> 757
交 叉</w> 757
x r</w> 757
it s</w> 757
tu mb 757
butt er 757
計 時</w> 756
found ation</w> 756
co de</w> 755
文 化</w> 754
s or</w> 754
wo man</w> 754
sc rub</w> 754
o l</w> 753
brand new</w> 753
韓國 代購</w> 753
mo un 752
三 麗 751
科 技</w> 751
ba sic</w> 751
am eri 751
太陽 鏡</w> 751
隔 斷</w> 750
wal l 750
殺 價</w> 749
魔 術</w> 749
按摩 棒</w> 749
克 杯</w> 748
初 學者</w> 748
g g 748
t ru 748
hon da</w> 748
chee k</w> 748
模 具</w> 747
k ate</w> 747
大 童</w> 746
固 定</w> 746
普 拉</w> 745
完 美</w> 744
保 溫 743
機 械 743
金 證</w> 743
lo go</w> 743
prote ction</w> 743
sur e</w> 743
保 濕 742
泳 裝</w> 742
long sleeve</w> 742
龍 珠</w> 741
一 件</w> 741
bla ck 741
ha t</w> 741
zen fone</w> 741
化 妝</w> 740
colo r 740
ju mper</w> 739
cur tain</w> 738
附 發票</w> 737
超 值</w> 737
四 件套</w> 737
u kay</w> 737
街 頭</w> 736
l li 736
pur po 736
bal m</w> 736
pu mp</w> 735
arm or</w> 735
鞋 架</w> 734
立 式</w> 734
電腦 桌</w> 733
電 動 732
海 報</w> 732
ir s</w> 732
fi ber</w> 732
ga r</w> 732
衣 櫃</w> 731
睫 毛</w> 731
原 創</w> 731
力 士</w> 731
積 木</w> 730
t one</w> 730
pro du 729
三麗 鷗</w> 729
fol dable</w> 728
海 洋</w> 727
棒 球</w> 727
over run</w> 727
籃 球</w> 726
椰 子</w> 726
原 宿</w> 725
英 雄</w> 724
樂 器</w> 724
pie ces</w> 724
fla sh</w> 723
in f 722
cor e</w> 722
時尚 百</w> 722
瑜 伽</w> 721
掛 畫</w> 720
y our</w> 720
全 身</w> 719
器 材</w> 719
思 哲</w> 719
ra ck</w> 719
短 版</w> 718
洗 手</w> 718
拉 拉</w> 717
to i 717
swe ater</w> 717
dia per</w> 717
先 生</w> 716
p ull</w> 716
pa w 716
so f 716
雙 色</w> 715
av on</w> 715
太 空</w> 714
透 氣 714
do wn</w> 714
we dge</w> 714
que en</w> 714
todd ler</w> 713
cro ss 712
mon o 712
chi ff 712
小 姐</w> 711
m ol 711
me ter</w> 711
fe ssi 711
h k</w> 710
hal ter</w> 710
pol ka</w> 710
customi zed</w> 710
b on 709
chiff on</w> 709
小 說</w> 708
藍牙 耳機</w> 708
小 方包</w> 707
寬 松 707
t ure</w> 707
tt i</w> 707
month s</w> 707
吸 管</w> 706
徽 章</w> 706
小 香</w> 704
全 包</w> 704
家 庭</w> 704
照 片</w> 704
th ing</w> 704
防 塵 703
購 入</w> 703
swe et</w> 703
吸 頂</w> 702
k en 702
gue ss</w> 702
st ant</w> 701
ss a</w> 700
cleans er</w> 700
cla y</w> 698
充 氣</w> 697
服 飾</w> 697
新 娘</w> 697
親 子</w> 697
s ca 697
法 式</w> 696
re o</w> 696
流 蘇</w> 695
t ers</w> 695
be d 695
書 房</w> 694
榻 米</w> 694
榻 榻米</w> 694
沐 浴 693
i pad</w> 693
纖 維</w> 691
mi x 690
sp on 690
ni s 690
r at 689
pa ds</w> 689
foo t</w> 689
男 子</w> 688
coo l</w> 688
三 件</w> 687
茶 杯</w> 687
天 使</w> 687
低 筒</w> 687
lay er</w> 687
中 性</w> 686
g on</w> 686
手 袋</w> 685
手 辦</w> 685
日 常</w> 685
種 子</w> 685
基 尼</w> 685
g et</w> 685
k in</w> 685
me sh</w> 685
glu ta</w> 685
g ol 684
收納 箱</w> 684
門 口</w> 683
de li 683
key board</w> 683
body con</w> 683
登 山</w> 682
v an 682
fru it</w> 682
v c</w> 681
re si 681
ch amp</w> 681
ani mal</w> 681
衣 柜</w> 680
m et</w> 680
de red</w> 680
ad he 680
us a</w> 680
雪 花</w> 679
卡 西</w> 679
吸 水</w> 679
eye shadow</w> 679
under wear</w> 679
乳 液</w> 678
n ur 678
v u 678
z a 678
尼 龍</w> 677
沐 浴</w> 677
ar o 677
pro fessi 677
針織 衫</w> 677
ur a</w> 676
水 器</w> 675
h p</w> 675
sa fe 675
comple te</w> 675
七 龍珠</w> 674
da m</w> 674
sc en 674
mas sa 674
手 推</w> 673
尺 碼</w> 672
變 頻</w> 672
牛 奶</w> 672
f en 672
中 國 671
嚴 選</w> 671
簡 易 671
ear ring</w> 671
手 持</w> 670
li ving</w> 670
ma ll</w> 670
magne tic</w> 670
獨 家</w> 669
升 級</w> 669
g ath 669
p in</w> 669
pare nt</w> 669
蝦 皮</w> 668
sp ar 668
fla ts</w> 668
pack age</w> 668
點 點</w> 667
公 文 667
印 章</w> 667
ki d 667
hal f</w> 667
不 銹</w> 665
梳 妝</w> 665
三 層</w> 664
加 長</w> 664
co r</w> 664
ex ten 664
cel l 664
reju ven 664
茶 几</w> 663
多 肉</w> 663
運 費</w> 663
re pla 663
降 價</w> 661
輕 便</w> 661
可 折疊</w> 661
優 選</w> 661
微 波</w> 661
ac ry 661
森 林</w> 660
ea t</w> 660
bra ke</w> 660
偏 光</w> 659
日 韓</w> 659
el a</w> 659
聖誕 節</w> 659
tumb ler</w> 659
拆 封</w> 658
re n 658
hu man</w> 658
colour pop</w> 658
展示 架</w> 658
保 鮮 656
k er 656
手提 袋</w> 656
lou is</w> 656
單 人 655
剪 刀</w> 655
武 士</w> 655
ou r 655
胸 包</w> 654
燈 具</w> 654
co ol 653
掛 飾</w> 652
po sable</w> 652
min t</w> 652
shi eld</w> 652
note book</w> 652
公文 包</w> 652
安 裝</w> 651
開 關</w> 651
acry lic</w> 651
比 基尼</w> 650
cu sh 650
strip ed</w> 650
pho to</w> 650
purpo se</w> 650
t p</w> 649
de cor 649
paw na 649
雙 人 648
情 趣 648
de l</w> 648
美 白</w> 647
老 人</w> 647
t es</w> 647
an o</w> 647
dis posable</w> 647
男 性</w> 646
特 價 646
單 區</w> 646
w on 646
s d</w> 646
運動 褲</w> 646
har d 646
professi onal</w> 646
lu tion</w> 645
vu it 645
台 北</w> 644
亮 片</w> 644
wor ld</w> 644
trans parent</w> 643
正 貨</w> 642
名 媛</w> 642
努 比</w> 642
u al</w> 642
收納 櫃</w> 642
tr o</w> 642
col d</w> 642
出 版</w> 641
史 努比</w> 641
cu tter</w> 641
儲物 柜</w> 641
麥克 風</w> 641
or t</w> 640
秋 冬季</w> 639
交 換</w> 639
招 財</w> 639
butter fly</w> 639
rejuven ating</w> 638
夜 店</w> 637
紀 念 637
w e</w> 637
d c</w> 637
d ata</w> 637
re lla</w> 637
stu d</w> 637
glu t 637
person al</w> 637
who le 637
vuit ton</w> 637
吉 他</w> 635
健 身 634
魔 鬼</w> 634
it o</w> 634
花 園</w> 633
ne o 633
de cor</w> 633
pawna ble</w> 633
精 靈</w> 632
g y 632
ta g</w> 632
ver a</w> 632
we dding</w> 632
sea led</w> 632
垃圾 桶</w> 632
inf ant</w> 632
contro l</w> 631
環 保 630
滑 鼠</w> 630
li d</w> 630
ter n</w> 630
fe male</w> 630
ang le</w> 630
ati ve</w> 630
全 棉</w> 629
奶 瓶</w> 629
b in 629
ol s</w> 629
essen ce</w> 629
工 廠</w> 628
底 座</w> 628
lo t</w> 628
襯 衣</w> 627
緊 身</w> 627
學 生 626
韓 系</w> 626
h or 626
d en 626
se at</w> 626
dre am</w> 626
旅行 包</w> 626
小 店</w> 625
高 級</w> 625
i i</w> 625
k et</w> 625
ma c</w> 625
ta n</w> 624
cor d</w> 624
l ink</w> 623
p es</w> 623
si s</w> 623
ru ff 623
tre e</w> 623
腳 踏 622
壓 克力</w> 622
d v 622
cer a 622
cell phone</w> 622
情趣 用品</w> 622
超 輕</w> 621
制 服</w> 621
r and 621
毛 孔</w> 620
靠 枕</w> 620
墊 子</w> 620
破 洞</w> 619
屁 衣</w> 619
fit s</w> 619
adhe sive</w> 619
小 童</w> 618
全 白</w> 618
ed ge</w> 618
gu lar</w> 617
vin yl</w> 617
cosme tics</w> 617
s ling 616
cush ion</w> 616
大 型</w> 615
capsu les</w> 615
一 番</w> 614
聊 聊</w> 614
w r 614
la sh</w> 614
fa ce 614
小 巧</w> 613
家 居 613
b y 613
in fin 613
輕 奢</w> 612
高 爾 612
名 牌</w> 612
收納 柜</w> 612
休閒 褲</w> 612
遮 陽</w> 611
拉 桿</w> 611
露 營</w> 611
to m</w> 611
rea dy</w> 611
雪 紡 610
a d</w> 610
en s</w> 610
密 封</w> 609
st on</w> 609
gath ering</w> 609
星 空</w> 608
被 套</w> 608
si ble</w> 608
ste reo</w> 608
國 際</w> 607
min nie</w> 607
裝 店</w> 606
澳 洲</w> 606
t d</w> 606
b on</w> 606
x e</w> 606
ba bies</w> 606
小 小</w> 605
螺 絲</w> 605
接 頭</w> 605
付 款</w> 605
wall paper</w> 605
花 束</w> 604
巴 克</w> 604
o on</w> 604
f er 604
clean er</w> 604
聖 誕</w> 603
開 衫</w> 603
兩 色</w> 603
re pli 603
stu ff 603
sse d</w> 603
ite ms</w> 603
花 盆</w> 602
規 則</w> 602
幸 福</w> 602
罩 衫</w> 602
m ing</w> 602
se eds</w> 602
中 文</w> 601
聖 羅蘭</w> 601
液 晶</w> 601
a s 601
b o</w> 601
ion al</w> 601
節 禮物</w> 600
d r</w> 600
pa int</w> 600
擺 飾</w> 599
i a</w> 599
sh er</w> 599
ligh ts</w> 599
por t</w> 599
auto matic</w> 599
sa n</w> 598
ha ir 598
ex tra</w> 598
fro zen</w> 598
remo ver</w> 598
青 春</w> 597
i one</w> 597
網 紗</w> 596
芬 迪</w> 596
s car 596
or din 596
ur y</w> 596
de o</w> 596
中 筒</w> 595
ll s</w> 595
田 園</w> 594
bi t</w> 594
hea vy</w> 594
兒 童 593
u mb 593
l cd</w> 593
st ing</w> 593
ch er</w> 593
mi ra 593
plu sh</w> 593
graph ic</w> 593
repli ca</w> 593
可 以</w> 592
pa st 592
恐 龍</w> 591
手 動</w> 591
防 彈</w> 591
ri ce</w> 591
qu ick</w> 591
gi cal</w> 591
小 鋪</w> 590
安 德 590
寶 石</w> 590
優 雅</w> 590
風 機</w> 590
蛋 白</w> 590
le mon</w> 590
po t</w> 590
clu tch</w> 590
奶 油</w> 589
指 甲 589
身 裙</w> 589
g g</w> 589
a ci 589
pan e 589
sil k</w> 589
tre at 589
pand ora</w> 589
whole sale</w> 589
口 紅</w> 588
香 薰</w> 588
民 族</w> 588
re s</w> 588
ath ione</w> 588
ac tion</w> 588
micro phone</w> 588
耳 針</w> 587
香 精</w> 587
櫻 花</w> 587
re al 587
long sleeves</w> 587
飛 線</w> 586
p vc</w> 586
ck er</w> 586
car a</w> 586
充電 線</w> 586
fir st</w> 586
總 動 585
良 品</w> 585
k ar 585
to ols</w> 585
sc ent</w> 585
gra de</w> 585
可 調</w> 584
戰 士</w> 584
冰 絲</w> 584
z e 584
lar e</w> 584
簡 單</w> 583
ro y 583
con verse</w> 583
onesi e</w> 583
卡 包</w> 582
限 量 582
imp orted</w> 582
限量 版</w> 582
桌 遊</w> 581
包 裝 581
d on 581
her o</w> 581
aqu a</w> 581
華 碩</w> 580
單 車</w> 580
st it 580
si mple</w> 580
off shoulder</w> 580
safe ty</w> 580
安 卓</w> 579
美 樂 579
韓 式</w> 579
維 尼</w> 579
橡 膠</w> 579
ma y 579
mi ly</w> 579
球 衣</w> 578
標 準</w> 578
th ick</w> 578
spe ed</w> 578
小 桌子</w> 577
全 黑</w> 577
震 動</w> 577
星 巴克</w> 577
sc o</w> 577
三 色</w> 576
郵 差</w> 576
抗 菌</w> 576
面 交</w> 576
gri p</w> 576
rain bow</w> 576
gun dam</w> 576
藍 光</w> 575
e li 575
半 身裙</w> 574
游 泳</w> 574
雨 傘</w> 574
攝 影</w> 574
u v</w> 574
rea r</w> 574
fol ding</w> 574
羽 絨</w> 573
控 油</w> 573
躺 椅</w> 573
hon ey</w> 573
glut athione</w> 573
防 刮</w> 572
婚 禮</w> 572
蠟 燭</w> 572
mu g</w> 571
dd ed</w> 571
雨 衣</w> 570
v eni 570
su gar</w> 570
heal th</w> 570
夢 幻</w> 569
床 邊</w> 569
筆 袋</w> 569
ur ban</w> 569
翡 翠</w> 568
n al</w> 568
sh ine</w> 568
cro chet</w> 568
loo se</w> 568
總動 員</w> 568
h i</w> 567
sha pe</w> 567
check ered</w> 567
小 香 566
小 卡</w> 566
小 時</w> 566
指 甲</w> 566
世 家</w> 566
攜 帶</w> 566
秋 裝</w> 566
sh guard</w> 566
un g</w> 566
信 封</w> 565
身 體</w> 565
g h</w> 565
k ne 565
mo del</w> 565
wi fi</w> 565
大 小</w> 564
功 率</w> 564
d es</w> 564
褲 女</w> 563
flo w 563
par is</w> 563
fun ction</w> 563
舌 帽</w> 562
car di 562
d on</w> 561
z y</w> 561
mar oon</w> 561
sling bag</w> 561
主 機</w> 560
專 輯</w> 560
o c 560
a i</w> 560
new born</w> 560
ro ll</w> 559
電 影</w> 558
寬 褲</w> 557
兒 園</w> 557
a ero 557
an de 557
al ph 557
min um</w> 557
sun glasses</w> 557
ny lon</w> 557
毛 線</w> 556
雜 誌</w> 556
mo tor</w> 556
ki e</w> 556
wi ld</w> 556
hang ing</w> 556
小 學生</w> 555
g ear</w> 555
si a</w> 555
dre sses</w> 555
de ep</w> 555
鋼 帶</w> 554
修 護</w> 554
公 斤</w> 554
g er 554
gh e 554
遮陽 帽</w> 554
si z 553
鋼 圈</w> 552
功 夫</w> 552
t u</w> 552
car ter</w> 552
彩 繪</w> 551
窗 簾</w> 551
h o</w> 551
fil m</w> 551
小 腳</w> 550
遮 光</w> 550
荷 葉 550
滑 板鞋</w> 550
度 假</w> 550
p l 550
平 衡</w> 549
標 區</w> 549
午 睡</w> 549
o h</w> 549
sh ar 549
ba t 549
sp ring</w> 549
c ts</w> 548
a ging</w> 548
z a</w> 548
鴨 舌帽</w> 547
moisturi zing</w> 547
alu minum</w> 547
清 倉</w> 546
塵 器</w> 546
衣 著</w> 546
隨 機</w> 546
辦公 桌</w> 546
plan ner</w> 546
rand om</w> 546
一 送</w> 545
口 味</w> 545
中 國</w> 545
方 便</w> 545
ti n</w> 545
韓版 時</w> 545
防 撞</w> 544
果 汁</w> 544
串 珠</w> 544
空 壓</w> 544
零 件</w> 544
kin a</w> 544
disp lay</w> 544
名 款</w> 543
菱 格</w> 543
u ter</w> 543
p each</w> 543
color ful</w> 543
盆 栽</w> 542
p a</w> 542
擺 設</w> 541
東 京</w> 541
精 美</w> 541
v ans</w> 541
紙 膠</w> 540
tt y</w> 540
保 留</w> 539
浴 巾</w> 539
dr ink</w> 539
網 布</w> 538
帶 蓋</w> 538
毛 毛</w> 538
時 鐘</w> 538
精 選</w> 538
g ers</w> 538
du ty</w> 538
glit ter</w> 538
新 年</w> 537
漁 夫 537
置 物</w> 537
e e 537
s w 537
m ani 537
z o 537
leg ends</w> 537
tur ban</w> 537
embroi dered</w> 537
aci d</w> 537
cardi gan</w> 537
金 剛</w> 536
桌 上</w> 536
勁 戰</w> 536
p ra 536
mon ey</w> 536
bar bie</w> 536
mari kina</w> 536
nur sing</w> 536
凝 膠</w> 535
j i</w> 535
ion s</w> 535
購 證</w> 534
k u</w> 534
th in</w> 534
sili con</w> 534
眼 睛</w> 533
次 性</w> 533
qu i 533
平 安</w> 532
頭 飾</w> 532
卡 龍</w> 532
濾 網</w> 532
li ke</w> 532
韓版 潮</w> 532
ap y</w> 532
bang le</w> 532
聯 盟</w> 531
天 堂</w> 531
l i</w> 531
ca m</w> 531
dra gon</w> 531
手 鐲</w> 530
四 角</w> 530
bi o 530
lov es</w> 530
bu il 530
vi o 530
蜜 蜂</w> 529
冷 氣</w> 529
s mi 529
bed sheet</w> 529
多 款</w> 528
原 版</w> 528
wh i 528
high waist</w> 528
發 光</w> 527
包 屁衣</w> 527
ch ing</w> 527
te red</w> 527
spa ghe 527
cross body</w> 527
美 妝</w> 526
高 幫</w> 526
an ti 526
co al</w> 526
ro se 526
ra di 526
hel met</w> 526
mang o</w> 526
一 次性</w> 525
帥 氣</w> 525
含 稅</w> 525
勿 下</w> 525
米 花</w> 525
t un 525
b lea 525
pa ste</w> 525
mas cara</w> 525
樂 園</w> 524
議 價</w> 524
v ol 524
re e</w> 524
貨 店</w> 523
海 綿</w> 523
m g</w> 523
bo wl</w> 523
fa mily</w> 523
prin ts</w> 523
cosme tic</w> 523
pul lo 523
掛 鐘</w> 522
立 領</w> 522
j ic</w> 522
li ps</w> 522
so s</w> 522
fi e</w> 522
ga p</w> 522
so lar</w> 521
fi la</w> 521
sna p</w> 521
文 藝</w> 520
一 字 520
愛 麗 519
不 用</w> 519
奶 嘴</w> 519
管 理</w> 519
ra cing</w> 519
pa in 519
ba se 518
fa u 518
te ch</w> 518
電 鍍</w> 517
fla v 517
hy dr 517
cera mic</w> 517
粉 餅</w> 516
熱 賣 516
泡 茶</w> 516
飲 料</w> 516
方 向</w> 516
洗 漱</w> 516
專 區</w> 516
珊 瑚</w> 516
v ari 516
ba sed</w> 516
el la</w> 516
bra cket</w> 516
go wn</w> 516
bre ath 516
spaghe tti</w> 516
故 事</w> 515
萬 聖 515
紅 米</w> 514
落 地 514
so le</w> 514
一 個</w> 513
料 理</w> 513
neo pre 513
花 卉</w> 512
詢 問</w> 512
吸 塵器</w> 512
雨 鞋</w> 512
ch e</w> 512
ko jic</w> 512
ce ment</w> 512
eri al</w> 512
shi p</w> 512
spo on</w> 512
相 框</w> 511
泡 沫</w> 511
週 年</w> 511
war s</w> 511
聚 攏</w> 510
紀 念</w> 510
g ga 510
al lo 510
fa ir 510
ta i 510
sho wer</w> 510
be st 510
remo te</w> 510
歡 迎</w> 509
st and 509
oo td</w> 509
neopre ne</w> 509
小 夜</w> 508
一 套</w> 508
滿 千 508
誘 惑</w> 508
sh ell</w> 508
cla ssy</w> 508
露 背</w> 507
廁 所</w> 507
s nail</w> 507
bo t 507
pu b 507
long champ</w> 507
萬聖 節</w> 507
氣 球</w> 506
爆 米花</w> 506
信 片</w> 506
麋 鹿</w> 506
y o</w> 506
min e</w> 506
音 樂 505
提 袋</w> 505
s co 505
d ers</w> 505
in ter 505
boo ts</w> 505
文 胸</w> 504
大 人</w> 504
裝 備</w> 504
蝙 蝠</w> 504
bla de</w> 504
oo d 504
cle an</w> 504
pand a</w> 504
滋 潤</w> 503
史 迪 503
ma id</w> 503
sli mming</w> 503
mu sic</w> 503
三 代</w> 502
可 用</w> 502
明 信片</w> 502
專 賣 502
f lu 502
ch ro 502
充電 式</w> 502
閨 蜜</w> 501
被 子</w> 501
ma ong</w> 501
dai ly</w> 501
pon y</w> 501
裝飾 畫</w> 501
自 由</w> 500
女 學生</w> 500
n or 500
b l</w> 500
free size</w> 500
花 架</w> 499
感 應</w> 499
出 售</w> 499
自 慰</w> 499
洗 面 499
買 二 499
lux ury</w> 499
咖啡 色</w> 499
特 大</w> 498
自 動 498
艦 店</w> 498
re tro</w> 498
wa ys</w> 498
貨 到</w> 497
玫 瑰 497
偶 像</w> 497
ja pane 497
jan sport</w> 497
三 合一</w> 496
維 修</w> 496
c ir 496
japane se</w> 496
小 屋</w> 495
平 口</w> 495
in ner</w> 495
耳 飾</w> 494
古 典</w> 494
拆 洗</w> 494
ti es</w> 494
mo on</w> 494
ani me</w> 494
pat tern</w> 494
鋼 彈</w> 493
瑞 士</w> 493
名 片</w> 493
嬰 幼兒</w> 492
室 外</w> 492
c c</w> 492
un der</w> 492
plu g</w> 492
cro ptop</w> 492
機 能</w> 491
鐵 藝 491
t it 491
ck ets</w> 491
stit ch</w> 491
排 汗</w> 490
飛 機</w> 490
pi g</w> 490
kne e</w> 490
買二 送</w> 490
皮 質</w> 489
膠 帶</w> 488
老 虎</w> 488
鑽 石</w> 488
ya ma 488
藝 品</w> 487
f lare</w> 487
an kle</w> 487
sli pper</w> 487
軟 底</w> 486
實 體</w> 486
打 火</w> 486
ch air</w> 486
su b 486
mag net</w> 486
黑 紅</w> 485
插 卡</w> 485
銷 款</w> 485
c lin 485
la ure 485
ssi on</w> 485
忍 者</w> 484
ky lie</w> 484
z oo 483
ho w</w> 483
prote ctive</w> 483
cti onal</w> 483
中國 風</w> 483
專賣 店</w> 483
國 際 482
白 金</w> 482
騎 行</w> 482
tu tu</w> 482
siz es</w> 482
vio let</w> 482
小 花</w> 481
毛 呢</w> 481
帳 篷</w> 481
背 椅</w> 481
踏 板</w> 481
酵 素</w> 481
g loves</w> 481
li es</w> 481
韓版 百</w> 481
dra w 481
lux xe</w> 481
sou veni 481
real me</w> 481
防 護</w> 480
烤 箱</w> 480
a c</w> 480
m c 480
vi sor</w> 480
ang el</w> 480
按摩 器</w> 480
卸 妝 479
ma ster</w> 479
bi shi</w> 479
con ce 479
床 單</w> 478
食 物</w> 478
鄉 村</w> 478
co un 478
por e</w> 478
sleep wear</w> 478
umb rella</w> 478
souveni r</w> 478
卡 丘</w> 477
s ol 477
t ar 477
t ea 477
ac ne</w> 477
ans i</w> 477
cloth ing</w> 477
粉 紅 476
清 洗</w> 476
數 字</w> 476
消 毒</w> 476
l t</w> 476
s so 476
t en</w> 476
rea d</w> 476
pe sos</w> 476
文 件</w> 475
幼 兒園</w> 475
car bon</w> 475
bea ds</w> 475
pu sh</w> 475
帆布 包</w> 475
conta ct</w> 475
萬 能</w> 474
in o</w> 474
水 龍頭</w> 473
美 人</w> 473
吊 牌</w> 473
car s</w> 473
wa ve</w> 473
zz le</w> 473
大 象</w> 472
l g</w> 472
p le 472
wa x</w> 472
kni t</w> 472
調 節</w> 471
allo y</w> 471
掛 鉤</w> 470
po lish</w> 470
no vo</w> 470
met al 470
blan ket</w> 470
粉 底 469
適 合</w> 469
帽 架</w> 469
鏡 面</w> 469
飼 料</w> 469
ti re</w> 469
al er</w> 469
檸 檬 468
s ci 468
皮 卡丘</w> 467
超 火</w> 467
衣 帽架</w> 467
離 子</w> 467
燈 飾</w> 467
旗 袍</w> 467
o pen</w> 467
car ri 467
zi p</w> 467
moun t</w> 467
書 籍</w> 466
鍵 盤</w> 466
庭 院</w> 466
硬 殼</w> 466
人 偶</w> 466
j o</w> 466
le tter</w> 466
te ens</w> 466
pre ss</w> 466
char coal</w> 466
卡 位</w> 465
抽 繩</w> 465
野 餐</w> 465
i con 465
短 襪</w> 464
mo ss</w> 464
so cket</w> 464
qu art 464
lux e</w> 464
保溫 杯</w> 464
au to</w> 463
bat man</w> 463
文 字</w> 462
靠 背椅</w> 462
二 次 462
櫃 子</w> 462
cle ar 462
stuff ed</w> 462
防 潮</w> 461
大 功率</w> 461
風 行</w> 461
床 頭 461
s f</w> 461
面 料</w> 460
p al 460
d ea 460
st er 460
高爾 夫</w> 460
波 浪</w> 459
潮 鞋</w> 459
磁 性</w> 459
h am 459
al co 459
quart z</w> 459
凱 蒂 458
m ansi</w> 458
le e</w> 458
家居 服</w> 458
一 年</w> 457
四 輪</w> 457
大 師</w> 456
轉 蛋</w> 456
午 休</w> 456
ja de</w> 456
台灣 現</w> 456
bag pack</w> 456
花 邊</w> 455
變 形</w> 455
fi sh</w> 455
onesi es</w> 455
耳 式</w> 454
fa ct 454
gi v 454
梳 妝 453
bo u 453
col lar</w> 453
紋 身</w> 452
霧 面</w> 452
宅 配</w> 452
c it 452
r x</w> 452
ra in</w> 452
ra shguard</w> 452
ste m</w> 452
史迪 奇</w> 452
腳 架</w> 451
牙 膏</w> 451
pa ct</w> 451
ear phones</w> 451
treat ment</w> 451
壁 畫</w> 450
春 裝</w> 450
控 器</w> 450
投 影</w> 450
re pair</w> 450
st ure</w> 450
for d</w> 450
cand le</w> 450
夾 子</w> 449
九 成新</w> 449
e u 449
en ser</w> 449
se a</w> 449
ca ps</w> 449
su pre 449
pl ant</w> 449
鞋 櫃</w> 448
全 包 448
v al 448
in nis 448
an y</w> 448
le br 448
el lo</w> 448
be ige</w> 448
電視 柜</w> 448
yama ha</w> 448
施 華 447
密 碼</w> 447
p al</w> 447
er o</w> 447
fun ctional</w> 447
breath able</w> 447
附 購證</w> 446
高 領</w> 446
好 市</w> 446
肩 背</w> 446
衛 生</w> 446
睡 眠</w> 446
w a</w> 446
k le 446
so o 446
wi de</w> 446
va pe</w> 446
褲 裙</w> 445
調 料</w> 445
餐 桌椅</w> 445
char ge</w> 445
mer maid</w> 445
repla cement</w> 445
innis free</w> 445
布 料</w> 444
爆 品</w> 444
浮 雕</w> 444
赫 拉</w> 444
g th</w> 444
p un 444
gam es</w> 444
infin ity</w> 444
三 折</w> 443
e gg</w> 443
pa per 443
ne o</w> 443
fla sh 443
colle cti 443
dro p</w> 443
face mask</w> 443
地 板</w> 442
顯 示</w> 442
把 手</w> 442
筷 子</w> 442
悟 空</w> 442
e tu 442
f um</w> 442
app ro 442
水 槽</w> 441
扮 演</w> 441
te x</w> 441
we st</w> 441
運動 休</w> 441
gu n</w> 441
tab let</w> 441
whe el</w> 441
配 方</w> 440
表 演</w> 440
洗 手 440
fe ed 440
玫瑰 花</w> 440
凱蒂 貓</w> 440
鏡 片</w> 439
b ble</w> 439
te en</w> 439
for ce</w> 439
pat ch</w> 439
smo o 439
mbo o</w> 439
價 格</w> 438
范 思哲</w> 438
n inten 438
e la 438
s or 438
ro om</w> 438
alo g</w> 438
lun ch</w> 438
uni q 437
gol den</w> 437
roy al</w> 437
耐 用</w> 436
開 口</w> 436
鉛 筆</w> 436
z u 436
re gular</w> 436
ba mboo</w> 436
水 管</w> 435
工 程</w> 435
韓 風</w> 435
最 低</w> 435
ba se</w> 435
so lid</w> 435
lin er</w> 435
supp ort</w> 435
spon ge</w> 435
保 養</w> 434
六 角</w> 434
七 彩</w> 434
i s 434
dis k</w> 434
aven gers</w> 434
mira cle</w> 434
ninten do</w> 434
手 柄</w> 433
遊 戲 433
贈 品</w> 433
吸 盤</w> 433
早 餐</w> 433
ba ll 433
pa pa 433
手機 套</w> 433
bel l</w> 433
大 包</w> 432
d ry 432
mo squ 432
cro wn</w> 432
ori g</w> 432
精華 液</w> 432
past el</w> 432
日 貨</w> 431
mo ther</w> 431
ve st</w> 431
base ball</w> 431
metal lic</w> 431
uniq lo</w> 431
亞 克力</w> 430
線 器</w> 430
絨 毛</w> 430
除 臭</w> 430
衛 浴</w> 430
冰 雪</w> 430
an alog</w> 430
li pp 430
ck ed</w> 430
ea n</w> 430
te l</w> 430
bu tter</w> 430
par fum</w> 430
平 角</w> 429
官 網</w> 429
pa dded</w> 429
lu min 429
ea sy</w> 429
pp er 429
旅行 箱</w> 429
安德 瑪</w> 429
feed ing</w> 429
超 低</w> 428
黏 土</w> 428
k ong</w> 428
st a</w> 428
le g</w> 428
de o 428
cu s</w> 428
may bel 428
etu de</w> 428
腳 褲</w> 427
可 開</w> 427
k pop</w> 427
draw string</w> 427
粉底 液</w> 427
插 座</w> 426
se ts</w> 426
bu cks</w> 426
gu it 426
stra w 426
bri ef</w> 426
書 柜</w> 425
女 友</w> 425
分 裝</w> 425
襪 套</w> 425
售 出</w> 425
sh es</w> 425
le novo</w> 425
me li 425
wor k</w> 425
win dow</w> 425
絲 襪</w> 424
寶 貝 424
婚 紗</w> 424
任 選</w> 424
旅 遊</w> 424
e ver 424
ar ti 424
電動 車</w> 424
二次 元</w> 424
大 門</w> 423
毛 球</w> 423
n ed</w> 423
e p 423
t al 423
to u 423
to o</w> 423
bo y 423
dol ph 423
stre et</w> 423
設計 師</w> 423
icon ic</w> 423
男 女生</w> 422
夾 式</w> 422
自 取</w> 422
女 式</w> 422
磁 鐵</w> 422
ba king</w> 422
jo y</w> 422
皮 包</w> 421
優 雅 421
a h</w> 421
r are</w> 421
v ir 421
du st</w> 421
清 爽</w> 420
台 風行</w> 420
輸 線</w> 420
n ar 420
m ed</w> 420
絲 絨</w> 419
v s</w> 419
p ig 419
ba lan 419
bo ss</w> 419
pp e</w> 419
cro cs</w> 419
工 裝</w> 418
c in 418
g in 418
v ani 418
s coo 418
b i</w> 418
wa shi</w> 418
sig nature</w> 418
小 豬</w> 417
含 運</w> 417
曼 尼</w> 417
滑 液</w> 417
t t</w> 417
in clu 417
si m</w> 417
ce i 417
pu ff</w> 417
va len 417
glo ssy</w> 417
deli very</w> 417
四 色</w> 416
a z 416
r m</w> 416
y ear</w> 416
sp ir 416
休閒 長</w> 416
sli t</w> 416
mosqu ito</w> 416
英 倫</w> 415
編 號</w> 415
調 味 415
桌 布</w> 415
an a 415
er e</w> 415
ho l</w> 415
ballo ons</w> 415
pub lic</w> 415
定 做</w> 414
地 墊</w> 414
包 單</w> 414
天 天</w> 414
c ru 414
ra l 414
po ke 414
mar k</w> 414
pe el 414
美 女</w> 413
枕 套</w> 413
賽 斯</w> 413
深 層</w> 413
her bal</w> 413
花 瓶</w> 412
薄 荷</w> 412
餅 乾</w> 412
li n</w> 412
to mmy</w> 412
pa m 412
ta sse 412
desig ns</w> 412
英倫 風</w> 412
carri er</w> 412
m tg</w> 411
k at 411
古 風</w> 410
骷 髏</w> 410
te c</w> 410
bri lli 410
jump short</w> 410
生 堂</w> 409
瑜 珈</w> 409
a g 409
f y</w> 409
mi s 409
小 羊皮</w> 408
有 線</w> 408
全 家</w> 408
漆 皮</w> 408
b le 408
f s</w> 408
ro moss</w> 408
glo ss</w> 408
會 議</w> 407
電 子 407
棉 衣</w> 407
同 步</w> 407
畢 業</w> 407
T M</w> 407
e va</w> 407
sp ande 407
ali ba 407
耳 夾</w> 406
套 組</w> 406
耐 吉 406
棉 花</w> 406
事 包</w> 406
n max</w> 406
g ne</w> 406
sh u 406
me mor 406
壓 花</w> 405
纖 維 405
低 價</w> 405
re public</w> 405
ch ri 405
ga s</w> 405
nu de</w> 405
glu ta 405
spande x</w> 405
公 事包</w> 404
o ver</w> 404
g le</w> 404
s wa 404
b are</w> 404
bo ho</w> 404
gen t</w> 404
電腦 椅</w> 404
公 升</w> 403
m el 403
mo s</w> 403
出 清 402
定 版</w> 402
原 木</w> 402
giv ea 402
straw berry</w> 402
自 己</w> 401
限 定版</w> 401
春 夏季</w> 401
吊 墜</w> 401
瀝 水 401
a e 401
in fla 401
blo sso 401
收 腰</w> 400
丁 靴</w> 400
牛 仔 400
o d</w> 400
disp enser</w> 400
sat in</w> 400
laure n</w> 400
電 話</w> 399
工 業 399
當 盒</w> 399
洞 洞</w> 399
飛 利 399
y rs</w> 399
an ello</w> 399
to e</w> 399
po ster</w> 399
el f</w> 399
sal t</w> 399
絲 巾</w> 398
商 店</w> 398
晚 宴</w> 398
橘 色</w> 398
lo r</w> 398
fi ll</w> 398
pi o</w> 398
wa shing</w> 398
cy c 398
fair y</w> 398
防 油</w> 397
筆 電</w> 397
能 量</w> 397
袖 套</w> 397
侶 裝</w> 397
lo w 397
百搭 款</w> 397
moi sture</w> 397
aven t</w> 397
maybel line</w> 397
壓 紋</w> 396
婚 禮 396
成 品</w> 396
寵 物 396
避 震</w> 396
tt ing</w> 396
ten ing</w> 396
太陽 能</w> 396
alco hol</w> 396
一 腳</w> 395
奇 緣</w> 395
超 商</w> 395
另 有</w> 395
寢 室</w> 395
ma sk 395
ni a</w> 395
指甲 油</w> 395
chro me</w> 395
poke mon</w> 395
口 水</w> 394
皇 冠</w> 394
二 合一</w> 394
繪 本</w> 394
雕 刻</w> 394
er a 394
it h</w> 394
en g</w> 394
we ight</w> 394
mar y</w> 394
hand made</w> 394
佛 牌</w> 393
耳 朵</w> 393
淺 口</w> 393
棕 色</w> 393
she ets</w> 393
star bucks</w> 393
guit ar</w> 393
aliba ba</w> 393
龍 貓</w> 392
貝 殼 392
匡 威</w> 392
s p</w> 392
f ine</w> 392
sp f</w> 392
va cu 392
深 藍色</w> 391
蚊 帳</w> 391
蔬 菜</w> 391
h ood</w> 391
w rist 391
pro mo</w> 391
運動 長</w> 391
light ning</w> 391
落地 式</w> 391
supre me</w> 391
翻 蓋 390
蠟 筆</w> 390
商務 休</w> 390
雙 頭</w> 389
護 理</w> 389
服 裝店</w> 389
a ma 389
lon e</w> 389
bri ght</w> 389
一 般</w> 388
電 器</w> 388
孩 子</w> 388
低 幫</w> 388
刷 卡</w> 388
靴 子</w> 388
an ne</w> 388
vi e 388
mar c</w> 388
sand al</w> 388
ex tra 388
玻璃 杯</w> 388
小香 風</w> 388
dolph in</w> 388
法 蘭 387
中 號</w> 387
女 王</w> 387
賽 車</w> 387
專 業 387
照 明</w> 387
in stant</w> 387
au gh 387
stu ff</w> 387
glu e</w> 387
af for 387
門 廳</w> 386
茶 壺</w> 386
電 磁 386
色 扮演</w> 386
新 版</w> 386
角 色扮演</w> 386
po ol</w> 386
ve lo 386
ther apy</w> 386
優惠 價</w> 386
宜 家</w> 385
資 生堂</w> 385
li a</w> 385
for m</w> 385
sy n 385
snea ker</w> 385
pullo ver</w> 385
壁 燈</w> 384
at es</w> 384
se am 384
mi di</w> 384
sha p 384
jo h 384
vit a</w> 384
美樂 蒂</w> 384
漁夫 帽</w> 384
zoo m</w> 384
vacu um</w> 384
防 潑</w> 383
特 別</w> 383
超 長</w> 383
圖 騰</w> 383
d al</w> 383
k ed</w> 383
de ca 383
stre tch</w> 383
win ter</w> 383
男 用</w> 382
情 侶裝</w> 382
大 牌</w> 382
樹 脂</w> 382
d dy</w> 382
k es</w> 382
lu gga 382
ed t</w> 382
gar den</w> 382
memor y</w> 382
克 斯</w> 381
壁 紙</w> 381
顯 瘦 381
城 市</w> 381
買 家</w> 381
b sco</w> 381
su e 381
wo ven</w> 381
pp le</w> 381
swe at 381
ameri can</w> 381
福 袋</w> 380
膠 囊</w> 380
電 筒</w> 380
媽 咪</w> 380
洗 臉</w> 380
k ing 380
in i</w> 380
du o</w> 380
bul b</w> 380
健身 器材</w> 380
低 音</w> 379
st ation</w> 379
ba thro 379
elect ron 379
lugga ge</w> 379
小 可</w> 378
熱 銷款</w> 378
奢 華</w> 378
雕 花</w> 378
認 證</w> 378
现 货</w> 378
ca sh</w> 378
be e</w> 378
gar i</w> 378
sca le</w> 378
可 議價</w> 377
四 件</w> 377
sk i</w> 377
box er</w> 377
toi lette</w> 377
tasse l</w> 377
seam less</w> 377
茶 桌</w> 376
卡 其</w> 376
高 雄</w> 376
時 間</w> 376
len t</w> 376
mou fla 376
店 面</w> 375
流 蘇 375
米 家</w> 375
b v 375
it em</w> 375
化妝 水</w> 375
hoo k</w> 375
fan ta 375
一字 領</w> 375
clear ance</w> 375
電 風扇</w> 374
冬 天</w> 374
尿 布</w> 374
la sting</w> 374
da vi 374
ni es</w> 374
一 起</w> 373
銀 針</w> 373
哈 倫 373
棉 褲</w> 373
r h 373
f inger</w> 373
re u 373
stat ion 373
comb o</w> 373
whe els</w> 373
有 機</w> 372
余 文 372
懷 舊</w> 371
海 邊</w> 371
單 品</w> 371
角 質</w> 371
仿 古</w> 371
尿 酸</w> 371
招 財 371
w ri 371
co con 371
ne l</w> 371
stra w</w> 371
tat tered</w> 371
高 溫</w> 370
四 代</w> 370
m me</w> 370
la p</w> 370
el ite</w> 370
ki a</w> 370
ben e 370
flav or</w> 370
螢 光</w> 369
粉 底</w> 369
屏 風</w> 369
商 城</w> 369
卡 娜</w> 369
洛 世 369
足 球</w> 369
n ity</w> 369
ba by 369
pu zzle</w> 369
飛利 浦</w> 369
攝 影 368
n i</w> 368
e ffe 368
po ly 368
me ga</w> 368
do ts</w> 368
swi mming</w> 368
cre ative</w> 368
配 飾</w> 367
記 憶 367
淑 女</w> 367
漸 層</w> 367
x t</w> 367
ar my</w> 367
ro t 367
te e 367
car tri 367
ey el 367
pe e</w> 367
mit su 367
cyc ling</w> 367
sue de</w> 367
水 瓶</w> 366
東 大門</w> 366
甜 甜</w> 366
w et</w> 366
v ai 366
an na</w> 366
sk y</w> 366
mat ion</w> 366
comp uter</w> 366
一 次</w> 365
閒 鞋</w> 365
衣 草</w> 365
開 車</w> 365
au dio</w> 365
lip tint</w> 365
mor e</w> 365
咖啡 杯</w> 365
空 運</w> 364
方 巾</w> 364
飄 窗</w> 364
s now</w> 364
ch u 364
hea t</w> 364
acti v 364
熱賣 款</w> 364
moufla ge</w> 364
香 皂</w> 363
薰 衣草</w> 363
la tor</w> 363
hu b</w> 363
ex o</w> 363
tab lets</w> 363
capsu le</w> 363
stand ard</w> 363
cocon ut</w> 363
黑 金</w> 362
輕 薄</w> 362
版 本</w> 362
圓 頭</w> 362
選 擇</w> 362
魅 力</w> 362
吸 汗</w> 362
團 購</w> 362
趣 味</w> 362
蜂 蜜</w> 362
p y</w> 362
mi ya</w> 362
bu cket</w> 362
保鮮 盒</w> 362
一 代</w> 361
女 夏</w> 361
桃 紅</w> 361
濕 器</w> 361
ri e</w> 361
tri pod</w> 361
工作 服</w> 361
op ti 361
北歐 風</w> 361
produ cts</w> 361
變 色</w> 360
中 大童</w> 360
皇 家</w> 360
賓 士</w> 360
s i</w> 360
si zed</w> 360
ki ss</w> 360
leg it</w> 360
massa ge</w> 360
meli ssa</w> 360
affor dable</w> 360
electron ic</w> 360
蛋 黃 359
海 軍 359
泰 迪 359
快 充</w> 359
i es</w> 359
s d 359
re li 359
st rea 359
ch i</w> 359
pa irs</w> 359
sti cks</w> 359
head phones</w> 359
cho co</w> 359
reu sable</w> 359
套 餐</w> 358
包 手</w> 358
拆 卸</w> 358
人 體</w> 358
鉚 釘</w> 358
d augh 358
bi cycle</w> 358
head phone</w> 358
貝殼 頭</w> 358
保 險 357
粉 紅色</w> 357
養 生</w> 357
舒 緩</w> 357
細 肩</w> 357
記 憶</w> 357
第 一</w> 357
淇 淋</w> 357
i m 357
ch el</w> 357
ja ck</w> 357
com b</w> 357
西 裝 356
b un 356
au th</w> 356
ja co 356
yo ung</w> 356
foo t 356
清潔 劑</w> 356
exten sion</w> 356
blosso m</w> 356
英 國 355
一 盒</w> 355
美 容 355
高 速</w> 355
湯 匙</w> 355
u p 355
th ree</w> 355
ligh ter</w> 355
won der</w> 355
全 皮</w> 354
en d 354
ra m</w> 354
so lution</w> 354
sk y 354
do m</w> 354
clo ck</w> 354
dis c</w> 354
lea f</w> 354
acti ve</w> 354
余文 樂</w> 354
溫 泉</w> 353
陽 台</w> 353
科 比</w> 353
釣 具</w> 353
密 斯</w> 353
傳 輸線</w> 353
簽 名</w> 353
in ing</w> 353
in di 353
ul tra 353
mu sc 353
hi l 353
can on</w> 353
vo lu 353
i zed</w> 352
ma ka 352
el y</w> 352
mi cs</w> 352
soo thing</w> 352
ral ph</w> 352
室 內</w> 351
上 架</w> 351
閱 讀</w> 351
ul ti 351
mp ing</w> 351
tren d</w> 351
conce aler</w> 351
系 帶</w> 350
手 帳</w> 350
中 古</w> 350
掛 架</w> 350
公 路</w> 350
嘻 哈</w> 350
漢 服</w> 350
早 教</w> 350
繽 紛</w> 350
設 備</w> 350
m x</w> 350
pre s 350
bi ble</w> 350
sy stem</w> 350
supp lies</w> 350
scar f</w> 350
練 習</w> 349
布 鞋</w> 349
門 簾</w> 349
當 天</w> 349
首 選</w> 349
專 櫃 349
x a</w> 349
an as</w> 349
ra i 349
ck le</w> 349
ju st</w> 349
gra m</w> 349
mon o</w> 349
out fit</w> 349
阿瑪 尼 349
conta iner</w> 349
comfor table</w> 349
eyel iner</w> 349
隔 板</w> 348
腕 表</w> 348
mi d</w> 348
sa w</w> 348
sta in</w> 348
bur berry</w> 348
施華 洛世 348
高 鞋</w> 347
潘 朵 347
米 白</w> 347
b ears</w> 347
in vit 347
to p 347
to ur</w> 347
tra y</w> 347
百搭 時</w> 347
hel lo 347
star ter</w> 347
vani lla</w> 347
潘朵 拉</w> 347
花 花</w> 346
時 光</w> 346
史 密斯</w> 346
时 尚</w> 346
f er</w> 346
ch y</w> 346
ch a</w> 346
su e</w> 346
vi a</w> 346
bri gh 346
自 拍</w> 345
獨 角 345
莫 代 345
n igh 345
i e</w> 345
m m</w> 345
m b</w> 345
ba ss</w> 345
cap tain</w> 345
pack aging</w> 345
flow ers</w> 345
男 友</w> 344
掛 繩</w> 344
紙 袋</w> 344
o pen 344
v ac 344
at s</w> 344
bu bble</w> 344
sma x</w> 344
sel fie</w> 344
spi der 344
dri ll</w> 344
tooth paste</w> 344
daugh ter</w> 344
老 鼠</w> 343
床 上 343
凡 賽斯</w> 343
st le</w> 343
st ru 343
le tt 343
ca mouflage</w> 343
to mat 343
plu m</w> 343
sof t 343
cartri dge</w> 343
床上 用品</w> 343
花 紋</w> 342
園 藝</w> 342
工 具 342
波 士</w> 342
貼 片</w> 342
人 物</w> 342
re fill</w> 342
la ser</w> 342
sty lish</w> 342
bott les</w> 342
papa ya</w> 342
新 貨</w> 341
筆 記</w> 341
領 長</w> 341
塗 鴉</w> 341
起 子</w> 341
e du 341
m r</w> 341
pi pe</w> 341
pla id</w> 341
con ne 341
man ual</w> 341
荷葉 邊</w> 341
手 繪</w> 340
特 殊</w> 340
荷 葉</w> 340
戴 式</w> 340
越 野</w> 340
j en 340
in ci 340
an ces</w> 340
at in</w> 340
ta miya</w> 340
dr i</w> 340
fact ory</w> 340
布 丁</w> 339
出 貨 339
盤 格</w> 339
春 秋季</w> 339
周 年</w> 339
月 亮</w> 339
箱 子</w> 339
緩 震</w> 339
到 貨</w> 339
m sm</w> 339
we e 339
mou r</w> 339
gr and</w> 339
洗面 乳</w> 339
小 眾</w> 338
透 視</w> 338
女 長</w> 338
亮 面</w> 338
包 袋</w> 338
姆 斯</w> 338
魯 夫</w> 338
o x 338
a sh 338
ro ck</w> 338
ra dio</w> 338
char ms</w> 338
yo ga</w> 338
flash light</w> 338
手 把</w> 337
奢 華 337
盤 子</w> 337
增 高鞋</w> 337
台 南</w> 337
倉 庫</w> 337
f old</w> 337
se ed</w> 337
ro pe</w> 337
ch ine 337
美容 院</w> 337
maka pal</w> 337
水 機</w> 336
乳 膠</w> 336
廣 告</w> 336
資 料</w> 336
現貨 出</w> 336
smar t 336
小 茶</w> 335
寶 格 335
韓 妞</w> 335
海 灘</w> 335
羽 毛</w> 335
分 體</w> 335
扶 手</w> 335
仇 者</w> 335
lu s</w> 335
pre tty</w> 335
gu e</w> 335
blo cks</w> 335
tooth brush</w> 335
大 戰</w> 334
全 球</w> 334
特 典</w> 334
家 家</w> 334
灰 白</w> 334
超 強</w> 334
陀 螺</w> 334
近 視</w> 334
a re 334
d ent</w> 334
ri pped</w> 334
po ds</w> 334
sta y</w> 334
ja r</w> 334
spor ty</w> 334
化妝 鏡</w> 334
ker atin</w> 334
美 少女</w> 333
慰 器</w> 333
p o</w> 333
x und 333
co ordin 333
gen er 333
tur tle</w> 333
bask et</w> 333
produ ct</w> 333
dv d</w> 333
mitsu bishi</w> 333
inci pio</w> 333
溫 馨</w> 332
合 售</w> 332
一 對</w> 332
卡 套</w> 332
葡 萄 332
b el</w> 332
co ver 332
ha y</w> 332
gy m</w> 332
bv l 332
xund d</w> 332
光 燈</w> 331
膚 色</w> 331
馬 桶</w> 331
鋼 琴</w> 331
包 頭</w> 331
研 磨</w> 331
紙 巾 331
x xl</w> 331
se i 331
tri bal</w> 331
bot tom</w> 331
戰 靴</w> 330
h dmi</w> 330
el le</w> 330
sho ppe</w> 330
men ts</w> 330
百搭 休</w> 330
銀 飾</w> 329
檸 檬</w> 329
舞 蹈</w> 329
木 工</w> 329
雜 物</w> 329
隔 熱</w> 329
過 敏</w> 329
走 廊</w> 329
睡 裙</w> 329
b new</w> 329
mo m</w> 329
cu p 329
cer ity</w> 329
blen d</w> 329
自 慰器</w> 328
用 具</w> 328
據 線</w> 328
刻 字</w> 328
t su 328
f ur 328
bo b</w> 328
sp a</w> 328
eri e</w> 328
der m</w> 328
twi ce</w> 328
kni fe</w> 328
施華洛世 奇</w> 328
貼 布</w> 327
本 田</w> 327
o v 327
g b</w> 327
b ear 327
貔 貅</w> 327
co co</w> 327
min er 327
cha mp 327
ameri ca</w> 327
腳踏 車</w> 327
獨角 獸</w> 327
超 高</w> 326
豹 紋</w> 326
哺 乳</w> 326
a ce</w> 326
f ire</w> 326
in es</w> 326
sho pee</w> 326
da ys</w> 326
do t</w> 326
ha vai 326
ve ge 326
appro x</w> 326
spider man</w> 326
chine se</w> 326
bvl gari</w> 326
奶 粉</w> 325
星 球</w> 325
p ly</w> 325
ba y 325
pa s 325
gri ll</w> 325
fle x</w> 325
pam ba 325
蛋黃 哥</w> 325
熊 貓</w> 324
極 度</w> 324
便 利</w> 324
人 生</w> 324
活 力</w> 324
延 長</w> 324
h tp</w> 324
p ti 324
ca ses</w> 324
sa k 324
stra ight</w> 324
mul a</w> 324
over lap</w> 324
kle in</w> 324
封 口</w> 323
兄 弟</w> 323
g al 323
d an 323
on a</w> 323
ti ger</w> 323
gar ter 323
ssen ger</w> 323
comb in 323
decor ation</w> 323
mis sha</w> 323
havai anas</w> 323
大 方</w> 322
產 品</w> 322
毛 膏</w> 322
托 盤</w> 322
魚 子</w> 322
速 發</w> 322
掌 氣</w> 322
入 耳式</w> 322
緬 甸 322
n am 322
p back</w> 322
b ru 322
car go</w> 322
gu i 322
ben ch</w> 322
clean ing</w> 322
sw eat</w> 322
一 體 321
好 看</w> 321
拖 把</w> 321
軟 膠</w> 321
x smax</w> 321
k not</w> 321
po li 321
pre st 321
vi br 321
flo or</w> 321
pri mer</w> 321
ten er</w> 321
son ic</w> 321
ry x</w> 321
har ry</w> 321
拼 裝</w> 320
整 套</w> 320
線 條</w> 320
縮 口</w> 320
油 畫</w> 320
搖 椅</w> 320
訓 練 320
la ven 320
ni ce</w> 320
化妝 桌</w> 320
hello kitty</w> 320
防 震</w> 319
微 型</w> 319
d ang 319
re ct 319
sh ed</w> 319
bo s 319
for mula</w> 319
hu mi 319
prote ct</w> 319
nu t</w> 319
peel ing</w> 319
brilli ant</w> 319
tomat o</w> 319
laven der</w> 319
鋼 化 318
女 潮</w> 318
鬼 滅</w> 318
資 料 318
re f</w> 318
st r 318
st ea 318
boo st</w> 318
ban ana</w> 318
sleep ing</w> 318
station ery</w> 318
花 茶</w> 317
可 可</w> 317
火 爆</w> 317
筆 電 317
原 味</w> 317
a ha</w> 317
b l 317
f ly 317
ma c 317
pro je 317
cro pped</w> 317
infla table</w> 317
潔 面</w> 316
布 置</w> 316
風 口</w> 316
毛 毯</w> 316
衣 櫥</w> 316
親 子 316
琉 璃</w> 316
人 字 316
鬧 鐘</w> 316
別 墅</w> 316
di sh</w> 316
wi red</w> 316
pe el</w> 316
hi m</w> 316
stor y</w> 316
mol y</w> 316
合 身</w> 315
美 妝 315
尚 百搭</w> 315
好 物</w> 315
米 色</w> 315
客 服</w> 315
p p</w> 315
f al 315
sau ce</w> 315
國際 牌</w> 315
耐 熱</w> 314
防 爆</w> 314
三 角 314
游 泳衣</w> 314
桃 園</w> 314
冰 淇淋</w> 314
丸 子</w> 314
重 低音</w> 314
面 板</w> 314
j u</w> 314
le ar 314
te ch 314
beau ti 314
辦公 椅</w> 314
小 圓 313
台 式</w> 313
人 魚</w> 313
草 本</w> 313
榨 汁</w> 313
co d 313
at ions</w> 313
di al</w> 313
gg le</w> 313
電磁 爐</w> 313
musc le</w> 313
網 路</w> 312
防 護 312
防 盜</w> 312
上 下</w> 312
蜜 粉</w> 312
港 風</w> 312
任 天堂</w> 312
秘 密</w> 312
扳 手</w> 312
g oo 312
y i</w> 312
mi ss</w> 312
so und</w> 312
colo gne</w> 312
spa ce</w> 312
contro ller</w> 312
bathro om</w> 312
意 大利</w> 311
漫 威</w> 311
專 賣</w> 311
飯 盒</w> 311
ca st</w> 311
ma lone</w> 311
tre me</w> 311
tor y</w> 311
愛麗 絲</w> 311
鋼化 膜</w> 311
附 購</w> 310
樂 購</w> 310
立 牌</w> 310
輪 胎</w> 310
數 碼</w> 310
津 布</w> 310
t b</w> 310
in t 310
wri st</w> 310
皮 面</w> 309
一 號</w> 309
夾 腳</w> 309
鋼 鐵 309
用 途</w> 309
汽 車 309
只 有</w> 309
過 道</w> 309
牛 津布</w> 309
j a</w> 309
en er 309
se n</w> 309
ra b 309
ko be</w> 309
tri ple</w> 309
沐浴 露</w> 309
時 代</w> 308
芳 香</w> 308
e co</w> 308
de sk 308
de sk</w> 308
te st</w> 308
me lon</w> 308
lea ves</w> 308
essenti als</w> 308
光 療</w> 307
袋 子</w> 307
示 器</w> 307
h un 307
p ling</w> 307
tw in 307
hoo ded</w> 307
nu mber</w> 307
rain coat</w> 307
ela stic</w> 307
雷 射</w> 306
水 滴</w> 306
點 心</w> 306
貨 架</w> 306
滿 額</w> 306
超 市</w> 306
酒 杯</w> 306
綜 合</w> 306
人 氣</w> 306
o tg</w> 306
di fier</w> 306
ol a</w> 306
wat ches</w> 306
vi sion</w> 306
mat er 306
元 素</w> 305
家 族</w> 305
超 美</w> 305
未 來</w> 305
a a</w> 305
w ren 305
po tter</w> 305
dri fit</w> 305
大 學生</w> 304
美 背</w> 304
書 櫃</w> 304
甜 心</w> 304
l le</w> 304
l ers</w> 304
o live</w> 304
p t</w> 304
do ve</w> 304
lan e 304
dri ver</w> 304
hang er</w> 304
lebr on</w> 304
阿 甘 303
電 源 303
王 子</w> 303
閃 亮</w> 303
涼 感</w> 303
y ar 303
or e</w> 303
de cal</w> 303
con ver 303
for k</w> 303
natu ra 303
sou l</w> 303
cra ft</w> 303
哈倫 褲</w> 303
高 中</w> 302
內 飾</w> 302
櫻 桃</w> 302
冰 絲 302
天 星</w> 302
制 作</w> 302
早 春</w> 302
面 霜</w> 302
換 器</w> 302
搶 購</w> 302
入 門</w> 302
c ent</w> 302
o i 302
r c</w> 302
st amp</w> 302
na me</w> 302
ff y</w> 302
cho ker</w> 302
blea ching</w> 302
書 店</w> 301
之 刃</w> 301
餐 盒</w> 301
蠶 絲</w> 301
洗 車</w> 301
租 房</w> 301
g i</w> 301
j bl</w> 301
li on</w> 301
swi m</w> 301
網紅 款</w> 301
supp le 301
micro fiber</w> 301
ure s</w> 301
massa ger</w> 301
smoo th</w> 301
rh ine 301
jaco bs</w> 301
電 壓</w> 300
不 規則</w> 300
外 貿</w> 300
廁 所 300
售 完</w> 300
晾 衣架</w> 300
la tion</w> 300
ci ous</w> 300
par t</w> 300
dd le</w> 300
歐美 風</w> 300
pra da</w> 300
rose gold</w> 300
balan ce</w> 300
白 黑</w> 299
奇 奇</w> 299
步 鞋</w> 299
pa cks</w> 299
ck en</w> 299
mo der 299
wor k 299
儲物 櫃</w> 299
眼 霜</w> 298
裝 女</w> 298
香 蕉</w> 298
老 帽</w> 298
skin cerity</w> 298
ky rie</w> 298
aero x</w> 298
膠 原</w> 297
黑 武士</w> 297
棋 盤格</w> 297
提 亮</w> 297
壓 器</w> 297
寄 出</w> 297
幫 鞋</w> 297
基 礎</w> 297
i sh</w> 297
p el 297
ma gical</w> 297
po in 297
sa fe</w> 297
pri vac 297
scen ted</w> 297
寶格 麗</w> 297
lane ige</w> 297
privac y</w> 297
手 感</w> 296
黑 灰</w> 296
老 師</w> 296
金 標</w> 296
激 光</w> 296
職 業</w> 296
紋 長</w> 296
下 殺</w> 296
最 愛</w> 296
坐 墊</w> 296
ca bin 296
he mi 296
mon it 296
jo y 296
high lighter</w> 296
cabin et</w> 296
手 包</w> 295
護 膚</w> 295
工 藝品</w> 295
好 貨</w> 295
女 子</w> 295
窗 簾 295
胸 針</w> 295
h s</w> 295
e x</w> 295
s and</w> 295
ne on</w> 295
ing er 295
sun nies</w> 295
ho t 295
sha de</w> 295
cli ps</w> 295
vie w</w> 295
sak ura</w> 295
wren ch</w> 295
之 家</w> 294
空 軍 294
收 腹</w> 294
山 地</w> 294
ban ner</w> 294
雙人 床</w> 294
水 族</w> 293
多 用途</w> 293
營 養</w> 293
品 店</w> 293
洗 碗</w> 293
批 發 293
g shock</w> 293
mb o</w> 293
stra igh 293
ab sor 293
deo dor 293
mask s</w> 293
rab bit</w> 293
露 肩</w> 292
燒 烤</w> 292
螺 絲 292
胸 罩</w> 292
宇 宙</w> 292
稀 有</w> 292
f ran 292
si mp 292
de luxe</w> 292
vi deo</w> 292
hel d</w> 292
沐浴 乳</w> 292
工業 風</w> 292
法蘭 絨</w> 292
水 晶 291
中 老 291
果 凍</w> 291
高 質</w> 291
二 件</w> 291
唯 美</w> 291
酒 柜</w> 291
伴 娘</w> 291
i os</w> 291
a min 291
y ing</w> 291
le x</w> 291
ch opp 291
br on 291
clo u 291
fri end</w> 291
sat chel</w> 291
chri sti 291
mater nity</w> 291
系 統</w> 290
手 串</w> 290
視 鏡</w> 290
窗 戶</w> 290
預 購 290
便 器</w> 290
棉 布</w> 290
怪 獸</w> 290
so phi 290
mp s</w> 290
ine ss</w> 290
fragr ances</w> 290
humi difier</w> 290
套 裝 289
無 毒</w> 289
學 園</w> 289
森 系</w> 289
數 據線</w> 289
負 離子</w> 289
武 器</w> 289
e th 289
mi d 289
head light</w> 289
pack ed</w> 289
az tec</w> 289
volu me</w> 289
男 式</w> 288
版 型</w> 288
萬 寶 288
進 門</w> 288
o es</w> 288
z el</w> 288
f m</w> 288
bo hemi 288
sa chet</w> 288
no se</w> 288
multi functional</w> 288
coordin ates</w> 288
安 撫</w> 287
飯 店</w> 287
lo gy</w> 287
li zer</w> 287
ck ing</w> 287
cu ps</w> 287
ho li 287
pu ma</w> 287
cup cake</w> 287
deodor ant</w> 287
絲 光</w> 286
藍 白</w> 286
中 型</w> 286
火 鍋</w> 286
刺 激</w> 286
微 笑</w> 286
第 二</w> 286
繁 體</w> 286
ar i</w> 286
se qu 286
pu ri 286
ster ling</w> 286
主 播</w> 285
切 割</w> 285
防 臭</w> 285
毛 巾 285
百 貨店</w> 285
热 销</w> 285
星 際 285
烤 肉</w> 285
宿 風</w> 285
涼 席</w> 285
玉 米</w> 285
煞 車</w> 285
al mon 285
ta y 285
ki pling</w> 285
fu r</w> 285
ad ven 285
ther mal</w> 285
super man</w> 285
ny x</w> 285
愛 情</w> 284
代 步</w> 284
褲 襪</w> 284
超 好</w> 284
公 克</w> 284
顯 示器</w> 284
磁 吸</w> 284
抹 胸</w> 284
n g</w> 284
m old</w> 284
b ig 284
th y</w> 284
婚禮 小物</w> 284
invit ation</w> 284
desk top</w> 284
塑 身</w> 283
分 類</w> 283
飛 機 283
圍 裙</w> 283
h old</w> 283
s war 283
d ery</w> 283
k en</w> 283
f r 283
y ard</w> 283
mu st 283
儲物 架</w> 283
cool er</w> 283
資料 夾</w> 283
親 膚</w> 282
指 紋</w> 282
插 頭</w> 282
y or 282
at ure</w> 282
ra sh</w> 282
flo p</w> 282
sig n</w> 282
sc ri 282
fo cus</w> 282
bro o 282
歐美 時</w> 282
edu cat 282
手 珠</w> 281
茶 道</w> 281
輕 巧</w> 281
出 服</w> 281
外 線</w> 281
範 思哲</w> 281
p ea 281
b c</w> 281
di e 281
ga me 281
ho se</w> 281
mon ster</w> 281
eye lash</w> 281
wel l</w> 281
win d 281
blen der</w> 281
moder n</w> 281
雷 霆</w> 280
禮 物 280
熊 熊</w> 280
指 定</w> 280
e mp 280
s l</w> 280
la s</w> 280
th o 280
sa mple</w> 280
手機 架</w> 280
back less</w> 280
支 撐</w> 279
鋼 筆</w> 279
色 系</w> 279
床 罩</w> 279
萬 向</w> 279
軟 妹</w> 279
購 買</w> 279
權 志 279
紫 砂</w> 279
肌 膚</w> 279
l c</w> 279
g es</w> 279
s cu 279
in su 279
al l 279
photo card</w> 279
pamba hay</w> 279
花 灑</w> 278
工 坊</w> 278
子 女</w> 278
綠 茶</w> 278
空 氣 278
多 種</w> 278
訂 單</w> 278
y ou 278
la n</w> 278
cur ler</w> 278
fri ends</w> 278
設計 款</w> 278
連 帽 277
可 拆卸</w> 277
工 藝</w> 277
和 服</w> 277
床 包</w> 277
紗 裙</w> 277
補 充</w> 277
作 者</w> 277
方 塊</w> 277
sh ad 277
di or</w> 277
tr i</w> 277
eye glasses</w> 277
紅 白</w> 276
指 環</w> 276
襯 衫 276
ar mour</w> 276
st ers</w> 276
ti s 276
len gth</w> 276
fit ness</w> 276
extra ct</w> 276
swar ov 276
機 箱</w> 275
乳 霜</w> 275
南 瓜</w> 275
g rea 275
co ck 275
ma ker</w> 275
pre ssed</w> 275
wi pes</w> 275
pan el</w> 275
休閒 百</w> 275
bea t</w> 275
bur ch</w> 275
custo m</w> 275
educat ional</w> 275
束 口</w> 274
用 于</w> 274
原 子</w> 274
棉 服</w> 274
鯊 魚</w> 274
m in</w> 274
ac er</w> 274
under arm</w> 274
resi stant</w> 274
bohemi an</w> 274
樂 福 273
高 潮</w> 273
直 郵</w> 273
收 縮</w> 273
方 型</w> 273
n er 273
y e 273
co mics</w> 273
san disk</w> 273
jam es</w> 273
cli ck</w> 273
護 手</w> 272
圓 盤</w> 272
車 內</w> 272
磁 扣</w> 272
洗 菜</w> 272
腮 紅</w> 272
bo t</w> 272
me tri 272
bu ds</w> 272
sun screen</w> 272
clu b</w> 272
eng lish</w> 272
ple ated</w> 272
洗手 盆</w> 272
supple ment</w> 272
權志 龍</w> 272
茶 盤</w> 271
女 裝 271
壓 式</w> 271
棉 長</w> 271
毫 安</w> 271
旗 艦店</w> 271
淋 浴</w> 271
ed p</w> 271
sur gical</w> 271
rat tan</w> 271
cool ing</w> 271
givea ways</w> 271
ulti mate</w> 271
光 碟</w> 270
水 泥</w> 270
炫 彩</w> 270
日 期</w> 270
高 效</w> 270
女 用</w> 270
減 震</w> 270
睡 覺</w> 270
葡 萄</w> 270
m d</w> 270
k ir 270
do gs</w> 270
運動 服</w> 270
sun flower</w> 270
her mes</w> 270
fig er</w> 270
pain ting</w> 270
阿甘 鞋</w> 270
swarov ski</w> 270
水 波</w> 269
機 套</w> 269
日 文</w> 269
中 心</w> 269
存 錢</w> 269
蜜 桃</w> 269
丹 寧</w> 269
玉 石</w> 269
放 器</w> 269
幸 運 269
藤 原</w> 269
影 音</w> 269
e mer 269
on i 269
lov ely</w> 269
bel le</w> 269
gr in 269
防 雨</w> 268
電 熱 268
不 含</w> 268
以 上</w> 268
接 線</w> 268
登 山 268
參 考</w> 268
p tion</w> 268
f l</w> 268
f ul 268
j et</w> 268
di f 268
wit h 268
te x 268
cu be</w> 268
bu mper</w> 268
lit er</w> 268
gar lic</w> 268
黃 色</w> 267
三 菱</w> 267
規 格</w> 267
豐 田</w> 267
天 鵝 267
分 裝 267
典 雅</w> 267
v i</w> 267
j un 267
li li 267
pa u 267
che st</w> 267
for m 267
cor ner</w> 267
stu dio</w> 267
spi der</w> 267
dy e</w> 267
adul ts</w> 267
tru e</w> 267
smi ggle</w> 267
fanta sy</w> 267
monit or</w> 267
一 包</w> 266
質 量</w> 266
行 李</w> 266
出 口</w> 266
側 背</w> 266
號 店</w> 266
潛 水</w> 266
購 價</w> 266
寬 版</w> 266
低 腰</w> 266
lo we 266
da i</w> 266
fre n 266
fre sh 266
slee ved</w> 266
fu ser</w> 266
nai ls</w> 266
remo val</w> 266
play er</w> 266
hil figer</w> 266
效 期</w> 265
充 氣 265
嬰 兒 265
多 用</w> 265
麻 花</w> 265
睡 袋</w> 265
別 針</w> 265
re ver 265
ar a 265
un a</w> 265
te le 265
flo ps</w> 265
boo k 265
tro us 265
mani la</w> 265
ash ley</w> 265
champ ion</w> 265
套 筒</w> 264
大 燈</w> 264
香 爐</w> 264
高 腳 264
領 帶</w> 264
天 下</w> 264
吸 濕</w> 264
草 帽</w> 264
隔 離</w> 264
se e</w> 264
ti er</w> 264
boo ster</w> 264
bra lette</w> 264
hand held</w> 264
fau x</w> 264
眼 罩</w> 263
行 車</w> 263
強 化</w> 263
通 用 263
外 殼</w> 263
旅 游</w> 263
a sse 263
in ser 263
ca pa 263
wa n</w> 263
tra ining</w> 263
pe an 263
brea st</w> 263
平 價</w> 262
尼 龍 262
珠 光</w> 262
加 肥</w> 262
過 濾</w> 262
播 放器</w> 262
s ni 262
d el 262
k g</w> 262
ch ang 262
po ckets</w> 262
ju i 262
com pact</w> 262
body suit</w> 262
paper back</w> 262
代 言</w> 261
板 凳</w> 261
車 貼</w> 261
修 護 261
肩 斜</w> 261
ro w</w> 261
ri ch</w> 261
su its</w> 261
me ssenger</w> 261
bi b</w> 261
chi cken</w> 261
滿千 減</w> 261
樂福 鞋</w> 261
棉 被</w> 260
u n</w> 260
m un 260
ch ron 260
mon key</w> 260
san iti 260
小 怪</w> 259
小 汽車</w> 259
高 壓</w> 259
加 拿 259
博 士</w> 259
嘻 哈 259
過 濾 259
妹 妹</w> 259
re cei 259
ri o</w> 259
充電 寶</w> 259
met ers</w> 259
mix ed</w> 259
粉 刺</w> 258
耐 高溫</w> 258
機 油</w> 258
大 全</w> 258
歐 洲 258
單 處</w> 258
墨 水</w> 258
免 洗</w> 258
伸 縮 258
a bo 258
s n 258
s se</w> 258
f ying</w> 258
se ven 258
par ts</w> 258
stor e</w> 258
phi lipp 258
buil ding</w> 258
pres sure</w> 258
加拿 大</w> 258
平 光</w> 257
不 可</w> 257
加 熱</w> 257
加 強</w> 257
酒 紅</w> 257
丹 尼</w> 257
打 印</w> 257
傳 統</w> 257
紙 盒</w> 257
pu t</w> 257
cel l</w> 257
play station</w> 257
shad es</w> 257
寶 馬</w> 256
大 頭</w> 256
美 體</w> 256
噴 頭</w> 256
冰 鞋</w> 256
最 後 256
專 柜</w> 256
絕 版 256
宴 會</w> 256
s in 256
re fle 256
ma l 256
bri d</w> 256
tri mmer</w> 256
ordin ary</w> 256
yor k</w> 256
通用 型</w> 256
套 件</w> 255
正 裝</w> 255
開 叉</w> 255
雨 靴</w> 255
圈 圈</w> 255
f our</w> 255
in fe 255
le op 255
ca la 255
pe t 255
pri se</w> 255
val ve</w> 255
valen tin 255
彩 妝</w> 254
布 藝 254
茶 花</w> 254
分 期</w> 254
搖 滾</w> 254
餐 盤</w> 254
瘦 身</w> 254
第 一 254
演 唱</w> 254
j s</w> 254
so ck</w> 254
ad van 254
pen s</w> 254
shap ed</w> 254
pas sport</w> 254
dang ling</w> 254
beauti ful</w> 254
christi an</w> 254
leop ard</w> 254
防 風 253
頭 鷹</w> 253
萬 代</w> 253
分 格</w> 253
燈 泡</w> 253
詹 姆斯</w> 253
站 立</w> 253
ca li 253
ma ls</w> 253
po int</w> 253
fa ke</w> 253
vi e</w> 253
tw in</w> 253
she er</w> 253
sub li 253
garter ized</w> 253
緬甸 玉</w> 253
阿 曼尼</w> 252
茶 水</w> 252
索 尼</w> 252
貓 咪 252
教 學</w> 252
桃 花</w> 252
包 時</w> 252
直 出</w> 252
極 致</w> 252
只 要</w> 252
橡 皮 252
精 致</w> 252
雛 菊</w> 252
入 組</w> 252
t le 252
b u</w> 252
en velo 252
ta b</w> 252
com pre 252
hy brid</w> 252
ben to</w> 252
tis sue</w> 252
黑 頭</w> 251
遊 卡</w> 251
白 粉</w> 251
蘭 蔻</w> 251
物 語</w> 251
女 人</w> 251
軟 糖</w> 251
骨 鏈</w> 251
c et</w> 251
sa i 251
star s</w> 251
loo p</w> 251
cra y 251
ball pen</w> 251
ever y 251
熱 褲</w> 250
一 生</w> 250
三 葉</w> 250
正 常</w> 250
標 誌</w> 250
轉 角</w> 250
de vi 250
de ter 250
tra vel 250
保護 膜</w> 250
ste p</w> 250
hydr ating</w> 250
miner al</w> 250
保 守</w> 249
計 時 249
網 眼</w> 249
支 持</w> 249
電 競</w> 249
美 麗</w> 249
豪 華 249
凝 露</w> 249
a pri 249
m ea 249
z ero</w> 249
la ted</w> 249
ca mi</w> 249
ca mping</w> 249
ch al 249
pa ci 249
pp a</w> 249
no kia</w> 249
hy un 249
fit ted</w> 249
rever sible</w> 249
小 洋</w> 248
耳 環 248
全 掌氣</w> 248
歐 風</w> 248
衣 帽</w> 248
成 長</w> 248
慕 斯</w> 248
l and 248
a mp 248
e ver</w> 248
x rm</w> 248
char les</w> 248
sli de</w> 248
organi cs</w> 248
vo l</w> 248
sen se</w> 248
the ft</w> 248
comfor t</w> 248
kid die</w> 248
ana sta 248
花 瓣</w> 247
殺 菌</w> 247
手 腕</w> 247
特 級</w> 247
王 者</w> 247
激 情</w> 247
景 觀</w> 247
轉 換器</w> 247
餐 巾</w> 247
飛 行</w> 247
演 出服</w> 247
t c</w> 247
se al</w> 247
to kong</w> 247
mi a</w> 247
sa ce</w> 247
da sh</w> 247
per i 247
ex p 247
tu s</w> 247
dr in 247
rai der</w> 247
lowe en</w> 247
全 銅</w> 246
波 西</w> 246
售 價</w> 246
藏 版</w> 246
引 擎</w> 246
濃 縮</w> 246
鱷 魚</w> 246
v neck</w> 246
k no 246
ph il</w> 246
ct ure</w> 246
bu s 246
mar ble</w> 246
ex clu 246
the me</w> 246
zu ki</w> 246
dif fuser</w> 246
西 餐</w> 245
出 風口</w> 245
理 盒</w> 245
加 絨 245
店 長</w> 245
魚 缸</w> 245
包 組</w> 245
外 穿</w> 245
航 空</w> 245
人 家</w> 245
抽 紙</w> 245
面 部</w> 245
牛 津</w> 245
o t</w> 245
ph p</w> 245
mo du 245
so fi 245
min go</w> 245
perfu mes</w> 245
rhine stone</w> 245
小 沙發</w> 244
毛 帽</w> 244
輔 助</w> 244
松 糕</w> 244
鼠 標</w> 244
魔 力</w> 244
en ce</w> 244
ho le</w> 244
stick y</w> 244
scre w</w> 244
工作 室</w> 244
主 題</w> 243
小 朋友</w> 243
花 色</w> 243
花 草</w> 243
亞 瑟 243
潛 水 243
體 恤</w> 243
紫 水晶</w> 243
條 包</w> 243
達 菲</w> 243
面 具</w> 243
ba ct 243
ch ic</w> 243
gu ar 243
multi color</w> 243
best seller</w> 243
deter gent</w> 243
古 董</w> 242
相 片</w> 242
雅 詩 242
斜 肩</w> 242
貼 畫</w> 242
跳 蛋</w> 242
維 尼 242
冷 熱</w> 242
企 鵝</w> 242
傳 說</w> 242
u gh</w> 242
in door</w> 242
le n</w> 242
si ded</w> 242
lon don</w> 242
wal ker</w> 242
gen eva</w> 242
clin i 242
inclu ded</w> 242
fren ch</w> 242
hyun dai</w> 242
整 理盒</w> 241
尚 休</w> 241
無 鋼圈</w> 241
德 國 241
超 輕量</w> 241
刺 繡 241
販 售</w> 241
接 待</w> 241
早 期</w> 241
永 生</w> 241
錄 音</w> 241
a sha</w> 241
r on</w> 241
s u</w> 241
ri de</w> 241
th i 241
mp ers</w> 241
leg end</w> 241
stri p</w> 241
over sized</w> 241
com fy</w> 241
supp ly</w> 241
moisturi zer</w> 241
sof a</w> 241
hor se</w> 241
bun ny</w> 241
鞋 休</w> 240
老 式</w> 240
超 亮</w> 240
直 接</w> 240
預 定</w> 240
攝 像 240
換 鞋</w> 240
客 人</w> 240
n ou 240
t ela</w> 240
d get</w> 240
ca re 240
ra y 240
el li 240
ta k 240
pi c</w> 240
ss or</w> 240
bel la</w> 240
dis infe 240
act ual</w> 240
cra f 240
旅行 袋</w> 240
light en</w> 240
創意 個</w> 240
phi lips</w> 240
must ard</w> 240
cock tail</w> 240
小 腳褲</w> 239
動 物 239
福 利 239
法 國 239
愛 的</w> 239
球 拍</w> 239
內 裡</w> 239
校 園</w> 239
面 包</w> 239
colo ring</w> 239
平 滑</w> 238
切 片</w> 238
護 膚 238
拉 格</w> 238
珠 寶 238
正 生</w> 238
調 式</w> 238
立 得</w> 238
羊 絨</w> 238
排 扣</w> 238
劇 場</w> 238
儀 器</w> 238
兔 兔</w> 238
臉 部</w> 238
快 樂</w> 238
牆 壁</w> 238
翅 膀</w> 238
n ood 238
st roller</w> 238
lo l</w> 238
ti p</w> 238
sp y</w> 238
cu tting</w> 238
收納 筐</w> 238
lin ing</w> 238
coo ker</w> 238
電視 櫃</w> 238
fau cet</w> 238
reli ef</w> 238
紙巾 盒</w> 238
lear ning</w> 238
bus iness</w> 238
古 巴</w> 237
三 人</w> 237
夾 錢</w> 237
日 系 237
日 記</w> 237
五 折</w> 237
東 立</w> 237
婚 慶</w> 237
靜 電</w> 237
冷 水</w> 237
天 空</w> 237
軍 綠</w> 237
寫 字 237
w ine</w> 237
x i</w> 237
li t</w> 237
di sh 237
sa me</w> 237
dre am 237
me al</w> 237
gre e</w> 237
ten t</w> 237
her oes</w> 237
loo k</w> 237
black pink</w> 237
wrist let</w> 237
exclu sive</w> 237
虎 頭</w> 236
電 線</w> 236
中 年</w> 236
王 國</w> 236
百 變</w> 236
親 節</w> 236
堅 果</w> 236
茉 莉</w> 236
st ones</w> 236
ma y</w> 236
al arm</w> 236
slee p</w> 236
fo li 236
韓版 休</w> 236
hi p</w> 236
kin s</w> 236
bir ken 236
人字 拖</w> 236
水 彩</w> 235
機 芯</w> 235
風 水</w> 235
帶 式</w> 235
發 椅</w> 235
貼 膜</w> 235
抽 象</w> 235
登 月</w> 235
錄 器</w> 235
梵 希</w> 235
蛤 蟆</w> 235
c ct 235
c ure</w> 235
k ha 235
ba si 235
tt le</w> 235
fu n</w> 235
sli me</w> 235
cir cle</w> 235
飛機 杯</w> 235
保 健</w> 234
日 立</w> 234
媽 咪 234
海 綿 234
掛 袋</w> 234
暗 黑</w> 234
碳 纖維</w> 234
圍 欄</w> 234
i ma 234
e ch 234
t shirts</w> 234
j uni 234
sh in 234
le ver</w> 234
per ia</w> 234
fla mingo</w> 234
fle xi 234
黑 膠</w> 233
透 光</w> 233
生 肖</w> 233
高 品</w> 233
獨 立</w> 233
節 能</w> 233
永 久</w> 233
緞 帶</w> 233
g at 233
v ar 233
j our 233
la und 233
to x</w> 233
ti que</w> 233
su zuki</w> 233
bal let</w> 233
hal loween</w> 233
折疊 桌</w> 233
ling erie</w> 233
deca ls</w> 233
mac book</w> 233
拉 桿 232
西 班 232
出 版 232
陽 光</w> 232
絨 布</w> 232
加 粗</w> 232
掛 勾</w> 232
宮 廷</w> 232
內 置</w> 232
獅 子</w> 232
g gi 232
ki es</w> 232
prin ter</w> 232
tu pper 232
her sch 232
ruff led</w> 232
cct v</w> 232
laund ry</w> 232
小 鹿</w> 231
高 低</w> 231
衛 褲</w> 231
原 宿風</w> 231
證 件</w> 231
潤 滑液</w> 231
必 備 231
牆 面</w> 231
逼 真</w> 231
h c</w> 231
r inger</w> 231
le m</w> 231
bo l 231
sc ra 231
pe plum</w> 231
he el</w> 231
gen tle</w> 231
gar ter</w> 231
tro l 231
coo kie</w> 231
sweat shirt</w> 231
拼 布</w> 230
布 偶</w> 230
馬 車</w> 230
板 手</w> 230
加 固</w> 230
扣 式</w> 230
唐 老</w> 230
鸚 鵡</w> 230
名 品</w> 230
co mm 230
sp ro 230
ex treme</w> 230
chi a</w> 230
mer ry</w> 230
sna pback</w> 230
歐洲 代購</w> 230
西班 牙</w> 230
hersch el</w> 230
皮 衣</w> 229
花 粉</w> 229
附 贈</w> 229
黑 板</w> 229
視 頻</w> 229
帶 鎖</w> 229
子 母</w> 229
新 手</w> 229
社 團</w> 229
木 頭</w> 229
造 景</w> 229
方 頭</w> 229
悠 遊卡</w> 229
紳 士</w> 229
砧 板</w> 229
ba k 229
si an</w> 229
bea ch 229
太陽 帽</w> 229
sea son</w> 229
adven ture</w> 229
seven teen</w> 229
subli mation</w> 229
出版 社</w> 229
西 瓜</w> 228
美 食</w> 228
歐 米</w> 228
貨 號</w> 228
契 爾 228
z z</w> 228
an e</w> 228
la shes</w> 228
st ron 228
li st</w> 228
un ce</w> 228
nat asha</w> 228
son s</w> 228
brea st 228
mono pod</w> 228
mix er</w> 228
nis san</w> 228
bos ch</w> 228
小 吃</w> 227
大 框</w> 227
電 瓶 227
子 星</w> 227
台 中</w> 227
促 銷 227
預 訂</w> 227
導 航</w> 227
零 碼</w> 227
軌 道</w> 227
雞 肉</w> 227
絕 對</w> 227
g in</w> 227
pla ins</w> 227
ey es</w> 227
ani mals</w> 227
tupper ware</w> 227
耳 塞</w> 226
鞋 潮</w> 226
馬 克杯</w> 226
短 筒</w> 226
部 落</w> 226
筆 盒</w> 226
包 斜</w> 226
酒 精</w> 226
體 育</w> 226
佩 佩 226
陶 瓷 226
餅 乾 226
o id</w> 226
st y</w> 226
di re 226
sk ater</w> 226
ct us</w> 226
do ctor</w> 226
aro und</w> 226
brigh tening</w> 226
poin ted</w> 226
lili w</w> 226
亞瑟 士</w> 226
小 風扇</w> 225
安 卓 225
男 潮</w> 225
防 燙</w> 225
戰 鬥</w> 225
女 夏 225
上 班 225
簡 體</w> 225
輪 車</w> 225
飛 行 225
面 紙</w> 225
橡 木</w> 225
其 他</w> 225
蔬 果</w> 225
i ph 225
a ca 225
ki mono</w> 225
cle s</w> 225
ribb ed</w> 225
kar ao 225
編 織 224
氣 質 224
三 腳架</w> 224
無 限</w> 224
白 底</w> 224
音 器</w> 224
金 屬 224
加 濕器</w> 224
博 柏 224
控 制</w> 224
背 蓋</w> 224
硬 碟</w> 224
轉 接頭</w> 224
蒸 汽</w> 224
吐 司</w> 224
u ses</w> 224
m um</w> 224
t ry</w> 224
b ey 224
la st</w> 224
ro a 224
un k</w> 224
bo lt</w> 224
收納 籃</w> 224
chi ps</w> 224
sen sor</w> 224
flexi ble</w> 224
美 版</w> 223
五 色</w> 223
色 可選</w> 223
噴 霧 223
內 衣 223
純 銅</w> 223
圖 書</w> 223
刀 架</w> 223
面 盆</w> 223
密 封 223
輻 射</w> 223
餃 子</w> 223
項 圈</w> 223
憑 證</w> 223
ca m 223
bo w 223
sp en 223
colo ur</w> 223
spo t</w> 223
alph a</w> 223
ener gy</w> 223
預購 款</w> 223
anasta sia</w> 223
契爾 氏</w> 223
karao ke</w> 223
手 電筒</w> 222
電 玩</w> 222
添 加</w> 222
達 人</w> 222
恤 衫</w> 222
肚 子</w> 222
ba t</w> 222
bo und</w> 222
mar ker</w> 222
for tun 222
pu re 222
ssi l</w> 222
gr an 222
spe e 222
photo cards</w> 222
spar kle</w> 222
wr it 222
straigh tener</w> 222
萬寶 龍</w> 222
安 娜</w> 221
皮 膚</w> 221
水 性</w> 221
防 漏</w> 221
防 寒</w> 221
亞 麻</w> 221
美 麗 221
可 樂</w> 221
可 動</w> 221
金 扣</w> 221
滋 養</w> 221
紗 布</w> 221
緣 子</w> 221
精 工</w> 221
碗 碟</w> 221
狐 狸</w> 221
h d 221
at o 221
se l</w> 221
ca st 221
ro l</w> 221
fa v 221
ct ors</w> 221
mat ting</w> 221
be th</w> 221
fig ures</w> 221
vo lution</w> 221
cen ter</w> 221
毛巾 架</w> 221
星際 大戰</w> 221
almon d</w> 221
水 鬼</w> 220
動 漫 220
白 紅</w> 220
發 床</w> 220
湯 鍋</w> 220
萊 士</w> 220
檀 香</w> 220
赤 足</w> 220
替 換</w> 220
ro bot</w> 220
po p 220
ho b 220
spi cy</w> 220
感 應 219
茶 葉</w> 219
清 淨 219
音 炮</w> 219
誕 節</w> 219
警 示</w> 219
繪 畫</w> 219
多 多</w> 219
證 明</w> 219
十 字 219
h g</w> 219
z u</w> 219
sh ka</w> 219
chi ld</w> 219
lea se</w> 219
sur prise</w> 219
sy ru 219
inten se</w> 219
spon ge 219
hor n</w> 219
牛仔 裙</w> 219
combin ation</w> 219
tay lor</w> 219
輕 奢 218
高 腳</w> 218
胖 子</w> 218
面 罩</w> 218
籠 子</w> 218
呼 吸</w> 218
c r 218
k el 218
sa ge</w> 218
bu ckle</w> 218
con tour</w> 218
pu ppy</w> 218
cur ity</w> 218
chil i</w> 218
tat too</w> 218
band ai</w> 218
藝 術 217
小 狗</w> 217
保 存</w> 217
粉 嫩</w> 217
高 精 217
物 袋</w> 217
超 可愛</w> 217
開 門</w> 217
觀 音</w> 217
漂 亮</w> 217
分 享</w> 217
低 音炮</w> 217
免 費</w> 217
o p</w> 217
v ic</w> 217
ca ctus</w> 217
ro s 217
sk irts</w> 217
da r</w> 217
du ction</w> 217
tr an 217
fo ssil</w> 217
resi n</w> 217
hard cover</w> 217
ruff le</w> 217
asse mb 217
sofi a</w> 217
上班 族</w> 217
小 魚</w> 216
小 飛 216
耳 墜</w> 216
保 養 216
英 語</w> 216
愛 心 216
透 膚</w> 216
中 小</w> 216
眉 筆</w> 216
貝 親</w> 216
單 件</w> 216
調 整</w> 216
科 學</w> 216
遙 控器</w> 216
泡 澡</w> 216
竹 炭</w> 216
榮 耀</w> 216
活 動 216
l te</w> 216
t ine</w> 216
in sta 216
ri ck</w> 216
and a</w> 216
blo od</w> 216
tra ck</w> 216
light weight</w> 216
heal ing</w> 216
saniti zer</w> 216
cala mansi</w> 216
sponge bob</w> 216
降 噪</w> 215
觸 控</w> 215
遮 肚</w> 215
垂 墜</w> 215
游 泳 215
戰 術</w> 215
跳 舞</w> 215
刀 具</w> 215
傳 奇</w> 215
幼 稚</w> 215
柴 犬</w> 215
菱 格紋</w> 215
p m</w> 215
d ru 215
co ral</w> 215
ch ed</w> 215
car ters</w> 215
br e</w> 215
ha n</w> 215
man i</w> 215
loo t</w> 215
butt ons</w> 215
優惠 中</w> 215
單人 床</w> 215
era ser</w> 215
阿 甘</w> 214
鐵 盒</w> 214
大 底</w> 214
倫 敦</w> 214
新 百 214
開 運</w> 214
火 影 214
梳 子</w> 214
港 版</w> 214
兩 款</w> 214
打 包</w> 214
隔 音</w> 214
c ran 214
l r</w> 214
g ig 214
ba tch</w> 214
ver sace</w> 214
ce ta 214
fla w 214
lin en</w> 214
hon or</w> 214
紀念 品</w> 214
火影 忍者</w> 214
電 扇</w> 213
書 本</w> 213
壁 貼</w> 213
浴 盆</w> 213
浴 缸</w> 213
泰 迪</w> 213
橘 子</w> 213
暢 銷</w> 213
s c</w> 213
m n</w> 213
pa w</w> 213
ne u 213
wa s</w> 213
fe min 213
na p 213
eng ine</w> 213
床頭 櫃</w> 213
ama zing</w> 213
花 香</w> 212
雙 子星</w> 212
防 蚊 212
華 萊士</w> 212
叮 噹</w> 212
e mbo 212
pre love</w> 212
me ch 212
vi sible</w> 212
ll ers</w> 212
gi f 212
under wire</w> 212
chee se</w> 212
親子 裝</w> 212
syru p</w> 212
小 馬</w> 211
水 箱</w> 211
袋 裝</w> 211
手 指</w> 211
比 賽</w> 211
賣 家</w> 211
款 號</w> 211
絨 面</w> 211
店 鋪</w> 211
年 人</w> 211
單 層</w> 211
即 期</w> 211
印 度</w> 211
制 冷</w> 211
i ke 211
s no 211
d le</w> 211
d ani 211
ri ght</w> 211
me i 211
pe ppa</w> 211
coo king</w> 211
ton y</w> 211
sou ven 211
toi let</w> 211
bact erial</w> 211
clini que</w> 211
護膚 品</w> 211
birken stock</w> 211
童 車</w> 210
支 援</w> 210
法 拉 210
全 能</w> 210
出 租</w> 210
扇 子</w> 210
開 始</w> 210
用 卡</w> 210
菲 利 210
邊 櫃</w> 210
月 光</w> 210
蜘 蛛</w> 210
s lot</w> 210
m and 210
en han 210
di ffe 210
bu t</w> 210
pen shoppe</w> 210
sty lus</w> 210
the tic</w> 210
emb lem</w> 210
ber shka</w> 210
瀝水 架</w> 210
中老 年</w> 210
all er 210
博柏 利</w> 210
紅 茶</w> 209
一 片</w> 209
房 子</w> 209
貓 頭鷹</w> 209
色 彩</w> 209
開 光</w> 209
印 良品</w> 209
蘑 菇</w> 209
n in 209
n ic</w> 209
c lar 209
l ity</w> 209
t bag</w> 209
re nt</w> 209
at h</w> 209
po oh</w> 209
sho t</w> 209
美國 隊</w> 209
防塵 罩</w> 209
femin ine</w> 209
中 夾</w> 208
場 景</w> 208
包 郵 208
庫 存</w> 208
信 用卡</w> 208
野 生</w> 208
民 宿</w> 208
走 光</w> 208
杏 色</w> 208
n ine</w> 208
s b</w> 208
x peria</w> 208
k on</w> 208
on y</w> 208
ma h</w> 208
con sole</w> 208
ani cal</w> 208
tro pi 208
hear ts</w> 208
歐美 代購</w> 208
愛馬 仕 208
embroi dery</w> 208
工具 箱</w> 208
tsu m</w> 208
空軍 一號</w> 208
envelo pe</w> 208
小 學</w> 207
小 蜜蜂</w> 207
套 装</w> 207
毛 料</w> 207
褲 潮</w> 207
通 勤</w> 207
實 物</w> 207
星 辰</w> 207
睫 毛膏</w> 207
袖 衛衣</w> 207
泰 國 207
橄 欖 207
葫 蘆</w> 207
駕 車</w> 207
e s 207
s la 207
p it 207
er a</w> 207
ri se</w> 207
di a</w> 207
vi t</w> 207
stu dent</w> 207
win d</w> 207
adap tor</w> 207
metri c</w> 207
inser t</w> 207
雅詩 蘭</w> 207
佩佩 豬</w> 207
小 胸</w> 206
出 國</w> 206
喬 巴</w> 206
色 號</w> 206
迪 奧 206
潮 人</w> 206
羊 羔</w> 206
磁 鐵 206
紀 梵希</w> 206
精 準</w> 206
同 人 206
去 污</w> 206
c p</w> 206
h en 206
j c</w> 206
po st</w> 206
da sh 206
blo om</w> 206
blo uses</w> 206
gen ic</w> 206
cat s</w> 206
oc ean</w> 206
natura ls</w> 206
chopp er</w> 206
法拉 利</w> 206
水 池</w> 205
黑 底</w> 205
電 熱</w> 205
秀 款</w> 205
魚 紋</w> 205
納 米</w> 205
滾 筒</w> 205
打 磨</w> 205
省 空間</w> 205
搞 怪</w> 205
辣 椒</w> 205
a v</w> 205
in k 205
re d 205
la b</w> 205
ig en</w> 205
be at 205
ke ith</w> 205
heal thy</w> 205
collecti ons</w> 205
trol ley</w> 205
souven irs</w> 205
菲利 普</w> 205
電 瓶</w> 204
美 術</w> 204
葉 子</w> 204
豆 腐</w> 204
心 形</w> 204
各 種</w> 204
海 鷗</w> 204
床 墊</w> 204
冠 軍 204
胸 前</w> 204
轉 椅</w> 204
約 會</w> 204
墜 子</w> 204
仙 人 204
夥 伴</w> 204
逛 街</w> 204
ki lo</w> 204
pan ties</w> 204
ja g</w> 204
nat ional</w> 204
wai sted</w> 204
ge o 204
bir d</w> 204
cos rx</w> 204
ther mo 204
cen tr 204
om ing</w> 204
vege table</w> 204
grin der</w> 204
福利 品</w> 204
電瓶 車</w> 204
文 學</w> 203
小 丸子</w> 203
英 文 203
西 服</w> 203
香 草</w> 203
夜 燈</w> 203
棒 棒 203
漁 具</w> 203
推 拉</w> 203
橫 條</w> 203
甜 品</w> 203
瓷 磚</w> 203
紙 巾</w> 203
爬 行</w> 203
爸 爸</w> 203
b es</w> 203
b in</w> 203
f all</w> 203
co le</w> 203
lo af 203
ca o</w> 203
bea n</w> 203
ve hi 203
cti cal</w> 203
multi function</w> 203
mari o</w> 203
pean ut</w> 203
棒棒 糖</w> 203
雙 向</w> 202
耳 釘 202
防 走光</w> 202
護 眼</w> 202
褲 帶</w> 202
車 身</w> 202
閃 電</w> 202
舒 服</w> 202
直 購</w> 202
妝 前</w> 202
杏 仁</w> 202
冒 險</w> 202
午 茶</w> 202
蜘 蛛 202
n c</w> 202
a x 202
w ol 202
b it 202
ba pti 202
ju ju 202
tin ted</w> 202
her e</w> 202
aqu ari 202
sophi e</w> 202
assemb ly</w> 202
小 鳥</w> 201
平 面</w> 201
雙 耳 201
福 特</w> 201
美 肌</w> 201
毛 器</w> 201
韓 貨</w> 201
教 育</w> 201
地 亞</w> 201
玩 家</w> 201
提 花</w> 201
哈 娜</w> 201
補 水 201
印 刷</w> 201
淨 化</w> 201
假 面</w> 201
b t</w> 201
co co 201
er t</w> 201
so da</w> 201
bi c</w> 201
mat erial</w> 201
du ra 201
gra ph</w> 201
coo kies</w> 201
ly n</w> 201
blea ch</w> 201
with out</w> 201
高精 度</w> 201
ceta phil</w> 201
juju be</w> 201
不 傷</w> 200
家 電</w> 200
明 治</w> 200
搭 扣</w> 200
定 位</w> 200
車 頭</w> 200
內 外</w> 200
青 蛙</w> 200
深 藍 200
袖 帽</w> 200
抗 皺</w> 200
甜 蜜</w> 200
猴 子</w> 200
毯 子</w> 200
假 睫毛</w> 200
掃 地</w> 200
焦 糖</w> 200
c ul 200
o k</w> 200
r gb</w> 200
re stock</w> 200
na ked</w> 200
wai i</w> 200
mit h</w> 200
butt on 200
dv r</w> 200
阿瑪尼 手</w> 200
scri ption</w> 200
佛 教</w> 199
小 紅 199
手 帕</w> 199
蒂 蒂</w> 199
城 堡</w> 199
籃 子</w> 199
霸 王</w> 199
俏 皮</w> 199
妖 怪</w> 199
g ger</w> 199
e m 199
v an</w> 199
to tal</w> 199
sp igen</w> 199
do me</w> 199
pan ini</w> 199
fo g</w> 199
dol ls</w> 199
ya le</w> 199
bou tique</w> 199
促銷 價</w> 199
flaw less</w> 199
蜘蛛 人</w> 199
小 禮服</w> 198
花 生</w> 198
英 寸</w> 198
手 臂</w> 198
夾 縫</w> 198
相 容</w> 198
中 海</w> 198
直 送</w> 198
麻 辣</w> 198
螺 旋</w> 198
倉 鼠</w> 198
饅 頭</w> 198
瀝 水</w> 198
母 乳</w> 198
刷 子</w> 198
精 鋼</w> 198
烘 培</w> 198
e ven 198
se curity</w> 198
fi c</w> 198
len a</w> 198
fro sted</w> 198
lun a</w> 198
om ni</w> 198
cri b</w> 198
童 書</w> 197
全 店</w> 197
當 袋</w> 197
地 中海</w> 197
星 座</w> 197
肥 皂</w> 197
作 品</w> 197
離 式</w> 197
考 試</w> 197
矮 凳</w> 197
re ser 197
lo tte</w> 197
ma m</w> 197
de ta 197
con centr 197
ja s 197
fu ji 197
go pro</w> 197
ge or 197
comb i</w> 197
conne ctor</w> 197
耳 麥</w> 196
熱 器</w> 196
中 大尺</w> 196
素 材</w> 196
上 班</w> 196
多 美 196
改 裝 196
片 裝</w> 196
星 光</w> 196
木 床</w> 196
尾 牙</w> 196
巴 西</w> 196
山 茶花</w> 196
鋁 箔</w> 196
n on 196
y an</w> 196
y ang</w> 196
re pel 196
ar mani</w> 196
sh elf</w> 196
ca cao</w> 196
sa mp 196
dre ss 196
de tox</w> 196
so me</w> 196
qu il 196
ai d</w> 196
bar ley</w> 196
防曬 衣</w> 196
小 貓</w> 195
顏 料</w> 195
童 話</w> 195
防 霧</w> 195
廚 師</w> 195
白 光</w> 195
貨 下</w> 195
直 徑</w> 195
竹 節</w> 195
螺 紋</w> 195
丁 字</w> 195
隨 手</w> 195
穿 鞋</w> 195
渡 假</w> 195
奈 米</w> 195
就 是</w> 195
c i</w> 195
o b 195
z ir 195
f c</w> 195
se le 195
ti ons</w> 195
th ri 195
lu x</w> 195
prin ting</w> 195
wor d</w> 195
go d</w> 195
沙發 邊</w> 195
iti ve</w> 195
amp li 195
disinfe ct 195
小 車</w> 194
花 器</w> 194
雙 排</w> 194
鐘 表</w> 194
雪 地</w> 194
裝 長</w> 194
全 系列</w> 194
歐 文</w> 194
卡 牌</w> 194
卡 其 194
立 體 194
瘋 狂</w> 194
改 良</w> 194
周 歲</w> 194
秋 千</w> 194
非 常</w> 194
樓 梯</w> 194
熨 斗</w> 194
蜂 巢</w> 194
i se</w> 194
a le 194
shor t 194
wa r</w> 194
eye glass</w> 194
war ran 194
pil low 194
syn thetic</w> 194
清淨 機</w> 194
仙人 掌</w> 194
warran ty</w> 194
小 方</w> 193
耳 罩</w> 193
機 架</w> 193
手 冊</w> 193
波 點</w> 193
自 拍 193
玩 具 193
角 色</w> 193
拆 售</w> 193
寬 口</w> 193
背 斜</w> 193
臥 室 193
胡 桃</w> 193
零 錢 193
幼 童</w> 193
牛 角</w> 193
肌 肉</w> 193
磨 毛</w> 193
ar ts</w> 193
li ly</w> 193
si cal</w> 193
ni s</w> 193
gi oh</w> 193
woo l</w> 193
dra wer</w> 193
war m</w> 193
cat cher</w> 193
yu gioh</w> 193
寬松 顯</w> 193
coun t</w> 193
dish washing</w> 193
美 人魚</w> 192
褲 休</w> 192
潮 款</w> 192
取 貨</w> 192
純 金</w> 192
顆 粒</w> 192
滾 輪</w> 192
貿 易</w> 192
頓 包</w> 192
握 把</w> 192
n ano</w> 192
g ate</w> 192
k k</w> 192
z on</w> 192
re n</w> 192
le i 192
lo g</w> 192
en er</w> 192
car d 192
gi l 192
medi a</w> 192
hou se 192
strea ming</w> 192
capa city</w> 192
ike a</w> 192
卡其 色</w> 192
小 美人</w> 191
風 味</w> 191
帶 燈</w> 191
特 色</w> 191
正 廠</w> 191
五 代</w> 191
高 手</w> 191
百 褶</w> 191
地 球</w> 191
刺 青</w> 191
閃 光</w> 191
企 業</w> 191
技 術</w> 191
活 性 191
甜 點</w> 191
專 用 191
斗 篷</w> 191
越 南</w> 191
核 心</w> 191
抹 布</w> 191
i so 191
i ve</w> 191
a o</w> 191
d s 191
th ai</w> 191
wi l 191
plu s 191
sto ve</w> 191
fit flop</w> 191
fin ish</w> 191
brea k</w> 191
shar k</w> 191
手 幅</w> 190
大 地</w> 190
半 身</w> 190
定 型</w> 190
新 店</w> 190
桌 上 190
通 話</w> 190
酒 架</w> 190
真 絲</w> 190
衛 衣 190
梯 子</w> 190
矯 正 190
u e</w> 190
腋 下</w> 190
to wer</w> 190
po ur</w> 190
jog ging</w> 190
cli pper</w> 190
dai sy</w> 190
band s</w> 190
scen ts</w> 190
包裝 袋</w> 190
advan ced</w> 190
桌上 型</w> 190
變 壓器</w> 189
不 易</w> 189
側 邊</w> 189
發 飾</w> 189
晚 安</w> 189
提 供</w> 189
酒 紅色</w> 189
磁 力</w> 189
壽 司</w> 189
穿 衣</w> 189
芭 比</w> 189
燃 氣</w> 189
娃 鞋</w> 189
m c</w> 189
z o</w> 189
la bel</w> 189
fi le</w> 189
pi ck</w> 189
ang er</w> 189
back case</w> 189
tin y</w> 189
stre n 189
et c</w> 189
工作 鞋</w> 189
lumin ous</w> 189
泰迪 熊</w> 189
sni per</w> 189
必備 款</w> 189
古 裝</w> 188
克 羅 188
男 休</w> 188
水 冷</w> 188
彩 妝 188
羅 馬 188
全 民</w> 188
代 籃</w> 188
壁 掛式</w> 188
學 校</w> 188
車 門</w> 188
新 色</w> 188
刀 劍</w> 188
週 邊</w> 188
芝 麻</w> 188
啞 光</w> 188
私 密</w> 188
o wl</w> 188
g t</w> 188
g ood 188
e e</w> 188
j on 188
li ve 188
th is</w> 188
tt ed</w> 188
qu a 188
gi or 188
sha per</w> 188
hy dro 188
fri end 188
joh n 188
攝影 機</w> 188
十字 架</w> 188
新百 倫</w> 188
文 具 187
防 身</w> 187
電 競 187
風 水 187
貨 限時</w> 187
火 焰</w> 187
化 器</w> 187
社 會</w> 187
放 大</w> 187
留 香</w> 187
速 乾</w> 187
旗 艦</w> 187
k ra 187
ne t 187
su c 187
te ddy</w> 187
cor d 187
cor re 187
ele ph 187
dr e</w> 187
air pods</w> 187
tea m</w> 187
juni or</w> 187
小 白</w> 186
布 袋</w> 186
大 特價</w> 186
美 好</w> 186
卡 地亞</w> 186
圓 圈</w> 186
各 式</w> 186
筆 筒</w> 186
如 意</w> 186
深 灰</w> 186
收 音</w> 186
搖 搖 186
精 品店</w> 186
炸 鍋</w> 186
基 酸</w> 186
偵 探</w> 186
co il</w> 186
at e 186
li an</w> 186
ul a</w> 186
fi ed</w> 186
ni sh</w> 186
do or 186
cy lin 186
tw s</w> 186
glit ters</w> 186
nar u 186
smart phone</w> 186
眼 線</w> 185
護 欄</w> 185
大 款</w> 185
心 理</w> 185
圓 點</w> 185
車 牌</w> 185
櫻 花 185
木 制</w> 185
滾 邊</w> 185
幫 手</w> 185
求 生</w> 185
c table</w> 185
a la 185
v p</w> 185
t mx</w> 185
d ell</w> 185
di um</w> 185
ph y 185
mar ine</w> 185
sun block</w> 185
fla p</w> 185
fo x</w> 185
he i 185
韓版 學生</w> 185
vit amin 185
cond ition</w> 185
radi ation</w> 185
鋼鐵 人</w> 185
nou ri 185
水 潤</w> 184
變 裝</w> 184
中 華 184
教 室</w> 184
減 壓</w> 184
暖 手</w> 184
流 沙</w> 184
木 耳</w> 184
麻 布</w> 184
坐 姿</w> 184
移 動 184
轉 售</w> 184
典 藏</w> 184
狂 歡</w> 184
n lighten</w> 184
g inger 184
a way</w> 184
p y 184
lo cked</w> 184
it a</w> 184
po sta 184
fi ve</w> 184
bea ded</w> 184
crea my</w> 184
折疊 床</w> 184
mono gram</w> 184
open er</w> 184
game pad</w> 184
ampli fier</w> 184
文 青</w> 183
布 朗</w> 183
姓 名</w> 183
裝 褲</w> 183
索 隆</w> 183
風 車</w> 183
試 用</w> 183
部 品</w> 183
直 條</w> 183
坐 便器</w> 183
重 磅</w> 183
菱 形</w> 183
罩 杯</w> 183
g on 183
k land</w> 183
f on 183
in visible</w> 183
co py</w> 183
ea gle</w> 183
me ga 183
am el</w> 183
ff le</w> 183
mil k 183
lea gue</w> 183
懶人 沙</w> 183
glo be</w> 183
cal cu 183
eli za 183
dry er</w> 183
joh n</w> 183
bene fit</w> 183
insu lated</w> 183
小 樣</w> 182
保 鮮</w> 182
動 畫</w> 182
膠 水</w> 182
馬 達</w> 182
美 美</w> 182
美 的</w> 182
書 法</w> 182
全 效</w> 182
洛 克</w> 182
鋪 子</w> 182
富 士</w> 182
蚊 燈</w> 182
姑 娘</w> 182
c b</w> 182
i sh 182
p g</w> 182
f ar 182
j v</w> 182
ar gan</w> 182
la min 182
st eri 182
se wing</w> 182
to pper</w> 182
pre cious</w> 182
bi o</w> 182
lov e 182
ci a</w> 182
aquari um</w> 182
posta le</w> 182
男 褲</w> 181
瓦 斯</w> 181
效 果</w> 181
加 購</w> 181
超 細</w> 181
多 拉</w> 181
冷 藏</w> 181
木 板</w> 181
衛 生 181
翻 新</w> 181
針 式</w> 181
散 裝</w> 181
檀 木</w> 181
模 特</w> 181
莎 拉</w> 181
霹 靂</w> 181
c ca</w> 181
la zy</w> 181
ma lay 181
ti cal</w> 181
sp lay</w> 181
min er</w> 181
be ver 181
包裝 盒</w> 181
grea t</w> 181
exp lo 181
保 冷 180
氣 墊 180
三 輪車</w> 180
美 津 180
油 漆</w> 180
萊 姆</w> 180
邊 框</w> 180
數 量</w> 180
紐 約</w> 180
娃 娃鞋</w> 180
搬 家</w> 180
o w 180
di vi 180
de ck</w> 180
pi cture</w> 180
ja mas</w> 180
置物 櫃</w> 180
par k</w> 180
va ble</w> 180
tri angle</w> 180
swe e 180
comp ati 180
todd lers</w> 180
小 柜子</w> 179
眼 鏡 179
三 人 179
大 學 179
豪 華</w> 179
麻 將</w> 179
梅 花</w> 179
下 午茶</w> 179
鈴 鐺</w> 179
智 慧 179
飯 桌</w> 179
斐 樂</w> 179
固 定 179
e k 179
t rea 179
b les</w> 179
b lin 179
re st</w> 179
an gular</w> 179
am ber</w> 179
pla tin 179
ni pple</w> 179
temp er 179
eye wear</w> 179
pat ches</w> 179
play ed</w> 179
咖啡 豆</w> 179
inten sive</w> 179
twi st</w> 179
thro ugh</w> 179
activ ity</w> 179
you th</w> 179
valentin o</w> 179
jour nal</w> 179
智慧 型</w> 179
布 娃娃</w> 178
塑 料 178
溜 溜</w> 178
加 高</w> 178
港 味</w> 178
沙 拉</w> 178
鴛 鴦</w> 178
勺 子</w> 178
漸 變</w> 178
u le</w> 178
w k</w> 178
w ings</w> 178
co me</w> 178
sh ir 178
er ci 178
pa d 178
su it 178
du st 178
mb ers</w> 178
ex foli 178
sto cks</w> 178
lay ered</w> 178
air max</w> 178
comfor ter</w> 178
tru ck</w> 178
gui de</w> 178
plus size</w> 178
美津 濃</w> 178
platin um</w> 178
顏 霜</w> 177
防 水 177
可 議</w> 177
毛 邊</w> 177
掛 布</w> 177
表 情</w> 177
條 紋 177
禪 意</w> 177
遇 見</w> 177
g inger</w> 177
a me 177
s ar 177
t f</w> 177
k an 177
ma ga 177
and er</w> 177
bra ssi 177
who le</w> 177
kir kland</w> 177
氣 動</w> 176
眼 部</w> 176
電 繡</w> 176
頭 套</w> 176
頭 巾</w> 176
白 藍</w> 176
石 英 176
桃 木</w> 176
直 購價</w> 176
冷 凍</w> 176
木 色</w> 176
兩 個</w> 176
七 夕</w> 176
煙 灰 176
進 口 176
拋 光</w> 176
走 秀款</w> 176
唇 彩</w> 176
简 约</w> 176
按 鍵</w> 176
o w</w> 176
o ven</w> 176
i v 176
a ba 176
y our 176
un o</w> 176
po ck 176
ex erci 176
bri e 176
bri cks</w> 176
mil ky</w> 176
帆布 袋</w> 176
儲物 盒</w> 176
ab et</w> 176
aero postale</w> 176
密封 罐</w> 176
cord less</w> 176
vitamin s</w> 176
潔 膚</w> 175
切 菜</w> 175
香 味</w> 175
無 敵</w> 175
貨 車</w> 175
加 密</w> 175
蓮 花</w> 175
壓 力</w> 175
廣 場</w> 175
分 隔</w> 175
潤 膚</w> 175
初 音</w> 175
敏 感</w> 175
專 利</w> 175
湖 水</w> 175
消 光</w> 175
曜 石</w> 175
鞍 包</w> 175
a g</w> 175
p i</w> 175
b one</w> 175
li s</w> 175
al a</w> 175
so l</w> 175
me lo 175
ver s</w> 175
ligh ting</w> 175
fe ather</w> 175
cla mp</w> 175
dy na 175
ya o</w> 175
san rio</w> 175
alph abet</w> 175
buil t</w> 175
記憶 卡</w> 175
bear ing</w> 175
攝像 頭</w> 175
eleph ant</w> 175
安 心</w> 174
花 架子</w> 174
男 長</w> 174
男 表</w> 174
拼 貼</w> 174
華 麗</w> 174
日 發</w> 174
可 當</w> 174
可 超取</w> 174
游 戲 174
正 方形</w> 174
好 吃</w> 174
羽 絨 174
酒 櫃</w> 174
磁 吸 174
褶 裙</w> 174
打 造</w> 174
淡 化</w> 174
緊 致</w> 174
期 限</w> 174
s ki 174
t w</w> 174
an th 174
co splay</w> 174
ur t</w> 174
mo ther 174
fi re 174
wi g</w> 174
ad a</w> 174
je ju</w> 174
tin a</w> 174
dd en</w> 174
multi purpose</w> 174
純銀 手</w> 174
bul let</w> 174
clin ic</w> 174
ham mer</w> 174
莫代 爾 174
clou d</w> 174
ros ary</w> 174
英文 字母</w> 174
naru to</w> 174
古 休</w> 173
動 力</w> 173
鞋 凳</w> 173
眼 膜</w> 173
雪 莉</w> 173
三 用</w> 173
後 長</w> 173
全 罩</w> 173
風 格 173
灰 黑</w> 173
海 苔</w> 173
色 長</w> 173
自 用</w> 173
鎖 頭</w> 173
原 液</w> 173
臉 盆</w> 173
胸 章</w> 173
品 下</w> 173
精 萃</w> 173
山 水</w> 173
牛 排</w> 173
碗 筷</w> 173
第 三 173
供 佛</w> 173
n m</w> 173
n an 173
l ery</w> 173
w in</w> 173
re volution</w> 173
ro man 173
po st 173
sa ki</w> 173
sta bi 173
wal k</w> 173
tri al</w> 173
pat rol</w> 173
bang les</w> 173
bur y</w> 173
chan nel</w> 173
全包 防</w> 173
nigh t 173
筆電 包</w> 173
compati ble</w> 173
小 雞</w> 172
花 漾</w> 172
布 衣</w> 172
防 霉</w> 172
短 後長</w> 172
學 步</w> 172
珍 藏</w> 172
空 姐</w> 172
世 紀</w> 172
鑽 石 172
i p</w> 172
e k</w> 172
co m</w> 172
sh el 172
ch ea 172
ta ins</w> 172
ta was</w> 172
de fen 172
no tes</w> 172
ron es</w> 172
diffe rent</w> 172
孔 雀</w> 171
歐 舒 171
艾 米家</w> 171
自 制</w> 171
幾 組合</w> 171
魚 尾 171
實 戰</w> 171
梨 花</w> 171
袖 連</w> 171
棉 床</w> 171
墊 片</w> 171
尾 燈</w> 171
挑 色</w> 171
傘 架</w> 171
圍 兜</w> 171
姐 姐</w> 171
p ing</w> 171
j in</w> 171
to ms</w> 171
pa jamas</w> 171
th y 171
sho pping</w> 171
sc rat 171
pe ts</w> 171
cre me</w> 171
hoo dies</w> 171
war ri 171
bak una</w> 171
降 溫</w> 170
神 域</w> 170
護 具</w> 170
寶 藍</w> 170
黑 粉</w> 170
大 馬</w> 170
大 眼</w> 170
夾 克 170
行 者</w> 170
韓 站</w> 170
休 闲</w> 170
針 扣</w> 170
止 滑</w> 170
飲 水機</w> 170
漢 堡</w> 170
重 機</w> 170
完 整</w> 170
斗 柜</w> 170
野 外</w> 170
左 右</w> 170
私 訊</w> 170
am i</w> 170
ho mme</w> 170
ani um</w> 170
ka waii</w> 170
sna ck</w> 170
沙發 床</w> 170
won der 170
過濾 器</w> 170
小 妹</w> 169
小 站</w> 169
手 搖 169
香 香</w> 169
乳 器</w> 169
色 素</w> 169
物 理</w> 169
新 竹</w> 169
露 營 169
帽 衫</w> 169
閨 蜜 169
班 服</w> 169
極 簡</w> 169
打 亮</w> 169
穆 勒</w> 169
概 論</w> 169
拇 指</w> 169
g au 169
z i</w> 169
ch un 169
fa t</w> 169
sp l</w> 169
pri de</w> 169
lip o</w> 169
mor ning</w> 169
vo ice</w> 169
free bies</w> 169
遮陽 傘</w> 169
aro mat 169
特價 下</w> 169
tropi cal</w> 169
屏 幕</w> 168
網 卡</w> 168
開 業</w> 168
調 光</w> 168
純 白</w> 168
菜 板</w> 168
天 絲</w> 168
巴 斯</w> 168
菱 格 168
c ation</w> 168
r ing 168
s j 168
th rones</w> 168
mo vie</w> 168
fi x</w> 168
do w 168
fu sion</w> 168
sli des</w> 168
bb q</w> 168
dra wing</w> 168
儲物 箱</w> 168
san ta</w> 168
dai so</w> 168
pin ea 168
我 們</w> 167
拉 手</w> 167
拉 車</w> 167
羅 馬</w> 167
風 情</w> 167
百 褶裙</w> 167
自 粘 167
調 理 167
桃 紅色</w> 167
喜 歡</w> 167
過 年</w> 167
緞 面</w> 167
c l</w> 167
o d 167
o val</w> 167
t z</w> 167
y n</w> 167
re r</w> 167
bo ar 167
sa f 167
ju mbo</w> 167
fo am 167
hu go</w> 167
sha ke</w> 167
gen cy</w> 167
dol l 167
trans fer</w> 167
聖誕 禮物</w> 167
沙發 套</w> 167
gg les</w> 167
海軍 藍</w> 167
bron ze</w> 167
aller genic</w> 167
vehi cle</w> 167
保 羅</w> 166
鞋 板</w> 166
國 旗</w> 166
電 機</w> 166
出 差</w> 166
車 系</w> 166
百 貨 166
新 鮮</w> 166
語 音</w> 166
兔 毛</w> 166
木 紋</w> 166
最 高</w> 166
厚 款</w> 166
仿 真 166
方 桌</w> 166
衝 擊</w> 166
益 生 166
隔 層</w> 166
野 營</w> 166
楠 竹</w> 166
n en 166
g round</w> 166
s mith</w> 166
k w</w> 166
f el 166
lo r 166
ro und 166
cu cu 166
nat ive</w> 166
mer ic</w> 166
over all</w> 166
whit e 166
der ma</w> 166
spar k</w> 166
健身 房</w> 166
as cor 166
cylin der</w> 166
pinea pple</w> 166
cucu mber</w> 166
小 女孩</w> 165
雙 耳</w> 165
保 健 165
網 紗 165
紅 酒</w> 165
殺 手</w> 165
香 檳 165
可 充</w> 165
出 租房</w> 165
唱 歌</w> 165
村 秀</w> 165
開 衩</w> 165
油 箱</w> 165
遙 控 165
植 村秀</w> 165
胸 墊</w> 165
腹 肌</w> 165
留 言</w> 165
裙 式</w> 165
濾 心</w> 165
總 成</w> 165
第 二代</w> 165
評 價</w> 165
斑 馬</w> 165
鉚 釘 165
供 奉</w> 165
緬 甸</w> 165
w t</w> 165
p ins</w> 165
f igh 165
la u 165
ca len 165
di ck 165
di ap 165
de scription</w> 165
te al</w> 165
so y</w> 165
au tu 165
wat ts</w> 165
hand y</w> 165
dri ed</w> 165
cur ry</w> 165
sou p</w> 165
腳踏 墊</w> 165
gener ation</w> 165
gal lon</w> 165
佛 珠</w> 164
小 雛菊</w> 164
清 涼</w> 164
單 個</w> 164
吊 床</w> 164
雲 朵</w> 164
藤 編</w> 164
十 二</w> 164
縫 隙</w> 164
起 司</w> 164
拳 擊</w> 164
犀 牛</w> 164
u k</w> 164
c qu 164
l la 164
g els</w> 164
e mo 164
y u</w> 164
in sp 164
re tra 164
lo s</w> 164
ro yale</w> 164
po we 164
mi lit 164
ear buds</w> 164
mar ks</w> 164
eri zed</w> 164
cla t</w> 164
ampo ule</w> 164
din o 164
tee th</w> 164
莫代 爾</w> 164
prest o</w> 164
mech anical</w> 164
小 動物</w> 163
支 裝</w> 163
試 題</w> 163
托 架</w> 163
單 售</w> 163
便 利 163
煙 器</w> 163
登 機箱</w> 163
吹 風機</w> 163
o at 163
o xi 163
e sp 163
m t</w> 163
j ol 163
in ver 163
po lar 163
de gree</w> 163
pi la 163
stra ps</w> 163
medi cal</w> 163
out put</w> 163
repla c 163
qui ck 163
螺絲 刀</w> 163
puri fier</w> 163
emer gency</w> 163
paci fier</w> 163
kha ki</w> 163
diap ers</w> 163
小 麥</w> 162
合 作</w> 162
水 鞋</w> 162
膠 條</w> 162
紅 外線</w> 162
門 市</w> 162
白 灰</w> 162
上 海</w> 162
維 他</w> 162
雜 貨 162
芯 絨</w> 162
打 氣 162
吉 拉</w> 162
齊 全</w> 162
撲 克 162
学 生</w> 162
h w</w> 162
r r 162
in c</w> 162
le ft</w> 162
ro ad</w> 162
ch am 162
al d</w> 162
th or</w> 162
per a</w> 162
gra ss</w> 162
ha pp 162
bra i 162
tren ding</w> 162
sna ps</w> 162
創意 園</w> 162
ruff les</w> 162
dry ing</w> 162
nood les</w> 162
sno w 162
eliza beth</w> 162
milit ary</w> 162
安 瓶</w> 161
男 人</w> 161
白 板</w> 161
發 售</w> 161
時 髦</w> 161
女 郎</w> 161
女 士 161
減 肥</w> 161
直 流</w> 161
廣 角</w> 161
冬 裝</w> 161
肩 上</w> 161
記 錄</w> 161
袖 長</w> 161
集 中</w> 161
接 口</w> 161
抽 水</w> 161
監 控</w> 161
隨 行 161
鋯 石</w> 161
璀 璨</w> 161
示 牌</w> 161
掉 色</w> 161
嫁 接</w> 161
g p</w> 161
ki ller</w> 161
gla m</w> 161
現貨 速發</w> 161
pe pper 161
spi ral</w> 161
hy po 161
dro ps</w> 161
om bre</w> 161
spar k 161
tit anium</w> 161
melo dy</w> 161
女士 香水</w> 161
古 老</w> 160
口 紅 160
風 琴</w> 160
兜 兜</w> 160
高 彈</w> 160
織 布</w> 160
薄 長</w> 160
修 容</w> 160
折 起</w> 160
兩 折</w> 160
原 色</w> 160
吸 盤 160
濕 機</w> 160
餐 邊</w> 160
零 售</w> 160
專 家</w> 160
藤 椅</w> 160
柯 南</w> 160
懶 懶</w> 160
跑 車</w> 160
燙 金</w> 160
私 人</w> 160
w ea 160
v ance</w> 160
b n</w> 160
an ch 160
co mic</w> 160
en a</w> 160
th ings</w> 160
pe dal</w> 160
清潔 刷</w> 160
compre ssion</w> 160
pillow case</w> 160
克羅 心</w> 160
益生 菌</w> 160
矽 膠 159
布 包</w> 159
爆 裂</w> 159
全 明星</w> 159
可 折</w> 159
頭 戴式</w> 159
五 角 159
蘭 芝</w> 159
定 價</w> 159
金 箔</w> 159
拖 地</w> 159
冷 淡</w> 159
綜 合 159
事 本</w> 159
速 出</w> 159
去 除</w> 159
创 意</w> 159
c ant</w> 159
a ko</w> 159
s lo 159
s car</w> 159
b n 159
b ong</w> 159
in tel</w> 159
at o</w> 159
ro u 159
ch o</w> 159
ra z 159
un locked</w> 159
de tai 159
sta n</w> 159
ang e 159
化妝 刷</w> 159
cur tains</w> 159
cen se</w> 159
出清 價</w> 159
mid night</w> 159
hob bies</w> 159
your self</w> 159
防 蚊</w> 158
護 照</w> 158
一 直</w> 158
全 氣</w> 158
泳 褲</w> 158
正 宗</w> 158
道 教</w> 158
超 仙</w> 158
奶 器</w> 158
壓 縮 158
實 拍 158
極 速</w> 158
數 學</w> 158
回 收</w> 158
母 親</w> 158
劉 海</w> 158
睡 袍</w> 158
必 買</w> 158
需 要</w> 158
h at 158
e tte</w> 158
re seller</w> 158
se con 158
ma am</w> 158
ve a</w> 158
kit a</w> 158
fro g 158
經典 雙</w> 158
sen s 158
box es</w> 158
simp ly</w> 158
拉桿 箱</w> 158
retra ctable</w> 158
replac eable</w> 158
耳 洞</w> 157
藍 寶石</w> 157
電 工</w> 157
清 水</w> 157
壁 飾</w> 157
火 車</w> 157
北 海 157
插 花</w> 157
魔 女</w> 157
勇 士</w> 157
韩 版</w> 157
牡 丹</w> 157
b li 157
le vel</w> 157
se c</w> 157
ma car 157
fe et</w> 157
be ans</w> 157
tra iner</w> 157
ke to</w> 157
lit ers</w> 157
mil d</w> 157
dol ce</w> 157
stre chable</w> 157
squ ee 157
vir gin</w> 157
philipp ines</w> 157
calcu lator</w> 157
brassi ere</w> 157
煙灰 缸</w> 157
exerci se</w> 157
brie fs</w> 157
五角 星</w> 157
文 創</w> 156
古 包</w> 156
網 絡</w> 156
彈 簧</w> 156
果 凍 156
皂 盒</w> 156
另 售</w> 156
破 壞</w> 156
如 圖</w> 156
靈 頓</w> 156
真 皮包</w> 156
流 浪</w> 156
領 結</w> 156
檢 測</w> 156
走 路</w> 156
演 出</w> 156
入 裝</w> 156
i an</w> 156
st ro 156
di ary</w> 156
su l 156
ssi mo</w> 156
water melon</w> 156
charact ers</w> 156
collecti ble</w> 156
boy leg</w> 156
effe ct</w> 156
批發 價</w> 156
every day</w> 156
spee dy</w> 156
jas mine</w> 156
石英 表</w> 156
pock et 156
autu mn</w> 156
小 心</w> 155
花 苞</w> 155
樂 樂</w> 155
商 場</w> 155
童 房</w> 155
三 宅</w> 155
子 彈</w> 155
圓 桌</w> 155
強 光</w> 155
超 美 155
剪 裁</w> 155
包 休</w> 155
八 成新</w> 155
成 功</w> 155
刷 破</w> 155
完 全</w> 155
吉 祥</w> 155
都 市</w> 155
o mega</w> 155
f x</w> 155
re la 155
st an 155
un i</w> 155
pi lot</w> 155
pla ce</w> 155
ni vea</w> 155
desig ner</w> 155
ke e</w> 155
shi ba</w> 155
hi king</w> 155
go ggles</w> 155
cho ice</w> 155
drin king</w> 155
ech ers</w> 155
dire ct</w> 155
dura ble</w> 155
oat meal</w> 155
美 腿</w> 154
舞 會</w> 154
加 贈</w> 154
貼 身</w> 154
東 方</w> 154
個 子</w> 154
郵 票</w> 154
祛 痘</w> 154
蠟 線</w> 154
洗 衣 154
互 動</w> 154
量 化</w> 154
消 防</w> 154
姐 妹</w> 154
s ity</w> 154
la i</w> 154
li fe 154
po made</w> 154
ta ctical</w> 154
ear ings</w> 154
vi l</w> 154
do zen</w> 154
wal king</w> 154
lan yard</w> 154
ry x 154
elect ro 154
play boy</w> 154
brea ker</w> 154
christ ening</w> 154
spro cket</w> 154
nap kin</w> 154
隨行 杯</w> 154
小 兔</w> 153
黑 曜石</w> 153
半 罩</w> 153
罐 頭</w> 153
線 筆</w> 153
側 翻</w> 153
頭 燈</w> 153
環 球</w> 153
色 款</w> 153
枕 芯</w> 153
單 色</w> 153
調 理</w> 153
贈 送</w> 153
包 巾</w> 153
低 胸</w> 153
碳 素</w> 153
史 萊姆</w> 153
牆 貼</w> 153
屁 屁</w> 153
攻 略</w> 153
副 食品</w> 153
s kid</w> 153
s wing</w> 153
m us 153
b ling</w> 153
li ft</w> 153
ri es</w> 153
al i</w> 153
ne ver</w> 153
fa b</w> 153
ph e</w> 153
sk echers</w> 153
cu ff</w> 153
da y 153
no vel</w> 153
prin ce</w> 153
ath er 153
mu sh 153
shi sei 153
nu mbers</w> 153
dor ae 153
pon y 153
tai wan</w> 153
tou gh</w> 153
aromat her 153
北海 道</w> 153
小 款</w> 152
小 夥伴</w> 152
阿 贊</w> 152
藍 紅</w> 152
水 餃</w> 152
手 禮</w> 152
黑 魂</w> 152
雪 茄</w> 152
美 味</w> 152
風 板</w> 152
中 褲</w> 152
發 器</w> 152
圓 臉</w> 152
車 充</w> 152
噴 漆</w> 152
珍 品</w> 152
珍 珠 152
加 坡</w> 152
新 加坡</w> 152
貝 兒</w> 152
體 驗</w> 152
控 制 152
飛 人</w> 152
刀 片</w> 152
燈 籠</w> 152
重 型</w> 152
省 力</w> 152
智 力</w> 152
擴 香 152
v ga</w> 152
t r</w> 152
la d 152
it ali 152
sa m</w> 152
mo ssimo</w> 152
fi eld</w> 152
gh am</w> 152
ter nal</w> 152
ad vance</w> 152
gi ant</w> 152
sma l</w> 152
ka t</w> 152
lay ers</w> 152
fron tro 152
cal vin</w> 152
bon net</w> 152
cir cu 152
thermo meter</w> 152
geor ge</w> 152
歐舒 丹</w> 152
powe red</w> 152
shisei do</w> 152
佛 像</w> 151
男 女 151
眼 圈</w> 151
三 洋</w> 151
馬 甲</w> 151
口 杯</w> 151
全 面</w> 151
當 勞</w> 151
物 品</w> 151
超 軟</w> 151
提 升</w> 151
騎 士 151
結 單</w> 151
袖 珍</w> 151
棉 襪</w> 151
應 援</w> 151
早 秋</w> 151
奴 比</w> 151
駝 色</w> 151
積 木 151
巨 人</w> 151
端 子</w> 151
h f</w> 151
h ai 151
z y 151
se same</w> 151
sa ver</w> 151
ig n 151
ko sh</w> 151
uni que</w> 151
lit ter</w> 151
vit ali 151
one x</w> 151
sea son 151
black head</w> 151
king dom</w> 151
prest ige</w> 151
撲克 牌</w> 151
pepper mint</w> 151
水 槍</w> 150
情 侣</w> 150
銀 扣</w> 150
口 徑</w> 150
宮 崎 150
單 頭</w> 150
衣 女</w> 150
軟 管</w> 150
包 皮</w> 150
包 覆</w> 150
空 白</w> 150
多 代</w> 150
棉 外套</w> 150
免 安裝</w> 150
濕 紙</w> 150
雨 刷</w> 150
史 黛 150
史 奴比</w> 150
杯 緣子</w> 150
re max</w> 150
st d</w> 150
li f 150
li me</w> 150
ma xi 150
bo at</w> 150
pi yao</w> 150
we igh 150
bea d</w> 150
gi o</w> 150
tri u 150
go d 150
ge ment</w> 150
she a</w> 150
垃圾 袋</w> 150
rect angular</w> 150
fal se</w> 150
writ ing</w> 150
dorae mon</w> 150
frontro w</w> 150
溫 度</w> 149
絲 綢</w> 149
字 帖</w> 149
水 平</w> 149
黑 藍</w> 149
全 網</w> 149
排 水</w> 149
閃 粉</w> 149
壓 縮</w> 149
菜 刀</w> 149
冰 種</w> 149
松 鼠</w> 149
摩 登</w> 149
霸 氣</w> 149
初 學</w> 149
菊 花</w> 149
液 態</w> 149
持 式</w> 149
旅 遊 149
屁 股</w> 149
炒 鍋</w> 149
n au 149
e u</w> 149
s wear</w> 149
p ment</w> 149
co ck</w> 149
ro m</w> 149
lu ffy</w> 149
po s 149
sp inner</w> 149
mo p</w> 149
mo mmy</w> 149
ss ors</w> 149
ath le 149
gra in</w> 149
motor s</w> 149
spa dri 149
bur ner</w> 149
tab le 149
fen di</w> 149
hard bound</w> 149
梳妝 台</w> 149
foot wear</w> 149
conver ter</w> 149
pau l</w> 149
trous ers</w> 149
roman tic</w> 149
男 短</w> 148
福 斯</w> 148
鞋 面</w> 148
鞋 底</w> 148
手 持式</w> 148
質 感 148
廚 具</w> 148
夾 層</w> 148
蘭 特</w> 148
聯 想</w> 148
開 叉 148
食 用</w> 148
春 款</w> 148
包 潮</w> 148
空 機</w> 148
補 光燈</w> 148
娜 娜</w> 148
褶 皺</w> 148
叉 子</w> 148
迷 你 148
探 索</w> 148
俄 羅 148
m j</w> 148
la test</w> 148
ti ff 148
po lo 148
pe pper</w> 148
par a 148
gri d</w> 148
漁夫 鞋</w> 148
pain ted</w> 148
tou ch 148
gin gham</w> 148
opti cal</w> 148
chang ing</w> 148
disinfect ant</w> 148
house hold</w> 148
手 作 147
護 腕</w> 147
書 套</w> 147
卡 比</w> 147
奇 諾</w> 147
板 房</w> 147
超 可愛 147
超 靜音</w> 147
石 頭</w> 147
包 鞋</w> 147
冷 氣 147
條 紙</w> 147
邊 桌</w> 147
籃 球 147
轉 換</w> 147
市 場</w> 147
秋 款</w> 147
步 車</w> 147
聲 寶</w> 147
碗 柜</w> 147
喝 水</w> 147
街 舞</w> 147
擴 充</w> 147
吧 台</w> 147
琥 珀</w> 147
i de 147
z one</w> 147
f arm</w> 147
y x</w> 147
ra w</w> 147
po ly</w> 147
ur o</w> 147
do ctors</w> 147
ing co</w> 147
for e</w> 147
pri ced</w> 147
mou th</w> 147
時尚 潮</w> 147
商務 手</w> 147
twi sted</w> 147
玻璃 瓶</w> 147
han a 147
sci ssors</w> 147
shu i</w> 147
stron g</w> 147
小 手</w> 146
保 險</w> 146
膠 底</w> 146
夏 款</w> 146
大 作</w> 146
褲 長</w> 146
圓 框</w> 146
軟 包</w> 146
用 款</w> 146
多 彩</w> 146
拆 式</w> 146
分 析</w> 146
分 離式</w> 146
棉 鞋</w> 146
下 水</w> 146
鑽 耳環</w> 146
碳 粉</w> 146
碧 璽</w> 146
課 本</w> 146
鈕 扣</w> 146
掀 蓋</w> 146
蓬 頭</w> 146
巨 無 146
炒 菜</w> 146
媒 體</w> 146
g our 146
m mi 146
x box</w> 146
z ine</w> 146
an te 146
co pper</w> 146
lo ws</w> 146
ro o 146
si x</w> 146
ti ca</w> 146
sho p 146
mp h</w> 146
wi per</w> 146
pla t 146
寶寶 兒</w> 146
shi mmer</w> 146
ass y</w> 146
nu ts</w> 146
高爾 夫 146
reser ved</w> 146
stren gth</w> 146
round neck</w> 146
aromather apy</w> 146
主 食</w> 145
麗 莎</w> 145
古 銅 145
光 板</w> 145
光 陽</w> 145
計 學</w> 145
機 包</w> 145
鐵 板</w> 145
前 後 145
風 景</w> 145
生 活 145
生 命</w> 145
發 店</w> 145
理 膚</w> 145
爾 惠 145
潮 品</w> 145
超 萌</w> 145
層 架</w> 145
修 飾</w> 145
酒 器</w> 145
世 代</w> 145
仿 舊</w> 145
初 中</w> 145
瓶 器</w> 145
液 體</w> 145
沉 香</w> 145
蒸 氣</w> 145
今 日</w> 145
刻 度</w> 145
晾 衣</w> 145
o li 145
s m 145
s cal 145
j in 145
lo west</w> 145
ca ll</w> 145
si ons</w> 145
so lu 145
ex cel 145
ban g</w> 145
man y</w> 145
沙發 椅</w> 145
zz a</w> 145
dor oid</w> 145
機械 手</w> 145
招財 貓</w> 145
holi day</w> 145
零錢 袋</w> 145
nen doroid</w> 145
inver ter</w> 145
brai ded</w> 145
tiff any</w> 145
小 禮物</w> 144
手 掌</w> 144
童 趣</w> 144
防 汗</w> 144
婦 裝</w> 144
中 生</w> 144
中 款</w> 144
頭 盔</w> 144
塑 膠 144
高 音</w> 144
高 雄 144
發 光 144
金 包</w> 144
戰 馬</w> 144
獨 特</w> 144
萬 斯</w> 144
鎖 骨</w> 144
油 瓶</w> 144
天 梭</w> 144
集 點</w> 144
剎 車</w> 144
鍍 膜</w> 144
杜 蘭特</w> 144
什 麼</w> 144
o ther</w> 144
h b 144
h eng</w> 144
an ni 144
st ate</w> 144
ba lls</w> 144
on ic</w> 144
ma dre</w> 144
pa in</w> 144
ki ll</w> 144
me la 144
休閒 包</w> 144
wal lets</w> 144
war dro 144
hon ey 144
one piece</w> 144
eu ro 144
sn oo 144
apri l</w> 144
dru m</w> 144
anch or</w> 144
水 袋</w> 143
三 種</w> 143
大 馬 143
電 鍋</w> 143
不 沾 143
特 產</w> 143
珠 珠</w> 143
白 鐵</w> 143
提 琴</w> 143
騎 車</w> 143
萬 年</w> 143
桌 墊</w> 143
公 牛</w> 143
多 件</w> 143
冷 暖</w> 143
循 環</w> 143
鼠 年</w> 143
記 事本</w> 143
袖 洋裝</w> 143
方 格</w> 143
胡 迪</w> 143
重 工</w> 143
淡 香</w> 143
淡 斑</w> 143
披 風</w> 143
t ata</w> 143
ba c</w> 143
at tire</w> 143
el sa</w> 143
pi e</w> 143
che ts</w> 143
ka i</w> 143
mu sical</w> 143
cre w</w> 143
mor phe</w> 143
foo ds</w> 143
音樂 盒</w> 143
絕版 品</w> 143
bapti smal</w> 143
ame thy 143
calen dar</w> 143
hypo allergenic</w> 143
麥 片</w> 142
加 寬</w> 142
女 時</w> 142
衣 板</w> 142
軟 套</w> 142
測 量</w> 142
松 木</w> 142
尾 巴</w> 142
轉 接</w> 142
搖 頭</w> 142
燈 光</w> 142
米 亞</w> 142
面 裝飾</w> 142
烏 龍</w> 142
快 樂 142
e co 142
f u</w> 142
on line</w> 142
ro d</w> 142
par i 142
shi e</w> 142
rubb erized</w> 142
scre w 142
sna ke</w> 142
ky o</w> 142
graph y</w> 142
inter national</w> 142
rot ating</w> 142
im pact</w> 142
mun a 142
寫字 桌</w> 142
ginger snaps</w> 142
scrat ch</w> 142
亞 曼尼</w> 141
房 客</w> 141
大 量</w> 141
輕 盈</w> 141
不 同</w> 141
帶 連</w> 141
溜 冰鞋</w> 141
教 師</w> 141
春 天</w> 141
真 的</w> 141
極 新</w> 141
惡 魔</w> 141
速 干</w> 141
銷 售</w> 141
精 選 141
精 英</w> 141
戴 妃</w> 141
名 器</w> 141
穿 過</w> 141
l bc</w> 141
i p 141
i m</w> 141
h in 141
s ink</w> 141
d ear</w> 141
ba re 141
vi s</w> 141
vi os</w> 141
per form 141
uni t</w> 141
plan e</w> 141
gro c 141
gro wer</w> 141
peri pera</w> 141
beach kin</w> 141
lei sure</w> 141
nouri shing</w> 141
foam ing</w> 141
控制 器</w> 141
小 黑</w> 140
門 鎖</w> 140
大 眾</w> 140
裝 潢</w> 140
電 話 140
銀 樓</w> 140
全 屏</w> 140
老 板</w> 140
麥 當勞</w> 140
鋼 針</w> 140
白 雪 140
奇 哥</w> 140
圓 型</w> 140
自 達</w> 140
蓋 布</w> 140
夜 間</w> 140
開 發票</w> 140
奶 奶</w> 140
親 筆</w> 140
修 容 140
拆 賣</w> 140
八 五折</w> 140
管 道</w> 140
最 佳</w> 140
瑞 典</w> 140
影 片</w> 140
沒 有</w> 140
芝 麻 140
認 明</w> 140
瑕 疵</w> 140
e spadri 140
b by</w> 140
k la 140
k ri 140
k night</w> 140
f ry 140
y e</w> 140
ch lo 140
th an 140
sa chets</w> 140
de er</w> 140
ul t</w> 140
pi ston</w> 140
bu bb 140
sle y</w> 140
flo w</w> 140
運動 套</w> 140
ga in</w> 140
fu el</w> 140
ke ttle</w> 140
gi a</w> 140
百搭 顯</w> 140
可愛 小</w> 140
tri o</w> 140
hi lls</w> 140
免運 中</w> 140
har ness</w> 140
dro p 140
mini ma 140
出貨 前</w> 140
sei ko</w> 140
yar n</w> 140
qua ff</w> 140
bever ly</w> 140
宮崎 駿</w> 140
perform ance</w> 140
溫 柔</w> 139
有 貨</w> 139
手 霜</w> 139
護 理 139
三 線</w> 139
相 冊</w> 139
家 飾</w> 139
棋 盤</w> 139
唱 片</w> 139
真 標</w> 139
插 畫</w> 139
分 鐘</w> 139
人 份</w> 139
米 老鼠</w> 139
刮 痧</w> 139
杜 莎</w> 139
絕 地</w> 139
黏 貼</w> 139
混 合</w> 139
o sh 139
r l</w> 139
v r</w> 139
k yo 139
in se 139
re packed</w> 139
an i</w> 139
lo g 139
li er</w> 139
au stra 139
vi ce</w> 139
be ef</w> 139
休閒 板</w> 139
mm a</w> 139
bro w 139
ven t</w> 139
韓國 帶</w> 139
cand les</w> 139
tur meric</w> 139
smi le</w> 139
anti bacterial</w> 139
洗面 奶</w> 139
scoo ter</w> 139
vibr ator</w> 139
proje ctor</w> 139
巨無 霸</w> 139
muna fie</w> 139
白雪 公主</w> 139
雙 拉鏈</w> 138
雷 朋</w> 138
氣 囊</w> 138
拖 車</w> 138
超 柔</w> 138
提 拉</w> 138
流 水</w> 138
鳳 梨</w> 138
奧 迪</w> 138
人 機</w> 138
回 饋</w> 138
迷 人</w> 138
脖 子</w> 138
照 相</w> 138
琪 琪</w> 138
蓬 裙</w> 138
賦 活</w> 138
h l</w> 138
e ce</w> 138
p less</w> 138
d ate</w> 138
re priced</w> 138
ro l 138
ti s</w> 138
ti me 138
rea der</w> 138
ce lebr 138
pe o 138
por ts</w> 138
ten s</w> 138
hear t 138
太陽 傘</w> 138
sau r</w> 138
glo bal</w> 138
純銀 項</w> 138
遊戲 片</w> 138
ep son</w> 138
davi d</w> 138
hun ter</w> 138
aca de 138
爾惠 靈頓</w> 138
耳 其</w> 137
樂 高 137
愛 買</w> 137
大 型 137
銀 行</w> 137
美 睫</w> 137
服 務</w> 137
儿 童</w> 137
軟 皮</w> 137
震 器</w> 137
個 裝</w> 137
木 盒</w> 137
冰 塊</w> 137
便 捷</w> 137
浴 室 137
模 擬</w> 137
聲 光</w> 137
聲 波</w> 137
本 子</w> 137
恒 溫</w> 137
倒 車</w> 137
俱 樂 137
懸 掛</w> 137
a pe 137
m n 137
co ated</w> 137
st ance</w> 137
lu ck</w> 137
me i</w> 137
uni form</w> 137
tra in</w> 137
tra ding</w> 137
ac cent</w> 137
mb a</w> 137
pen gu 137
squ are 137
英倫 學院</w> 137
fan cy</w> 137
bin der</w> 137
英國 代購</w> 137
modu le</w> 137
friend ly</w> 137
dick ies</w> 137
itali an</w> 137
wardro be</w> 137
大型 犬</w> 137
小 衫</w> 136
異 味</w> 136
國 家</w> 136
大 大</w> 136
大 叔</w> 136
土 耳其</w> 136
女 寶寶</w> 136
調 味</w> 136
公 園</w> 136
普 卡</w> 136
汽 油</w> 136
邊 柜</w> 136
滑 行</w> 136
由 器</w> 136
長 條</w> 136
快 感</w> 136
縫 紉 136
幽 靈</w> 136
路 由器</w> 136
澡 盆</w> 136
l p</w> 136
o va</w> 136
x x 136
f lip 136
re e 136
co tt 136
it ed</w> 136
on ce</w> 136
ca ge</w> 136
ch ance</w> 136
me mo</w> 136
sti ce</w> 136
sil ky</w> 136
clo set</w> 136
hol low</w> 136
go t</w> 136
折疊 式</w> 136
fol ded</w> 136
van ity</w> 136
boy friend</w> 136
absor b 136
shin y</w> 136
便利 店</w> 136
pila ten</w> 136
triu mph</w> 136
小 圓</w> 135
保 羅 135
阿 拉 135
目 鏡</w> 135
心 型</w> 135
艾 斯</w> 135
增 壓</w> 135
石 榴</w> 135
關 節</w> 135
公 桌</w> 135
多 利</w> 135
木 馬</w> 135
插 電</w> 135
納 海</w> 135
松 緊</w> 135
濕 巾</w> 135
收 器</w> 135
轉 運 135
方 框</w> 135
接 收器</w> 135
身 衣</w> 135
山 葉</w> 135
仙 子</w> 135
暈 染</w> 135
攪 拌</w> 135
驚 喜 135
櫥 櫃</w> 135
n md</w> 135
k al 135
re no</w> 135
re cor 135
sh e</w> 135
mi ca</w> 135
sa ck</w> 135
fi sher</w> 135
ja ck 135
fla kes</w> 135
手提 式</w> 135
stra pless</w> 135
mu les</w> 135
tin ts</w> 135
trans for 135
mini ature</w> 135
my phone</w> 135
mang a</w> 135
arti fi 135
activ ated</w> 135
geo metric</w> 135
even ing</w> 135
mush room</w> 135
古 奇 134
套 頭 134
水 泵</w> 134
鞋 盒</w> 134
寶 藍色</w> 134
黑 貓</w> 134
組 裝 134
雪 肌 134
醫 生</w> 134
風 鈴</w> 134
貓 砂</w> 134
無 線 134
無 盒</w> 134
卡 龍 134
瑪 瑙</w> 134
生 素</w> 134
貨 鋪</w> 134
款 長</w> 134
海 豚</w> 134
滿 意</w> 134
綠 植</w> 134
減 齡</w> 134
化 學</w> 134
胖 胖</w> 134
框 架</w> 134
幻 彩</w> 134
粘 鍋</w> 134
歷 史</w> 134
典 款</w> 134
拍 攝</w> 134
倒 流</w> 134
遠 鏡</w> 134
路 亞</w> 134
皆 可</w> 134
c run 134
i dea 134
a k</w> 134
e i 134
r in 134
d al 134
ar row</w> 134
ba d</w> 134
si der</w> 134
to shiba</w> 134
th read</w> 134
sp lash</w> 134
car pet</w> 134
運動 手</w> 134
ci a 134
tu b</w> 134
spor t 134
化妝 箱</w> 134
可愛 動物</w> 134
hoo p</w> 134
時尚 休</w> 134
skin care</w> 134
nu tr 134
out let</w> 134
access ory</w> 134
mini figure</w> 134
bio aqua</w> 134
dea d</w> 134
gluta mansi</w> 134
chron o 134
mea su 134
小飛 象</w> 134
insta x</w> 134
俱樂 部</w> 134
藝 沙發</w> 133
文 藝 133
花 布</w> 133
擺 攤</w> 133
男 運動</w> 133
鞋 女</w> 133
鞋 套</w> 133
黑 水</w> 133
夾 手</w> 133
半 透明</w> 133
變 速</w> 133
心 率</w> 133
卡 扣</w> 133
噴 劑</w> 133
腰 部</w> 133
超 越</w> 133
直 營</w> 133
廣 告 133
威 夷</w> 133
富 貴</w> 133
人 緣</w> 133
烏 龜</w> 133
第 五</w> 133
l le 133
o per 133
i su 133
h q</w> 133
w ig 133
d k 133
ba y</w> 133
ch oo 133
al ur 133
po u 133
di l 133
sp ray 133
am our</w> 133
orig in 133
運動 板</w> 133
ja ckets</w> 133
ho bo</w> 133
ju stice</w> 133
be fore</w> 133
sig nal</w> 133
mu ff 133
il lumin 133
brea d</w> 133
fan tech</w> 133
fer n</w> 133
shar pen 133
記憶 體</w> 133
proje ct</w> 133
emp ty</w> 133
suc cu 133
raz or</w> 133
frog suit</w> 133
pari sian</w> 133
紅 黑</w> 132
夏 威夷</w> 132
防 疫</w> 132
畫 板</w> 132
整 裝</w> 132
日 出</w> 132
解 析</w> 132
不 倒 132
環 扣</w> 132
海 盜</w> 132
角 度</w> 132
跨 境</w> 132
表 帶</w> 132
四 方</w> 132
實 心</w> 132
實 務</w> 132
星 期 132
滾 珠</w> 132
挑 戰</w> 132
程 式</w> 132
令 片</w> 132
劉 海 132
紐 巴 132
消 毒 132
u a</w> 132
t m</w> 132
t ang 132
ba o</w> 132
ca mi 132
ir on 132
bo mb</w> 132
di ent</w> 132
mo to 132
fi x 132
ct ing</w> 132
gre en 132
百搭 長</w> 132
hi p 132
coo k 132
moi st</w> 132
雪紡 衫</w> 132
一體 式</w> 132
三角 形</w> 132
fortun er</w> 132
玩具 店</w> 132
活性 碳</w> 132
maga zine</w> 132
pony tail</w> 132
minima list</w> 132
pengu in</w> 132
計 算 131
男 裝 131
水 藍</w> 131
國 外</w> 131
防 刮 131
美 白 131
音 波</w> 131
五 金 131
玄 關 131
素 描</w> 131
火 輪</w> 131
包 邊</w> 131
閃 電 131
閃 燈</w> 131
田 宮</w> 131
熊 本</w> 131
椅 背</w> 131
唐 裝</w> 131
蕾 絲 131
輔 助 131
聚 會</w> 131
曲 面</w> 131
琺 瑯</w> 131
抓 包</w> 131
達 菲 131
再 生</w> 131
柵 欄</w> 131
彌 月</w> 131
重 量</w> 131
經 濟</w> 131
廠 商</w> 131
處 理</w> 131
晴 雨</w> 131
芒 果</w> 131
煤 油</w> 131
o int 131
g eni 131
i mm 131
a b</w> 131
v at 131
t x</w> 131
垃 圾</w> 131
ma i 131
ma p</w> 131
un ds</w> 131
un sealed</w> 131
bo mb 131
ne eds</w> 131
bu g</w> 131
clo se</w> 131
len e</w> 131
shi ft</w> 131
eye lashes</w> 131
現代 小戶</w> 131
商務 包</w> 131
pig ment</w> 131
eth yl</w> 131
分裝 瓶</w> 131
ggi es</w> 131
osh kosh</w> 131
artifi cial</w> 131
isu zu</w> 131
不倒 翁</w> 131
小 丑</w> 130
雙 門</w> 130
一 家</w> 130
三 款</w> 130
拉 絲</w> 130
中 童</w> 130
頭 皮</w> 130
禮 包</w> 130
蓋 子</w> 130
女 寶寶 130
食 堂</w> 130
四 層</w> 130
貴 妃</w> 130
極 品</w> 130
倍 思</w> 130
橢 圓</w> 130
浴 袍</w> 130
滑 雪</w> 130
幸 運</w> 130
母 親節</w> 130
應 用</w> 130
晴 雨傘</w> 130
s al</w> 130
y un 130
or i</w> 130
at ta 130
ma kita</w> 130
al li 130
el bow</w> 130
sp in</w> 130
mo tion</w> 130
ear th</w> 130
ci vic</w> 130
be dro 130
ani e</w> 130
ke ds</w> 130
可愛 貓</w> 130
bal i</w> 130
hy alur 130
vo red</w> 130
light stick</w> 130
moun tain</w> 130
簡易 書架</w> 130
don ut</w> 130
pal m</w> 130
pun ch</w> 130
cei ling</w> 130
top shop</w> 130
連帽 長</w> 130
nin ja</w> 130
羽絨 服</w> 130
男女 皆可</w> 130
hana bishi</w> 130
小 人</w> 129
花 蕾</w> 129
員 卡</w> 129
一 條</w> 129
彈 簧 129
門 簾 129
拉 力</w> 129
日 單</w> 129
全 部</w> 129
卡 夢</w> 129
荷 蘭</w> 129
台 中 129
割 草</w> 129
東 西</w> 129
修 剪</w> 129
維 生素</w> 129
櫻 桃 129
歌 林</w> 129
油 性</w> 129
柚 子</w> 129
普 通</w> 129
成 年</w> 129
挑 款</w> 129
幫 板</w> 129
接 器</w> 129
沛 納海</w> 129
隔 熱 129
u ce</w> 129
v ity</w> 129
m tb</w> 129
k on 129
f li 129
in iti 129
re vitali 129
ar s</w> 129
la tex</w> 129
fa ith</w> 129
qu et</w> 129
cu tie</w> 129
fla vored</w> 129
hea ds</w> 129
bra ss</w> 129
ste ph 129
lan tern</w> 129
her sh 129
nu tri 129
ther mos</w> 129
super star</w> 129
scoo p</w> 129
西裝 褲</w> 129
oi ls</w> 129
iph onex</w> 129
pad lock</w> 129
壓縮 袋</w> 129
plat form</w> 129
chrono graph</w> 129
bedro om</w> 129
主 機 128
神 秘</w> 128
防 輻射</w> 128
美 杜莎</w> 128
教 材</w> 128
調 情</w> 128
東 京 128
閃 卡</w> 128
公 文</w> 128
裸 色</w> 128
四 合</w> 128
冰 冰</w> 128
深 海</w> 128
冠 希</w> 128
收 銀 128
收 銀</w> 128
滑 輪</w> 128
人 手</w> 128
精 裝</w> 128
莫 斯 128
蚊 器</w> 128
尖 端</w> 128
蓬 蓬裙</w> 128
v on</w> 128
k ki</w> 128
螃 蟹</w> 128
re v 128
ma ge</w> 128
si n</w> 128
ck ers</w> 128
sp lit</w> 128
mo on 128
car b</w> 128
min ions</w> 128
pi x 128
ter o</w> 128
gra dient</w> 128
je g 128
ex press</w> 128
sha wl</w> 128
化妝 台</w> 128
app li 128
pat ter 128
kid ston</w> 128
ze bra</w> 128
sco pe</w> 128
sol o</w> 128
調味 料</w> 128
givea way</w> 128
snoo py</w> 128
screw driver</w> 128
oint ment</w> 128
小 美 127
合 成</w> 127
六 色</w> 127
氣 管</w> 127
大 臉</w> 127
電 暖 127
美 學</w> 127
無 人機</w> 127
陰 陽</w> 127
之 星</w> 127
發 小戶</w> 127
褲 頭</w> 127
海 馬</w> 127
細 節</w> 127
散 熱</w> 127
月 子</w> 127
月 禮</w> 127
蒙 古包</w> 127
南 極 127
軍 事</w> 127
避 震器</w> 127
十 二 127
假 花</w> 127
勇 者</w> 127
求 婚</w> 127
抑 菌</w> 127
削 肩</w> 127
帆 船</w> 127
p tor</w> 127
d ance</w> 127
k ai 127
an ten 127
ch u</w> 127
ce y</w> 127
hi malay 127
water color</w> 127
air con</w> 127
thro w</w> 127
指甲 剪</w> 127
treat s</w> 127
stea mer</w> 127
防水 布</w> 127
dino saur</w> 127
himalay an</w> 127
小 個子</w> 126
平 民</w> 126
合 奏</w> 126
克 拉</w> 126
阿 贊 126
彩 膜</w> 126
寶 水</w> 126
三 輪</w> 126
晶 片</w> 126
斯 特</w> 126
代 發</w> 126
五 月 126
萌 萌</w> 126
束 腰</w> 126
百 分 126
金 邊</w> 126
物 盒</w> 126
獨 家 126
薄 型</w> 126
扣 頭</w> 126
震 動 126
包 膜</w> 126
油 炸</w> 126
汽 材</w> 126
松 大碼</w> 126
攜 帶式</w> 126
淨 白</w> 126
度 計</w> 126
抽 取</w> 126
同 學</w> 126
鍋 具</w> 126
午 餐</w> 126
n ers</w> 126
a pr 126
e per</w> 126
e qui 126
b f</w> 126
j ig 126
re new</w> 126
en o</w> 126
ro uter</w> 126
su spen 126
sa lon</w> 126
sk ull</w> 126
ga bb 126
置物 盒</w> 126
chi ef</w> 126
swi ft</w> 126
fle ece</w> 126
ari el</w> 126
dia c</w> 126
pullo ut</w> 126
dea d 126
ag es</w> 126
工具 包</w> 126
tech no 126
吸盤 式</w> 126
浴室 柜</w> 126
紐巴 倫</w> 126
久 保</w> 125
黑 眼圈</w> 125
書 架 125
罐 裝</w> 125
行 器</w> 125
貓 窩</w> 125
無 法</w> 125
卡 卡</w> 125
短 版 125
生 用</w> 125
毛 刷</w> 125
二 次</w> 125
嬰 房</w> 125
女 帝</w> 125
蓮 蓬頭</w> 125
跳 跳 125
舒 壓</w> 125
空 專</w> 125
實 驗</w> 125
巧 虎</w> 125
現 場</w> 125
魔 方</w> 125
硬 度</w> 125
輪 子</w> 125
轉 角 125
隨 身 125
快 乾</w> 125
底 片</w> 125
n b</w> 125
e st</w> 125
in du 125
in side</w> 125
re fri 125
ra ff 125
mi zer</w> 125
sk et</w> 125
char lotte</w> 125
blo wer</w> 125
of er</w> 125
hu sh</w> 125
ex ternal</w> 125
百搭 潮</w> 125
medi c 125
ban presto</w> 125
折疊 椅</w> 125
multi media</w> 125
canva ss</w> 125
lett uce</w> 125
三角 架</w> 125
水晶 球</w> 125
breast feeding</w> 125
john son</w> 125
絲 花邊</w> 124
麗 麗</w> 124
古 鞋</w> 124
夏 涼</w> 124
配 器</w> 124
亞 馬 124
太 子</w> 124
醫 療</w> 124
書 坊</w> 124
可 放</w> 124
鋼 管</w> 124
白 熊</w> 124
音 量</w> 124
五 件</w> 124
生 存</w> 124
生 女生</w> 124
百 科</w> 124
地 柜</w> 124
夜 視</w> 124
年 代</w> 124
婚 紗 124
婚 宴</w> 124
酒 神</w> 124
奧 運</w> 124
決 戰</w> 124
盆 帽</w> 124
刷 具</w> 124
品 袋</w> 124
塞 式</w> 124
燕 麥</w> 124
牛 肉</w> 124
錄 音 124
隨 意</w> 124
言 情</w> 124
淋 浴 124
浣 熊</w> 124
a sp 124
e on</w> 124
ba d 124
ti ble</w> 124
bo ston</w> 124
lu ck 124
de ss 124
ex pand 124
swi ss</w> 124
cou ture</w> 124
high quality</w> 124
fore st</w> 124
zo diac</w> 124
is land</w> 124
zir con</w> 124
exfoli ating</w> 124
芝麻 街</w> 124
防 蟲</w> 123
寶 石 123
寶 緹 123
一 箱</w> 123
太 郎</w> 123
全 集</w> 123
百 年</w> 123
戰 鬥 123
魚 線</w> 123
誠 品</w> 123
印 尼</w> 123
松 糕 123
天 線</w> 123
臉 書</w> 123
米 亞 123
咖 哩</w> 123
单 肩</w> 123
名 字</w> 123
穿 戴</w> 123
潑 墨</w> 123
a ur 123
a ce 123
p les</w> 123
t ul 123
in nova</w> 123
re ci 123
an dre 123
le vi</w> 123
ra ce</w> 123
wo ofer</w> 123
au x</w> 123
ru s</w> 123
am u 123
wa sher</w> 123
ho me 123
cre di 123
sse y</w> 123
strea m</w> 123
soft gels</w> 123
電源 線</w> 123
conver tible</w> 123
cast or</w> 123
deta chable</w> 123
fon dant</w> 123
anni vers 123
peo ple</w> 123
松糕 鞋</w> 123
附 錄</w> 122
神 仙</w> 122
樂 活</w> 122
布 魯 122
連 接</w> 122
黃 銅</w> 122
變 色 122
帶 長</w> 122
果 蔬</w> 122
心 機</w> 122
無 紡 122
白 證</w> 122
試 衣 122
瑪 瑙 122
金 銀 122
二 色</w> 122
新 勁戰</w> 122
內 襯</w> 122
單 面</w> 122
芬 迪 122
原 料</w> 122
曲 線</w> 122
首 刷</w> 122
橫 款</w> 122
方 領</w> 122
速 度</w> 122
力 量</w> 122
米 粒</w> 122
鯉 魚</w> 122
山 本</w> 122
a sh</w> 122
e v 122
r u</w> 122
j j 122
in tex</w> 122
ba dge</w> 122
al do</w> 122
pa mpers</w> 122
wh at</w> 122
pi d</w> 122
ss d</w> 122
do min 122
per man 122
du ck</w> 122
bra zi 122
beau te 122
spe cs</w> 122
tur tle 122
針織 長</w> 122
防塵 袋</w> 122
radi ator</w> 122
sai lor</w> 122
陶瓷 杯</w> 122
chun ky</w> 122
refri ger 122
皮 筋</w> 121
螢 光 121
網 鞋</w> 121
紅 豆</w> 121
遮 擋</w> 121
機 身</w> 121
亞 麻 121
裝 扮</w> 121
可 口</w> 121
甲 醛</w> 121
無 縫</w> 121
充 線</w> 121
發 邊</w> 121
時 捷</w> 121
戰 神</w> 121
閒 運動</w> 121
女 表</w> 121
木 雕</w> 121
背 巾</w> 121
事 業</w> 121
少 量</w> 121
進 化</w> 121
母 子</w> 121
活 膚</w> 121
巴 士</w> 121
完 成</w> 121
藏 式</w> 121
傳 輸</w> 121
影 城</w> 121
吉 士</w> 121
縫 線</w> 121
駕 駛 121
攪 拌 121
漱 口杯</w> 121
棄 式</w> 121
a st 121
r it 121
m eat</w> 121
in kle</w> 121
co phone</w> 121
to l 121
po tat 121
ta gs</w> 121
mo to</w> 121
me e</w> 121
car t</w> 121
ter y</w> 121
mat ch</w> 121
blo oming</w> 121
ang ler</w> 121
che f</w> 121
bra d 121
war mer</w> 121
tit an</w> 121
葡萄 酒</w> 121
wol f</w> 121
多美 小汽車</w> 121
kra ft</w> 121
inse ct</w> 121
cia ga</w> 121
perman ent</w> 121
福 利</w> 120
網 格</w> 120
三 明治</w> 120
全 省</w> 120
風 長</w> 120
出 品</w> 120
家 家 120
圓 珠</w> 120
百 合</w> 120
金 牌</w> 120
閃 耀</w> 120
滋 潤 120
即 食</w> 120
萊 雅</w> 120
實 品</w> 120
淺 灰</w> 120
潘 多拉</w> 120
沙 包</w> 120
印 象</w> 120
棉 圓領</w> 120
魔 師</w> 120
農 場</w> 120
拋 棄式</w> 120
伊 布</w> 120
十 足</w> 120
扭 扭</w> 120
九 折</w> 120
采 用</w> 120
採 用</w> 120
私 處</w> 120
o t 120
o lay</w> 120
h ul 120
e ve</w> 120
m oul 120
f a</w> 120
ba of 120
se al 120
to m 120
sa int</w> 120
sp read</w> 120
rea ding</w> 120
ki m</w> 120
ja m</w> 120
ju mp</w> 120
pow dered</w> 120
ste ering</w> 120
tre ss</w> 120
ten g</w> 120
sto p</w> 120
squ ish 120
cur l</w> 120
現代 客</w> 120
cen ta</w> 120
ite ch</w> 120
fer r 120
牛仔 布</w> 120
form ers</w> 120
recei ver</w> 120
tak al</w> 120
dyna mic</w> 120
hyalur onic</w> 120
initi al</w> 120
家家 酒</w> 120
baof eng</w> 120
溫 和 119
小 金</w> 119
保 平安</w> 119
光 年</w> 119
腳 墊</w> 119
一 分</w> 119
一 張</w> 119
整 箱</w> 119
元 免</w> 119
大 王</w> 119
可 樂 119
壁 式</w> 119
生 日 119
高 貴</w> 119
腰 掛</w> 119
開 運 119
直 立式</w> 119
四 葉草</w> 119
折 免</w> 119
庫 洛</w> 119
分 褲</w> 119
等 級</w> 119
夫 妻</w> 119
圖 解</w> 119
第 三</w> 119
硫 化</w> 119
雕 像</w> 119
娃 衣</w> 119
爽 膚</w> 119
l u</w> 119
w yi</w> 119
m ur 119
t pad</w> 119
d un 119
y er</w> 119
y ee 119
in as</w> 119
co t</w> 119
car tier</w> 119
min ers</w> 119
per ry</w> 119
運動 襪</w> 119
mar ket</w> 119
ho lic</w> 119
百搭 單</w> 119
cat h</w> 119
純銀 針</w> 119
紀念 版</w> 119
best way</w> 119
lett ers</w> 119
bl k</w> 119
天鵝 絨</w> 119
enhan cer</w> 119
beat le</w> 119
小 火</w> 118
小 書架</w> 118
網 狀</w> 118
配 送</w> 118
愛 上</w> 118
質 長</w> 118
電 式</w> 118
蛋 器</w> 118
鋼 絲</w> 118
白 綠</w> 118
代 餐</w> 118
卡 拉</w> 118
韓 劇</w> 118
好 禮</w> 118
自 有</w> 118
單 反</w> 118
單 寧</w> 118
開 襟</w> 118
萬 圣 118
狗 頭</w> 118
多 美</w> 118
背 膠</w> 118
記 錄器</w> 118
幫 寶 118
搖 擺</w> 118
疊 疊 118
刀 劍 118
影 樓</w> 118
壹 家</w> 118
封 面</w> 118
第 三代</w> 118
芸 芸</w> 118
播 放</w> 118
u ti 118
g el 118
i x</w> 118
a cou 118
w i</w> 118
m ble</w> 118
f ted</w> 118
y es</w> 118
re l</w> 118
lu lu 118
lu bri 118
po ts</w> 118
wh eat</w> 118
sk et 118
sk ort</w> 118
ni ll 118
fe el</w> 118
be tter</w> 118
ke ima 118
ven us</w> 118
max x</w> 118
trans formers</w> 118
購物 車</w> 118
smo ke</w> 118
組合 包</w> 118
粉紅 豬</w> 118
sci ence</w> 118
tee ther</w> 118
保險 箱</w> 118
bru shes</w> 118
fresh ener</w> 118
dani el</w> 118
secon d</w> 118
ryx skincerity</w> 118
高爾夫 球</w> 118
indu stri 118
annivers ary</w> 118
無紡 布</w> 118
turtle neck</w> 118
耳 塞式</w> 117
古 風 117
套 鞋</w> 117
水 杯子</w> 117
眼 皮</w> 117
一 雙</w> 117
一 支</w> 117
畫 畫</w> 117
大 台北</w> 117
美 顏 117
工 裝褲</w> 117
皇 后</w> 117
舞 台</w> 117
發 財 117
時 裝</w> 117
浪 琴</w> 117
教 具</w> 117
綠 蘿 117
新 鮮 117
開 刃</w> 117
火 山</w> 117
火 烈</w> 117
妞 妞</w> 117
兩 面</w> 117
棉 襖</w> 117
彼 得</w> 117
初 版</w> 117
隨 便</w> 117
箱 包</w> 117
研 究 117
越 莓</w> 117
獅 王</w> 117
遠 程</w> 117
入 戶</w> 117
講 義</w> 117
g li 117
a vi 117
a va</w> 117
w anna</w> 117
e ster</w> 117
s n</w> 117
d w</w> 117
la p 117
st s</w> 117
st he 117
th u 117
sp y 117
car ry</w> 117
pla tes</w> 117
ni kon</w> 117
du al 117
gra pe 117
stu dded</w> 117
mon tero</w> 117
il lu 117
sen sual</w> 117
smo cked</w> 117
fru its</w> 117
comple x</w> 117
wr inkle</w> 117
wr angler</w> 117
flu id</w> 117
poli ce</w> 117
samp ler</w> 117
emo ji</w> 117
aur ora</w> 117
ferr ari</w> 117
萬圣 節</w> 117
nill kin</w> 117
雷 帽</w> 116
朋 克</w> 116
神 明</w> 116
恐 龍 116
洋 基</w> 116
護 士</w> 116
黑 糖</w> 116
畫 冊</w> 116
廚 房 116
三 入</w> 116
裝 版</w> 116
不 是</w> 116
風 火輪</w> 116
碼 鎖</w> 116
毛 怪</w> 116
之 心</w> 116
高 雅</w> 116
發 行</w> 116
金 戒指</w> 116
自 然 116
超 輕 116
超 夯</w> 116
女 外</w> 116
單 支</w> 116
用 書</w> 116
鎖 骨鏈</w> 116
吊 籃</w> 116
最 強</w> 116
市 集</w> 116
證 書</w> 116
搖 籃</w> 116
回 彈</w> 116
得 力</w> 116
培 訓</w> 116
碳 纖維 116
重 力</w> 116
密 度</w> 116
草 坪</w> 116
辛 巴</w> 116
更 新</w> 116
入 式</w> 116
簍 空</w> 116
复 古</w> 116
c j</w> 116
w w 116
v alu 116
s ma</w> 116
an y 116
co in 116
ro ck 116
ma inten 116
pa la 116
de ss</w> 116
de te 116
pre ci 116
cu t 116
pi ano</w> 116
ear ing</w> 116
plu shie</w> 116
sc ul 116
stra y</w> 116
ssi e</w> 116
bro ther</w> 116
spi ce</w> 116
win nie</w> 116
eng ine 116
flow y</w> 116
gil dan</w> 116
文具 盒</w> 116
doll shoes</w> 116
spark ling</w> 116
polo shirt</w> 116
gour met</w> 116
spray er</w> 116
亞馬 遜</w> 116
花 花 115
太 極</w> 115
工 場</w> 115
老 爺</w> 115
老 二</w> 115
無 糖</w> 115
毛 筆</w> 115
歡 樂</w> 115
發 熱 115
波 力</w> 115
超 顯</w> 115
內 膽</w> 115
單 前</w> 115
開 瓶器</w> 115
外 接</w> 115
直 發</w> 115
蒼 蘭</w> 115
原 礦</w> 115
煙 機</w> 115
洗 頭</w> 115
獵 人</w> 115
訂 購</w> 115
民 謠</w> 115
牆 紙</w> 115
熒 光</w> 115
侃 爺</w> 115
n u</w> 115
g ed</w> 115
w d</w> 115
t ing 115
an k 115
er ina</w> 115
ma ma</w> 115
ne stle</w> 115
mi t</w> 115
de rella</w> 115
pre order</w> 115
fi lip 115
br y 115
運動 風</w> 115
ja zz</w> 115
pe st</w> 115
stra ppy</w> 115
ten nis</w> 115
brace lets</w> 115
時尚 手</w> 115
歐美 潮牌</w> 115
cat ed</w> 115
reju vin 115
davi s</w> 115
tech ni 115
trous er</w> 115
jui cer</w> 115
媽咪 包</w> 115
jon i</w> 115
百分 百</w> 115
squish y</w> 115
皮 皮</w> 114
保 時捷</w> 114
紅 藍</w> 114
一 批</w> 114
整 型</w> 114
整 組</w> 114
點 心 114
貨 免</w> 114
發 套</w> 114
單 眼</w> 114
貼 花</w> 114
羽 球</w> 114
熊 大</w> 114
淺 色</w> 114
領 露</w> 114
釣 竿</w> 114
兩 用 114
分 離</w> 114
方 位</w> 114
搖 搖椅</w> 114
燈 條</w> 114
仙 境</w> 114
鍍 金</w> 114
腿 褲</w> 114
填 充</w> 114
核 桃</w> 114
n ct</w> 114
c co</w> 114
l ly</w> 114
g n 114
i ii</w> 114
a ve 114
m cm</w> 114
d angle</w> 114
re x</w> 114
ch ange</w> 114
ne ed 114
su ction</w> 114
mo d</w> 114
mo ti 114
wat tpad</w> 114
pla centa</w> 114
pan a 114
ka wa 114
hi dden</w> 114
tur n</w> 114
auto light</w> 114
fen g</w> 114
nor th</w> 114
twin kle</w> 114
embo ssed</w> 114
計算 機</w> 114
anten na</w> 114
gabb ana</w> 114
主 持 113
小 禮品</w> 113
花 藝</w> 113
合 器</w> 113
合 格</w> 113
麗 嬰房</w> 113
阿 爾 113
水 母</w> 113
鐵 鍋</w> 113
三 重</w> 113
拉 花</w> 113
拉 松</w> 113
大 顆</w> 113
日 牌</w> 113
美 甲 113
風 休</w> 113
中 腰</w> 113
心 情</w> 113
糖 果 113
卡 特</w> 113
車 燈</w> 113
織 帶</w> 113
掛 脖 113
貝 雷帽</w> 113
食 玩</w> 113
亮 白</w> 113
購 回</w> 113
酒 瓶</w> 113
標 處</w> 113
真 絲 113
吊 扇</w> 113
賽 亞 113
成 犬</w> 113
轉 盤</w> 113
人 造</w> 113
零 開始</w> 113
蓬 蓬</w> 113
汗 衫</w> 113
埃 及</w> 113
u ri 113
i o</w> 113
h b</w> 113
e led</w> 113
b ond</w> 113
y sl</w> 113
j m</w> 113
re gu 113
st ur 113
lo tus</w> 113
ra men</w> 113
ra cer</w> 113
ma z 113
th at</w> 113
so dium</w> 113
car amel</w> 113
bi scu 113
stri ps</w> 113
ff el</w> 113
mou sse</w> 113
her b</w> 113
xi e</w> 113
spe ci 113
bar ako</w> 113
sur f</w> 113
man o</w> 113
mari e</w> 113
choco la 113
機械 腕</w> 113
寬松 休</w> 113
ren ce</w> 113
tar te</w> 113
bou quet</w> 113
游泳 圈</w> 113
sens itive</w> 113
absorb ent</w> 113
rejuvin ating</w> 113
主持 人</w> 113
美甲 店</w> 113
小 美</w> 112
英 文版</w> 112
男 生女生</w> 112
黑 綠</w> 112
鐵 架</w> 112
西 蘭</w> 112
視 器</w> 112
美 品</w> 112
球 球</w> 112
全 方位</w> 112
可 貨到</w> 112
尚 手</w> 112
工 學</w> 112
中 華</w> 112
珠 子</w> 112
波 波</w> 112
洛 哥</w> 112
灰 姑娘</w> 112
蓋 毯</w> 112
地 圖</w> 112
施 工</w> 112
湯 碗</w> 112
跳 跳</w> 112
外 賣</w> 112
改 善</w> 112
船 襪</w> 112
真 無線</w> 112
干 花</w> 112
干 濕</w> 112
指 南</w> 112
領 巾</w> 112
聚 寶 112
框 畫</w> 112
賽 琳</w> 112
牧 田</w> 112
搖 桿</w> 112
摩 洛哥</w> 112
刷 色</w> 112
瓶 裝</w> 112
戀 人</w> 112
軍 綠色</w> 112
精 密</w> 112
幼 犬</w> 112
鍛 煉</w> 112
傘 車</w> 112
磨 砂 112
酷 奇</w> 112
輸 出</w> 112
問 題</w> 112
徒 步</w> 112
l tb</w> 112
a y 112
a ph 112
a aa</w> 112
e ty</w> 112
p l</w> 112
b p</w> 112
j r</w> 112
辟 邪</w> 112
re scu 112
si de 112
to kyo</w> 112
ri der</w> 112
bo mber</w> 112
mo st</w> 112
qu in 112
me d 112
br o</w> 112
ter ran 112
no ir</w> 112
pu pp 112
chi e</w> 112
cho p 112
stre ss</w> 112
skin food</w> 112
the med</w> 112
mari a</w> 112
寶可 夢 112
art work</w> 112
aro ma</w> 112
valen tine</w> 112
wee k 112
bay max</w> 112
fuji film</w> 112
ante ed</w> 112
生活 用品</w> 112
南極 人</w> 112
beaute derm</w> 112
文 件 111
腳 鞋</w> 111
恐 怖</w> 111
利 波</w> 111
透 亮</w> 111
夾 板</w> 111
茶 樹</w> 111
可 單</w> 111
可 到</w> 111
碼 數</w> 111
卡 座</w> 111
海 棉</w> 111
禮 券</w> 111
年 級</w> 111
哈 利波</w> 111
女 朋友</w> 111
幾 客</w> 111
軟 毛</w> 111
排 球</w> 111
唯 一</w> 111
層 次</w> 111
多 益</w> 111
兔 裝</w> 111
分 售</w> 111
簡 潔</w> 111
足 浴</w> 111
記 型</w> 111
魔 幻</w> 111
成 型</w> 111
建 築</w> 111
七 天</w> 111
過 膝</w> 111
坎 肩</w> 111
蚊 香</w> 111
宣 言</w> 111
闊 腿</w> 111
e di 111
p ir 111
t wee 111
d d</w> 111
k d</w> 111
re tail</w> 111
ar bu 111
la k 111
la de 111
le mon 111
lo ss</w> 111
lo real</w> 111
ba len 111
en e 111
en ts</w> 111
on yx</w> 111
ch er 111
fa ced</w> 111
ko ol</w> 111
sta mps</w> 111
mat i 111
hu ggies</w> 111
chi bi</w> 111
mu d</w> 111
bel tbag</w> 111
sty ling</w> 111
va p 111
hol li 111
sto ck 111
hy per 111
bar s</w> 111
hon g 111
man u 111
美國 帶</w> 111
ab s</w> 111
cal ci 111
gro w</w> 111
mol der</w> 111
decor ative</w> 111
一體 機</w> 111
登山 鞋</w> 111
devi ce</w> 111
guar anteed</w> 111
噴霧 器</w> 111
同人 誌</w> 111
ign ition</w> 111
transfor mer</w> 111
jeg gings</w> 111
equi pment</w> 111
小 馬 110
雙 拉</w> 110
套 書</w> 110
字 紋</w> 110
水 手</w> 110
彩 繪 110
六 月</w> 110
潔 淨</w> 110
比 亞</w> 110
亞 洲</w> 110
雪 糕</w> 110
孔 器</w> 110
日 用</w> 110
行 銷</w> 110
代 購 110
盤 套</w> 110
高 絲</w> 110
高 山</w> 110
時 刻</w> 110
灰 藍</w> 110
車 兒童</w> 110
金 手</w> 110
范 斯</w> 110
婚 鞋</w> 110
北 極</w> 110
北 京</w> 110
瓜 子</w> 110
椅 墊</w> 110
嚴 選 110
極 光</w> 110
八 折</w> 110
寄 送</w> 110
鼻 子</w> 110
人 大</w> 110
牙 音</w> 110
品 味</w> 110
橡 皮</w> 110
野 獸</w> 110
同 名</w> 110
杜 嘉 110
蘆 薈</w> 110
停 車</w> 110
薔 薇</w> 110
蝸 牛</w> 110
d ge 110
re lease</w> 110
la kers</w> 110
to k</w> 110
lu re</w> 110
tt a</w> 110
ru st</w> 110
sun ny</w> 110
sc end</w> 110
fu ture</w> 110
cha mo 110
ad d</w> 110
pe di 110
ha wk</w> 110
poly ester</w> 110
仿真 花</w> 110
驚喜 價</w> 110
iron man</w> 110
acou stic</w> 110
rescu e</w> 110
小 沙</w> 109
小 獅</w> 109
護 腰</w> 109
黑 面</w> 109
一 樣</w> 109
一 本</w> 109
日 產</w> 109
全 台</w> 109
不 要</w> 109
風 力</w> 109
中 秋</w> 109
貓 眼</w> 109
珠 筆</w> 109
無 味</w> 109
自 留</w> 109
掛 牆</w> 109
剃 須</w> 109
魚 尾</w> 109
包 長</w> 109
測 器</w> 109
指 針</w> 109
芬 妮</w> 109
滴 膠</w> 109
琺 瑯 109
檢 驗</w> 109
墜 耳環</w> 109
識 別</w> 109
a mi 109
m u</w> 109
m po 109
褪 色</w> 109
ma king</w> 109
to s</w> 109
sa ving</w> 109
de fin 109
ver tical</w> 109
be er</w> 109
je sus</w> 109
gre et 109
he m</w> 109
sma sh</w> 109
充電 寶 109
go ku</w> 109
comp art 109
san it 109
純銀 耳環</w> 109
mini so</w> 109
機械 鍵</w> 109
joy stick</w> 109
gif ts</w> 109
milk tea</w> 109
dess ert</w> 109
寶緹 嘉</w> 109
refriger ator</w> 109
industri al</w> 109
mainten ance</w> 109
holli ster</w> 109
杜嘉 班 109
小 子</w> 108
小 錢</w> 108
小 林</w> 108
絲 器</w> 108
保 冷</w> 108
雷 姆</w> 108
水 果 108
神 話</w> 108
鞋 款</w> 108
熱 售</w> 108
夏 裝 108
童 床</w> 108
三 個</w> 108
日 雜</w> 108
產 后</w> 108
艾 草</w> 108
喬 登</w> 108
荷 花</w> 108
高 光</w> 108
圓 筒</w> 108
韓 風 108
噴 槍</w> 108
晚 禮服</w> 108
柔 膚</w> 108
新 書</w> 108
宮 廷 108
女 寶</w> 108
單 片</w> 108
火 箭</w> 108
羽 毛球</w> 108
鏡 框</w> 108
節 日</w> 108
測 試</w> 108
普 洱 108
泡 面</w> 108
浴 衣</w> 108
下 巴</w> 108
楊 冪</w> 108
滑 鞋</w> 108
模 式</w> 108
人 形</w> 108
活 頁</w> 108
拋 光 108
身 高</w> 108
戀 愛 108
十 一</w> 108
番 茄</w> 108
u pper</w> 108
h ori 108
e b</w> 108
p ter</w> 108
le le</w> 108
ba te</w> 108
or ts</w> 108
ma la 108
ti res</w> 108
al th</w> 108
sti x</w> 108
pur it 108
時尚 個</w> 108
工作 桌</w> 108
ku ma</w> 108
customi ze</w> 108
eu c</w> 108
ox y 108
die sel</w> 108
登山 包</w> 108
ful ly</w> 108
閨蜜 裝</w> 108
shop kins</w> 108
sharpen er</w> 108
bomb shell</w> 108
yun teng</w> 108
刀劍 亂</w> 108
pana sonic</w> 108
terran ova</w> 108
arbu tin</w> 108
balen ciaga</w> 108
普洱 茶</w> 108
小 宅</w> 107
合 式</w> 107
光 學</w> 107
機 柜</w> 107
手 巾</w> 107
連 身 107
商 業</w> 107
擋 板</w> 107
鋼 架</w> 107
白 玉</w> 107
艾 灸</w> 107
財 神</w> 107
毛 絨 107
金 盞</w> 107
服 女</w> 107
加 工</w> 107
扣 環</w> 107
外 銷</w> 107
空 運 107
祈 福</w> 107
驅 車</w> 107
油 膠</w> 107
雜 貨店</w> 107
烤 盤</w> 107
吊 椅</w> 107
沙 袋</w> 107
骨 頭</w> 107
品 特</w> 107
登 機</w> 107
磨 機</w> 107
每 日</w> 107
掌 上</w> 107
爵 士</w> 107
c tic</w> 107
o wn</w> 107
i or</w> 107
i pa 107
x y 107
f lan 107
f inger 107
ba le</w> 107
ur ine</w> 107
flo ater</w> 107
desig ned</w> 107
現貨 下</w> 107
na v 107
hu da</w> 107
sha ft</w> 107
mag s</w> 107
寶寶 防</w> 107
bri dal</w> 107
stor m</w> 107
wel ding</w> 107
lea sh</w> 107
bur st</w> 107
colla p 107
聖誕 樹</w> 107
gol d 107
滿千 免</w> 107
pig gy</w> 107
翻蓋 包</w> 107
小圓 桌</w> 107
die cast</w> 107
高腳 凳</w> 107
loaf ers</w> 107
自拍 桿</w> 107
warri ors</w> 107
potat o</w> 107
幫寶 適</w> 107
小 新</w> 106
花 開</w> 106
水 蜜桃</w> 106
元 氣</w> 106
儲 蓄</w> 106
不 織布</w> 106
工 地</w> 106
豆 漿</w> 106
晶 晶</w> 106
陰 陽 106
金 絲</w> 106
柔 光</w> 106
萬 用 106
桃 子</w> 106
船 型</w> 106
鎮 宅</w> 106
休 息</w> 106
模 組</w> 106
初 生</w> 106
瓶 子</w> 106
來 電</w> 106
簽 名 106
磨 刀</w> 106
假 發</w> 106
雕 塑</w> 106
礦 物</w> 106
o real</w> 106
h m</w> 106
t l</w> 106
lo p</w> 106
se tting</w> 106
ca do</w> 106
ro m 106
ri t</w> 106
mo ck</w> 106
ki sses</w> 106
am ore</w> 106
gh o 106
ss ing</w> 106
bu ff 106
vi al</w> 106
blu sher</w> 106
do ws</w> 106
ing a</w> 106
fe mme</w> 106
bb w</w> 106
chi p</w> 106
化妝 椅</w> 106
lan g</w> 106
gar nish</w> 106
dr one</w> 106
ton y 106
plan ts</w> 106
jan e</w> 106
cit rus</w> 106
嬰兒 車</w> 106
jui cy</w> 106
thri fted</w> 106
door mat</w> 106
divi ded</w> 106
celebr ity</w> 106
dk ny</w> 106
五月 天</w> 106
賽亞 人</w> 106
regu lator</w> 106
lade sh</w> 106
粉 白</w> 105
有 限</w> 105
三 分</w> 105
大 阪</w> 105
茶 葉 105
電 池 105
帶 洋裝</w> 105
媽 媽 105
艾 莎</w> 105
卡 貼</w> 105
德 斯</w> 105
理 論</w> 105
車 標</w> 105
頸 部</w> 105
二 層</w> 105
女 上衣</w> 105
開 幕</w> 105
幾 角</w> 105
直 升</w> 105
促 销</w> 105
貴 婦</w> 105
八 卦</w> 105
千 鳥 105
微 景觀</w> 105
植 萃</w> 105
證 件 105
牙 齒</w> 105
監 視器</w> 105
山 居</w> 105
烏 克 105
凝 霜</w> 105
腮 紅 105
概 念</w> 105
o s 105
s r</w> 105
m to</w> 105
p b</w> 105
p lease</w> 105
d f 105
an ts</w> 105
lo st</w> 105
ro mpers</w> 105
ti k 105
ti de</w> 105
bo k</w> 105
mo de</w> 105
so me 105
sho o 105
pre pa 105
pr i</w> 105
sun shine</w> 105
men ow</w> 105
mon th</w> 105
soa ps</w> 105
fro g</w> 105
韓國 直</w> 105
bang ladesh</w> 105
pol ka 105
pul ley</w> 105
indi an</w> 105
int elli 105
var sity</w> 105
roa sted</w> 105
iso pro 105
衛生 紙</w> 105
defen se</w> 105
oper ated</w> 105
小 館</w> 104
雙 用</w> 104
水 墨</w> 104
大 力</w> 104
大 堂</w> 104
大 同</w> 104
美 顏</w> 104
老 年人</w> 104
白 水晶</w> 104
五 件套</w> 104
車 架</w> 104
色 料</w> 104
職 員 104
誠 信</w> 104
梳 棉</w> 104
閃 光燈</w> 104
兩 種</w> 104
飾 條</w> 104
袖 口</w> 104
票 夾</w> 104
臉 盆 104
對 折</w> 104
鳥 籠</w> 104
磨 牙</w> 104
團 體</w> 104
第 二 104
啤 酒</w> 104
兼 容</w> 104
渲 染</w> 104
盥 洗</w> 104
c l 104
g ang</w> 104
i con</w> 104
e uro</w> 104
b its</w> 104
d p</w> 104
y am 104
co se</w> 104
st in 104
se duction</w> 104
to a 104
ir ing</w> 104
mi lan 104
qu ad</w> 104
me m 104
fi sh 104
ru shguard</w> 104
wi ll</w> 104
ho tel</w> 104
gra b</w> 104
gir dle</w> 104
ha zel</w> 104
百搭 女</w> 104
sha ver</w> 104
tri m</w> 104
wai st 104
spe ed 104
play ing</w> 104
cra zy</w> 104
防塵 套</w> 104
kid swear</w> 104
den tal</w> 104
cin derella</w> 104
button ed</w> 104
repel lent</w> 104
rou ge</w> 104
hul k</w> 104
keima v</w> 104
bry ant</w> 104
tony moly</w> 104
藝 沙</w> 103
小 直</w> 103
小 西</w> 103
古 銅</w> 103
鐘 表 103
黑 銀</w> 103
大 腿</w> 103
帶 款</w> 103
貓 貓</w> 103
白 勾</w> 103
款 拉鏈</w> 103
高 達</w> 103
歡 樂 103
夢 網</w> 103
自 帶</w> 103
除 菌</w> 103
腰 顯</w> 103
新 潮</w> 103
沙 漏</w> 103
印 字</w> 103
分 子</w> 103
能 力</w> 103
墨 綠</w> 103
成 套</w> 103
涼 爽</w> 103
挑 逗</w> 103
轉 運</w> 103
人 類</w> 103
刷 頭</w> 103
精 梳棉</w> 103
聲 控</w> 103
席 子</w> 103
洽 談 103
熏 香</w> 103
厘 米</w> 103
a k 103
w and</w> 103
la c</w> 103
lo ad</w> 103
li l</w> 103
ti gh 103
ti fied</w> 103
bo ws</w> 103
po le</w> 103
de x</w> 103
uni verse</w> 103
gra ded</w> 103
tu red</w> 103
shi mano</w> 103
cre pe</w> 103
can adi 103
dri ving</w> 103
fun ny</w> 103
tren ch</w> 103
om nia</w> 103
環保 袋</w> 103
mani cure</w> 103
pet ite</w> 103
橡皮 擦</w> 103
bol ts</w> 103
figh ter</w> 103
mmi es</w> 103
measu ring</w> 103
證件 夾</w> 103
承 重</w> 102
水 草</w> 102
遮 肚 102
會 場</w> 102
一 鍵</w> 102
鐵 皮</w> 102
大 床</w> 102
透 視 102
夾 鏈</w> 102
日 葵</w> 102
球 桿</w> 102
帶 線</w> 102
心 耳</w> 102
試 管</w> 102
奇 妙</w> 102
好 好</w> 102
夢 想</w> 102
百 元</w> 102
滿 版 102
地 機</w> 102
樹 葉</w> 102
掛 毯</w> 102
哈 衣</w> 102
女 襪</w> 102
羊 肉</w> 102
紋 路</w> 102
細 紋</w> 102
真 人</w> 102
繩 子</w> 102
寬 袖</w> 102
離 合器</w> 102
背 袋</w> 102
監 測</w> 102
尿 褲</w> 102
婷 婷</w> 102
廠 商 102
蛇 紋</w> 102
鏟 子</w> 102
兵 器</w> 102
起 泡</w> 102
斑 馬 102
急 速</w> 102
褥 子</w> 102
喂 奶</w> 102
u ten 102
c di</w> 102
h au 102
h ex 102
a de</w> 102
w th</w> 102
e c</w> 102
z on 102
co w</w> 102
or al</w> 102
se ven</w> 102
po pu 102
di ct</w> 102
sa le 102
tt es</w> 102
fi ller</w> 102
ru by</w> 102
wi se</w> 102
收納 桶</w> 102
per spir 102
pan t</w> 102
mat t</w> 102
sc ato</w> 102
fla g</w> 102
cha ins</w> 102
pie u</w> 102
can to</w> 102
sy m 102
cat or</w> 102
ab c</w> 102
防曬 霜</w> 102
blan k</w> 102
oc to 102
愛麗 絲 102
swa n</w> 102
deca y</w> 102
abo ut</w> 102
kel ly</w> 102
ascor bate</w> 102
choo se</w> 102
ave eno</w> 102
小 提琴</w> 101
粉 碎</w> 101
炫 酷</w> 101
潔 牙 101
紅 棗</w> 101
大 耳 101
大 家</w> 101
日 光</w> 101
香 料</w> 101
可 機</w> 101
甲 片</w> 101
和 平</w> 101
和 尚</w> 101
瑪 麗 101
車 車</w> 101
自 助</w> 101
藥 材</w> 101
女 休</w> 101
開 發</w> 101
角 川</w> 101
食 器</w> 101
實 戰 101
極 限</w> 101
循 環 101
分 層</w> 101
營 養 101
收 藏 101
硬 幣</w> 101
欣 欣</w> 101
薰 香</w> 101
纯 棉</w> 101
染 色</w> 101
鏈 帶</w> 101
紙 機</w> 101
向 日葵</w> 101
洽 談</w> 101
氨 基酸</w> 101
柑 橘</w> 101
枸 杞</w> 101
c el</w> 101
g ly 101
s ata</w> 101
d oo 101
d unk</w> 101
x ion</w> 101
z ers</w> 101
ma r</w> 101
si e</w> 101
th ers</w> 101
sa la 101
sho e 101
pi c 101
pi zza</w> 101
vi vi 101
sta ge</w> 101
fe e 101
ho pe</w> 101
tra sh</w> 101
cor set</w> 101
stra ct</w> 101
dis count</w> 101
dra in</w> 101
fol der</w> 101
star ry</w> 101
bur n</w> 101
cal ming</w> 101
pin ky</w> 101
單人 沙</w> 101
家居 生活</w> 101
indi vi 101
cover s</w> 101
quil ted</w> 101
happ y 101
dil do</w> 101
莫斯 奇諾</w> 101
cut lery</w> 101
collap sible</w> 101
小 燈</w> 100
小 品</w> 100
網 購</w> 100
紅 色 100
中 空</w> 100
出 門</w> 100
點 式</w> 100
短 洋裝</w> 100
明 日</w> 100
毛 皮</w> 100
束 縛</w> 100
強 效</w> 100
單 排</w> 100
桌 書架</w> 100
指 尖</w> 100
領 口</w> 100
夫 茶</w> 100
農 用</w> 100
速 乾 100
胡 椒</w> 100
應 中</w> 100
墜 飾</w> 100
鋁 圈</w> 100
犬 貓</w> 100
救 援</w> 100
运 动</w> 100
c ani 100
c pu</w> 100
g r</w> 100
g ps</w> 100
a x</w> 100
e vo</w> 100
e gar</w> 100
p ls</w> 100
z inc</w> 100
拎 包</w> 100
st ande 100
it as</w> 100
ca ss 100
to ur 100
th ong</w> 100
ou l</w> 100
qu es</w> 100
pi mple</w> 100
per t</w> 100
sli cer</w> 100
tra p</w> 100
for nia</w> 100
ke vin</w> 100
韓版 長</w> 100
韓版 顯</w> 100
va mp 100
vin egar</w> 100
時尚 單</w> 100
pil lows</w> 100
sou th</w> 100
ab stract</w> 100
super hero</w> 100
reju v</w> 100
af ter</w> 100
toi le 100
exten der</w> 100
梳妝 鏡</w> 100
ox ford</w> 100
rect angle</w> 100
stea m</w> 100
fr ance</w> 100
計時 腕</w> 100
tran scend</w> 100
coco a</w> 100
athle tic</w> 100
steph en</w> 100
千鳥 格</w> 100
canadi an</w> 100
雙 孔</w> 99
光 面</w> 99
水 鑽 99
六 件</w> 99
熱 帶</w> 99
簾 子</w> 99
三 條</w> 99
可 發</w> 99
惠 普</w> 99
貓 狗</w> 99
陽 具</w> 99
清 香</w> 99
艾 莉 99
五 星</w> 99
坑 條</w> 99
增 強</w> 99
發 泡</w> 99
肉 機</w> 99
戰 爭</w> 99
蓋 式</w> 99
單 顆</w> 99
包 小包</w> 99
標 示</w> 99
四 款</w> 99
木 柄</w> 99
普 普 99
兩 入</w> 99
兩 輪</w> 99
預 售</w> 99
曲 奇</w> 99
盆 景</w> 99
展 架</w> 99
人 力</w> 99
抓 板</w> 99
餐 飲</w> 99
性 感 99
刮 刀</w> 99
嫩 白</w> 99
寫 字</w> 99
啟 動</w> 99
掌 櫃</w> 99
拍 拍</w> 99
功 夫茶</w> 99
資 訊</w> 99
芥 末</w> 99
赫 本</w> 99
確 認</w> 99
坦 克</w> 99
g m</w> 99
r g</w> 99
r j</w> 99
p j</w> 99
in stru 99
la ces</w> 99
ca stle</w> 99
un ited</w> 99
de tail</w> 99
car ol 99
fi dget</w> 99
we i 99
ho lo 99
fla sk</w> 99
gra pe</w> 99
化妝 盒</w> 99
mu gs</w> 99
寶寶 嬰兒</w> 99
lip sticks</w> 99
com pa 99
ker chief</w> 99
vol can 99
chu ck</w> 99
fly knit</w> 99
broo ch</w> 99
concentr ate</w> 99
sj cam</w> 99
detai ls</w> 99
season ing</w> 99
kla irs</w> 99
chlo e</w> 99
asp ire</w> 99
sthe tic</w> 99
kawa saki</w> 99
sanit ary</w> 99
ipa ky</w> 99
皮 箱</w> 98
古 著 98
粉 彩</w> 98
腳 凳</w> 98
男 朋友</w> 98
膠 鞋</w> 98
網 球</w> 98
有 效</w> 98
遮 瑕 98
電 飯</w> 98
圓 凳</w> 98
海 鹽</w> 98
滿 滿</w> 98
地 區</w> 98
服 務 98
疲 勞</w> 98
掛 表</w> 98
床 圍</w> 98
食 指</w> 98
筆 記型</w> 98
包 側</w> 98
外 置</w> 98
彎 頭</w> 98
四 軸 98
貴 賓</w> 98
漁 夫</w> 98
奧 利 98
幻 想</w> 98
數 顯</w> 98
留 言 98
力 車</w> 98
任 意</w> 98
草 編</w> 98
刮 胡 98
壹 號</w> 98
濃 密</w> 98
脖 圍</w> 98
操 作</w> 98
更 換</w> 98
啞 鈴</w> 98
噪 音</w> 98
為 止</w> 98
卧 室</w> 98
l x</w> 98
w ard</w> 98
e vil</w> 98
p si 98
b ha</w> 98
x x</w> 98
z el 98
st ery</w> 98
le vis</w> 98
it i</w> 98
po mpo 98
su ka</w> 98
mi le</w> 98
mi ll</w> 98
pi ka 98
wi d 98
be cca</w> 98
hoo ks</w> 98
key s</w> 98
sur face</w> 98
der ma 98
商務 皮</w> 98
remo vable</w> 98
保溫 袋</w> 98
fen der</w> 98
shar p</w> 98
holi ka</w> 98
ful l 98
refle ctive</w> 98
cali fornia</w> 98
fav or 98
sla cks</w> 98
fire fly</w> 98
fel t</w> 98
stan ley</w> 98
square pants</w> 98
cook ware</w> 98
medic ine</w> 98
yee zy</w> 98
valu e</w> 98
prepa id</w> 98
佛 具</w> 97
小 櫃子</w> 97
絲 帶</w> 97
絲 洋裝</w> 97
古 運動</w> 97
腳 套</w> 97
腳 底</w> 97
男 手</w> 97
水 面</w> 97
彩 燈</w> 97
布 面</w> 97
熱 門</w> 97
手 寫</w> 97
畫 家 97
夾 心</w> 97
電 力</w> 97
日 用品</w> 97
豆 子</w> 97
點 數</w> 97
家 具 97
佳 人</w> 97
佳 能</w> 97
之 戰</w> 97
金 石</w> 97
除 塵</w> 97
閒 褲</w> 97
新 貨下</w> 97
女 優</w> 97
開 店</w> 97
上 線</w> 97
空 瓶</w> 97
靜 電 97
鎖 扣</w> 97
細 膩</w> 97
瓜 布</w> 97
菜 瓜布</w> 97
麻 繩</w> 97
墨 綠色</w> 97
收 纳</w> 97
煙 盒</w> 97
玉 髓</w> 97
夫 人</w> 97
疏 通</w> 97
數 字 97
母 女</w> 97
巴 利</w> 97
精 梳</w> 97
祝 福</w> 97
鏤 空 97
鋒 衣</w> 97
芭 蕾</w> 97
驚 喜</w> 97
n n</w> 97
c ig 97
c ta 97
c ath 97
s g</w> 97
b k</w> 97
d ano</w> 97
f ate</w> 97
in fra 97
ar ch</w> 97
ba ti 97
en chan 97
ca fe</w> 97
ca pri</w> 97
tr unk</w> 97
bea st</w> 97
pu ff 97
百搭 運動</w> 97
百搭 學生</w> 97
hand s</w> 97
bri ck</w> 97
jo e</w> 97
prote in</w> 97
her bs</w> 97
long back</w> 97
經濟 學</w> 97
free ship</w> 97
巴寶 莉 97
band ana</w> 97
cit ron 97
syn c</w> 97
hot wheels</w> 97
absor ber</w> 97
wind proof</w> 97
craf ts</w> 97
ggi e</w> 97
保冷 袋</w> 97
ow ned</w> 97
god dess</w> 97
touch screen</w> 97
excel lent</w> 97
espadri lle</w> 97
preci sion</w> 97
purit an</w> 97
tik tok</w> 97
popu lar</w> 97
遮瑕 膏</w> 97
文 青 96
花 圈</w> 96
保 桿</w> 96
粉 橘</w> 96
計 劃</w> 96
男 學生</w> 96
護 頸</w> 96
健 腹 96
一 天</w> 96
一 瓶</w> 96
大 批</w> 96
球 員卡</w> 96
可 爱</w> 96
中 袖</w> 96
無 雙</w> 96
痘 痘</w> 96
白 鞋</w> 96
板 橋</w> 96
高 度</w> 96
高 密度</w> 96
褲 套</w> 96
地 面</w> 96
衣 機</w> 96
螞 蟻</w> 96
抱 哥</w> 96
星 人</w> 96
微 電腦</w> 96
便 當</w> 96
深 度</w> 96
吸 附</w> 96
幫 休</w> 96
酸 奶</w> 96
進 擊</w> 96
回 力</w> 96
刷 牙</w> 96
瘦 小</w> 96
瘦 高</w> 96
嫩 膚</w> 96
乾 濕</w> 96
懶 風</w> 96
按 扣</w> 96
混 色</w> 96
裁 剪</w> 96
闊 腿褲</w> 96
講 機</w> 96
e g 96
s z</w> 96
s cho 96
q q 96
re new 96
sh an 96
la gun 96
se ph 96
ca d 96
ma ss</w> 96
ti ps</w> 96
al y 96
ea st</w> 96
ce le 96
con stru 96
休閒 椅</w> 96
ha wai 96
he eled</w> 96
eni x</w> 96
clo ver</w> 96
ge m 96
ge m</w> 96
bar be 96
tur bo</w> 96
decor ations</w> 96
滿千 折</w> 96
保險 櫃</w> 96
愛馬仕 皮</w> 96
loaf er</w> 96
amethy st</w> 96
tul le</w> 96
杜嘉班 納</w> 96
perspir ant</w> 96
infra red</w> 96
意 威</w> 95
克 蘭 95
水 感</w> 95
鞋 店</w> 95
鞋 運動</w> 95
眼 線筆</w> 95
布 套</w> 95
國 文</w> 95
防 藍光</w> 95
黑 裙</w> 95
黑 檀木</w> 95
太 太</w> 95
儲 存</w> 95
華 倫 95
可 外</w> 95
可 移動</w> 95
歐 手</w> 95
鋼 托</w> 95
五 月</w> 95
生 書包</w> 95
財 務</w> 95
充 包</w> 95
高 倍</w> 95
圓 球</w> 95
車 線</w> 95
女 學</w> 95
亮 度</w> 95
冷 熱 95
汽 修</w> 95
吊 卡</w> 95
冰 河</w> 95
原 花</w> 95
原 裝 95
便 盆</w> 95
背 後 95
吸 乳器</w> 95
魔 王</w> 95
尾 翼</w> 95
滑 步</w> 95
餐 車</w> 95
達 爾</w> 95
燈 芯絨</w> 95
洗 澡盆</w> 95
應 器</w> 95
旋 風</w> 95
避 光</w> 95
柴 油</w> 95
終 極</w> 95
告 白</w> 95
待 機</w> 95
现 代</w> 95
a si 95
v t</w> 95
s w</w> 95
p ean</w> 95
b ite</w> 95
b ani 95
d ana</w> 95
k t</w> 95
f inal</w> 95
an n</w> 95
ar c</w> 95
st ent</w> 95
lo cal</w> 95
ra t</w> 95
di p</w> 95
di et</w> 95
su gar 95
sa y</w> 95
pi a</w> 95
colo ure 95
mat eri 95
fo un 95
glit tery</w> 95
band age</w> 95
zo o</w> 95
sco tch</w> 95
king ston</w> 95
combin ed</w> 95
禮物 盒</w> 95
幸運 草</w> 95
游泳 池</w> 95
post card</w> 95
euro pean</w> 95
jig saw</w> 95
brazi lian</w> 95
ting i</w> 95
maz da</w> 95
compart ment</w> 95
citron ella</w> 95
皮 具</w> 94
古 時</w> 94
光 澤 94
耐 穿</w> 94
藍 莓</w> 94
有 型</w> 94
袋 鼠</w> 94
法 器</w> 94
雪 靴</w> 94
裝 組</w> 94
電 鑽</w> 94
視 覺</w> 94
前 置</w> 94
尚 女</w> 94
頭 柜</w> 94
卡 帶</w> 94
聯 府</w> 94
韓 款</w> 94
金 冠</w> 94
警 察</w> 94
二 館</w> 94
素 食</w> 94
綠 蘿</w> 94
內 里</w> 94
女 靴</w> 94
衣 褲</w> 94
魚 竿</w> 94
修 補 94
四 月</w> 94
休 眠</w> 94
紫 羅蘭</w> 94
折 下</w> 94
簡 版</w> 94
背 面</w> 94
焊 接</w> 94
滑 梯</w> 94
放 置</w> 94
潤 澤 94
煥 膚</w> 94
戲 機</w> 94
圖 片</w> 94
米 蘭</w> 94
旺 旺</w> 94
伴 手禮</w> 94
鯨 魚</w> 94
這 樣</w> 94
o k 94
se awe 94
ca se 94
ma d</w> 94
min ion</w> 94
bu dd 94
mat tress</w> 94
ho p</w> 94
sti l 94
gla di 94
gra ce</w> 94
sam u 94
hu ara 94
ke ep</w> 94
ke eper</w> 94
ssi n</w> 94
bel ly</w> 94
lan e</w> 94
hi ll</w> 94
lip cream</w> 94
run ner</w> 94
camer as</w> 94
gam o</w> 94
行李 包</w> 94
pear ls</w> 94
gro wth</w> 94
avai l</w> 94
透氣 休</w> 94
lipp ie</w> 94
effe ctive</w> 94
充氣 床</w> 94
tak ara</w> 94
bey blade</w> 94
dash board</w> 94
gior dano</w> 94
net work</w> 94
boar d 94
saf ari</w> 94
oli via</w> 94
recor der</w> 94
主機 板</w> 94
calci um</w> 94
volcan ic</w> 94
留言 板</w> 94
lagun a</w> 94
coloure tte</w> 94
光 罩</w> 93
動 式</w> 93
連 褲</w> 93
一 級</w> 93
三 通</w> 93
華 麗 93
裝 修</w> 93
半 截</w> 93
行 政</w> 93
塑 鋼</w> 93
台 椅</w> 93
部 曲</w> 93
掛 耳式</w> 93
新 春</w> 93
新 疆</w> 93
衣 架子</w> 93
補 丁</w> 93
丹 寧 93
天 地</w> 93
首 發</w> 93
著 用</w> 93
性 用品</w> 93
壹 灣</w> 93
蒸 籠</w> 93
宣 傳 93
迎 賓</w> 93
漏 水</w> 93
做 工</w> 93
按 壓</w> 93
芭 蕾 93
拍 賣</w> 93
逗 貓</w> 93
穩 定</w> 93
固 體</w> 93
薯 條</w> 93
敬 酒</w> 93
住 宿</w> 93
c ate</w> 93
e mul 93
q i 93
in fan 93
re tte</w> 93
st ir 93
ba i</w> 93
or nam 93
ch box</w> 93
al len</w> 93
pa p 93
de light</w> 93
pp ee</w> 93
fi ction</w> 93
da mage</w> 93
pi er 93
pi cks</w> 93
pan ther</w> 93
flo ur</w> 93
he li 93
len ses</w> 93
bro ws</w> 93
hand kerchief</w> 93
hy per</w> 93
spea kers</w> 93
bir th</w> 93
penci ls</w> 93
清潔 器</w> 93
smo k</w> 93
gg ed</w> 93
機械 機</w> 93
保濕 滋潤</w> 93
appro ved</w> 93
訓練 器</w> 93
modu lar</w> 93
飛行 員</w> 93
iv ory</w> 93
cham pa 93
rev lon</w> 93
lak kuma</w> 93
oxy gen</w> 93
materi als</w> 93
huara che</w> 93
小 黃 92
小 櫻</w> 92
小 顆</w> 92
藍 綠</w> 92
動 能</w> 92
童 男</w> 92
防 過敏</w> 92
一 對 92
愛 戀</w> 92
愛 運動</w> 92
雪 人</w> 92
三 圈</w> 92
口 腔</w> 92
香 膏</w> 92
香 菇</w> 92
全 實</w> 92
不 掉</w> 92
可 換</w> 92
中 控</w> 92
果 果</w> 92
白 鐵 92
高 街</w> 92
夢 遊</w> 92
泉 水</w> 92
超 硬</w> 92
仔 店</w> 92
女 版</w> 92
串 標</w> 92
火 辣</w> 92
薄 紗</w> 92
春 節</w> 92
桌 長</w> 92
直 排</w> 92
驅 蚊</w> 92
實 驗 92
指 套</w> 92
流 量</w> 92
木 炭</w> 92
企 鵝 92
烤 架</w> 92
兩 穿</w> 92
離 霜</w> 92
邊 夾</w> 92
足 球鞋</w> 92
校 服</w> 92
坐 椅</w> 92
轉 接線</w> 92
橫 式</w> 92
衝 評價</w> 92
非 滿版</w> 92
碳 纖</w> 92
燈 管</w> 92
染 發 92
鋸 齒</w> 92
鋁 框</w> 92
死 皮</w> 92
涂 鴉</w> 92
基 地</w> 92
鑲 嵌</w> 92
底 板</w> 92
v ary</w> 92
t ation</w> 92
d ges</w> 92
k ur 92
in cense</w> 92
st en 92
or o</w> 92
ca s</w> 92
ch ina</w> 92
ti ck</w> 92
al ma</w> 92
mi sh</w> 92
sho w</w> 92
car i 92
da d</w> 92
boo ties</w> 92
che v 92
sam yang</w> 92
bri de</w> 92
jo ker</w> 92
ali ce</w> 92
實木 質</w> 92
簡約 北</w> 92
阿迪達 斯 92
whi p</w> 92
床頭 燈</w> 92
cover age</w> 92
cray on</w> 92
corre ction</w> 92
aba ca</w> 92
esp rit</w> 92
縫紉 機</w> 92
vap or</w> 92
fee der</w> 92
pika chu</w> 92
溫 泉 91
男 神</w> 91
藍 寶 91
藍 黑</w> 91
樂 團</w> 91
異 形</w> 91
機 場</w> 91
手 排</w> 91
寶 盒</w> 91
一 口</w> 91
一 款</w> 91
法 蘭</w> 91
大 黃 91
大 促</w> 91
電 燈</w> 91
格 子 91
美 發</w> 91
書 局</w> 91
蔡 依 91
香 包</w> 91
全 實木</w> 91
不 會</w> 91
帶 手</w> 91
特 種</w> 91
泳 圈</w> 91
心 餅</w> 91
無 限 91
白 銀</w> 91
學 測</w> 91
斜 口</w> 91
斜 紋</w> 91
物 櫃</w> 91
土 豆</w> 91
內 有</w> 91
豬 八 91
單 雙人</w> 91
軟 軟</w> 91
用 餐</w> 91
用 水</w> 91
排 氣</w> 91
空 中</w> 91
曼 谷</w> 91
補 漏</w> 91
伯 爵</w> 91
釣 蝦</w> 91
思 思</w> 91
微 星</w> 91
管 家</w> 91
原 文</w> 91
臉 包</w> 91
義 式</w> 91
級 款</w> 91
人 造 91
士 頓</w> 91
衝 浪</w> 91
初 秋</w> 91
瑞 克</w> 91
交 通</w> 91
民 國</w> 91
研 究</w> 91
起 標</w> 91
矯 正</w> 91
搞 笑</w> 91
刻 版</w> 91
停 車 91
宽 松</w> 91
o x</w> 91
g org 91
s word</w> 91
p k</w> 91
in ed</w> 91
co di 91
le x 91
ca ly 91
to my</w> 91
su shi</w> 91
mi gh 91
ta il 91
de lai</w> 91
te z</w> 91
cu e</w> 91
ni er</w> 91
do ta</w> 91
ce e</w> 91
ga sket</w> 91
ang el 91
tra cker</w> 91
na m</w> 91
ka mi 91
lin es</w> 91
時尚 款</w> 91
secre ts</w> 91
fin i 91
遮陽 板</w> 91
機械 表</w> 91
mira ge</w> 91
peel er</w> 91
專櫃 貨</w> 91
oi se</w> 91
clar i 91
俄羅 斯</w> 91
聚寶 盆</w> 91
溫 杯</w> 90
小 音響</w> 90
雙 效</w> 90
套 腳</w> 90
雷 神</w> 90
樂 天</w> 90
網 袋</w> 90
一 拖</w> 90
電 烤</w> 90
中 學生</w> 90
豆 機</w> 90
出 行</w> 90
特 曼</w> 90
無 油</w> 90
白 條</w> 90
艾 多美</w> 90
生 態</w> 90
蘭 花</w> 90
車 紀</w> 90
自 來</w> 90
戰 隊</w> 90
年 度</w> 90
新 型</w> 90
哈 倫</w> 90
魚 骨</w> 90
器 具</w> 90
通 道</w> 90
關 鍵</w> 90
婚 慶 90
希 米</w> 90
椅 凳</w> 90
萊 卡</w> 90
木 吉他</w> 90
千 層</w> 90
磁 石</w> 90
背 部</w> 90
倉 價</w> 90
航 拍</w> 90
賓 館</w> 90
完 整 90
煎 鍋</w> 90
傘 桶</w> 90
瀏 海 90
紐 西蘭</w> 90
章 魚</w> 90
烘 干</w> 90
卸 妝</w> 90
艦 隊</w> 90
c x</w> 90
g c</w> 90
g um</w> 90
i mar 90
r t</w> 90
p eni 90
p yl</w> 90
d t</w> 90
f light</w> 90
y oo 90
j y</w> 90
in d 90
ar den</w> 90
la cqu 90
en ga 90
to mica</w> 90
un lock</w> 90
ti les</w> 90
ri m</w> 90
bo bb 90
di c</w> 90
me s 90
fi shing</w> 90
no v 90
mar tin</w> 90
現貨 現</w> 90
pu mps</w> 90
back packs</w> 90
tor ch</w> 90
jo jo</w> 90
gen a</w> 90
nu t 90
簡約 風</w> 90
藍牙 耳</w> 90
防曬 防</w> 90
fir ming</w> 90
洗手 液</w> 90
cin nam 90
ae sthetic</w> 90
poly mer</w> 90
西裝 夾</w> 90
book mark</w> 90
button down</w> 90
矯正 器</w> 90
bn wt</w> 90
mn l</w> 90
hip ster</w> 90
engine ering</w> 90
intelli gent</w> 90
isopro pyl</w> 90
cad bury</w> 90
champa gne</w> 90
粉 刷</w> 89
眼 石</w> 89
門 款</w> 89
三 陽</w> 89
拉 式</w> 89
美 人 89
優 購</w> 89
甲 油膠</w> 89
戒 子</w> 89
無 煙</w> 89
清 淨</w> 89
環 繞</w> 89
卡 尺</w> 89
瑪 莉 89
喬 治</w> 89
款 連</w> 89
發 廊</w> 89
海 底</w> 89
金 毛</w> 89
地 漏</w> 89
浮 標</w> 89
珍 藏版</w> 89
加 熱 89
開 檔</w> 89
蜜 糖</w> 89
希 爾 89
體 驗 89
測 驗</w> 89
沙 漠</w> 89
翻 糖</w> 89
翻 斗</w> 89
翻 譯</w> 89
作 業</w> 89
條 紋長</w> 89
凹 凸</w> 89
橢 圓形</w> 89
背 光</w> 89
袖 子</w> 89
免 釘</w> 89
飲 品</w> 89
射 燈</w> 89
航 者</w> 89
塗 料</w> 89
性 潮</w> 89
攝 像</w> 89
銳 步</w> 89
同 人</w> 89
照 鏡</w> 89
拓 者</w> 89
牆 上</w> 89
演 奏</w> 89
汪 汪</w> 89
g w 89
g d</w> 89
h e</w> 89
h ats</w> 89
a y</w> 89
f ter</w> 89
j ean</w> 89
la mp 89
ba thing</w> 89
se llers</w> 89
ra i</w> 89
sa ve</w> 89
qu oise</w> 89
收納 罐</w> 89
pan g</w> 89
ligh tening</w> 89
fe e</w> 89
gu c</w> 89
tr on</w> 89
ha ve</w> 89
cor por 89
sil ver 89
gi ven 89
ex pert</w> 89
sha ker</w> 89
mou se 89
av an 89
bor o</w> 89
colla red</w> 89
ken ne 89
pane ma</w> 89
hydr o</w> 89
sub woofer</w> 89
sequ ins</w> 89
tho mas</w> 89
加絨 衛衣</w> 89
hd d</w> 89
gior gio</w> 89
mother care</w> 89
遙控 車</w> 89
macar on</w> 89
groc eries</w> 89
austra lia</w> 89
跳跳 虎</w> 89
amu let</w> 89
廠商 直</w> 89
codi le</w> 89
小 黑板</w> 88
皮 靴</w> 88
花 童</w> 88
古 工業</w> 88
尼 斯</w> 88
阿 卡</w> 88
字 筆</w> 88
水 上</w> 88
機 頂</w> 88
黑 人</w> 88
大 廳</w> 88
行 動 88
出 遊</w> 88
清 夜</w> 88
效 能</w> 88
陰 蒂</w> 88
圓 環</w> 88
車 上</w> 88
教 程</w> 88
蓋 巾</w> 88
服 長</w> 88
床 尾</w> 88
通 訊</w> 88
公 家</w> 88
妮 妮</w> 88
改 造</w> 88
裸 妝</w> 88
詢 價</w> 88
低 幫鞋</w> 88
首 爾</w> 88
散 打</w> 88
造 形</w> 88
黛 西</w> 88
飛 翔</w> 88
初 回</w> 88
戲 團</w> 88
影 像</w> 88
蛇 頭</w> 88
瓷 器</w> 88
圍 脖</w> 88
消 臭</w> 88
嘟 嘟</w> 88
認 知</w> 88
c nc</w> 88
i panema</w> 88
a ura</w> 88
d l</w> 88
st al 88
st ine</w> 88
st rings</w> 88
lo ver</w> 88
ca sing</w> 88
pa ssion</w> 88
ne g 88
wh a 88
cro codile</w> 88
sam son 88
cor tez</w> 88
gi ve</w> 88
he x</w> 88
par t 88
ka y 88
eye let</w> 88
can dies</w> 88
spe ct 88
tur quoise</w> 88
fri dge</w> 88
light ly</w> 88
whi stle</w> 88
jen na</w> 88
豪華 版</w> 88
thi ck 88
basi cs</w> 88
spen cer</w> 88
保養 品</w> 88
臥室 陽</w> 88
nutr ition</w> 88
疊疊 樂</w> 88
chocola tes</w> 88
烏克 麗麗</w> 88
刮胡 刀</w> 88
peni s</w> 88
溫 度計</w> 87
安 撫 87
計 畫</w> 87
水 道</w> 87
六 針</w> 87
樂 扣</w> 87
熱 銷 87
黑 灰 87
一 顆</w> 87
三 國</w> 87
大 氣 87
可 斜</w> 87
尚 潮</w> 87
尚 運動</w> 87
豆 沙</w> 87
奇 女</w> 87
高 彈力</w> 87
圓 餅</w> 87
韓 系 87
好 用</w> 87
百 樂</w> 87
金 魚</w> 87
頸 椎</w> 87
戰 國</w> 87
超 質</w> 87
掛 衣</w> 87
綠 光</w> 87
單 肩 87
棒 壘</w> 87
床 品</w> 87
排 氣管</w> 87
公 寓</w> 87
北 欧</w> 87
喜 帖</w> 87
椅 套</w> 87
戶 外 87
幻 影</w> 87
魅 惑</w> 87
圣 誕節</w> 87
射 器</w> 87
厚 度</w> 87
士 奇</w> 87
燈 座</w> 87
胡 桃木</w> 87
競 技 87
傘 狀</w> 87
紐 扣</w> 87
唇 蜜</w> 87
烘 乾</w> 87
蜂 膠</w> 87
猿 人</w> 87
c u</w> 87
i ld</w> 87
e os</w> 87
e ous</w> 87
r anger</w> 87
p n</w> 87
f ight</w> 87
f ury</w> 87
y t</w> 87
la ced</w> 87
ir y</w> 87
pa y 87
sp er</w> 87
ta p</w> 87
de co</w> 87
mo cha</w> 87
ce real</w> 87
運動 籃</w> 87
gla n</w> 87
hu a 87
pu s</w> 87
head bands</w> 87
can non</w> 87
star wars</w> 87
free shipping</w> 87
cen t 87
my stery</w> 87
flu ffy</w> 87
瀝水 籃</w> 87
dust bag</w> 87
香檳 金</w> 87
rela x 87
洗衣 袋</w> 87
kyo wa</w> 87
apr on</w> 87
wid th</w> 87
cig are 87
主 管</w> 86
絲 絨 86
花 果</w> 86
古 文</w> 86
黑 暗</w> 86
三 頭</w> 86
太 空 86
裝 套</w> 86
日 語</w> 86
美 日</w> 86
書 本 86
泳 帽</w> 86
頭 發</w> 86
德 鎮</w> 86
加 壓</w> 86
部 分</w> 86
樹 德</w> 86
范 冰冰</w> 86
包 入</w> 86
包 零錢</w> 86
純 色 86
北 市</w> 86
貴 族</w> 86
值 得</w> 86
冷 凍 86
奧 運 86
滴 塑</w> 86
低 調</w> 86
以 下</w> 86
胸 花</w> 86
最 大</w> 86
怪 物</w> 86
飛 織</w> 86
具 組</w> 86
打 蛋器</w> 86
非 洲</w> 86
信 箱</w> 86
洗 顏 86
恤 潮</w> 86
米 床</w> 86
梯 形</w> 86
墜 式</w> 86
吹 泡泡</w> 86
犬 用</w> 86
紙 箱</w> 86
蒜 器</w> 86
街 頭 86
客 厅</w> 86
漿 機</w> 86
c r</w> 86
i ler</w> 86
a lex</w> 86
e po 86
e sca 86
m si</w> 86
t n</w> 86
d ur 86
f r</w> 86
慵 懶</w> 86
re fre 86
st ories</w> 86
en gra 86
ro ber 86
ro cker</w> 86
ti e 86
di an</w> 86
ai delai</w> 86
min d</w> 86
pi ping</w> 86
pro bio 86
mar sh 86
cha se</w> 86
pe tal</w> 86
pu mp 86
stri ke</w> 86
hi fi</w> 86
tro gena</w> 86
cur ved</w> 86
din ing</w> 86
glit tered</w> 86
cri ss</w> 86
展示 柜</w> 86
hair pin</w> 86
卸妝 水</w> 86
調味 罐</w> 86
ag ate</w> 86
ultra sonic</w> 86
fur nit 86
twin ning</w> 86
work out</w> 86
動物 園</w> 86
dress ing</w> 86
suit case</w> 86
輔助 器</w> 86
uti lity</w> 86
ank let</w> 86
rom ance</w> 86
foun tain</w> 86
gladi ator</w> 86
emul sion</w> 86
蔡依 林</w> 86
意 式</w> 85
文 豪</w> 85
檔 案</w> 85
雙 層 85
古 早</w> 85
水 族 85
國 畫</w> 85
機 電腦</w> 85
商 行</w> 85
鐵 灰</w> 85
拉 長</w> 85
大 陸 85
茶 海</w> 85
電 容</w> 85
珠 寶</w> 85
麥 昆</w> 85
心 靈</w> 85
無 聲</w> 85
扇 形</w> 85
王 辛巴</w> 85
發 現</w> 85
褲 時</w> 85
金 鏈</w> 85
噴 瓶</w> 85
浮 潛</w> 85
潛 航者</w> 85
哈 雷</w> 85
單 孔</w> 85
湯 姆</w> 85
魚 嘴</w> 85
景 德鎮</w> 85
補 光</w> 85
毫 升</w> 85
雨 披</w> 85
只 裝</w> 85
精 靈 85
過 濾網</w> 85
隨 行</w> 85
紙 杯</w> 85
第 四</w> 85
弧 形</w> 85
照 夾</w> 85
擴 音器</w> 85
查 理</w> 85
輸 入</w> 85
筋 膜</w> 85
凋 花</w> 85
耗 材</w> 85
胺 基酸</w> 85
o logy</w> 85
g urt</w> 85
h h 85
p ond</w> 85
p lun 85
b g</w> 85
x o</w> 85
in ty</w> 85
in spir 85
ba i 85
ro ses</w> 85
ma mba</w> 85
ir ving</w> 85
ta les</w> 85
de si 85
ko ko</w> 85
bi lena</w> 85
da inty</w> 85
am y</w> 85
pro ce 85
mat cha</w> 85
sun set</w> 85
gu mmy</w> 85
be et 85
du bai</w> 85
wal kie</w> 85
na var 85
us er</w> 85
mon t</w> 85
ori zed</w> 85
mu d 85
韓版 學</w> 85
可愛 的</w> 85
brand ing</w> 85
bund les</w> 85
現代 輕</w> 85
loo tbag</w> 85
multi ple</w> 85
micro matic</w> 85
咖啡 店</w> 85
air plane</w> 85
設計 感</w> 85
fer ra 85
gga y</w> 85
arti st</w> 85
tal kie</w> 85
philipp ine</w> 85
cali per</w> 85
neu trogena</w> 85
lamin ated</w> 85
temper ature</w> 85
sar ah</w> 85
gau ge</w> 85
squee ze</w> 85
circu lar</w> 85
weigh ing</w> 85
達菲 熊</w> 85
hersh ey</w> 85
十二 生肖</w> 85
migh ty</w> 85
mouse pad</w> 85
水族 箱</w> 85
文 房</w> 84
耳 機 84
隱 藏</w> 84
字 裙</w> 84
藍 色 84
鞋 百搭</w> 84
殺 菌 84
切 割 84
連 續</w> 84
所 有</w> 84
防 掉</w> 84
一 定</w> 84
配 皮</w> 84
法 鬥</w> 84
畫 筆</w> 84
鐵 塔</w> 84
黃 金</w> 84
三 聯 84
西 點</w> 84
日 版 84
羅 賓</w> 84
可 掛</w> 84
尚 品</w> 84
尚 氣質</w> 84
甲 蟲</w> 84
晶 鑽</w> 84
果 器</w> 84
五 斗</w> 84
奇 幻</w> 84
發 熱</w> 84
韓 流</w> 84
列 印</w> 84
車 業</w> 84
二 用</w> 84
豬 豬</w> 84
開 學</w> 84
幾 桌</w> 84
火 鍋 84
破 褲</w> 84
表 盤</w> 84
四 驅車</w> 84
選 購</w> 84
體 重</w> 84
汽 機車</w> 84
泡 菜</w> 84
下 水道</w> 84
溶 性</w> 84
收 集</w> 84
富 士 84
幫 籃</w> 84
幫 浦</w> 84
士 兵</w> 84
彌 月禮</w> 84
蔓 越莓</w> 84
訂 款</w> 84
仙 氣</w> 84
朵 朵</w> 84
雞 蛋</w> 84
慕 絲</w> 84
慕 斯 84
豎 款</w> 84
落 肩</w> 84
孕 婦裝</w> 84
瞬 間</w> 84
嬌 蘭</w> 84
焦 點</w> 84
路 易</w> 84
勃 肯</w> 84
n ad 84
l b</w> 84
e qu 84
v als</w> 84
s it 84
b en</w> 84
q t</w> 84
in voice</w> 84
la cey</w> 84
on it 84
on ey</w> 84
ca mp 84
ra glan</w> 84
ri a</w> 84
ne ed</w> 84
fa ded</w> 84
so il</w> 84
ul er</w> 84
car ry 84
cu bic</w> 84
vi p</w> 84
mat tel</w> 84
ho les</w> 84
he al</w> 84
寶寶 學</w> 84
dis ru 84
cou ples</w> 84
美國 直</w> 84
太陽 花</w> 84
supp lier</w> 84
sou r 84
bre e 84
pli ers</w> 84
紀念 款</w> 84
hydr ation</w> 84
kat e 84
effe cts</w> 84
top sider</w> 84
電源 供</w> 84
dash cam</w> 84
ob se 84
acade mia</w> 84
樂高 積</w> 84
ree bok</w> 84
kal ine</w> 84
reci pe</w> 84
credi t</w> 84
hawai ian</w> 84
samu rai</w> 84
小 黑裙</w> 83
花 樣</w> 83
腳 鏈</w> 83
六 字</w> 83
鞋 帶</w> 83
有 蓋</w> 83
護 膝</w> 83
黑 子</w> 83
門 票</w> 83
西 亞</w> 83
全 銅 83
全 透明</w> 83
可 穿</w> 83
風 時</w> 83
中 幫</w> 83
特 考</w> 83
老 鷹</w> 83
架 免</w> 83
牌 照</w> 83
滿 鋪</w> 83
物 流</w> 83
潮 吹</w> 83
提 籃</w> 83
嬰 兒童</w> 83
女 單</w> 83
床 架</w> 83
春 日</w> 83
純 淨</w> 83
純 銅 83
四 版</w> 83
油 壺</w> 83
結 構</w> 83
權 誌</w> 83
干 果</w> 83
指 環扣</w> 83
鳳 梨 83
竹 子</w> 83
爐 架</w> 83
離 子 83
營 業</w> 83
抗 藍光</w> 83
七 件</w> 83
秋 衣</w> 83
宗 教</w> 83
活 節</w> 83
創 作</w> 83
圖 鑑</w> 83
淡 水</w> 83
鍋 蓋</w> 83
耶 誕節</w> 83
乒 乓 83
序 號</w> 83
c rush</w> 83
o il 83
a f</w> 83
w an 83
w ang</w> 83
s ss</w> 83
p ed</w> 83
p sp</w> 83
t wo 83
d ha</w> 83
re ne</w> 83
re cord</w> 83
la la 83
ba be</w> 83
ra sta 83
ti l 83
al kaline</w> 83
pa ges</w> 83
me tro 83
wh o</w> 83
wi sh</w> 83
bu tt</w> 83
pan ty 83
ter ry</w> 83
shoul ders</w> 83
gi e</w> 83
stu ds</w> 83
stu dy</w> 83
ka bu 83
寶寶 鞋</w> 83
韓版 大碼</w> 83
va ult</w> 83
sel ine</w> 83
lip balm</w> 83
beau t 83
hoo dy</w> 83
dra gon 83
person a</w> 83
ition al</w> 83
gro oming</w> 83
mang o 83
moun ted</w> 83
保溫 壺</w> 83
海軍 風</w> 83
bear d</w> 83
poli s</w> 83
法國 代購</w> 83
ato mizer</w> 83
hei st</w> 83
lif ting</w> 83
lubri cant</w> 83
hong kong</w> 83
遮肚 顯</w> 83
stande e</w> 83
seph ora</w> 83
gorg eous</w> 83
kenne th</w> 83
小 百貨</w> 82
平 行</w> 82
雙 輪</w> 82
雙 重</w> 82
英 文字</w> 82
觸 屏</w> 82
字 體</w> 82
水 溶性</w> 82
國 語</w> 82
黑 標</w> 82
康 是</w> 82
不 敗</w> 82
工 房</w> 82
工 刀</w> 82
軸 承</w> 82
眉 毛</w> 82
卡 斯</w> 82
生 理</w> 82
舞 鞋</w> 82
號 碼</w> 82
韓 時</w> 82
金 項</w> 82
教 練</w> 82
蓋 板</w> 82
哈 士奇</w> 82
女 百搭</w> 82
衣 長</w> 82
奶 昔</w> 82
刺 客</w> 82
包 錢</w> 82
北 美</w> 82
喜 糖</w> 82
柚 木</w> 82
肥 皂盒</w> 82
輔 食</w> 82
戶 型</w> 82
條 裝</w> 82
首 爾 82
最 愛 82
滑 車</w> 82
力 器</w> 82
橘 紅</w> 82
抽 獎</w> 82
裙 長</w> 82
只 賣</w> 82
雛 菊 82
刮 皮</w> 82
臀 連</w> 82
悠 遊</w> 82
供 應</w> 82
辣 味</w> 82
概 要</w> 82
爹 鞋</w> 82
鮭 魚</w> 82
n j</w> 82
g tx</w> 82
i zer</w> 82
i kon</w> 82
e w</w> 82
v ig 82
s eni 82
m f 82
m bie</w> 82
f o</w> 82
蜥 蜴</w> 82
co lic</w> 82
en lar 82
en ta</w> 82
se en</w> 82
ro y</w> 82
ch en 82
ti le</w> 82
bo ur 82
ne xt</w> 82
di va</w> 82
mi mi</w> 82
sk ate 82
min e 82
da mi 82
ct ed</w> 82
ss o</w> 82
ear ly</w> 82
vi et 82
flo ra</w> 82
blo o 82
be anie</w> 82
hand bags</w> 82
mer a</w> 82
hi s</w> 82
hi lux</w> 82
premi ere</w> 82
cur ling</w> 82
organi x</w> 82
sur vi 82
pat ent</w> 82
one er</w> 82
jump shorts</w> 82
商務 錢</w> 82
mor inga</w> 82
ab er 82
zz y</w> 82
birth stone</w> 82
cri ssa</w> 82
blan c</w> 82
purpo ses</w> 82
bou ght</w> 82
全包 邊</w> 82
swa ddle</w> 82
橡皮 筋</w> 82
chal len 82
iph on 82
同人 本</w> 82
磁吸 式</w> 82
stabi lizer</w> 82
chea p</w> 82
quick sand</w> 82
techni ques</w> 82
gho st</w> 82
toile try</w> 82
mes sage</w> 82
beet le</w> 82
disru ptor</w> 82
小 雅</w> 81
安 妮</w> 81
皮 褲</w> 81
保 障</w> 81
光 滑</w> 81
水 手 81
機 全</w> 81
機 動</w> 81
手 環 81
護 身</w> 81
護 套</w> 81
一 卡通</w> 81
比 利</w> 81
三 點式</w> 81
拉 伸</w> 81
大 紅 81
大 紅</w> 81
大 出</w> 81
裝 潮</w> 81
裝 休</w> 81
全 膠</w> 81
帶 輪</w> 81
泳 鏡</w> 81
生 成</w> 81
之 王</w> 81
之 夜</w> 81
割 破</w> 81
洛 伊</w> 81
車 款</w> 81
金 絲絨</w> 81
物 柜</w> 81
素 顏霜</w> 81
潮 男 81
超 重低音</w> 81
排 毒</w> 81
喜 宴</w> 81
直 立</w> 81
推 理</w> 81
竹 制</w> 81
印 表</w> 81
窗 貼</w> 81
收 口</w> 81
尾 戒</w> 81
集 合</w> 81
活 塞</w> 81
零 錢夾</w> 81
氧 機</w> 81
軍 裝</w> 81
民 俗</w> 81
朵 色</w> 81
本 人</w> 81
挖 土</w> 81
矮 桌</w> 81
救 星</w> 81
客 戶</w> 81
題 庫</w> 81
淋 雨</w> 81
穩 定 81
盲 盒</w> 81
i sa 81
s lightly</w> 81
m se</w> 81
m ga</w> 81
b remo 81
d z</w> 81
in duction</w> 81
re du 81
an t 81
an ner</w> 81
on ion</w> 81
se p 81
ma u 81
si l</w> 81
si des</w> 81
sa em</w> 81
sp litter</w> 81
ta pes</w> 81
so und 81
ru bi 81
pi oneer</w> 81
do ff</w> 81
br it 81
運動 包</w> 81
slee k</w> 81
no ise</w> 81
ve gan</w> 81
sha w</w> 81
lan cer</w> 81
lin ers</w> 81
zi p 81
pat rick</w> 81
comp any</w> 81
free bie</w> 81
cer t</w> 81
遮陽 鏡</w> 81
as std</w> 81
mc queen</w> 81
cin ia</w> 81
sky drive</w> 81
鋼鐵 俠</w> 81
work book</w> 81
emer ald</w> 81
cray ola</w> 81
古銅 色</w> 81
muff ler</w> 81
succu lent</w> 81
coin purse</w> 81
完整 版</w> 81
samson ite</w> 81
furnit ure</w> 81
onit suka</w> 81
rasta clat</w> 81
水手 服</w> 81
bremo d</w> 81
小 禮</w> 80
小 惡</w> 80
花 王</w> 80
英 式</w> 80
鞋 厚底</w> 80
氣 壓</w> 80
紅 繩</w> 80
布 書</w> 80
手 飾</w> 80
手 拉車</w> 80
黑 橘</w> 80
配 免</w> 80
三 格</w> 80
拉 繩</w> 80
醫 用</w> 80
相 宜</w> 80
美 衣</w> 80
全 配</w> 80
尚 百搭 80
蛋 白粉</w> 80
五 行</w> 80
發 帶</w> 80
發 聲</w> 80
好 玩</w> 80
列 架</w> 80
超 火 80
女 手</w> 80
幾 小戶</w> 80
桃 心</w> 80
包 商</w> 80
包 屁</w> 80
外 防</w> 80
修 補</w> 80
儀 表</w> 80
熊 抱哥</w> 80
如 何</w> 80
四 腳</w> 80
威 力</w> 80
極 簡 80
兩 年</w> 80
微 單</w> 80
天 鵝</w> 80
天 奴</w> 80
原 理</w> 80
七 成</w> 80
植 絨</w> 80
數 據</w> 80
圖 形</w> 80
度 旋轉</w> 80
任 何</w> 80
裙 連</w> 80
裙 洋裝</w> 80
旋 轉 80
吹 風</w> 80
腿 部</w> 80
紙 尿褲</w> 80
晴 天</w> 80
賠 售</w> 80
蒜 泥</w> 80
撕 拉</w> 80
经 典</w> 80
駕 駛</w> 80
拐 杖</w> 80
蹦 迪</w> 80
l m</w> 80
o re 80
a p</w> 80
w el</w> 80
p on</w> 80
b lon 80
麝 香</w> 80
in do 80
sh er 80
li z</w> 80
ro t</w> 80
ch el 80
th a</w> 80
ta i</w> 80
wo w</w> 80
ki ck</w> 80
min a</w> 80
cu lo 80
bu s</w> 80
運動 型</w> 80
sun glass</w> 80
sun day</w> 80
cro mbie</w> 80
gi s</w> 80
col a</w> 80
手機 座</w> 80
ka s</w> 80
mag enta</w> 80
韓版 個</w> 80
lan come</w> 80
hi ja 80
lip gloss</w> 80
tor o</w> 80
gar cinia</w> 80
fri es</w> 80
tan kini</w> 80
沙發 凳</w> 80
pli age</w> 80
pon cho</w> 80
davi doff</w> 80
rot ary</w> 80
dan cing</w> 80
中老 年人</w> 80
臥室 掛</w> 80
phy si 80
log itech</w> 80
電暖 器</w> 80
greet ings</w> 80
cani ster</w> 80
克蘭 詩</w> 80
seawe ed</w> 80
lacqu er</w> 80
given chy</w> 80
ferra gamo</w> 80
aber crombie</w> 80
iphon ex 80
絲 滑</w> 79
保 貼</w> 79
龍 婆</w> 79
粉 藍</w> 79
樂 樂 79
福 音</w> 79
氣 氛</w> 79
氣 炸鍋</w> 79
爆 炸</w> 79
機 電動</w> 79
一 台</w> 79
門 牌</w> 79
裝 置</w> 79
夾 包</w> 79
夾 零錢</w> 79
夾 心餅</w> 79
銀 手</w> 79
日 月</w> 79
葉 黃 79
不 到</w> 79
可 肩</w> 79
無 框</w> 79
壁 挂</w> 79
財 神 79
搭 衫</w> 79
高 亮</w> 79
時 空</w> 79
強 光 79
土 除</w> 79
年 華</w> 79
超 厚</w> 79
貝 爾</w> 79
軟 邊</w> 79
紗 布 79
直 筒 79
拆 裝</w> 79
廳 陽</w> 79
京 都</w> 79
命 年</w> 79
原 木色</w> 79
深 色</w> 79
深 灰色</w> 79
梨 子</w> 79
釘 珠</w> 79
繡 花</w> 79
抗 敏</w> 79
桂 花</w> 79
先 詢</w> 79
鉗 子</w> 79
搖 擺 79
鑽 戒</w> 79
打 結</w> 79
雨 天</w> 79
反 折</w> 79
來 令片</w> 79
精 粹</w> 79
勾 勾</w> 79
芙 妮</w> 79
煎 蛋</w> 79
鏈 子</w> 79
本 命年</w> 79
乾 爽</w> 79
萃 取</w> 79
内 衣</w> 79
蘆 薈 79
瑤 瑤</w> 79
洽 詢</w> 79
叔 叔</w> 79
u red</w> 79
c g</w> 79
g ori 79
i f</w> 79
s kool</w> 79
x treme</w> 79
k ath 79
in te 79
ch in 79
po me 79
su b</w> 79
mi e</w> 79
sp in 79
tt o</w> 79
de mon</w> 79
qu al 79
me et</w> 79
do tted</w> 79
na h</w> 79
col gate</w> 79
tu mmy</w> 79
pri z 79
va seline</w> 79
cre ations</w> 79
lit hi 79
愛迪 生</w> 79
愛迪 達 79
kin e 79
dar k 79
sur plus</w> 79
multi vitamins</w> 79
cri ss 79
麥克 風 79
學生 用</w> 79
安德 森</w> 79
pun k</w> 79
ox o</w> 79
concentr ated</w> 79
short sleeve</w> 79
三人 位</w> 79
dow ny</w> 79
保健 品</w> 79
史黛 拉</w> 79
fry ing</w> 79
andre a</w> 79
tol sen</w> 79
新鮮 貨</w> 79
budd ha</w> 79
caly p 79
clari fying</w> 79
lithi um</w> 79
龍 泉</w> 78
套 套</w> 78
水 貂</w> 78
異 色</w> 78
紅 綠</w> 78
大 器</w> 78
電 風</w> 78
電 玩 78
馬 尾</w> 78
不 補</w> 78
味 道</w> 78
罐 子</w> 78
風 鏡</w> 78
中 小型</w> 78
貓 罐</w> 78
特 別 78
老 年</w> 78
代 购</w> 78
卡 組</w> 78
五 斗柜</w> 78
覆 蓋</w> 78
學 步車</w> 78
之 戀</w> 78
海 鮮</w> 78
二 版</w> 78
爾 斯</w> 78
加 送</w> 78
獨 特 78
女 褲</w> 78
單 雙</w> 78
幾 電視柜</w> 78
火 星 78
亮 光</w> 78
魚 眼</w> 78
排 線</w> 78
空 版</w> 78
選 物</w> 78
星 月</w> 78
鳳 凰</w> 78
泡 水</w> 78
丹 麥</w> 78
冰 涼</w> 78
窗 紗</w> 78
凱 莉 78
條 單</w> 78
袖 連帽</w> 78
抗 過敏</w> 78
秋 天</w> 78
雲 端</w> 78
燈 戶</w> 78
塔 羅 78
交 通 78
濾 鏡</w> 78
荒 野</w> 78
讀 卡 78
澎 澎 78
每 包</w> 78
十 年</w> 78
甘 菊</w> 78
炭 治 78
醬 料</w> 78
捷 克</w> 78
酥 油</w> 78
煤 氣</w> 78
棘 輪</w> 78
繃 帶</w> 78
u ts</w> 78
l ant</w> 78
o reo</w> 78
h t</w> 78
a ga 78
w y</w> 78
w y 78
r d</w> 78
r r</w> 78
v ine</w> 78
p lea 78
f at 78
la w</w> 78
en e</w> 78
ca mbo 78
ro be</w> 78
to wn</w> 78
bo s</w> 78
di ce</w> 78
min ton</w> 78
da w 78
am d</w> 78
pi lip 78
pro polis</w> 78
ear t</w> 78
we alth</w> 78
ci der</w> 78
mat h</w> 78
mat s</w> 78
tr d</w> 78
ani mation</w> 78
mb er 78
百搭 鞋</w> 78
ssi s</w> 78
韓版 學院</w> 78
va por 78
run way</w> 78
av o 78
ton ite</w> 78
bur ger</w> 78
fin d</w> 78
sal ted</w> 78
sal mon</w> 78
mono kini</w> 78
infin ix</w> 78
coun ting</w> 78
nar s</w> 78
電子 琴</w> 78
飛行 器</w> 78
ax le</w> 78
bad minton</w> 78
expand able</w> 78
大耳 狗</w> 78
收藏 品</w> 78
奧利 奧</w> 78
enga gement</w> 78
kate spade</w> 78
pome gran 78
criss cross</w> 78
火星 塞</w> 78
謝 謝</w> 77
麗 嬰</w> 77
網 美</w> 77
手 圍</w> 77
手 机</w> 77
黑 格</w> 77
畫 質</w> 77
彈 力 77
廚 師 77
三 年</w> 77
桿 式</w> 77
大 創</w> 77
茶 器</w> 77
半 盔</w> 77
羅 蘭 77
全 彩</w> 77
特 賣 77
無 損</w> 77
環 境</w> 77
音 頻</w> 77
短 外套</w> 77
五 層</w> 77
發 夾</w> 77
車 衣</w> 77
金 泰</w> 77
枕 頭 77
超 商 77
職 員</w> 77
筆 褲</w> 77
壓 線</w> 77
公 子</w> 77
如 約</w> 77
淺 藍色</w> 77
雜 物 77
浴 簾</w> 77
胸 聚攏</w> 77
集 線器</w> 77
搖 籃 77
人 字</w> 77
初 代</w> 77
淨 思</w> 77
影 院</w> 77
野 狼</w> 77
燕 子</w> 77
探 險</w> 77
死 神</w> 77
還 有</w> 77
血 鬼</w> 77
碟 片</w> 77
範 斯</w> 77
固 態</w> 77
固 齒 77
這 款</w> 77
爬 服</w> 77
泊 爾</w> 77
劃 痕</w> 77
g w</w> 77
e ter 77
m el</w> 77
x c</w> 77
j k</w> 77
j j</w> 77
j maxx</w> 77
ar ine</w> 77
co l</w> 77
le tt</w> 77
on g 77
ma lun 77
to wel 77
th an</w> 77
el mo</w> 77
sa les</w> 77
fa ct</w> 77
ki sh</w> 77
me tro</w> 77
wi ck</w> 77
vi be</w> 77
con cert</w> 77
ter ra</w> 77
be li 77
du ster</w> 77
fu bu</w> 77
cha n</w> 77
cha ssis</w> 77
tu ff</w> 77
par adi 77
寶寶 嬰</w> 77
wor th</w> 77
hi k 77
ty lex</w> 77
key chains</w> 77
cel ine</w> 77
pho enix</w> 77
ben tonite</w> 77
sou r</w> 77
sna p 77
high t</w> 77
ab y 77
air bag</w> 77
bul k</w> 77
北歐 輕</w> 77
雪紡 連</w> 77
sci ssor</w> 77
brilli ance</w> 77
bos ny</w> 77
chopp ing</w> 77
puri fying</w> 77
tex tured</w> 77
高腳 椅</w> 77
bey ond</w> 77
pure gold</w> 77
魚尾 裙</w> 77
攪拌 機</w> 77
ot to 77
chamo mile</w> 77
vamp ire</w> 77
seni or</w> 77
主 打</w> 76
小 咪 76
絲 質</w> 76
絲 娜</w> 76
光 盤</w> 76
水 藍色</w> 76
樂 福</w> 76
網 拍</w> 76
紅 綠 76
手 搖</w> 76
防 寒 76
感 恩</w> 76
整 人</w> 76
門 店</w> 76
大 波浪</w> 76
不 斷</w> 76
蘿 莉 76
正 式</w> 76
卡 車</w> 76
高 質量</w> 76
百 货</w> 76
爾 達</w> 76
地 利</w> 76
地 瓜</w> 76
部 屋</w> 76
夜 市</w> 76
單 入</w> 76
調 教</w> 76
奶 糖</w> 76
萬 國</w> 76
羽 毛 76
婚 房</w> 76
片 式</w> 76
胖 達</w> 76
拆 機</w> 76
冷 風機</w> 76
折 屏</w> 76
梅 子</w> 76
散 熱器</w> 76
硬 盤</w> 76
模 仿</w> 76
蒙 口</w> 76
信 號</w> 76
氧 化</w> 76
影 印</w> 76
柯 基</w> 76
聲 器</w> 76
御 守</w> 76
牛 筋</w> 76
廠 家 76
磨 粉</w> 76
宣 傳</w> 76
避 邪</w> 76
弓 形</w> 76
臭 氧</w> 76
楔 型</w> 76
他 命</w> 76
划 算</w> 76
g an 76
g mate</w> 76
a live</w> 76
a ero</w> 76
r ange</w> 76
m tp</w> 76
p f</w> 76
d ir 76
in canto</w> 76
re lay</w> 76
lo lli 76
ro xy</w> 76
ra sp 76
ne st</w> 76
po reless</w> 76
mi ssion</w> 76
ol y 76
sp ell</w> 76
pre packed</w> 76
me mber</w> 76
sk a</w> 76
min is</w> 76
bu ild</w> 76
be dding</w> 76
ll i</w> 76
ka soy</w> 76
mu lation</w> 76
寶寶 床</w> 76
va li 76
yo gurt</w> 76
blue berry</w> 76
bar gain</w> 76
mit tens</w> 76
儲物 罐</w> 76
折疊 沙</w> 76
micro wave</w> 76
sal vat 76
exten ded</w> 76
as sa 76
美樂 家</w> 76
bru shed</w> 76
str anger</w> 76
美妝 蛋</w> 76
bron zer</w> 76
cray ons</w> 76
chal k</w> 76
nood le</w> 76
scra p 76
far ra 76
游戲 機</w> 76
迷你 型</w> 76
ide al</w> 76
糖果 盒</w> 76
gem stone</w> 76
corpor ate</w> 76
pump kin</w> 76
avo cado</w> 76
溫 控</w> 75
主 臥</w> 75
小 牛</w> 75
小 刀</w> 75
雙 卡</w> 75
合 家</w> 75
保 潔</w> 75
古 代</w> 75
古 鐵藝</w> 75
男 仕</w> 75
紅 木</w> 75
洋 芋 75
國 王</w> 75
手 繩</w> 75
黑 框</w> 75
西 洋</w> 75
夾 長</w> 75
銀 河</w> 75
後 背</w> 75
全 電壓</w> 75
不 必</w> 75
虧 本</w> 75
可 配</w> 75
產 婦</w> 75
果 醬</w> 75
心 經</w> 75
生 產</w> 75
毛 圈</w> 75
定 時</w> 75
褲 大碼</w> 75
圓 形 75
車 模</w> 75
海 藻</w> 75
禮 盒裝</w> 75
除 草</w> 75
施 巴</w> 75
內 頁</w> 75
單 款</w> 75
棒 棒</w> 75
床 笠</w> 75
扣 子</w> 75
青 木</w> 75
包 肩</w> 75
閃 充</w> 75
純 日版</w> 75
多 媒體</w> 75
纖 長</w> 75
木 瓜</w> 75
推 拿</w> 75
霓 淨思</w> 75
以 北</w> 75
吸 血鬼</w> 75
棉 線</w> 75
鼻 毛</w> 75
先 鋒</w> 75
玉 手</w> 75
疏 水</w> 75
月 號</w> 75
飛 輪</w> 75
飛 鏢</w> 75
初 級</w> 75
胞 胎</w> 75
知 名</w> 75
友 會</w> 75
戀 愛</w> 75
橙 色</w> 75
交 流</w> 75
易 買</w> 75
吉 塔</w> 75
芙 尼</w> 75
經 絡</w> 75
省 電</w> 75
寵 愛 75
膝 蓋</w> 75
十 月</w> 75
招 牌</w> 75
底 盤</w> 75
扶 手 75
妖 精</w> 75
櫥 窗</w> 75
礼 物</w> 75
臣 氏</w> 75
屈 臣氏</w> 75
u va</w> 75
c f</w> 75
g f</w> 75
g sm</w> 75
p ear</w> 75
t k</w> 75
t ell</w> 75
b h</w> 75
d m</w> 75
d ji</w> 75
d ood 75
re ar 75
re branding</w> 75
ar ctic</w> 75
li ce</w> 75
se aler</w> 75
ma g</w> 75
ir l</w> 75
ri ding</w> 75
bo un 75
th ou 75
ne ver 75
te en 75
mo ana</w> 75
ki kay</w> 75
ru gged</w> 75
con fe 75
du tch</w> 75
ha m</w> 75
手機 袋</w> 75
jo int</w> 75
gar nier</w> 75
gr and 75
colle ctor</w> 75
spa cer</w> 75
victori as</w> 75
arri vals</w> 75
hou sing</w> 75
high cut</w> 75
cer tified</w> 75
bor ne</w> 75
行李 袋</w> 75
mini figures</w> 75
gro up</w> 75
fru ity</w> 75
my lar</w> 75
acti ve 75
環保 杯</w> 75
den ts</w> 75
美樂 蒂 75
sco pic</w> 75
collecti bles</w> 75
遊戲 機</w> 75
shu tter</w> 75
工業 級</w> 75
專櫃 代購</w> 75
氣質 款</w> 75
blin d</w> 75
stabi lo</w> 75
od or</w> 75
hb w</w> 75
不沾 鍋</w> 75
ape x</w> 75
wig o</w> 75
tom mee</w> 75
yoo bao</w> 75
neg ative</w> 75
pomegran ate</w> 75
洋芋 片</w> 75
耳 飾品</w> 74
光 感</w> 74
耐 衝擊</w> 74
藍 綠色</w> 74
六 代</w> 74
機 車 74
夏 秋</w> 74
支 入</w> 74
亞 的</w> 74
三 民</w> 74
拉 姆</w> 74
大 豆</w> 74
大 屏</w> 74
裝 連</w> 74
半 碼</w> 74
美 術 74
書 機</w> 74
尚 個性</w> 74
中 央</w> 74
線 上</w> 74
特 效</w> 74
泳 池</w> 74
糖 糖</w> 74
清 晰</w> 74
卡 哇 74
喬 遷</w> 74
車 材</w> 74
海 螺</w> 74
百 寶 74
強 度</w> 74
守 護</w> 74
龐 克</w> 74
職 人</w> 74
開 式</w> 74
蓮 花 74
閃 光 74
外 觀</w> 74
公 椅</w> 74
減 震 74
油 煙</w> 74
實 惠</w> 74
真 集</w> 74
佩 戴</w> 74
流 星</w> 74
普 森</w> 74
雜 糧</w> 74
領 針織</w> 74
吊 頂</w> 74
冰 袋</w> 74
吸 吮</w> 74
士 林</w> 74
摩 卡</w> 74
初 中生</w> 74
知 道</w> 74
師 款</w> 74
燈 罩</w> 74
應 急</w> 74
米 其 74
性 時</w> 74
碗 盤</w> 74
扭 蛋 74
擴 香</w> 74
遠 射</w> 74
延 伸</w> 74
今 天</w> 74
覺 醒</w> 74
茜 茜</w> 74
o y</w> 74
a sa 74
r uler</w> 74
m w</w> 74
f d</w> 74
in ti 74
st ool</w> 74
or chi 74
se ll</w> 74
si t</w> 74
ti ppee</w> 74
ir a</w> 74
ri lakkuma</w> 74
ig h</w> 74
de w</w> 74
pla s</w> 74
ga dget</w> 74
ho yo 74
du ffle</w> 74
ang els</w> 74
fu ch 74
tri logy</w> 74
cy cles</w> 74
batt le</w> 74
rubb er 74
cti on 74
ser vice</w> 74
glo ssi 74
plan et</w> 74
精華 露</w> 74
ham ster</w> 74
pig eon</w> 74
專業 級</w> 74
bene tton</w> 74
foot ball</w> 74
vibr ating</w> 74
ner f</w> 74
chron i 74
travel ing</w> 74
計時 器</w> 74
gig a 74
live selling</w> 74
固定 器</w> 74
slo ts</w> 74
ast ro</w> 74
brad shaw</w> 74
filip ino</w> 74
octo pus</w> 74
pic nic</w> 74
bati k</w> 74
華倫 天奴</w> 74
viet nam</w> 74
rasp berry</w> 74
oly mp 74
米其 林</w> 74
佛 堂</w> 73
小 床</w> 73
小 蠻</w> 73
絲 長</w> 73
克 萊</w> 73
粉 晶</w> 73
腳 長</w> 73
編 著</w> 73
男 版</w> 73
男 襪</w> 73
六 甲</w> 73
洋 洋</w> 73
手 繪 73
童 裝 73
防 止</w> 73
防 側</w> 73
寶 劍</w> 73
黑 豆</w> 73
畫 框</w> 73
鐵 牌</w> 73
三 世</w> 73
裝 夏裝</w> 73
電 流</w> 73
電 棒</w> 73
日 空版</w> 73
半 月</w> 73
半 高領</w> 73
前 后</w> 73
全 景</w> 73
不 暈染</w> 73
風 尚</w> 73
風 百搭</w> 73
帶 蓋 73
子 表</w> 73
碼 表</w> 73
糖 盒</w> 73
頭 櫃</w> 73
正 反</w> 73
毛 領</w> 73
板 式</w> 73
高 田 73
發 水</w> 73
理 療</w> 73
頸 椎 73
超 仙 73
掛 燙</w> 73
嬰 幼</w> 73
聖 經</w> 73
東 元</w> 73
上 下 73
繪 圖</w> 73
包 子</w> 73
包 退</w> 73
細 帶</w> 73
木 桶</w> 73
八 代</w> 73
納 斯</w> 73
吊 繩</w> 73
世 界 73
條 機</w> 73
技 巧</w> 73
免 稅</w> 73
散 熱 73
收 單</w> 73
仿 皮</w> 73
步 器</w> 73
戲 水</w> 73
速 食</w> 73
速 幹</w> 73
品 屋</w> 73
專 利 73
軍 靴</w> 73
絞 肉機</w> 73
影 視</w> 73
蚊 子</w> 73
秘 書</w> 73
段 式</w> 73
河 馬</w> 73
投 射</w> 73
窩 貓</w> 73
臨 時</w> 73
搓 澡</w> 73
辭 典</w> 73
漱 口水</w> 73
蜻 蜓</w> 73
午 後 73
u c</w> 73
g u</w> 73
a w</w> 73
e book</w> 73
t n 73
k k 73
z ard</w> 73
f ty</w> 73
in joy</w> 73
re born</w> 73
co pter</w> 73
or ing</w> 73
en ter 73
ca sh 73
un s</w> 73
pa co</w> 73
th ic</w> 73
mi cel 73
te xt</w> 73
ki e 73
ru ssi 73
運動 款</w> 73
gu mmies</w> 73
men t 73
men tal</w> 73
休閒 時</w> 73
cha in 73
sli der</w> 73
boo m</w> 73
gi raff 73
ste in</w> 73
stra iner</w> 73
ass i</w> 73
key pad</w> 73
韓國 飾品</w> 73
ya sen</w> 73
loo t 73
實木 茶</w> 73
electri cal</w> 73
stret chy</w> 73
ber ries</w> 73
電視 機</w> 73
玻璃 罩</w> 73
單人 學生</w> 73
荷葉 袖</w> 73
smi ley</w> 73
flav ors</w> 73
vari ous</w> 73
卸妝 油</w> 73
pun cher</w> 73
arti fact</w> 73
ble ssed</w> 73
翻蓋 式</w> 73
布藝 沙</w> 73
devi l</w> 73
dream s</w> 73
fortun e</w> 73
lau der</w> 73
mus k</w> 73
drop lets</w> 73
雪肌 精</w> 73
五金 工具</w> 73
tigh ts</w> 73
barbe cue</w> 73
hija b</w> 73
炭治 郎</w> 73
malun ggay</w> 73
防寒 保暖</w> 73
羽毛 球拍</w> 73
fuch sia</w> 73
練 習 72
文 玩</w> 72
小 姐姐</w> 72
雙 翹</w> 72
雙 槽</w> 72
附 背</w> 72
計 師</w> 72
藍 光 72
水 凝 72
紅 包</w> 72
熱 敷</w> 72
機 甲</w> 72
會 社</w> 72
康 乃 72
西 褲</w> 72
半 價</w> 72
美 觀</w> 72
美 肌 72
前 叉</w> 72
可 攜式</w> 72
優 選 72
果 乾</w> 72
雅 漾</w> 72
艾 瑪</w> 72
瑪 莉</w> 72
發 財</w> 72
加 油</w> 72
迪 通</w> 72
樹 枝</w> 72
故 障</w> 72
單 槽</w> 72
開 拓者</w> 72
热 卖</w> 72
東 芝</w> 72
壓 花 72
購 買 72
兔 女郎</w> 72
凍 膜</w> 72
普 利</w> 72
八 角</w> 72
燒 水壺</w> 72
現 金</w> 72
寬 版 72
蒼 蠅</w> 72
賽 斯 72
邊 條</w> 72
七 色</w> 72
方 法</w> 72
月 餅</w> 72
打 卡</w> 72
打 折</w> 72
刷 白</w> 72
刷 街</w> 72
非 樂高</w> 72
品 木</w> 72
洗 碗 72
來 襲</w> 72
簽 字筆</w> 72
引 繩</w> 72
走 秀</w> 72
蒸 鍋</w> 72
鹿 皮</w> 72
鹿 角</w> 72
扭 結</w> 72
捕 夢網</w> 72
虛 擬</w> 72
盾 牌</w> 72
爽 型</w> 72
呢 大衣</w> 72
n p</w> 72
i sta</w> 72
r p</w> 72
r ine</w> 72
d ora</w> 72
j l</w> 72
户 外</w> 72
co ro 72
la va</w> 72
st o</w> 72
at ional</w> 72
li bee</w> 72
ca pe</w> 72
ro user</w> 72
ra pid</w> 72
ma stur 72
al vin</w> 72
al ways</w> 72
pa ul 72
ck able</w> 72
mi k 72
ki s 72
qu in</w> 72
bi bs</w> 72
wa fer</w> 72
he ight</w> 72
shi fter</w> 72
充電 頭</w> 72
key ring</w> 72
儲物 凳</w> 72
hal o</w> 72
精華 乳</w> 72
mix ing</w> 72
mix es</w> 72
gol f</w> 72
infin ite</w> 72
vari ant</w> 72
卸妝 液</w> 72
paper bag</w> 72
hot pot</w> 72
jun e</w> 72
mea sure</w> 72
藝術 品</w> 72
steri lizer</w> 72
polar ized</w> 72
scal lop</w> 72
than k</w> 72
rol ling</w> 72
spy der</w> 72
scul p 72
pir ate</w> 72
stock ings</w> 72
finger print</w> 72
cigare tte</w> 72
proce ssor</w> 72
bree ze</w> 72
obse ssion</w> 72
blon de</w> 72
葉黃 素</w> 72
towel s</w> 72
paradi se</w> 72
hik vision</w> 72
glossi er</w> 72
giraff e</w> 72
洗碗 池</w> 72
小 雨</w> 71
小 窩</w> 71
小 資 71
古 裝 71
光 動能</w> 71
腳 踏</w> 71
藍 底</w> 71
水 星</w> 71
手 動 71
手 燈</w> 71
恆 溫</w> 71
童 襪</w> 71
一 流</w> 71
畫 架</w> 71
三 聯</w> 71
醫 院</w> 71
電 鋸</w> 71
變 焦</w> 71
優 盤</w> 71
風 雲 71
中 壢</w> 71
出 水</w> 71
貓 用</w> 71
鋼 絲 71
無 蓋</w> 71
無 印</w> 71
容 器</w> 71
明 子</w> 71
生 技</w> 71
貨 實</w> 71
增 加</w> 71
之 旅</w> 71
板 材</w> 71
定 妝</w> 71
洛 麗 71
理 器</w> 71
車 拉桿</w> 71
禮 袋</w> 71
地 理</w> 71
絨 長</w> 71
提 手</w> 71
聖 物</w> 71
單 字</w> 71
單 靴</w> 71
床 底</w> 71
東 會</w> 71
包 鏈</w> 71
包 百搭</w> 71
舒 適 71
空 心</w> 71
空 調 71
北 臉</w> 71
極 淨</w> 71
極 細</w> 71
衛 星</w> 71
兩 層</w> 71
預 約</w> 71
菩 薩</w> 71
骨 瓷</w> 71
足 療</w> 71
浴 簾 71
胸 口</w> 71
人 員</w> 71
疏 油</w> 71
勝 利</w> 71
霸 杯</w> 71
圖 騰 71
粘 貼</w> 71
面 皮</w> 71
濾 紙</w> 71
精 雕</w> 71
吉 祥 71
鈴 木</w> 71
擦 拭</w> 71
去 死皮</w> 71
漏 斗</w> 71
買 到</w> 71
暴 力</w> 71
蟑 螂</w> 71
杯 架</w> 71
燃 脂</w> 71
資 源</w> 71
藻 土</w> 71
旱 冰鞋</w> 71
櫥 柜</w> 71
彰 化</w> 71
g lare</w> 71
h ur 71
a h 71
e lo 71
e ste 71
r cb</w> 71
s ories</w> 71
p ler</w> 71
b ull</w> 71
d u</w> 71
y i 71
in hal 71
co nia</w> 71
co urt</w> 71
ba ge</w> 71
se at 71
se par 71
to day</w> 71
ti mer</w> 71
pa i 71
pa ge</w> 71
ne il</w> 71
ki m 71
ss le</w> 71
con tin 71
sli m 71
手提 箱</w> 71
現貨 速</w> 71
ste ps</w> 71
百搭 板</w> 71
mu s</w> 71
cre ed</w> 71
hi ace</w> 71
ele ment</w> 71
cur ly</w> 71
zi pp 71
war ts</w> 71
comp u 71
gri ller</w> 71
play set</w> 71
super break</w> 71
沙發 巾</w> 71
perfe cting</w> 71
垃圾 筒</w> 71
cri spy</w> 71
box ed</w> 71
沐浴 精</w> 71
radi ant</w> 71
vari ety</w> 71
落地 扇</w> 71
pub g</w> 71
is sue</w> 71
vir us</w> 71
rot ate</w> 71
水晶 玻璃</w> 71
abo ve</w> 71
travel ling</w> 71
craf ted</w> 71
bit es</w> 71
ale xa</w> 71
lamin ating</w> 71
suit able</w> 71
jack son</w> 71
無線 鍵</w> 71
廣告 牌</w> 71
消毒 器</w> 71
小美 代購</w> 71
lulu lemon</w> 71
水果 刀</w> 71
實驗 室</w> 71
kabu ki</w> 71
卡哇 伊</w> 71
coro lla</w> 71
mastur ba 71
佛 爺</w> 70
主 人</w> 70
小 氣</w> 70
小 愛 70
小 腿</w> 70
雙 邊</w> 70
雙 頻</w> 70
合 物</w> 70
古 馳 70
雷 根</w> 70
耐 看</w> 70
字 型</w> 70
防 過</w> 70
防 指紋</w> 70
感 謝</w> 70
黑 勾</w> 70
一 步</w> 70
比 特</w> 70
茶 茶</w> 70
日 本 70
日 文版</w> 70
不 能</w> 70
可 裝</w> 70
尚 個</w> 70
行 車紀</w> 70
帶 頭</w> 70
中 學</w> 70
蘿 莉</w> 70
心 動</w> 70
清 理</w> 70
音 盒</w> 70
佳 麗</w> 70
時 器</w> 70
蘇 菲 70
金 鋼</w> 70
教 師 70
晚 餐</w> 70
地 墊 70
勞 保</w> 70
新 穎</w> 70
內 建</w> 70
幾 邊</w> 70
包 款</w> 70
包 被</w> 70
挺 版</w> 70
紗 窗</w> 70
減 肥 70
體 服</w> 70
八 音盒</w> 70
折 叠</w> 70
許 願</w> 70
抓 夾</w> 70
著 色</w> 70
符 袋</w> 70
軍 刀</w> 70
密 碼鎖</w> 70
助 力</w> 70
季 節</w> 70
血 壓</w> 70
救 生 70
碟 子</w> 70
拳 道</w> 70
象 印</w> 70
寢 具</w> 70
魷 魚</w> 70
u ps</w> 70
g d 70
a e</w> 70
y r</w> 70
j f</w> 70
re m</w> 70
ar ch 70
co s</w> 70
co b</w> 70
la ura</w> 70
ca kes</w> 70
ro s</w> 70
ch elle</w> 70
ma ma 70
ma in</w> 70
si es</w> 70
si um</w> 70
ri x</w> 70
al ly</w> 70
th in 70
sa g 70
sa ssy</w> 70
ur i</w> 70
de ath</w> 70
and ra</w> 70
car bon 70
pi ck 70
mar t</w> 70
mat ching</w> 70
ju g</w> 70
ste en</w> 70
ban o</w> 70
hoo ps</w> 70
com bat</w> 70
win dows</w> 70
按摩 床</w> 70
沙發 罩</w> 70
優惠 起</w> 70
ling ton</w> 70
雪紡 長</w> 70
scar let</w> 70
radi ance</w> 70
tun a</w> 70
nor mal</w> 70
電子 鍋</w> 70
goo ds</w> 70
recei pt</w> 70
感應 燈</w> 70
jol libee</w> 70
電話 機</w> 70
pou ches</w> 70
錄音 筆</w> 70
sket ch</w> 70
constru ction</w> 70
refre shing</w> 70
eter nity</w> 70
salvat ore</w> 70
小 資</w> 69
平 輸</w> 69
古 箏</w> 69
古 懷舊</w> 69
螢 幕 69
腳 桶</w> 69
水 漾</w> 69
鞋 鞋</w> 69
手 飾品</w> 69
比 琳</w> 69
亞 絲娜</w> 69
畫 集</w> 69
三 口</w> 69
大 風力</w> 69
電 焊</w> 69
書 況</w> 69
優 生</w> 69
豆 袋</w> 69
版 衣</w> 69
蛋 蛋</w> 69
蛋 糕 69
鋼 板</w> 69
艾 米 69
盤 組</w> 69
卡 儂</w> 69
生 手</w> 69
之 城</w> 69
發 凳</w> 69
褲 子 69
褲 腰</w> 69
色 紙</w> 69
金 士頓</w> 69
噴 壺</w> 69
禮 帽</w> 69
超 優惠</w> 69
掛 籃</w> 69
新 世紀</w> 69
內 裝</w> 69
女 寶 69
女 運動</w> 69
扣 腰</w> 69
桌 球</w> 69
上 網</w> 69
包 貓</w> 69
喜 美</w> 69
運 直</w> 69
漂 浮</w> 69
聚 合物</w> 69
翻 玩</w> 69
背 板</w> 69
梨 木</w> 69
浴 桶</w> 69
脫 色</w> 69
兒 泉</w> 69
收 據</w> 69
先 森</w> 69
玉 鐲</w> 69
搖 床</w> 69
餐 墊</w> 69
活 性</w> 69
霸 氣 69
粘 土</w> 69
碧 兒泉</w> 69
重 計</w> 69
只 為</w> 69
襯 衣 69
性 愛</w> 69
隔 音 69
登 場</w> 69
追 加</w> 69
禾 聯</w> 69
聰 明</w> 69
箭 頭</w> 69
呵 護</w> 69
說 明</w> 69
奔 馳</w> 69
臂 力</w> 69
擱 板</w> 69
肛 塞</w> 69
实 木</w> 69
u d</w> 69
u hf</w> 69
a j</w> 69
w we</w> 69
e z</w> 69
s cou 69
d v</w> 69
x oxo</w> 69
la tte</w> 69
it a 69
ba ked</w> 69
or ders</w> 69
si on 69
ti ve</w> 69
di stri 69
sp are</w> 69
ur s</w> 69
so le 69
qu a</w> 69
mp o</w> 69
da ster</w> 69
uni silver</w> 69
che wa 69
現貨 限時</w> 69
cor p</w> 69
kit s</w> 69
mon i 69
cla w</w> 69
nat ion</w> 69
chi ll</w> 69
tre st</w> 69
vit a 69
hy dra 69
lea d</w> 69
現代 北</w> 69
coa ster</w> 69
der ing</w> 69
glo wing</w> 69
vel ve 69
購物 網</w> 69
tab les</w> 69
aqu a 69
防曬 服</w> 69
防曬 帽</w> 69
rat tle</w> 69
保鮮 膜</w> 69
hard case</w> 69
don na</w> 69
alph abo 69
stand ing</w> 69
顯瘦 長</w> 69
bene dict</w> 69
im d</w> 69
dan ts</w> 69
compre ssor</w> 69
roa st</w> 69
anth a</w> 69
nan cy</w> 69
露營 燈</w> 69
bli ss</w> 69
idea s</w> 69
origin als</w> 69
獨家 實</w> 69
生日 蛋糕</w> 69
研究 所</w> 69
manu fact 69
四軸 飛</w> 69
bani la</w> 69
大黃 蜂</w> 69
cambo gia</w> 69
inhal er</w> 69
文 法</w> 68
主 義</w> 68
小 兔子</w> 68
保 溼</w> 68
光 圈</w> 68
腳 踝</w> 68
觸 控 68
動 感</w> 68
紅 白 68
有 氧</w> 68
門 後 68
三 針</w> 68
三 合</w> 68
日 劇</w> 68
美 工刀</w> 68
輕 小說</w> 68
全 車</w> 68
全 車系</w> 68
可 重</w> 68
尚 單</w> 68
晶 手</w> 68
老 佛爺</w> 68
無 刷</w> 68
清 爽型</w> 68
卡 夢 68
短 項</w> 68
乳 酸 68
屋 頂</w> 68
毛 衫</w> 68
陰 莖</w> 68
高 幫鞋</w> 68
高 景觀</w> 68
介 面</w> 68
發 棒</w> 68
褲 裝</w> 68
理 想</w> 68
加 溫</w> 68
加 深</w> 68
振 興</w> 68
腰 長</w> 68
掛 牌</w> 68
單 桿</w> 68
湯 勺</w> 68
限 宅配</w> 68
魚 油</w> 68
上 色</w> 68
包 機</w> 68
冬 款</w> 68
油 污</w> 68
森 友會</w> 68
指 示牌</w> 68
木 地板</w> 68
漂 白</w> 68
八 哥</w> 68
八 分</w> 68
推 荐</w> 68
兩 條</w> 68
沙 龍 68
松 百搭</w> 68
天 窗</w> 68
吸 力</w> 68
記 事</w> 68
成 貓</w> 68
桔 梗</w> 68
最 好</w> 68
頂 上</w> 68
移 門</w> 68
祛 斑</w> 68
導 入</w> 68
座 充</w> 68
瘦 腿</w> 68
身 洋裝</w> 68
專 案</w> 68
莉 亞</w> 68
軍 床</w> 68
競 技</w> 68
精 品屋</w> 68
聲 音</w> 68
鏈 式</w> 68
走 失</w> 68
睡 美人</w> 68
舊 機</w> 68
毒 液</w> 68
設 定</w> 68
耶 誕</w> 68
媚 比琳</w> 68
租 屋</w> 68
莓 果</w> 68
堵 漏</w> 68
煮 茶</w> 68
玳 瑁</w> 68
厄 文</w> 68
u te</w> 68
u de</w> 68
l j 68
g gy</w> 68
i d 68
i ze</w> 68
w u</w> 68
e c 68
e pi 68
e ve 68
t les</w> 68
d x 68
f da</w> 68
跆 拳道</w> 68
re ra</w> 68
or ary</w> 68
en amel</w> 68
ro lls</w> 68
ma de 68
po o</w> 68
po tions</w> 68
mi c 68
mi ssy</w> 68
sa ddle</w> 68
de cant</w> 68
mo d 68
so unds</w> 68
wh ere</w> 68
fi llers</w> 68
pi ll</w> 68
ci e</w> 68
wa shed</w> 68
be be</w> 68
be gin 68
pow dery</w> 68
ex p</w> 68
sha pes</w> 68
充電 座</w> 68
ban ne</w> 68
her ba 68
cti ons</w> 68
hon g</w> 68
har den</w> 68
har ley</w> 68
實木 腿</w> 68
foo trest</w> 68
mari an</w> 68
power ful</w> 68
eleg ance</w> 68
condition ing</w> 68
magne sium</w> 68
thro ttle</w> 68
deli cious</w> 68
自動 傘</w> 68
ball erina</w> 68
kno b</w> 68
移動 式</w> 68
pocket bac</w> 68
ather ine</w> 68
honey comb</w> 68
大馬 標</w> 68
淋浴 房</w> 68
need le</w> 68
infan ts</w> 68
離子 夾</w> 68
固齒 器</w> 68
hoyo ma</w> 68
康乃 馨</w> 68
alphabo unce</w> 68
乳酸 菌</w> 68
小 艾 67
花 子</w> 67
花 梨木</w> 67
男 寶寶</w> 67
水 電</w> 67
國 潮</w> 67
夏 普</w> 67
黑 皮</w> 67
虎 牌</w> 67
房 燈</w> 67
大 陸</w> 67
美 勞</w> 67
輕 巧 67
尚 可</w> 67
尚 大氣</w> 67
風 潮</w> 67
出 游</w> 67
點 綴</w> 67
眉 粉</w> 67
五 號</w> 67
板 間</w> 67
列 腺</w> 67
服 裝 67
加 州</w> 67
除 濕機</w> 67
夜 場</w> 67
超 短</w> 67
新 一代</w> 67
女 装</w> 67
露 露</w> 67
貼 式</w> 67
亮 眼</w> 67
魚 竿 67
包 雙</w> 67
外 露</w> 67
修 邊</w> 67
改 色</w> 67
抱 抱</w> 67
鮮 花</w> 67
真 空 67
木 梳</w> 67
棉 套</w> 67
棉 短</w> 67
魔 物</w> 67
魔 術 67
下 訂</w> 67
牙 線</w> 67
進 門 67
摩 斯</w> 67
飄 逸 67
雨 傘架</w> 67
雲 台</w> 67
瘦 瘦</w> 67
重 生</w> 67
巴 洛克</w> 67
吉 利</w> 67
芙 蓉</w> 67
階 段</w> 67
碗 櫃</w> 67
司 機</w> 67
擦 拭 67
牽 繩</w> 67
叢 林</w> 67
狀 況</w> 67
凉 鞋</w> 67
涉 水</w> 67
注 水</w> 67
臂 章</w> 67
o per</w> 67
g x</w> 67
i ssey</w> 67
a ve</w> 67
e a</w> 67
r ate</w> 67
v oo 67
p ine</w> 67
b m</w> 67
b pa</w> 67
d ori 67
d ong</w> 67
z h</w> 67
z ig 67
f b</w> 67
re t</w> 67
re fil 67
co pi 67
er d</w> 67
la v 67
la ser 67
lo vers</w> 67
ca mo</w> 67
bo unce</w> 67
po sters</w> 67
di x</w> 67
su t 67
mi zed</w> 67
tt gr</w> 67
ta le</w> 67
ph an 67
pp u 67
me xi 67
bu st</w> 67
ci l</w> 67
du yan</w> 67
boo t</w> 67
gra vity</w> 67
ac o</w> 67
mb i</w> 67
ke ep 67
stu dents</w> 67
ste ve</w> 67
he at 67
chi cco</w> 67
bel o</w> 67
tri gger</w> 67
temp orary</w> 67
wor ds</w> 67
tor que</w> 67
sto pper</w> 67
mou s</w> 67
fra mes</w> 67
spa g</w> 67
jump suits</w> 67
cel ina</w> 67
bir ds</w> 67
vel cro</w> 67
multi colored</w> 67
fle a</w> 67
ku lele</w> 67
mbo ree</w> 67
band eau</w> 67
sco tt</w> 67
flu sh</w> 67
balan cing</w> 67
ble mish</w> 67
專業 代購</w> 67
baby doll</w> 67
sd hc</w> 67
nigh ts</w> 67
電熱 水壺</w> 67
jun gle</w> 67
pet als</w> 67
explo sion</w> 67
lor d</w> 67
套頭 衫</w> 67
dete ctor</w> 67
flan nel</w> 67
carol ina</w> 67
avan za</w> 67
sour ce</w> 67
chroni cles</w> 67
擦拭 布</w> 67
小 新 66
小 獅王</w> 66
安 安</w> 66
平 日</w> 66
雙 顯</w> 66
雙 面 66
形 狀</w> 66
附 小</w> 66
拼 皮</w> 66
神 偷</w> 66
鞋 時</w> 66
鞋 學生</w> 66
會 計</w> 66
比 熊</w> 66
畫 家</w> 66
大 海</w> 66
西 藏</w> 66
夾 棉</w> 66
電 量</w> 66
日 夜</w> 66
變 速 66
前 列腺</w> 66
香 辣</w> 66
風 筒</w> 66
風 暴</w> 66
側 開</w> 66
麥 飯</w> 66
無 葉</w> 66
無 章</w> 66
卡 納</w> 66
音 源</w> 66
乳 清</w> 66
明 亮</w> 66
貨 代購</w> 66
高 中生</w> 66
發 圈</w> 66
灰 塵</w> 66
車 庫</w> 66
海 星</w> 66
色 卡</w> 66
金 飾</w> 66
噴 火 66
滿 月</w> 66
教 學 66
加 哥</w> 66
勞 保 66
玩 水</w> 66
新 郎</w> 66
博 物</w> 66
內 含</w> 66
女 仆</w> 66
單 曲</w> 66
衣 車</w> 66
火 線</w> 66
火 速</w> 66
奶 爸</w> 66
桌 學生</w> 66
上 身</w> 66
蜜 餞</w> 66
公 英</w> 66
北 倉</w> 66
油 桶</w> 66
冷 光</w> 66
菜 盤</w> 66
紡 衫</w> 66
紫 光</w> 66
冰 機</w> 66
庫 里</w> 66
翻 頁</w> 66
管 褲</w> 66
傑 克</w> 66
牧 牧 66
足 弓</w> 66
僅 試</w> 66
止 癢</w> 66
臉 巾</w> 66
硬 式</w> 66
衝 鋒</w> 66
鑽 頭</w> 66
吳 亦 66
南 極</w> 66
師 傅</w> 66
刀 叉</w> 66
永 恆</w> 66
濾 杯</w> 66
濾 芯</w> 66
探 險 66
煎 餅</w> 66
綢 緞</w> 66
鹿 晗</w> 66
暴 龍</w> 66
旅 充</w> 66
革 命</w> 66
繁 殖</w> 66
芝 加哥</w> 66
今 年</w> 66
缺 貨</w> 66
艦 娘</w> 66
腕 帶</w> 66
偽 娘</w> 66
蒲 團</w> 66
蒲 公英</w> 66
續 航</w> 66
u kulele</w> 66
g al</w> 66
g love</w> 66
a ki</w> 66
a xe</w> 66
a sym 66
m rs</w> 66
p r</w> 66
t ear</w> 66
an al</w> 66
st in</w> 66
ba ja 66
or dan</w> 66
en tal</w> 66
at m</w> 66
ma ze</w> 66
un ion</w> 66
ti al</w> 66
ti ght</w> 66
ri ordan</w> 66
al bu 66
fa ir</w> 66
ta in 66
so cc 66
ko ji 66
cu bes</w> 66
pla ce 66
do meter</w> 66
ja i</w> 66
ter min 66
ho wr 66
be tty</w> 66
je wel</w> 66
ex hau 66
nat ion 66
tre se 66
mag ni 66
ten e</w> 66
medi cated</w> 66
go at</w> 66
bar rel</w> 66
acce sories</w> 66
bul ls</w> 66
yu n</w> 66
photo book</w> 66
保濕 霜</w> 66
透氣 輕</w> 66
寬松 大碼</w> 66
za xy</w> 66
safe guard</w> 66
gy mboree</w> 66
eli n</w> 66
rose hip</w> 66
ham mock</w> 66
scoo pback</w> 66
ama zon</w> 66
opti mum</w> 66
clou d 66
sequ in</w> 66
pit cher</w> 66
打氣 筒</w> 66
史黛 拉 66
dead pool</w> 66
techno logy</w> 66
陰陽 師</w> 66
愛麗絲 夢遊</w> 66
瀏海 夾</w> 66
imar flex</w> 66
小咪 代購</w> 66
rear view</w> 66
howr u</w> 66
小 鞋</w> 65
小 風</w> 65
耳 扣</w> 65
福 字</w> 65
紅 外</w> 65
爆 乳</w> 65
耀 司</w> 65
會 員 65
會 員</w> 65
一 洗</w> 65
一 份</w> 65
比 例</w> 65
愛 瑪 65
大 降價</w> 65
茶 色</w> 65
電 信</w> 65
半 自動</w> 65
球 型</w> 65
全 盔</w> 65
可 旋轉</w> 65
瓢 蟲</w> 65
鋼 手</w> 65
清 風</w> 65
代 買</w> 65
錢 幣</w> 65
種 植</w> 65
生 平</w> 65
生 百搭</w> 65
束 腳褲</w> 65
塑 形</w> 65
高 空</w> 65
褲 運動</w> 65
晚 禮</w> 65
潮 包</w> 65
超 彈力</w> 65
新 茶</w> 65
單 邊</w> 65
筆 芯</w> 65
魚 皮</w> 65
桌 寫</w> 65
桌 學習</w> 65
桃 紅 65
外 貿 65
外 運動</w> 65
空 盒</w> 65
銅 材質</w> 65
體 感</w> 65
紫 晶</w> 65
兩 雙</w> 65
沙 金</w> 65
寬 度</w> 65
天 竺 65
鴨 子</w> 65
營 店</w> 65
臉 機</w> 65
脫 毛膏</w> 65
胸 部</w> 65
接 環</w> 65
帝 國</w> 65
源 氏</w> 65
抽 插</w> 65
抽 抽</w> 65
刀 頭</w> 65
來 圖</w> 65
米 桶</w> 65
專 營</w> 65
草 寫</w> 65
液 筆</w> 65
湖 人</w> 65
膝 長</w> 65
圍 巾 65
驗 貨</w> 65
換 季</w> 65
嵌 入式</w> 65
娛 樂</w> 65
渦 輪</w> 65
网 红</w> 65
路 亞 65
榴 石</w> 65
运 动 65
率 性</w> 65
骰 子</w> 65
l g 65
i z</w> 65
w ear 65
s nor 65
p d</w> 65
d x</w> 65
k m</w> 65
z ation</w> 65
in i 65
sh in</w> 65
la in</w> 65
le t 65
ch in</w> 65
ra banne</w> 65
lu m 65
ea sy 65
mi ya 65
sa c</w> 65
sa br 65
ta r</w> 65
mo ments</w> 65
qu ad 65
bi lity</w> 65
cu to 65
wat ch 65
ver us</w> 65
bu ck 65
ni ck 65
收納 凳</w> 65
pan cake</w> 65
con tra 65
flo ating</w> 65
wa sh 65
ja y 65
sc a</w> 65
sc anner</w> 65
hu a</w> 65
置物 籃</w> 65
ten d</w> 65
va se</w> 65
son g</w> 65
ans on</w> 65
beau te</w> 65
can e</w> 65
can ada</w> 65
ty pes</w> 65
sch ino</w> 65
ao a</w> 65
the a</w> 65
ari es</w> 65
din ner</w> 65
簡約 現</w> 65
wra pped</w> 65
cri me</w> 65
pin kish</w> 65
bed sheets</w> 65
fer ti 65
past ry</w> 65
ger ber</w> 65
whi pp</w> 65
sol di 65
訓練 服</w> 65
防護 欄</w> 65
broo k 65
broo k</w> 65
wind shield</w> 65
tele scopic</w> 65
維尼 熊</w> 65
pop corn</w> 65
cul lo 65
ek el</w> 65
trea t</w> 65
mother board</w> 65
roo kie</w> 65
grape seed</w> 65
發熱 衣</w> 65
磨砂 玻璃</w> 65
aph ro 65
循環 扇</w> 65
indivi dual</w> 65
stir ring</w> 65
cinnam on</w> 65
太空 棉</w> 65
navar ro</w> 65
aby te</w> 65
micel lar</w> 65
albu ms</w> 65
socc er</w> 65
小 晴</w> 64
小 羊</w> 64
小 象</w> 64
小 葵</w> 64
平 口 64
平 台</w> 64
雙 折</w> 64
形 象</w> 64
附 蓋</w> 64
水 氧機</w> 64
氣 泡</w> 64
網 襪</w> 64
有 限 64
遮 光罩</w> 64
情 緒</w> 64
防 晒</w> 64
護 照夾</w> 64
黑 桃</w> 64
門 鈴</w> 64
半 指</w> 64
規 劃</w> 64
變 身</w> 64
書 柜 64
香 氣</w> 64
全 職</w> 64
全 金屬</w> 64
風 學生</w> 64
子 代</w> 64
老 公</w> 64
無 極</w> 64
乳 房</w> 64
生 書</w> 64
款 手</w> 64
束 帶</w> 64
塑 封</w> 64
介 紹</w> 64
金 卡</w> 64
金 蔥</w> 64
警 車</w> 64
晚 霜</w> 64
地 獄</w> 64
迪 卡儂</w> 64
柔 順</w> 64
閒 長</w> 64
閒 百搭</w> 64
超 彈</w> 64
職 場</w> 64
露 趾</w> 64
開 花</w> 64
開 心</w> 64
石 榴石</w> 64
桌 辦</w> 64
淘 寶 64
桃 色</w> 64
包 拉鏈</w> 64
修 訂</w> 64
靜 音 64
細 菌</w> 64
森 女</w> 64
念 珠</w> 64
伯 賢</w> 64
領 衛衣</w> 64
沙 龍</w> 64
足 部</w> 64
下 垂</w> 64
建 議</w> 64
先 價</w> 64
滑 油</w> 64
集 市</w> 64
市 價</w> 64
方 式</w> 64
人 頭</w> 64
得 利</w> 64
身 長</w> 64
塗 層</w> 64
瑞 拉</w> 64
牛 軋</w> 64
辛 普森</w> 64
錄 影</w> 64
脹 氣</w> 64
股 東會</w> 64
名 家</w> 64
鍋 蓋 64
別 證</w> 64
九 成</w> 64
範 思</w> 64
在 家</w> 64
急 救</w> 64
苹 果</w> 64
午 夜</w> 64
h nj</w> 64
a sia</w> 64
e lu 64
e clat</w> 64
x mas</w> 64
k c</w> 64
f ans</w> 64
q i</w> 64
憤 怒</w> 64
se ta</w> 64
ca sa</w> 64
ca bin</w> 64
ro man</w> 64
ma dam</w> 64
to toro</w> 64
al ber 64
pa k</w> 64
po tty</w> 64
di sco</w> 64
fa r</w> 64
ou ter</w> 64
sp erry</w> 64
rea ct</w> 64
te k</w> 64
qu o 64
qu ar 64
bla des</w> 64
car rot</w> 64
vi lla 64
we dges</w> 64
ga ge</w> 64
mat he 64
sun rise</w> 64
be low</w> 64
pe a</w> 64
ha zel 64
eri a</w> 64
stra di 64
pri ma</w> 64
par ker</w> 64
swim suits</w> 64
免運 特價</w> 64
現代 時</w> 64
one plus</w> 64
ya bano</w> 64
fil led</w> 64
body bag</w> 64
cryst als</w> 64
cal li 64
perfe ction</w> 64
精華 霜</w> 64
twi lly</w> 64
防曬 衫</w> 64
pon ds</w> 64
防塵 塞</w> 64
won ders</w> 64
scar lett</w> 64
don gle</w> 64
oc ca 64
era sable</w> 64
wrist band</w> 64
[...]
