i n 212569
a n 171039
r e 164852
e r</w> 152161
a r 124452
c o 115570
e r 111946
a s 108927
o r 104649
l e 102514
i t 100846
a c 98839
l o 95117
s t 92064
a t 88443
a l 87286
s h 86537
o n 84664
e n 77425
o n</w> 73689
o r</w> 72758
c h 68637
l e</w> 66262
2 0 65156
l i 65139
r o 64917
in g</w> 63349
s e 61267
a l</w> 57244
d i 55005
m e 54751
s i 54427
f or</w> 54273
b a 53753
t o 52071
u n 51937
e s</w> 51012
a i 48952
a m 48814
t i 48403
r i 47931
b o 47635
e d</w> 46450
l u 45727
1 0 44810
s s</w> 42782
m a 42160
t h 41717
p o 41576
i r 41262
n e 40773
l a 39944
e l 39106
an d</w> 38334
u r 35221
i c 35106
r a 34199
a n</w> 33440
s p 32450
i g 32090
現 貨</w> 31934
0 0 31334
t e 31095
t s</w> 30697
p h 30529
o l 30342
c as 30065
i n</w> 29883
n i 29500
a p 29480
ac k</w> 29249
e a 28788
20 1 28639
sh o 28418
u s 28326
m o 28192
me n</w> 27794
s u 27580
d e 27532
m i 27477
m l</w> 26527
k e 26328
a b 26079
u l 25876
新 款 25832
k e</w> 25803
d re 25785
on e</w> 25599
w it 25409
s o 24789
ba g</w> 24470
an d 23385
k i 23170
wit h</w> 22994
e l</w> 22837
c h</w> 22748
t t 22578
se t</w> 21908
dre ss</w> 21871
p r 21743
w o 21494
k o 21424
i on</w> 21156
cas e</w> 21062
q u 20596
運 動 20402
時 尚 20175
v e</w> 19860
d a 19578
ir t</w> 19469
b r 19405
e n</w> 19395
b y</w> 19387
d s</w> 19124
b l 19069
d er</w> 19062
p re 18927
5 0 18645
p p 18459
as h 18417
m e</w> 18186
p lu 18130
w h 18067
g e</w> 18011
現 貨 17844
休 閒 17802
a u 17733
1 2 17429
m in 17251
a d 17239
m p 17157
ni ke</w> 17040
co d</w> 16859
c ar 16782
h o 16712
ab le</w> 16685
簡 約 16624
i l 16621
v er</w> 16561
ne w</w> 16509
g u 16498
c e</w> 16335
ai r</w> 16296
re d</w> 16282
sh irt</w> 16156
v er 16143
l as 15985
b i 15966
家 用 15945
c k 15931
it e</w> 15741
s t</w> 15578
p ro 15360
c k</w> 15291
n o 15280
ph one</w> 15201
to p</w> 15077
t er 15055
wo men</w> 14942
全 新 14845
plu s</w> 14698
c s</w> 14665
ti c</w> 14629
z e</w> 14614
s e</w> 14560
al l</w> 14526
c u 14415
收 納 14388
t e</w> 14346
t y</w> 14239
d o 14229
w at 14211
s k 14178
3 0 14119
韓 版 14109
g h 14009
男 女 13982
bl ack</w> 13897
1 0</w> 13837
t r 13837
d e</w> 13793
t er</w> 13782
o f</w> 13683
兒 童 13675
ko re 13641
日 本 13609
a r</w> 13537
b u 13349
ac e</w> 13261
in g 13226
si ze</w> 13108
e ar 13094
i c</w> 13047
ol d</w> 12906
c re 12887
lo v 12745
p a 12741
a di 12688
f ash 12653
v i 12522
p cs</w> 12380
p er 12369
w e 12324
sh or 12212
b lu 12027
w i 11998
or ig 11862
百 搭 11856
手 機 11800
f re 11799
kore an</w> 11706
s s 11689
orig in 11658
1 8 11630
c i 11621
b e 11570
it y</w> 11542
短 袖 11505
o o 11497
m ar 11496
f l 11467
學 生 11302
f i 11282
co n 11201
fash ion</w> 11157
s un 11154
ar d</w> 11152
背 包</w> 11094
1 1 11057
th e</w> 11012
l ing</w> 10996
ch ar 10952
sho es</w> 10949
al e</w> 10936
f f 10921
l o</w> 10864
u m</w> 10831
lov ed</w> 10810
代 購</w> 10668
ba by</w> 10635
d y</w> 10623
p i 10604
wh ite</w> 10567
p l 10548
a m</w> 10536
p e 10503
r u 10454
da s</w> 10448
p an 10391
in e</w> 10365
ki ds</w> 10363
男 士 10346
免 運</w> 10335
10 0 10328
e le 10296
adi das</w> 10294
pr o</w> 10263
er s</w> 10261
創 意 10176
t a 10131
s le 10126
m at 10113
un i 10078
n o</w> 10032
lo n 10024
co l 10018
r y</w> 10011
th en 10009
5 0</w> 9930
t ed</w> 9898
origin al</w> 9878
au then 9847
t o</w> 9832
authen tic</w> 9773
t h</w> 9738
2 0</w> 9657
li gh 9635
o u 9620
sle e 9607
6 0 9449
s am 9449
bo o 9442
情 侶 9430
上 衣</w> 9398
10 0</w> 9388
ai n</w> 9353
us e</w> 9342
韓 國 9305
ac k 9265
ti on</w> 9249
手 提 9199
全 新</w> 9133
經 典 9082
pre loved</w> 9058
h ig 9048
m as 9044
ea r</w> 9020
m m 9017
a p</w> 9010
夏 季 8996
p ack</w> 8953
min i</w> 8904
復 古 8893
m en 8891
l y</w> 8889
c m</w> 8742
an g 8740
at h 8721
休 閑 8608
二 手 8543
in k</w> 8496
a v 8492
gu c 8482
e t</w> 8448
台 灣 8447
外 套</w> 8433
4 0 8405
現 代 8404
j u 8399
s ale</w> 8392
ur e</w> 8366
s h</w> 8352
p u 8337
on e 8298
b lo 8225
ke t</w> 8194
le ss</w> 8186
si g 8179
i phone</w> 8174
1 6 8173
單 肩 8164
ma x</w> 8144
多 功 8140
tt on</w> 8069
1 5 8046
co lo 8042
k it 8020
1 1</w> 8013
潮 流 7999
2 5 7954
m m</w> 7947
客 廳 7925
g o</w> 7879
an t</w> 7872
1 9 7868
pr in 7852
防 水 7815
f or 7749
g o 7690
g old</w> 7685
fre e</w> 7663
h u 7644
sam sun 7630
多功 能 7559
f o 7544
1 2</w> 7539
samsun g</w> 7536
8 0 7524
po w 7515
d u 7501
st ic 7483
f u 7479
t 恤</w> 7434
b le</w> 7400
hig h</w> 7342
s li 7341
可 愛 7331
f t</w> 7299
c ro 7298
t or 7291
co r 7291
f e 7276
k er</w> 7275
lo w</w> 7262
北 歐 7259
2 4 7248
blu e</w> 7228
p le</w> 7227
ac h</w> 7226
c e 7199
b at 7177
j e 7173
u s</w> 7168
a t</w> 7150
g las 7120
al s</w> 7092
i t</w> 7071
正 品 7066
si l 7044
ch e 7037
臥 室 7033
保 護 7026
h ea 7005
al ity</w> 6976
de sig 6888
寶 寶 6879
m on 6871
p s</w> 6838
牛 仔 6836
g ir 6827
s m 6808
b b 6789
qu ality</w> 6745
co tton</w> 6739
3 0</w> 6705
e x 6663
wat ch</w> 6651
ligh t</w> 6629
c t 6627
p er</w> 6612
s a 6590
le t</w> 6583
慢 跑 6538
di es</w> 6537
h el 6534
p e</w> 6499
t u 6496
h e 6428
裝 飾 6382
s c 6374
r ing</w> 6369
1 4 6362
g re 6338
套 裝 6296
c le 6273
an i 6265
長 袖 6259
g r 6255
p ri 6246
置 物 6245
正 品</w> 6222
迷 你 6200
w a 6171
shor ts</w> 6121
m ic 6108
bo x</w> 6106
l ace</w> 6091
20 0 6085
un d 6085
g i 6083
la dies</w> 6055
7 0 6053
st e 6036
i l</w> 6025
玻 璃 5995
desig n</w> 5993
g er</w> 5989
1 3 5988
m b 5980
s ling</w> 5956
m i</w> 5955
系 列</w> 5949
x y</w> 5944
ch an 5944
pan ts</w> 5933
e y 5928
ing s</w> 5923
h and</w> 5910
套 裝</w> 5896
w al 5886
b al 5885
錢 包</w> 5847
s and 5843
le d</w> 5823
sho ul 5813
shor t</w> 5812
lon g</w> 5789
st u 5776
斜 挎 5752
bo dy</w> 5732
li p</w> 5717
美 國 5699
u p</w> 5690
e d 5685
ter no</w> 5685
加 厚 5677
牛 皮 5675
at e</w> 5675
glas s</w> 5657
y s</w> 5654
sil ver</w> 5598
p ink</w> 5595
se l 5578
shoul der</w> 5578
化 妝 5554
n at 5550
cre am</w> 5549
黑 色 5537
mas k</w> 5525
sp or 5519
3 6 5513
r y 5504
t re 5495
l s</w> 5494
g ra 5473
f f</w> 5469
9 0 5459
x l</w> 5454
y o 5423
le n 5408
新 款</w> 5407
b as 5399
純 棉 5388
p ar 5380
個 性 5365
折 疊 5361
ma n</w> 5358
ma g 5337
j o 5327
沙 發 5325
免 運 5303
汽 車 5295
新 品 5291
co ver</w> 5291
慢跑 鞋</w> 5277
fl or 5266
colo r</w> 5237
d en 5235
l v 5227
pro of</w> 5223
ac h 5205
le s</w> 5200
b ack 5194
in s 5186
網 紅 5175
s on 5169
充 電 5168
t ra 5152
透 氣 5144
g en 5140
h er 5128
ic e</w> 5123
電 腦 5103
p en 5102
i s</w> 5095
真 皮 5070
女 士 5055
l er</w> 5030
kit ty</w> 5013
1 5</w> 5008
to o 4995
pi e 4995
flor al</w> 4995
i es</w> 4990
ath er</w> 4989
廚 房 4972
an s</w> 4972
t 恤 4960
us b</w> 4956
20 20 4955
p or 4949
1 7 4945
特 價 4932
blo use</w> 4914
b er 4912
運動 鞋</w> 4908
t i</w> 4904
sh i 4901
代 購 4899
s er 4882
or d 4881
t w 4874
實 木 4871
h ard</w> 4869
k s</w> 4866
so ap</w> 4862
b ea 4859
b ro 4848
t y 4847
or s</w> 4845
c lo 4843
di s 4838
te mp 4829
o pp 4828
辦 公 4827
手 錶</w> 4819
an ce</w> 4809
st a 4761
t en 4759
f lo 4759
秋 冬 4758
se x</w> 4751
c i</w> 4745
l a</w> 4738
hel lo</w> 4726
印 花 4716
slee v 4709
i on 4708
l it 4695
玩 具 4684
st ri 4683
co ach</w> 4672
v en 4668
i a</w> 4665
耳 環</w> 4662
st y 4659
二 手</w> 4641
l v</w> 4615
洋 裝</w> 4609
s wi 4606
5 00 4598
w ear</w> 4582
le ather</w> 4578
e red</w> 4570
a ge</w> 4562
b ur 4556
in 1</w> 4551
t ri 4549
a s</w> 4548
ck s</w> 4543
b e</w> 4538
針 織 4536
修 身 4532
a k 4521
ai r 4515
卡 通 4514
2 1</w> 4513
9 9 4508
f ace</w> 4498
b el 4496
m a</w> 4495
造 型 4494
z er</w> 4490
at ion</w> 4485
i d</w> 4478
w n</w> 4463
g b</w> 4446
ar e</w> 4446
i m</w> 4436
3 2 4408
50 ml</w> 4389
預 購</w> 4376
d a</w> 4375
or g 4369
h ol 4368
a 3 4338
g s</w> 4329
c tion</w> 4326
uni sex</w> 4324
圓 領 4315
t able</w> 4306
顯 瘦 4304
h and 4303
guc ci</w> 4303
手 工 4261
boo k</w> 4258
戶 外 4251
上 衣 4251
性 感 4246
b ack</w> 4241
專 用 4240
c o</w> 4230
li ve</w> 4217
便 攜 4215
men t</w> 4214
手提 包</w> 4199
精 品 4180
back pack</w> 4175
f la 4173
201 9 4172
tr a</w> 4172
t a</w> 4171
su it</w> 4169
歐 美 4166
m u 4163
c las 4139
opp o</w> 4139
temp ered</w> 4133
短 t</w> 4126
男 鞋</w> 4121
i ph 4091
嬰 兒 4083
sm all</w> 4081
201 8</w> 4075
u al</w> 4067
c am 4057
o il</w> 4054
自 動 4052
h air</w> 4049
v e 4049
a g 4038
公 司 4026
l ar 4024
guc ci 4019
女 生 4018
黑 色</w> 4016
ul l</w> 4015
商 務 4014
st ra 4014
b an 4007
男 生 4002
2 5</w> 4000
4 0</w> 3985
帆 布 3982
hea d 3982
跑 步 3974
sk in</w> 3970
簡 易 3965
p ap 3965
禮 物</w> 3963
t in 3954
1 8</w> 3951
gre en</w> 3944
oo d</w> 3943
v o</w> 3930
m ul 3930
系 列 3925
iph one 3918
電 動 3912
li p 3911
m an 3906
us h</w> 3891
氣 質 3880
ne ck 3876
不 銹 3869
st er</w> 3868
pie ce</w> 3865
a we 3839
w or 3833
女 包</w> 3822
下 殺</w> 3815
大 容 3809
特 價</w> 3809
包 包</w> 3796
st ar</w> 3793
den im</w> 3793
f ro 3790
休閒 鞋</w> 3786
迪 士 3770
籃 球 3769
ch a 3764
v el</w> 3762
單肩 包</w> 3761
蕾 絲 3756
f r 3738
短 袖</w> 3730
br ac 3728
w er</w> 3727
透 明 3722
旅 行 3711
2 8 3695
c y 3690
懶 人 3689
5 5 3685
po lo</w> 3683
d r 3681
st o 3676
手 拿 3671
la y 3667
f il 3642
b ri 3639
neck lace</w> 3631
p s 3617
3 6</w> 3617
awe i</w> 3612
cas ual</w> 3611
u t</w> 3606
不銹 鋼 3603
u ch</w> 3599
100 ml</w> 3591
ver s 3587
咖 啡 3586
k a 3581
c an 3580
me di 3572
pa d</w> 3567
m s</w> 3565
c a 3564
c t</w> 3556
fi t</w> 3547
g ar 3541
pro te 3541
br and</w> 3540
1 7</w> 3534
c ar</w> 3515
生 活 3510
ho o 3505
c le</w> 3503
o ver 3502
1 6</w> 3499
g g 3496
am e</w> 3490
短 褲</w> 3484
sta in 3478
slee ve</w> 3475
7 0</w> 3459
拖 鞋</w> 3457
o ff</w> 3449
al i 3447
2 2 3442
sty le</w> 3440
wal let</w> 3438
bea u 3432
gir l</w> 3431
成 人 3430
v in 3428
k in 3422
blu e 3419
stic k</w> 3418
現代 簡約 3417
201 7 3416
女 鞋</w> 3408
鑰 匙 3405
金 屬 3402
m y</w> 3401
an s 3397
j ac 3392
j ord 3392
ig h 3392
stain less</w> 3386
so ft</w> 3383
la y</w> 3378
寬 松 3377
玫 瑰 3376
斜挎 包</w> 3368
愛 迪 3365
r ings</w> 3362
太 陽 3358
sand als</w> 3348
g e 3347
3 5 3346
as s 3345
b all</w> 3337
無 線 3328
mat te</w> 3326
n y</w> 3323
蘋 果 3319
連 帽 3315
ma x 3313
al a 3300
出 貨</w> 3298
防 滑 3297
w ai 3297
f ac 3296
mi l 3296
sk irt</w> 3295
1 3</w> 3294
置物 架 3293
wat er 3291
g a</w> 3285
小 型 3283
ter y</w> 3282
i al</w> 3276
201 8 3275
l in 3270
le d 3270
組 合 3267
t on</w> 3263
ch o 3253
swi m 3244
d i</w> 3240
玩 具</w> 3238
per fu 3237
r un 3206
hu awei</w> 3205
p c</w> 3201
w el 3201
儲 物 3200
原 廠 3192
i o</w> 3190
4 5 3188
men s</w> 3184
同 款 3183
hol der</w> 3183
簡約 現代 3182
h y 3179
ai l</w> 3171
mi cha 3170
g el</w> 3169
o l</w> 3160
st re 3154
bat tery</w> 3149
p ur 3144
精 品</w> 3144
防 曬 3137
大容 量 3136
b a</w> 3132
連 身 3127
po p</w> 3125
mm er</w> 3125
n e</w> 3118
si on</w> 3118
2 6 3111
too th</w> 3111
sp e 3110
te e</w> 3109
lo ve</w> 3106
brac ele 3106
側 背包</w> 3103
c ket</w> 3102
白 色 3101
tt e</w> 3100
mo bi 3097
o p 3093
3 00 3093
手機 殼</w> 3092
wat er</w> 3089
7 5 3086
un d</w> 3079
寬 鬆 3078
ne ck</w> 3071
1 4</w> 3067
jord an</w> 3066
限 定 3062
st or 3059
家 居 3051
d ol 3050
prin ted</w> 3047
長 款 3046
8 8 3046
c ap 3046
k ing</w> 3044
ul tra</w> 3043
as h</w> 3041
lar ge</w> 3041
pl ain</w> 3037
micha el</w> 3030
201 9</w> 3026
v it 3020
cu te</w> 3017
jac ket</w> 3014
sho p</w> 3011
blue tooth</w> 3010
z ed</w> 3009
正 版 3009
蝴 蝶 3004
su per</w> 3004
n er</w> 3000
外 套 2999
s n 2998
落 地 2994
出 清</w> 2992
la r</w> 2989
chan el</w> 2980
連 衣 2979
t ro 2978
限 時 2975
bracele t</w> 2969
v a</w> 2958
si c</w> 2958
so cks</w> 2957
car d</w> 2951
天 然 2949
t on 2947
ear rings</w> 2945
f ull</w> 2942
co u 2938
on ly</w> 2937
爆 款 2935
gir ls</w> 2927
sp i 2924
bo tt 2921
pow er</w> 2921
se xy</w> 2920
用 品</w> 2917
l ite</w> 2916
d y 2912
ap ple</w> 2907
通 用 2906
m k 2902
sh e 2896
d ri 2894
lo go</w> 2886
perfu me</w> 2886
大 碼 2883
保 暖 2882
mobi le</w> 2881
襯 衫</w> 2879
兩 件 2878
pre mi 2878
ru bb 2877
6 0</w> 2876
pp er</w> 2876
長 褲</w> 2873
舒 適 2871
居 家 2866
d er 2855
條 紋 2849
m er 2849
de n</w> 2849
d ing</w> 2841
香 奈 2833
h ear 2832
o ff 2825
刺 繡 2825
ki t</w> 2816
or ted</w> 2815
立 體 2814
an ti</w> 2814
wh it 2811
專 櫃 2809
char ger</w> 2809
水 晶 2805
c ur 2804
s qu 2799
衛 生 2797
ke y</w> 2794
設 計 2789
da y</w> 2783
進 口 2782
寵 物 2774
c able</w> 2772
限 量 2772
b re 2769
長 夾</w> 2765
b en 2764
6 s</w> 2752
se s</w> 2752
歐 式 2750
t le</w> 2747
背 心</w> 2745
ap e</w> 2745
ss en 2745
保 濕 2743
3 8 2741
to y</w> 2741
am p</w> 2738
lo u 2734
ju mp 2730
w ar 2729
陶 瓷 2723
ey e 2722
x i 2719
pow der</w> 2719
a o 2718
h i 2717
安 全 2714
k a</w> 2713
衣 服 2711
短袖 t恤</w> 2709
ch ain</w> 2705
at ed</w> 2704
br ush</w> 2702
lon g 2698
生 日 2697
ke y 2691
ch es</w> 2690
k o</w> 2685
3 5</w> 2684
公司 貨</w> 2680
z i 2679
mo tor 2677
手拿 包</w> 2677
小 戶 2667
wo o 2663
ma de</w> 2661
sk in 2660
按 摩 2659
9 0</w> 2658
water proof</w> 2657
d v 2652
f e</w> 2650
me s</w> 2645
j ap 2644
n ing</w> 2643
新 品</w> 2642
大 號 2641
premi um</w> 2641
medi um</w> 2640
f un 2638
少 女 2637
vi vo</w> 2633
s l 2627
su mmer</w> 2626
je ans</w> 2626
d ar 2625
br and 2623
打 底 2622
t al</w> 2621
6 4 2618
用 品 2610
en ing</w> 2610
ct or</w> 2605
ch i 2600
col le 2600
rubb er</w> 2592
2 4</w> 2587
g ala 2587
ste el</w> 2587
w in 2582
d ed</w> 2580
平 底 2580
pri me</w> 2580
ri c</w> 2579
ba gs</w> 2575
pr e</w> 2575
ou t</w> 2573
re n 2570
wi re 2565
1 9</w> 2557
c a</w> 2552
pap er</w> 2552
a 5 2551
bi g</w> 2551
雙 肩 2547
gala xy</w> 2547
b ar 2546
s we 2541
h ar 2540
u r</w> 2540
床 頭 2537
n u 2536
wa y</w> 2535
wai st</w> 2531
li c</w> 2530
c and 2529
g lu 2527
po uch</w> 2527
co s 2522
熱 賣 2521
貼 紙</w> 2520
k ors</w> 2519
it ion</w> 2519
s ch 2517
t ing</w> 2513
宿 舍 2513
小戶 型 2513
ber ry</w> 2511
en t</w> 2510
p h</w> 2507
por table</w> 2498
皮 帶</w> 2496
no te 2494
室 內 2493
1 20 2486
路 易 2483
sleev es</w> 2480
co m 2477
wire less</w> 2475
co mp 2474
su per 2474
情 趣 2472
公 仔</w> 2471
8 0</w> 2470
00 0 2470
v u 2469
beau ty</w> 2469
v ic 2466
lo tion</w> 2464
4 4 2462
實 拍</w> 2461
201 7</w> 2457
x s</w> 2453
背 包 2452
bott le</w> 2452
9 25 2450
賣 場</w> 2447
in e 2446
j a 2440
se cre 2438
mag ic</w> 2438
m it 2434
t ur 2433
st ar 2428
2 3 2422
o m</w> 2421
c el 2416
7 1</w> 2412
h a 2407
y a</w> 2406
do u 2404
清 新 2403
tre n 2402
prin t</w> 2399
v o 2396
e ssen 2395
日 本</w> 2395
手 錶 2392
包 包 2391
娃 娃</w> 2391
ff e 2390
鞋 女 2388
正 韓 2387
p u</w> 2382
bo ard</w> 2381
tt er</w> 2376
ser ies</w> 2376
ty pe</w> 2376
路易 威 2375
c m 2373
s an 2364
vu it 2360
鏈 條 2358
m al</w> 2357
ap p 2357
雙 人 2356
氣 墊 2353
ou t 2352
tra vel</w> 2352
字 母 2347
神 器 2342
公 主 2340
購 物 2338
whit ening</w> 2338
di y 2336
spor ts</w> 2336
i s 2335
br a</w> 2334
浴 室 2331
er a</w> 2330
b und 2328
di e</w> 2328
us b 2327
珍 珠 2326
spor t</w> 2326
皮 夾</w> 2322
k n 2322
吊 帶 2320
t shirt</w> 2317
女 童 2312
motor cy 2312
l ine</w> 2311
後 背包</w> 2311
k g</w> 2310
co n</w> 2308
s cre 2305
d o</w> 2304
雪 紡 2303
7 8 2302
fro m</w> 2302
兩 用 2301
女 裝 2300
快 速 2295
熱 賣</w> 2293
sho ck</w> 2290
sel ling</w> 2289
secre t</w> 2286
f ig 2285
201 6</w> 2284
板 鞋</w> 2283
拉 鏈 2282
日 系 2281
cou ple</w> 2275
to ps</w> 2274
爆 款</w> 2273
igh t</w> 2272
on s</w> 2271
bo y</w> 2270
g ood</w> 2267
9 2</w> 2266
n a</w> 2265
p en</w> 2264
實 拍 2264
as us</w> 2264
g a 2262
car e</w> 2262
on g</w> 2261
不 鏽 2257
m ir 2257
p at 2254
h al 2252
flo wer</w> 2252
m or 2251
熱 銷 2246
20 20</w> 2242
健 身 2240
禮 物 2237
nat ur 2234
clas sic</w> 2234
單 人 2232
ri st 2228
cas io</w> 2227
保 溫 2226
motorcy cle</w> 2225
藍 牙 2219
工 具 2219
f it 2218
l an 2216
c al 2216
p il 2214
lo go 2213
stra p</w> 2213
8 5 2211
c ti 2211
di g 2211
lou is</w> 2207
春 夏 2206
k y 2204
薄 款 2202
ne y</w> 2202
籃球 鞋</w> 2202
防 摔 2201
高 腰 2201
as t</w> 2197
b ang 2196
v al</w> 2195
吊 飾</w> 2194
hear t</w> 2194
bund le</w> 2193
bat h</w> 2192
ass orted</w> 2191
3 d</w> 2188
c ap</w> 2185
娃 娃 2184
ro se</w> 2180
stic ker</w> 2177
純 銀 2172
f en 2171
百 搭</w> 2166
小 舖</w> 2162
d ra 2161
編 織 2161
l y 2158
男 款 2156
ad e</w> 2154
clo th 2153
f in 2152
sp ea 2152
at ing</w> 2150
迪士 尼 2150
w ash 2148
ho me</w> 2145
零 錢包</w> 2143
c d</w> 2143
o z</w> 2140
智 能 2138
z z 2133
工 作 2133
ra y</w> 2132
雙 層 2128
v a 2122
l l</w> 2119
v in</w> 2118
衛生 間 2115
沙 灘 2114
in s</w> 2113
a h 2111
商 品</w> 2107
2 8</w> 2105
石 英 2104
清 潔 2097
s y 2096
鐵 藝 2095
do or</w> 2094
3 8</w> 2093
拼 接 2090
ta ge</w> 2084
熱 銷</w> 2083
at e 2083
塑 料 2078
ro und</w> 2078
必 備</w> 2077
k ni 2076
sh ir 2073
2 2</w> 2072
桌 面 2072
dou ble</w> 2072
b ir 2071
電 子 2069
肩 背包</w> 2068
to ys</w> 2066
ho t</w> 2062
2 7 2057
bel t</w> 2057
3 4 2055
si li 2048
白 色</w> 2046
潮 牌 2046
ad ul 2046
an g</w> 2043
stri p 2041
正 版</w> 2039
con ver 2039
el s</w> 2038
b la 2037
眼 鏡</w> 2036
p ack 2034
3 2</w> 2034
st and</w> 2034
餐 廳 2032
c lu 2030
org an 2030
p v 2029
m on</w> 2024
專 業 2023
男 鞋 2022
jap an</w> 2021
e m</w> 2019
p top</w> 2019
茶 幾 2016
char g 2016
in spi 2015
che c 2015
s au 2014
ir e</w> 2013
s mar 2011
inspi red</w> 2006
ni ke 2004
tw o</w> 2004
ac t</w> 2002
短袖 t恤 2002
b and</w> 2001
son y</w> 2001
lu x 1999
mo use</w> 1998
0 1</w> 1995
ce ss 1992
char ac 1991
背 心 1988
聖 誕 1988
boo st</w> 1988
6 5 1987
女 款 1986
tin t</w> 1986
p and 1985
b y 1983
p as 1979
vic tor 1975
uni vers 1974
1 10 1968
ele ss</w> 1968
te a</w> 1965
2 9 1964
一 字 1961
org ani 1961
lo o 1959
vuit ton</w> 1958
in ches</w> 1957
bro wn</w> 1957
f an</w> 1956
短 褲 1955
大 尺 1954
夏季 新款 1954
b ra 1950
dis ney</w> 1948
r o</w> 1947
l and</w> 1946
f ri 1943
ban k</w> 1942
je wel 1941
4 5</w> 1940
純 色 1940
ar m 1938
v el 1935
3 7 1935
li qu 1934
m p</w> 1933
nat ure</w> 1927
愛迪 達</w> 1927
spea ker</w> 1924
時 尚</w> 1922
no te</w> 1922
配 件</w> 1920
n s</w> 1915
mp er</w> 1912
三 葉 1911
p las 1911
2 3</w> 1908
ph o 1907
su pp 1907
ele ct 1906
香 水</w> 1903
下 單 1902
家 居</w> 1899
多 層 1898
d as 1894
cle ar</w> 1894
vin tage</w> 1894
f ol 1893
ar y</w> 1892
am s</w> 1891
g en</w> 1889
遮 陽 1888
車 載 1886
m k</w> 1886
min i 1886
univers al</w> 1882
s ne 1878
下 標</w> 1878
s en 1877
男女 鞋</w> 1876
a d</w> 1875
壁 掛 1873
合 金 1872
隨 身 1871
電 視 1869
美 式 1869
le tte</w> 1868
二手 書</w> 1868
秋 季 1867
ar a</w> 1867
ac e 1867
布 藝 1863
sleev eless</w> 1861
p lay 1860
per son 1860
幼 兒 1857
不鏽 鋼 1855
co o 1853
c at 1852
皮 革 1849
3 d 1849
專 用</w> 1849
限 定</w> 1847
紅 色 1844
擺 件 1841
ed ition</w> 1841
高 跟 1840
th er 1840
9 8 1839
lo n</w> 1839
fla t</w> 1837
m l 1833
保護 套</w> 1832
cu t</w> 1830
ac cess 1828
手機 殼 1827
蝴蝶 結 1826
2 6</w> 1825
d d 1822
access or 1822
9 5 1821
ic k</w> 1819
r e</w> 1817
厚 底 1817
ma h</w> 1816
跑步 鞋</w> 1816
b ts</w> 1815
動 漫 1815
y u 1815
lip stick</w> 1815
le y</w> 1811
辦公 室 1811
s si 1808
耳 機</w> 1808
雙 面 1807
plas tic</w> 1807
飾 品</w> 1806
彩 色 1806
1 50</w> 1805
6 6 1804
方 形 1804
to te</w> 1804
charac ter</w> 1802
po cket</w> 1801
機 械 1800
彈 力 1799
三 角 1797
n av 1797
黑 白 1797
ch il 1797
cam era</w> 1797
襯 衫 1793
mil k</w> 1792
o s</w> 1788
on hand</w> 1788
am po 1787
y 9 1786
運動 鞋 1786
藍 色 1785
斜 背包</w> 1783
1 50 1781
t pu</w> 1781
z en 1781
c at</w> 1780
se d</w> 1780
耳 機 1779
scre en</w> 1779
錢 夾</w> 1778
4 4</w> 1776
h on 1776
同 款</w> 1775
飾 品 1775
it al 1773
z e 1771
be st</w> 1768
shir ts</w> 1768
colle ction</w> 1766
圓 形 1765
201 6 1765
am a</w> 1764
fo re 1764
00 1</w> 1763
30 ml</w> 1763
organi zer</w> 1762
natur al</w> 1761
d ge</w> 1760
格 子 1759
經 濟 1757
3 3 1756
c al</w> 1755
an a</w> 1754
s wit 1753
j 7</w> 1753
優 惠 1753
連衣 裙 1753
日 式 1751
cand y</w> 1751
項 鍊</w> 1750
ba r</w> 1749
m o</w> 1747
f ra 1747
9 9</w> 1745
免運 費</w> 1745
jewel ry</w> 1744
p ra 1742
si de</w> 1742
cro p</w> 1741
swim suit</w> 1739
le go</w> 1738
gu ard</w> 1737
adul t</w> 1736
mic ro 1735
d s 1734
20 0</w> 1732
f le 1731
三 件 1730
on es</w> 1729
ital y</w> 1729
n y 1728
pp ing</w> 1727
sh ad 1726
18 k</w> 1724
p ure</w> 1723
韓 國</w> 1722
du al</w> 1720
dar k</w> 1720
victor ia</w> 1719
陽 臺 1717
k u 1715
涼 鞋</w> 1715
e e 1714
香 水 1712
fre e 1711
美 甲 1710
10 00 1710
v 領 1707
la u 1706
liqu id</w> 1706
t or</w> 1702
少 年 1702
in t</w> 1702
g ri 1701
y el 1701
2 in1</w> 1699
f oo 1693
皮 套</w> 1691
at or</w> 1690
ta ke</w> 1690
d ant</w> 1689
遊 戲 1689
me tal</w> 1688
ph i 1688
ke t 1688
z oo 1687
眼 鏡 1686
c er 1685
sp ray</w> 1684
st r 1683
黑 白</w> 1682
ear s</w> 1682
g ame</w> 1681
w all</w> 1680
下 殺 1677
adi das 1677
re mo 1676
bo ys</w> 1676
牛仔 褲</w> 1676
i i</w> 1674
克 力 1671
k i</w> 1671
ch rist 1670
und er 1670
kni t</w> 1670
4 00 1668
ru n</w> 1668
棒 球 1667
po lo 1664
f ood</w> 1663
腕 錶</w> 1663
y 6 1659
餐 桌 1658
mo i 1658
kore a</w> 1658
mul ti 1658
cle ans 1657
海 賊 1656
chan el 1655
dol l</w> 1654
b or 1653
re d 1649
ch er 1648
organ ic</w> 1648
yel low</w> 1647
col ors</w> 1646
co ffe 1645
ho use</w> 1643
h app 1641
ou r</w> 1641
格 紋 1639
明 星 1638
g lo 1633
s m</w> 1633
水 果 1633
th e 1633
sli m</w> 1633
筆 記 1632
accessor ies</w> 1631
o w</w> 1628
綁 帶 1628
運 動</w> 1628
hig h 1628
ar ri 1627
g am 1626
下 標 1624
kn it 1623
伸 縮 1622
優 惠</w> 1621
ne t</w> 1621
cor n</w> 1619
qu e 1618
coffe e</w> 1617
迪士 尼</w> 1615
dv d</w> 1615
stri pe</w> 1611
r s</w> 1609
學 院 1607
長 版 1606
斜 跨 1606
ey e</w> 1606
4 8 1605
靜 音 1604
古 馳 1604
架 子 1604
bal ance</w> 1603
y 5 1602
小 米 1601
a lo 1600
整 理 1600
co st 1599
gra y</w> 1596
oo l</w> 1595
情侶 鞋</w> 1594
聯 名 1593
pow er 1593
神 器</w> 1591
bo w</w> 1588
bu y</w> 1588
mi st</w> 1587
brand ed</w> 1587
ba n</w> 1586
衛 衣</w> 1585
ro mper</w> 1584
m y 1582
短 夾</w> 1582
hea d</w> 1581
情 人 1578
s y</w> 1577
ma ke 1576
k y</w> 1575
粉 色 1574
elect ric</w> 1573
支 架 1570
sp a 1570
皮 帶 1568
女 孩 1567
or a</w> 1567
ko ut</w> 1566
超 薄 1565
大 學 1564
錢 包 1564
專 屬 1564
sh ampo 1563
sho ck 1563
全新 未 1563
動 物 1562
椅 子 1562
休 閒</w> 1561
re p 1560
防 塵 1559
m d</w> 1559
di y</w> 1559
女 鞋 1557
do g</w> 1557
shampo o</w> 1554
精 華 1553
洗 衣 1553
品 質 1552
lit tle</w> 1552
kin i</w> 1552
適 用 1551
成 新</w> 1550
origin als</w> 1550
conver se</w> 1550
定 制 1549
tren dy</w> 1549
矽 膠 1547
2 7</w> 1546
gr ams</w> 1545
d ro 1543
英 倫 1541
ch en</w> 1541
e p</w> 1539
收 納</w> 1539
復 古</w> 1539
12 5</w> 1539
w ash</w> 1537
car to 1537
ter s</w> 1537
藍 色</w> 1536
全 館 1536
par ty</w> 1536
stor age</w> 1536
5 g</w> 1535
5 s</w> 1535
百 貨</w> 1535
愛 心 1534
展 示 1533
3 9</w> 1532
essen ti 1531
加 絨 1530
發 票</w> 1530
i p 1530
鏤 空 1530
香奈 兒 1530
t ain</w> 1529
at er</w> 1528
head set</w> 1527
s a</w> 1526
女 包 1525
prote ctor</w> 1521
en g 1520
台灣 製 1520
v ans</w> 1519
行 李 1519
smar t</w> 1518
c lip</w> 1516
支 架</w> 1516
紅 色</w> 1515
正 韓</w> 1515
fl y 1515
in ch</w> 1514
t an 1513
冬 季 1513
玄 關 1512
50 0</w> 1511
sli p</w> 1507
t as 1506
貓 咪 1506
內 衣 1506
德 國 1505
che ck</w> 1503
cloth es</w> 1503
c ra 1502
30 0</w> 1502
透 氣</w> 1501
mul ti</w> 1501
s ing 1498
書 桌 1498
s on</w> 1497
全 自動 1497
四 季 1497
a i</w> 1496
sch ool</w> 1496
z y</w> 1493
配 件 1491
an c 1491
nav y</w> 1490
衛 衣 1488
hoo die</w> 1486
st one</w> 1485
w s</w> 1483
質 感 1481
出 清 1480
con e</w> 1479
pu ma</w> 1479
遙 控 1475
b s</w> 1474
3 9 1474
小 白 1472
a 7</w> 1471
模 型 1471
fac ial</w> 1471
vit am 1471
相 機 1470
arri val</w> 1470
時尚 百搭 1469
stre t 1469
la ptop</w> 1468
s ur 1467
ti e</w> 1467
環 保 1466
skin ny</w> 1466
g low</w> 1463
pen dant</w> 1462
5 ml</w> 1461
2020 新款 1461
短 款 1460
co stu 1460
make up</w> 1460
c r 1458
us t</w> 1458
swit ch</w> 1458
s w 1456
carto on</w> 1456
3 3</w> 1455
plu s 1454
n ba</w> 1452
c ry 1451
耳 環 1450
an ge</w> 1446
sand o</w> 1446
b ear</w> 1445
m g</w> 1445
男 童 1444
長 褲 1443
拉 鍊 1443
xi ao 1443
a j 1442
4 7 1442
3 1</w> 1442
col la 1442
zoo m</w> 1442
拖 鞋 1441
移 動 1440
qu e</w> 1440
su pre 1439
收納 盒 1439
牛 皮</w> 1438
3 4</w> 1437
on al</w> 1436
gi ft</w> 1434
學 習 1432
t ab 1431
h d 1431
i e</w> 1431
v ing</w> 1430
to w 1430
fash ion 1429
bro w</w> 1427
b er</w> 1425
l ler</w> 1425
中 長款 1425
廠 家 1425
for ce</w> 1425
輕 奢 1424
三 眼 1423
防 風 1423
全 場 1422
仿 真 1422
2019 新款 1422
a z 1420
6 00 1420
x r</w> 1419
pil low</w> 1417
char m</w> 1414
cu p</w> 1413
36 0</w> 1413
d ai 1412
k en 1412
mic key</w> 1412
機 車 1411
海 外 1411
at s</w> 1409
si ve</w> 1409
可 選</w> 1408
預 購 1408
男 女</w> 1406
口 袋 1405
f i</w> 1405
wor ks</w> 1403
ad ap 1402
2 20 1401
美 容 1401
one y</w> 1400
工 具</w> 1399
di o</w> 1399
xiao mi</w> 1399
收納 盒</w> 1398
內 褲</w> 1397
fu l</w> 1397
chec kout</w> 1396
耐 吉 1395
a f 1394
行 車 1394
靠 背 1394
n on</w> 1392
春 秋 1392
so u 1392
co ach 1391
ci l</w> 1391
ai d</w> 1389
沐 浴 1387
bal lo 1386
dig it 1386
手 作 1385
春 季 1382
香 港 1382
li sh</w> 1381
pe t</w> 1380
巴 寶 1379
el l</w> 1379
公 分</w> 1378
ac ti 1378
on d</w> 1378
shock proof</w> 1376
服 裝 1375
o m 1375
sili cone</w> 1375
happ y</w> 1375
zen f 1374
tr o</w> 1373
max i</w> 1373
r or</w> 1372
d r</w> 1372
mat e</w> 1372
甜 美 1371
7 7 1370
ar i 1370
bi kini</w> 1370
小 孩 1369
原 裝 1369
生活 館</w> 1369
g g</w> 1368
in a</w> 1366
pan ty</w> 1366
cry st 1366
201 5</w> 1365
no va</w> 1363
bur berry</w> 1363
手 鍊</w> 1361
l amp</w> 1360
置物 架</w> 1360
12 pcs</w> 1356
30 4 1356
te es</w> 1355
促 銷</w> 1354
金 色 1353
流 蘇 1353
鋼 化 1351
頂 級 1351
at a</w> 1345
di or</w> 1345
設 計</w> 1343
x l 1342
uni corn</w> 1340
t s 1339
mm y</w> 1339
knit ted</w> 1339
c li 1338
gh t</w> 1338
tor y</w> 1338
yo u</w> 1337
t c</w> 1336
swim wear</w> 1335
in er</w> 1332
愛迪 達 1332
氣 墊</w> 1331
潮 流</w> 1331
fr on 1331
shi pping</w> 1330
av ai 1329
批 發</w> 1328
at i 1328
costu me</w> 1326
9 5</w> 1325
超 級 1325
k ers</w> 1324
夏 天 1324
strip es</w> 1323
電 池</w> 1322
bu tt 1322
ren t</w> 1322
s no 1321
古 奇 1321
shad ow</w> 1320
2 1 1319
b and 1319
旋 轉 1319
bo dy 1319
cos me 1319
pa j 1318
中 文 1317
pen cil</w> 1316
she et</w> 1316
w il 1314
18 0 1314
re l</w> 1312
ar t</w> 1312
高 清 1311
日 版</w> 1311
6 8 1310
b v 1310
面 膜</w> 1310
sne ak 1310
貼 紙 1308
mir ror</w> 1308
gen u 1306
tow el</w> 1306
h p</w> 1305
f ast</w> 1304
書 架 1303
床 上 1303
編 織</w> 1300
桌 子 1299
lo ck</w> 1299
am p 1299
50 g</w> 1299
ser um</w> 1299
保護 殼</w> 1298
衣 服</w> 1297
中 國 1297
li fe</w> 1297
單肩 包 1297
con d 1296
塑 膠 1295
s o</w> 1294
風 扇</w> 1294
棉 麻 1293
阿 瑪 1293
7 5</w> 1292
訓 練 1289
音 樂 1288
經濟 型 1288
打 孔 1287
ele g 1287
斜挎 包 1287
ri bb 1285
ma s</w> 1283
n md</w> 1282
digit al</w> 1282
se y</w> 1281
lu ck 1281
po l 1281
hand bag</w> 1281
n ight</w> 1280
m er</w> 1279
glas ses</w> 1278
空 氣 1277
fra gr 1277
2 9</w> 1274
l un 1274
th er</w> 1274
ea u</w> 1274
cho col 1273
品 牌 1272
小 清新 1271
0 2</w> 1271
fre sh</w> 1271
可 調 1270
st ring</w> 1270
can v 1270
五 分 1269
西 裝 1268
cher ry</w> 1268
l d</w> 1267
商 品 1266
模 型</w> 1266
組 合</w> 1266
抽 屜 1265
s al 1262
pl an 1262
1 10</w> 1261
m t 1261
日 韓 1261
必 備 1261
el ly</w> 1261
fig ure</w> 1261
水 桶 1260
c c</w> 1260
公 仔 1260
h d</w> 1259
e mb 1259
翻 蓋 1259
len s</w> 1259
cro ss</w> 1258
游 戲 1257
耐 吉</w> 1257
cu sto 1257
500 ml</w> 1257
sel ler</w> 1256
一 體 1254
無 袖 1253
ki d</w> 1253
手 環</w> 1252
增 高 1252
3 in1</w> 1252
ci al</w> 1251
su n</w> 1250
套 頭 1249
m ac 1246
全 包 1246
ch ic 1246
e f</w> 1245
臺 式 1244
包 裝 1243
9 7</w> 1243
青 年 1243
d or 1242
台灣 現貨</w> 1242
a qu 1240
裝 飾</w> 1240
w n 1240
下 單</w> 1239
蛋 糕 1239
經 典</w> 1239
or ange</w> 1239
vitam in</w> 1239
re al</w> 1238
che e 1238
or der</w> 1236
bas ket 1236
cost e</w> 1236
sneak ers</w> 1235
小 香 1233
ou s</w> 1233
香奈 兒</w> 1233
便攜 式 1231
行 動 1230
全新 正品</w> 1230
8 3</w> 1228
to yo 1228
la coste</w> 1227
輕 便 1226
ligh t 1225
squ are</w> 1225
pp ers</w> 1224
5 7 1223
f ab 1223
米 奇 1222
全新 現貨</w> 1222
basket ball</w> 1222
s l</w> 1221
sing le</w> 1221
手 套</w> 1220
4 6 1219
z en</w> 1219
英 國 1219
小 方 1218
las h</w> 1218
貝 殼 1217
o em</w> 1216
車 用 1216
v en</w> 1215
梳 妝 1215
in ten 1215
c en 1214
3 7</w> 1214
fo am</w> 1214
g ro 1212
衣 架 1211
cryst al</w> 1210
n a 1206
ic al</w> 1206
板 鞋 1205
it h</w> 1205
r ac 1204
s po 1203
j i 1203
ra in 1203
內 衣</w> 1202
sau di</w> 1202
小 熊 1201
指 甲 1201
ka y</w> 1200
路易威 登 1200
j 7 1199
hand le</w> 1199
genu ine</w> 1198
t ape</w> 1197
夏 裝 1197
di am 1197
ni e</w> 1197
ar m</w> 1196
i pad</w> 1195
擺 件</w> 1195
eleg ant</w> 1195
g ger</w> 1194
re al 1194
p ear 1193
kit chen</w> 1190
fl y</w> 1189
i mp 1188
f a 1188
t al 1187
run s</w> 1187
精 緻 1186
sto ck</w> 1185
per fe 1184
40 0</w> 1184
one si 1184
fri en 1184
背 景 1182
it ion 1180
toyo ta</w> 1180
v et</w> 1179
bi e</w> 1178
c c 1176
col or 1176
fr ame</w> 1176
工 業 1175
牛仔 褲 1173
抖 音 1172
ps 4</w> 1172
am i 1171
he al 1171
key chain</w> 1171
路易威 登</w> 1171
媽 媽 1170
g ol 1169
mi x</w> 1169
gg ings</w> 1169
it e 1168
學院 風 1168
mic ro</w> 1166
b ul 1165
zenf one</w> 1165
ap pa 1164
腰 帶</w> 1163
化妝 包</w> 1162
中 式 1161
on ic</w> 1161
新款 韓版 1161
海賊 王</w> 1161
ea ble</w> 1160
wh e 1160
z o 1159
優 質 1159
手提 包 1159
耐 克 1156
3 50</w> 1155
un der</w> 1155
colla gen</w> 1155
b b</w> 1154
mi o</w> 1153
over runs</w> 1153
英 文 1150
愛 馬 1150
泡 泡 1150
ma t</w> 1150
神 奇 1149
特 惠</w> 1148
0 5 1147
可 愛</w> 1147
家 具 1147
hon da</w> 1147
b on 1146
t ure</w> 1145
直 筒 1145
j er 1145
毛 衣</w> 1144
sh a 1144
ma ke</w> 1144
4 6</w> 1143
羊 皮 1143
ic s</w> 1143
bang ko 1143
cap su 1141
雜 貨 1140
藍 芽 1140
周 邊 1140
禮 盒</w> 1139
f er 1138
十 字 1138
尺 寸 1136
p on 1136
n ail</w> 1136
防 水</w> 1135
時尚 潮流 1135
ton er</w> 1135
chocol ate</w> 1135
推 薦</w> 1131
磨 砂 1131
er ing</w> 1131
四 件 1130
bu tton</w> 1130
8 g</w> 1129
韓 版</w> 1129
男 孩 1129
孕 婦 1129
最 新 1127
po d</w> 1127
帆布 鞋</w> 1127
洗 手 1126
泰 國 1126
ju st 1126
g lit 1125
bangko k</w> 1125
r a</w> 1124
連衣 裙</w> 1123
e s 1120
co mb 1120
筆記 本 1120
m ale</w> 1119
wo mens</w> 1119
二手 書 1119
禮 品 1118
s at 1117
y l</w> 1117
li mit 1117
essenti al</w> 1117
h an 1116
糖 果 1116
戒 指</w> 1116
ce ss</w> 1116
mon o 1116
鑰匙 圈</w> 1116
t v</w> 1115
canv as</w> 1114
4 1</w> 1113
p le 1112
高 檔 1112
進 口</w> 1112
生 活</w> 1111
adap ter</w> 1111
appa rel</w> 1111
唇 膏</w> 1109
無 痕 1108
k le</w> 1108
c es</w> 1108
硅 膠 1108
k le 1107
耐 磨 1107
9 25</w> 1106
j an 1106
促 銷 1106
ne w 1106
m c 1105
批 發 1105
tu be</w> 1105
d ry</w> 1104
寶 可 1104
ig e</w> 1104
red mi</w> 1104
法 國 1103
for mal</w> 1103
fashion able</w> 1103
阿 迪 1102
co at</w> 1102
百 貨 1101
內 搭 1101
mon th 1101
fore ver</w> 1101
老 爹 1100
荔 枝 1100
台灣 製</w> 1100
m bl 1099
禮 盒 1099
跑 鞋</w> 1098
y a 1097
ah a</w> 1097
童 裝</w> 1096
ca ke</w> 1096
au to 1095
ch able</w> 1094
cor e</w> 1094
po s 1093
te l</w> 1093
w ra 1092
bo x 1092
con tro 1092
zi pper</w> 1092
涼 鞋 1091
洋 裝 1091
腳 踏 1091
b le 1090
原 宿 1090
w l</w> 1089
her mes</w> 1089
t at 1088
保護 套 1088
電 源 1087
chil dre 1087
棉 質 1086
花 朵 1085
空 調 1085
an o</w> 1085
g un 1084
可 拆 1084
帽 t</w> 1084
持 久 1083
di sp 1083
雙肩 包</w> 1083
5 8 1081
游 泳 1081
paj ama</w> 1081
z ara</w> 1080
紀 念 1080
休閒 運動 1080
run ning</w> 1079
sh i</w> 1077
s mo 1076
適 用</w> 1076
大尺 碼 1076
彈 性 1075
ph ones</w> 1073
fun ko</w> 1073
ti me</w> 1072
gu e 1072
fron t</w> 1072
el d</w> 1071
cle an 1071
2 50ml</w> 1070
5 mm</w> 1070
水 洗 1070
毛 衣 1070
jump suit</w> 1070
p air</w> 1069
官 方 1069
luck y</w> 1069
bu m</w> 1068
4 2</w> 1066
木 質 1066
f t 1065
老 花 1065
a 7 1063
p lay</w> 1063
垃 圾 1062
初 學 1062
re n</w> 1062
li n</w> 1062
女 性 1061
風 格 1061
家 具</w> 1061
男 裝 1061
x xl</w> 1060
強 力 1060
隱 形 1059
woo d</w> 1059
小 號 1057
免 打孔 1057
bi es</w> 1056
s old</w> 1055
v an 1055
wal l 1055
limit ed</w> 1055
可 折疊 1054
mi c</w> 1054
supre me</w> 1054
收納 架 1052
韓版 潮流 1052
sli ppers</w> 1052
pur se</w> 1051
6 7 1050
植 物 1049
世 界 1048
0 3</w> 1046
外 線 1046
le ggings</w> 1046
新 生 1045
c an</w> 1044
y ears</w> 1043
招 財 1043
ap er</w> 1042
日本 製</w> 1042
c ity</w> 1041
si mp 1041
4 2 1040
b o</w> 1040
b al</w> 1040
造 型</w> 1040
kit ty 1040
ro y 1039
ber ry 1039
f an 1038
ba by 1038
快速 出貨</w> 1038
month s</w> 1038
黃 金 1037
vel vet</w> 1035
特 惠 1034
f ru 1034
保護 貼</w> 1034
li e</w> 1033
ne o 1033
毛 絨 1032
y o</w> 1032
re s</w> 1032
出 貨 1030
三葉 草</w> 1030
t ail</w> 1029
撞 色 1029
荷 葉 1029
power bank</w> 1029
diam ond</w> 1029
h ang 1028
y am 1028
洗 髮 1028
g y</w> 1024
sho e</w> 1024
歐 洲 1023
合 一 1023
tr an 1022
que en</w> 1022
婚 禮 1021
la dy</w> 1021
6 g</w> 1020
扭 蛋</w> 1020
woo den</w> 1020
k er 1019
星 星 1019
re tro</w> 1019
childre n</w> 1019
v y</w> 1018
spe cial</w> 1018
ba vin</w> 1017
情侶 款 1017
925 純銀 1016
bir th 1016
bla zer</w> 1015
pear l</w> 1015
小 包</w> 1013
自 然 1013
fly knit</w> 1013
y rs</w> 1012
le gen 1012
10 pcs</w> 1011
boo ks</w> 1011
dri ve</w> 1011
帶 回</w> 1010
pu mp</w> 1009
cond ition 1009
8 1</w> 1008
廠家 直 1008
超 輕 1007
低 幫 1007
co in</w> 1007
風 扇 1006
情侶 款</w> 1006
charg ing</w> 1006
ic ial</w> 1004
b t 1001
抱 枕 1001
st ate 1001
粉 色</w> 1000
圍 巾</w> 1000
4 9 999
k ate</w> 999
平 板 999
客 訂</w> 999
酒 店 999
摩 托 999
200 ml</w> 999
person ali 999
送 一</w> 998
th ai 998
w ire</w> 996
親 子 996
流 行 995
碎 花 995
sel f</w> 995
bur berry 995
台灣製 造</w> 995
k l</w> 994
ba g 994
christ mas</w> 994
a f</w> 993
圖 案 993
色 可選</w> 993
st er 993
休閒 鞋 992
pv c</w> 992
a 5</w> 990
ro id</w> 990
re ju 989
7 9 988
to uch</w> 988
h il 987
簡 約</w> 987
c d 987
沙 發</w> 987
j elly</w> 986
no t</w> 986
便 宜 985
補 水 985
co de</w> 985
pp ed</w> 985
ear phone</w> 985
man i</w> 985
l am 984
ne ss</w> 984
計 時 983
客 訂 983
state ment</w> 983
am er 982
k in</w> 981
w e</w> 980
益 智 980
or i 980
bl an 979
基 本 977
te ster</w> 977
wash able</w> 977
p a</w> 975
jo gger</w> 975
la ble</w> 974
pa lette</w> 973
fi er</w> 973
m ach 972
y ee 972
家 用</w> 972
情人 節 972
角 落 971
10 ml</w> 971
豆 豆 970
ad just 970
阿迪 達 969
皮 革</w> 968
2018 新款 968
機 器 967
粉 紅 967
f ir 966
he els</w> 966
通 用</w> 965
九 分 965
gre y</w> 964
gra ph 964
m ol 963
改 裝 963
玩 偶</w> 963
寫 字 963
自 行車 962
fil ter</w> 962
4 g</w> 961
p ul 961
大 理 960
g y 960
wh o 960
mar i 960
品 質</w> 959
ar mani</w> 959
se mi</w> 959
男 款</w> 958
釣 魚 958
colo ur 958
客 製 957
stu ri 957
off ice</w> 957
c ri 956
mm ing</w> 956
m bo 955
攝 影 955
ver y</w> 955
ed ge</w> 954
to dd 953
t w</w> 952
v ac 952
智 慧 952
ro i 952
sp f 952
充 氣 951
墨 鏡</w> 951
in o</w> 951
2 50</w> 950
or t</w> 950
a c</w> 949
商 用 949
slee p 949
moi sturi 949
bor n</w> 949
t ai 948
灰 色 948
and roid</w> 948
be d 948
pand ora</w> 948
女 神 947
材 料 947
優 雅 947
抱 枕</w> 947
pv c 947
托 特 946
pri ce</w> 946
x r 945
at ion 945
12 0</w> 945
blu sh</w> 945
sc en 945
t ch</w> 944
d c</w> 944
材 料</w> 944
x s 944
睡 衣 944
bi ke</w> 944
mar vel</w> 944
直 播 942
腰 帶 942
帽 子 942
ru b</w> 942
ar mo 941
水 杯 940
re l 940
out door</w> 940
1 s</w> 939
co ol</w> 939
fab ric</w> 939
t t</w> 938
m s 938
噴 霧 938
狗 狗 938
現貨 供 938
er o</w> 936
ribb on</w> 936
perfe ct</w> 936
拼 色 935
ing er</w> 934
z ing</w> 933
clo th</w> 933
glu t 933
素 色 932
洋 氣 932
大 利 931
s co 931
寶 貝 931
素 面 931
8 8</w> 930
滑 板 930
al bum</w> 930
prin cess</w> 930
打底 衫 930
品 牌</w> 929
al u 929
奶 茶 928
藝 術 928
長 方形 927
bl ack 927
personali zed</w> 927
adjust able</w> 927
3 60 926
腰 包</w> 926
萬 用 925
冰 絲 925
wor ld</w> 925
fragr ance</w> 925
jer sey</w> 925
condition er</w> 925
馬 克 924
巴 黎 924
in st 924
ju ice</w> 923
comp le 923
b l</w> 921
頭 層 921
翻 領 921
re ad 921
too l</w> 921
e ds</w> 920
ur a</w> 920
7 6 919
m ang 919
2017 新款 919
小 腳 918
5 6 918
w r 918
電 池 917
國 際 917
純 棉</w> 917
re charg 917
ar t 917
sp ade</w> 917
半 袖 916
餐 具 916
ballo on</w> 916
h k</w> 915
j 2</w> 915
升 降 915
er o 915
p in 914
p ad 913
材 質</w> 913
ar o 913
0 6 912
f ur 912
收納 袋</w> 912
mag ne 911
t one</w> 910
古 馳</w> 910
uni q 910
ic a</w> 909
全 套 908
j o</w> 908
be ach</w> 908
6 pcs</w> 907
h er</w> 907
柔 軟 907
青 少年 907
tr u 907
clas s</w> 907
生日 禮物</w> 907
custo mi 907
大學 t</w> 906
thai land</w> 906
房 間 905
w a</w> 905
it i 905
bas ic</w> 905
g oo 904
灰 色</w> 904
固 定 904
ro om</w> 904
a 字 903
ma c</w> 903
pho to 903
v 2</w> 902
fo und 902
美國 代購</w> 902
pra da</w> 902
i r</w> 901
pie ces</w> 901
毛 巾 900
car ds</w> 900
保 證 899
推 車 899
da m</w> 899
pl ated</w> 899
阿瑪 尼 898
魔 法 897
mat ic</w> 897
stret chable</w> 897
桌 椅 896
g le</w> 895
外 穿 895
p c 895
ti cs</w> 895
ir on</w> 894
尺 寸</w> 893
w are</w> 893
blo ck</w> 892
mb er</w> 892
4 8</w> 891
000 mah</w> 891
avai lable</w> 891
寶 貝</w> 890
櫻 花 890
sh a</w> 890
air po 890
tan k</w> 890
洗 澡 889
跑步 鞋 889
birth day</w> 889
l g</w> 888
連 體 888
wall paper</w> 888
代 理 887
mo s</w> 887
emb roi 887
us a</w> 886
4 3 885
b len 885
ad he 885
h i</w> 884
男 錶</w> 884
枕 頭 884
尖 頭 883
台灣 現貨 882
羊 毛 881
1 60 880
b ed</w> 880
男 包</w> 880
f 5</w> 879
g ar</w> 878
fil a</w> 878
g ap</w> 877
gam ing</w> 877
u v</w> 876
鋁 合金 876
mi x 876
4 3</w> 875
wra p</w> 875
遊 戲</w> 874
mo un 874
包 裝</w> 873
蝦 皮 873
r al 872
電 源</w> 872
j i</w> 872
禮 服 872
登 山 872
fo il</w> 872
alo e</w> 872
p in</w> 871
y sl</w> 871
凳 子 871
ch u 871
s d</w> 870
f lip</w> 870
迷 彩 870
air s</w> 870
大理 石 869
露 肩 868
d able</w> 867
s 8</w> 867
cleans ing</w> 867
舒 適</w> 866
收納 包</w> 866
arm or</w> 866
t c 864
off icial</w> 864
com for 864
中文 版</w> 864
浪 漫 863
it s</w> 863
ver sion</w> 863
100 g</w> 863
mach ine</w> 863
found ation</w> 863
馬 桶 862
原 單</w> 862
recharg eable</w> 862
帽 子</w> 861
真 空 860
食 品 860
太陽 眼鏡</w> 860
購物 袋</w> 860
女 款</w> 859
colo red</w> 859
pur ple</w> 859
2 pcs</w> 858
stic kers</w> 857
a3 7</w> 857
f 7</w> 856
麥 克 856
喇 叭 855
l i</w> 854
保 鮮 854
實 用 853
ch amp</w> 853
eye brow</w> 853
dre am</w> 852
key board</w> 852
cti ve</w> 852
便 當 851
長 袖</w> 851
8 00 851
三葉 草 851
巴寶 莉 850
yee zy</w> 850
v ol 849
y sl 849
f lash</w> 849
茶 具 848
鬆 緊 848
媽 咪 848
me t</w> 847
to m</w> 847
f 9</w> 846
綠 色 846
6 plus</w> 845
肩 帶 845
航 海 845
u sed</w> 844
密 封 844
ss a</w> 844
9 78 843
pl ate</w> 843
b on</w> 842
全 棉 842
an e 842
co sp 842
3 m</w> 841
酒 吧 841
te ch</w> 841
too th 841
cur tain</w> 841
8 5</w> 840
床 邊 840
ni s 840
butt er 840
b m 839
魔 術 839
cro ss 839
內 褲 838
me ter</w> 838
ey el 838
a3 s</w> 838
p al 837
現貨 免運</w> 837
swe et</w> 837
arm ani 837
小 牛皮 836
a 71</w> 836
摺 疊 836
5 9 835
風 衣 835
尼 龍 833
書 房 833
gue ss</w> 833
10 1</w> 832
w on 831
童 裝 830
se i 830
卡 夾</w> 828
hu man</w> 828
反 光 827
包 屁 826
y our</w> 826
組 裝 826
lay er</w> 826
輕 量 825
七 分 825
bo t 825
ma y 824
prote ction</w> 824
膠 帶</w> 823
電腦 桌 823
斜跨 包</w> 823
s or</w> 822
夏 日 822
網 面 822
活 動 822
街 頭 821
結 婚 821
wo man</w> 821
tu mbl 821
adhe sive</w> 821
t p</w> 820
h at</w> 820
三 星 820
周 邊</w> 820
dra g 820
眼 影 819
限 量</w> 819
pa wn 819
美 白 818
de l</w> 817
t b</w> 816
s k</w> 816
羽 絨 816
太 空 815
褲 子 815
k ar 814
優 品</w> 814
桌 子</w> 814
lu tion</w> 814
男女 款</w> 814
we dge</w> 814
co ol 813
stu d</w> 813
head band</w> 813
廁 所 812
00 2</w> 812
小 學生 811
s ing</w> 811
in f 811
纖 維 810
ro ller</w> 810
手 機</w> 809
洗 臉 809
car ter</w> 809
sc rub</w> 809
高 品質 808
in fin 808
u p 807
m am 807
s d 806
加 大 806
修 護 806
se a 806
u kay</w> 805
附 購 805
普 拉 805
un g</w> 805
經典 款 805
bal m</w> 805
sh ar 804
5 5</w> 803
al ph 803
we d 803
long sleeve</w> 803
6 9 802
收納 架</w> 802
brand new</w> 802
re o</w> 801
wi fi</w> 801
手 持 800
菱 格 800
麂 皮</w> 800
彩 虹 799
網 紗 799
景 品</w> 799
pro du 799
外 出 798
三 麗 796
特 賣</w> 796
over run</w> 796
chee k</w> 796
g t 795
g er 795
良 好</w> 795
te n</w> 795
jump er</w> 795
水 鑽 794
in nis 794
包 臀 793
fi ber</w> 793
0 9 792
e as 792
睫 毛 792
短 版 792
j 5</w> 792
隔 斷 792
re e 792
do wn</w> 792
c lay</w> 791
公 文 791
di or 791
h a</w> 790
緊 身 790
文 具 789
pur po 789
寶 二手書 788
附 發票</w> 788
華 為 788
am ic</w> 788
de co 787
鏈條 包</w> 787
2 50 786
半 身 786
z u 786
女 錶</w> 786
ko be</w> 786
p ull</w> 785
li ps</w> 785
原 創 784
吸 頂 784
st on</w> 783
日本 代購</w> 783
an na</w> 782
le x 782
av on</w> 782
初學 者 782
摩托 車 782
ear ring</w> 781
6 5</w> 780
p am 780
ral ph</w> 780
紫 外線 779
n or 779
cleans er</w> 779
小 說</w> 778
1 50ml</w> 778
面 膜 778
吊 燈 778
pa ds</w> 778
s ses</w> 777
慢跑 鞋 777
d on 776
乾 燥 776
si s</w> 776
sp on 776
tt i</w> 776
籃球 鞋 776
0 0</w> 775
一 次 775
to i 775
8 gb</w> 774
書 包</w> 774
eye shadow</w> 774
d es</w> 773
p ic 773
粉 底 773
高 幫 773
三 星</w> 772
ac tion</w> 772
鋼化 玻璃 772
高 端 771
積 木 771
fe ssi 771
7 plus</w> 770
0 7</w> 770
a a 770
長 裙</w> 770
防 護 770
超 大 770
1 pc</w> 769
w ing</w> 769
鑽 石 769
bo y 769
g et</w> 768
軟 殼</w> 768
f 1s</w> 767
鞋 子 767
精 油 767
泳 衣 767
bi o 767
70 0</w> 767
a 83</w> 766
防 刮 766
di aper</w> 766
化妝 品 766
li ving</w> 765
學生 宿舍 765
pol ka</w> 765
kle in</w> 765
s so 764
lo t</w> 764
fac e 764
foo t</w> 764
短袖 上衣</w> 763
寶二手書 t 763
t d</w> 762
書 寶二手書t 762
m all</w> 762
自 慰 762
lau ren</w> 762
美 國</w> 761
幾 何 761
ff on</w> 761
座 椅 760
me sh</w> 760
60 ml</w> 760
fol dable</w> 760
a h</w> 759
h or 759
保 固 758
門 口 758
夜 光 757
v 7</w> 757
3 c</w> 757
chi ffon</w> 757
swe ater</w> 757
配 色</w> 756
de li 756
lov e 756
玫瑰 金 756
polo 衫</w> 756
搭 配 755
il y</w> 755
j 2 754
咖 啡</w> 754
it o</w> 754
for d</w> 754
todd ler</w> 754
k t 753
感 應 753
3 pcs</w> 753
原 價 753
re si 753
th ing</w> 753
ani mal</w> 753
首 飾 752
hal ter</w> 752
armo ur</w> 752
customi zed</w> 752
腕 錶 751
粗 跟 751
so s</w> 751
pho to</w> 751
1 a</w> 750
t su 750
睡 衣</w> 750
tre e</w> 750
秋冬 新款 750
r ack</w> 749
書 包 749
小 鋪</w> 748
手 作</w> 748
刷 毛 748
生日 禮物 748
0 5</w> 746
a x 746
文 藝 746
仙 女 746
正品 代購</w> 746
y5 3</w> 746
uniq lo</w> 746
sa fe 745
裝飾 品 745
essen ce</w> 745
1 30 744
麵 包 744
sp ar 744
ni c</w> 744
老爹 鞋</w> 744
shi eld</w> 743
懶人 鞋</w> 743
a ker</w> 742
c l 742
glu ta</w> 742
hal f</w> 742
卡 西 741
帶 蓋 741
colour pop</w> 741
耳 釘 740
儲物 柜 740
交 叉 739
re pl 739
連帽 外套</w> 739
過 濾 738
托特 包</w> 738
0 4</w> 737
n ur 737
吊 墜 737
spe ed</w> 737
水 壺 736
le x</w> 736
mi s 736
60 0</w> 736
全館 免運</w> 736
yam aha</w> 736
f am 735
fessi onal</w> 735
衣 架</w> 734
鑲 鑽 734
ver a</w> 734
fru it</w> 734
手 表 733
y 6</w> 733
3 xl</w> 733
sh ion</w> 733
客廳 臥室 733
鞋 柜 732
坐 墊 731
七 龍 731
榻 榻 731
烘 焙 731
mar c</w> 731
19 9 731
body con</w> 731
o t 730
記 憶 730
a e 729
h o</w> 729
潮 男 729
to mic 729
cel l 729
d on</w> 728
l ink</w> 728
z a</w> 728
雙 色 728
n ar 728
戒 指 728
de red</w> 728
sou ven 728
現貨供 應</w> 728
st ed</w> 727
小 物</w> 726
窗 簾 726
裙 子 725
品 下殺</w> 725
系 帶 725
se l</w> 725
mas sa 725
公司 貨 725
a 8</w> 724
lu s</w> 724
經典 款</w> 724
全新未 拆</w> 724
magne tic</w> 724
i an</w> 723
鉛 筆 723
li ca</w> 723
ri e</w> 723
bur ch</w> 723
下單 區</w> 723
under wear</w> 723
comple te</w> 723
e u 722
v 9</w> 722
家 庭 722
tt y</w> 722
lon e</w> 722
pack age</w> 722
tumbl er</w> 722
deco r</w> 722
7 00 721
2 i</w> 721
a o</w> 721
d ata</w> 721
g h</w> 721
no vo</w> 721
cor d</w> 721
supp ort</w> 721
瑜 伽 720
de cor 720
ex ten 720
gun dam</w> 720
三 層 719
完 美 719
ch ro 719
sh ine</w> 718
6 6</w> 717
淡 香水</w> 717
x x 717
as e</w> 717
休閑 鞋 717
休閑 鞋</w> 717
note book</w> 717
v i</w> 716
f 3</w> 716
w m 716
ke n</w> 716
no va 716
e p 715
11 pro</w> 715
4 7</w> 714
e tu 714
旗 艦 714
her o</w> 714
fil m</w> 714
j 4</w> 713
15 ml</w> 713
襪 子 712
全 身 712
馬 卡 712
原 單 712
超 值 712
健 康 712
奢 華 712
闊 腿 712
por t</w> 712
can on</w> 712
reju ven 712
innis free</w> 712
6 4</w> 711
capsu les</w> 711
pos able</w> 711
fir st</w> 711
a 6</w> 710
a k</w> 710
牛 奶 710
零 食 710
香 氛 710
po ke 710
空 間 709
隔 熱 709
ac ry 709
cu shion</w> 709
har d 709
7 g</w> 708
水 壺</w> 708
拉 拉 708
海 洋 708
el a</w> 708
ss y</w> 708
col d</w> 708
bra ke</w> 708
寶可 夢</w> 708
l ing 707
v ap 707
m 4 707
賣 場 707
pro fessional</w> 707
樂 高</w> 706
tr ans 706
ta g</w> 706
16 gb</w> 706
dis posable</w> 706
fen di</w> 706
專屬 賣場</w> 706
拉 桿 705
法 式 705
推 車</w> 705
冰 箱 705
strip ed</w> 705
ki e</w> 704
g s 703
立 式 703
桌 上 703
檸 檬 703
le ts</w> 703
s 7</w> 702
m us 702
褲 子</w> 702
pawn able</w> 702
夜 店 701
v 11</w> 701
件 組</w> 701
er y</w> 701
fl ats</w> 701
ins 風 701
8 9 700
項 鏈 700
喇 叭</w> 700
su gar</w> 700
修身 顯瘦 700
ol s</w> 699
手 動 698
r at 698
偏 光 698
no v 698
衣 物 697
衣 帽 697
數 位 697
ro se 697
min t</w> 697
304 不銹鋼 697
rel la</w> 697
acry lic</w> 697
美 人 696
飛 機 696
拍 照 696
bv l 696
aqu a</w> 696
butter fly</w> 696
j 6</w> 695
秋冬 季 695
purpo se</w> 695
變 頻 694
to mmy</w> 694
兩件 套 694
pra da 694
4 a</w> 693
o h</w> 693
8 7 693
螢 幕 693
or e</w> 693
pe sos</w> 693
5 cm</w> 692
絕 版 692
雙肩 包 692
e t 691
淡 香 691
標 準 691
聯 名</w> 691
pl at 691
s 9</w> 690
羅 馬 690
l cd</w> 689
k u</w> 689
ang le</w> 689
0 7 688
噴 霧</w> 688
最 新款 688
龍 頭 688
鴨 舌 688
mo del</w> 688
幼兒 園 688
contro l</w> 688
bvl gar 688
1 40 687
an y</w> 687
inf ant</w> 687
東 京 686
le mon</w> 686
fro zen</w> 686
cal vin</w> 686
愛馬 仕 686
rejuven ating</w> 686
h oney</w> 685
露 營 685
ur ban</w> 685
gu lar</w> 685
tran spa 685
多 肉 684
純 銀</w> 684
滿 版 684
c y</w> 684
100 0</w> 684
pu b 684
行李 箱 684
t u</w> 683
短 裙</w> 683
比 基 683
li d</w> 683
wed ding</w> 683
大 氣 682
超 人 682
安 卓 682
in ter 682
ti n</w> 682
cu tter</w> 682
收納 柜 682
a 4</w> 681
包 郵</w> 681
機 家用 681
p an</w> 681
夾 克 681
聖 羅 681
min nie</w> 681
男女 款 681
bu il 681
ord in 681
新 娘 680
en s</w> 680
de o</w> 680
a5 9</w> 680
ny lon</w> 680
who le 680
etu de</w> 680
g ear</w> 679
m al 679
par is</w> 679
ach e</w> 679
super star</w> 679
ati ve</w> 679
空 壓 678
le e</w> 678
mi d</w> 678
ter n</w> 678
全新 正品 678
6 8</w> 677
ru ff 677
b f 676
帥 氣 676
sl ing 676
transpa rent</w> 676
轉 接 675
發 貨</w> 675
手拿 包 675
cosme tics</w> 675
t an</w> 674
v 5</w> 674
史 努 674
pp y</w> 674
hy dr 674
f lu 673
絨 毛 673
se eds</w> 673
ex o</w> 673
flo w 673
war s</w> 673
手 環 672
d le</w> 672
s 6</w> 672
s er</w> 672
漁 夫 672
bi t</w> 672
水桶 包</w> 672
功 夫 671
綠 色</w> 671
re e</w> 671
fe male</w> 671
person al</w> 671
sea led</w> 671
大 童 670
h tc</w> 670
p airs</w> 670
項 鏈</w> 670
巧 克力 670
大 型 669
el la</w> 669
wil d</w> 669
l l 668
專 賣 668
ch et</w> 668
500 g</w> 668
大容 量</w> 668
vin yl</w> 668
套 組</w> 667
le novo</w> 667
ang el</w> 667
str ai 667
tomic a</w> 667
1 kg</w> 666
升 級 666
e ts</w> 665
s sed</w> 665
美 樂 665
定 制</w> 665
ac er</w> 665
se at</w> 665
un k</w> 665
stu ff 665
2 70</w> 664
點 點 664
o v 664
i one</w> 664
高 級 664
ro u 664
榻榻 米 664
ri ce</w> 663
il la</w> 663
女 裝</w> 662
x t</w> 662
微 波 662
cu s</w> 662
韓版 百搭 662
fit s</w> 662
graph ic</w> 662
航海 王</w> 662
日 常 661
勞 力 661
資 料 661
新品 上 661
len ci 660
bas e 660
car a</w> 659
long champ</w> 659
ite ms</w> 659
simp le</w> 659
發 光 658
ex tra</w> 658
第 一 657
連身 裙</w> 657
bed sheet</w> 657
cell phone</w> 657
手 包</w> 656
慢 跑</w> 656
su e 656
ki d 656
全新 品</w> 656
ath ione</w> 656
pon y</w> 656
t un 655
自 拍 655
中 性 655
sm ith</w> 655
a ero 654
lo r</w> 654
x e</w> 653
吧 臺 653
秒 殺</w> 653
le br 653
si ble</w> 653
ba bies</w> 653
ath ering</w> 653
ste reo</w> 653
auto matic</w> 653
s car 652
寶 寶</w> 652
魔 鬼 652
rain bow</w> 652
clean er</w> 652
t ar 651
喬 丹 651
棒球 帽</w> 651
高 爾 650
朋 友 650
mu sic</w> 650
s or 649
迪 奧 649
夢 幻 649
gra de</w> 649
clu tch</w> 649
三件 套 649
rac ing</w> 649
read y</w> 649
獨 家 648
球 鞋</w> 648
m r</w> 648
st it 648
角落 生 648
襪 子</w> 647
顯 示 647
mat er 647
drag on</w> 647
r and 646
不 規 646
餐 椅 646
ligh ts</w> 646
wa ve</w> 646
衣 柜 645
優 品 645
de ep</w> 645
gri p</w> 645
手 抓 644
真 皮</w> 644
交 換 644
ch amp 644
ne o</w> 644
r x</w> 643
h air 643
to ols</w> 643
sil k</w> 643
remo ver</w> 643
男 性 642
耳 釘</w> 642
立 領 641
c it 641
數 字 641
第 二 641
sc ent</w> 641
黃 色 640
li ke</w> 640
bo ss</w> 640
po t</w> 640
pa int</w> 640
18 0</w> 640
g athering</w> 639
工 裝 639
micro phone</w> 639
雙 g 638
騎 士 638
vers ace</w> 638
poke mon</w> 638
ke ts</w> 637
hea vy</w> 637
rep lica</w> 637
glut athione</w> 637
鍵 盤 636
送 禮 636
工 藝 636
草 莓 636
ba lenci 636
car dig 636
單肩 斜挎包</w> 636
名 媛 635
紙 巾 635
瀝 水 635
925 銀 635
k ing 634
le g 634
al lo 634
gra m</w> 634
32 gb</w> 634
新生 兒 634
roy al</w> 634
g l 633
star bu 633
4 in1</w> 632
背 帶 632
m 6 632
耐 克</w> 632
ke red</w> 632
qu ick</w> 632
plu sh</w> 632
一字 領 632
r ash 631
口 紅 631
兔 子 631
身 體 631
8 plus</w> 631
n al</w> 631
嘻 哈 631
in o 631
ree bo 631
1 70 630
g la 630
收 腰 630
買 一 630
s ol 629
水 晶</w> 629
m b</w> 629
男 子 629
雨 傘 629
漫 畫</w> 629
震 動 629
pre st 629
kin a</w> 629
玫瑰 金</w> 629
l li 628
遮 光 628
破 洞 628
ja co 628
大尺 碼</w> 628
中國 風 628
onesi e</w> 628
r ai 627
五 金 627
田 園 627
材 質 627
深 藍</w> 627
sc o</w> 627
mor e</w> 627
whole sale</w> 627
c p 626
星 巴 626
束 口 626
as s</w> 626
sp ring</w> 626
ho u 626
少女 心 626
b ath 625
單 鞋 625
安 德 625
積 木</w> 625
青 春 624
st an</w> 624
mo on</w> 624
i zed</w> 623
legen ds</w> 623
balenci ag 623
公 分 622
民 族 622
椅 子</w> 622
ra di 622
ko j 622
ky rie</w> 622
glit ter</w> 622
l t</w> 621
印 花</w> 621
老 人 621
液 晶 621
mo tor</w> 621
pl y</w> 621
safe ty</w> 621
掛 件 620
歡 迎 620
橡 膠 620
te red</w> 620
北歐 風 620
mu g</w> 620
下標 區</w> 620
6 3</w> 619
e x</w> 619
u v 619
ro ll</w> 619
ea t</w> 619
mas ter</w> 619
充電 器</w> 619
off shoulder</w> 619
long sleeves</w> 619
2 xl</w> 618
p 20</w> 618
fol ding</w> 618
相機 包</w> 618
lebr on</w> 618
小 時 617
收 藏 617
音 響 617
i o 617
st and 617
ro o 617
heal th</w> 617
手 鏈</w> 616
2 色</w> 616
童 鞋</w> 616
台 北 616
an ti 616
pe ach</w> 616
real me</w> 616
不規 則 616
出 版</w> 615
m oney</w> 615
折 扣 615
me ga</w> 615
sun glasses</w> 615
小 小 614
s p</w> 614
情 侶</w> 614
ch er</w> 614
80 0</w> 614
sue de</w> 614
一 番 613
y 71</w> 613
c ir 613
海 綿 613
sh ape</w> 613
5 d</w> 612
鞋 架 612
t it 611
r on 611
c am</w> 611
世 界</w> 611
牙 刷 611
閨 蜜 611
mar o 611
vers ace 611
bla de</w> 611
蔻 馳 610
u a</w> 609
金 證</w> 609
c ab 609
re ar</w> 609
bo u 609
mi ss</w> 609
imp orted</w> 609
mang o</w> 609
韓 式 608
假 兩件 608
寬 褲</w> 608
低 價</w> 608
in ner</w> 608
小白 鞋</w> 608
fam ily</w> 608
s f</w> 607
fi e</w> 607
mari kina</w> 607
包屁 衣</w> 607
h am 606
加 長 606
總 動 606
休閒 運動鞋</w> 606
be st 606
z ero</w> 605
紫 色 605
c er</w> 605
3 50 605
型 號</w> 605
洗 面 605
bar bie</w> 605
loo se</w> 605
6 2</w> 604
n b</w> 604
吸 水 604
髮 夾</w> 604
so lar</w> 604
r 1</w> 603
寶 石 603
潤 滑 603
我 的 603
ac id</w> 603
cro chet</w> 603
sling bag</w> 603
e q 602
e tti</w> 602
k ne 602
精 華</w> 602
al l 602
si z 602
th ick</w> 602
min um</w> 602
平底 鞋</w> 602
梳妝 臺 602
s 10</w> 601
保 固</w> 601
te en</w> 601
休閒 褲</w> 601
il a</w> 601
pan as 601
防水 防 601
win do 601
new born</w> 601
c lin 600
禮 品</w> 600
飛 行 600
騎 行 600
ki a</w> 600
韓國 代購</w> 600
t wi 599
可 以 599
道 具</w> 599
螺 絲 599
燒 烤 599
to p 599
color ful</w> 599
6 1</w> 598
e li 598
二 次 598
授 權</w> 598
設計 師 598
fun ction</w> 598
手 鏈 597
a 50</w> 597
郵 差 597
文 件 597
汽 車</w> 597
an de 597
wa ys</w> 597
無線 藍牙 597
chec kered</w> 597
bvlgar i</w> 597
reebo k</w> 597
0 8 596
a 9</w> 596
d w 596
f 1</w> 596
反 光</w> 596
手 套 595
e ach</w> 595
va len 595
海外 代購</w> 595
小 巧 594
掛 式 594
奶 油 594
to u 594
現貨 免運 594
jo y</w> 594
荔枝 紋 594
cross body</w> 594
0 6</w> 593
電 競 593
o g</w> 593
防 彈 593
吸 塵 593
使 用</w> 593
dre sses</w> 593
moisturi zing</w> 593
n inten 592
秋 裝 592
sh ell</w> 592
小方 包</w> 592
一 組</w> 591
真 品</w> 591
禮 服</w> 591
古 奇</w> 591
義 大利 591
al co 591
me tal 591
專櫃 正品</w> 591
行動 電源</w> 591
臺 灣 590
ag ing</w> 590
zi p</w> 590
hang ing</w> 590
alu minum</w> 590
sh ing</w> 589
to o</w> 589
ur y</w> 589
pand a</w> 589
7 2</w> 588
mo ss</w> 588
fl ash 588
dr ink</w> 588
按摩 棒</w> 588
plan ner</w> 588
s b</w> 587
5 4 587
刺 繡</w> 587
co un 587
vi o 587
du ty</w> 587
maro on</w> 587
00 3</w> 586
安全 帽</w> 586
th in</w> 585
一 組 584
3 m 584
開 衫 584
史 迪 584
推 薦 584
卸 妝 584
stor e</w> 584
b i</w> 583
v 11 583
毛 線 583
毛 巾</w> 583
st a</w> 583
gh ten 583
mas cara</w> 583
f ai 582
n b 582
道 具 582
sk i</w> 582
sili con</w> 582
lux e</w> 582
ninten do</w> 582
ap y</w> 581
sn ail</w> 581
c in 580
紋 身 580
照 片 580
7 9</w> 579
v ir 579
墨 鏡 579
el le</w> 579
玻璃 貼</w> 579
disp lay</w> 579
專 屬</w> 578
絕 版</w> 578
lov es</w> 578
dai ly</w> 578
學 生</w> 577
鋼 帶 577
盒 裝</w> 577
絲 絨 577
拼 圖</w> 577
椰 子 577
el ite</w> 577
car bon</w> 577
高爾 夫 577
2 40 576
t us</w> 576
k or 576
in i</w> 576
co al</w> 576
sno op 576
embroi dered</w> 576
rand om</w> 576
皮 鞋 575
平 口 575
fl are</w> 575
cle an</w> 575
ion al</w> 575
ak i</w> 575
e ver 574
花 花 574
原 廠</w> 574
攜 帶 574
髮 飾</w> 574
ch am 574
ma lone</w> 574
so le</w> 574
chro me</w> 574
cardig an</w> 574
starbu cks</w> 574
角 色 573
bang le</w> 573
學 步 572
v al 572
毛 呢 572
顏 色 572
sp ir 572
創意 個性 572
輕 量</w> 571
p la 571
i 7</w> 571
中 筒 571
泰 迪 571
傳 輸 571
sn ap</w> 571
a ff 570
9 8</w> 570
p o</w> 570
f 11</w> 570
思 哲 570
no w</w> 569
pa in 569
服裝 店 569
wm ns</w> 569
萬 聖 568
c ts</w> 568
愛 麗 568
情 趣</w> 568
男 錶 568
鏡 子 568
ac le</w> 568
per ia</w> 568
tur ban</w> 568
lux xe</w> 568
pas te</w> 568
may bel 568
一 件 567
衣 櫃 567
高 領 567
超 火 567
平 衡 567
co co</w> 567
hel met</w> 567
bre ath 567
zz le</w> 567
pul lo 567
nur sing</w> 567
手 提</w> 566
5 1</w> 566
防 蚊 566
消 毒 566
boo ts</w> 566
shi p</w> 566
4 9</w> 565
v ol</w> 565
派 對 565
sho p 565
wh y</w> 565
長袖 上衣</w> 565
jo h 565
ane se</w> 565
p ig 564
lux ury</w> 564
high waist</w> 564
午 睡 563
20 ml</w> 563
se a</w> 563
運動 褲</w> 563
2020 年 563
i x</w> 562
調 味 562
bo wl</w> 562
ki es</w> 562
hu ar 562
sn ap 562
風 格</w> 561
lo w 561
at es</w> 561
bas ed</w> 561
cer amic</w> 561
o c 560
5 pcs</w> 560
機 能 560
蛋 白 560
po c 560
spa gh 560
v11 i</w> 560
d ry 559
f au 559
馬 丁 559
高 腳 559
oo td</w> 559
裝飾 畫 559
gol den</w> 559
v es</w> 558
9 00 558
日 版 558
精 靈 558
sho wer</w> 558
mar k</w> 558
for m</w> 558
spo on</w> 558
u mb 557
地 墊 557
玩 偶 557
時尚 休閒 557
12 v</w> 557
日本 帶回</w> 557
抽屜 式 557
j ust</w> 556
lu min 556
po lish</w> 556
su b 556
地 毯 555
兒 童</w> 555
蘋 果</w> 555
prin ts</w> 555
cosme tic</w> 555
迪 奧</w> 554
韓 系 554
con ce 554
jap anese</w> 554
a 4 553
v ari 553
公 主</w> 553
香 薰 553
鄉 村 553
me li 553
手提 袋</w> 553
t le 552
變 形 552
9 6</w> 552
滋 潤 552
付 款</w> 552
re pub 552
10 80 552
多功 能</w> 552
brac ket</w> 552
全新未 拆 552
band ai</w> 552
j en 551
幸 福 551
or k</w> 551
fla v 551
地 墊</w> 550
se as 550
car s</w> 550
音 響</w> 549
鏡 頭 549
信 封 549
go wn</w> 549
sli pper</w> 549
dis k</w> 549
op en</w> 549
小 卡</w> 548
m aid</w> 548
stre et</w> 548
jan sport</w> 548
馬克 杯</w> 548
e m 547
口 罩</w> 547
滿 千 547
f s</w> 547
米 奇</w> 547
四件 套 547
阿迪達 斯 547
馬卡 龍 547
牛 津 546
果 凍 546
筆 電 546
高 筒 546
樂 高 546
pre ne</w> 546
pi g</w> 546
64 gb</w> 546
bt 21</w> 546
卡 片 545
n i</w> 545
飄 窗 545
spagh etti</w> 545
l ac 544
簡 單 544
k at 544
毛 孔 544
m 號</w> 544
as t 544
or o 544
fi sh</w> 544
champ ion</w> 544
koj ic</w> 544
f er</w> 543
髮 圈</w> 543
me s 543
24 h 543
ky lie</w> 543
e va</w> 542
爆 米 542
五 金</w> 542
鋼 圈 542
y e 542
實 體 542
s war 541
多 用 541
轉 賣</w> 541
不 用 541
正 貨</w> 541
li es</w> 541
現貨 實拍</w> 541
ta y 541
clas sy</w> 541
0 9</w> 540
a 1</w> 540
肩 背 540
水 杯</w> 540
p ac 540
打 火 540
亮 片 540
冷 氣 540
低 價 540
恐 龍 540
stit ch</w> 540
泡 茶 539
葡 萄 539
ho w</w> 539
全 白</w> 538
買 二 538
男 用 538
方 向 538
sh e</w> 538
so o 538
con t 538
300 ml</w> 538
購物 包</w> 538
神奇 寶貝</w> 538
s 3</w> 537
抽 繩 537
森 林 537
嚴 選</w> 537
co co 537
pre ss</w> 537
ani me</w> 537
colle cti 537
名 牌 536
粉 紅</w> 536
x peria</w> 536
ti es</w> 536
sa int</w> 536
小 夜 535
手 辦 535
女 學生 535
床 包 535
plu g</w> 535
sk y 535
sli mming</w> 535
y9 1</w> 535
free size</w> 535
neo prene</w> 535
購 入</w> 534
5 2</w> 534
開 發票</w> 534
訂 製 533
x 2</w> 533
凡 賽 533
remo te</w> 533
哈 倫 532
v ed</w> 532
3 1 532
洗 漱 532
天 使 532
隔 離 532
金 色</w> 531
文 化</w> 531
度 假 531
me d</w> 531
ma ong</w> 531
po st 531
hel lo 531
mag net</w> 531
辦公 桌 531
75 ml</w> 531
代理 版</w> 531
swar ov 531
皮 卡 530
英 雄 530
壓 克力 530
四 角 530
au to</w> 530
頭層 牛皮 530
repub lic</w> 530
毛 球 529
自 由 529
明 信 529
彩 繪 529
蝙 蝠 529
ac ne</w> 529
p es</w> 528
星 空 528
控 油 528
we st</w> 528
短 t 527
c ac 527
f a</w> 527
ti re</w> 527
玩具 總動 527
cap s</w> 527
a q 526
9 7 526
n er 526
杯 子 526
高 品質</w> 526
鎖 骨 526
re ad</w> 526
ch air</w> 526
新品 下殺</w> 526
light ning</w> 526
a ya</w> 525
有 機 525
可 坐 525
i co 525
吸 盤 525
sp ace</w> 525
jo y 525
工業 風 525
2 99 524
v ape</w> 524
遮 瑕 524
p ush</w> 524
密 碼 524
潮 牌</w> 524
精 美 524
專 區</w> 524
al er</w> 524
名 片 523
盒 子 523
餅 乾</w> 523
ar ti 523
mat e 523
cro ptop</w> 523
pat tern</w> 523
0 8</w> 522
s an</w> 522
防 紫外線 522
m r 522
潮 鞋 522
珊 瑚 522
siz es</w> 522
huar ache</w> 522
床 單 521
er e</w> 521
she ets</w> 521
eas y</w> 521
克 力</w> 520
ro moss</w> 520
su l 520
pp er 520
電視 柜 520
一次 性 520
balenciag a</w> 520
e h 519
創 意</w> 519
練 習 519
ch y</w> 519
bat man</w> 519
a 30</w> 518
g loves</w> 518
保 險 518
低 音 518
an kle</w> 518
ic an</w> 518
whe els</w> 518
v s</w> 517
面 交</w> 517
護 膚 517
盒 裝 517
風 水 517
限定 下標</w> 517
卡 通</w> 516
功 率 516
lo ck 516
bea ds</w> 516
mit su 516
v 15</w> 515
裙 子</w> 515
y 81</w> 515
3 16 515
擺 飾</w> 515
澳 洲 515
wa x</w> 515
jaco bs</w> 515
e gg</w> 514
車 內 514
吊 燈</w> 514
四 輪 514
修 復 514
聚 攏 514
te c</w> 514
so ck</w> 514
qu art 514
tu tu</w> 514
ste m</w> 514
bas e</w> 514
prote ctive</w> 514
cloth ing</w> 514
d ani 513
電 熱 513
萬 能 513
藍 光 513
螢 光 513
el lo</w> 513
pi o</w> 513
臥室 床頭 513
充電 線</w> 513
iphone 6</w> 513
秋季 新款 513
blan ket</w> 513
kne e</w> 513
vio let</w> 513
9 成新</w> 512
緬 甸 512
怪 獸 512
sh ap 512
me mor 512
ri er</w> 512
vi e 512
0 2 511
花 邊 511
零 食</w> 511
台 中 511
靠 墊 511
餅 乾 511
in ing</w> 511
vi sor</w> 511
bal l 511
umb rella</w> 511
充 電</w> 510
s 1</w> 510
j 1</w> 510
sne aker</w> 510
廠家直 銷 510
bag pack</w> 510
b ble</w> 509
居 家</w> 509
偶 像 509
fo cus</w> 509
tw ice</w> 509
cti onal</w> 509
0 1 508
m ing</w> 508
短 tee</w> 508
紙 膠帶</w> 508
風 衣</w> 508
老 年 508
char coal</w> 508
保 養 507
嬰 幼兒 507
不 含 507
j 8</w> 507
深 藍 507
潛 水 507
te e 507
tre at 507
充電 式 507
frien ds</w> 507
infin ity</w> 507
quart z</w> 507
c b 506
議 價</w> 506
dra w 506
repl ace 506
le tter</w> 505
us er</w> 505
ki ss</w> 505
pap er 505
洗髮 精</w> 505
y ear</w> 504
泳 裝</w> 504
cle ar 504
dro p</w> 504
公文 包</w> 504
maybel line</w> 504
果 汁 503
y ou 503
襯 衣 503
施 華 503
飲 料 503
徽 章</w> 503
凱 蒂 503
sp a</w> 503
souven ir</w> 503
r ain</w> 502
g ne</w> 502
5 2 502
ho l</w> 502
wi de</w> 502
metal lic</w> 502
手 電 501
卡 片</w> 501
y i</w> 501
y 9</w> 501
吸 管 501
另 有 501
si m</w> 501
cand le</w> 501
明星 同款 501
sleep wear</w> 501
防彈 少年 501
手 袋</w> 500
g d 500
古 著</w> 500
米 妮 500
玻 璃</w> 500
20 00 500
mo ther</w> 500
sk y</w> 500
bel l</w> 500
cont act</w> 500
r h 499
護 理 499
超 取 499
投 影 499
秒 殺 499
ig o</w> 499
迷你 小 499
vit a</w> 499
airpo ds</w> 499
0 10</w> 498
三 色 498
多 款 498
p k</w> 498
樂 器</w> 498
be ige</w> 498
咖啡 廳 498
英倫 風 498
6 7</w> 497
6 9</w> 497
s ci 497
門 廳 497
柜 子 497
科 技 497
wh i 497
lan e 497
moun t</w> 497
allo y</w> 497
t ami 496
g b 496
架 子</w> 496
補 充 496
顯 瘦</w> 496
be e</w> 496
cro cs</w> 496
por e</w> 496
毛 毛 495
c ru 495
近 全新</w> 495
gr and</w> 495
hoo d</w> 495
fac tory</w> 495
moi st 495
bm w</w> 495
treat ment</w> 495
7 7</w> 494
美 妝 494
o d</w> 494
海 報</w> 494
so cket</w> 494
xl 碼</w> 494
普拉 達 494
a 10</w> 493
d h 493
b ear 493
長 t</w> 493
防 撞 493
銀 色 493
雪 花 493
胸 包</w> 493
vi a</w> 493
char ge</w> 493
洗衣 機 493
onesi es</w> 493
一番 賞</w> 493
g al 492
f um</w> 492
離 子 492
min e</w> 492
windo w</w> 492
s ke 491
x i</w> 491
li pp 491
replace ment</w> 491
新 年 490
g t</w> 490
o b 490
m d 490
c ul 490
全 黑</w> 490
高 筒</w> 490
j ade</w> 490
旅 遊 490
gu n</w> 490
情趣 用品</w> 490
alo g</w> 490
amer ican</w> 490
掛 鉤 489
清 洗 489
開 口 489
圍 巾 489
泡 沫 489
滑 板鞋</w> 489
聊 聊 489
棋 盤 489
運動 休閒 489
sig nature</w> 489
ga mes</w> 489
tab let</w> 489
220 v</w> 489
978 98 489
stuff ed</w> 489
微波 爐 489
2 36 488
會 議 488
掛 畫 488
c tr 488
連 線</w> 488
ba mbo 488
100 pcs</w> 488
cro wn</w> 488
re gular</w> 487
te ens</w> 487
ve st</w> 487
mir acle</w> 487
eq t</w> 487
雜 貨</w> 486
c f</w> 486
自 粘 486
省 空間 486
sh u 486
ti ger</w> 486
ap pro 486
ear phones</w> 486
du o</w> 486
兩件 套</w> 486
pat ch</w> 486
小 店</w> 485
5 a</w> 485
貨 到 485
護 手 485
壓 花 485
室 外 485
抗 菌 485
瑞 士 485
吹 風 485
y6 9</w> 485
bambo o</w> 485
人 字 484
包 郵 484
短 裙 484
n s 484
開 叉 484
cor te 484
hd mi</w> 484
古 著 483
sand al</w> 483
smo o 483
交換 禮物</w> 483
rash guard</w> 483
g th</w> 482
皮 夾 482
鉚 釘 482
to ur</w> 482
bu tter</w> 482
mer maid</w> 482
rep air</w> 482
ip ad 482
a 3</w> 481
便 利 481
粉 餅</w> 481
透 明</w> 481
婚 紗 481
se ts</w> 481
vi s</w> 481
breath able</w> 481
原 木 480
an alog</w> 480
pe t 480
tri ple</w> 480
媽 咪</w> 479
適 合 479
泳 衣</w> 479
ri o</w> 479
te ch 479
de o 479
春夏 新款 479
高跟 鞋</w> 479
face mask</w> 479
手 繪 478
7 2 478
卡 包</w> 478
m 2</w> 478
古 典 478
露 背 478
玫 瑰</w> 478
豹 紋 478
ba king</w> 478
th o 478
par fum</w> 478
comp u 478
背景 墻 478
優 選</w> 477
綜 合 477
港 風 477
whe el</w> 477
tami ya</w> 477
配 色 476
器 材 476
制 服 476
提 袋</w> 476
使 用 476
鱷 魚 476
so lid</w> 476
全新 現貨 476
pl ant</w> 476
col lar</w> 476
blo sso 476
desig ns</w> 476
電腦 椅 476
春季 新款 476
護 髮 475
to e</w> 475
wo ven</w> 475
stu dio</w> 475
alco hol</w> 475
大 衣</w> 474
法 蘭 474
平 安 474
小香 風 474
7 8</w> 473
子 母 473
珠 寶 473
w d</w> 473
ar i</w> 473
花 盆 472
特 別 472
音 箱 472
re fil 472
co d 472
stra w 472
120 ml</w> 472
panas onic</w> 472
n c</w> 471
床 墊 471
官 網 471
av eng 471
a3 9</w> 471
bri ef</w> 471
七龍 珠</w> 471
書 柜 470
好 市 470
超 商 470
軟 底 470
髮 帶</w> 470
庭 院 470
深 層 470
被 套 470
ch lo 470
14 4</w> 470
太陽 鏡 470
fun ctional</w> 470
a5 s</w> 470
nu de</w> 470
vap or 470
電 影 469
o ver</w> 469
k ong</w> 469
j ack</w> 469
春 裝 469
垂 墜 469
ra m</w> 469
可愛 卡通 469
pas tel</w> 469
mt g</w> 469
mitsu bi 469
k ap 468
夾 克</w> 468
餐 具</w> 468
q q 468
ch i</w> 468
fe ed 468
專賣 店</w> 468
電 鍍 467
s 號</w> 467
9 1</w> 467
8 2</w> 467
m me</w> 467
f al 467
芬 迪 467
原 版 467
台 風 467
el ing</w> 467
50 pcs</w> 467
gu it 467
av ent</w> 467
her mes 467
4 pcs</w> 466
l b 466
服 飾</w> 466
加 熱 466
清 爽 466
x 1</w> 466
淺 口 466
te x</w> 466
ta k 466
懶人 沙發 466
lin er</w> 466
swe at 466
高跟 鞋 466
s ko 465
換 鞋 465
錢 夾 465
波 浪 465
隨 機 465
gar den</w> 465
sat in</w> 465
三麗 鷗</w> 465
base ball</w> 465
e mp 464
b il 464
o d 464
防 摔</w> 464
食 物 464
證 件 464
巴寶 莉</w> 464
fan tas 464
xs max</w> 464
spon ge</w> 464
aveng ers</w> 464
電 話 463
長 夾 463
c s 463
ni a</w> 463
fai ry</w> 463
工 廠 462
en g</w> 462
po ol</w> 462
ic y 462
ph p</w> 462
mo squ 462
mi t</w> 462
ff y</w> 462
gg age</w> 462
ballo ons</w> 462
長 條 461
y ar 461
f y</w> 461
an ello</w> 461
ro w</w> 461
iphone 7</w> 461
lun ch</w> 461
廠家直 銷</w> 461
t m 460
變 色 460
p au 460
衛 浴 460
快 充 460
an ne</w> 460
un o</w> 460
男女 情侶 460
we e 460
mar y</w> 460
mon ster</w> 460
基本 款</w> 460
corte z</w> 460
h s</w> 459
收 藏</w> 459
低 筒</w> 459
di c 459
el f</w> 459
長袖 t恤</w> 459
愛馬 仕</w> 459
附購 證</w> 459
吸頂 燈 459
小 花 458
乳 液</w> 458
蛋 黃 458
x 5 458
海 軍 458
錶 帶</w> 458
豪 華 458
ico nic</w> 458
2 n 457
a 20</w> 457
g in 457
水 器 457
午 休 457
清 倉 457
養 生 457
精 油</w> 457
ho t 457
收納 櫃</w> 457
三眼 計時 457
g an</w> 456
o x 456
m sm</w> 456
褲 女 456
日本 製 456
her o 456
glo ssy</w> 456
pad ded</w> 456
萬 向 455
美 麗 455
皮 質 455
漫 畫 455
ad v 455
個性 創意 455
gen t</w> 455
clu b</w> 455
fle x</w> 455
買二 送一</w> 455
feed ing</w> 455
d ers</w> 454
一 對 454
棉 t</w> 454
8 4 454
8 6 454
k pop</w> 454
f c</w> 454
相 機</w> 454
簽 名 454
廣 告 454
麂 皮 454
car tri 454
fl at 454
pu ff</w> 454
ed t</w> 454
gucci 古馳 454
phi lips</w> 454
a me 453
出 售</w> 453
排 扣 453
夏 季</w> 453
f ine</w> 453
老 虎 453
專 輯</w> 453
腳 蹬 453
ba ba</w> 453
bo s 453
do m</w> 453
廚房 置物架 453
jump short</w> 453
r are</w> 452
p ing</w> 452
磁 吸 452
f b 452
調 料 452
櫻 桃 452
sh er</w> 452
me i 452
car rier</w> 452
pro je 452
bri lli 452
64 g</w> 452
fen di 452
小 圓 451
紅 米 451
5 30</w> 451
c la 451
針織 衫 451
ori g</w> 451
印 章</w> 450
料 理 450
轉 蛋</w> 450
j u</w> 450
en d</w> 450
ni ss 450
dol ph 450
打底 衫</w> 450
3d 立體 450
d ea 449
口 罩 449
o pen 449
日 曆 449
男 包 449
win ter</w> 449
925 純銀</w> 449
2 入</w> 448
m in</w> 448
am az 448
ti er</w> 448
ben e 448
大 人 447
d ur 447
有 線 447
n ai 447
女 童</w> 447
送 禮</w> 447
潮 人 447
ro ck</w> 447
pu zzle</w> 447
spe e 447
wash i</w> 447
draw string</w> 447
施華 洛 447
小 童 446
1 l</w> 446
轉 換 446
m 1</w> 446
霧 面 446
se am 446
se ed</w> 446
se ven 446
da ys</w> 446
ad a</w> 446
pri vac 446
電動 車 446
hil fig 446
d c 445
5 3</w> 445
特 賣 445
p m</w> 445
p 30</w> 445
j et</w> 445
公 事 445
st ation</w> 445
lu ggage</w> 445
運動 套裝</w> 445
au dio</w> 445
no kia</w> 445
正版 授權</w> 445
1000 ml</w> 445
sal t</w> 445
巴黎 世 445
郵差 包</w> 445
meli ssa</w> 445
mitsubi shi</w> 445
mosqu ito</w> 445
privac y</w> 445
新 中式 444
b un 444
y u</w> 444
n ice</w> 444
文 胸 444
被 子 444
an e</w> 444
ti ff 444
yo ung</w> 444
展示 架 444
stand ard</w> 444
7 3</w> 443
v ea 443
女 用 443
3 i</w> 443
東 大 443
唇 膏 443
10 2</w> 443
sp f</w> 443
tt ing</w> 443
mis sha</w> 443
空壓 殼</w> 443
茶 杯 442
d ust</w> 442
地 板 442
x a</w> 442
男 生</w> 442
吊 飾 442
翡 翠 442
幸 運 442
ans i</w> 442
b ig 441
p p</w> 441
磁 鐵 441
週 年 441
營 養 441
er t</w> 441
sli t</w> 441
a 70</w> 440
r c</w> 440
e ffe 440
b are</w> 440
無 鋼圈 440
便 宜</w> 440
加 厚</w> 440
磁 性 440
蜜 蜂 440
in es</w> 440
on a</w> 440
da y 440
we t</w> 440
mon o</w> 440
her bal</w> 440
deli very</w> 440
7 4 439
牙 刷</w> 439
模 具</w> 439
冰 雪 439
stor y</w> 439
sno w</w> 439
prest o</w> 439
小 姐 438
人 體 438
a g</w> 438
s 5</w> 438
5 8</w> 438
銀 色</w> 438
鞋 子</w> 438
二 代 438
da u 438
ali baba</w> 438
disp en 438
代 理</w> 437
單 鞋</w> 437
分 裝 437
邊 幾 437
me ters</w> 437
ic e 437
ic y</w> 437
so ft 437
con ta 437
200 g</w> 437
bas ket</w> 437
麥克 風</w> 437
茶 葉 436
d al</w> 436
d dr 436
多 色 436
維 尼 436
k on</w> 436
亞 克力 436
10 g</w> 436
r an 435
花 園 435
9 2 435
爆 品下殺</w> 435
n max</w> 435
j a</w> 435
斜 背 435
溫 泉 435
it em</w> 435
so lution</w> 435
we ight</w> 435
boo k 435
z y 434
8 6</w> 434
in ci 434
in clu 434
am ansi</w> 434
r on</w> 433
h un 433
三 合一 433
多 卡 433
金 剛 433
3 g</w> 433
當 天 433
le g</w> 433
ch e</w> 433
glo ss</w> 433
民族 風 433
snoop y</w> 433
swarov ski</w> 433
u n</w> 432
8 9</w> 432
短 靴 432
女 生</w> 432
項 鍊 432
平 角 432
野 餐 432
li on</w> 432
pp e</w> 432
hand made</w> 432
tay lor</w> 432
straw berry</w> 432
球 衣</w> 431
防 潮 431
吉 他 431
文 具</w> 431
飛 線 431
連 線 431
po ly 431
ni es</w> 431
char ms</w> 431
sa k 431
a 10 430
e sp 430
花 卉 430
5 4</w> 430
8 7</w> 430
靜 電 430
素 t</w> 430
細 跟 430
資 生 430
墻 上 430
畢 業 430
po ster</w> 430
vi vo 430
hea t</w> 430
tra y</w> 430
smar t 430
moist ure</w> 430
s ab 429
掛 勾</w> 429
帆 布</w> 429
30 g</w> 429
韓版 時尚 429
lane ige</w> 429
貨到 付款</w> 429
guit ar</w> 429
cartri dge</w> 429
拉 鍊</w> 428
桌 遊</w> 428
誘 惑 428
睡 眠 428
存 錢 428
la b</w> 428
sp ande 428
韓版 修身 428
inst ant</w> 428
inci pio</w> 428
手 鐲</w> 427
g as</w> 427
維 尼</w> 427
女 式 427
燈 具</w> 427
罩 衫</w> 427
第 三 427
de c 427
手機 套</w> 427
gi vea 427
real me 427
d dy</w> 426
s u</w> 426
條 紋</w> 426
k h 426
工 程 426
主 機 426
pre tty</w> 426
tc g</w> 426
spande x</w> 426
水 龍頭 425
c f 425
最 後 425
數 據 425
七 彩 425
散 熱 425
牛仔 短褲</w> 425
stu ff</w> 425
聖誕 節 425
bul b</w> 425
dispen ser</w> 425
帶 回 424
燈 具 424
華 碩</w> 424
避 震 424
hol li 424
半身 裙 424
新 貨 423
兩 用</w> 423
透 視 423
寫 真 423
bo ho</w> 423
gu e</w> 423
旅行 包</w> 423
blosso m</w> 423
大 功率 422
l ers</w> 422
耳 針</w> 422
啦 a 422
演 出 422
or y</w> 422
st i 422
el y</w> 422
pe e</w> 422
av e 422
90 0</w> 422
won der</w> 422
手抓 包</w> 422
pullo ver</w> 422
電 瓶 421
點 心 421
單 車 421
保 暖</w> 421
天 天 421
勁 戰</w> 421
ne l</w> 421
pre ss 421
日本 進口 421
lit er</w> 421
op ti 421
a5 7</w> 421
acti ve</w> 421
tsu m</w> 421
niss an</w> 421
a re 420
6 s 420
9 3</w> 420
奶 瓶 420
精 選 420
賽 車 420
時尚 商務 420
hu b</w> 420
cosp lay</w> 420
包 頭 419
雜 物 419
分 體 419
j as 419
躺 椅 419
di a</w> 419
bo t</w> 419
ra y 419
tt a</w> 419
bu lar</w> 419
15 5</w> 419
len t</w> 419
cy c 419
glu e</w> 419
vac u 419
valen tin 419
t es</w> 418
z o</w> 418
5 吋</w> 418
眼 睛 418
耳 式 418
po li 418
00 4</w> 418
針織 上衣</w> 418
capsu le</w> 418
memor y</w> 418
手 包 417
電 磁 417
排 汗 417
雙 頭 417
ar my</w> 417
co ver 417
am ing</w> 417
mi di</w> 417
bu cket</w> 417
北歐 簡約 417
tu bular</w> 417
bri ght</w> 417
vo lu 417
wash ing</w> 417
ther apy</w> 417
小 米</w> 416
f l</w> 416
快 樂 416
th ree</w> 416
帆布 鞋 416
dr i</w> 416
荷葉 邊 416
spf 50</w> 416
紅 酒 415
6 3 415
b icy 415
皮 鞋</w> 415
直 送</w> 415
六 角 415
吊 墜</w> 415
米 妮</w> 415
龍 頭</w> 415
T M</w> 415
an as</w> 415
ti l 415
男女 鞋 415
wi fi 415
休閑 運動 415
餐桌 椅 415
4 1 414
三 折 414
保 證</w> 414
零 錢包 414
上 班 414
飛 利 414
吃 飯 414
先 生</w> 414
ck er</w> 414
長袖 t恤 414
200 0</w> 414
小白 鞋 414
stret ch</w> 414
小 胸 413
t l</w> 413
長 裙 413
加 濕 413
宅 配 413
ro she</w> 413
10 k</w> 413
and er</w> 413
las er</w> 413
ta b</w> 413
情侶 鞋 413
ben z</w> 413
comb o</w> 413
電 腦</w> 412
k s 412
高 雄 412
超 美 412
披 肩 412
涼 鞋女 412
過 道 412
潔 面 412
it a</w> 412
sc ale</w> 412
cra ft</w> 412
客製 化 412
vacu um</w> 412
卡 其 411
5 m</w> 411
f inger</w> 411
w rist 411
涼 感 411
亞 麻 411
寢 室 411
佈 置</w> 411
co con 411
ch a</w> 411
12 8gb</w> 411
hoo k</w> 411
連身 裙 411
hilfig er</w> 411
g d</w> 410
5 6</w> 410
防 盜 410
海 報 410
披 肩</w> 410
迷 妳 410
繡 花 410
降 價</w> 410
合 金</w> 410
re act</w> 410
al a</w> 410
現貨 實拍 410
ho li 410
pro mo</w> 410
mar mon 410
ele ctr 410
400 ml</w> 410
mac book</w> 410
dolph in</w> 410
g ab 409
b d 409
圓 領</w> 409
en er 409
韓版 潮 409
男女 同款 409
男女 同款</w> 409
兒童 玩具 409
gen er 409
ve lo 409
seam less</w> 409
1 18 408
s r 408
三 人 408
膠 原 408
背 帶</w> 408
樹 脂 408
el as 408
tab lets</w> 408
比基 尼 408
hou se 408
soo thing</w> 408
1 st</w> 407
b ears</w> 407
防 潑 407
高 溫 407
鏡 面 407
st ic</w> 407
si ze 407
201 4</w> 407
ver se</w> 407
tat tered</w> 407
g ap 406
美 背 406
維 修 406
3 色</w> 406
w an</w> 406
錄 音 406
蔬 菜 406
re li 406
收納 袋 406
box er</w> 406
a 9 405
a bo 405
u res</w> 405
塗 鴉 405
派 對</w> 405
攪 拌 405
at in</w> 405
fla ge</w> 405
kor s 405
角色 扮 405
大 象 404
獨 角 404
f ire</w> 404
餐 椅</w> 404
頭 戴 404
煞 車 404
男女 士 404
tr y</w> 404
mat ion</w> 404
men ts</w> 404
sel fie</w> 404
sta y</w> 404
不 對 403
軟 殼 403
st ation 403
ro lex</w> 403
cas h</w> 403
av es</w> 403
ation s</w> 403
二次 元 403
5 3 402
體 恤 402
陽 台 402
紫 色</w> 402
n ity</w> 402
馬 甲 402
w ri 402
阿 甘 402
蜘 蛛 402
屏 風 402
las ting</w> 402
cocon ut</w> 402
v ic</w> 401
ti s</w> 401
ps 3</w> 401
sou l</w> 401
a a</w> 400
美 妝</w> 400
轉 角 400
衣 櫥 400
c q 400
台 灣</w> 400
活 動</w> 400
壁掛 式 400
acti v 400
clear ance</w> 400
1 m</w> 399
a y 399
女 孩</w> 399
近 視 399
墊 子 399
ro t 399
char les</w> 399
連身 褲</w> 399
sy stem</w> 399
flav or</w> 399
2 a</w> 398
1 30</w> 398
p ling</w> 398
淋 浴 398
ba y 398
32 g</w> 398
阿迪達 斯</w> 398
b t</w> 397
肩 背包 397
棉 花 397
水 槽 397
雕 花 397
f y 397
店 鋪 397
九 成新</w> 397
余 文 397
si zed</w> 397
mi z 397
tas sel</w> 397
bicy cle</w> 397
9 h</w> 396
短 靴</w> 396
拼 圖 396
圓 頭 396
剪 刀</w> 396
con ne 396
ligh ter</w> 396
yo ga</w> 396
swi mming</w> 396
a3 3</w> 396
mono gram</w> 396
傳輸 線</w> 396
compu ter</w> 396
k an 395
筆 袋</w> 395
型 男 395
潘 朵 395
種 子 395
cre ative</w> 395
cam ou 395
gy m</w> 395
toi lette</w> 395
鴨舌 帽</w> 395
冰雪 奇 395
l c</w> 394
門 簾 394
兩 色</w> 394
分 離 394
速 干 394
晚 宴 394
簡約 百搭 394
gh ter</w> 394
h avai 393
s 4</w> 393
s mi 393
b sco</w> 393
零 錢 393
基 礎 393
良 品</w> 393
收納 箱 393
正品 代購 393
gi ven 393
太陽 能 393
cho co</w> 393
施華洛 世 393
尺 碼</w> 392
d f 392
g i</w> 392
植 物</w> 392
玻 尿 392
10 5</w> 392
la p</w> 392
mo u 392
簡約 時尚 392
dis c</w> 392
卡 娜 391
衣 著</w> 391
p g</w> 391
洞 洞 391
le af</w> 391
ma z 391
mo der 391
tr ac 391
bu bble</w> 391
單肩 斜挎 391
商務 休閒 391
stra w</w> 391
run ner</w> 391
落地 式 391
tren d</w> 391
鞋女 鞋 391
0 4 390
e co</w> 390
d el 390
掛 鐘 390
c p</w> 390
n am 390
x 3</w> 390
質 感</w> 390
開 車 390
內 增高 390
網 路 390
us able</w> 390
30 cm</w> 390
clo ck</w> 390
蝴蝶 結</w> 390
nov a3 390
s ki 389
掛 脖 389
氣 質</w> 389
莫 代 389
ro l 389
80 g</w> 389
stic ks</w> 389
cap tain</w> 389
不鏽 鋼</w> 389
massa ge</w> 389
9 h 388
i os</w> 388
女 夏 388
骷 髏 388
bo b</w> 388
po p 388
bu y 388
mu st 388
增 高</w> 387
外 貿 387
眼 影</w> 387
j s</w> 387
j bl</w> 387
男 裝</w> 387
達 人</w> 387
胖 mm 387
迷 你</w> 387
入 組</w> 387
輔 助 387
su e</w> 387
sa w</w> 387
tri pod</w> 387
lip tint</w> 387
op po 387
aff ord 387
conce aler</w> 387
小 桌子 386
2 50g</w> 386
s ar 386
9 4 386
韓 風 386
p un 386
黑 紅</w> 386
開 關 386
褲 裙</w> 386
旗 袍 386
連身 衣</w> 386
ja mes</w> 386
frien d</w> 386
mol y</w> 386
1080 p</w> 386
d w</w> 385
o k 385
m 2 385
y ard</w> 385
f m</w> 385
3 c 385
空 軍 385
滑 鼠 385
側 背包 385
安 撫 385
ti mate</w> 385
mo m</w> 385
tre me</w> 385
兩件 式 385
com b</w> 385
ine se</w> 385
手 鐲 384
7 6</w> 384
圖 案</w> 384
5 50 384
套 腳 384
雙 耳 384
exten sion</w> 384
掛 件</w> 383
價 格 383
跑 鞋 383
送 1</w> 383
網 布</w> 383
枕 頭</w> 383
仿 古 383
種 子</w> 383
re usable</w> 383
plu m</w> 383
卡西 歐 383
cyc ling</w> 383
electr onic</w> 383
r s 382
d an 382
保 濕</w> 382
膠 帶 382
10 8 382
for mul 382
ban ana</w> 382
dri ll</w> 382
resi st 382
leg it</w> 382
vapor max</w> 382
輕 薄 381
書 桌</w> 381
超 好 381
濾 網</w> 381
個 性</w> 381
墻 壁 381
傢 俱 381
at o 381
ol a</w> 381
pu ma 381
bas s</w> 381
head phones</w> 381
玫瑰 花 381
san disk</w> 381
lau rent</w> 381
旗艦 店</w> 381
e du 380
5 20 380
鋼 鐵 380
f old</w> 380
中 跟 380
播 放 380
sho pee</w> 380
現貨 在 380
24 h</w> 380
包包 女 380
雜貨 鋪</w> 380
b us 379
螺 絲</w> 379
飼 料</w> 379
蠶 絲 379
min er 379
head phone</w> 379
supp lies</w> 379
anc es</w> 379
歐洲 站 379
blen d</w> 379
hello kitty</w> 379
afford able</w> 379
款 式 378
u 型 378
掛 衣架 378
9 6 378
雕 刻 378
y an</w> 378
女 錶 378
松 糕 378
閃 光 378
薰 衣 378
di e 378
la n</w> 378
裝飾 品</w> 378
y9 5</w> 378
原宿 風 378
tooth paste</w> 378
bot tom</w> 378
produ cts</w> 378
角落生 物</w> 378
holli ster</w> 378
havai anas</w> 378
卡娜 赫 378
小 姐</w> 377
h g</w> 377
s ai 377
b ac 377
插 卡 377
可 議價</w> 377
極 簡 377
超 人</w> 377
蔻 馳</w> 377
少 女</w> 377
靠 枕 377
me lo 377
clo u 377
star ter</w> 377
加絨 加厚 377
eng lish</w> 377
聖羅 蘭</w> 377
魔鬼 氈</w> 377
爆米 花 377
防彈少年 團</w> 377
deo dor 377
b el</w> 376
ro pe</w> 376
ki pling</w> 376
br u 376
14 0</w> 376
gi o</w> 376
tw in 376
遮陽 帽</w> 376
寶可 夢 376
一 般 375
o k</w> 375
i ke 375
製 作 375
上 下 375
折 扣</w> 375
洗 碗 375
pi pe</w> 375
pap aya</w> 375
鑰匙 扣 375
cosp lay 375
eyel iner</w> 375
flow ers</w> 375
scar f</w> 375
camou flage</w> 375
d ang 374
5 7</w> 374
式 耳環</w> 374
水 管 374
調 理 374
am y</w> 374
bi ble</w> 374
out fit</w> 374
k g 373
遮 肚 373
c 2</w> 373
c ent</w> 373
天 鵝 373
顏 色</w> 373
閱 讀 373
早 餐 373
波 士 373
in vit 373
台灣 出貨</w> 373
den t</w> 373
cur ry</w> 373
amer ica</w> 373
j2 prime</w> 373
conta iner</w> 373
4 s</w> 372
b bit</w> 372
衣 櫃</w> 372
浮 雕 372
f ul 372
安 裝</w> 372
冠 軍 372
le tt 372
to mat 372
fr an 372
wel l</w> 372
鍵 盤</w> 371
n igh 371
中 大童 371
入 門 371
spi der 371
dau ghter</w> 371
formul a</w> 371
0 3 370
6 50 370
s ni 370
b n</w> 370
圖 騰 370
9 4</w> 370
薄 荷 370
m t</w> 370
n g</w> 370
紙 盒</w> 370
寬 鬆</w> 370
x t 370
j 3</w> 370
舒 緩 370
羊 皮</w> 370
進 門 370
迷 彩</w> 370
針 織</w> 370
懷 舊 370
st ain</w> 370
de luxe</w> 370
男女 通用 370
pack aging</w> 370
風衣 外套</w> 370
七分 袖 370
ot g</w> 370
4 50 369
拖 鞋女 369
墻 面 369
in der</w> 369
au th</w> 369
shi sei 369
vuit ton 369
comfor table</w> 369
淡香 精</w> 369
u ri 368
掛 飾</w> 368
水 器</w> 368
可 用</w> 368
襪 套</w> 368
刀 劍 368
鏡 子</w> 368
表 演 368
壁 貼</w> 368
su zu 368
收納 箱</w> 368
do ve</w> 368
長袖 襯衫</w> 368
san rio</w> 368
essenti als</w> 368
van illa</w> 368
sleep ing</w> 368
i se</w> 367
全 球 367
坐 墊</w> 367
耐 熱 367
職 業 367
帳 篷 367
安 裝 367
le a 367
ch inese</w> 367
ri pped</w> 367
ma kap 367
christ ian</w> 367
ker atin</w> 367
機器 人 367
買一 送一</w> 367
spee dy</w> 367
nova3 i</w> 367
服 裝</w> 366
p t</w> 366
百 褶 366
vi br 366
vi sion</w> 366
refil l</w> 366
g 4</w> 365
8 3 365
k k 365
厚 底</w> 365
韓 妞 365
x und 365
時 鐘 365
白 金 365
彪 馬 365
lo gy</w> 365
pri mer</w> 365
bott les</w> 365
cer ity</w> 365
清 潔</w> 364
j uni 364
底 座 364
碳 纖維 364
12 5 364
man ual</w> 364
tur tle</w> 364
下殺 價</w> 364
垃圾 桶 364
flash light</w> 364
小 眾 363
b q 363
口 味</w> 363
出 租 363
音 箱</w> 363
彩 妝 363
冷 熱 363
主 機</w> 363
ra dio</w> 363
ul tra 363
win d 363
的 店</w> 362
7 4</w> 362
三 色</w> 362
光 療 362
c ca</w> 362
含 運</w> 362
ch el</w> 362
ri s</w> 362
201 5 362
ul zz 362
car go</w> 362
cu p 362
日本 進口</w> 362
pe eling</w> 362
舒適 透氣 362
pack s</w> 362
j7 pro</w> 362
情人節 禮物</w> 362
produ ct</w> 362
xund d</w> 362
o live</w> 361
滿 版</w> 361
5 l</w> 361
武 士 361
全 皮 361
j un 361
攝 像 361
史 密 361
繽 紛 361
to my</w> 361
ab er 361
colo gne</w> 361
sty lish</w> 361
appro x</w> 361
小 包 360
眼 線 360
短 襪</w> 360
耳 夾</w> 360
早 教 360
黃 色</w> 360
蠟 燭 360
mb o</w> 360
字母 印花 360
ga me 360
kni fe</w> 360
fore ver 360
sw eat</w> 360
奶茶 店 360
全新未拆 封</w> 360
makap al</w> 360
小 鋪 359
掛 鉤</w> 359
k ir 359
防 雨 359
原 裝</w> 359
拼 裝 359
鈦 鋼 359
觸 控 359
瑜 珈 359
la ven 359
pl aid</w> 359
24 k</w> 359
懶人 鞋 359
公事 包</w> 359
t b 358
s coo 358
皮 套 358
寶 格 358
嬰 兒童 358
魚 尾 358
ch ers</w> 358
20 cm</w> 358
ra bbit</w> 358
mi d 358
ry x</w> 358
tri bal</w> 358
ine ss</w> 358
ha y</w> 358
chu ck</w> 358
眼影 盤</w> 358
4 k</w> 357
烤 漆 357
i e 357
y 17</w> 357
n ut</w> 357
星 際 357
樂 福 357
空 間</w> 357
鏡 頭</w> 357
耐 磨</w> 357
巧 克力</w> 357
悠 遊 357
00 5</w> 357
a3 1</w> 357
氣墊 鞋</w> 357
戰 士</w> 356
同 人 356
m c</w> 356
宴 會 356
故 事 356
le t 356
it or</w> 356
00 7</w> 356
00 6</w> 356
18 k 356
24 小時 356
ca re 356
hoo ded</w> 356
beau ti 356
har ry</w> 356
粉底 液</w> 356
史努 比 356
sak ura</w> 356
moder n</w> 356
曼 尼 355
動 物</w> 355
武 士</w> 355
火 鍋 355
p 9</w> 355
夾 腳 355
m ai 355
超 長 355
j p 355
開 關</w> 355
公 路 355
吃 雞 355
in di 355
le ar 355
un a</w> 355
fu n</w> 355
13 5</w> 355
flo or</w> 355
tooth brush</w> 355
萬聖 節 355
不用 等</w> 355
laven der</w> 355
5 9</w> 354
功 能 354
全 家 354
盒 子</w> 354
壓 縮 354
縮 口 354
睡 覺 354
in t 354
ma y</w> 354
201 2</w> 354
12 5ml</w> 354
fu ji 354
sa fe</w> 354
spor ty</w> 354
ve ge 354
dv d 354
2 g</w> 353
s c</w> 353
科 比 353
漢 服 353
側 背 353
co ordin 353
10 8</w> 353
blo cks</w> 353
ble ach 353
大 衣 352
茶 几</w> 352
b new</w> 352
臺 燈 352
無 印 352
烤 箱 352
i 5</w> 352
商 城</w> 352
速 乾 352
運動 休閑 352
充電 寶 352
dri ver</w> 352
fer ra 352
strai ght</w> 352
人 氣 351
i sh 351
愛 心</w> 351
頭 飾 351
詢 問</w> 351
me l 351
cas es</w> 351
12 v 351
pe an 351
40 ml</w> 351
pu re 351
ny x</w> 351
行李 箱</w> 351
阿瑪 尼</w> 351
sko ol</w> 351
2 60 350
e th 350
s ach 350
花 架 350
k es</w> 350
上 市</w> 350
頭 盔 350
模 具 350
ch ic</w> 350
se le 350
di sh</w> 350
la s</w> 350
ash a</w> 350
四季 通用 350
nor th</w> 350
小 屋</w> 349
大 小 349
g p</w> 349
s 2</w> 349
9 折</w> 349
特 殊 349
i m 349
高 中 349
j j 349
蠟 筆 349
宜 家 349
越 野 349
as ics</w> 349
at h</w> 349
新款 男士 349
14 k</w> 349
針織 衫</w> 349
comb in 349
decor ation</w> 349
seven teen</w> 349
spider man</w> 349
茶 几 348
一 起 348
服 飾 348
溫 馨 348
in k 348
di fier</w> 348
lon don</w> 348
loo k</w> 348
的 小 347
乳 膠 347
1 12 347
防 滑</w> 347
i de 347
指 環 347
全 掌 347
漆 皮 347
j ar</w> 347
腰 包 347
飯 盒 347
ki eh 347
cro m 347
2020 夏季新款 347
ag e 347
ben ch</w> 347
nu mber</w> 347
動漫 周邊 347
海賊 王 347
brilli ant</w> 347
ike a</w> 347
suzu ki</w> 347
2 米 346
h b 346
h tp</w> 346
l and 346
棉 褲</w> 346
k not</w> 346
現 代</w> 346
不 沾 346
戶 外</w> 346
搖 搖 346
li a</w> 346
un ce</w> 346
運動 休閒鞋</w> 346
da i</w> 346
兒童 房 346
pe el</w> 346
prote ct</w> 346
太陽 鏡</w> 346
der m</w> 346
內搭 褲</w> 346
衣帽 架 346
潤滑 液</w> 346
配 方</w> 345
z b 345
雜 誌 345
高 速 345
盆 栽 345
co ur 345
de sk 345
男女 生 345
11 100 345
for m 345
美國 代購 345
swi m</w> 345
y5 5</w> 345
220 v 345
十字 紋 345
airpo ds 345
莫代 爾 345
tomat o</w> 345
g m</w> 344
g ig 344
g shock</w> 344
兔 兔 344
5 米 344
可 開發票</w> 344
p ti 344
3 20 344
秋 冬</w> 344
泳 裝 344
售 出</w> 344
城 市 344
re f</w> 344
00 0</w> 344
ck le</w> 344
16 g</w> 344
情人 節</w> 344
tru e</w> 344
玩具總動 員</w> 344
crom bie</w> 344
戰 鬥 343
t ap 343
h im</w> 343
b w 343
口 水 343
z ak 343
鋼 琴 343
束 腳 343
耳 朵 343
彈 簧 343
筷 子 343
as p 343
th y</w> 343
so und</w> 343
br on 343
do t</w> 343
ing er 343
cro pped</w> 343
牛仔 長褲</w> 343
不對 稱 343
8 m 342
清 新</w> 342
自 行 342
切 割 342
復 仇 342
哺 乳 342
sli de</w> 342
臥室 客廳 342
床頭 柜 342
j7 prime</w> 342
236 ml</w> 342
e g 341
d unk</w> 341
g ical</w> 341
裝 備 341
送 女 341
德 國</w> 341
邊 柜 341
in flat 341
er as 341
pre ci 341
夏季 薄款 341
充電 器 341
gri ll</w> 341
勞力 士</w> 341
手 鍊 340
l te</w> 340
8 2 340
n ed</w> 340
se n</w> 340
vi e</w> 340
wi red</w> 340
情侶 裝 340
ed p</w> 340
cho ker</w> 340
美容 院 340
保 健 339
n ba 339
超 強 339
哆 啦a 339
宮 廷 339
休閒 百搭 339
lv 路易威登 339
限時 下殺 339
sau ce</w> 339
chlo e</w> 339
inflat able</w> 339
r 9 338
d ash 338
線 條 338
能 量 338
護 眼 338
n ame</w> 338
高 效 338
窗 戶 338
福 利 338
lu x</w> 338
現貨 秒 338
ad ven 338
over lap</w> 338
聯名 款</w> 338
aber crombie</w> 338
7 50</w> 337
茶 幾</w> 337
肩 帶</w> 337
肩 背</w> 337
i de</w> 337
貓 咪</w> 337
壓 紋 337
褲 男 337
麋 鹿 337
de cal</w> 337
電腦 桌</w> 337
防摔 殼</w> 337
y9 1 337
馬丁 靴 337
e c 336
d am 336
s j 336
花 束</w> 336
雙 人</w> 336
日 貨</w> 336
海 邊 336
床 包</w> 336
去 角 336
par t</w> 336
gar ter 336
可調 節 336
contro ller</w> 336
麥克 風 336
mus cle</w> 336
vie w</w> 336
4 x</w> 335
d b 335
請 先 335
洗 車 335
壁 畫 335
橡 皮 335
足 球 335
re ct 335
ch ang 335
di al</w> 335
do ts</w> 335
潮流 時尚 335
pau l</w> 335
e ps 334
延 長 334
減 100</w> 334
st amp</w> 334
me lon</w> 334
vi vi 334
保護 殼 334
wel ling 334
dri fit</w> 334
cel l</w> 334
機械 錶</w> 334
clean ing</w> 334
大 牌 333
s sion</w> 333
o t</w> 333
p tcg</w> 333
w ren 333
釣 具</w> 333
黃 銅 333
el li 333
ke ith</w> 333
polo 衫 333
sei ko</w> 333
功夫 茶具 333
換鞋 凳 333
wri st</w> 333
7 50 332
a 20 332
口 袋</w> 332
滿 額 332
綁 帶</w> 332
可 穿</w> 332
假 髮 332
極 度 332
分 裝</w> 332
男 士</w> 332
拼 接</w> 332
母 親 332
ad v</w> 332
16 0</w> 332
comp act</w> 332
三件 套</w> 332
ster ling</w> 332
星巴 克 332
station ery</w> 332
小 黑 331
a y</w> 331
一 個 331
掛 畫</w> 331
性 感</w> 331
家 家 331
冰 淇 331
鯊 魚 331
co p 331
sun nies</w> 331
mic s</w> 331
gg ing</w> 331
可拆 洗 331
rose gold</w> 331
玻尿 酸 331
s i</w> 330
掛 墻 330
k k</w> 330
加 肥 330
擺 設 330
in et</w> 330
ar ts</w> 330
se e</w> 330
ma ker</w> 330
時尚 百搭</w> 330
skin cerity</w> 330
sen se</w> 330
bath room</w> 330
bos ch</w> 330
a 0 329
輕 鬆 329
5 x 329
c lar 329
壁 燈 329
降 價 329
走 廊 329
纖 維</w> 329
任 天 329
先 生 329
si a</w> 329
po in 329
手機 包</w> 329
短袖 t</w> 329
gucci 古奇 329
bleach ing</w> 329
ferra gam 329
手 柄 328
t n 328
r ush</w> 328
e mer 328
o p</w> 328
高 壓 328
j 4 328
絲 光 328
減 震 328
吸 汗 328
低 筒 328
le aves</w> 328
10 6</w> 328
po tter</w> 328
cas t</w> 328
sho ppe</w> 328
de sk</w> 328
ab sor 328
12 8g</w> 328
wat ches</w> 328
30 s</w> 328
fre sh 328
短袖 上衣 328
smoo th</w> 328
volu me</w> 328
6 50</w> 327
t f 327
z el</w> 327
c tor 327
格 紋</w> 327
甜 甜 327
冰 箱</w> 327
螢 幕</w> 327
跳 蛋</w> 327
se qu 327
ri de</w> 327
tr i</w> 327
go pro</w> 327
tra vel 327
whit e 327
鏈條 包 327
sat chel</w> 327
tiff any</w> 327
波士 頓 327
紗 布 326
園 藝 326
丹 寧 326
相 框 326
魚 子 326
ul timate</w> 326
for k</w> 326
mon key</w> 326
mb er 326
hear ts</w> 326
cli ps</w> 326
補水 保濕 326
a b</w> 325
d an</w> 325
一 腳蹬 325
出 風 325
轉 賣 325
k d</w> 325
全 銅 325
米 亞 325
過 膝 325
ti que</w> 325
te le 325
手機 支架</w> 325
hu mi 325
mag ical</w> 325
精品 下殺</w> 325
yu an 325
150 g</w> 325
high lighter</w> 325
massa ger</w> 325
o mega</w> 324
k no 324
n in 324
飯 店 324
串 珠 324
替 換 324
me ssen 324
bo w 324
201 3</w> 324
台灣 公司貨</w> 324
化妝 水</w> 324
gen tle</w> 324
super man</w> 324
rh ine 324
p li 323
零 件 323
奶 嘴 323
y 15</w> 323
n ano</w> 323
二 代</w> 323
意 大利 323
趣 味 323
炫 彩 323
凝 膠</w> 323
an as 323
ti s 323
ne on</w> 323
da vi 323
eye glasses</w> 323
legen d</w> 323
ever y 323
elas tic</w> 323
a lex 322
s 10 322
v 3</w> 322
y ork</w> 322
雨 衣</w> 322
緊 緻 322
草 本 322
艾 米 322
研 磨 322
co mm 322
手機 架</w> 322
hy un 322
loo p</w> 322
micro fiber</w> 322
rain coat</w> 322
hang er</w> 322
360 度 322
小 羊皮 321
g es</w> 321
三 輪 321
除 臭 321
自 取</w> 321
超 取</w> 321
之 家</w> 321
黏 土 321
酵 素 321
co me</w> 321
er ie</w> 321
en ce</w> 321
ch al 321
pu ri 321
ssi l</w> 321
fantas y</w> 321
sach et</w> 321
s in 320
b n 320
口 紅</w> 320
笑 臉 320
m un 320
微 型 320
專 櫃</w> 320
鏡 片</w> 320
舞 蹈 320
sh in 320
head light</w> 320
限定 版</w> 320
tro l 320
supre me 320
五分 褲</w> 320
抖音 同款 320
吸塵 器</w> 320
wren ch</w> 320
s cu 319
布 丁 319
保 留 319
可 面交</w> 319
m 5 319
管 理 319
冬 天 319
w ol 319
耳 飾</w> 319
騎 士</w> 319
po int</w> 319
ap ri 319
cu ps</w> 319
fo ssil</w> 319
80 ml</w> 319
歐美 風 319
鑰匙 包</w> 319
布藝 沙發 319
豆豆 鞋</w> 319
手 帳 318
r d</w> 318
z 1</w> 318
不 挑 318
可 充電 318
只 有 318
詢 問 318
忍 者 318
牛仔 外套</w> 318
限量 版</w> 318
情趣 內衣 318
44 碼</w> 318
scen ted</w> 318
卡西 歐</w> 318
cab inet</w> 318
明信 片</w> 318
ske chers</w> 318
deodor ant</w> 318
小 豬 317
a 50 317
s ac 317
8 plus 317
書 本 317
清 淨 317
漸 層 317
字 母</w> 317
台 式 317
玉 米 317
鬼 滅 317
10 3</w> 317
fre n 317
supp le 317
精華 液</w> 317
小方 包 317
史努 比</w> 317
s r</w> 316
i que</w> 316
激 光 316
細 肩帶 316
圍 兜</w> 316
合 售</w> 316
首 選</w> 316
榨 汁 316
at ure</w> 316
ri p 316
ash ley</w> 316
wi pes</w> 316
電腦 包</w> 316
hy bri 316
star s</w> 316
blen der</w> 316
網面 透氣 316
勞力 士 316
ghten ing</w> 316
小 物 315
l 號</w> 315
直 購 315
薄 款</w> 315
夾 子 315
自 己 315
顆 粒 315
活 力 315
ba hay</w> 315
新款 時尚 315
cu be</w> 315
sig n</w> 315
女生 包包</w> 315
旅行 箱 315
usb 充電 315
aero x</w> 315
shisei do</w> 315
復仇 者 315
s f 314
加 強 314
書 架</w> 314
蛋 糕</w> 314
成 品 314
海 灘 314
最 新款</w> 314
洽 談 314
蜂 蜜 314
剪 刀 314
詹 姆 314
lo we 314
ri ch</w> 314
te x 314
韓版 寬松 314
lov ely</w> 314
tu al</w> 314
ban ner</w> 314
限時 下殺</w> 314
120 g</w> 314
cel ine</w> 314
custo m</w> 314
手 辦</w> 313
b v</w> 313
b u</w> 313
掛 飾 313
可 選 313
c 3</w> 313
n it 313
複 古 313
錶 盤 313
羽 毛 313
芝 麻 313
al mon 313
11 5</w> 313
25 6 313
ex tr 313
ins 網紅 313
chanel 香奈兒 313
三麗 鷗 313
ordin ary</w> 313
大 師 312
4 g 312
r 17</w> 312
d f</w> 312
美 女 312
收 銀 312
記 錄 312
y y 312
f ate</w> 312
折 疊</w> 312
襯 衣</w> 312
w as 312
含 稅 312
錶 帶 312
米 白</w> 312
平 價 312
拍 攝 312
皇 家 312
ch opp 312
fu r</w> 312
play er</w> 312
comb i</w> 312
附購 買 312
凡賽 斯 312
h old</w> 311
器 家用 311
膠 囊</w> 311
鋼 彈</w> 311
貓 頭 311
工 坊</w> 311
山 地 311
合 一</w> 311
ch ron 311
mp 3</w> 311
no se</w> 311
vi deo</w> 311
帆布 包</w> 311
筆記 本</w> 311
fur y</w> 311
nova 2i</w> 311
hyun dai</w> 311
b k</w> 310
9 3 310
中 古 310
樂 園</w> 310
公 斤</w> 310
th r 310
ni kon</w> 310
pan el</w> 310
he mi 310
ey es</w> 310
bea t</w> 310
hy per 310
anc ed</w> 310
sur gical</w> 310
humi difier</w> 310
messen ger</w> 310
手 表</w> 309
花 紋 309
z z</w> 309
防 油 309
n ak 309
坐 便 309
00 8</w> 309
12 3</w> 309
ho se</w> 309
mas ks</w> 309
yo ur 309
flo p</w> 309
小戶型 客廳 309
cool er</w> 309
滿 天 308
中 長 308
珍 珠</w> 308
潮 鞋</w> 308
控 制 308
婚 慶 308
co m</w> 308
sh ade</w> 308
li li 308
收納 櫃 308
bu ds</w> 308
40 g</w> 308
led 燈 308
az tec</w> 308
1 ml</w> 307
三 腳 307
o sh 307
可 刷 307
北 歐</w> 307
贈 品</w> 307
側 掀 307
封 口 307
re fle 307
or o</w> 307
per i 307
wa y 307
按摩 器</w> 307
保溫 杯</w> 307
優惠 價</w> 307
alph a</w> 307
e ver</w> 306
購 買 306
l x</w> 306
請 勿 306
純 銅 306
臉 部 306
收 腹 306
k t</w> 306
鼠 標 306
餐 桌</w> 306
中 老年 306
提 亮 306
旅 游 306
聯 盟</w> 306
做 舊 306
蕾 絲</w> 306
悟 空</w> 306
浴 巾</w> 306
re ce 306
ul tr 306
pe pp 306
pri me 306
保溫 杯 306
mater nity</w> 306
invit ation</w> 306
forever 21</w> 306
coordin ates</w> 306
hybri d</w> 306
肩 包</w> 305
真 絲 305
可 移動 305
別 墅 305
雛 菊 305
擋 風 305
do gs</w> 305
19 0 305
吊帶 褲</w> 305
pack ed</w> 305
phi lipp 305
fragr ances</w> 305
垃圾 桶</w> 305
desk top</w> 305
小 茶幾 304
萬 寶 304
零 件</w> 304
i k 304
護 頸 304
分 類 304
最 愛 304
閃 亮 304
慵 懶 304
hel d</w> 304
play station</w> 304
聖羅 蘭 304
東大 門 304
cup cake</w> 304
重 低音 303
c ali 303
女 王 303
中 文</w> 303
超 可愛 303
涼 拖鞋</w> 303
定 做 303
sam ple</w> 303
spi der</w> 303
下單 處</w> 303
蝦皮 24h</w> 303
手 推車 302
茶 壺 302
2 30 302
2 20</w> 302
u re 302
y e</w> 302
c l</w> 302
鞋 櫃</w> 302
杯 子</w> 302
紙 盒 302
w in</w> 302
最 低價</w> 302
數 碼 302
十 二 302
桌 布 302
鋯 石 302
嚴 選 302
pre ssed</w> 302
11 pro 302
len gth</w> 302
fit ness</w> 302
ther mal</w> 302
multi functional</w> 302
eyel ash</w> 302
頭戴 式 302
代 步 301
出 版 301
水 滴 301
科 技</w> 301
m n 301
老 帽</w> 301
油 畫 301
鋪 棉 301
co s</w> 301
lo l</w> 301
20 000mah</w> 301
ba k 301
bo hemi 301
ni s</w> 301
ho me 301
cor ner</w> 301
her sch 301
110 v 301
phi lip 301
豆豆 鞋 301
photo card</w> 301
pam bahay</w> 301
yuan r 301
a 2</w> 300
d x 300
輕 巧 300
收 縮 300
m old</w> 300
含 稅</w> 300
床 墊</w> 300
權 志 300
皇 冠 300
co mics</w> 300
le vi</w> 300
li ve 300
me i</w> 300
so fi 300
wat ts</w> 300
vi l</w> 300
boo ster</w> 300
der y</w> 300
耐吉 nike</w> 300
2 件 299
o ce 299
寬 版 299
到 貨</w> 299
早 春 299
福 袋</w> 299
时 尚 299
sun flower</w> 299
11 1</w> 299
vo lution</w> 299
石英 錶</w> 299
小夜 燈</w> 299
手 搖 298
g 21</w> 298
美 髮 298
l ate 298
f our</w> 298
中 號 298
co ck 298
lin e 298
聖誕 節</w> 298
p 10</w> 297
m n</w> 297
m 10</w> 297
3 件 297
擺 設</w> 297
蚊 帳 297
sp y</w> 297
ph il</w> 297
24 0</w> 297
大碼 女裝 297
bir ken 297
藍芽 耳機</w> 297
秒殺 價</w> 297
valentin o</w> 297
r ash</w> 296
s 925純銀 296
z x 296
n 1</w> 296
湯 匙</w> 296
10 000mah</w> 296
poc kets</w> 296
extr act</w> 296
茶 桌 295
4 gb</w> 295
多 種 295
z u</w> 295
動 漫</w> 295
n g 295
二 合一 295
燈 籠 295
劉 海 295
w anna</w> 295
底 座</w> 295
魚 缸 295
le n</w> 295
li fe 295
go d</w> 295
tra ining</w> 295
wor k</w> 295
ge or 295
300 g</w> 295
家居 服 295
cur ler</w> 295
貝殼 包</w> 295
純 手工 294
z a 294
日 系</w> 294
實 用</w> 294
溫 和 294
滑 鼠</w> 294
森 系 294
扶 手 294
彪 馬</w> 294
as a</w> 294
st us 294
ro bot</w> 294
28 0</w> 294
健身 器材 294
under arm</w> 294
便宜 賣</w> 294
萬向 輪 294
nai ls</w> 294
d ash</w> 293
g il 293
b s 293
單 肩</w> 293
5 in1</w> 293
c ele 293
淑 女 293
me tri 293
ing o</w> 293
fl am 293
ex treme</w> 293
tw in</w> 293
限量 版 293
pain ting</w> 293
法蘭 絨 293
juni or</w> 293
e f 292
保 冷 292
掛 繩</w> 292
m 3</w> 292
y 7 292
網 眼 292
速 發</w> 292
圍 欄 292
香 爐 292
登 機 292
ch ia</w> 292
休閒 短褲</w> 292
sun screen</w> 292
藍牙 耳機 292
fin i 292
foo t 292
好市 多 292
a10 s</w> 292
bus iness</w> 292
melo dy</w> 292
戰 靴</w> 291
d k 291
電 影</w> 291
多 美 291
多 色可選</w> 291
塑 身 291
車 貼</w> 291
i ma 291
餐 巾 291
文 字 291
男 友 291
髮 箍</w> 291
入 耳式 291
ig gle</w> 291
las t</w> 291
套裝 女 291
dy e</w> 291
cen tr 291
dic kies</w> 291
edu cat 291
hersch el</w> 291
小 說 290
手 工</w> 290
大 方 290
2 10 290
8 mm</w> 290
不 粘 290
防 走 290
歐 美</w> 290
下 擺 290
雙 子 290
免 費 290
節 能 290
古 巴 290
繪 本</w> 290
唇 釉</w> 290
主 播 290
導 航 290
st ru 290
di ff 290
to y 290
av en 290
cli ck</w> 290
ple ated</w> 290
婚禮 小物</w> 290
多卡 位 290
dang ling</w> 290
beauti ful</w> 290
手 珠</w> 289
a v</w> 289
g n 289
木 工 289
防 爆 289
正 裝 289
專 柜 289
改 裝</w> 289
繫 帶 289
20 g</w> 289
sho t</w> 289
ab i 289
bu mper</w> 289
gr an 289
wal ker</w> 289
免運 直 289
back less</w> 289
she er</w> 289
hi p</w> 289
兩用 包</w> 289
resist ant</w> 289
款 式</w> 288
a 貨 288
美 少女 288
滿 299 288
線 器</w> 288
不 掉 288
書 籍</w> 288
m h 288
y ang</w> 288
c b</w> 288
氣 球</w> 288
淨 化 288
褲 襪</w> 288
強 化 288
繁 體 288
re ver 288
gu ar 288
sk ater</w> 288
化妝 包 288
bre ak</w> 288
bra lette</w> 288
tas ia</w> 288
糖果 色 288
ulzz ang 288
魯 夫</w> 287
l or 287
i 8</w> 287
時 間 287
開 運 287
空 運</w> 287
范 思哲 287
jo ur 287
sy n 287
adul ts</w> 287
shad es</w> 287
台風 行</w> 287
sweat shirt</w> 287
6 m</w> 286
金 屬</w> 286
j r</w> 286
羊 絨 286
個 月 286
q 版 286
腳 墊 286
穿 搭</w> 286
mi a</w> 286
ki lo</w> 286
ho le</w> 286
il s</w> 286
36 5</w> 286
joh n</w> 286
牛津 布 286
護手 霜</w> 286
givea ways</w> 286
supple ment</w> 286
bohemi an</w> 286
educat ional</w> 286
a x</w> 285
r gb</w> 285
s av 285
淡 香水 285
除 濕 285
編 號 285
雨 傘</w> 285
阿 贊 285
紀 梵 285
as se 285
at o</w> 285
be at 285
mon itor</w> 285
par ts</w> 285
sleev ed</w> 285
gar lic</w> 285
remo val</w> 285
cool ing</w> 285
cir cle</w> 285
seas on</w> 285
新 鮮 284
人 物 284
h co</w> 284
原 子 284
時 鐘</w> 284
白 黑</w> 284
精 選</w> 284
華 為</w> 284
內 飾 284
伴 娘 284
樓 梯 284
紳 士 284
燙 金 284
che st</w> 284
sty lus</w> 284
san iti 284
cra y 284
洗手 間 284
滑板 車 284
rat tan</w> 284
bun ny</w> 284
手 推車</w> 283
大 學生 283
t r</w> 283
e qu 283
單 品</w> 283
膠 囊 283
文 化 283
古 風 283
藤 原 283
吸 管</w> 283
範 思哲 283
li zer</w> 283
su its</w> 283
ion s</w> 283
fy ing</w> 283
大 頭 282
7 3 282
u a 282
z c 282
護 唇膏</w> 282
優 選 282
軟 妹 282
春 夏季 282
方 便 282
復 刻 282
臥 室</w> 282
良 品 282
喬 丹</w> 282
in sul 282
le op 282
per s</w> 282
ste p</w> 282
a3 5</w> 282
cap ac 282
ton y</w> 282
win d</w> 282
拉桿 箱 282
buil ding</w> 282
fau x</w> 282
miner al</w> 282
鬼滅 之 282
戰 士 281
2 10</w> 281
掛 繩 281
買 家 281
洗 菜 281
樂 器 281
修 容 281
q s</w> 281
合 身 281
隔 板 281
低 跟 281
宇 宙 281
se al</w> 281
dre ss 281
收納 包 281
sm iggle</w> 281
安全 帽 281
資料 夾</w> 281
hero es</w> 281
蠟筆 小 281
人 偶</w> 280
8 米 280
衣 櫥</w> 280
芬 迪</w> 280
後 背包 280
吊 牌</w> 280
耐 高溫 280
棒 棒 280
緩 震 280
傳 統 280
惡 魔 280
矯 正 280
an y 280
男女 童 280
tr ack</w> 280
百搭 時尚 280
ex p 280
pri se</w> 280
bre ast</w> 280
body suit</w> 280
五分 褲 280
chic ken</w> 280
comfor t</w> 280
拉拉 熊</w> 280
bou tique</w> 280
paper back</w> 280
anas tasia</w> 280
fren ch</w> 280
leop ard</w> 280
大 號</w> 279
a w 279
6 sp 279
一 套 279
一 年</w> 279
5 t</w> 279
5 kg</w> 279
p 30 279
y 7</w> 279
女 人 279
杯 墊</w> 279
中 華 279
春 秋季 279
ic k 279
te am</w> 279
de t 279
16 8</w> 279
正品 現貨</w> 279
flo ps</w> 279
99 9 279
man ila</w> 279
ass i</w> 279
三件 組</w> 279
snap back</w> 279
4 t</w> 278
4 50</w> 278
v ice</w> 278
旅 行</w> 278
華 碩 278
唯 美 278
隔 音 278
走 秀 278
bi b</w> 278
wor k 278
2016 新款 278
fa ke</w> 278
毛絨 玩具 278
val ve</w> 278
愛麗 絲 278
pac i 278
marmon t</w> 278
h m</w> 277
廚 房</w> 277
m als</w> 277
c g 277
n ine</w> 277
j 5 277
掃 地 277
in fe 277
as si 277
ri ght</w> 277
男士 商務 277
pu t</w> 277
單肩 斜跨 277
ex clu 277
iphone x</w> 277
短袖t恤 女 277
supp ly</w> 277
棒球 帽 277
tat too</w> 277
星巴 克</w> 277
clin ique</w> 277
sub li 277
珊瑚 絨 277
小 沙發 276
g gi 276
美 肌 276
k d 276
貨 架 276
打 包 276
紋 繡 276
耳 針 276
ro s 276
mo d</w> 276
and a</w> 276
辦公 椅 276
原廠 公司貨</w> 276
85 折 276
black pink</w> 276
press ure</w> 276
eps on</w> 276
廚 師 275
棉 衣 275
5 12 275
長 洋裝</w> 275
8 4</w> 275
m ur 275
鞋 櫃 275
盒 玩</w> 275
馬 鞍 275
上 新 275
日 文 275
殺 菌 275
涼 席 275
桃 紅</w> 275
芳 香 275
歡 樂 275
lo tte</w> 275
st ea 275
bi o</w> 275
hand held</w> 275
ener gy</w> 275
手 感 274
6 2 274
同 步 274
好 貨 274
素 顏 274
雨 衣 274
連 接 274
客 廳</w> 274
網 布 274
靠 枕</w> 274
閃 電 274
授 權 274
sp ro 274
30 4</w> 274
ss d</w> 274
ins 超火 274
mix ed</w> 274
美樂 蒂</w> 274
安德 瑪</w> 274
皮卡 丘</w> 274
lowe en</w> 274
花 園</w> 273
美 體 273
布 料 273
插 電 273
水 波 273
極 致 273
超 市 273
j in</w> 273
男 式 273
耳 塞 273
絕 對 273
認 證</w> 273
li ly</w> 273
ba t</w> 273
ne u 273
現貨 出清</w> 273
mar ble</w> 273
15 00 273
sli me</w> 273
可愛 小 273
吊帶 裙</w> 273
fen g</w> 273
沙灘 鞋</w> 273
pas sport</w> 273
比基 尼</w> 273
hydr ating</w> 273
ball pen</w> 273
電磁 爐 273
獨 立 272
k l 272
k 歌 272
把 手 272
真 品 272
3 t</w> 272
3 歲 272
指 紋 272
珠 光 272
商 店</w> 272
酒 柜 272
草 編 272
胡 桃 272
in tel</w> 272
ad o</w> 272
colo ur</w> 272
fit ted</w> 272
cra f 272
小 馬 271
茶 道 271
k al 271
n es</w> 271
精 鋼 271
個 人 271
支 撐 271
露 趾 271
扣 式 271
朋 友</w> 271
琉 璃 271
凝 膠 271
an th 271
en velo 271
單肩 斜挎包 271
單肩 斜跨包</w> 271
25 g</w> 271
lin ing</w> 271
居家 裝飾 271
靠背 椅 271
凱蒂 貓</w> 271
出風 口 271
變 壓 270
o li 270
陽 光 270
食 品</w> 270
m and 270
分 格 270
x 4</w> 270
丹 尼 270
公 斤 270
任 選 270
lo g 270
on y</w> 270
ri se</w> 270
ph y 270
de ter 270
de gre 270
現貨 不用等</w> 270
perfu mes</w> 270
bir d</w> 270
anc y</w> 270
拉拉 熊 270
角落生 物 270
現貨在 台</w> 270
抹 胸 269
a way</w> 269
t f</w> 269
t am 269
r l</w> 269
g sm</w> 269
s 7 269
z ar 269
插 座 269
i ve</w> 269
你 的 269
亮 面 269
di sh 269
si an</w> 269
休閑 百搭 269
tri mmer</w> 269
圓領 短袖</w> 269
咖啡 色</w> 269
over sized</w> 269
ben to</w> 269
scre w</w> 269
coo ker</w> 269
multi color</w> 269
79 折</w> 269
shap ed</w> 269
pepp a</w> 269
yuanr oro 269
2 代 268
2 代</w> 268
1 pcs</w> 268
購 物</w> 268
維 他 268
雅 詩 268
加 拿 268
可 放 268
f b</w> 268
潮 t</w> 268
涼 拖鞋 268
活 性 268
負 離子 268
ch en 268
20 pcs</w> 268
mo sch 268
ab e 268
ki mono</w> 268
tt le</w> 268
休閒 長褲</w> 268
stic ky</w> 268
90 ml</w> 268
pen s</w> 268
tw ear</w> 268
mer ry</w> 268
out let</w> 268
cen ter</w> 268
史迪 奇 268
dec als</w> 268
2 70 267
b it 267
器 材</w> 267
車 身 267
f ar 267
工 廠</w> 267
吸 濕 267
飲 水 267
波 西 267
蠟 燭</w> 267
隨 行 267
跳 跳 267
鉛 筆</w> 267
an i</w> 267
ne y 267
家用 客廳 267
pe g 267
gi or 267
雪紡 上衣</w> 267
保溫 瓶</w> 267
moisturi zer</w> 267
goo d 267
amaz ing</w> 267
rhine stone</w> 267
osh ko 267
exclu sive</w> 267
大 馬 266
a w</w> 266
g in</w> 266
單 車</w> 266
版 本</w> 266
木 製 266
m v 266
c n 266
n on 266
訂 製</w> 266
南 瓜 266
漸 變 266
校 園 266
彩 繪</w> 266
12 m</w> 266
go t 266
wal k</w> 266
500 0 266
cam ping</w> 266
儲物 櫃 266
外套 女 266
快速 出貨 266
organ ics</w> 266
神奇 寶貝 266
kid die</w> 266
rai der</w> 266
lear ning</w> 266
a20 s</w> 266
rever sible</w> 266
大 眼 265
r x 265
r m</w> 265
e co 265
d ell</w> 265
防 燙 265
水 鉆 265
製 造</w> 265
中 年 265
刷 破 265
平 光 265
扭 蛋 265
軌 道 265
st le</w> 265
li t</w> 265
to shi 265
so fa</w> 265
slee p</w> 265
沙發 墊 265
ven e 265
300 0 265
娃娃 機 265
洗臉 盆 265
spon ge 265
史迪 奇</w> 265
7 plus 264
1 200 264
保 留</w> 264
拖 把 264
m ala 264
短 夾 264
c et</w> 264
啞 光 264
貼 膜 264
麻 花 264
re g 264
ch ing</w> 264
ro ck 264
to kong</w> 264
ti p</w> 264
ri ck</w> 264
bo lt</w> 264
ins 潮 264
鑰匙 扣</w> 264
電視 機 264
桌椅 組合 264
best seller</w> 264
tak ara</w> 264
reli ef</w> 264
kieh l</w> 264
tis sue</w> 264
雅詩 蘭 264
茶 盤 263
面 料 263
烤 肉 263
f av 263
指 定 263
超 亮 263
正 生 263
台 南 263
甜 品 263
亞 瑟 263
滋 養 263
瑪 瑙 263
教 學 263
an o 263
ti mber 263
ni pp 263
br e</w> 263
ligh ten</w> 263
sam e</w> 263
fo li 263
北歐 實木 263
cam i</w> 263
45 cm</w> 263
ben assi</w> 263
fit ch</w> 263
coo kie</w> 263
2n d</w> 263
資生 堂</w> 263
7 p</w> 262
座 椅</w> 262
面 部 262
女 寶寶 262
3 ml</w> 262
愛 情 262
方 便</w> 262
演 唱 262
as o 262
20 5</w> 262
bo l 262
de si 262
日本 原裝 262
kin s</w> 262
the ft</w> 262
xr m</w> 262
bot te 262
自慰 器</w> 262
garter ized</w> 262
冰淇 淋 262
花 瓶 261
多 色</w> 261
v il 261
特 級 261
火 影 261
不 傷 261
p 1</w> 261
y i 261
f 11pro</w> 261
n m</w> 261
3 w</w> 261
制 作 261
拍 攝</w> 261
00 9</w> 261
so phi 261
19 0</w> 261
com fy</w> 261
沙灘 鞋 261
hon or</w> 261
the me</w> 261
color ing</w> 261
洗面 乳</w> 261
joh n 261
bru sh 261
gior gio</w> 261
a 6 260
v neck</w> 260
可 躺 260
x y 260
w ang</w> 260
調 整 260
香 皂 260
團 購 260
st ones</w> 260
運動 短褲</w> 260
ff le</w> 260
情侶 裝</w> 260
sc ra 260
birken stock</w> 260
紅 外線 259
乳 液 259
卡 包 259
機 芯</w> 259
y n</w> 259
打 印 259
耐 用 259
餃 子 259
牆 面 259
搖 滾 259
圣 誕 259
唐 老 259
ch o</w> 259
po oh</w> 259
da r</w> 259
car ters</w> 259
tra iner</w> 259
tin a</w> 259
成人 兒童 259
jord an 259
hal loween</w> 259
魔術 貼 259
薰衣 草 259
adven ture</w> 259
deter gent</w> 259
6 歲 258
t g</w> 258
h an</w> 258
s ad 258
一 盒 258
水 潤 258
水 族 258
紫 砂 258
c ct 258
燈 飾</w> 258
方 型 258
耳 墜 258
搶 購</w> 258
冷 凍 258
止 滑 258
緹 花 258
20 1</w> 258
現貨 特價 258
cu tting</w> 258
go d 258
化妝 桌 258
stri p</w> 258
ge o 258
防風 外套</w> 258
九分 褲</w> 258
hor se</w> 258
闊腿 褲 258
diff user</w> 258
a 30s</w> 257
接 待 257
整 套 257
店 鋪</w> 257
低 腰 257
瘦 身 257
強 光 257
st roller</w> 257
si ded</w> 257
car tier</w> 257
韓版 學生 257
wr it 257
阿甘 鞋</w> 257
a50 s</w> 257
oce an</w> 257
cct v</w> 257
d x</w> 256
i ii</w> 256
j c</w> 256
氣 球 256
補 光 256
照 明 256
過 敏 256
籃 球</w> 256
浴 巾 256
親 膚 256
re no</w> 256
le ver</w> 256
st an 256
me al</w> 256
am er</w> 256
ash es</w> 256
du ction</w> 256
tu pper 256
nat ional</w> 256
圓領 短袖 256
限時 特價</w> 256
工作 服 256
西裝 外套</w> 256
貝殼 頭</w> 256
nar u 256
you th</w> 256
given chy</w> 256
bac ter 256
小 飛 255
2 t</w> 255
e k</w> 255
l at 255
木 頭 255
p it 255
清 倉</w> 255
w k</w> 255
微 笑 255
牙 膏 255
廠 商 255
露 營</w> 255
拍 立 255
思 哲</w> 255
捲 髮 255
蓮 花 255
in sta 255
10 mm</w> 255
do ctor</w> 255
15 pro</w> 255
prin ter</w> 255
dis infe 255
butt ons</w> 255
rac er</w> 255
保固 一年</w> 255
miz uno</w> 255
t ela</w> 254
g p 254
電 視</w> 254
u e</w> 254
o id</w> 254
印 章 254
k 10</w> 254
標 籤 254
筆 電</w> 254
古 裝 254
貼 布 254
契 爾 254
al arm</w> 254
am i</w> 254
be ach 254
ani mals</w> 254
dol ce</w> 254
lun a</w> 254
便當 盒</w> 254
星際 大 254
大 童</w> 253
茶 水 253
h ic 253
美 術 253
直 銷</w> 253
o w 253
地 毯</w> 253
k ai 253
防 寒 253
免 洗 253
3 a</w> 253
寬 口 253
實 物 253
斜 背</w> 253
w ine</w> 253
最 愛</w> 253
老 式 253
聯 盟 253
貼 膜</w> 253
減 肥 253
壁 燈</w> 253
硬 殼</w> 253
任 選</w> 253
re r</w> 253
co le</w> 253
di re 253
mo du 253
de to 253
mi u</w> 253
運動 外套</w> 253
ce ta 253
ten t</w> 253
dr in 253
機器 人</w> 253
kar ao 253
七龍 珠 253
ling erie</w> 253
滿千 減100</w> 253
實體 店 253
maz da</w> 253
must ard</w> 253
g x 252
花 灑 252
i v 252
壓 式 252
奇 奇 252
時 光 252
健 身</w> 252
黑 灰</w> 252
貼 片</w> 252
濃 縮 252
in door</w> 252
ac tual</w> 252
10 m</w> 252
ea gle</w> 252
ho b 252
blo om</w> 252
blo od</w> 252
網紅 同款 252
針織 外套</w> 252
sen sor</w> 252
美式 鄉村 252
fau cet</w> 252
nak ed</w> 252
d less</w> 251
花 茶 251
k on 251
p ick</w> 251
x x</w> 251
w ings</w> 251
支 持 251
雨 鞋 251
停 車 251
影 音 251
龍 貓 251
香 蕉 251
招 財</w> 251
拋 光 251
佩 佩 251
深 藍色</w> 251
貔 貅 251
循 環 251
10 4</w> 251
時尚 簡約 251
客廳 沙發 251
for tun 251
he el</w> 251
gen eva</w> 251
不銹 鋼</w> 251
spe ed 251
aro und</w> 251
普拉 達</w> 251
漁夫 帽</w> 251
打火 機</w> 251
cock tail</w> 251
2 l</w> 250
1 入</w> 250
可 當 250
護 照 250
送 一 250
成 新 250
刷 毛</w> 250
空 運 250
店 長 250
景 觀 250
毫 安 250
le m</w> 250
mo on 250
be y 250
be cca</w> 250
kit a</w> 250
70 s</w> 250
網紅 款 250
gar ter</w> 250
rubb er 250
熱賣 款</w> 250
全場 買二送一</w> 250
heal thy</w> 250
吸頂 燈</w> 250
eli z 250
wrist let</w> 250
tupper ware</w> 250
戰 術 249
件 套 249
便 攜</w> 249
加 大</w> 249
瓷 磚 249
可 可 249
女 子 249
超 細 249
w t</w> 249
樂 園 249
彩 虹</w> 249
視 頻 249
甜 心 249
lo s</w> 249
sp ig 249
ap e 249
sk ir 249
con tour</w> 249
pe plum</w> 249
ex cel 249
2019 年 249
fig ures</w> 249
fle xi 249
inten se</w> 249
夏裝 新款 249
緬甸 玉 249
subli mation</w> 249
karao ke</w> 249
7 吋</w> 248
t l 248
t ine</w> 248
r inger</w> 248
h it 248
b c</w> 248
全 套</w> 248
x 9</w> 248
公 升</w> 248
橄 欖 248
永 生 248
as ter</w> 248
la und 248
fi eld</w> 248
ta ke 248
her e</w> 248
bel le</w> 248
圓領 t恤</w> 248
clas si 248
ass y</w> 248
藍牙 耳機</w> 248
工藝 品 248
多用 途 248
kir k 248
去角 質 248
sponge bob</w> 248
ceta phil</w> 248
小 可愛</w> 247
e v 247
無 限 247
出 口 247
立 牌</w> 247
驅 蚊 247
水 鑽</w> 247
m f 247
n ap 247
杯 緣 247
平 滑 247
脫 毛 247
灰 白</w> 247
蓬 蓬 247
蛤 蟆 247
en ta</w> 247
sp en 247
mi u 247
il l</w> 247
mar ker</w> 247
mat ting</w> 247
休閑 褲 247
fo x</w> 247
sc rip 247
旅行 包 247
88 折</w> 247
war m</w> 247
eng ine</w> 247
won der 247
巴黎世 家</w> 247
inclu ded</w> 247
l u</w> 246
掛 鐘</w> 246
雜 誌</w> 246
歐 米 246
p y 246
m j</w> 246
m u</w> 246
鞋 架</w> 246
休 閑</w> 246
拉 格 246
起 子 246
熊 貓 246
方 頭 246
硬 殼 246
驚 喜 246
en h 246
fo g</w> 246
加厚 保暖 246
nat asha</w> 246
17 0</w> 246
ban g</w> 246
ther mo 246
chil d</w> 246
dai sy</w> 246
ghten er</w> 246
余文 樂</w> 246
可刷 卡</w> 246
t shirts</w> 245
h one 245
妝 前 245
桃 園 245
公 克</w> 245
藤 編 245
周 年 245
ack s</w> 245
go g 245
cor al</w> 245
bri ghtening</w> 245
咖啡 色 245
38 0</w> 245
note 8</w> 245
洗手 盆 245
mono pod</w> 245
保鮮 盒</w> 245
shar k</w> 245
flam ingo</w> 245
r ing 244
d 2 244
b 0 244
作 者</w> 244
美 甲</w> 244
保 守 244
5 吋 244
8 80 244
衣 著 244
y 12</w> 244
f u</w> 244
燈 飾 244
燈 泡</w> 244
w u</w> 244
輪 胎 244
圓 盤 244
角 幾 244
凳 子</w> 244
選 擇</w> 244
慕 斯 244
樣 板 244
sh er 244
ul a</w> 244
50 1</w> 244
ho mme</w> 244
25 cm</w> 244
牛仔 短褲 244
置物 櫃</w> 244
wa s</w> 244
bel la</w> 244
ruff led</w> 244
sci ss 244
almon d</w> 244
laund ry</w> 244
小 號</w> 243
1 tb</w> 243
4 k 243
e z 243
配 飾 243
加 大碼 243
防 曬</w> 243
吉 他</w> 243
全 效 243
月 亮 243
超 仙 243
雷 射 243
容 量 243
玉 石 243
修 身</w> 243
墻 貼 243
魅 力 243
lo e 243
me l</w> 243
vi t</w> 243
bal let</w> 243
遮陽 帽 243
展示 架</w> 243
na c</w> 243
客製 化</w> 243
tai wan</w> 243
mix er</w> 243
dani el</w> 243
peg asus</w> 243
botte ga</w> 243
r am 242
h p 242
h c</w> 242
h en 242
g as 242
b k 242
面 包 242
3 ds</w> 242
訂 單</w> 242
管 理</w> 242
型 號 242
絨 布 242
中 型 242
黑 頭 242
柔 軟</w> 242
蒸 汽 242
串 珠</w> 242
腮 紅</w> 242
la k 242
家用 小型 242
韓版 簡約 242
fe min 242
北歐 風格 242
筆記本 電腦 242
hor n</w> 242
偶像 學 242
spig en</w> 242
2 80 241
r 11 241
s 5 241
v 5s</w> 241
5 d 241
櫃 子 241
水 泥 241
y 85</w> 241
x box</w> 241
w ar</w> 241
開 門 241
客 服</w> 241
側 翻 241
西 班 241
踏 板 241
信 用 241
su c 241
gra ph</w> 241
dis ney 241
fla w 241
熱銷 款</w> 241
單人 雙人 241
三眼 怪</w> 241
plat form</w> 241
空軍 一 241
手 幅</w> 240
g el 240
u ses</w> 240
花 草 240
直 接 240
k elly</w> 240
寶 馬 240
不 可 240
雙 向 240
可 樂 240
放 大 240
精 致 240
魔 力 240
改 良 240
和 風 240
效 期 240
桌 家用 240
側 邊 240
尿 布 240
倉 庫</w> 240
00 mah</w> 240
夏季 新款</w> 240
sa f 240
cos rx</w> 240
明星 同款</w> 240
五分 袖 240
馬克 杯 240
rou gh</w> 240
史密 斯</w> 240
大 碼</w> 239
4 色</w> 239
t 1 239
d m 239
g r</w> 239
b one</w> 239
克 羅 239
5 v</w> 239
帶 燈 239
防 臭 239
科 學 239
粉 紅色</w> 239
百 變 239
擴 香 239
斜 背包 239
連 帽</w> 239
隱 藏 239
lo ft 239
bo und</w> 239
sp icy</w> 239
qu il 239
15 g</w> 239
t恤 女 239
lit ers</w> 239
pil low 239
chil i</w> 239
sur prise</w> 239
light weight</w> 239
小腳 褲 239
a字 裙 239
poin ted</w> 239
本 舖</w> 238
c j 238
紙 袋</w> 238
頭 飾</w> 238
圍 裙</w> 238
山 茶 238
滾 筒 238
腮 紅 238
sh ka</w> 238
wo ol</w> 238
gi f 238
par k</w> 238
廚房 用品 238
特價 中</w> 238
tin y</w> 238
wor d</w> 238
lin en</w> 238
swit ch 238
長版 上衣</w> 238
海外 代購 238
可拆 卸 238
喇叭 袖 238
打火 機 238
saniti zer</w> 238
e mbo 237
生 日</w> 237
5 c</w> 237
掛 架 237
抽 象 237
盤 子 237
i 6</w> 237
3 20</w> 237
英 雄</w> 237
高 精 237
華 麗 237
黑 紅 237
頸 椎 237
香 檳 237
博 柏 237
髮 束</w> 237
鋁 合金</w> 237
寵 物</w> 237
跳 舞 237
坡 跟 237
ul t</w> 237
so l</w> 237
運動 長褲</w> 237
男女 學生 237
mar io</w> 237
ang er</w> 237
16 8 237
fla p</w> 237
ka i</w> 237
chi ps</w> 237
sy ru 237
適用 于 237
spo t</w> 237
heal ing</w> 237
spar kle</w> 237
pla ins</w> 237
lock ed</w> 237
潘朵 拉</w> 237
lili w</w> 237
flexi ble</w> 237
a de 236
電 風扇 236
接 頭</w> 236
門 簾</w> 236
p d 236
f c 236
繪 畫 236
耳 夾 236
肥 皂 236
60 1</w> 236
bat ch</w> 236
美國 正品</w> 236
限時 促銷</w> 236
bre ast 236
lou is 236
石英 錶 236
cat s</w> 236
y5 1</w> 236
600 ml</w> 236
ribb ed</w> 236
chee se</w> 236
photo cards</w> 236
armani 阿瑪尼 236
sofi a</w> 236
手 腕 235
h w</w> 235
皮 膚 235
z i</w> 235
機 車</w> 235
發 貨 235
奶 瓶</w> 235
客 人 235
靠 墊</w> 235
mo to 235
mo ther 235
bu ckle</w> 235
cre w</w> 235
19 9</w> 235
sto ck 235
鑰匙 圈 235
連帽 衛衣</w> 235
coo king</w> 235
blan c</w> 235
plat in 235
all er 235
名片 夾</w> 235
獨角 獸 235
femin ine</w> 235
2 30</w> 234
6 18 234
卡 套</w> 234
純 金 234
金 剛</w> 234
保 羅 234
帶 鎖 234
心 機 234
m x 234
試 用 234
年 保固</w> 234
絲 巾</w> 234
精 梳 234
達 菲 234
檯 燈</w> 234
化妝 臺 234
99 9</w> 234
man o</w> 234
resi n</w> 234
紙巾 盒 234
combin ation</w> 234
ctor s</w> 234
紅 包 233
v 2 233
v 15pro</w> 233
兔 子</w> 233
z ir 233
櫥 柜 233
加 寬 233
體 重 233
p g 233
i d 233
f k</w> 233
只 要 233
華 萊 233
訓 練</w> 233
焦 糖 233
鐘 表 233
奈 米 233
徽 章 233
鳳 梨 233
as ure</w> 233
al ice</w> 233
10 7</w> 233
th is</w> 233
休閒 褲 233
韓版 新款 233
be an</w> 233
be ver 233
25 ml</w> 233
秋冬 款 233
購物 袋 233
mor ning</w> 233
下標 處</w> 233
空氣 清淨 233
fer r 233
ruff le</w> 233
collecti ons</w> 233
出版 社</w> 233
kirk land</w> 233
大 框 232
7 a</w> 232
a ke</w> 232
v ar 232
約 會 232
櫥 窗 232
轉 運 232
面 料</w> 232
k yo 232
記 事 232
絲 襪</w> 232
時 裝 232
w an 232
春 夏</w> 232
燃 氣 232
留 言 232
髮 飾 232
售 完 232
现 货 232
so me</w> 232
12 8 232
ele ph 232
pu ppy</w> 232
太陽 眼鏡 232
strai ghtener</w> 232
施華洛世 奇 232
母親 節 232
絲光 棉 232
7 20</w> 231
加 粗 231
水 鬼 231
p 20 231
m j 231
m 20</w> 231
f igh 231
上 新</w> 231
產 品 231
切 菜 231
絲 襪 231
成 長 231
孩 子 231
吧 台 231
法 拉 231
帽 t 231
航 空 231
輻 射 231
un i</w> 231
ash i</w> 231
vi sible</w> 231
ci vic</w> 231
24 pcs</w> 231
gi ant</w> 231
歐美 時尚 231
squ ish 231
設計 感 231
85 ml</w> 231
清潔 劑</w> 231
麵包 超人 231
skir ts</w> 231
t z</w> 230
警 示 230
9 90 230
i x 230
c ed</w> 230
肌 膚 230
實 戰 230
四 色 230
阿 曼尼 230
椰 子</w> 230
冰 鞋 230
壁 紙 230
琺 瑯 230
re volution</w> 230
el l 230
so da</w> 230
do or 230
tre tta</w> 230
cur ity</w> 230
dv r</w> 230
ky o</w> 230
om ing</w> 230
toi let</w> 230
coun t</w> 230
方向 盤 230
cac tus</w> 230
a 8 229
e k 229
美 顏 229
國 際</w> 229
金 標</w> 229
o s 229
特 典</w> 229
n au 229
圍 裙 229
ri t</w> 229
gh z</w> 229
bu t</w> 229
11 2</w> 229
pi lot</w> 229
沙發 椅 229
汽車 用 229
限定 賣場</w> 229
loo t</w> 229
整理 箱 229
洗衣 機</w> 229
束口 袋</w> 229
j4 plus</w> 229
syru p</w> 229
platin um</w> 229
新 百 228
6 1 228
l s 228
l p</w> 228
5 50</w> 228
寄 出</w> 228
雙 c 228
f x</w> 228
雪 花</w> 228
古 銅 228
挎 包</w> 228
老 師 228
專 利 228
胸 包 228
床 罩 228
搖 擺 228
逼 真 228
mo to</w> 228
mat ch</w> 228
純棉 圓領 228
swe e 228
out let 228
is bn</w> 228
400 g</w> 228
小熊 維尼</w> 228
kt v 228
卡娜赫 拉 228
悠遊 卡</w> 228
oshko sh</w> 228
小 洋裝</w> 227
6 mm</w> 227
e e</w> 227
v 8</w> 227
件 套</w> 227
發 熱 227
初 中 227
文 青 227
中 腰 227
後 視 227
熊 熊 227
菲 利 227
企 業 227
lo af 227
pan ini</w> 227
免運 費 227
ber shka</w> 227
medi a</w> 227
cal amansi</w> 227
四件 組</w> 227
hard cover</w> 227
新品上 市</w> 227
twi st</w> 227
asse mbl 227
小 汽車</w> 226
7 ml</w> 226
0 11</w> 226
4 xl</w> 226
e i 226
d un 226
s 6 226
b c 226
三 代 226
設 備 226
納 米 226
防 漏 226
p i</w> 226
頭 皮 226
壓 力 226
成 人</w> 226
黑 膠 226
內 置 226
其 他 226
麻 將 226
前 後 226
野 營 226
ro l</w> 226
po st</w> 226
la bel</w> 226
ig n 226
mp 3 226
pa w</w> 226
pi x 226
tw ork</w> 226
防曬 衣 226
natur als</w> 226
全場 免運</w> 226
九分 褲 226
鴨舌 帽 226
小夜 燈 226
philip p</w> 226
stus sy</w> 226
小 熊</w> 225
t bag</w> 225
r r 225
卡 地 225
v an</w> 225
皮 面 225
車 門 225
毛 帽</w> 225
3 入</w> 225
3 s</w> 225
日 期 225
男 童</w> 225
海 綿</w> 225
幼 稚 225
老 鼠 225
暗 黑 225
甜 蜜 225
典 藏 225
仙 人 225
療 癒 225
螺 紋 225
睡 裙 225
倉 鼠 225
竹 節 225
賓 士</w> 225
麋 鹿</w> 225
di ffe 225
to tal</w> 225
ti me 225
新款 女士 225
du st 225
ve hic 225
coo kies</w> 225
under wire</w> 225
emb lem</w> 225
百貨 店</w> 225
ble ach</w> 225
基本 款 225
eras er</w> 225
人 偶 224
g x</w> 224
布 料</w> 224
機 油 224
磁 鐵</w> 224
m ani 224
3 80 224
貓 窩 224
珍 藏 224
富 士 224
駕 車 224
亮 白 224
主 題 224
各 種 224
獅 子 224
le vis</w> 224
lo g</w> 224
ir s</w> 224
ke e 224
ear th</w> 224
fi re 224
hu go</w> 224
特價 免運</w> 224
ps 4 224
dol ls</w> 224
zz a</w> 224
ku ma</w> 224
chanel 香奈兒</w> 224
the tic</w> 224
沐浴 乳</w> 224
lam in 224
保證 正品</w> 224
手 指 223
手 袋 223
0 50 223
v r 223
單 件 223
布 置 223
睫 毛</w> 223
短 筒 223
全 實木 223
靴 子 223
精 靈</w> 223
牙 膏</w> 223
佛 牌 223
蜜 桃 223
碗 碟 223
熒 光 223
綠 茶 223
鸚 鵡 223
第 五 223
瘋 狂 223
晾 衣架 223
永 久 223
ba o</w> 223
ba o 223
lu lu 223
th ri 223
po ur</w> 223
su s</w> 223
nat ive</w> 223
ins ert</w> 223
pen shoppe</w> 223
戶外 運動 223
dol l 223
高腰 顯瘦 223
移動 電源 223
om ni</w> 223
frien d 223
國際 牌</w> 223
送女 友 223
metri c</w> 223
大 logo</w> 222
杏 仁 222
a j</w> 222
4 d</w> 222
6 p</w> 222
e ven 222
電 風扇</w> 222
b es</w> 222
v 4</w> 222
水 餃 222
吉 祥 222
護 腰 222
激 情 222
中 夾</w> 222
星 星</w> 222
素 面</w> 222
軟 膠 222
香 氛</w> 222
泡 澡 222
霸 氣 222
橘 色</w> 222
鐳 射 222
30 1</w> 222
百搭 款</w> 222
18 m</w> 222
二手 精品</w> 222
stu dent</w> 222
lv 女包</w> 222
500 0</w> 222
卡通 可愛 222
手工 編織 222
wai sted</w> 222
af 1</w> 222
acti cal</w> 222
腳踏 車 222
tou gh</w> 222
ferragam o</w> 222
trol ley</w> 222
波西 米亞 222
toshi ba</w> 222
bacter ial</w> 222
flaw less</w> 222
克 斯 221
z one</w> 221
水 凝 221
f ic 221
f ic</w> 221
休 闲 221
拼 布 221
專 賣</w> 221
軟 糖</w> 221
榮 耀 221
床 1</w> 221
登 月 221
橡 木 221
緞 面 221
or a 221
te ddy</w> 221
de fen 221
ki ds 221
運動 套裝 221
tw s</w> 221
dr e</w> 221
高爾夫 球 221
皮卡 丘 221
adv anced</w> 221
clou d</w> 221
chopp er</w> 221
fini sh</w> 221
r i</w> 220
h f</w> 220
g lam 220
花 束 220
8 p</w> 220
加 固 220
防 震 220
i p</w> 220
愛 的 220
透 膚 220
天 空 220
開 衩 220
聯 繫 220
窗 簾</w> 220
軟 皮 220
四 代 220
典 雅 220
推 拉 220
週 年</w> 220
螺 旋 220
王 子 220
宅 配</w> 220
彌 月 220
賦 活 220
ro ad</w> 220
10 9</w> 220
wit ho 220
pre love</w> 220
男女 通用</w> 220
con sole</w> 220
情侶 對 220
ath er 220
bur y</w> 220
ali st</w> 220
ja g</w> 220
play boy</w> 220
y6 7</w> 220
遙控 器 220
adap tor</w> 220
dor ae 220
指甲 油 220
指甲 油</w> 220
iti ve</w> 220
ham mer</w> 220
vege table</w> 220
pean ut</w> 220
r9 s</w> 220
y91 c</w> 220
envelo pe</w> 220
sophi e</w> 220
assembl y</w> 220
d ear</w> 219
夜 視 219
u k</w> 219
環 球 219
女 夏季 219
全 能 219
j y</w> 219
w i</w> 219
織 帶 219
髮 夾 219
匡 威 219
fi ve</w> 219
con centr 219
sle y</w> 219
prin ting</w> 219
新品 免運</w> 219
廚房 收納</w> 219
儲物 架 219
限定 款</w> 219
情趣 精品</w> 219
行車 記錄 219
scen ts</w> 219
embroi dery</w> 219
吹風 機</w> 219
bene fit</w> 219
abe th</w> 219
witho ut</w> 219
小 丸 218
牛 仔</w> 218
獨 特 218
物 語</w> 218
號 店</w> 218
防 身 218
下 午 218
i st</w> 218
快 充</w> 218
低 幫</w> 218
牆 上 218
豆 腐 218
th ai</w> 218
sho pping</w> 218
日本 正版</w> 218
11 7</w> 218
裝飾 畫</w> 218
gr inder</w> 218
雙肩 背包</w> 218
女性 淡香水</w> 218
轉接 頭</w> 218
角色扮 演</w> 218
詹姆 斯 218
eliz abeth</w> 218
小 紅 217
小 桌子</w> 217
r n</w> 217
v r</w> 217
無 毒 217
簡 體 217
長 柄 217
五 月 217
糖 果</w> 217
奶 粉 217
i i 217
n t</w> 217
3 99 217
憑 證</w> 217
燈 芯 217
附 贈 217
話 筒 217
耳 飾 217
團 購</w> 217
re a 217
ba pti 217
bo bb 217
bi c</w> 217
pan ties</w> 217
美國 隊 217
shi mano</w> 217
eye glass</w> 217
aqu ari 217
gol f</w> 217
cac ao</w> 217
口水 巾</w> 217
got 7</w> 217
eleph ant</w> 217
新 手 216
t m</w> 216
s lot</w> 216
輕 便</w> 216
滿 鑽 216
體 驗 216
女 韓版 216
粉 嫩 216
高 質感 216
相 框</w> 216
禪 意 216
引 擎 216
溫 度 216
箱 子 216
帳 篷</w> 216
深 藍色 216
卷 發 216
sh elf</w> 216
學生 用 216
11 3</w> 216
ack er</w> 216
ju ju 216
blo uses</w> 216
spor t 216
com pre 216
fit flop</w> 216
游泳 衣 216
cham pi 216
電 玩</w> 215
書 法 215
試 衣 215
貓 抓 215
古 董 215
樂 樂 215
滑 板</w> 215
an ni 215
re ser 215
ic o</w> 215
te st</w> 215
de ck</w> 215
vi os</w> 215
fi ed</w> 215
辦公 桌</w> 215
wai i</w> 215
原廠 公司貨 215
tro p 215
der ma</w> 215
優惠 中</w> 215
amp li 215
水桶 包 215
souven irs</w> 215
無線藍牙 耳機 215
隨機 出貨</w> 215
小 香</w> 214
1 g</w> 214
圖 書 214
陶 瓷</w> 214
f on 214
f all</w> 214
羊 羔 214
w ave 214
潔 膚 214
劇 場 214
爬 行 214
am o 214
ma kita</w> 214
家用 多功能 214
兒童 玩具</w> 214
be e 214
air max</w> 214
tin ted</w> 214
mil k 214
300 0</w> 214
行動 電源 214
lumin ous</w> 214
存錢 筒</w> 214
電瓶 車 214
conne ctor</w> 214
b r</w> 213
便 條 213
排 氣 213
武 器 213
夾 縫 213
零 碼 213
奶 嘴</w> 213
i do 213
f w</w> 213
打 氣 213
x a1</w> 213
j on 213
明 星</w> 213
斜 挎</w> 213
涼 拖 213
相 片 213
淨 白 213
牆 壁 213
菲 拉格 213
泰 國</w> 213
港 味 213
me chan 213
to wer</w> 213
ab s</w> 213
現貨 特價</w> 213
mm a</w> 213
gr am 213
lv 包包</w> 213
gen ic</w> 213
bro ther</w> 213
fro sted</w> 213
hy dro 213
stre aming</w> 213
拉鏈 錢包</w> 213
aj 1</w> 213
mater ial</w> 213
數據 線 213
冰雪奇 緣 213
smi le</w> 213
cour t</w> 213
小 麥 212
保 存 212
5 mm 212
排 汗</w> 212
水 彩 212
假 髮</w> 212
3 30</w> 212
雪 莉 212
買 2 212
公 司</w> 212
漫 威 212
陳 列 212
比 賽 212
se con 212
di um</w> 212
201 0</w> 212
do me</w> 212
男女 孩 212
fi le</w> 212
gre at</w> 212
ten s</w> 212
man y</w> 212
cy lin 212
寬松 顯瘦 212
bar ley</w> 212
multi function</w> 212
預購 款</w> 212
sno w 212
歐洲 代購</w> 212
美人 魚 212
king dom</w> 212
proje ct</w> 212
geor ge</w> 212
加拿 大 212
小 吃 211
小 怪獸 211
6 in1</w> 211
t g 211
生 物 211
購 入 211
一 對</w> 211
一 個</w> 211
直 郵</w> 211
分 期</w> 211
x 5</w> 211
制 冷 211
噴 頭 211
奇 蹟 211
拉 桿</w> 211
冷 氣</w> 211
掀 蓋 211
野 外 211
鬧 鐘 211
po lar 211
la i</w> 211
ur ing</w> 211
cas e 211
su it 211
so ap 211
ad ri 211
手機 支架 211
mar ine</w> 211
40 mm</w> 211
cor re 211
ste ph 211
自動 機械 211
sto ve</w> 211
super dry</w> 211
氣墊 粉餅</w> 211
男鞋 女鞋</w> 211
女性 淡香精</w> 211
tru ck</w> 211
泳衣 女 211
美人 魚</w> 211
naru to</w> 211
小 鹿 210
小 魚 210
小 舖 210
小 清新</w> 210
2 way</w> 210
t p 210
h at 210
d den</w> 210
一 件</w> 210
保 護</w> 210
滅 蚊 210
p ine 210
i or</w> 210
膚 色 210
3 50ml</w> 210
丁 字 210
腕 表</w> 210
項 圈</w> 210
桌 遊 210
前 短 210
抗 皺 210
暢 銷 210
in c</w> 210
re max</w> 210
co il</w> 210
se curity</w> 210
un locked</w> 210
bo ar 210
bl ing</w> 210
do zen</w> 210
短袖 襯衫</w> 210
11 8</w> 210
ligh ting</w> 210
韓國 連線</w> 210
臥室 燈 210
保護 膜</w> 210
gre en 210
沙發 床 210
lv 路易威登</w> 210
war ri 210
glo be</w> 210
全場 秒殺</w> 210
安德 瑪 210
deto x</w> 210
t 1</w> 209
s b 209
單 層 209
水 瓶</w> 209
背 蓋</w> 209
葉 子 209
i sl 209
c 1</w> 209
c ad 209
f m 209
粉 刺 209
x z 209
吊 牌 209
贈 送 209
雨 鞋</w> 209
老 花</w> 209
黑 武士</w> 209
雞 肉 209
恐 龍</w> 209
妹 妹 209
綠 蘿 209
热 销</w> 209
am ber</w> 209
ti sso 209
la zy</w> 209
運動 褲 209
shor t 209
pri de</w> 209
寬鬆 顯瘦 209
正版 dvd</w> 209
304 不鏽鋼 209
butt on 209
cri b</w> 209
現貨供 應 209
a字 裙</w> 209
美樂 蒂 209
哈倫 褲 209
明信 片 209
fuji film</w> 209
滿天 星 209
紅 白 208
e vo</w> 208
s w</w> 208
萬 代</w> 208
除 毛 208
水 性 208
光 碟</w> 208
假 面 208
m x</w> 208
y y</w> 208
f w 208
女 士</w> 208
托 盤 208
非 常 208
就 是 208
棕 色</w> 208
re stock</w> 208
cas io 208
ke e</w> 208
休閒 套裝</w> 208
全新 真品</w> 208
日本 帶回 208
sun block</w> 208
pu mp 208
gr 5</w> 208
temp o</w> 208
咖啡 杯 208
蘋果 x 208
diy 手工 208
mini m 208
增高 鞋</w> 208
優質 賣場</w> 208
ferr ari</w> 208
人 造 207
乳 霜</w> 207
r b 207
r us 207
口 味 207
美 津 207
單 人</w> 207
9 折 207
8 1 207
音 樂</w> 207
對 折 207
奶 茶</w> 207
3 55 207
馬 達</w> 207
正 貨 207
天 使</w> 207
燕 麥 207
油 煙 207
過 敏</w> 207
彈 性</w> 207
潔 顏 207
辣 椒 207
葫 蘆 207
匡 威</w> 207
an t 207
to m 207
ti cal</w> 207
時尚 個性 207
12 8</w> 207
11 4</w> 207
60 cm</w> 207
經典 商務 207
bri ck</w> 207
dra wer</w> 207
zenf one 207
glit ters</w> 207
飛利 浦 207
juju be</w> 207
電 器</w> 206
s lo 206
l 型 206
v ga</w> 206
金 銀 206
5 20</w> 206
k ak 206
n u</w> 206
j v</w> 206
切 片 206
斑 馬 206
兄 弟 206
駕 駛 206
蕾 哈 206
野 生 206
橘 色 206
in d</w> 206
al d</w> 206
20 21</w> 206
10 入</w> 206
gu ide</w> 206
cre amy</w> 206
fi x</w> 206
fu sion</w> 206
連帽 衛衣 206
dai so</w> 206
香港 代購 206
band s</w> 206
床上 用品 206
腳踏 墊</w> 206
小腳 褲</w> 206
alph ab 206
護膚 品 206
smart phone</w> 206
自行 車</w> 206
syn thetic</w> 206
disinfe ct 206
scrip tion</w> 206
h r 205
g inger 205
l b</w> 205
一 代 205
5 80 205
掛 衣 205
功 能</w> 205
地 中 205
p ea 205
絲 巾 205
氣 動 205
時 髦 205
桃 花 205
櫻 花</w> 205
圈 圈 205
母 乳 205
周 歲 205
罩 衫 205
西 瓜 205
穿 搭 205
被 套</w> 205
隨 手 205
ma m</w> 205
ph e</w> 205
mo vie</w> 205
so lu 205
au x</w> 205
pa zz 205
pe ts</w> 205
mon t 205
玻璃 杯</w> 205
秋冬 新款</w> 205
war ran 205
elect ro 205
玄關 柜 205
ken zo</w> 205
凡賽 斯</w> 205
effe ct</w> 205
維他 命 205
timber land</w> 205
warran ty</w> 205
大 師</w> 204
2 lite</w> 204
h ai 204
e tc</w> 204
三 菱</w> 204
變 速 204
面 盆 204
理 發 204
歐 文 204
m 40 204
n d 204
南 極 204
透 光 204
天 絲 204
法 國</w> 204
貼 身 204
網 紅</w> 204
入 戶 204
蔬 果 204
庫 存 204
si cal</w> 204
to ms</w> 204
sp l</w> 204
te k 204
15 cm</w> 204
squ a 204
熱銷 款 204
110 v</w> 204
cat cher</w> 204
聯名 款 204
bul let</w> 204
ms i</w> 204
preci ous</w> 204
stea m</w> 204
小 童</w> 203
大 地 203
r 15</w> 203
g li 203
加 購 203
木 紋 203
書 櫃 203
f 21</w> 203
粉 紅色 203
絨 面 203
x 6</w> 203
提 花 203
j d 203
時 代 203
聲 波 203
教 師 203
an k 203
re st</w> 203
en a</w> 203
日本 迪士尼 203
ju mbo</w> 203
je ju</w> 203
gi oh</w> 203
化妝 鏡 203
儲物 柜</w> 203
vo ice</w> 203
san ta</w> 203
yu gioh</w> 203
cli pper</w> 203
pic ture</w> 203
螢幕 保護貼</w> 203
radi ation</w> 203
紅米 note 203
飛利 浦</w> 203
sni per</w> 203
256 gb</w> 203
your self</w> 203
capac ity</w> 203
dish washing</w> 203
1 x</w> 202
g 530</w> 202
l c 202
o wl</w> 202
5 w</w> 202
長 筒 202
童 話 202
外 線</w> 202
可 水洗 202
y x</w> 202
n lighten</w> 202
3 l</w> 202
全 店 202
原 創</w> 202
w cf</w> 202
胸 前 202
繪 本 202
破 壞 202
雞 蛋 202
冷 藏 202
刻 字 202
刺 激 202
in visible</w> 202
201 1</w> 202
40 1</w> 202
24 m</w> 202
ali an</w> 202
usb 3</w> 202
拉鍊 長夾</w> 202
180 ml</w> 202
ame l</w> 202
奇奇 蒂 202
d g 201
g ur 201
嬰 幼 201
眼 霜</w> 201
免 打 201
y un 201
f el 201
藝 術</w> 201
街 拍 201
軟 包 201
拍 賣</w> 201
伴 手 201
波 點 201
竹 炭 201
陀 螺</w> 201
al tis</w> 201
ch un 201
ch ed</w> 201
短袖 polo衫</w> 201
boo st 201
200 8</w> 201
13 5g</w> 201
back case</w> 201
120 0</w> 201
anc ing</w> 201
鋼化 膜</w> 201
手電 筒</w> 201
棋盤 格 201
tm x</w> 201
膠原 蛋白 201
防潑 水 201
hone y 201
小 美 200
2 m</w> 200
r ace</w> 200
b ts 200
萬 年 200
v n 200
o ven</w> 200
棉 質</w> 200
長 襪</w> 200
k w 200
發 票 200
全 網 200
素 色</w> 200
j k 200
男 鞋女鞋 200
細 肩 200
佛 牌</w> 200
耐 用</w> 200
降 噪 200
堅 果 200
王 國</w> 200
販 售</w> 200
le go 200
ni sh</w> 200
時尚 休閑 200
ver s</w> 200
per a</w> 200
jo gging</w> 200
針織 毛衣</w> 200
gucci 古馳</w> 200
post ale</w> 200
game pad</w> 200
cop y</w> 200
squish y</w> 200
dorae mon</w> 200
小 型</w> 199
小 朋友 199
e ce</w> 199
花 瓣 199
一 套</w> 199
磁 力 199
i ri 199
f arm</w> 199
貓 眼 199
晶 鑽 199
彩 色</w> 199
場 景 199
桌 椅</w> 199
早 期 199
抗 uv 199
煙 灰 199
監 控 199
觀 音 199
傢 俱</w> 199
渡 假 199
茉 莉 199
90 g</w> 199
新品 熱賣</w> 199
嬰兒 床 199
ag nes</w> 199
ban a</w> 199
ca fe</w> 199
mil ky</w> 199
媽媽 包</w> 199
ya o</w> 199
comfor ter</w> 199
學步 鞋</w> 199
補充 包</w> 199
gener ation</w> 199
desi re</w> 199
r t</w> 198
d 2</w> 198
d d</w> 198
d ino 198
獨 家</w> 198
維 修</w> 198
童 鞋 198
鋼 彈 198
發 財 198
可 伸縮 198
3 30 198
證 明</w> 198
雪 地 198
馬 車 198
j in 198
精 準 198
飛 線</w> 198
麻 辣 198
方 塊 198
戀 愛 198
碳 纖維</w> 198
拳 擊 198
am our</w> 198
th y 198
mo ti 198
收納 筐 198
fu ture</w> 198
bb q</w> 198
90 cm</w> 198
2019 夏季新款 198
eye wear</w> 198
一件 免運</w> 198
巴黎世 家 198
lea gue</w> 198
g u</w> 197
b in</w> 197
c lamp</w> 197
f s 197
打 磨 197
籠 子 197
j ol 197
黑 金 197
平 板</w> 197
網 面</w> 197
達 人 197
即 期 197
深 v 197
社 團 197
企 鵝 197
ar gan</w> 197
li an</w> 197
mi lit 197
au tu 197
家用 臥室 197
男女 寶寶 197
100 元</w> 197
bro w 197
lay ered</w> 197
comp ati 197
便當 盒 197
當天 出貨</w> 197
mosch ino</w> 197
vene ta</w> 197
take 1</w> 197
小 雛菊 196
電 壓 196
b li 196
直 播</w> 196
金 證 196
靜 音</w> 196
不 易 196
把 手</w> 196
鋼 絲 196
磁 扣 196
n en 196
3 mm</w> 196
餐 盤</w> 196
二 件 196
英 語 196
英 國</w> 196
後 背 196
日 發 196
白 鐵 196
支 援 196
天 然</w> 196
質 量 196
開 光 196
路 亞 196
去 污 196
盆 栽</w> 196
剎 車 196
縫 隙 196
豐 田</w> 196
狂 歡 196
棕 色 196
am as</w> 196
th ings</w> 196
創意 家居 196
長袖 襯衫 196
17 5</w> 196
bea ded</w> 196
限量 款</w> 196
dar t</w> 196
床頭 櫃 196
ly n</w> 196
經濟 型</w> 196
inten sive</w> 196
zo o</w> 196
roy ale</w> 196
寫字 桌 196
clin ic</w> 196
bear ing</w> 196
防潑 水</w> 196
asp ire</w> 196
地中 海 196
大 燈 195
2 ml</w> 195
6 a</w> 195
g els</w> 195
g inger</w> 195
生 肖 195
卡 其</w> 195
板 凳 195
不 倒 195
套 餐</w> 195
水 洗</w> 195
n p</w> 195
粉 餅 195
日 記 195
語 音 195
實 驗 195
黑 曜 195
虎 頭 195
晚 安 195
按 摩</w> 195
鋰 電池 195
售 價 195
緞 帶 195
鬧 鐘</w> 195
吐 司 195
an n 195
an gular</w> 195
lo lit 195
ro be</w> 195
ro man 195
ol y 195
tt ed</w> 195
min er</w> 195
ad di 195
no uri 195
fe et</w> 195
mb ers</w> 195
chan nel</w> 195
son ic</w> 195
88 8</w> 195
公主 風 195
pat ches</w> 195
促銷 價</w> 195
飛機 杯</w> 195
顯示 器 195
凱蒂 貓 195
餐桌椅 組合 195
nipp le</w> 195
pillow case</w> 195
ampli fier</w> 195
7 10 194
6 寸 194
r c 194
s and</w> 194
v ans 194
水 龍頭</w> 194
薄 外套</w> 194
裝 備</w> 194
y es</w> 194
倫 敦 194
買 1 194
私 密 194
圓 形</w> 194
酒 精 194
片 裝</w> 194
溜 溜 194
已 售出</w> 194
in sp 194
se wing</w> 194
di vi 194
me d 194
to kyo</w> 194
ur s</w> 194
男士 腕錶</w> 194
ta was</w> 194
ang e 194
網紅 ins 194
son s</w> 194
swi ft</w> 194
旅行 組</w> 194
bri cks</w> 194
bre aker</w> 194
平底 鞋 194
vitam ins</w> 194
cond ition</w> 194
imp act</w> 194
spar k</w> 194
漁夫 帽 194
open er</w> 194
原子 筆</w> 194
insul ated</w> 194
exp lo 194
平滑 扣 194
aquari um</w> 194
茶 具</w> 193
b 5 193
v s 193
v at 193
印 度 193
8 pcs</w> 193
8 cm</w> 193
護 欄 193
月 光 193
腋 下 193
袋 子 193
平 跟 193
減 壓 193
擺 攤 193
鋁 箔 193
定 時 193
稀 有 193
蘑 菇 193
逛 街 193
sh aper</w> 193
to pper</w> 193
de st 193
日本 代購 193
pl ace</w> 193
ju mp</w> 193
cor dless</w> 193
ex foli 193
gr ass</w> 193
ve a</w> 193
按摩 棒 193
pon y 193
材料 包</w> 193
repl ac 193
aero postale</w> 193
吸塵 器 193
精靈 寶可夢</w> 193
超取 請 193
alphab et</w> 193
大 利</w> 192
e on</w> 192
e ste 192
臺 燈</w> 192
8 x 192
f at</w> 192
n n</w> 192
家 族</w> 192
完 整 192
酒 紅</w> 192
供 應 192
芭 比 192
ri der</w> 192
dre am 192
運動 拖鞋</w> 192
兒童 寶寶 192
sun ny</w> 192
60 g</w> 192
sc rat 192
tri angle</w> 192
精品 代購</w> 192
中筒 襪</w> 192
床包 組</w> 192
蛋黃 哥 192
jour nal</w> 192
cylin der</w> 192
小 牛皮</w> 191
手 把</w> 191
r g</w> 191
r 9</w> 191
h e</w> 191
u le</w> 191
花 漾 191
無 敵 191
一 包 191
k w</w> 191
五 角 191
書 店</w> 191
p ins</w> 191
兩 折 191
護 目 191
n p 191
餐 飲 191
高 彈 191
家 電</w> 191
潤 膚 191
香 草 191
踏 板</w> 191
浴 缸 191
韩 版 191
it ed</w> 191
12 2</w> 191
韓國 代購 191
ten nis</w> 191
tri al</w> 191
dy n 191
連衣裙 女 191
貝殼 頭 191
gol d 191
十字 繡 191
simp ly</w> 191
羽絨 外套</w> 191
dry er</w> 191
變壓 器</w> 191
戰 靴 190
a ur 190
6 80 190
e u</w> 190
通 勤 190
l d 190
掛 架</w> 190
k el 190
球 鞋 190
外 接 190
c iti 190
製 作</w> 190
高 低 190
北 海 190
中 心</w> 190
桃 紅 190
預 訂</w> 190
降 溫 190
未 來 190
故 事</w> 190
沒 有 190
忍 者</w> 190
簍 空 190
10 1 190
ck ed</w> 190
北歐 輕奢 190
套裝 家用 190
200 5</w> 190
特價 出清</w> 190
圓領 純棉 190
現代簡約 客廳 190
小型 犬 190
按摩 器 190
tur bo</w> 190
happ y 190
男童 女童 190
aro mat 190
青少年 學生 190
hun ter</w> 190
activ ity</w> 190
幼稚 園 190
compati ble</w> 190
小 叮 189
h m 189
e di 189
g round</w> 189
l p 189
一 片 189
棉 服 189
保 養</w> 189
童 書</w> 189
毛 邊 189
i so 189
全 民 189
搭 扣 189
肌 肉 189
系 統</w> 189
台 製 189
老 板 189
刀 架 189
麗 嬰 189
米 色 189
蕾 蕾 189
溫 柔 189
識 別 189
妖 怪 189
穿 鞋 189
社 會 189
橘 子 189
緞 帶</w> 189
di va</w> 189
si e</w> 189
bo at</w> 189
ra z 189
ear ings</w> 189
cre me</w> 189
ex er 189
充電 線 189
hear t 189
lan come</w> 189
沐浴 露 189
四件 套</w> 189
hil ls</w> 189
shar p</w> 189
bf 風 189
男性 淡香水</w> 189
od les</w> 189
insta x</w> 189
vehic le</w> 189
milit ary</w> 189
7 s</w> 188
茶 臺 188
尺 碼 188
g k</w> 188
多 美</w> 188
z x</w> 188
包 女 188
寶 石</w> 188
防 踢 188
下 水 188
m ama</w> 188
藍 白 188
松 緊 188
j m</w> 188
漱 口 188
修 補 188
佛 教 188
蜜 粉</w> 188
俏 皮 188
暖 手 188
段 變頻 188
爸 爸 188
an k</w> 188
re la 188
ac o</w> 188
cu cu 188
pe o 188
av a</w> 188
pu s</w> 188
fe ather</w> 188
ani um</w> 188
玻璃 杯 188
2020 新款</w> 188
限時 優惠</w> 188
dra wing</w> 188
ze bra</w> 188
box es</w> 188
spar k 188
tou ch 188
2020年 新款 188
gal lon</w> 188
宅配 免運</w> 188
滑鼠 墊</w> 188
任天 堂</w> 188
every day</w> 188
champi on 188
抹 茶 187
b f</w> 187
直 徑 187
版 型 187
n 4 187
巴 斯 187
軟 毛 187
平 面 187
胖 子 187
史 萊 187
魚 竿 187
舞 臺 187
邊 框 187
穿 衣 187
搞 怪 187
芭 蕾 187
sh el 187
ro m</w> 187
bo ss 187
12 7</w> 187
no tes</w> 187
全新 公司貨</w> 187
11 6</w> 187
temp er 187
ak o</w> 187
家居 服</w> 187
sn ack</w> 187
kn 95</w> 187
三角 褲</w> 187
遊戲 王</w> 187
plus size</w> 187
todd lers</w> 187
枕頭 包</w> 187
bron ze</w> 187
防走 光 187
新 店 186
7 50ml</w> 186
g at 186
理 髮 186
3 70 186
餐 邊柜 186
風 琴 186
超 低價</w> 186
紗 裙</w> 186
白 底 186
麥 當 186
黑 灰 186
和 服 186
東 方 186
鋰 電 186
墻 紙 186
參 考</w> 186
定 型 186
益 生 186
st am 186
20 2</w> 186
ph p 186
ni vea</w> 186
wi g</w> 186
ta ins</w> 186
hi mala 186
bang les</w> 186
play ed</w> 186
fle ece</w> 186
multi purpose</w> 186
ddr 3</w> 186
jas mine</w> 186
角色扮 演 186
分離 式 186
rece i 186
西班 牙 186
diffe rent</w> 186
前短 後 186
autu mn</w> 186
exer ci 186
7 20 185
1 pair</w> 185
d ate</w> 185
g 點 185
g w 185
g au 185
s 9 185
購 買</w> 185
無 穀 185
出 國 185
立 體</w> 185
5 30 185
k ra 185
k at</w> 185
火 爆 185
鋼 筆 185
p tor</w> 185
鞋 墊</w> 185
個 月</w> 185
數 位</w> 185
調 節 185
圍 兜 185
陳 冠 185
軍 綠</w> 185
寫 真</w> 185
添 加 185
le vel</w> 185
th or</w> 185
ki ll</w> 185
家用 室內 185
兒童 安全 185
pi e</w> 185
北歐 創意 185
len a</w> 185
tri u 185
ka y 185
zi p 185
防塵 罩 185
腳踏 車</w> 185
buil t</w> 185
升級 版</w> 185
收腰 顯瘦 185
小 獅 184
手 臂 184
4 ml</w> 184
h l</w> 184
s ity</w> 184
v c</w> 184
斗 柜 184
防 刮</w> 184
夏 新款 184
歐 舒 184
銀 飾 184
杯 架 184
星 光 184
x 10 184
日 貨 184
鑲 鉆 184
w w 184
消 防 184
內 膽 184
內 刷毛 184
客 製</w> 184
圓 圈 184
公 升 184
當 日 184
模 特 184
廣 角 184
壁 畫</w> 184
職 員 184
定 位 184
莎 拉 184
in ver 184
re x</w> 184
si n</w> 184
po ds</w> 184
ke ds</w> 184
12 3 184
mp h</w> 184
car d 184
wat ch 184
百搭 休閒 184
gr ain</w> 184
置物 盒</w> 184
sto cks</w> 184
hoo dies</w> 184
38 mm</w> 184
ml b</w> 184
台灣製 造 184
om bre</w> 184
單肩包 斜挎包 184
57 4</w> 184
泡泡 袖 184
帽子 女 184
餐具 組</w> 184
24h 出貨</w> 184
tee th</w> 184
ros ary</w> 184
2 gb</w> 183
e fs</w> 183
g 5</w> 183
l le</w> 183
o val</w> 183
插 頭</w> 183
轉 椅 183
特 大 183
特 色 183
韓 系</w> 183
防 霧 183
水 箱 183
p les</w> 183
c ci 183
c av 183
f light</w> 183
財 神 183
植 村 183
星 座 183
流 行</w> 183
晴 雨 183
蘆 薈 183
滾 輪 183
各 式 183
el sa</w> 183
mi st 183
qu a 183
圓領 短t</w> 183
簡易 家用 183
medi c 183
cho ice</w> 183
專櫃 正品 183
工作 室</w> 183
sha ke</w> 183
平板 電腦 183
多肉 植物</w> 183
萬聖 節</w> 183
玩具總動 員 183
手電 筒 183
直購 價</w> 183
cucu mber</w> 183
小 包包 182
e os</w> 182
電 器 182
l g 182
克 斯</w> 182
特 大號 182
水 冷 182
i z</w> 182
c el</w> 182
c all</w> 182
孔 雀 182
系 統 182
后 現代 182
鍊 條 182
湖 水 182
鍍 金 182
觸 摸 182
霹 靂 182
en o</w> 182
li ft</w> 182
ti ca</w> 182
ri es</w> 182
th rough</w> 182
現貨 現貨 182
per form 182
200 9</w> 182
gen cy</w> 182
hand y</w> 182
歐美 代購</w> 182
ag ed</w> 182
商務 休閑 182
ka waii</w> 182
mer ic</w> 182
cal cul 182
sw ing</w> 182
ite ch</w> 182
男孩 女孩 182
寫字 臺 182
who le</w> 182
智慧 型 182
記憶 卡</w> 182
trans fer</w> 182
dani el 182
寶格 麗</w> 182
mid night</w> 182
gig ab 182
實體店 面</w> 182
免打 孔</w> 182
2 12</w> 181
2 pc</w> 181
t 0 181
r in 181
r it 181
v 1</w> 181
點 煙 181
計 算 181
餐 盤 181
英 寸 181
原 味 181
x 10</w> 181
雷 霆 181
四 葉 181
乾 燥</w> 181
圓 點 181
懶 懶 181
洛 克 181
磨 毛 181
拆 售</w> 181
范 思哲</w> 181
梅 花 181
偵 探 181
ti ons</w> 181
ne ver</w> 181
te al</w> 181
de er</w> 181
mar ket</w> 181
韓國 製</w> 181
prin ce</w> 181
24 7</w> 181
長袖 上衣 181
純棉 短t</w> 181
圓領 套頭 181
fro g 181
旅行 袋</w> 181
ca len 181
mil d</w> 181
pat rol</w> 181
free bies</w> 181
my phone</w> 181
paj amas</w> 181
可調 式 181
藍芽 喇叭</w> 181
97898 6 181
電腦椅 家用 181
刀劍 神 181
thr ones</w> 181
6sp lus</w> 181
華萊 士 181
trop ical</w> 181
日發 完</w> 181
小 鳥 180
人 生 180
a e</w> 180
花 盆</w> 180
無 人 180
5 1 180
p ass 180
3 10</w> 180
馬 達 180
英 文</w> 180
氣 泡 180
w u 180
羅 斯 180
黑 金</w> 180
巴 西 180
效 果 180
史 黛 180
鐵 板 180
活 膚 180
鎖 扣 180
re no 180
ar ch</w> 180
as cor 180
br assi 180
pro 2019</w> 180
pi ston</w> 180
經典 logo 180
16 5</w> 180
go gg 180
ani e</w> 180
mag az 180
17 pro</w> 180
500 mg</w> 180
娃娃 機</w> 180
que en 180
57 4 180
首飾 盒 180
梳妝臺 臥室 180
spro cket</w> 180
zar a 180
高精 度 180
bever ly</w> 180
compre ssion</w> 180
mechan ical</w> 180
daniel welling 180
e b</w> 179
e z</w> 179
牛 角 179
機 商用 179
車 用</w> 179
防 風</w> 179
f j 179
f low</w> 179
星 球 179
流 蘇</w> 179
規 格</w> 179
蝶 古巴 179
都 會 179
枕 套</w> 179
西 服 179
耶 誕 179
壁 掛</w> 179
酵 素</w> 179
简 约 179
st ers</w> 179
no odles</w> 179
男女 情侶款 179
18 inches</w> 179
sli des</w> 179
200 7</w> 179
air e</w> 179
ther mos</w> 179
dro ps</w> 179
vir gin</w> 179
adv ance</w> 179
kh aki</w> 179
bak una</w> 179
perform ance</w> 179
h t</w> 178
裙 式 178
o at 178
車 貼 178
c r</w> 178
c pu</w> 178
訂 單 178
實 木</w> 178
j am</w> 178
石 榴 178
洗 發 178
洗 頭 178
洗 顏 178
巴 黎</w> 178
飛 機</w> 178
過 年 178
別 針</w> 178
撲 克 178
褶 皺 178
陰 陽 178
tt o</w> 178
休閒 短t</w> 178
ath le 178
sil ver 178
迷你 小型 178
bro o 178
lay ers</w> 178
簡約現代 客廳 178
kn ight</w> 178
厚底 鞋</w> 178
雜貨 店</w> 178
hydr o</w> 178
collecti ble</w> 178
棋盤 格</w> 178
好市 多</w> 178
棉花 糖 178
emer gency</w> 178
degre e</w> 178
星際大 戰</w> 178
oly mp 178
replac eable</w> 178
s am</w> 177
s 925銀 177
b ws</w> 177
三 用 177
木 耳 177
標 誌 177
發 飾 177
本 田 177
毛 料 177
風 火 177
風 景 177
搭 配</w> 177
白 雪 177
拼 貼</w> 177
開 始 177
香 皂</w> 177
碗 筷 177
搖 籃 177
豆 漿 177
刺 青 177
躺 椅</w> 177
an n</w> 177
al ia</w> 177
di ap 177
me ga 177
si ons</w> 177
po we 177
sho w</w> 177
de tai 177
pe pper 177
14 5</w> 177
美國 正品代購</w> 177
ag ate</w> 177
鑰匙 包 177
dri ed</w> 177
dior 迪奧 177
麵包 超人</w> 177
rai der 177
snap s</w> 177
垂墜 耳環</w> 177
gab bana</w> 177
魚子 醬 177
writ ing</w> 177
手 把 176
1 set</w> 176
4 代</w> 176
d get</w> 176
三 代</w> 176
美 發 176
滿 月 176
地 球 176
9 m</w> 176
外 殼 176
馬 拉 176
好 物</w> 176
頭 套</w> 176
顆 粒</w> 176
雨 靴 176
油 箱 176
圓 臉 176
圓 環 176
邊 桌 176
壁 紙</w> 176
壽 司 176
紐 約 176
ro und 176
se ga</w> 176
10 5 176
po ly</w> 176
ic er</w> 176
ke to</w> 176
so up</w> 176
ki ller</w> 176
50 元</w> 176
wi sh</w> 176
18 8</w> 176
ele ment</w> 176
gr 3</w> 176
wal king</w> 176
swi ss</w> 176
stra ps</w> 176
iphone 8</w> 176
ka was 176
over all</w> 176
寬松 大碼 176
squ ee 176
win nie</w> 176
44 碼 176
mor phe</w> 176
85 折</w> 176
茶幾 組合 176
pand ora 176
str ong</w> 176
y6 6</w> 176
mc queen</w> 176
van ity</w> 176
攝影 機</w> 176
乾燥 花</w> 176
tit anium</w> 176
筆電 包</w> 176
鎖骨 鏈 176
冰雪奇 緣</w> 176
洗菜 盆 176
燈芯 絨 176
este e</w> 176
1 kl</w> 175
6 吋</w> 175
t ata</w> 175
d b</w> 175
g 1</w> 175
l bs</w> 175
插 座</w> 175
加 密 175
烤 盤</w> 175
水 池 175
眼 部 175
j p</w> 175
專 輯 175
輪 滑 175
墨 水 175
飯 桌 175
泡 腳 175
腳 架</w> 175
拆 封</w> 175
檢 測 175
扳 手 175
er ina</w> 175
on o 175
li e 175
se al 175
10 000 175
ab c</w> 175
ear buds</w> 175
mar ks</w> 175
夏季 韓版 175
one piece</w> 175
90 元</w> 175
ach i</w> 175
限時 免運</w> 175
tab le 175
電腦桌 臺式 175
化妝品 收納盒 175
inter national</w> 175
sol o</w> 175
poc ket 175
超商 取 175
小胸 聚攏 175
m2 k</w> 175
小 狗 174
h q</w> 174
g m 174
電 工 174
u 盤 174
長 效 174
k 1</w> 174
套 件</w> 174
p t 174
夾 子</w> 174
夾 心 174
兩 穿 174
藍 光</w> 174
部 品</w> 174
餐 盒</w> 174
月 子 174
北 極 174
絲 綢 174
時 代</w> 174
精 裝 174
w s 174
最 便宜</w> 174
黑 底 174
網 絡 174
千 鳥 174
方 形</w> 174
模 擬 174
尿 布</w> 174
以 上 174
研 究 174
姓 名 174
st d</w> 174
at t 174
us ers</w> 174
br y 174
家用 廚房 174
手機 通用 174
fe e 174
90 2</w> 174
jo e</w> 174
無線 充電 174
ton y 174
charac ters</w> 174
ssi mo</w> 174
香港 代購</w> 174
ari el</w> 174
小熊 維尼 174
moun tain</w> 174
台風 行 174
holi day</w> 174
出租 房 174
哆啦a 夢</w> 174
免運直 出</w> 174
水波 紋 174
丹尼 爾 174
loe we</w> 174
aller genic</w> 174
小 屋 173
手 串 173
a 60</w> 173
6 20 173
o xi 173
單 鞋女 173
房 子 173
排 釦 173
動 力 173
9 t</w> 173
淡 化 173
木 制 173
有 蓋 173
藍 白</w> 173
分 享 173
雪 肌 173
蛋 白</w> 173
冬 裝 173
星 期 173
白 金</w> 173
倒 車 173
拉 絲 173
民 宿 173
前 臺 173
硬 碟</w> 173
官 方</w> 173
烘 培 173
遇 見 173
an ch 173
as ted</w> 173
le ft</w> 173
ac ade 173
al ly</w> 173
se t 173
di ary</w> 173
ne xt</w> 173
ra w</w> 173
12 1</w> 173
tr ain</w> 173
手機 包 173
be ans</w> 173
pe dal</w> 173
韓國 東大門 173
medi cal</w> 173
hi king</w> 173
accessor y</w> 173
ampo ule</w> 173
親子 裝</w> 173
鬆緊 腰 173
978 95 173
書寶二手書t 1</w> 173
puri fier</w> 173
亞瑟 士</w> 173
小 雞 172
小 夥 172
2 kg</w> 172
0 12</w> 172
4 l</w> 172
d l</w> 172
g ate</w> 172
b in 172
卡 夾 172
配 飾</w> 172
單 反 172
布 偶</w> 172
5 代</w> 172
套 罩 172
銀 飾</w> 172
y 3</w> 172
3 代</w> 172
分 隔 172
燈 泡 172
好 物 172
x 9 172
節 日 172
白 藍</w> 172
消 光 172
敏 感 172
領 帶 172
宣 傳 172
浴 盆 172
定 做</w> 172
綠 植 172
隨 機</w> 172
娜 美</w> 172
越 南 172
仰 臥 172
re trac 172
on line</w> 172
en er</w> 172
ri lak 172
ke vin</w> 172
fi la 172
北歐 ins 172
desig ner</w> 172
ex o 172
電腦 包 172
電腦 臺式 172
上衣 女 172
設計 款</w> 172
coo k 172
襯衫 女 172
glo bal</w> 172
a7 3</w> 172
超輕 量 172
pal m</w> 172
eu ro 172
nov a5 172
gla m</w> 172
寶格 麗 172
pine apple</w> 172
e mo 171
g 6</w> 171
b p</w> 171
b by</w> 171
v t</w> 171
直 銷 171
k ur 171
p r</w> 171
用 具 171
編 號</w> 171
蘭 蔻</w> 171
斜 紋 171
刀 具 171
索 尼 171
床 單人 171
針 扣 171
浴 室</w> 171
瓦 斯 171
搬 家 171
第 四 171
聊 聊</w> 171
恒 溫 171
co ck</w> 171
de scription</w> 171
wo c</w> 171
運動 健身 171
wh at</w> 171
char lotte</w> 171
uni que</w> 171
80 1</w> 171
he ts</w> 171
13 3</w> 171
26 0</w> 171
out put</w> 171
gri d</w> 171
cen se</w> 171
fa b</w> 171
ster i 171
nar s</w> 171
ruff les</w> 171
ultra boost</w> 171
paci fier</w> 171
calcul ator</w> 171
新 版 170
大 logo 170
a 2 170
a 貨</w> 170
4 mm</w> 170
r r</w> 170
h b</w> 170
e c</w> 170
d j 170
s 8 170
一 直 170
z 3</w> 170
5 m 170
排 水 170
淡 斑 170
膠 水 170
心 形 170
用 具</w> 170
流 沙 170
海 鷗</w> 170
四 驅 170
肚 子 170
沙 拉 170
互 動 170
凈 化 170
博 士 170
我 愛 170
晾 衣 170
鑄 鐵 170
co mic</w> 170
ch oo 170
ro lex 170
se same</w> 170
時尚 創意 170
休閒 時尚 170
12 4</w> 170
fi sher</w> 170
復古 風 170
潮流 百搭 170
sc ar</w> 170
bur ner</w> 170
嬰兒 推車 170
ban presto</w> 170
落地 多層 170
cur tains</w> 170
設計 款 170
ken zo 170
spir al</w> 170
dry ing</w> 170
sac hets</w> 170
山地 車 170
bobb i</w> 170
aromat her 170
diap ers</w> 170
kawas aki</w> 170
茶 壺</w> 169
e h</w> 169
花 架</w> 169
美 食 169
同 步</w> 169
收 音 169
k b 169
特 產 169
f ancy</w> 169
n n 169
清 水 169
秋 千 169
交 通 169
j d</w> 169
石 頭 169
開 業 169
龍 貓</w> 169
七 夕 169
鋰 電池</w> 169
基 酸 169
滾 邊 169
萌 萌 169
散 裝 169
翡 翠</w> 169
燙 鑽 169
旋 轉</w> 169
杜 蘭 169
供 佛 169
现 货</w> 169
学 生 169
st ate</w> 169
br ai 169
休閒 商務 169
30 pcs</w> 169
25 pcs</w> 169
ry x 169
nu tr 169
yu n</w> 169
全館 免運 169
吹風 機 169
縮口 褲</w> 169
保留 中</w> 169
oat meal</w> 169
7 60 168
2 手 168
4 人 168
d al 168
花 朵</w> 168
無 瑕 168
一 生 168
牛 排 168
柜 子</w> 168
除 塵 168
y 5</w> 168
明 治 168
白 紅</w> 168
優 雅</w> 168
樂 購 168
完 全 168
緊 致 168
軍 事 168
蒸 氣 168
畫 畫 168
主 持 168
拇 指 168
應 援 168
re seller</w> 168
li me</w> 168
mo mmy</w> 168
su i</w> 168
ho bo</w> 168
cu ff</w> 168
bu ff 168
for e</w> 168
北歐 現代簡約 168
gi a</w> 168
性感 蕾絲 168
iphone 11</w> 168
咖啡 杯</w> 168
nu mbers</w> 168
tren ding</w> 168
lan yard</w> 168
一字 肩 168
棒球 外套</w> 168
y6 2018</w> 168
esp adri 168
sele ct</w> 168
philipp ines</w> 168
qua ff</w> 168
小 包包</w> 167
人 的 167
t x</w> 167
t pu 167
t ell</w> 167
t actical</w> 167
電 線 167
三 角</w> 167
變 裝 167
美 的 167
5 入</w> 167
5 號</w> 167
5 cm 167
加 高 167
p ic</w> 167
m g 167
m 44 167
c w 167
媽 媽</w> 167
x 6 167
珠 寶</w> 167
j ig 167
最 新</w> 167
元 素 167
翅 膀 167
側 背</w> 167
我 們 167
草 機 167
液 體 167
牡 丹 167
it h 167
st y</w> 167
si x</w> 167
ba y</w> 167
sp inner</w> 167
ni ll 167
201 4 167
家用 簡易 167
ter nal</w> 167
ing co</w> 167
男士 手錶</w> 167
fu el</w> 167
sa ver</w> 167
sta ge</w> 167
org e 167
2017 年 167
cou ture</w> 167
foo ds</w> 167
han na</w> 167
滑板 車</w> 167
pad lock</w> 167
便當 袋</w> 167
鋼化玻璃 貼</w> 167
上班 族 167
davi d</w> 167
peri pera</w> 167
契爾 氏</w> 167
exerci se</w> 167
小 碎花 166
大 全 166
d ance</w> 166
棉 被 166
環 保</w> 166
面 板 166
面 霜</w> 166
貨 號 166
p ain</w> 166
免 釘 166
m 5</w> 166
y 11</w> 166
成 品</w> 166
起 司 166
刷 具 166
米 家 166
狐 狸 166
冠 軍</w> 166
染 發 166
ar c 166
ar c</w> 166
or i</w> 166
ma p</w> 166
經典 時尚 166
go t</w> 166
chan ge</w> 166
chan ce</w> 166
2020 夏季 166
dis ru 166
ven us</w> 166
bri efs</w> 166
water melon</w> 166
雙人 床 166
pil at 166
短袖t恤 男 166
lau der</w> 166
下標 前 166
學習 桌 166
洗髮 精 166
睫毛 膏</w> 166
公文 包 166
cit y 166
prest ige</w> 166
門廳 柜 166
dea d</w> 166
dur able</w> 166
資生 堂 166
播放 器 166
全掌 氣墊 166
波士頓 包</w> 166
apri l</w> 166
貓頭 鷹 166
hob bies</w> 166
菲利 普 166
peo ple</w> 166
triu mph</w> 166
retrac table</w> 166
手 冊</w> 165
花 生 165
布 鞋 165
機 芯 165
理 膚 165
奧 運 165
毛 毯</w> 165
兩 色 165
膚 色</w> 165
f 2</w> 165
自 黏 165
熱 門 165
上 海 165
上 市 165
鑰 匙</w> 165
日 韓</w> 165
流 浪 165
天 下 165
富 貴 165
籃 子 165
刮 鬍 165
墜 子</w> 165
羽 毛球 165
潔 牙 165
定 妝 165
菱 形 165
嫁 接 165
礦 物 165
義 大利</w> 165
re becca</w> 165
ba d 165
po u 165
so me 165
bl k</w> 165
500 g 165
stre chable</w> 165
通用 型 165
打底 褲 165
熱賣 中</w> 165
note 5</w> 165
明星 款 165
fron tro 165
萬用 包</w> 165
pin k 165
cir cu 165
哆啦a 夢 165
復仇者 聯盟</w> 165
cele br 165
雅詩蘭 黛</w> 165
drin king</w> 165
nill kin</w> 165
7 11 164
d l 164
s g 164
代 言</w> 164
美 好 164
k 金 164
號 店 164
鍋 蓋 164
套 筒 164
本 田</w> 164
m h</w> 164
女 神</w> 164
3 代 164
w l 164
w y 164
速 幹 164
山 水 164
秘 密 164
眉 筆</w> 164
安 卓</w> 164
顯 示</w> 164
滾 珠 164
傳 說</w> 164
臻 品下殺</w> 164
穆 勒 164
鈴 鐺 164
re v 164
bo mb 164
ma am</w> 164
po made</w> 164
mo tion</w> 164
家用 小 164
we igh 164
學生 百搭 164
go ur 164
fe el</w> 164
ty pe 164
stre n 164
tro users</w> 164
nu ts</w> 164
cra zy</w> 164
ple in</w> 164
kle in 164
紀念 品</w> 164
black head</w> 164
twi sted</w> 164
dh c</w> 164
福利 品</w> 164
rect angular</w> 164
權志 龍</w> 164
inver ter</w> 164
raider 150</w> 164
紅 茶 163
大 眾 163
2 mm</w> 163
r 2</w> 163
g k 163
o phi 163
紫 水晶 163
可 議</w> 163
n an 163
原 價</w> 163
星 球</w> 163
拉 力 163
世 紀 163
數 量 163
搖 椅 163
迎 賓 163
賓 士 163
輔 食 163
認 證 163
貿 易</w> 163
运 动 163
鴛 鴦 163
an dre 163
re new</w> 163
li f 163
di a 163
ne ver 163
su al</w> 163
12 6</w> 163
do min 163
pl ac 163
gr ace</w> 163
化妝 鏡</w> 163
clo set</w> 163
tri o</w> 163
hy po 163
is o</w> 163
衛生間 浴室 163
聖誕 禮物</w> 163
christ ening</w> 163
精華 液 163
米奇 米妮 163
bon net</w> 163
read ing</w> 163
半身 裙</w> 163
boy leg</w> 163
j2 pro</w> 163
升級 版 163
opti cal</w> 163
骷髏 頭 163
三輪 車 163
wol f</w> 163
equ ip 163
杯緣 子</w> 163
蕾蕾 小鋪 163
gogg les</w> 163
danielwelling ton 163
frontro w</w> 163
手 拉 162
2 g 162
4 d 162
s wa 162
s kid</w> 162
花 架子 162
l ati 162
接 收 162
單 個 162
拖 地 162
套 餐 162
遮 擋 162
水 手 162
層 架</w> 162
可 用 162
p f</w> 162
極 速 162
袖 珍 162
買 家</w> 162
送 1 162
私 人 162
實 心 162
提 臀 162
個 子 162
去 除 162
幫 手</w> 162
耳 麥 162
耳 罩 162
柴 犬 162
冷 淡 162
秘 密</w> 162
懸 掛 162
碗 架 162
縮 腰 162
蓮 蓬 162
檀 香 162
縫 紉 162
勿 下單</w> 162
勁 戰 162
楠 竹 162
re vit 162
co pper</w> 162
me e</w> 162
lu ffy</w> 162
ma r</w> 162
mo ssimo</w> 162
qu et</w> 162
ad o 162
il ing</w> 162
pe pper</w> 162
100 cm</w> 162
sm al</w> 162
mu sh 162
sn ake</w> 162
熱賣 款 162
室內 外 162
拉鏈 包</w> 162
sen s 162
150 0</w> 162
鋼化玻璃 保護貼</w> 162
顯示 器</w> 162
fal se</w> 162
gil dan</w> 162
john son</w> 162
sciss ors</w> 162
anni vers 162
pepper mint</w> 162
aromather apy</w> 162
小 蜜蜂 161
新 加 161
大 促銷</w> 161
2 25 161
a vi 161
t ang 161
e mi 161
三 宅 161
木 板 161
木 馬 161
外 賣 161
心 理 161
p l</w> 161
i su 161
格 子</w> 161
高 幫</w> 161
胸 針</w> 161
聲 光 161
需 要 161
梯 子 161
王 者 161
烘 焙</w> 161
鉑 金 161
st at 161
se c</w> 161
ba d</w> 161
ap ad</w> 161
no vel</w> 161
gh am</w> 161
wi per</w> 161
短袖 套裝</w> 161
二手 衣</w> 161
hu a 161
gir l 161
13 2</w> 161
shi mmer</w> 161
bea d</w> 161
咖啡 機</w> 161
stre am</w> 161
mk 手錶 161
she a</w> 161
squ are 161
war dro 161
motor s</w> 161
conver ter</w> 161
cost co 161
anc er</w> 161
graph y</w> 161
台灣現貨 限時下殺 161
淡香 精 161
魔鬼 氈 161
愛麗 絲</w> 161
age ment</w> 161
雙子 星</w> 161
紀梵 希 161
居家裝飾 廚房收納</w> 161
dire ct</w> 161
nen dor 161
roman tic</w> 161
powe red</w> 161
小 風扇 160
大 底</w> 160
d 3</w> 160
u m 160
b h 160
三 聯 160
花 色 160
單 寧 160
書 櫃</w> 160
m cm</w> 160
i con</w> 160
矽 膠</w> 160
f 5 160
n ct</w> 160
用 書</w> 160
制 服</w> 160
氣 囊 160
海 盜 160
托 盤</w> 160
貼 畫 160
空 姐 160
鏡 面</w> 160
晚 禮服 160
合 作 160
碗 盤 160
瑪 莎拉 160
怪 獸</w> 160
穩 定 160
in tex</w> 160
an te 160
ar on</w> 160
ch y 160
ma dre</w> 160
mo p</w> 160
au str 160
pro p 160
24 v 160
je ssi 160
lit ter</w> 160
bur st</w> 160
55 5</w> 160
dr um</w> 160
mk 5 160
note 9</w> 160
scre w 160
一字 扣 160
foo twear</w> 160
cost co</w> 160
遙控 器</w> 160
up tempo</w> 160
nova 2lite</w> 160
ep ic</w> 160
桌上 型 160
pain ted</w> 160
蛋黃 哥</w> 160
til ity</w> 160
chron o 160
nap kin</w> 160
thermo meter</w> 160
山茶 花 160
isl and</w> 160
brassi ere</w> 160
anch or</w> 160
小 黃 159
新 版</w> 159
h eng</w> 159
會 員 159
無 線</w> 159
無 框 159
鬆 糕 159
加 贈 159
外 銷 159
夾 式耳環</w> 159
3 ply</w> 159
粉 底</w> 159
杯 架</w> 159
原 味</w> 159
好 看 159
後 庭 159
超 軟 159
超 大號 159
頭 發 159
j y 159
利 亞 159
正 常</w> 159
內 搭</w> 159
預 定</w> 159
璀 璨 159
腹 肌 159
道 教 159
到 付</w> 159
仿 舊 159
蚊 帳</w> 159
漂 亮 159
安 娜 159
碳 素 159
20 寸 159
ba c</w> 159
th u 159
la t</w> 159
sp l 159
sp lash</w> 159
so f 159
wo w</w> 159
50 mm</w> 159
家用 簡約 159
11 9</w> 159
uni t</w> 159
長袖 帽t</w> 159
bal ls</w> 159
28 cm</w> 159
娃娃 鞋</w> 159
遊戲 片</w> 159
春秋 新款 159
全包 防摔 159
tran scen 159
短版 上衣</w> 159
小小 兵 159
pet ite</w> 159
ame thy 159
mou th</w> 159
nin ja</w> 159
演唱 會 159
louis vuitton</w> 159
空氣清淨 機</w> 159
scrat ch</w> 159
大 陸 158
乳 器</w> 158
0 13</w> 158
國 外 158
直 送 158
線 上 158
板 手</w> 158
重 複 158
清 涼 158
年 級 158
文 學 158
x 7 158
超 靜音 158
惠 靈 158
限 時</w> 158
織 布 158
照 片</w> 158
喜 歡 158
方 領 158
爵 士 158
落 肩 158
合 1 158
草 莓</w> 158
培 訓 158
悟 空 158
檀 木 158
衝 擊 158
企 鵝</w> 158
俱 樂 158
祛 痘 158
染 髮 158
望 遠 158
宮 崎 158
lo ws</w> 158
20 4</w> 158
si m 158
ur o</w> 158
30 3</w> 158
sun shine</w> 158
pi d</w> 158
男士 休閑 158
創意 園</w> 158
19 70</w> 158
fo aming</w> 158
80 8</w> 158
200 6</w> 158
por ter</w> 158
iphone 6s</w> 158
22 2</w> 158
2018 年 158
動漫 周邊</w> 158
chic co</w> 158
航海 王 158
hard bound</w> 158
shin y</w> 158
最愛 二手精品</w> 158
紅包 袋</w> 158
t ing 157
e po 157
g ad 157
g ho 157
g ps</w> 157
夜 燈</w> 157
b p 157
尼 龍</w> 157
美 腿 157
v 17</w> 157
一 次</w> 157
o per 157
維 多 157
櫃 子</w> 157
火 車 157
水 瓶 157
光 學 157
夾 式 157
f 3 157
日 記</w> 157
時 光</w> 157
含 運 157
黑 藍</w> 157
領 劵 157
暖 暖 157
阿 拉 157
漢 堡 157
夢 想 157
普 洱 157
絕 地 157
左 右 157
凝 露</w> 157
lo real</w> 157
20 000 157
di l 157
ba re 157
ne xt 157
la d 157
de ca 157
時尚 氣質 157
現貨 24小時 157
ho lic</w> 157
il le</w> 157
du ck</w> 157
zi pp 157
情趣 內衣</w> 157
ha wk</w> 157
is ure</w> 157
is sey</w> 157
珍珠 耳環</w> 157
美式 復古 157
fore st</w> 157
手作 材料</w> 157
愛迪達 adidas</w> 157
uniq lo 157
trans for 157
爆米 花</w> 157
mun a 157
馬鞍 包</w> 157
r11 s</w> 157
secon d</w> 157
美津 濃</w> 157
理膚 寶 157
小 女孩 156
2 個 156
d t 156
s g</w> 156
出 差 156
計 時</w> 156
粘 貼 156
水 鬼</w> 156
高 音 156
x 4 156
皆 可 156
超 萌 156
j 6plus</w> 156
漸 層</w> 156
醫 療 156
圓 珠 156
酒 紅 156
領 帶</w> 156
元 素</w> 156
工 藝</w> 156
摩 登 156
靠 墻 156
團 體 156
液 態 156
衝 評 156
唱 歌 156
al i</w> 156
ch as 156
ri ch 156
il lumin 156
mar t</w> 156
mon th</w> 156
sa c</w> 156
sc ape</w> 156
spor ts 156
por ts</w> 156
ven t</w> 156
2019 新款</w> 156
stor m</w> 156
nu tri 156
note 10</w> 156
吊帶 裙 156
電視 櫃 156
600 0</w> 156
原裝 進口</w> 156
隔斷 簾 156
seas on 156
哈倫 褲</w> 156
鱷魚 紋 156
house hold</w> 156
施華洛世 奇</w> 156
chang ing</w> 156
beach kin</w> 156
店長 推薦</w> 156
nendor oid</w> 156
手 推 155
a le 155
t 5</w> 155
d ji</w> 155
花 苞 155
直 流 155
o dle</w> 155
5 xl</w> 155
線 器 155
8 50 155
嬰 兒</w> 155
紫 外線</w> 155
p d</w> 155
p b</w> 155
重 磅 155
雪 茄 155
賣 家</w> 155
j h 155
雨 刷</w> 155
老 闆 155
達 菲</w> 155
q i 155
復 刻</w> 155
翻 新 155
牆 貼</w> 155
睡 袋</w> 155
碳 粉 155
啤 酒 155
创 意 155
ar row</w> 155
it alian</w> 155
st e</w> 155
st ing</w> 155
li er</w> 155
sp ray 155
wit ch</w> 155
現貨 速發</w> 155
手機 套 155
pi yao</w> 155
pl er</w> 155
15 8</w> 155
che tte</w> 155
玻璃 保護貼</w> 155
pen gu 155
秋冬 裝 155
ag es</w> 155
iphone 5</w> 155
2017 新款</w> 155
情趣 用品 155
吊帶 背心 155
益智 玩具</w> 155
睡衣 女 155
inst a</w> 155
dea d 155
晚宴 包</w> 155
die sel</w> 155
ggi es</w> 155
南極 人 155
calen dar</w> 155
stren gth</w> 155
人 生</w> 154
r pm</w> 154
d p</w> 154
l t 154
子 的 154
色 號 154
o x</w> 154
門 墊 154
水 平 154
標 籤</w> 154
發 夾 154
i v</w> 154
y as 154
f r</w> 154
f lip 154
跑 步</w> 154
全 面 154
紙 巾</w> 154
x b 154
x 3 154
情 侣 154
男 t</w> 154
成 年 154
正 方形 154
史 奴 154
饅 頭 154
走 路 154
雲 朵 154
an ce 154
al li 154
ro d</w> 154
am u 154
10 4 154
ke ttle</w> 154
do ctors</w> 154
pan t</w> 154
經典 復古 154
40 2</w> 154
ju icy</w> 154
pri ced</w> 154
mb a</w> 154
廚房 收納 154
原廠 正品</w> 154
hi p 154
y6 pro</w> 154
學院 風</w> 154
boy friend</w> 154
king ston</w> 154
roo ts</w> 154
海軍 藍</w> 154
gin gham</w> 154
hot wheels</w> 154
zir con</w> 154
bapti smal</w> 154
reser ved</w> 154
disinfect ant</w> 154
wardro be</w> 154
曼 尼</w> 153
紅 茶</w> 153
大 作 153
茶 杯</w> 153
2 b</w> 153
h c 153
e y</w> 153
電 暖 153
純 白 153
設 備</w> 153
單 雙人 153
機 小型 153
烤 箱</w> 153
鋼 筆</w> 153
雙 門 153
名 品 153
m mi 153
i mm 153
分 鐘 153
紙 膠帶 153
馬 來 153
好 貨</w> 153
贈 品 153
呼 吸 153
巨 無 153
胸 針 153
勞 保 153
修 飾 153
來 電 153
組 裝</w> 153
魚 嘴 153
狗 窩 153
入 裝</w> 153
菱 格紋 153
屏 幕 153
猴 子 153
惡 搞 153
ac y</w> 153
lo west</w> 153
sh ed</w> 153
bo ur 153
10 w</w> 153
ne t 153
00 1 153
min d</w> 153
be ef</w> 153
多功能 家用 153
牛仔 裙</w> 153
sm o</w> 153
70 1</w> 153
手工 皂 153
stra p 153
spe ci 153
臺式 電腦 153
gro cer 153
出貨 前 153
xs max 153
glut amansi</w> 153
kid ston</w> 153
shu i</w> 153
屏風 隔斷 153
vibr ator</w> 153
海邊 度假 153
late st</w> 153
蠟筆小 新</w> 153
ginger snaps</w> 153
annivers ary</w> 153
大 特價</w> 152
2 x</w> 152
0 20</w> 152
6 plus 152
t ation</w> 152
r 11</w> 152
d m</w> 152
s ack</w> 152
b g</w> 152
b ong</w> 152
v able</w> 152
儲 存 152
外 殼</w> 152
護 士 152
c j</w> 152
c run 152
f ry 152
3 號 152
全 台 152
超 薄</w> 152
壓 紋</w> 152
腕 表 152
天 堂 152
油 漆 152
米 蘭 152
胸 章</w> 152
磨 刀 152
關 節 152
戴 妃 152
酷 奇 152
蒙 古 152
畫 家 152
八 五 152
求 生 152
re ci 152
or io</w> 152
ac cent</w> 152
20 3</w> 152
mi k 152
mi ss 152
mi mi</w> 152
br o</w> 152
百搭 潮流 152
19 70s</w> 152
sa y</w> 152
wal lets</w> 152
fr ance</w> 152
led 燈</w> 152
bre ad</w> 152
tur meric</w> 152
app li 152
va ult</w> 152
眼鏡 框 152
cr v</w> 152
hd mi 152
gro wer</w> 152
抖音 同款</w> 152
角落 小夥 152
rou ge</w> 152
洗漱 臺 152
現貨秒 發</w> 152
dk ny</w> 152
博柏 利 152
steph en</w> 152
citi zen</w> 152
magaz ine</w> 152
丹尼爾 惠靈 152
equip ment</w> 152
7 mm</w> 151
6 入</w> 151
d squa 151
s n</w> 151
一 家 151
點 點</w> 151
服 務 151
8 19 151
k 7</w> 151
書 套</w> 151
重 型 151
藍 芽</w> 151
c x</w> 151
c age</w> 151
自 制 151
拉 鏈</w> 151
照 明</w> 151
路 由 151
間 約 151
亮 面</w> 151
蘇 打 151
傳 說 151
魅 力</w> 151
測 試 151
me mo</w> 151
un ited</w> 151
mo us 151
休閒 運動</w> 151
12 mm</w> 151
家用 門口 151
60 8</w> 151
客廳 燈 151
北歐 風</w> 151
jo jo</w> 151
ach able</w> 151
hol low</w> 151
skin care</w> 151
床頭 櫃</w> 151
工具 箱 151
cat h</w> 151
fer n</w> 151
老爹 鞋 151
mang a</w> 151
bath ing</w> 151
holi ka</w> 151
activ ated</w> 151
rot ating</w> 151
eth yl</w> 151
延長 線</w> 151
附購買 證明</w> 151
側掀 皮套</w> 151
rubber ized</w> 151
round neck</w> 151
brai ded</w> 151
muna fie</w> 151
4 入</w> 150
s se 150
s ink</w> 150
皮 衣 150
金 絲 150
單 色 150
單 頭 150
長 洋</w> 150
水 光 150
可 動 150
免 安裝 150
藍 寶石 150
高 潮 150
超 低 150
哥 吉 150
減 齡 150
香 香 150
鐵 皮 150
瑪 莉 150
概 論</w> 150
儿 童 150
牽 引 150
in se 150
re cor 150
ar s</w> 150
le isure</w> 150
li s</w> 150
to wn</w> 150
bo mb</w> 150
lu ck</w> 150
運動 服</w> 150
no ir</w> 150
bu g</w> 150
經典 老花 150
ang el 150
stic e</w> 150
24 cm</w> 150
70 ml</w> 150
化妝 桌</w> 150
mu sical</w> 150
led 吸頂燈 150
mk 6 150
har ness</w> 150
隨身 碟</w> 150
plan e</w> 150
mt b</w> 150
頭層 牛皮</w> 150
shar pen 150
pam pers</w> 150
don ut</w> 150
旗艦 店 150
prime knit</w> 150
tek no</w> 150
transcen d</w> 150
小 卡 149
a ph 149
t v 149
h in 149
h ur 149
e 5</w> 149
d g</w> 149
d u</w> 149
v on</w> 149
無 縫 149
出 門 149
z 5</w> 149
面 具</w> 149
球 衣 149
p ir 149
m 60 149
c 0 149
c u</w> 149
c ic 149
杯 套</w> 149
鉆 石 149
春 款 149
顏 料 149
週 邊</w> 149
未 拆</w> 149
誘 惑</w> 149
荷 蘭 149
蜂 巢 149
涂 鴉 149
in side</w> 149
co t</w> 149
co ated</w> 149
it su 149
si der</w> 149
am g</w> 149
ki m</w> 149
sk ull</w> 149
18 cm</w> 149
be fore</w> 149
fi x 149
sig nal</w> 149
80 cm</w> 149
sil ky</w> 149
旅行 箱</w> 149
sto p</w> 149
太陽 帽 149
清潔 刷</w> 149
sau r</w> 149
nike 耐吉 149
29 9</w> 149
床上 用品</w> 149
材料 包 149
anti bacterial</w> 149
soft gels</w> 149
數據 線</w> 149
加濕 器 149
pun ch</w> 149
卡娜赫 拉</w> 149
超長 待 149
樣板 房 149
rea der</w> 149
nouri shing</w> 149
pilat en</w> 149
小 提 148
手 拎 148
紅 豆 148
2 k 148
a go</w> 148
4 20 148
h ush</w> 148
d z 148
s max</w> 148
生 命 148
三 種 148
o va</w> 148
o ther</w> 148
o cc 148
8 成新</w> 148
爆 裂 148
眼 罩</w> 148
f as 148
馬 自 148
馬 尾 148
街 舞 148
精 工 148
屁 屁 148
汽 油 148
甜 點 148
墊 子</w> 148
椅 家用 148
森 林</w> 148
低 胸 148
炸 鍋 148
供 奉 148
瀏 海 148
橢 圓 148
re packed</w> 148
ir on 148
ne eds</w> 148
收納 籃</w> 148
kore a 148
手機 皮套</w> 148
ru by</w> 148
tor o</w> 148
shi e</w> 148
ten g</w> 148
居家 家</w> 148
cand les</w> 148
fin al</w> 148
mini figure</w> 148
大學 t 148
rep el 148
eng ine 148
han abi 148
新品上 市 148
lb c</w> 148
yar n</w> 148
余文 樂 148
掛鐘 客廳 148
攝像 頭 148
zak ka</w> 148
鬼滅之 刃</w> 148
水餃 包</w> 148
hanabi shi</w> 148
手 帕</w> 147
紅 木 147
d z</w> 147
u tility</w> 147
s 20</w> 147
子 彈 147
直 郵 147
金 扣</w> 147
o int 147
插 卡</w> 147
線 控 147
面 罩 147
8 m</w> 147
防 輻射 147
貓 狗 147
超 高 147
袋 裝</w> 147
j k</w> 147
潮 款 147
正 宗 147
商 店 147
甲 油 147
床 單</w> 147
泡 泡</w> 147
留 香 147
漁 具 147
草 帽 147
黏 土</w> 147
競 技 147
庫 洛 147
沛 納 147
at tire</w> 147
on ce</w> 147
po k 147
ir ving</w> 147
sp in</w> 147
cas tor</w> 147
de x</w> 147
運動 服 147
收納 柜</w> 147
vi p</w> 147
per ry</w> 147
we st 147
男士 皮帶</w> 147
uni form</w> 147
夏季 透氣 147
休閑 運動鞋</w> 147
pu pp 147
25 6g</w> 147
tu b</w> 147
13 8</w> 147
stu di 147
par i 147
上衣 潮</w> 147
mu les</w> 147
cam er 147
22 8</w> 147
簡約現代 臥室 147
78 9</w> 147
健身 房 147
背心 裙</w> 147
出清 價</w> 147
耐克 nike</w> 147
批發 價</w> 147
42 mm</w> 147
fan tech</w> 147
gy mbo 147
食品 級 147
保鮮 盒 147
gt x</w> 147
瀝水 架 147
ns w</w> 147
emp ty</w> 147
proje ctor</w> 147
ful l 147
scoo ter</w> 147
滿額 免運</w> 147
萬寶 龍 147
收縮 毛孔 147
dyn amic</w> 147
isu zu</w> 147
新 竹 146
2 35 146
a u</w> 146
a 80</w> 146
e w</w> 146
d t</w> 146
s ata</w> 146
b inder</w> 146
v 7plus</w> 146
o h 146
5 號 146
5 公分</w> 146
發 售</w> 146
兩 個 146
3 pc</w> 146
自 製 146
考 試 146
松 木 146
靴 子</w> 146
袋 裝 146
男 孩</w> 146
尾 牙 146
天 梭 146
米 白 146
胸 墊 146
潤 澤 146
網 格 146
床 笠 146
砧 板 146
紀 錄 146
緩 震</w> 146
狗 頭 146
儀 器 146
教 育 146
紐 巴 146
副 廠 146
陀 螺 146
th at</w> 146
po chette</w> 146
ne x 146
mi ya 146
min a</w> 146
car ol 146
日本 原裝</w> 146
be dro 146
mas h</w> 146
ju stice</w> 146
15 6</w> 146
ex press</w> 146
sa lon</w> 146
70 g</w> 146
13 7</w> 146
shi ft</w> 146
99 6</w> 146
儲物 箱 146
bre ak 146
y9 2019</w> 146
適用 於 146
sur face</w> 146
十字 架 146
hil l</w> 146
aro ma</w> 146
tar te</w> 146
top shop</w> 146
ddr 4</w> 146
figh ter</w> 146
friend ly</w> 146
tony moly</w> 146
pengu in</w> 146
小 禮服</w> 145
1 b</w> 145
r 3</w> 145
三 色可選</w> 145
無 紡 145
5 尺 145
面 板</w> 145
8 折 145
火 焰 145
有 現貨</w> 145
m po 145
y ab 145
秋 款 145
袖 上衣</w> 145
進 化 145
貝 親 145
米 色</w> 145
鋪 子</w> 145
來 圖 145
方 巾</w> 145
阿 爾 145
阿 甘</w> 145
按 鍵 145
冰 種 145
活 頁 145
撞 色</w> 145
瑪 麗 145
觸 屏 145
親 筆 145
衝 浪 145
菊 花 145
認 明 145
炒 菜 145
佈 置 145
蝸 牛 145
泫 雅 145
re priced</w> 145
al le 145
th ro 145
ab s 145
car pet</w> 145
mar ie</w> 145
tu red</w> 145
bal i</w> 145
tin ts</w> 145
lau ren 145
品質 保證</w> 145
移動 電源</w> 145
jan e</w> 145
馬卡 龍</w> 145
絨毛 娃娃</w> 145
人體 工 145
modu le</w> 145
even ing</w> 145
劇場 版</w> 145
rilak kuma</w> 145
hypo allergenic</w> 145
chrono graph</w> 145
a 40</w> 144
h ul 144
電 繡 144
會 計 144
滿 199 144
k m</w> 144
火 山 144
背 後 144
可 攜 144
可 超取</w> 144
p 8</w> 144
c ing</w> 144
c nc</w> 144
f o</w> 144
燈 光 144
衛 褲 144
百 分 144
超 大容量 144
j ack 144
白 光</w> 144
四 代</w> 144
商 場 144
都 市 144
探 索 144
今 日 144
課 本</w> 144
伸 縮</w> 144
八 成新</w> 144
in du 144
le mon 144
lo tus</w> 144
st ance</w> 144
at f</w> 144
di n</w> 144
di ent</w> 144
me as 144
bo ston</w> 144
lu re</w> 144
sp lit</w> 144
mo de</w> 144
時尚 潮流</w> 144
12 9</w> 144
12 歲 144
min ions</w> 144
簡約 現代</w> 144
ck y</w> 144
30 2</w> 144
日本 限定</w> 144
學生 韓版 144
fi sh 144
ju n</w> 144
客廳 小戶型 144
防水 貼紙</w> 144
hea ds</w> 144
fla vo 144
fla kes</w> 144
hoo p</w> 144
fac ed</w> 144
安全 帶 144
moi st</w> 144
鋼化 膜 144
西裝 褲</w> 144
背景 布 144
sco pe</w> 144
flu id</w> 144
alex ander</w> 144
oli via</w> 144
dino saur</w> 144
frog suit</w> 144
oint ment</w> 144
小 凳子 143
款 號 143
電 焊 143
s woo 143
美 美 143
v as 143
純 天然 143
o lay</w> 143
布 娃娃 143
機 油</w> 143
真 的 143
毛 筆 143
m 3 143
短 襪 143
自 帶 143
素 材</w> 143
處 理 143
頭 枕 143
專 家</w> 143
空 機</w> 143
香 爐</w> 143
冷 暖 143
土 耳 143
站 立 143
湯 鍋 143
港 版</w> 143
喬 巴</w> 143
ri n</w> 143
el ine</w> 143
sp read</w> 143
de ss</w> 143
運動 跑步 143
da vis</w> 143
18 5</w> 143
韓國 進口 143
北歐 鐵藝 143
新品 特價</w> 143
tra ding</w> 143
代購 nike</w> 143
帆布 袋</w> 143
2017 夏季新款 143
防滑 墊</w> 143
2018 新款</w> 143
lan tern</w> 143
春夏 新款</w> 143
sen se 143
sal vat 143
bio aqua</w> 143
rou ter</w> 143
snoop y 143
emp orio</w> 143
坐便 器 143
bry ant</w> 143
disru ptor</w> 143
bedro om</w> 143
手 掌 142
手 寫 142
4 80 142
h r</w> 142
h as 142
v p</w> 142
皮 包</w> 142
直 發 142
保 時 142
5 x</w> 142
櫥 櫃 142
9 g</w> 142
8 l</w> 142
套 書</w> 142
可 升降 142
可 自取</w> 142
p k 142
f 7 142
全 白 142
索 隆</w> 142
拍 照</w> 142
墊 片</w> 142
q 版</w> 142
搖 頭 142
青 蛙 142
倉 庫 142
姐 妹 142
省 空間</w> 142
核 桃 142
總 成</w> 142
唐 裝 142
莫 斯 142
re ll</w> 142
al do</w> 142
un ds</w> 142
po re 142
mo d 142
su gar 142
時尚 印花 142
br ass</w> 142
休閒 包</w> 142
全新 商品</w> 142
cu tie</w> 142
15 2</w> 142
he m</w> 142
13 1</w> 142
clo se</w> 142
圓領 短袖t恤</w> 142
prote in</w> 142
beau te 142
jac kets</w> 142
連身 洋裝</w> 142
fol ded</w> 142
遮陽 傘 142
mini ature</w> 142
mt p</w> 142
英文 字母 142
禮盒 組</w> 142
托特 包 142
vap or</w> 142
tech no 142
轉換 器 142
加濕 器</w> 142
樂福 鞋 142
late x</w> 142
geo metric</w> 142
小獅 王 142
mush room</w> 142
小 站</w> 141
小 外套</w> 141
2 25</w> 141
2 28 141
t n</w> 141
d in 141
g 3</w> 141
電 扇</w> 141
夜 間 141
s q 141
生 素 141
美 睫 141
一 拖 141
接 頭 141
布 朗 141
座 墊 141
鋼 管 141
光 澤 141
銀 行 141
i u</w> 141
3 xl碼</w> 141
3 rd</w> 141
全 車 141
買 就 141
男 人 141
適 配 141
濾 芯</w> 141
鑲 嵌 141
台 中</w> 141
老 爺 141
豬 八 141
內 裡 141
方 包</w> 141
閃 耀 141
潔 淨 141
an ten 141
ch in 141
ai l 141
ap i 141
mi zer</w> 141
運動 上衣</w> 141
30 5</w> 141
男士 腕錶 141
ang ler</w> 141
pu 皮 141
blo oming</w> 141
fe e</w> 141
ct ing</w> 141
gr and 141
tre ss</w> 141
90 1</w> 141
lip o</w> 141
蕾絲 拼接 141
vin ta 141
寵物 用品</w> 141
multi media</w> 141
冬季 新款 141
大理石 紋 141
tit an</w> 141
日版 金證</w> 141
變形 金剛</w> 141
遮肚 顯瘦 141
極度 乾燥</w> 141
三腳 架 141
餐巾 紙</w> 141
fortun er</w> 141
suc cu 141
strap less</w> 141
大 包</w> 140
大 錶盤 140
茶 樹 140
1 代</w> 140
r j</w> 140
h g 140
h ang</w> 140
s 0 140
b 1</w> 140
b h</w> 140
學 校 140
國 旗 140
l m</w> 140
l ace 140
克 蘭 140
o ils</w> 140
臉 盆 140
包 鞋</w> 140
面 霜 140
球 球 140
車 上 140
車 牌 140
水 族</w> 140
浮 潛 140
假 發 140
毛 圈 140
m 9 140
i q 140
f ted</w> 140
n ers</w> 140
熱 褲</w> 140
風 味 140
家 家</w> 140
暈 染 140
提 供 140
數 學 140
黑 魂</w> 140
圓 框 140
網 卡</w> 140
酒 櫃 140
十 一 140
圍 脖</w> 140
罩 杯 140
抓 皺 140
首 爾 140
混 合 140
霸 王 140
齊 全</w> 140
al y 140
se ven</w> 140
di p 140
di p</w> 140
to l 140
ma h 140
po tat 140
la p 140
ko se</w> 140
car ry</w> 140
ho pe</w> 140
il lu 140
cre di 140
be ats</w> 140
客廳 茶幾 140
gi e</w> 140
免運 中</w> 140
針織 背心</w> 140
手工 diy 140
iphone x 140
beau ty 140
app le 140
雪紡 衫 140
清潔 劑 140
high quality</w> 140
sur f</w> 140
毛巾 架 140
手持 式 140
乾燥 花 140
pig ment</w> 140
蜘蛛 人</w> 140
潘朵 拉 140
log itech</w> 140
仙人 掌 140
raz or</w> 140
himala yan</w> 140
flavo red</w> 140
小 資 139
小 蒼 139
4 10 139
u l</w> 139
b w</w> 139
學 院</w> 139
國 家 139
輕 盈 139
棉 衣</w> 139
貨 車 139
筆 袋 139
y an 139
女 寶 139
3 10 139
餐 盒 139
袖 套</w> 139
提 拉 139
運 費 139
羅 蘭 139
兄 弟</w> 139
四 色</w> 139
胸 罩 139
鏡 片 139
來 令 139
髮 圈 139
鍍 膜 139
隨 意 139
貴 妃 139
in it 139
in nova</w> 139
re le 139
lo u</w> 139
al ur 139
en e 139
ro g</w> 139
th row</w> 139
sho o 139
ke l</w> 139
ab u 139
運動 內衣</w> 139
car b</w> 139
gu m</w> 139
ci a</w> 139
mar sh 139
ru sh 139
15 3</w> 139
ce iling</w> 139
化妝 水 139
jo jo 139
新品 特價 139
air con</w> 139
ka ws</w> 139
防滑 耐磨 139
chi ef</w> 139
tur n</w> 139
is er</w> 139
pat ter 139
nike 耐克 139
bra d 139
香港 正生 139
light stick</w> 139
fa ith</w> 139
sha wl</w> 139
xr m 139
手抓 包 139
工藝 品</w> 139
攜帶 式 139
信封 包</w> 139
sai lor</w> 139
任天 堂 139
不挑 色</w> 139
p30 lite</w> 139
minim alist</w> 139
pazz o</w> 139
aur ora</w> 139
screw driver</w> 139
pari sian</w> 139
小 個子 138
款 可選</w> 138
1 組</w> 138
t wo 138
g or 138
電 玩 138
u ts</w> 138
通 話 138
5 80</w> 138
號 碼 138
書 籍 138
真 人 138
y 19</w> 138
f d</w> 138
f icial</w> 138
中 學生 138
頭 髮 138
舒 服 138
刻 字</w> 138
未 來</w> 138
普 卡</w> 138
儀 表 138
俄 羅斯 138
豐 田 138
幽 靈 138
犀 牛 138
in te 138
co tt 138
20 8</w> 138
se ph 138
si de 138
th read</w> 138
el bow</w> 138
sp ice</w> 138
ki l 138
gu c</w> 138
ter o</w> 138
韓版 寬鬆 138
vi p 138
mar u 138
ru s</w> 138
現代 簡約</w> 138
gra dient</w> 138
折疊 桌 138
tra p</w> 138
圓領 短袖t恤 138
cam o</w> 138
蘋果 安卓 138
限定 下單</w> 138
ben t</w> 138
lan cer</w> 138
工作 褲</w> 138
adidas 愛迪達 138
工業 風</w> 138
zo di 138
eyel ashes</w> 138
prada 普拉達 138
螺絲 刀 138
sci ence</w> 138
演出 服 138
scoo p</w> 138
唐老 鴨</w> 138
全店 免運</w> 138
revit ali 138
salvat ore</w> 138
戰 馬 137
0 16</w> 137
a q</w> 137
4 28</w> 137
v ity</w> 137
色 彩 137
直 購</w> 137
滿 意 137
包 巾</w> 137
物 理 137
長 板 137
寶 緹 137
體 育</w> 137
可 調</w> 137
n ac 137
x xl碼</w> 137
壓 克力</w> 137
健 腹 137
聯 想 137
貼 片 137
居 家用 137
圓 桌 137
店 面 137
調 光 137
彈 跳 137
山 本 137
蓋 布 137
聚 寶 137
羽 球 137
勺 子 137
扶 手</w> 137
瘦 腿 137
集 中 137
鈕 扣 137
蔓 越 137
琥 珀 137
le le</w> 137
ma d 137
男士 真皮 137
休閑 椅 137
25 mm</w> 137
che f</w> 137
臥室 床邊 137
tre ats</w> 137
yo yo 137
len e</w> 137
her b</w> 137
女生 衣著</w> 137
26 cm</w> 137
爆款 熱賣</w> 137
小戶 型</w> 137
斜跨 包 137
書架 組合 137
仙女 風 137
衣帽 架</w> 137
春裝 新款 137
welling ton</w> 137
不粘 鍋 137
gif ts</w> 137
pony tail</w> 137
蝶古巴 特</w> 137
dsqua red 137
小 包包女 136
e a</w> 136
e ster</w> 136
g w</w> 136
s ure</w> 136
多 媒 136
美 杜 136
兔 毛 136
單 桿 136
9 50 136
除 臭</w> 136
夏 威 136
音 頻 136
m um</w> 136
n ic 136
極 限 136
餐 廳</w> 136
高 雄</w> 136
x c</w> 136
超 美</w> 136
黑 眼 136
四 方 136
空 專</w> 136
龍 婆 136
疊 疊 136
探 險 136
早 秋 136
梨 花 136
湯 姆 136
扳 手</w> 136
re ne</w> 136
or al</w> 136
la kers</w> 136
sp y 136
ph one 136
現貨 居家裝飾廚房收納</w> 136
12 cm</w> 136
收納 置物架 136
bu s</w> 136
be tter</w> 136
pi ano</w> 136
14 6</w> 136
電腦 椅</w> 136
99 99 136
性感 睡衣</w> 136
嬰兒 寶寶 136
帆布 包 136
max x</w> 136
hy alur 136
進口 牛皮 136
tur tle 136
fen ty</w> 136
訓練 鞋</w> 136
vol can 136
infin ite</w> 136
alph abo 136
aa a</w> 136
鉛筆 盒</w> 136
arti ficial</w> 136
聊聊 我</w> 136
givea way</w> 136
poli ce</w> 136
獨角 獸</w> 136
twin kle</w> 136
戰鬥 陀螺</w> 136
indu stri 136
2 11 135
4 wd</w> 135
r b</w> 135
e st 135
e va 135
電 飯 135
u ce</w> 135
s ket 135
多 件 135
維 生素 135
掛 衣架</w> 135
k am 135
夏 天</w> 135
技 術 135
n md 135
部 落 135
馬 上 135
中 大尺碼</w> 135
j el 135
霧 面</w> 135
白 藍 135
倒 流 135
台 製</w> 135
置 物</w> 135
輪 胎</w> 135
彩 膜 135
胖 胖 135
幫 寶 135
亞 馬 135
啟 動 135
登 山</w> 135
橫 條 135
閃 卡</w> 135
浴 簾 135
租 房 135
傳 奇 135
異 世界 135
膳 魔 135
挑 戰 135
in 1 135
ro m 135
un sealed</w> 135
ti ble</w> 135
10 9 135
la dy 135
ic h</w> 135
su spen 135
min e 135
復古 vintage</w> 135
40 cm</w> 135
15 1</w> 135
che w 135
200 3</w> 135
gra pe 135
ban ila</w> 135
氣質 百搭 135
fro g</w> 135
water color</w> 135
居家 生活 135
xi e</w> 135
整理 箱</w> 135
鋼化 玻璃</w> 135
gt r</w> 135
oc to 135
鋼鐵 人</w> 135
好市多 代購</w> 135
det achable</w> 135
brush es</w> 135
偶像學 園</w> 135
chun ky</w> 135
蕾蕾小鋪 正 135
zodi ac</w> 135
人 魚 134
2 s</w> 134
4 50ml</w> 134
h av 134
u c</w> 134
s se</w> 134
s mash</w> 134
廚 具 134
布 魯 134
插 頭 134
長 髮 134
心 率 134
雙 眼 134
假 花 134
f g 134
鞋 柜</w> 134
百 年 134
好 運 134
貓 砂 134
噴 漆 134
鏈 條</w> 134
補 水</w> 134
樂 活 134
滑 輪 134
按 壓 134
廣 場 134
邊 櫃 134
閃 粉 134
深 海 134
如 意 134
捕 蚊 134
烏 龍 134
on ic 134
on itsu 134
ch an</w> 134
la ura</w> 134
mo o 134
de ss 134
運動 風 134
時尚 潮 134
gu er 134
兒童 成人 134
60 3</w> 134
men t 134
16 1</w> 134
19 5</w> 134
ex pand 134
ex ternal</w> 134
200 4</w> 134
ste amer</w> 134
個性 百搭 134
帆布 鞋女 134
glu ta 134
沐浴 露</w> 134
直筒 褲</w> 134
ple ase</w> 134
客訂 商品</w> 134
comple x</w> 134
身體 乳</w> 134
valen tine</w> 134
荔枝紋 牛皮 134
高腳 凳 134
lett ers</w> 134
form ers</w> 134
zak ka 134
權志 龍 134
空軍一 號</w> 134
簡體 書</w> 134
deca y</w> 134
大 紅 133
大 氣</w> 133
r d 133
h ori 133
d ami 133
電 壓</w> 133
o reo</w> 133
柜 組合 133
曬 衣 133
外 搭 133
f ad 133
n k</w> 133
n as 133
打 蛋 133
自 用 133
自 助 133
風 機</w> 133
精 萃 133
舒 這 133
濾 心</w> 133
老 鼠</w> 133
淺 藍 133
熊 本 133
褲 帶 133
唇 釉 133
表 情 133
騎 車 133
福 袋 133
狗 狗</w> 133
芒 果 133
鎖 頭 133
ar den</w> 133
ro ber 133
ba dge</w> 133
qu o 133
qu i 133
兒童 小 133
be ast</w> 133
be tty</w> 133
短袖 t 133
mar s</w> 133
ta gs</w> 133
手提 袋 133
二手 出清</w> 133
blo wer</w> 133
多功能 防水 133
200 斤 133
gi ord 133
pie u</w> 133
辦公 室</w> 133
連帽 外套 133
wai st 133
cho p 133
鏈條 單肩包</w> 133
conver tible</w> 133
英倫 學院風 133
canv ass</w> 133
休閒運動 慢跑鞋</w> 133
wr angler</w> 133
夾克 外套</w> 133
平衡 車 133
pig eon</w> 133
慵懶 風 133
鬼滅之 刃 133
doll shoes</w> 133
奇奇蒂 蒂</w> 133
前短後 長 133
杜蘭 特 133
丹尼爾惠靈 頓 133
alphabo unce</w> 133
小 衫 132
a 1 132
4 20</w> 132
t ul 132
無 法 132
鬆 餅 132
掛 牆 132
塑 鋼 132
收 纳 132
轉 售</w> 132
9 oz</w> 132
球 員 132
加 大尺碼 132
抽 水 132
整 裝 132
斗 篷 132
防 過敏 132
雙 g</w> 132
銀 樓</w> 132
3 月 132
3 90</w> 132
財 務 132
衛 褲</w> 132
百 摺 132
中 藥 132
賣 家 132
x xxl</w> 132
刷 子 132
開 瓶 132
掌 上 132
柔 光 132
蝴 蝶</w> 132
少 年</w> 132
空 白 132
酒 神 132
去 黑頭 132
亞 洲 132
滑 滑 132
土 豆 132
省 力 132
re fri 132
co le 132
co phone</w> 132
en ne</w> 132
li sa</w> 132
ti c 132
wh eat</w> 132
min ers</w> 132
mm y 132
hu da</w> 132
hu ggies</w> 132
sa le 132
200 1</w> 132
13 5 132
沙發 邊幾 132
32 5</w> 132
手工 皂</w> 132
家居 の 132
cur l</w> 132
war mer</w> 132
ren a</w> 132
ren ce</w> 132
note 4</w> 132
ja zz</w> 132
沙灘 褲</w> 132
隨身 包</w> 132
棒球 服 132
背景 牆 132
水洗 棉 132
a7 7</w> 132
tai l 132
秋裝 新款 132
tho mas</w> 132
子母 包</w> 132
老虎 頭 132
11pro max</w> 132
棒棒 糖 132
exfoli ating</w> 132
init ial</w> 132
哈 利 131
a lex</w> 131
4 代 131
t wee 131
h h 131
d k</w> 131
u 11</w> 131
s us 131
花 瓶</w> 131
變 頻</w> 131
金 箔 131
單 售</w> 131
帶 輪 131
9 17 131
p ai 131
磁 扣</w> 131
免 稅 131
m ble</w> 131
f ty</w> 131
3 15 131
高 貴 131
星 辰 131
x p 131
提 升 131
j am 131
斜 肩 131
旅 遊</w> 131
海 馬 131
托 架 131
開 襟 131
修 剪 131
過 家家 131
藤 椅 131
封 閉 131
碗 柜 131
拋 棄 131
旗 袍</w> 131
婚 紗</w> 131
澳 洲</w> 131
姑 娘</w> 131
in kle</w> 131
st ack 131
sh f</w> 131
li m</w> 131
si on 131
10 7 131
ic ure</w> 131
de rella</w> 131
au di</w> 131
簡約 家用 131
bu bb 131
ear ing</w> 131
男士 休閒 131
19 v</w> 131
bb 霜</w> 131
nat ion 131
汽車 精品</w> 131
玩具 車 131
上衣 服 131
現代簡約 小戶型 131
pur it 131
限時 特價 131
bar s</w> 131
bar u</w> 131
sch e</w> 131
ha ve</w> 131
wash er</w> 131
400 0</w> 131
牛仔褲 女 131
spf 30</w> 131
櫻花 粉</w> 131
lex us</w> 131
bou quet</w> 131
nigh t 131
樂福 鞋</w> 131
8m 床 131
隨行 杯</w> 131
拍立 得</w> 131
swoo sh</w> 131
vinta ge 131
小 豬</w> 130
0 18</w> 130
電 子</w> 130
電 容 130
b les</w> 130
l j 130
l tp</w> 130
v 5 130
v c 130
無 耳 130
簡 潔 130
o real</w> 130
臉 書 130
棉 布</w> 130
衣 物</w> 130
車 架</w> 130
層 架 130
光 感 130
可 配 130
毛 毯 130
宿 舍</w> 130
蘭 蔻 130
最 佳 130
貝 雷 130
商 業 130
速 出 130
甜 美</w> 130
坐 姿 130
q c 130
滑 雪 130
及 膝 130
知 名 130
抗 uv</w> 130
西 餐 130
普 通 130
入 式 130
劃 痕 130
從 零 130
梳 子</w> 130
再 生 130
跨 境 130
避 震</w> 130
填 充 130
赤 足 130
re scu 130
me at</w> 130
ma d</w> 130
ne ed 130
so und 130
no ki 130
per man 130
mar ia</w> 130
二手 非 130
正品 保證</w> 130
stu d 130
sty ling</w> 130
電動 牙刷 130
ps p</w> 130
hy per</w> 130
一字 拖 130
trans formers</w> 130
燒烤 爐 130
pullo ut</w> 130
marmon t 130
lett uce</w> 130
武士 鞋</w> 130
黏土 人</w> 130
北海 道 130
ryx skincerity</w> 130
onitsu ka</w> 130
小 柜子 129
紅 白</w> 129
大 量 129
7 pcs</w> 129
1 pack</w> 129
1 box</w> 129
a cou 129
6 x</w> 129
e st</w> 129
g c 129
b 2</w> 129
b d</w> 129
花 開 129
多 彩 129
v w</w> 129
v alu 129
點 心</w> 129
包 邊 129
便 捷 129
k as 129
k ang 129
抽 取 129
寶 藍</w> 129
可 折疊</w> 129
i u 129
i zer</w> 129
f ear</w> 129
3 ce</w> 129
3 75 129
高 光 129
家 電 129
買 菜 129
日 立</w> 129
拼 色</w> 129
鏈 帶 129
健 康</w> 129
攝 影</w> 129
元 氣 129
擺 飾 129
亮 片</w> 129
椅 墊 129
矮 凳 129
司 機 129
蒂 芬 129
監 視 129
測 量 129
遠 程 129
擦 拭 129
蘿 莉 129
ba i 129
bo bo 129
min iso</w> 129
ad d</w> 129
car t</w> 129
ho p</w> 129
30 mm</w> 129
短袖 衣服</w> 129
ff el</w> 129
40 碼</w> 129
25 5</w> 129
mb ps</w> 129
90 5</w> 129
lit e 129
over size</w> 129
置物架 落地 129
spe cs</w> 129
hi dden</w> 129
skin food</w> 129
一字 帶 129
adidas 三葉草 129
出清 特價</w> 129
荔枝 皮</w> 129
sco tch</w> 129
太空 鋁 129
記憶 體</w> 129
flow y</w> 129
radi ator</w> 129
abo ut</w> 129
復仇者 聯盟 129
yuanroro 優質賣場</w> 129
fav or 129
fon dant</w> 129
spark ling</w> 129
inse ct</w> 129
anten na</w> 129
hori z 129
refri ger 129
神 秘 128
手 串</w> 128
手 柄</w> 128
t 8 128
u pper</w> 128
b ond</w> 128
三 條 128
多 拉 128
圖 騰</w> 128
5 寸 128
掛 勾 128
k ed</w> 128
不 凋 128
雙 色</w> 128
重 工 128
奶 奶 128
f p 128
f inger 128
指 示 128
靴 女 128
超 硬 128
j or 128
男 潮 128
街 頭</w> 128
w j 128
飛 人 128
柚 子 128
離 合 128
領 結 128
東 立 128
刮 痧 128
枸 杞 128
凱 莉 128
擋 板 128
副 食品 128
須 刀 128
勿 下標</w> 128
co di 128
on g 128
ba pe</w> 128
to 1</w> 128
ti k 128
bo mber</w> 128
lu bri 128
ma de 128
sho w 128
ko be 128
br it 128
mp ers</w> 128
百搭 款 128
11 6 128
男士 手錶 128
80 5</w> 128
pow dered</w> 128
je sus</w> 128
sc ul 128
沙發 床</w> 128
son y 128
pen c 128
fla g</w> 128
寬松 百搭 128
mk 手錶</w> 128
a5 1</w> 128
tren ch</w> 128
luck y 128
lun ar 128
梳妝 台 128
七分 褲</w> 128
絕版 品</w> 128
plat es</w> 128
best way</w> 128
beat le</w> 128
embo ssed</w> 128
breast feeding</w> 128
defen se</w> 128
recei ver</w> 128
土耳 其 128
perman ent</w> 128
大 方</w> 127
大 台北 127
7 寸 127
1 組 127
e uro</w> 127
臺 面 127
生 存 127
萬 圣 127
l r 127
簡 易</w> 127
純 色</w> 127
直 排 127
o c</w> 127
火 烈 127
套 装 127
心 型 127
可 拆</w> 127
可 參考</w> 127
音 器</w> 127
音 波 127
短 版</w> 127
藍 牙</w> 127
奶 粉</w> 127
3 cm</w> 127
管 道 127
初 音 127
二 合一</w> 127
寬 褲 127
好 好 127
精 英 127
影 樓 127
圍 欄</w> 127
檔 案 127
鐵 盒 127
干 濕 127
衝 鋒 127
採 用 127
擦 手 127
死 皮 127
it i</w> 127
al ma</w> 127
en ts</w> 127
po ts</w> 127
la c</w> 127
00 2 127
201 2 127
ab ac 127
ko ko</w> 127
運動 短褲 127
30 x 127
tr ail</w> 127
vi s 127
pi er 127
ele d</w> 127
col a</w> 127
60 2</w> 127
韓國 連線 127
客廳 餐廳 127
可愛 動物 127
mon tero</w> 127
70 cm</w> 127
化妝 刷 127
辦公 椅</w> 127
玩具 店</w> 127
精品 店</w> 127
簡易 書架 127
woo fer</w> 127
the a</w> 127
香奈兒 chanel 127
fly knit 127
一體 式 127
smo ke</w> 127
ster y</w> 127
armo ur 127
160 0</w> 127
闊腿 褲</w> 127
roo ts 127
郵差 包 127
tech ni 127
ox ford</w> 127
ave eno</w> 127
韓妞 必備</w> 127
refle ctive</w> 127
藤原 浩 127
reg ul 127
enh ancer</w> 127
後視 鏡 127
ign ition</w> 127
warri ors</w> 127
超取請 聊聊我</w> 127
gour met</w> 127
transfor mer</w> 127
rescu e</w> 127
2 15</w> 126
1 liter</w> 126
0 15</w> 126
0 14</w> 126
6 吋 126
t 3</w> 126
t ac 126
g on</w> 126
b en</w> 126
l m 126
半 高領 126
掛 袋 126
插 畫 126
8 x</w> 126
抽 紙盒 126
防 塵</w> 126
夏 涼 126
水 溶 126
游 戲</w> 126
名 偵探 126
兩 面 126
i sta</w> 126
女 男 126
寬 肩帶 126
燈 led 126
風 機 126
家 族 126
實 品 126
紗 裙 126
流 水 126
成 功 126
豬 小 126
喜 糖 126
耳 墜</w> 126
另 售 126
等 身 126
冰 塊 126
班 服 126
普 普 126
黏 貼 126
終 極 126
喬 治 126
誠 信 126
lo ss</w> 126
sh ine 126
on yx</w> 126
am d</w> 126
ki sses</w> 126
50 2</w> 126
car amel</w> 126
簡約 創意 126
we i 126
be er</w> 126
pi mp 126
100 ml 126
ligh ten 126
40 5</w> 126
ju icer</w> 126
go o</w> 126
套裝 組</w> 126
牛皮 紙 126
mu d</w> 126
22 cm</w> 126
2018 夏季新款 126
sy nc</w> 126
大尺 寸 126
fol der</w> 126
polo shirt</w> 126
冬季 保暖 126
om nia</w> 126
wil l</w> 126
荔枝 皮 126
pos ket</w> 126
fru its</w> 126
情人節 禮物 126
wr inkle</w> 126
轉換 器</w> 126
fresh ener</w> 126
附購買 憑證</w> 126
蠟筆小 新 126
stan ley</w> 126
菲拉格 慕 126
yun teng</w> 126
四葉 草 126
emo ji</w> 126
bomb shell</w> 126
spray er</w> 126
無紡 布 126
volcan ic</w> 126
神 仙 125
手 排</w> 125
2 13</w> 125
a ura</w> 125
g l</w> 125
v 領</w> 125
直 條紋 125
5 10</w> 125
長 版</w> 125
8 oz</w> 125
厚 款 125
五 色 125
不 退 125
防 蟲 125
有 貨</w> 125
兩 件</w> 125
藍 寶 125
護 具</w> 125
c x 125
f las 125
n x 125
3 n1</w> 125
全 部 125
高 潮</w> 125
中 號</w> 125
x 12</w> 125
珍 品下殺</w> 125
j t</w> 125
挎 包 125
最 高 125
魔 女 125
平 民 125
商 務</w> 125
熊 貓</w> 125
貼 布</w> 125
圓 型 125
胖 妹妹 125
帽 衫</w> 125
漫 威</w> 125
幻 彩 125
造 景 125
森 女 125
娜 娜 125
筷 子</w> 125
父 親 125
熨 斗 125
ar 24 125
le e 125
di et</w> 125
mo ul 125
mo st</w> 125
qu es</w> 125
50 cm</w> 125
il l 125
tr unk</w> 125
we i</w> 125
手提 式 125
手提 肩背 125
經典 格紋 125
16 oz</w> 125
je t 125
cle s</w> 125
透氣 舒適 125
stri ps</w> 125
戶外 防水 125
上衣 女</w> 125
mu ji</w> 125
man u 125
gg ed</w> 125
太陽 傘 125
簡約現代 經濟型 125
防曬 霜 125
chi e</w> 125
lan e</w> 125
33 3</w> 125
筆記本 電腦桌 125
a7 2018</w> 125
burberry 巴寶莉 125
goo gle</w> 125
東京 迪士尼 125
漁夫 鞋</w> 125
新品上 架</w> 125
小小 兵</w> 125
panas onic 125
馬丁 靴</w> 125
自由 組合 125
kl airs</w> 125
gog oro</w> 125
bao feng</w> 125
thri fted</w> 125
kra ft</w> 125
celebr ity</w> 125
hyalur onic</w> 125
stud ded</w> 125
手 沖 124
大 力 124
大 風 124
乳 霜 124
4 99 124
e ty</w> 124
d 3 124
g 7 124
s cho 124
配 方 124
o wn</w> 124
9 a</w> 124
p j</w> 124
全 方 124
植 萃 124
年 輕 124
w b</w> 124
w en 124
w yi</w> 124
黑 板 124
腰 部 124
網 球 124
桌 布</w> 124
彈 力</w> 124
胡 椒 124
碳 纖 124
趴 趴 124
煤 油 124
守 護 124
冒 險 124
嚕 嚕 124
誠 品 124
st amp 124
sh u</w> 124
se tting</w> 124
ma inten 124
th ers</w> 124
po le</w> 124
ne stle</w> 124
ra men</w> 124
sp er 124
te en 124
de te 124
de fin 124
de vice</w> 124
sam pler</w> 124
je an</w> 124
sa ge</w> 124
200 2</w> 124
化妝 臺</w> 124
17 1</w> 124
性感 百搭 124
cam ry</w> 124
太陽 帽</w> 124
ja y 124
石英 手錶 124
優惠 價 124
整理 盒 124
古奇 gucci 124
英國 代購</w> 124
粉底 液 124
液晶 電視</w> 124
tak al</w> 124
buy 1 124
sar ah</w> 124
sj cam</w> 124
紀梵 希</w> 124
藤原 浩</w> 124
佩佩 豬 124
quil ted</w> 124
丁字 褲</w> 124
庫洛 魔法 124
來令 片</w> 124
turtle neck</w> 124
4 oz</w> 123
t pad</w> 123
h ex 123
g ps 123
卡 夢</w> 123
圖 書</w> 123
美 味 123
克 麗 123
5 色</w> 123
加 絨</w> 123
童 車 123
奧 利 123
雙 拉鏈 123
對 講 123
i pa 123
n 9 123
跑 車 123
鞋 架子 123
自 動</w> 123
全 屏 123
年 終 123
複 合 123
頂 級</w> 123
w ea 123
雨 刷 123
幼 童 123
褲 襪 123
柴 犬</w> 123
聲 控 123
傘 狀 123
針 耳環</w> 123
濃 密 123
溜 冰鞋 123
柯 南</w> 123
婚 禮</w> 123
強 效 123
孫 悟空</w> 123
采 用 123
徒 步 123
in as</w> 123
ar bu 123
20 22</w> 123
li l</w> 123
ap p</w> 123
ke ima 123
ab il 123
bi scu 123
sk ort</w> 123
創意 簡約 123
60 6</w> 123
cro codi 123
14 4 123
14 9</w> 123
ste ering</w> 123
sel l</w> 123
純棉 短袖 123
純棉 短袖</w> 123
stra ppy</w> 123
生活 館 123
chi p</w> 123
hon g 123
ze 55 123
筆記 型 123
整理 盒</w> 123
相機 包 123
j7 10</w> 123
auto light</w> 123
smo cked</w> 123
reju vin 123
益智 玩具 123
大型 犬 123
黃色 小 123
coco a</w> 123
人字 拖 123
東大 門</w> 123
cali for 123
god dess</w> 123
拍立 得 123
var sity</w> 123
伴手 禮</w> 123
台風行 家具</w> 123
potat o</w> 123
美杜 莎 123
萬圣 節 123
大 氣墊</w> 122
a ve</w> 122
e 27</w> 122
e vil</w> 122
夜 光</w> 122
s x 122
多 多 122
直 髮 122
o z 122
版 型</w> 122
不 脫 122
水 鞋 122
雙 效 122
發 泡 122
可 開 122
重 力 122
i ze</w> 122
c di</w> 122
訂 做</w> 122
熱 褲 122
熱 敷 122
全 黑 122
快 遞 122
拉 手 122
吊 籃 122
微 電腦 122
佛 珠 122
佛 像 122
持 久</w> 122
刻 度 122
睡 袋 122
足 浴 122
削 肩 122
稀 有</w> 122
迴 力 122
硫 化 122
鍛 煉 122
co w</w> 122
lo st</w> 122
al th</w> 122
ch u</w> 122
ti de</w> 122
pre order</w> 122
ver tical</w> 122
夏季 男士 122
80 元</w> 122
正品 全新</w> 122
che v 122
寶寶 兒童 122
長袖 衛衣</w> 122
par ty 122
廚房 生活 122
17 8</w> 122
tri m</w> 122
蕾絲 花邊 122
35 5</w> 122
cal ci 122
fen der</w> 122
sen sual</w> 122
af ter</w> 122
原裝 進口 122
一體 成 122
荔枝 紋</w> 122
pin ky</w> 122
蝙蝠 俠 122
tee ther</w> 122
人字 拖</w> 122
深層 清潔 122
hermes 愛馬仕 122
三腳 架</w> 122
滿299 發貨</w> 122
歐米 茄</w> 122
mother care</w> 122
史萊 姆 122
碳粉 匣</w> 122
mous se</w> 122
beaute derm</w> 122
從零 開始 122
小 禮服 121
a ero</w> 121
4 80</w> 121
6 10</w> 121
b g 121
花 器</w> 121
圖 解 121
單 眼 121
單 品 121
門 市 121
特 典 121
書 籤</w> 121
全 場</w> 121
私 處 121
後 照 121
日 立 121
擴 充 121
w x 121
內 裡</w> 121
近 全新 121
必 買 121
仿 實木 121
西 裝</w> 121
萊 卡 121
塗 鴉</w> 121
斐 樂 121
飼 料 121
薯 條 121
檸 檬</w> 121
st ap 121
th i 121
ne g 121
plu shie</w> 121
男女 皆 121
pi k 121
pe ti 121
mas er 121
fe mme</w> 121
北歐 客廳 121
小型 家用 121
小型 迷你 121
wel ding</w> 121
長款 錢包</w> 121
tro user</w> 121
mer cci 121
comp art 121
elect ri 121
sw ad 121
游戲 機 121
mang o 121
飛行 員 121
cham o 121
史密 斯 121
加肥 加大碼 121
loaf ers</w> 121
便條 紙</w> 121
sharpen er</w> 121
小 店 120
大 臉 120
2 x 120
6 40 120
r ina</w> 120
金 盞 120
服 務</w> 120
z h</w> 120
單 面 120
動 畫 120
9 1 120
8 a</w> 120
k ri 120
k ate 120
夏 裝</w> 120
水 藍</w> 120
假 睫毛 120
重 量 120
食 用 120
i w 120
i ris</w> 120
y oo 120
y 79</w> 120
打 亮 120
全 氣墊</w> 120
高 密 120
產 品</w> 120
頭 套 120
台 北</w> 120
雷 朋 120
油 性 120
少 量 120
圓 筒 120
沙 龍 120
抗 菌</w> 120
拆 賣</w> 120
冰 冰 120
巧 虎 120
鏤 空</w> 120
賽 亞 120
隨 便 120
豹 紋</w> 120
or ts</w> 120
al len</w> 120
ch ri 120
si sley</w> 120
cas tle 120
mo ck</w> 120
so dium</w> 120
運動 襪</w> 120
car har 120
ter ra</w> 120
全新 轉賣</w> 120
ing a</w> 120
mar tin</w> 120
學生 鞋</w> 120
uni verse</w> 120
80 2</w> 120
24 k 120
沙發 椅</w> 120
ps 2</w> 120
stre ss</w> 120
兩件 套裝 120
沙灘 褲 120
辦公室 桌面 120
2016 年 120
sou th</w> 120
plan et</w> 120
包裝 袋</w> 120
空調 被 120
mam ba</w> 120
eas y 120
緊身 褲</w> 120
oc cas 120
ast ac 120
葡萄 酒 120
mate 20 120
防彈少年 團 120
2n 1</w> 120
absor bent</w> 120
mv p</w> 120
jon i</w> 120
風火 輪</w> 120
sens itive</w> 120
哥吉 拉</w> 120
gymbo ree</w> 120
arbu tin</w> 120
紅 米</w> 119
r ust</w> 119
g n</w> 119
電 鍍</w> 119
b 5</w> 119
美 人</w> 119
o wn 119
布 袋 119
插 花 119
k c</w> 119
防 藍光 119
果 凍</w> 119
雙 層</w> 119
可 樂</w> 119
m 4</w> 119
c ig 119
n ms</w> 119
打 造 119
3 色 119
自 取 119
上 盆 119
高 亮 119
北 京 119
中 秋 119
私 訊 119
x ion</w> 119
絲 滑 119
奇 異 119
w h</w> 119
數 顯 119
太 極 119
老 師</w> 119
黑 貓 119
軟 套</w> 119
軟 管 119
彩 妝</w> 119
酒 紅色 119
升 級</w> 119
母 嬰 119
久 保 119
別 針 119
腳 墊</w> 119
東 立</w> 119
夫 妻 119
邊 框</w> 119
橫 款 119
合 成 119
草 坪 119
主 食 119
安 全</w> 119
勇 士 119
碎 花</w> 119
言 情 119
彼 得 119
复 古 119
in i 119
re tail</w> 119
co in 119
ch ap 119
ti res</w> 119
10 2 119
ma king</w> 119
ap ie 119
ke ys</w> 119
so ph 119
bl in 119
ho les</w> 119
mat t</w> 119
客廳 裝飾 119
mon t</w> 119
par ker</w> 119
bur n</w> 119
ge m</w> 119
26 5</w> 119
bracele ts</w> 119
家居 館</w> 119
保暖 外套</w> 119
lan g</w> 119
sw an</w> 119
lun ar</w> 119
一體 機 119
無袖 背心</w> 119
gro w</w> 119
sha ft</w> 119
sco tt</w> 119
drag on 119
羽絨 服 119
3m 反光</w> 119
cin derella</w> 119
joy stick</w> 119
投影 儀 119
ox y 119
given chy 119
火影 忍者</w> 119
saf ari</w> 119
小丸 子 119
kak ao</w> 119
點煙 器 119
撲克 牌</w> 119
nova5 t</w> 119
冷淡 風 119
角落小夥 伴</w> 119
莫斯 奇 119
industri al</w> 119
rejuvin ating</w> 119
apie u</w> 119
小 宅 118
小 美人魚</w> 118
紅 綠 118
2 色 118
2 款</w> 118
r j 118
e ter 118
b m</w> 118
b 37 118
b ha</w> 118
變 焦 118
美 版</w> 118
無 煙 118
接 口 118
金 毛 118
z el 118
掛 袋</w> 118
座 墊</w> 118
面 紙 118
面 具 118
衣 板 118
火 星 118
不 是 118
夏 款 118
鼠 年 118
可 口 118
可 發 118
可 改 118
短 款</w> 118
護 膝 118
y 75</w> 118
f d 118
爽 膚 118
馬 甲</w> 118
x p</w> 118
明 日 118
頂 上 118
w d 118
麗 莎 118
醫 生 118
練 字 118
蘇 菲 118
蛇 紋 118
聲 寶</w> 118
紀 念</w> 118
草 帽</w> 118
聚 會 118
首 刷 118
歲 月</w> 118
蒂 芙 118
聰 明 118
lo ne 118
on i 118
to k</w> 118
am ore</w> 118
la de 118
wat tpad</w> 118
per t</w> 118
ju li 118
15 4</w> 118
客廳 玄關 118
防水 臺 118
he li 118
沙發 凳 118
flor a</w> 118
por sche</w> 118
手工 藝 118
iphone 7 118
電動 摩托車 118
儲物 櫃</w> 118
條紋 上衣</w> 118
fun ny</w> 118
chi bi</w> 118
bar ako</w> 118
120 cm</w> 118
san it 118
公主 裙 118
cal ming</w> 118
play ing</w> 118
手機殼 蘋果 118
fra red</w> 118
內衣 女 118
禮盒 裝</w> 118
a7 9</w> 118
吧臺 椅 118
sol di 118
pig gy</w> 118
316 l 118
indi an</w> 118
含稅 附發票</w> 118
gog oro 118
法拉 利 118
可攜 式 118
acou stic</w> 118
califor nia</w> 118
小 貓 117
小 可愛 117
大 耳 117
7 11</w> 117
2 kl</w> 117
6 月 117
h t 117
h n 117
h ak 117
d angle</w> 117
g ang</w> 117
電 機 117
u ten 117
學 習</w> 117
卡 拉 117
變 身 117
一 代</w> 117
兔 兔</w> 117
5 28 117
長 頸 117
8 折</w> 117
烤 盤 117
水 桶</w> 117
果 蔬 117
雙 面</w> 117
可 換 117
可 穿 117
p 2</w> 117
量 販 117
c as</w> 117
極 光 117
極 緻 117
指 環</w> 117
全 系列 117
絨 毛</w> 117
好 穿</w> 117
家 的 117
貓 爬 117
實 惠 117
j c 117
男 表 117
行 政 117
海 豚 117
w en</w> 117
建 築 117
軍 綠 117
摩 洛 117
扭 扭 117
未 開 117
寵 愛 117
段 式 117
杜 嘉 117
枚 入</w> 117
曲 線 117
烏 龜 117
in frared</w> 117
re new 117
st he 117
sh in</w> 117
20 9</w> 117
di c</w> 117
10 6 117
201 3 117
su ction</w> 117
mi le</w> 117
運動 電子 117
wh o</w> 117
男女 生</w> 117
18 4</w> 117
fi lip 117
con cer 117
sam son 117
15 w</w> 117
19 2</w> 117
防水 布 117
go ku</w> 117
je ggings</w> 117
長袖 衛衣 117
par adi 117
折疊 桌</w> 117
t恤 男 117
dr one</w> 117
35 ml</w> 117
35 mm</w> 117
落地 燈 117
conver se 117
男鞋 子 117
電視 櫃</w> 117
the med</w> 117
ken ne 117
可拆 洗</w> 117
官方 正品</w> 117
媽咪 包</w> 117
shop kins</w> 117
poly ester</w> 117
esp rit</w> 117
bay max</w> 117
pli age</w> 117
二件 式 117
rele ase</w> 117
mainten ance</w> 117
小 ck 116
0 17</w> 116
6 70 116
r u</w> 116
h u</w> 116
e ma</w> 116
g ain</w> 116
g ag 116
g ly 116
s z</w> 116
三 國 116
花 藝 116
多 口袋 116
直 營</w> 116
z ero 116
z inc</w> 116
o u</w> 116
膠 條</w> 116
員 工 116
整 理</w> 116
不 二 116
歐 式</w> 116
光 燈 116
p m2</w> 116
m igh 116
y r</w> 116
c z 116
c ci</w> 116
女 包包</w> 116
自 有 116
全 包</w> 116
文 胸</w> 116
家 飾</w> 116
x 1 116
超 聲波 116
氣 壓 116
w and</w> 116
刷 街 116
黑 糖 116
開 心 116
淺 藍</w> 116
四 層 116
四 軸 116
褲 裙 116
復 活 116
種 植 116
胡 迪</w> 116
湯 鍋</w> 116
貴 婦 116
坑 條 116
龐 克 116
煥 膚 116
楊 冪 116
絞 肉 116
繃 帶 116
an ts</w> 116
ar twork</w> 116
en tal</w> 116
ro y</w> 116
mo mo 116
de co</w> 116
ke ep</w> 116
ki ki</w> 116
12 色 116
sk ate 116
18 7</w> 116
11 代</w> 116
pi zza</w> 116
pe i</w> 116
100 入</w> 116
16 00 116
單肩 手提 116
bat e</w> 116
bb w</w> 116
14 2</w> 116
13 6</w> 116
32 g 116
adidas 阿迪達斯 116
雜貨 舖</w> 116
國際 牌 116
decor ative</w> 116
超人 氣 116
床單 被套 116
低音 炮 116
週年 紀念 116
天鵝 絨 116
同人 誌</w> 116
int elli 116
蛤蟆 鏡</w> 116
下午 茶 116
milk tea</w> 116
boar d 116
rev lon</w> 116
plac enta</w> 116
ante ed</w> 116
維多 利亞 116
hul k</w> 116
giord ano</w> 116
哈利 波 116
refriger ator</w> 116
regul ator</w> 116
杜嘉 班 116
小 金 115
手 拿</w> 115
大 全</w> 115
杏 色 115
t d 115
r as 115
卡 套 115
直 升 115
增 壓 115
印 刷 115
5 成新</w> 115
板 橋 115
木 雕 115
背 膠 115
i k</w> 115
c 6</w> 115
女 友 115
全 罩 115
全 家</w> 115
月 亮</w> 115
素 描 115
j ag 115
天 下</w> 115
開 檔 115
內 有 115
油 畫</w> 115
索 尼</w> 115
柔 膚 115
平 安</w> 115
和 紙膠帶</w> 115
q c3</w> 115
溫 控 115
鐘 錶 115
唇 蜜</w> 115
按 壓式 115
邊 幾</w> 115
聖 誕</w> 115
罐 頭</w> 115
隔 層 115
帆 船 115
勇 者 115
艾 莉 115
什 麼 115
窄 管 115
as us 115
ch el 115
li sh 115
ro asted</w> 115
se duction</w> 115
po mpo 115
da d</w> 115
休閒 外套</w> 115
收納 籃 115
blu sher</w> 115
18 650</w> 115
韓國 可愛 115
pu ff 115
16 4</w> 115
16 9</w> 115
hu ang</w> 115
24 9</w> 115
sc ato</w> 115
wa ffle</w> 115
gi ve</w> 115
gra pe</w> 115
印花 短t</w> 115
sty le 115
bel tbag</w> 115
hand s</w> 115
iphone 11pro</w> 115
man icure</w> 115
bri dal</w> 115
儲物 盒 115
88 8 115
限時 優惠 115
衣服 架子 115
is a</w> 115
浴室 衛生間 115
usb 充電</w> 115
必備 款</w> 115
青年 學生 115
sha ver</w> 115
電源 供應 115
招財 貓 115
pul ley</w> 115
奶茶 色</w> 115
包屁 衣 115
die cast</w> 115
多美 小汽車</w> 115
sav ing</w> 115
bey blade</w> 115
新百 倫</w> 115
soap s</w> 115
五角 星 115
iso prop 115
stam ps</w> 115
木耳 邊 115
mmi es</w> 115
miya ke</w> 115
ipa ky</w> 115
crocodi le</w> 115
isoprop yl</w> 115
2 手</w> 114
h s 114
s ala 114
花 紋</w> 114
作 品</w> 114
l x 114
l tb</w> 114
牛 肉 114
克 拉 114
o il 114
除 菌 114
防 腐 114
裝 修 114
名 牌</w> 114
m 號 114
y ur 114
f 0 114
f x 114
初 回 114
百 合 114
x z</w> 114
頭 巾</w> 114
j 1 114
行 者 114
w el</w> 114
內 襯 114
預 定 114
q 10</w> 114
母 子 114
蜜 粉 114
蜜 蜂</w> 114
民 謠 114
結 單</w> 114
城 堡 114
章 魚 114
湯 匙 114
慕 斯</w> 114
扇 子</w> 114
紐 西 114
藻 土 114
le ash</w> 114
st ella</w> 114
un g 114
ti le</w> 114
th ong</w> 114
th under</w> 114
and er 114
qu in 114
qu ad</w> 114
car ry 114
ho tel</w> 114
ter ran 114
do om</w> 114
韓版 休閒 114
兒童 床 114
cre pe</w> 114
18 6</w> 114
11 5 114
pi a</w> 114
ta c</w> 114
mat tress</w> 114
16 6</w> 114
13 9</w> 114
chan g</w> 114
ach i 114
ach u</w> 114
her it 114
女士 手提包</w> 114
clo ver</w> 114
99 0</w> 114
精品 包</w> 114
精品 包包</w> 114
iphone 6 114
55 5 114
bri dge</w> 114
vin e 114
stor ies</w> 114
限時 搶購</w> 114
der ma 114
sl r</w> 114
ha zel</w> 114
zz y</w> 114
工作 服</w> 114
全自動 機械 114
小白 鞋女 114
plan ts</w> 114
包裝 盒</w> 114
游泳 衣</w> 114
mol der</w> 114
三星 標</w> 114
dior 迪奧</w> 114
cit rus</w> 114
泰迪 熊 114
信封 包 114
口罩 套</w> 114
cover s</w> 114
薰衣 草</w> 114
無印 良品 114
萬寶 龍</w> 114
guar anteed</w> 114
唐老 鴨 114
永生 花 114
試用 包</w> 114
蕾哈 娜 114
mont blanc</w> 114
divi ded</w> 114
choo se</w> 114
iron man</w> 114
dess ert</w> 114
小 新 113
手 珠 113
r 7</w> 113
s gs 113
無 痕</w> 113
一 鍵 113
一 生</w> 113
o o</w> 113
5 折</w> 113
線 條</w> 113
機 能</w> 113
8 ml</w> 113
8 50</w> 113
韓 風</w> 113
盤 子</w> 113
車 充</w> 113
眼 睛</w> 113
y n 113
y 3 113
鞋 帶</w> 113
原 色 113
原 液 113
中 小童 113
星 空</w> 113
快 拆 113
淺 色 113
四 腳 113
內 附 113
桌 墊</w> 113
得 力 113
艾 斯</w> 113
鳥 籠 113
毯 子</w> 113
應 急 113
ro mpers</w> 113
un lock</w> 113
ti fied</w> 113
bo ws</w> 113
po pu 113
sp in 113
cas tle</w> 113
ea 7 113
201 80 113
mo cha</w> 113
de light</w> 113
tt es</w> 113
las er 113
gh ts</w> 113
日本 正版 113
wi se</w> 113
fi e 113
con tin 113
desig ned</w> 113
寶寶 嬰兒 113
tu res</w> 113
he i 113
玻璃 殼</w> 113
個性 時尚 113
網紅 ins風 113
咖啡 豆</w> 113
hoo dy</w> 113
組合 包</w> 113
she y</w> 113
大尺 寸</w> 113
厚底 松糕 113
y5 ii</w> 113
customi ze</w> 113
記憶 棉 113
多肉 植物 113
吸盤 式 113
arti st</w> 113
零錢 袋</w> 113
ful ly</w> 113
卡地 亞</w> 113
concentr ate</w> 113
bee tle</w> 113
理發 店 113
巴斯 光 113
蒙古 包 113
人體工 學 113
purit an</w> 113
4 cm</w> 112
t 2</w> 112
e mul 112
g c</w> 112
b 4 112
代 餐 112
購 回</w> 112
卡 比 112
多 款</w> 112
多 格 112
單 冷 112
版 本 112
加 壓 112
童 趣 112
薄 紗 112
背 巾</w> 112
p aid</w> 112
眼 膜</w> 112
短 上衣</w> 112
襪 套 112
i g</w> 112
i f</w> 112
y ves</w> 112
3 kg</w> 112
精 密 112
斜 口 112
洗 腳 112
屁 股 112
豬 豬 112
魔 幻 112
腰 掛 112
熊 大 112
扣 腰帶 112
枕 套 112
民 國 112
翻 糖 112
翻 蓋</w> 112
鐵 盒</w> 112
福 特</w> 112
造 景</w> 112
樹 葉 112
向 日 112
如 圖</w> 112
跳 蛋 112
li z</w> 112
ba i</w> 112
ti er 112
bo unce</w> 112
ra t</w> 112
so ul 112
現貨 熱銷</w> 112
全新 正版</w> 112
vi al</w> 112
百搭 韓版 112
創意 可愛 112
men ow</w> 112
客廳 家用 112
24 v</w> 112
牛仔 長褲 112
慢跑 褲</w> 112
70 3</w> 112
mag s</w> 112
沙發 背景墻 112
den tal</w> 112
卡通 印花 112
歐美 潮牌 112
男生 衣著</w> 112
cha ins</w> 112
mk s 112
comp any</w> 112
star ry</w> 112
fin d</w> 112
三件 式 112
my stery</w> 112
甜美 可愛 112
禮盒 裝 112
van tage</w> 112
inst ru 112
eu c</w> 112
flu ffy</w> 112
紙巾 盒</w> 112
我的 英雄 112
ner f</w> 112
護手 霜 112
刀劍 亂 112
無印 良品</w> 112
請先 詢問 112
mh z</w> 112
phy si 112
飲水 機 112
驚喜 價 112
door mat</w> 112
lolit a 112
olymp us</w> 112
新加 坡 112
俱樂 部</w> 112
戴妃 包</w> 112
rush guard</w> 112
夏威 夷 112
lubri c 112
手 帳</w> 111
1 300</w> 111
g f</w> 111
會 客 111
美 式</w> 111
l h</w> 111
l ashes</w> 111
牛 軋 111
增 強 111
金 邊 111
布 鞋</w> 111
掛 布 111
儲 蓄 111
不 會 111
水 感 111
書 房</w> 111
零 售</w> 111
m to</w> 111
y t</w> 111
c g</w> 111
f li 111
熱 帶 111
紙 尿 111
愛 買</w> 111
風 車</w> 111
好 穿 111
中 袖 111
產 后 111
禮 包</w> 111
啞 鈴 111
斜 跨</w> 111
w th</w> 111
起 子</w> 111
殺 手包</w> 111
老 公 111
相 容</w> 111
補 丁 111
春 天 111
耐 摔 111
周 年</w> 111
懸 掛式 111
牆 貼 111
穿 過 111
朋 克 111
安 心 111
導 航</w> 111
刺 激</w> 111
備 註 111
艾 灸 111
醬 油 111
盥 洗 111
lo ad</w> 111
en ti 111
20 7</w> 111
lu s 111
ic ed</w> 111
ic ks</w> 111
de vil</w> 111
男女 情侶鞋</w> 111
bu 9 111
adi an</w> 111
fl o</w> 111
100 m</w> 111
台灣 熱 111
24 7 111
24 寸 111
jo ker</w> 111
lv 新款 111
印花 logo 111
玩具 車</w> 111
便攜 式</w> 111
歐美 爆款 111
男生 女生 111
kin e 111
wel l 111
cap ri</w> 111
dri ving</w> 111
衛生 紙 111
note 3</w> 111
浴室 鏡 111
nike 鞋</w> 111
音樂 盒 111
pol k 111
fur y 111
goo ds</w> 111
鋼化玻璃 膜</w> 111
gla di 111
240 ml</w> 111
調味 料 111
隔離 霜</w> 111
mou se 111
掛墻 式 111
s10 e</w> 111
sad dle</w> 111
克羅 心 111
kee per</w> 111
tisso t 111
植村 秀</w> 111
oper ated</w> 111
repel lent</w> 111
買就 送 111
terran ova</w> 111
vine gar</w> 111
新 北 110
大 燈</w> 110
的 家</w> 110
7 號 110
0 21</w> 110
r anger</w> 110
電 力 110
b ale</w> 110
三 重 110
同 學 110
一 年 110
半 圓 110
半 袖</w> 110
金 絲絨 110
門 窗 110
掛 耳式 110
式 耳機</w> 110
面 交 110
現 場 110
除 螨 110
不 要 110
鋼 托 110
本 命 110
p 3 110
p al</w> 110
眼 罩 110
兩 色可選</w> 110
護 髮</w> 110
n ine 110
分 售</w> 110
馬 桶</w> 110
上 的 110
x c 110
袋 子</w> 110
霧 化 110
支 裝 110
世 家</w> 110
鑽 石</w> 110
細 緻 110
涼 拖</w> 110
相 冊 110
褲 帶</w> 110
墨 水</w> 110
玩 家</w> 110
呢 子 110
砂 輪 110
參 考 110
每 日 110
震 動</w> 110
八 角 110
教 室 110
皇 冠</w> 110
炒 鍋 110
裸 色 110
柵 欄 110
橢 圓形 110
as tro</w> 110
st o</w> 110
en ix</w> 110
ne st</w> 110
su m 110
pr m</w> 110
bl 漫畫</w> 110
休閒 板鞋</w> 110
12 ml</w> 110
30 8</w> 110
tr ash</w> 110
ss o</w> 110
pi one 110
pl s</w> 110
av an 110
16 5 110
15 7</w> 110
沙發 套 110
lv 皮帶</w> 110
2020 春季新款 110
flo ater</w> 110
28 5</w> 110
fil ler</w> 110
gar nish</w> 110
防曬 衣</w> 110
har den</w> 110
ha wai 110
單人 床 110
y6 ii</w> 110
hd d</w> 110
三眼 怪 110
原裝 正品</w> 110
wil li 110
diam on 110
英文 版</w> 110
毛衣 女 110
新生 兒</w> 110
base us</w> 110
dw 手錶 110
可坐 可躺 110
螢光 綠</w> 110
證件 套</w> 110
近視 眼鏡 110
pean uts</w> 110
excel lent</w> 110
kids wear</w> 110
detai ls</w> 110
square pants</w> 110
瑪莎拉 蒂 110
seph ora</w> 110
多媒 體 110
concer t</w> 110
小 車</w> 109
大 學</w> 109
抹 布 109
杏 色</w> 109
2 人 109
2 cm</w> 109
g 家 109
電 話</w> 109
b ite</w> 109
金 鍊 109
z m</w> 109
保 潔 109
膠 水</w> 109
體 育 109
雙 翹 109
發 卡 109
名 器</w> 109
兩 款 109
護 理</w> 109
女 潮 109
鞋 男 109
3 40 109
菜 板 109
全 皮</w> 109
雪 糕 109
年 中 109
中 褲 109
紗 窗 109
時 間</w> 109
海 苔 109
w av 109
吊 帶</w> 109
開 衫</w> 109
淺 灰</w> 109
潤 髮 109
圍 脖 109
救 生 109
遙 控</w> 109
山 居 109
冰 涼 109
睡 袍 109
滴 膠 109
市 場 109
扮 家家</w> 109
虧 本 109
lo ver</w> 109
st ande 109
20 6</w> 109
me ss 109
to my 109
ri hanna</w> 109
ol d 109
us ing</w> 109
us 10</w> 109
mo mo</w> 109
ab le 109
ab str 109
wo c 109
休閒 百搭</w> 109
男女 情侶款</w> 109
短袖 襯衫 109
fi dget</w> 109
con stru 109
mas ter 109
15 mm</w> 109
sa em</w> 109
長袖 t</w> 109
折疊 式 109
汽車 用品</w> 109
her shey</w> 109
戶外 登山 109
cha in 109
dr ain</w> 109
mil l</w> 109
家居 家具 109
woo d 109
sl acks</w> 109
fig u 109
保溫 瓶 109
工作 鞋</w> 109
下單 前 109
33 1</w> 109
colla p 109
機車 包</w> 109
香港 迪士尼 109
無袖 洋裝</w> 109
親子 裝 109
便宜 出清</w> 109
gs c</w> 109
lac es</w> 109
四角 褲</w> 109
fal con</w> 109
卡其 色 109
preci sion</w> 109
clar i 109
布丁 狗</w> 109
大師 圖書 109
控制 器</w> 109
toy castle 109
素顏 霜</w> 109
火影 忍者 109
雪莉 玫</w> 109
button ed</w> 109
陳冠 希 109
主持 人 109
理膚寶 水</w> 109
新品特價 台灣熱 109
keima v</w> 109
從零開始 的 109
lade sh</w> 109
migh ty</w> 109
toycastle 3</w> 109
小 風扇</w> 108
小 羊皮</w> 108
新 色 108
大 大 108
2 k</w> 108
1 100</w> 108
a 款</w> 108
h k 108
g 2</w> 108
s as 108
s ap 108
萬 代 108
花 香 108
作 品 108
無 油 108
5 w 108
k r 108
斗 櫃</w> 108
奧 迪 108
烤 漆</w> 108
果 盤 108
雙 11 108
筆 筒</w> 108
音 量 108
i pan 108
粉 碎 108
雪 紡</w> 108
超 柔 108
超 可愛</w> 108
j l</w> 108
古 早 108
白 粉</w> 108
白 黑 108
白 勾</w> 108
最 強 108
錶 盤</w> 108
雷 霆</w> 108
內 襯</w> 108
熊 抱 108
香 吉 108
翻 譯 108
搶 先 108
船 型 108
刮 胡 108
握 把</w> 108
瑞 典 108
睡 裙</w> 108
比 熊 108
票 夾</w> 108
烏 克麗 108
鯉 魚 108
in fan 108
as y 108
ro s</w> 108
to ur 108
ti e 108
10 元</w> 108
10 cm</w> 108
ne twork</w> 108
la ge</w> 108
ph ar 108
su baru</w> 108
時尚 韓版 108
pre paid</w> 108
50 入</w> 108
il ly</w> 108
pro ph 108
cu tl 108
wi d 108
18 9</w> 108
pe an</w> 108
創意 時尚 108
sam yang</w> 108
保護 貼 108
gra b</w> 108
dis count</w> 108
ten er</w> 108
秋冬 新款韓版 108
stri ke</w> 108
500 ml 108
32 3</w> 108
45 mm</w> 108
75 g</w> 108
bre e 108
64 g 108
床頭 燈 108
star wars</w> 108
23 2</w> 108
拉鏈 錢夾</w> 108
bra zi 108
全場 促銷</w> 108
600 g</w> 108
春秋 款 108
band ana</w> 108
翻蓋 包</w> 108
mono gram 108
blan k</w> 108
半袖 上衣 108
armani 阿瑪尼</w> 108
自拍 神器</w> 108
防水防 油 108
播放 器</w> 108
vuitton 路易威登 108
indi vi 108
rect angle</w> 108
貓頭 鷹</w> 108
anth a</w> 108
iv ory</w> 108
新百 倫 108
卡地 亞 108
fire fly</w> 108
corre ction</w> 108
蘋果x 手機殼 108
一片 式 108
史黛 拉 108
ascor bate</w> 108
euro pean</w> 108
nutr ition</w> 108
jig saw</w> 108
dil do</w> 108
meas uring</w> 108
小 樣</w> 107
茶 包</w> 107
茶 桌</w> 107
2 個</w> 107
0 19</w> 107
t 5 107
g le 107
s la 107
三 合一</w> 107
三 明治 107
代 言 107
無 盒</w> 107
純 淨 107
z 2</w> 107
布 藝</w> 107
面 紙盒</w> 107
8 吋</w> 107
現 金 107
貨 號</w> 107
發 射 107
筆 筒 107
可 機 107
毛 孔</w> 107
f fl 107
n ing 107
極 品 107
紙 袋 107
二 層 107
上 課 107
中 的 107
休 息 107
尾 燈</w> 107
吊 床 107
攜 帶</w> 107
規 格 107
連 續 107
改 善 107
磨 豆 107
椅 背 107
簽 字 107
邊 桌</w> 107
西 點 107
角 度 107
壁 飾 107
選 擇 107
旋 風 107
飄 逸 107
檢 驗 107
貔 貅</w> 107
抑 菌 107
逗 貓 107
re tte</w> 107
co se</w> 107
le y 107
ac ce 107
ch box</w> 107
ch ase</w> 107
di an</w> 107
to s</w> 107
la gun 107
el er</w> 107
su p 107
現貨 熱銷 107
韓版 休閑 107
per spir 107
短袖 套裝 107
mas s</w> 107
潮流 鞋</w> 107
cor set</w> 107
cor por 107
北歐 簡約現代 107
bat tle</w> 107
gir dle</w> 107
sa ve</w> 107
sc a 107
14 3</w> 107
14 1</w> 107
gra ded</w> 107
實木 質 107
99 元</w> 107
stra y</w> 107
lip cream</w> 107
bri gh 107
ge m 107
長款 錢包 107
tro gen 107
mer ce 107
nu t 107
浴室 置物架 107
拉鏈 長夾</w> 107
cti on 107
bang ladesh</w> 107
nike 耐吉</w> 107
格子 襯衫</w> 107
adidas 愛迪達</w> 107
y6 pro2019</w> 107
水果 盤 107
cr ush</w> 107
臺式 機 107
孕婦 裝</w> 107
toi le 107
130 g</w> 107
全新正品 nike</w> 107
買一 送一 107
老年 人 107
婚紗 禮服 107
ox o</w> 107
fendi 芬迪 107
耐熱 玻璃 107
馬丁靴 女 107
ferragam o 107
bol ts</w> 107
調整 型 107
實物 拍攝</w> 107
行車記錄 器</w> 107
黑曜 石 107
買1 送1</w> 107
medic ine</w> 107
broo ch</w> 107
reci pe</w> 107
超長待 機 107
occ it 107
紐巴 倫</w> 107
親筆 簽名 107
亞馬 遜 107
buy1 take1</w> 107
電源供應 器</w> 107
popu lar</w> 107
abstr act</w> 107
大 包 106
大 黃 106
2 11</w> 106
0 10 106
4 000 106
6 l</w> 106
代 發</w> 106
卡 牌 106
作 業 106
皮 包 106
直 立 106
機 械</w> 106
8 g 106
體 恤</w> 106
套 筒</w> 106
p ine</w> 106
m 6</w> 106
i als</w> 106
打 擊 106
3 pro</w> 106
3 件組</w> 106
指 針 106
冬 季</w> 106
j 8 106
蘭 芝 106
白 綠</w> 106
羅 意 106
托 腹 106
華 倫 106
台 南</w> 106
速 乾</w> 106
枕 芯 106
麻 繩 106
泡 面 106
啟 蒙 106
冰 河 106
壁 式 106
釘 珠 106
坎 肩 106
艾 草 106
婚 房 106
核 心 106
講 義</w> 106
永 恆 106
裹 胸 106
re ra</w> 106
co b</w> 106
sh an 106
20 mm</w> 106
ro xy</w> 106
me x 106
ti ck</w> 106
ir a</w> 106
sho e 106
de tail</w> 106
12 oz</w> 106
30 m</w> 106
cre e 106
18 1</w> 106
60 x 106
du al 106
he al</w> 106
14 cm</w> 106
200 元</w> 106
女士 腕錶 106
lit er 106
gucci 女包</w> 106
跑步 健身 106
gg y</w> 106
防滑 墊 106
限定 版 106
打底 褲</w> 106
85 g</w> 106
bir kin</w> 106
cat or</w> 106
三角 形 106
加絨 保暖 106
模型 車</w> 106
耳環 女 106
77 7</w> 106
床上 用 106
西裝 夾</w> 106
包裝 袋 106
gro up</w> 106
ji mmy</w> 106
隱形 襪</w> 106
pvc 配 106
過濾 器 106
過濾 器</w> 106
exten der</w> 106
收納柜 子 106
高級 感 106
卡片 夾</w> 106
post card</w> 106
制服 誘惑 106
tiff any 106
gab ri 106
combin ed</w> 106
neu trogen 106
吸濕 排汗 106
打印 機 106
空軍一 號 106
法拉 利</w> 106
wave 125</w> 106
刀劍神 域</w> 106
cook ware</w> 106
espadri lle</w> 106
gho st</w> 106
全方 位 106
carhar tt</w> 106
kenne th</w> 106
cutl ery</w> 106
新 勁戰</w> 105
4 10</w> 105
d v</w> 105
s word</w> 105
化 學 105
一 體</w> 105
z ers</w> 105
5 40 105
門 鎖 105
8 寸 105
k abu 105
體 感 105
不 敗 105
雙 排扣 105
可 摺疊 105
可 貨到付款</w> 105
p n</w> 105
m 0 105
c ani 105
自 己</w> 105
全 省 105
原 文 105
中 控 105
超 夯 105
白 板 105
黑 藍 105
攻 略</w> 105
銷 售 105
倍 思</w> 105
酒 紅色</w> 105
調 色 105
來 自 105
頸 部 105
彈 簧</w> 105
吸 盤</w> 105
潑 墨</w> 105
鈦 晶 105
定 價</w> 105
炸 鍋</w> 105
澎 澎 105
扇 子 105
赤 足</w> 105
it as</w> 105
st ent</w> 105
en chan 105
to e 105
to toro</w> 105
ti ps</w> 105
la v 105
la bo</w> 105
ki ss 105
時尚 男士 105
ho lo 105
簡約 客廳 105
do re 105
ci ous</w> 105
be be</w> 105
pan er 105
ele t</w> 105
for ce 105
sli cer</w> 105
ex pert</w> 105
sc al 105
14 7</w> 105
新品 現貨 105
opp or 105
flo ur</w> 105
圓領 t</w> 105
can adian</w> 105
gar den 105
寬松 休閑 105
hi fi</w> 105
雙肩 背包 105
工具 套裝 105
dd le</w> 105
y6 7 105
multi ple</w> 105
持久 淡香 105
smo k</w> 105
垃圾 袋 105
摩托 車</w> 105
阿瑪尼 手錶</w> 105
眼影 盤 105
buil d</w> 105
洗面 乳 105
洗面 奶 105
花盆 架 105
小圓 桌 105
absor ber</w> 105
hyper dunk</w> 105
提亮 膚色 105
ultr as 105
cray on</w> 105
ggi e</w> 105
歐米 茄 105
loaf er</w> 105
小叮 噹</w> 105
超商取 貨 105
仰臥 起 105
season ing</w> 105
valu e</w> 105
flas k</w> 105
compart ment</w> 105
sanit ary</w> 105
herit age</w> 105
collap sible</w> 105
小 林 104
神 明 104
手 槍 104
大 人</w> 104
人 緣 104
1 代 104
6 x 104
d ora</w> 104
電 推 104
三 點 104
皮 筋 104
無 味 104
5 th</w> 104
8 in1</w> 104
防 丟 104
防 疫 104
防 霉 104
水 母 104
鋼 架 104
光 面 104
兩 輪 104
n ina</w> 104
3 40</w> 104
分 子 104
菜 瓜 104
全 明星 104
文 字</w> 104
上 鋪 104
六 月 104
好 吃 104
高 腰</w> 104
中 空 104
密 碼</w> 104
產 後 104
珠 珠 104
頭 燈</w> 104
j j</w> 104
噴 水 104
園 藝</w> 104
男 真皮 104
白 玉 104
拼 布</w> 104
意 式 104
正 常 104
斑 馬</w> 104
細 節 104
露 臍 104
乾 濕 104
網 狀 104
酒 杯 104
亞 曼尼</w> 104
滋 潤</w> 104
山 葉</w> 104
舞 台 104
壹 灣 104
牆 紙 104
穿 戴 104
艾 瑪 104
回 收 104
唱 片</w> 104
烘 干 104
喂 奶 104
疲 勞 104
乒 乓 104
le s 104
lo mo 104
ch ina</w> 104
ro ll 104
to d</w> 104
to te 104
am ar 104
th ink 104
de ser 104
so cial</w> 104
運動 休閒鞋 104
pp ee</w> 104
12 入</w> 104
收納 神器 104
手機 架 104
18 2</w> 104
學生 書包 104
sun set</w> 104
11 66 104
pe di 104
ele s</w> 104
復古 慢跑鞋</w> 104
16 2</w> 104
ct ure</w> 104
70 2</w> 104
ste am 104
13 4</w> 104
36 5 104
新品 現貨</w> 104
修身 小腳 104
hand ker 104
精品 館</w> 104
嬰兒 車 104
man n</w> 104
hoo ks</w> 104
35 cm</w> 104
88 0</w> 104
衛生 棉</w> 104
super hero</w> 104
23 cm</w> 104
整理 架 104
es lite</w> 104
連體 衣 104
手辦 模型 104
鎖骨 鏈</w> 104
whi p</w> 104
短靴 女 104
cover age</w> 104
wind proof</w> 104
ide apad</w> 104
y91 i</w> 104
燈籠 袖 104
圣誕 節 104
補光 燈 104
歐舒 丹</w> 104
amethy st</w> 104
engine ering</w> 104
pimp le</w> 104
calci um</w> 104
soldi er</w> 104
摩洛 哥 104
samson ite</w> 104
figu arts</w> 104
小 款</w> 103
大 款</w> 103
大 堂 103
1 米 103
a z</w> 103
6 色</w> 103
t x 103
e ve</w> 103
d n 103
s it 103
三 眼</w> 103
通 訊</w> 103
多 多</w> 103
裙 擺 103
z d 103
8 kg</w> 103
k 20</w> 103
水 機 103
雙 用 103
筆 記</w> 103
續 航 103
夾 鏈 103
i 6s</w> 103
護 具 103
高 手</w> 103
高 山 103
中 童</w> 103
x o</w> 103
期 限 103
快 手 103
古 龍 103
男 表</w> 103
男 寶寶 103
男 短t</w> 103
紋 牛皮 103
奢 侈 103
開 發 103
消 臭 103
胸 罩</w> 103
頸 枕</w> 103
泡 麵 103
灰 黑</w> 103
讀 卡 103
鍍 鉻 103
液 壓 103
番 茄 103
被 子</w> 103
散 打 103
異 形 103
止 滑</w> 103
紐 扣 103
剪 裁 103
宅 急 103
農 用 103
冒 險</w> 103
网 红 103
ch ea 103
ro cker</w> 103
cas h 103
su m</w> 103
dre ams</w> 103
qu er</w> 103
min ion</w> 103
ck 手錶</w> 103
pa ge</w> 103
手機 電腦 103
be anie</w> 103
短袖 洋裝</w> 103
fi shing</w> 103
夏季 男生 103
hu a</w> 103
fo un 103
24 5</w> 103
gre et 103
gen tle 103
2020 春夏 103
17 6</w> 103
bel ly</w> 103
mu gs</w> 103
透明 殼</w> 103
can non</w> 103
22 9</w> 103
天然 緬甸玉 103
dar k 103
44 mm</w> 103
pat ent</w> 103
cal y 103
bir th</w> 103
一字 領</w> 103
liqu e</w> 103
美甲 店 103
remo vable</w> 103
bor o</w> 103
衛衣 女 103
環保 袋</w> 103
全場 下殺</w> 103
無袖 上衣</w> 103
gro wth</w> 103
牛仔褲 男 103
直筒 褲 103
reju v</w> 103
xr 1</w> 103
鬆緊 帶 103
菱格 紋</w> 103
pic nic</w> 103
ae sthe 103
cit ron 103
wee ken 103
big bang</w> 103
拖鞋女 夏 103
美少女 戰士</w> 103
記事 本 103
假面 騎士</w> 103
edi f 103
touch screen</w> 103
懶懶 熊</w> 103
athle tic</w> 103
austr alia</w> 103
techni ques</w> 103
oxy gen</w> 103
pione er</w> 103
ipan ema</w> 103
的 秘密</w> 102
2 d</w> 102
6 t</w> 102
r 17pro</w> 102
h ab 102
卡 牌</w> 102
花 卉</w> 102
l w</w> 102
v amp 102
無 糖 102
色 系 102
印 象 102
整 箱 102
不 透明 102
水 果</w> 102
外 穿</w> 102
雙 口袋 102
p w 102
食 玩</w> 102
m use</w> 102
i 3</w> 102
i 9 102
i mar 102
護 膝</w> 102
y te</w> 102
c v 102
女 郎 102
3 25 102
3 99</w> 102
製 造 102
格 蘭 102
文 學</w> 102
頭 枕</w> 102
白 灰</w> 102
潮 品 102
精 緻</w> 102
拉 花 102
牙 齒 102
開 學 102
魔 方 102
釣 魚</w> 102
視 覺 102
酒 瓶 102
脖 子 102
腳 底 102
七 天 102
墻 角 102
未 拆封</w> 102
塔 羅 102
深 灰</w> 102
任 意 102
第 六 102
止 癢 102
急 速 102
捕 夢 102
曲 面 102
薔 薇 102
co rol 102
lo cal</w> 102
ba be</w> 102
ri m</w> 102
ma u 102
ni er</w> 102
mi o 102
mi sh</w> 102
新款 上市</w> 102
mp o</w> 102
簡約 休閒 102
韓版 復古 102
兒童 學習 102
兒童 自行車 102
11 代 102
pe ter</w> 102
pan ther</w> 102
ta les</w> 102
boo ties</w> 102
19 8</w> 102
che ck 102
he eled</w> 102
bal ance 102
個性 潮流 102
bro ws</w> 102
bur ger</w> 102
圓領 上衣</w> 102
lip sticks</w> 102
22 3</w> 102
現代簡約 臥室 102
26 8</w> 102
long back</w> 102
note 2</w> 102
free ship</w> 102
格紋 襯衫</w> 102
必備 款 102
小方 巾</w> 102
cen t 102
pear ls</w> 102
促銷 活動</w> 102
cd g</w> 102
sd hc</w> 102
自慰 杯</w> 102
優品 の 102
第二 代 102
滿千 免運</w> 102
主機 板</w> 102
公路 車 102
收銀 臺 102
ik ea 102
登機 箱 102
craf ts</w> 102
餃子 包</w> 102
hit achi</w> 102
lamin ating</w> 102
fel t</w> 102
rela x 102
麥當 勞 102
雙眼 皮 102
誠品 eslite</w> 102
own ed</w> 102
brazi lian</w> 102
小 禮物</w> 101
大 叔 101
4 月 101
4 90 101
6 ml</w> 101
6 cm</w> 101
t k 101
生 理 101
卡 夢 101
美 容</w> 101
克 萊 101
o logy</w> 101
5 代 101
掛 式</w> 101
拖 車 101
8 10</w> 101
童 車</w> 101
防 掉 101
雙 c</w> 101
p m 101
性 愛 101
眼 霜 101
兩 種 101
食 堂 101
f ter</w> 101
n v 101
n r</w> 101
部 屋</w> 101
打 蠟 101
雪 靴</w> 101
風 鈴 101
w we</w> 101
正 廠</w> 101
開 岔 101
內 外 101
和 服</w> 101
玩 家 101
q w 101
q c</w> 101
領 口 101
翻 斗 101
到 貨 101
福 特 101
瑪 瑙</w> 101
入 耳 101
恐 怖 101
娃 衣</w> 101
回 力 101
營 業 101
裸 妝 101
鬍 子 101
in al</w> 101
ro t</w> 101
di ce</w> 101
me et</w> 101
si l</w> 101
ai de 101
ri x</w> 101
10 l</w> 101
ma g</w> 101
po me 101
ic ks 101
ph an 101
do w 101
do ta</w> 101
30 8 101
pa ul 101
百搭 休閑 101
短袖 短褲 101
mar ch</w> 101
ta i</w> 101
sam ur 101
boo t</w> 101
70 6</w> 101
透氣 網面 101
her bs</w> 101
真皮 皮帶</w> 101
秋冬 款</w> 101
圓領 t恤 101
專用 賣場</w> 101
男生 短t</w> 101
儲物 架</w> 101
45 碼</w> 101
居家 裝飾</w> 101
歐式 復古 101
cos 服 101
secre ts</w> 101
cm x 101
pil lows</w> 101
micro matic</w> 101
band age</w> 101
mac aron</w> 101
全包 邊 101
light ly</w> 101
英國 next 101
ation al</w> 101
自慰 套</w> 101
love live</w> 101
ot to 101
mater ials</w> 101
第二 彈</w> 101
925銀 針</w> 101
滿千 折 101
方向 燈</w> 101
名牌 包包</w> 101
緬甸 玉</w> 101
lb j 101
dam age</w> 101
艾米 家 101
chal len 101
繁體 中文版</w> 101
fic tion</w> 101
squee ze</w> 101
inte gr 101
lighten ing</w> 101
peti t</w> 101
lagun a</w> 101
perspir ant</w> 101
華倫 天 101
chea p</w> 101
citron ella</w> 101
小 花</w> 100
小 汽車 100
大 擺 100
大 學生宿舍 100
的 好 100
2 層 100
2 入 100
2 36</w> 100
2 35</w> 100
0 23</w> 100
4 30 100
e tte</w> 100
g 9 100
u d</w> 100
同 名 100
皮 質</w> 100
無 塵 100
無 毒</w> 100
子 彈</w> 100
z ard</w> 100
o re 100
料 理</w> 100
轉 印 100
長 巾</w> 100
價 格</w> 100
車 輪 100
水 管</w> 100
有 聲 100
光 動 100
短 洋裝</w> 100
c w</w> 100
f at 100
指 尖 100
粉 撲</w> 100
初 生 100
上 架</w> 100
好 禮</w> 100
高 達 100
買 到 100
買 10 100
起 泡 100
刷 色 100
相 容 100
貼 鑽 100
客 戶 100
q i</w> 100
飯 盒</w> 100
耳 麥</w> 100
雞 肉</w> 100
博 士</w> 100
福 斯</w> 100
合 奏 100
波 波 100
以 上</w> 100
瘦 臉 100
叉 子</w> 100
股 東 100
市 集</w> 100
蘿 蔔 100
煤 氣 100
埃 及 100
螃 蟹 100
琪 琪 100
in d 100
co very</w> 100
ro ses</w> 100
ri m 100
th rash 100
po sh</w> 100
so ur 100
時尚 手提包</w> 100
時尚 單肩包</w> 100
時尚 流行 100
現貨 熱賣 100
12 寸 100
il ton</w> 100
家用 小戶型 100
sk 8</w> 100
tr on</w> 100
日本 精品</w> 100
vi vi</w> 100
ta in 100
sm ash 100
裝飾 貼</w> 100
36 6</w> 100
純棉 t恤</w> 100
son g</w> 100
女士 香水 100
500 gb</w> 100
wor th</w> 100
蕾絲 上衣</w> 100
lin es</w> 100
家居 裝飾品 100
限時 特賣</w> 100
ine 100</w> 100
23 3</w> 100
cel ine 100
字母 logo 100
餐廳 燈 100
pas sion</w> 100
coach 蔻馳 100
coach 蔻馳</w> 100
釣魚 竿 100
fur nit 100
mam a 100
首飾 盒</w> 100
mis sion</w> 100
decor ations</w> 100
秋冬季 新款 100
蝙蝠 俠</w> 100
證件 夾</w> 100
分裝 瓶</w> 100
多卡 位</w> 100
buy 1</w> 100
甜甜 圈 100
登機 箱</w> 100
kyo wa</w> 100
美國隊 長 100
ido lish 100
穿衣 鏡 100
arc tic</w> 100
ting i</w> 100
tik tok</w> 100
金盞 花 100
paradi se</w> 100
emul sion</w> 100
山居 歲月</w> 100
從零開始的 異世界 100
greet ings</w> 100
corol la</w> 100
小 館</w> 99
新 配色</w> 99
紅 藍 99
大 批發</w> 99
1 100 99
4 色 99
r f</w> 99
d ge 99
卡 貼</w> 99
皮 藝 99
無 袖</w> 99
滿 鋪 99
滿 1000 99
棉 布 99
棉 襖 99
9 成新 99
奧 特 99
火 鍋</w> 99
韓 站</w> 99
不 織布 99
水 墨 99
背 景</w> 99
夾 式</w> 99
i 8 99
i kon</w> 99
c 5</w> 99
鞋 墊 99
打 結 99
3 號</w> 99
3 xl 99
極 細 99
分 褲</w> 99
年 會 99
文 創 99
高 雅 99
高 街 99
高 倍 99
舒 壓 99
海 鮮 99
正 廠 99
天 竺 99
刀 片</w> 99
飛 鏢 99
佳 能 99
即 食 99
和 平 99
甲 醛 99
工 地 99
之 旅</w> 99
希 爾 99
鎮 宅 99
首 飾</w> 99
戀 與 99
青 花 99
傳 奇</w> 99
任 何 99
異 味 99
遠 射 99
兼 容 99
急 救 99
檯 燈 99
lo l 99
me tro 99
el le 99
el mo</w> 99
簡約 復古 99
bi a</w> 99
pa gne</w> 99
11 月 99
sam antha</w> 99
韓國 氣質 99
手提 斜挎包</w> 99
手提 肩背包</w> 99
ce real</w> 99
he at 99
200 mm</w> 99
玻璃 膜</w> 99
13 00 99
90 6</w> 99
len ses</w> 99
精品 代購 99
gucci 古奇</w> 99
電動 牙刷</w> 99
懶人 沙發</w> 99
2018 新款韓版 99
cur ved</w> 99
tur quo 99
mir age</w> 99
glit tery</w> 99
可拆 式 99
bm w 99
700 ml</w> 99
瑜伽 墊 99
lipp ie</w> 99
poly mer</w> 99
新貨 下殺</w> 99
新貨 特價</w> 99
poli s</w> 99
洞洞 鞋</w> 99
一起 賣</w> 99
衣帽架 落地 99
早春 新款 99
雅詩蘭 黛 99
演唱 會</w> 99
bey ond</w> 99
ophi dia</w> 99
sports wear</w> 99
hip ster</w> 99
recor der</w> 99
dami er</w> 99
tul le</w> 99
penc ils</w> 99
新品特價台灣熱 售 99
merce des</w> 99
neutrogen a</w> 99
小 兔</w> 98
小 背心</w> 98
小 推車 98
人 緣</w> 98
0 mm</w> 98
6 歲</w> 98
d j</w> 98
g orge 98
電 動</w> 98
口 金 98
v oo 98
一 盒</w> 98
一 批</w> 98
一 年保固</w> 98
直 出</w> 98
直 立式 98
o dy 98
5 s 98
5 尺</w> 98
五 星 98
曬 衣架</w> 98
水 機</w> 98
水 袋 98
雙 重 98
p ond</w> 98
兩 款</w> 98
m ain</w> 98
護 身 98
f go</w> 98
n am</w> 98
部 落</w> 98
3 16</w> 98
全 鋼 98
馬 戲 98
二 館</w> 98
x 7</w> 98
x u 98
實 務</w> 98
擴 音 98
快 煮 98
數 字</w> 98
黑 白色 98
補 漏 98
貼 畫</w> 98
網 美 98
修 眉 98
場 景</w> 98
帽 衫 98
q t</w> 98
香 港</w> 98
方 塊</w> 98
灰 藍</w> 98
妞 妞 98
舞 會 98
扭 結 98
鋁 框 98
波 希 98
抓 絨 98
屋 頂 98
氨 基酸 98
蠟 線 98
野 餐</w> 98
沖 擊 98
沖 洗 98
備 箱 98
赫 本 98
沉 香 98
or nam 98
st abi 98
se awe 98
di sco</w> 98
ti les</w> 98
bo un 98
10 月 98
sp ace 98
su shi</w> 98
50 5</w> 98
50 ml 98
現貨 速 98
12 s</w> 98
家用 折疊 98
pa y 98
創意 客廳 98
60 5</w> 98
colo ure 98
19 1</w> 98
hu i</w> 98
je wel</w> 98
14 寸 98
ste p 98
bas ics</w> 98
女士 包包</w> 98
32 mm</w> 98
商務 女包</w> 98
生活 百貨</w> 98
防曬 外套</w> 98
spe c 98
bar be 98
工作 桌</w> 98
石英 手錶</w> 98
person a</w> 98
180 g</w> 98
sha ker</w> 98
sco op 98
柔軟 舒適 98
ysl 聖羅蘭 98
專賣 店 98
balenciag a 98
cin nam 98
cham pagne</w> 98
jen ny</w> 98
多款 可選</w> 98
effe ctive</w> 98
避震 器</w> 98
dx f</w> 98
不掉 色 98
zc 55 98
gas ket</w> 98
偶像學 園 98
側翻 皮套</w> 98
竹節 棉 98
情侶對 錶</w> 98
美國隊 長</w> 98
爬行 墊 98
tisso t</w> 98
ank let</w> 98
gau ge</w> 98
居家用 品</w> 98
abac a</w> 98
pik achu</w> 98
家居家具 傢俱 98
wid th</w> 98
handker chief</w> 98
aide lai</w> 98
samur ai</w> 98
小 茶幾</w> 97
小 心機 97
新 疆 97
紅 棗 97
7 17 97
6 d</w> 97
t 桖</w> 97
t k</w> 97
h ana</w> 97
s 75 97
b 1 97
l n</w> 97
v ig 97
接 線 97
5 oz</w> 97
長 款</w> 97
機 動 97
機 器</w> 97
韓 站 97
發 廊 97
i da</w> 97
鞋 套 97
極 新</w> 97
指 紋</w> 97
製 冰 97
杯 墊 97
百 元 97
嫩 膚 97
x xl 97
x 155</w> 97
川 久保 97
日 月 97
超 厚 97
頭 盔</w> 97
j z 97
項 圈 97
濕 紙巾</w> 97
客 服 97
扣 環 97
公 牛 97
q 7</w> 97
唇 彩 97
魚 骨 97
聲 卡 97
髮 帶 97
滴 塑 97
瞬 間 97
葡 萄</w> 97
教 室</w> 97
蔡 依 97
祛 斑 97
餵 食 97
in cense</w> 97
an a 97
st ro 97
li st</w> 97
10 a</w> 97
ne ed</w> 97
us 9</w> 97
新款 潮 97
ko so</w> 97
運動 背心</w> 97
時尚 女包</w> 97
car bon 97
cu e</w> 97
cu xi</w> 97
tr acker</w> 97
兒童 節 97
日本 迪士尼</w> 97
bu dd 97
18 00 97
pan ty 97
韓國 簡約 97
韓國 空運</w> 97
av ail</w> 97
客廳 創意 97
fu ji</w> 97
he x</w> 97
mag enta</w> 97
bri de</w> 97
保濕 補水 97
宿舍 學生 97
23 8</w> 97
66 8</w> 97
ze us</w> 97
cher ry 97
耳環 耳釘 97
2019新款 潮 97
行車 紀錄 97
chic ago</w> 97
na h</w> 97
計時 碼 97
pic ks</w> 97
雙肩包 女 97
3m 反光 97
密碼 箱 97
book mark</w> 97
平角 褲 97
連線 代購</w> 97
潔面 乳</w> 97
煞車 皮</w> 97
18k 金 97
除濕 機</w> 97
走秀 款 97
妝前 乳</w> 97
lulu lemon</w> 97
聯繫 客服</w> 97
環球 影 97
羊羔 毛 97
fee der</w> 97
circu lar</w> 97
camer as</w> 97
gladi ator</w> 97
仰臥起 坐 97
turquo ise</w> 97
gorge ous</w> 97
coloure tte</w> 97
大 腿 96
7 p 96
2 15 96
[...]
