i n 173384
r e 143540
a n 139416
e r</w> 136356
a r 101458
c o 96141
s h 91987
e r 88682
l a 85547
s t 84839
l e 84369
l o 84083
i t 83587
b a 76177
o r 75605
l e</w> 70999
o r</w> 66963
o n</w> 64255
e n 63706
a t 63534
o n 63187
l i 59087
in g</w> 58600
s e 56431
c a 55115
r o 54254
c h 53852
r a 52069
m a 51788
f or</w> 51199
s i 50506
e s</w> 47787
e n</w> 47081
s s</w> 45881
c k</w> 44682
t o 44442
e d</w> 44196
u n 42365
t i 40901
i r 40249
a l</w> 39985
s e</w> 39924
r i 39564
a l 39560
b o 38662
p a 37769
t h 36976
an d</w> 36342
c k 36341
l u 35098
現 貨</w> 34571
i n</w> 34251
n e 33823
p o 33631
d i 33554
e a 31269
e l 28893
t s</w> 28397
c e</w> 28268
s u 28026
m i 27600
s a 26992
i g 26934
m en</w> 26852
f a 26837
o l 25390
o u 24702
d re 24355
w it 23855
s p 23485
ba g</w> 23359
t t 23255
b le</w> 23244
c h</w> 22999
新 款 22730
wit h</w> 22378
t a 21847
u r 21758
re a 21400
d e 21118
dre ss</w> 21098
t e 20808
se t</w> 20756
p h 20606
an d 20300
on e</w> 20264
m o 20202
運 動 19959
s o 19830
w o 19703
時 尚 19594
k i 19390
i on</w> 19031
p p 18858
ca se</w> 18717
sh o 18649
ir t</w> 18409
q u 18202
e l</w> 17912
m e</w> 17775
b y</w> 17388
休 閒 17370
v e</w> 17347
d er</w> 17308
e t</w> 17173
a i 16960
d s</w> 16946
co d</w> 16529
p re 16497
簡 約 16240
k o 16128
p r 15905
s t</w> 15814
m e 15770
g e</w> 15704
u l 15682
b la 15621
m p 15527
家 用 15510
w h 15387
s h</w> 15301
sh irt</w> 15141
c ar 15082
現 貨 15020
b i 14889
s k 14847
m in 14764
re d</w> 14625
f i 14524
v er</w> 14506
wo men</w> 14498
t e</w> 14426
to p</w> 14310
收 納 14309
ne w</w> 14214
a u 13936
c u 13808
男 女 13693
d e</w> 13573
r u 13513
z e</w> 13428
d a 13386
韓 版 13368
兒 童 13362
w at 13222
bla ck</w> 13013
it e</w> 12979
代 購</w> 12911
全 新 12870
a m 12717
o f</w> 12584
o o 12424
p i 12294
si ze</w> 12210
g h 12171
v er 12090
ti c</w> 12037
ph one</w> 12029
p ro 11980
k e</w> 11977
i c</w> 11969
fa sh 11939
c t 11929
w i 11881
s s 11815
sh or 11815
t y</w> 11733
lo v 11733
日 本 11667
ol d</w> 11576
e ar 11541
b u 11465
p lu 11402
手 機 11387
v i 11365
p la 11329
百 搭 11327
b lu 11249
rea n</w> 11208
背 包</w> 11189
ko rean</w> 11189
n i 11035
學 生 10969
er s</w> 10961
d o 10920
l l</w> 10903
in g 10849
免 運</w> 10837
全 新</w> 10799
l ing</w> 10721
it y</w> 10602
fash ion</w> 10558
lov ed</w> 10547
sho es</w> 10446
t ed</w> 10421
b r 10386
c e 10306
f re 10251
ch ar 10150
t h</w> 10101
ar d</w> 9983
l y</w> 9976
p er 9972
男 士 9962
上 衣</w> 9961
d y</w> 9947
ki ds</w> 9928
co lo 9880
創 意 9871
w e 9824
s le 9763
th en 9755
u m</w> 9713
le ss</w> 9711
t er</w> 9692
co n 9689
or ig 9670
f lo 9654
p an 9651
au then 9616
wh ite</w> 9578
in al</w> 9568
authen tic</w> 9552
c i 9494
g a 9434
sle e 9394
短 袖</w> 9372
st a 9354
w a 9352
plu s</w> 9342
ba by</w> 9333
orig inal</w> 9322
un i 9184
j a 9136
情 侶 9105
t er 9094
手 提 9083
le t</w> 9080
th e</w> 9025
lo n 8894
p er</w> 8857
ti on</w> 8851
li gh 8849
pre loved</w> 8836
t o</w> 8755
外 套</w> 8723
m ar 8721
m at 8705
n o 8694
夏 季 8559
in e</w> 8536
復 古 8497
休 閑 8457
h ig 8413
s un 8397
新 款</w> 8388
f e 8363
n o</w> 8333
現 代 8280
ea r</w> 8268
h o 8260
pa ck</w> 8257
台 灣 8251
經 典 8247
e y 8238
st i 8216
sa le</w> 8199
l o</w> 8167
多 功 8112
正 品</w> 8105
單 肩 8099
c ro 8091
g u 7977
韓 國 7946
m en 7922
j u 7894
客 廳 7857
p e</w> 7806
in k</w> 7780
b lo 7761
tt on</w> 7761
b e 7727
二 手 7635
潮 流 7619
si g 7610
min i</w> 7558
防 水 7509
pr in 7443
r y</w> 7399
at h 7373
多功 能 7369
an t</w> 7242
ai r</w> 7210
ra l</w> 7099
d u 7092
可 愛 7090
g old</w> 6958
an g 6946
臥 室 6942
s c 6900
北 歐 6894
保 護 6867
ma s 6856
blu e</w> 6835
f u 6821
hig h</w> 6817
f la 6813
fre e</w> 6794
al ity</w> 6791
w al 6771
g la 6734
s li 6720
ch a 6715
bo o 6698
h ea 6671
寶 寶 6655
牛 仔 6653
po w 6632
i l</w> 6607
跑 鞋</w> 6580
qu ality</w> 6576
套 裝</w> 6563
ur e</w> 6559
i t</w> 6551
系 列</w> 6536
co tton</w> 6498
de sig 6472
p s</w> 6450
t r 6407
ch e 6372
l l 6369
裝 飾 6302
ck et</w> 6284
f t</w> 6276
g ra 6258
wat ch</w> 6241
置 物 6228
a d 6225
g ir 6219
t ra 6212
ligh t</w> 6207
a c 6197
r ing</w> 6190
sa m 6152
an i 6144
p e 6081
m b 6066
h a 6059
c s</w> 6041
di es</w> 6038
b ra 6012
f or 5967
m m 5967
lo w</w> 5962
錢 包</w> 5957
n a 5921
shor ts</w> 5913
迷 你 5895
c le 5893
f o 5863
ou l 5853
o f 5843
b ea 5833
玻 璃 5821
h and</w> 5806
co r 5784
s ling</w> 5773
la ce</w> 5744
j e 5697
斜 挎 5694
pan ts</w> 5684
h u 5681
desig n</w> 5678
shor t</w> 5647
sh oul 5618
lon g</w> 5617
un d 5603
c rea 5601
la dies</w> 5598
l s</w> 5597
套 裝 5590
ter no</w> 5590
k e 5563
sun g</w> 5540
si l 5531
牛 皮 5513
化 妝 5499
短 袖 5493
g i 5485
u s 5483
sam sung</w> 5478
g re 5454
加 厚 5447
bo dy</w> 5426
bo x</w> 5420
i phone</w> 5401
ing s</w> 5400
shoul der</w> 5400
v e 5389
li p</w> 5383
ck s</w> 5382
慢 跑鞋</w> 5362
pr o</w> 5352
s and 5348
p u 5320
mas k</w> 5313
u se</w> 5296
m i</w> 5295
二 手</w> 5277
g er</w> 5273
p ink</w> 5268
折 疊 5257
沙 發 5255
co l 5243
個 性 5214
crea m</w> 5214
e x 5207
st e 5167
st u 5166
手 錶</w> 5159
汽 車 5157
黑 色 5150
k it 5147
運動 鞋</w> 5146
t u 5107
le d</w> 5098
u p</w> 5084
h e 5078
長 袖 5057
co ver</w> 5057
正 品 5051
充 電 5043
b b 5035
m on 5032
er i 5030
透 氣 5028
x y</w> 5000
c la 4986
真 皮 4975
a n</w> 4951
純 棉 4947
廚 房 4938
特 價</w> 4938
so a 4936
女 士 4902
電 腦 4887
s ma 4878
flo ral</w> 4874
新 品 4872
pro of</w> 4864
sh a 4855
y s</w> 4854
sp or 4840
n at 4807
colo r</w> 4806
實 木 4804
辦 公 4798
st ra 4789
en i 4787
免 運 4774
ba ck 4768
耳 環</w> 4757
or i 4754
blo use</w> 4749
ch i 4716
網 紅 4714
to o 4701
洋 裝</w> 4679
h el 4678
soa p</w> 4678
se x</w> 4667
le g 4649
秋 冬 4640
美 國 4630
gla ss</w> 4603
w ear</w> 4597
p ri 4589
預 購</w> 4585
ath er</w> 4575
ta ble</w> 4572
le s</w> 4565
ma n</w> 4564
pi e 4521
男 鞋</w> 4520
s si 4519
p ar 4511
i d</w> 4498
st ri 4487
c lo 4486
t re 4461
sil ver</w> 4453
t i</w> 4439
針 織 4429
k a 4418
k er</w> 4405
玩 具 4403
c t</w> 4394
造 型 4387
le n 4385
h ard</w> 4378
修 身 4353
p or 4353
al s</w> 4339
ma g 4336
黑 色</w> 4333
p en 4330
卡 通 4307
e d 4298
l ar 4298
b ro 4284
日 本</w> 4279
uni sex</w> 4256
手提 包</w> 4254
m u 4251
印 花 4246
s wi 4243
sh i 4220
le ather</w> 4213
c tion</w> 4170
i on 4160
ni ke</w> 4151
戶 外 4148
z er</w> 4144
oo d</w> 4140
l an 4131
便 攜 4126
b el 4125
ou t</w> 4116
禮 物</w> 4109
性 感 4104
or g 4103
h and 4088
fa ce</w> 4087
女 包</w> 4081
下 殺</w> 4079
顯 瘦 4070
b ri 4064
手 工 4039
st y 4037
w n</w> 4034
嬰 兒 4030
su it</w> 4023
自 動 4010
e red</w> 4008
包 包</w> 4000
歐 美 3997
ba ck</w> 3997
t en 3986
er y</w> 3980
us b</w> 3971
專 用 3960
公 司 3955
跑 步 3952
v a 3951
v en 3935
sma ll</w> 3931
h air</w> 3929
帆 布 3927
簡 易 3926
st er</w> 3923
m er 3918
t ri 3907
商 務 3899
電 動 3893
休閒 鞋</w> 3886
back pack</w> 3878
s on 3877
不 銹 3866
女 生 3861
精 品 3854
c re 3848
hea d 3845
f f 3840
h ol 3839
單肩 包</w> 3834
o il</w> 3811
大 容 3803
boo k</w> 3802
女 鞋</w> 3799
at ion</w> 3798
l it 3789
手機 殼</w> 3786
特 價 3768
迪 士 3767
li ve</w> 3767
c y 3764
氣 質 3760
men t</w> 3753
an s</w> 3727
sk in</w> 3726
籃 球 3715
gre en</w> 3712
男 生 3701
an s 3689
c le</w> 3687
蕾 絲 3686
旅 行 3674
su al</w> 3672
s se 3671
懶 人 3660
m s</w> 3654
p le</w> 3647
g s</w> 3636
拖 鞋</w> 3634
手 拿 3627
圓 領 3625
d eni 3618
r y 3617
短 褲</w> 3615
ul l</w> 3607
pie ce</w> 3603
t in 3591
f ro 3586
al l</w> 3579
se l 3572
b e</w> 3561
ca r</w> 3560
透 明 3555
te mp 3546
deni m</w> 3540
y o 3536
w er</w> 3534
ne ck 3534
m ul 3529
ca sual</w> 3523
咖 啡 3519
v el</w> 3518
不銹 鋼 3513
玩 具</w> 3510
出 貨</w> 3498
斜挎 包</w> 3496
u s</w> 3490
di s 3482
上 衣 3477
h i 3473
w or 3472
kit ty</w> 3466
ci al</w> 3462
li p 3455
j o 3454
生 活 3452
t or 3451
精 品</w> 3417
ar e</w> 3417
u ch</w> 3409
br and</w> 3401
k s</w> 3396
slee ve</w> 3394
ig h 3386
鑰 匙 3380
sp i 3372
st o 3362
成 人 3349
d d 3347
愛 迪 3341
sta in 3333
ma x</w> 3329
wal let</w> 3329
me di 3327
太 陽 3324
現代 簡約 3320
v es</w> 3307
neck lace</w> 3302
玫 瑰 3298
金 屬 3280
防 滑 3261
系 列 3259
g en 3255
sti ck</w> 3251
stain less</w> 3249
sk irt</w> 3229
pro te 3223
mat te</w> 3218
m ou 3217
置物 架 3203
小 型 3189
寬 松 3186
儲 物 3184
hel lo</w> 3180
a we 3161
出 清</w> 3160
w ai 3156
o ver 3155
so ft</w> 3155
無 線 3153
fi t</w> 3151
o pp 3146
blu e 3146
組 合 3144
l a</w> 3137
gir l</w> 3134
a t</w> 3131
sti ck 3131
po lo</w> 3129
簡約 現代 3125
per fu 3125
wat er 3124
hol der</w> 3118
連 帽 3117
swi m 3117
a ge</w> 3112
實 拍</w> 3102
b an 3102
側 背包</w> 3090
sand als</w> 3087
連 身 3084
防 曬 3083
r ings</w> 3081
p cs</w> 3076
ba ll</w> 3075
bea u 3060
韓 國</w> 3059
用 品</w> 3059
sty le</w> 3059
temp ered</w> 3058
新 品</w> 3055
長 褲</w> 3053
g o</w> 3041
t a</w> 3038
h er 3026
ey e 3013
襯 衫</w> 3012
men s</w> 3012
居 家 3001
ne ck</w> 2999
pa d</w> 2993
awe i</w> 2992
pla in</w> 2991
prin ted</w> 2988
bra ce 2983
lar ge</w> 2983
an ce</w> 2982
cu te</w> 2973
連 衣 2971
l er</w> 2969
ru sh</w> 2963
落 地 2962
蝴 蝶 2962
p ur 2960
大容 量 2959
原 廠 2951
mm er</w> 2950
z ed</w> 2936
un d</w> 2936
wat er</w> 2931
公司 貨</w> 2931
too th</w> 2928
e y</w> 2923
c o</w> 2921
ba tt 2920
t w 2916
限 時 2909
長 款 2896
c a</w> 2885
ll er</w> 2870
g o 2861
同 款 2858
v o</w> 2855
天 然 2852
so cks</w> 2852
寬 鬆 2851
a r</w> 2850
背 心</w> 2848
保 暖 2845
brace let</w> 2842
ca l</w> 2839
白 色 2837
car d</w> 2836
blue tooth</w> 2831
of f</w> 2829
mo bi 2818
舒 適 2817
g ar 2817
se xy</w> 2817
pp er</w> 2817
e le 2816
bo tt 2814
gir ls</w> 2813
家 居 2808
香 奈 2806
兩 件 2805
on ly</w> 2803
or ted</w> 2802
perfu me</w> 2798
衛 生 2791
co u 2787
opp o</w> 2786
限 定 2784
ru bb 2783
ja cket</w> 2781
f ra 2780
長 夾</w> 2770
ch o 2767
g el</w> 2766
k in 2762
c an 2755
寵 物 2745
水 晶 2741
立 體 2739
d a</w> 2738
mp er</w> 2730
ba l 2719
mi l 2714
at e</w> 2712
ear rings</w> 2711
手拿 包</w> 2710
設 計 2706
er ry</w> 2706
tt e</w> 2704
陶 瓷 2700
d ri 2700
歐 式 2698
安 全 2698
d ol 2698
大 碼 2692
h oo 2692
v it 2691
通 用 2689
an ti</w> 2688
n y</w> 2684
保 濕 2679
co m 2678
po p</w> 2678
生 日 2677
條 紋 2677
ca ble</w> 2673
mobi le</w> 2673
r un 2672
小 戶 2664
batt ery</w> 2663
百 搭</w> 2655
m a</w> 2653
i s</w> 2650
按 摩 2648
ki t</w> 2640
專 櫃 2635
p en</w> 2635
r on 2633
m y</w> 2633
tr a</w> 2629
正 版</w> 2627
m p</w> 2624
a m</w> 2622
二手 書</w> 2620
f ull</w> 2617
g e 2617
cy cle</w> 2609
爆 款</w> 2608
l in 2608
hu awei</w> 2608
t y 2605
cha in</w> 2602
g r 2599
皮 帶</w> 2594
貼 紙</w> 2594
char ger</w> 2592
k ing</w> 2591
爆 款 2589
water proof</w> 2587
t ro 2576
pow der</w> 2570
少 女 2568
medi um</w> 2568
打 底 2566
衣 服 2564
b rush</w> 2562
br and 2561
限 量 2556
en ing</w> 2555
a pp 2553
ct or</w> 2552
板 鞋</w> 2550
公 仔</w> 2549
平 底 2546
刺 繡 2545
to y</w> 2541
wh it 2536
代 購 2535
st ic</w> 2534
外 套 2529
大 號 2529
mo tor 2527
雙 肩 2526
a ss 2522
st re 2520
pow er</w> 2518
pa n</w> 2513
pre mi 2513
v in 2506
su per</w> 2506
rubb er</w> 2504
床 頭 2503
n er</w> 2503
pr e</w> 2502
n e</w> 2497
x i 2489
ba gs</w> 2475
v a</w> 2474
ste el</w> 2474
熱 賣</w> 2471
me t 2471
室 內 2463
su mmer</w> 2462
用 品 2461
po uch</w> 2457
路 易 2456
娃 娃</w> 2453
la r</w> 2451
slee ves</w> 2449
wai st</w> 2447
por table</w> 2445
小戶 型 2445
si on</w> 2444
情 趣 2441
h ear 2439
宿 舍 2438
je ans</w> 2435
n u 2430
sk in 2427
ma de</w> 2422
g lu 2418
re less</w> 2417
正 版 2415
sh e 2403
lo ve</w> 2403
s qu 2401
ss en 2396
時 尚</w> 2395
k ey 2395
st or 2391
eri es</w> 2390
co o 2384
進 口 2381
c ti 2378
bi g</w> 2374
e t 2366
香 水</w> 2361
bott le</w> 2360
f un 2352
路易 威 2351
sp e 2350
lo tion</w> 2349
s er 2345
c ur 2345
籃球 鞋</w> 2343
premi um</w> 2343
h y 2338
清 新 2336
w el 2336
熱 賣 2335
皮 夾</w> 2334
wi reless</w> 2334
n ing</w> 2328
li c</w> 2326
lon g 2326
浴 室 2322
鏈 條 2322
b und 2315
c and 2314
igh t</w> 2312
購 物 2309
it ion</w> 2309
col le 2309
tre n 2303
da y</w> 2299
en t</w> 2298
z i 2296
賣 場</w> 2294
a di 2293
後 背包</w> 2287
tt er</w> 2287
le a 2286
公 主 2283
珍 珠 2281
女 童 2271
快 速 2271
白 色</w> 2270
s we 2270
ma l</w> 2270
熱 銷</w> 2269
吊 帶 2269
雪 紡 2269
tra vel</w> 2267
f fe 2263
prin t</w> 2263
a li 2261
wo o 2260
v y</w> 2258
fro m</w> 2255
whit ening</w> 2252
拉 鏈 2251
beau ty</w> 2250
不 鏽 2248
b a</w> 2241
s pa 2233
spor ts</w> 2233
兩 用 2230
mag ic</w> 2230
愛迪 達</w> 2230
神 器 2228
t shirt</w> 2227
a ct 2227
d en</w> 2220
小 舖</w> 2219
氣 墊 2217
ele ct 2217
吊 飾</w> 2216
s eries</w> 2216
健 身 2215
to ps</w> 2211
colo r 2204
pa per</w> 2203
保 溫 2202
雙 人 2197
d ra 2197
org ani 2195
d r 2192
日 系 2189
se cre 2184
保護 套</w> 2182
cou ple</w> 2177
ass orted</w> 2176
ver s 2170
零 錢包</w> 2166
bo ard</w> 2164
正 韓 2160
春 夏 2157
必 備</w> 2157
bund le</w> 2156
a ble</w> 2152
car e</w> 2149
商 品</w> 2148
motor cycle</w> 2148
sel ling</w> 2142
工 具 2139
d ar 2137
a v 2136
flo wer</w> 2136
背 包 2132
d y 2131
di e</w> 2131
br a</w> 2131
單 人 2130
薄 款 2129
ba th</w> 2125
stra p</w> 2124
眼 鏡</w> 2122
工 作 2122
d ou 2122
g ood</w> 2122
sta r</w> 2118
編 織 2116
d i</w> 2100
b ar 2097
娃 娃 2095
高 腰 2094
sc re 2094
衛生 間 2094
沙 灘 2093
雙 層 2090
da s</w> 2090
同 款</w> 2086
w ar 2085
on s</w> 2084
肩 背包</w> 2082
i ce</w> 2082
禮 物 2081
清 潔 2081
nat u 2079
智 能 2075
k o</w> 2075
石 英 2073
v al</w> 2073
secre t</w> 2073
k a</w> 2072
m it 2068
su r 2067
鐵 藝 2063
a p 2063
熱 銷 2060
包 包 2060
專 用</w> 2060
藍 牙 2059
h on 2058
d ing</w> 2057
clo th 2056
蘋 果</w> 2055
塑 料 2053
純 銀 2049
t le</w> 2049
桌 面 2048
配 件</w> 2047
che ck 2045
電 子 2040
vi vo</w> 2038
t ur 2036
拼 接 2034
p at 2034
跑步 鞋</w> 2032
e ssen 2031
ca p</w> 2030
spor t</w> 2027
字 母 2026
ad ul 2023
d ed</w> 2020
co n</w> 2013
h al 2012
女 裝 2009
ro und</w> 2007
限 定</w> 2006
餐 廳 2005
hear t</w> 2005
m an 2001
do or</w> 2000
男女 鞋</w> 1999
經 典</w> 1997
p u</w> 1996
stri p 1993
stick er</w> 1991
長 袖</w> 1987
o m</w> 1986
茶 幾 1985
sp ea 1984
spi red</w> 1983
b and</w> 1978
in spired</w> 1978
si li 1974
adi das</w> 1974
b ang 1972
sse s</w> 1972
防 摔 1967
at ing</w> 1967
手 錶 1966
聖 誕 1966
家 居</w> 1964
w in 1963
g ing</w> 1962
迪士 尼 1962
專 業 1958
co a 1958
男 款 1954
一 字 1954
n ai 1953
st and</w> 1949
or s</w> 1949
char act 1949
ir ts</w> 1948
p h</w> 1947
bel t</w> 1942
d er 1941
wa y</w> 1939
大 尺 1934
f ig 1930
耳 機</w> 1923
運 動</w> 1922
腕 錶</w> 1920
t on 1919
h ar 1918
mou se</w> 1917
ga la 1916
uni vers 1916
tin t</w> 1914
復 古</w> 1913
st e</w> 1913
slee ve 1911
ir e</w> 1909
ch es</w> 1907
dou ble</w> 1904
ro se</w> 1901
涼 鞋</w> 1896
三 葉 1894
飾 品</w> 1889
鞋 女 1889
ac ce 1888
to ys</w> 1883
co mp 1881
on e 1881
遮 陽 1879
g a</w> 1876
l y 1874
多 層 1873
t ing</w> 1866
ho t</w> 1857
韓 版</w> 1853
ca mer 1849
bo y</w> 1849
pa re 1849
sleeve less</w> 1849
ty pe</w> 1848
背 心 1846
y a 1846
壁 掛 1845
ja pan</w> 1844
ju mp 1844
univers al</w> 1843
ho me</w> 1841
fa n</w> 1839
p top</w> 1838
y a</w> 1838
ra y</w> 1837
布 藝 1835
夏季 新款 1835
優 惠</w> 1834
休 閒</w> 1833
tw o</w> 1831
純 色 1829
幼 兒 1824
隨 身 1824
d o</w> 1823
l ite</w> 1821
cla ssi 1821
pp y</w> 1820
錢 夾</w> 1819
ori es</w> 1819
a s</w> 1818
gala xy</w> 1818
美 式 1817
e m</w> 1812
te a</w> 1811
el s</w> 1810
s ch 1809
美 國</w> 1808
高 跟 1807
of fi 1806
斜 背包</w> 1805
電 視 1804
fi l 1804
on g</w> 1803
per son 1803
迪士 尼</w> 1802
合 金 1801
bro wn</w> 1797
蘋 果 1793
f e</w> 1792
下 標</w> 1790
x l</w> 1789
辦公 室 1789
皮 革 1788
牛仔 褲</w> 1788
蝴蝶 結 1787
項 鍊</w> 1786
ul tra</w> 1785
不鏽 鋼 1785
機 械 1783
ou t 1782
on hand</w> 1780
厚 底 1779
li qu 1779
cu t</w> 1779
擺 件 1778
vi ct 1778
c el 1776
charact er</w> 1774
l ine</w> 1773
pla stic</w> 1772
免運 費</w> 1772
spea ker</w> 1772
秋 季 1769
a o 1769
cle ar</w> 1769
雙 面 1766
女 款 1766
i r</w> 1765
彩 色 1762
f it 1761
ph o 1760
三 角 1759
f ol 1758
車 載 1757
s mar 1756
耐 吉</w> 1755
彈 力 1754
方 形 1747
l d</w> 1746
acce ss 1744
經 濟 1743
sa u 1743
coa ch</w> 1743
pi l 1742
b ir 1739
mil k</w> 1736
ar y</w> 1735
fla t</w> 1734
organi zer</w> 1734
黑 白</w> 1731
c lu 1726
g en</w> 1725
lip stick</w> 1723
短 褲 1722
n it 1720
衛 衣</w> 1717
sh irts</w> 1717
adul t</w> 1717
cro p</w> 1716
格 子 1714
ma x 1714
b ur 1713
camer a</w> 1713
陽 臺 1711
lo o 1710
圓 形 1709
re mo 1709
st ar 1709
正 韓</w> 1707
黑 白 1706
m l</w> 1706
日 式 1703
皮 套</w> 1702
全新 正品</w> 1702
le tte</w> 1700
ban k</w> 1698
神 器</w> 1697
app le</w> 1695
紅 色 1694
s er</w> 1691
to te</w> 1691
ed ition</w> 1691
ri st 1690
swim suit</w> 1689
動 漫 1688
te e</w> 1688
pp ing</w> 1688
l and</w> 1687
m or 1684
org an 1684
co s 1683
ca p 1683
下 單 1681
三 件 1680
情侶 鞋</w> 1680
飾 品 1678
美 甲 1676
sho p</w> 1674
se d</w> 1668
am po 1668
po cket</w> 1667
si de</w> 1665
mi c</w> 1664
t or</w> 1662
sho ck</w> 1660
gu ard</w> 1658
f f</w> 1655
藍 色 1654
vict ori 1652
潮 流</w> 1651
classi c</w> 1651
少 年 1649
紅 色</w> 1649
du al</w> 1647
海 賊 1646
liqu id</w> 1643
藍 色</w> 1642
lu x 1639
支 架</w> 1638
be st</w> 1638
s y 1637
b en 1636
餐 桌 1632
elect ri 1632
natu ral</w> 1632
nat ure</w> 1627
遊 戲 1626
水 果 1624
sp ray</w> 1624
y el 1622
cand y</w> 1622
f in 1621
t on</w> 1620
棒 球 1618
g lo 1617
男 女</w> 1616
筆 記 1615
s ne 1614
男 鞋 1613
ba r</w> 1613
ta ke</w> 1613
實 拍 1612
襯 衫 1612
scre en</w> 1612
s on</w> 1609
耳 機 1607
c es</w> 1607
c r 1605
f ood</w> 1604
香奈 兒</w> 1604
s an 1603
成 新</w> 1602
organ ic</w> 1602
明 星 1600
c at 1600
伸 縮 1598
sne a 1597
格 紋 1595
尺 寸</w> 1595
透 氣</w> 1594
dar k</w> 1593
短 夾</w> 1591
學 院 1591
v el 1591
整 理 1590
colle ction</w> 1589
no te</w> 1587
yel low</w> 1587
收 納</w> 1586
met al</w> 1586
綁 帶 1584
潮 牌 1583
access ories</w> 1583
v o 1582
bo ys</w> 1582
斜 跨 1580
眼 鏡 1576
je wel 1576
t pu</w> 1575
ar ri 1575
k ers</w> 1574
i l 1574
發 票</w> 1573
克 力 1573
g ri 1573
pa ck 1572
th er 1570
su pp 1568
牛 皮</w> 1567
連衣 裙 1567
nai l</w> 1567
stri pe</w> 1566
co ffe 1565
gra y</w> 1565
brand ed</w> 1564
h ou 1563
情 人 1562
g am 1561
st at 1561
百 貨</w> 1559
靜 音 1559
s ou 1559
mul ti 1559
mo i 1557
ba sk 1556
wal l</w> 1556
架 子 1552
k i</w> 1552
洗 衣 1550
促 銷</w> 1549
防 塵 1546
d ge</w> 1546
cor n</w> 1545
ro mper</w> 1544
coffe e</w> 1544
dol l</w> 1543
victori a</w> 1543
動 物 1541
全新 未 1541
c c 1540
do w</w> 1540
lo n</w> 1538
ga me</w> 1538
cle ans 1537
優 惠 1535
hig h 1534
面 膜</w> 1533
s na 1532
m o</w> 1531
運動 鞋 1531
sli m</w> 1528
m on</w> 1526
展 示 1524
stor age</w> 1522
n a</w> 1521
mi st</w> 1520
electri c</w> 1520
英 倫 1519
tren dy</w> 1519
le y</w> 1518
d ant</w> 1516
矽 膠 1515
mi cro 1513
加 絨 1510
ey e</w> 1510
s a</w> 1509
行 李 1507
di g 1505
進 口</w> 1504
car to 1504
路易威 登</w> 1503
椅 子 1501
玄 關 1501
內 褲</w> 1500
t ch</w> 1500
und er 1498
pla y 1494
鏤 空 1492
p ure</w> 1490
ta ge</w> 1490
四 季 1488
sh ampo 1488
粉 色 1486
a lo 1485
愛 心 1484
a b 1484
do g</w> 1481
shampo o</w> 1480
head set</w> 1476
on es</w> 1475
in s</w> 1474
工 具</w> 1472
bo w</w> 1472
冬 季 1471
貓 咪 1471
ca t</w> 1471
書 桌 1470
全 自動 1469
女 孩 1466
ma ke 1466
ca n</w> 1464
an a</w> 1463
小 白 1460
wa sh</w> 1460
hea d</w> 1460
ne y</w> 1459
an ge</w> 1457
長 版 1456
v ing</w> 1456
s y</w> 1453
c ra 1453
ll a</w> 1452
聯 名 1450
適 用</w> 1450
f oo 1450
質 感 1448
ne t</w> 1447
收納 盒</w> 1445
mul ti</w> 1445
台灣 製 1444
下 標 1442
支 架 1442
置物 架</w> 1442
cloth es</w> 1440
f ri 1439
in e 1439
co stu 1437
氣 墊</w> 1435
j am 1435
bu y</w> 1435
carto on</w> 1435
可 選</w> 1433
c lip</w> 1433
ear s</w> 1433
sand o</w> 1432
全新 現貨</w> 1431
par ty</w> 1431
d ro 1430
s ing 1429
遙 控 1428
內 衣 1427
arri val</w> 1426
p c</w> 1425
con e</w> 1425
m ir 1424
c er 1423
fre e 1423
jewel ry</w> 1423
超 薄 1422
fa cial</w> 1422
拉 鍊 1420
公 分</w> 1420
b erry</w> 1420
環 保 1419
ti e</w> 1418
make up</w> 1417
時尚 百搭 1416
oo l</w> 1416
相 機 1414
手 鍊</w> 1413
設 計</w> 1413
下 殺 1412
廠 家 1412
s en 1412
批 發</w> 1411
color s</w> 1409
移 動 1407
防 水</w> 1406
學 習 1406
全 館 1405
防 風 1404
全 場 1404
皮 帶 1404
風 扇</w> 1403
三 眼 1402
b or 1402
kin i</w> 1402
a da 1401
k nit 1401
se a 1401
pri me</w> 1401
mi ck 1400
仿 真 1398
che ck</w> 1398
電 池</w> 1397
家 用</w> 1395
美 容 1395
輕 奢 1395
la y 1395
b er</w> 1394
生活 館</w> 1392
衣 服</w> 1391
收納 盒 1386
機 車 1385
靠 背 1385
短 款 1384
ma s</w> 1384
ko re 1384
skin ny</w> 1384
模 型</w> 1380
ta in</w> 1380
可 愛</w> 1379
海 外 1379
on al</w> 1379
手 環</w> 1378
組 合</w> 1378
st one</w> 1378
沐 浴 1377
at er</w> 1377
bro w</w> 1376
h a</w> 1373
錢 包 1372
w el</w> 1371
f le 1369
col la 1369
pen ci 1369
男 童 1368
p and 1368
sh i</w> 1367
k y 1366
日 版</w> 1365
保護 殼</w> 1364
v in</w> 1362
ss y</w> 1362
da n</w> 1361
tr ans 1360
巴 寶 1359
cu p</w> 1357
d mi</w> 1356
ou r</w> 1356
prote ctor</w> 1356
高 品 1355
特 惠</w> 1355
chi l 1355
char m</w> 1353
smar t</w> 1353
配 件 1349
vin tage</w> 1349
si c</w> 1348
ca si 1346
hoo die</w> 1346
模 型 1344
ba n</w> 1344
m er</w> 1343
na vy</w> 1343
甜 美 1342
口 袋 1341
gi ft</w> 1341
pil low</w> 1341
古 馳 1339
衛 衣 1337
春 秋 1337
pan ty</w> 1336
th e 1335
編 織</w> 1333
sili cone</w> 1333
簡 約</w> 1330
u r</w> 1330
sch ool</w> 1330
品 牌</w> 1329
ar i 1329
耳 環 1328
fash ion 1327
流 蘇 1326
新款 韓版 1326
shi pping</w> 1326
中 長款 1324
台灣 現貨</w> 1324
wor ks</w> 1324
n on</w> 1323
精 華 1322
服 裝 1322
mar i 1322
dig it 1322
c y</w> 1319
ar a</w> 1318
定 制 1317
mick ey</w> 1315
小 孩 1314
鋼 化 1314
g low</w> 1311
n ight</w> 1310
te es</w> 1310
xi ao 1310
春 季 1309
超 級 1308
pen dant</w> 1306
costu me</w> 1306
lit tle</w> 1305
連衣 裙</w> 1305
裝 飾</w> 1304
check out</w> 1304
ch an 1303
bal lo 1303
max i</w> 1302
con d 1299
自 行 1298
出 清 1298
at ed</w> 1297
ada p 1296
knit ted</w> 1296
床 上 1294
mir r 1294
la ptop</w> 1292
fu l</w> 1292
中 文 1291
kore a</w> 1291
xiao mi</w> 1290
pow er 1289
旋 轉 1288
中 國 1286
書 架 1286
a ir 1286
essen ti 1286
strip es</w> 1286
手 作 1285
金 色 1284
swim wear</w> 1284
an g</w> 1283
uni corn</w> 1283
f ron 1282
x s</w> 1280
to wel</w> 1278
夏 天 1274
棉 麻 1274
純 棉</w> 1274
塑 膠 1272
mi cha 1272
香 港 1269
casi o</w> 1268
l v</w> 1267
pa ir</w> 1267
訓 練 1265
b ear</w> 1265
c ry 1265
bo dy 1264
專 屬 1263
頂 級 1262
dis ney</w> 1261
免 打 1260
penci l</w> 1260
ligh t 1259
空 氣 1258
hand bag</w> 1258
內 衣</w> 1257
b ts</w> 1257
su per 1257
抽 屜 1256
阿 瑪 1256
五 分 1255
al y</w> 1255
sli p</w> 1255
cos me 1254
手 套</w> 1253
擺 件</w> 1252
西 裝 1252
st ring</w> 1252
ri bb 1252
拖 鞋 1251
經濟 型 1251
可 調 1247
e leg 1247
桌 子 1245
se ller</w> 1243
腰 帶</w> 1242
da ble</w> 1242
fra gr 1241
cho co 1241
fo re 1240
it aly</w> 1239
水 桶 1238
mirr or</w> 1238
p et</w> 1237
on d</w> 1235
bu tt 1234
i ck</w> 1233
e mb 1232
digit al</w> 1230
小 清新 1227
la te</w> 1227
fa st</w> 1227
青 年 1226
一 體 1226
音 樂 1225
ch en</w> 1225
下 單</w> 1224
翻 蓋 1224
t an 1224
bi kini</w> 1224
蛋 糕 1222
ser um</w> 1222
小 方 1219
cc i</w> 1219
si ve</w> 1216
cha ble</w> 1216
gla sses</w> 1214
梳 妝 1213
臺 式 1211
len s</w> 1211
海賊 王</w> 1211
女 鞋 1209
cu sto 1209
輕 便 1207
li sh</w> 1207
r e</w> 1206
原 裝 1205
唇 膏</w> 1205
su s</w> 1205
長 褲 1204
貝 殼 1203
pp ers</w> 1203
sho ck 1203
禮 盒</w> 1202
增 高 1202
大 學</w> 1201
行 動 1200
推 薦</w> 1198
cry st 1198
日 韓 1197
套 頭 1196
游 戲 1196
fig ure</w> 1195
貼 紙 1193
b rea 1193
ki d</w> 1193
micha el</w> 1193
o s</w> 1190
女 包 1189
u t</w> 1188
三 星</w> 1187
d in 1187
sing le</w> 1187
sa ble</w> 1186
la y</w> 1184
no va</w> 1184
bask et 1183
香 水 1182
cro ss</w> 1182
in t</w> 1179
單肩 包 1179
通 用</w> 1178
帆布 鞋</w> 1177
毛 衣</w> 1176
衣 架 1176
必 備 1176
ha ppy</w> 1176
s o</w> 1175
or ange</w> 1175
am in</w> 1175
squ are</w> 1175
snea kers</w> 1175
背 景 1174
basket ball</w> 1174
預 購 1173
ke y</w> 1173
che e 1171
o em</w> 1170
米 奇 1169
ca l 1169
fre sh</w> 1169
she et</w> 1167
小 香 1166
台灣 製</w> 1166
vit amin</w> 1166
in ches</w> 1165
生 活</w> 1164
無 袖 1164
ch rist 1164
童 裝</w> 1163
包 裝 1162
in er</w> 1162
key chain</w> 1162
車 用 1161
ta b 1161
can va 1161
eleg ant</w> 1161
便攜 式 1160
ka y</w> 1159
m k</w> 1158
qu e</w> 1158
工 業 1157
n y 1157
en d</w> 1157
三葉 草</w> 1157
全 包 1156
公 仔 1156
c en 1156
run s</w> 1156
shock proof</w> 1156
lo ck</w> 1154
化妝 包</w> 1154
古 馳</w> 1153
精 緻 1153
適 用 1153
小 熊 1152
指 甲 1152
戒 指</w> 1150
雙肩 包</w> 1150
or der</w> 1148
中 式 1147
神 奇 1143
愛 馬 1143
one si 1143
ea ble</w> 1141
抖 音 1140
造 型</w> 1140
kit chen</w> 1140
la co 1137
日本 製</w> 1137
香奈 兒 1137
泡 泡 1135
p lan 1134
j or 1134
hand le</w> 1133
斜挎 包 1132
r a</w> 1131
商 品 1129
男 款</w> 1128
z ing</w> 1127
快速 出貨</w> 1126
學院 風 1126
四 件 1123
g ings</w> 1123
ma t</w> 1123
over runs</w> 1123
洗 手 1122
優 質 1121
c d</w> 1119
ea u</w> 1119
gu cci</w> 1119
鑰匙 圈</w> 1119
十 字 1118
雜 貨 1117
laco ste</w> 1117
直 筒 1116
媽 媽 1116
孕 婦 1114
jo g 1114
n ba</w> 1113
情侶 款</w> 1113
sto ck</w> 1113
帶 回</w> 1112
s m</w> 1112
fo am</w> 1112
p ear 1111
la mp</w> 1111
s po 1110
at a</w> 1110
jam a</w> 1107
er ing</w> 1106
it ion 1106
mat e</w> 1106
gen u 1105
羊 皮 1101
po l 1101
el l</w> 1101
ph ones</w> 1101
yo u</w> 1101
colla gen</w> 1101
ta pe</w> 1100
高 清 1098
無 痕 1098
ma le</w> 1098
genu ine</w> 1098
c li 1097
ar m</w> 1097
at i 1097
bu tton</w> 1097
老 爹 1096
am p</w> 1096
ap pare 1096
時尚 潮流 1095
fra me</w> 1095
荔 枝 1094
男 錶</w> 1093
家 具</w> 1093
v et</w> 1093
su n</w> 1093
寶 可 1091
k ors</w> 1090
糖 果 1087
ch erry</w> 1086
for mal</w> 1084
阿 迪 1083
n t</w> 1083
ph i 1083
高 檔 1082
b re 1082
c er</w> 1082
th er</w> 1082
ea ch</w> 1082
cryst al</w> 1082
英 文 1081
appare l</w> 1081
可 拆 1080
ra in 1080
di a 1080
fashion able</w> 1080
at or</w> 1079
美國 代購</w> 1079
游 泳 1077
粉 色</w> 1077
e f</w> 1077
ck y</w> 1077
cr o</w> 1077
百 貨 1076
choco late</w> 1076
印 花</w> 1075
pa jama</w> 1075
ga n</w> 1075
腳 踏 1074
di o</w> 1074
z z 1073
慢 跑 1072
磨 砂 1072
u re 1072
in a</w> 1072
mi o</w> 1072
el ly</w> 1069
空 調 1068
sh ing</w> 1068
禮 品 1067
藍 芽 1067
持 久 1067
he al 1067
a qu 1066
耐 磨 1063
垃 圾 1062
內 搭 1061
ca ke</w> 1061
wo mens</w> 1061
per fe 1060
ou s</w> 1059
sha dow</w> 1059
花 朵 1057
f i</w> 1057
w ra 1057
古 奇 1054
沙 發</w> 1054
初 學 1054
電 源</w> 1051
台灣製 造</w> 1051
fron t</w> 1051
e ts</w> 1050
l un 1050
g lit 1050
min i 1050
chil dre 1049
女 款</w> 1048
周 邊 1048
di sp 1048
tu be</w> 1048
g ro 1047
彈 性 1046
cle an 1046
水 洗 1044
co at</w> 1044
k le</w> 1043
保護 貼</w> 1043
筆記 本 1043
jor dan</w> 1043
ton er</w> 1042
紀 念 1041
o p 1040
j er 1040
o m 1039
zi pper</w> 1039
cap su 1039
新 生 1038
招 財 1038
li mit 1038
qu e 1038
手提 包 1038
夏 裝 1037
w s</w> 1037
con tro 1037
sli ppers</w> 1037
原 單</w> 1036
s al 1036
s old</w> 1036
女 性 1035
adap ter</w> 1035
木 質 1034
隱 形 1034
扭 蛋</w> 1034
k y</w> 1034
l ing 1034
jump suit</w> 1034
t wi 1033
hou se</w> 1033
植 物 1032
強 力 1032
v en</w> 1032
ba l</w> 1032
pur se</w> 1032
免打 孔 1032
小 包</w> 1031
休閒 運動 1031
老 花 1030
b ul 1030
re al</w> 1029
bi es</w> 1029
男 孩 1028
禮 盒 1028
di am 1028
德 國 1027
in ten 1027
canva s</w> 1026
毛 絨 1025
y l</w> 1025
av ai 1025
限 量</w> 1024
w l</w> 1024
mp le</w> 1024
洗 髮 1023
stre t 1023
可 折疊 1022
荷 葉 1022
bu m</w> 1022
a ven 1021
d ai 1021
毛 衣 1020
手 機</w> 1019
圍 巾</w> 1018
ad ju 1018
皮 革</w> 1017
se s</w> 1017
風 格 1016
最 新 1014
收納 架 1013
run ning</w> 1013
sau di</w> 1012
小 米</w> 1011
ta il</w> 1011
批 發 1010
au to 1010
棉 質 1009
手機 殼 1009
re dmi</w> 1008
limit ed</w> 1008
世 界 1007
woo den</w> 1007
廠家 直 1007
色 可選</w> 1006
ar t</w> 1006
fore ver</w> 1006
c ing</w> 1005
la ble</w> 1005
愛迪 達 1005
外 線 1004
送 一</w> 1004
家 具 1003
or a</w> 1003
圓 領</w> 1002
k u 1000
星 星 999
墨 鏡</w> 999
歐 洲 998
涼 鞋 998
leg gings</w> 998
s mo 997
b s</w> 997
自 然 996
摩 托 996
s ing</w> 996
a sus</w> 996
小 米 995
黃 金 995
正品 代購</w> 995
婚 禮 994
f ru 993
wit ch</w> 993
char ging</w> 993
e ment</w> 990
ver se</w> 990
po d</w> 988
ma ke</w> 986
灰 色</w> 985
官 方 985
person ali 985
se y</w> 984
childre n</w> 984
h ang 983
寶 貝</w> 982
sho e</w> 982
現貨 免運</w> 982
牛仔 褲 982
b er 981
h d</w> 981
ru n</w> 981
酒 店 980
親 子 980
低 幫 979
bang ko 979
超 輕 978
ce ss</w> 978
f an 977
補 水 976
玩 偶</w> 976
小 號 975
泰 國 975
抱 枕 974
撞 色 974
mm y</w> 974
韓版 潮流 973
流 行 972
co mb 972
ni e</w> 972
客 訂</w> 971
bir th 970
滑 板 969
抱 枕</w> 969
材 料</w> 969
stat ement</w> 969
潮 牌</w> 968
bangko k</w> 968
角 落 967
硅 膠 965
wa sha 965
生日 禮物</w> 965
pp ed</w> 964
豆 豆 963
washa ble</w> 963
材 質</w> 962
e p</w> 962
ch et</w> 962
寫 字 961
九 分 961
基 本 961
z en 961
w ire</w> 961
re ju 961
vel vet</w> 961
計 時 960
ear phone</w> 960
pear l</w> 960
碎 花 959
co in</w> 958
cond ition 958
z en</w> 956
sta ble</w> 956
原 宿 955
大 理 954
合 一 954
th ai 954
釣 魚 953
mi cro</w> 953
ig e</w> 953
女 裝</w> 952
便 宜 952
情人 節 951
益 智 949
腰 包</w> 948
阿迪 達 948
con ta 947
包 裝</w> 945
no t</w> 945
christ mas</w> 944
攝 影 942
耐 克</w> 942
機 器 941
粉 紅 940
m bo 940
to dd 940
fi er</w> 940
se mi</w> 938
mm ing</w> 938
essenti al</w> 938
現貨 供 937
客 製 936
t at 936
re char 936
p li 935
f ly</w> 935
收納 袋</w> 935
男 包</w> 933
法 國 933
diam ond</w> 933
t v</w> 932
i mp 932
女 神 931
ar m 931
ti me</w> 931
托 特 930
j elly</w> 930
充 氣 927
智 慧 927
fa bri 927
優 雅 926
pri ce</w> 926
fil ter</w> 926
男 裝 924
lu cky</w> 924
fun ko</w> 924
狗 狗 923
he els</w> 922
j an 920
boo ks</w> 920
mi x</w> 919
ru b</w> 919
slee p 919
頭 層 918
商 用 918
stu ri 916
淡 香水</w> 915
奶 茶 915
ribb on</w> 915
大尺 碼 914
adju stable</w> 914
personali zed</w> 914
m y 913
clo th</w> 913
藝 術 912
冰 絲 912
ne w 912
wh e 912
萬 用 911
遊 戲</w> 911
d or 911
學 生</w> 910
舒 適</w> 910
睡 衣 910
gh t</w> 910
女 錶</w> 908
moi sturi 908
小 腳 907
升 降 907
in ch</w> 907
促 銷 906
ba vin</w> 906
ma ch 906
fabri c</w> 906
p on 905
c ri 905
bor n</w> 905
ac ti 904
巴 黎 902
ro id</w> 902
男女 款</w> 902
房 間 901
平 板 901
固 定 901
son y</w> 901
周 邊</w> 900
h an 899
spe cial</w> 899
拼 色 898
情侶 款 898
定 制</w> 897
pa lette</w> 897
收納 包</w> 897
custo mi 897
長 方形 895
軟 殼</w> 895
帽 子 895
帽 子</w> 895
馬 克 895
al bum</w> 895
fragr ance</w> 894
power bank</w> 893
風 扇 892
ro i 892
no w</w> 892
材 料 890
餐 具 889
洋 氣 889
offi ce</w> 889
國 際 888
el d</w> 888
g y</w> 886
avai lable</w> 886
洋 裝 885
st ed</w> 885
blu sh</w> 885
too l</w> 885
comp le 885
洗 澡 883
li e</w> 883
改 裝 882
k ni 882
g eable</w> 882
thai land</w> 882
耐 吉 881
sh a</w> 881
購物 袋</w> 881
青 少年 880
桌 椅 880
特 賣</w> 879
連 體 879
柔 軟 879
s at 879
t g</w> 879
bi ke</w> 878
素 色 877
car ds</w> 877
太陽 眼鏡</w> 877
jog ger</w> 877
to uch</w> 876
ju ice</w> 876
mag ne 876
condition er</w> 876
g un 875
it e 875
colo ur 875
out door</w> 875
水 杯 873
jer sey</w> 873
桌 子</w> 872
stret chable</w> 872
b and 870
en ds</w> 870
ver sion</w> 870
ing er</w> 870
情 侶</w> 868
te ster</w> 868
尖 頭 867
wh o 867
prin cess</w> 867
代 理 866
魔 法 866
woo d</w> 866
一 組</w> 865
毛 巾 864
品 牌 864
板 鞋 864
中文 版</w> 864
自行 車 863
圖 案 862
登 山 862
櫻 花 862
emb roi 862
and roid</w> 861
直 播 860
bea ch</w> 860
le ts</w> 859
bi e</w> 859
mat ic</w> 859
電 源 858
羊 毛 858
灰 色 858
ballo on</w> 858
膠 帶</w> 857
腰 帶 857
素 面 856
推 車 856
y u 856
枕 頭 855
y ears</w> 855
ver y</w> 855
大理 石 855
馬 桶 854
p ul 854
w are</w> 854
birth day</w> 854
colo red</w> 853
wra p</w> 853
英 國 852
dri ve</w> 852
rechar geable</w> 852
夏 季</w> 850
優 品</w> 850
刺 繡</w> 850
麥 克 850
b b</w> 850
凳 子 848
it i 848
原 價</w> 847
寶 寶</w> 847
保 鮮 847
n s</w> 847
er o 847
or y</w> 847
gre y</w> 847
s witch</w> 846
perfe ct</w> 846
th ro 845
便 當 844
路易威 登 844
c ity</w> 843
休閒 鞋 843
收納 架</w> 843
食 品 842
航 海 842
真 空 842
m es</w> 841
lo u 841
迷 彩 840
露 肩 840
大容 量</w> 840
pho to 840
卡 夾</w> 839
a f 839
鬆 緊 838
密 封 838
ne ss</w> 838
噴 霧</w> 837
c m</w> 837
茶 具 836
兒 童</w> 836
di y</w> 836
耐 克 835
mach ine</w> 835
古 奇</w> 834
保 證 834
浪 漫 834
no te 834
床 邊 833
魔 術 833
offi cial</w> 833
f one</w> 832
實 用 831
寶 貝 831
stick ers</w> 831
mb er</w> 830
com for 830
斜跨 包</w> 830
書 包</w> 829
v ed</w> 829
鋁 合金 828
摺 疊 828
h er</w> 828
短袖 上衣</w> 828
cti ve</w> 828
特 惠 826
d ry</w> 826
e ds</w> 825
z ara</w> 825
bla zer</w> 825
日本 代購</w> 825
pur ple</w> 825
尼 龍 824
u sed</w> 824
b ed</w> 824
ar t 824
c ed</w> 823
j i 822
blo ck</w> 822
eye brow</w> 822
麂 皮</w> 821
出 貨 820
書 房 820
聯 名</w> 819
喇 叭 819
m ang 819
gu e 819
dd ing</w> 819
tan k</w> 819
客 訂 818
肩 帶 817
s k</w> 816
休閑 鞋</w> 816
七 分 815
ir on</w> 815
al u 815
fo und 815
結 婚 813
f ir 813
to yo 813
鏈條 包</w> 813
創 意</w> 812
ti cs</w> 812
夏 日 811
配 色</w> 811
景 品</w> 811
chan el</w> 811
精 華</w> 810
sel f</w> 810
德 國</w> 809
網 面 809
gra ph 809
長 裙</w> 808
附 發票</w> 808
咖 啡</w> 808
cla ss</w> 808
電腦 桌 808
洗 臉 807
toyo ta</w> 807
廁 所 806
組 裝 806
輕 量 806
pla te</w> 806
mar vel</w> 806
too th 806
羽 絨 805
w ing</w> 805
bo x 805
spa de</w> 805
全 棉 804
綠 色 804
li fe</w> 804
f lip</w> 803
it s</w> 803
en g 803
alo e</w> 803
小 牛皮 802
太 空 802
普 拉 802
b len 802
b lan 802
leg o</w> 802
小 說</w> 801
附 購 801
活 動 801
gam ing</w> 801
街 頭 800
p in 800
gra ms</w> 800
head band</w> 800
禮 服 799
s or</w> 799
mon th 799
手 作</w> 798
美 白 798
la dy</w> 798
ba g 798
pla y</w> 797
of f 797
大 利 796
t al</w> 796
o l</w> 796
外 穿 795
反 光 795
o z</w> 795
brand new</w> 795
三 麗 794
經典 款</w> 794
風 衣 793
外 出 793
酒 吧 793
fo il</w> 793
純 銀</w> 792
ba sic</w> 792
ro ller</w> 792
樂 高</w> 791
u kay</w> 791
sc rub</w> 791
cleans ing</w> 791
found ation</w> 790
加 大 789
修 護 789
wo man</w> 789
tu mb 789
懶人 鞋</w> 789
公 文 788
隔 斷 788
包 屁 787
k ate</w> 787
小 鋪</w> 786
x r</w> 786
bla ck 786
am eri 786
水 壺</w> 785
butt er 785
良 好</w> 784
噴 霧 783
菱 格 783
睡 衣</w> 783
g g 783
手 持 782
半 身 782
long sleeve</w> 782
全館 免運</w> 782
褲 子</w> 781
纖 維 781
lo go</w> 781
pla ted</w> 781
hon da</w> 781
zen fone</w> 781
媽 咪 780
co de</w> 780
mo un 780
ha t</w> 779
wal l 778
prote ction</w> 778
chee k</w> 778
網 紗 777
t ru 777
台灣 現貨 777
老爹 鞋</w> 777
r s</w> 776
pu mp</w> 775
fi ber</w> 774
ga r</w> 774
sur e</w> 774
吸 頂 773
衣 架</w> 772
彩 虹 772
型 號</w> 771
bal m</w> 771
cur tain</w> 771
緊 身 770
l li 770
大尺 碼</w> 770
包 臀 769
over run</w> 768
水 鑽 766
小 學生 765
ju mper</w> 765
pur po 765
半 袖 764
t one</w> 764
in f 764
寶可 夢</w> 764
摩托 車 762
arm or</w> 762
cor e</w> 761
pie ces</w> 761
自 慰 760
連帽 外套</w> 760
乾 燥 759
ir s</w> 758
化妝 品 758
文 具 757
y our</w> 757
do wn</w> 757
打底 衫 757
防 護 756
翻 領 755
一 次 754
pro du 754
fol dable</w> 754
鑽 石 753
初學 者 753
so f 752
chi ff 751
幾 何 750
av on</w> 750
門 口 749
超 大 748
chiff on</w> 748
we dge</w> 747
mon o 747
dia per</w> 747
現貨供 應</w> 747
首 飾 746
b on 746
玻璃 貼</w> 746
睫 毛 745
p ull</w> 745
cro ss 745
hal ter</w> 745
高 端 744
紫 外線 744
m ol 744
pol ka</w> 744
todd ler</w> 744
customi zed</w> 744
tt i</w> 743
fe ssi 743
fla sh</w> 743
托特 包</w> 743
t ure</w> 742
to i 742
me ter</w> 742
swe ater</w> 742
que en</w> 742
swe et</w> 740
推 車</w> 739
泳 衣 739
st ant</w> 739
r an 738
ra ck</w> 738
gue ss</w> 738
month s</w> 738
短 版 737
k en 736
卡 西 735
高 幫 735
吊 燈 735
仙 女 735
pa w 735
cla y</w> 735
包 郵</w> 734
h k</w> 734
轉 賣</w> 733
pa ds</w> 733
ss a</w> 733
cleans er</w> 733
麵 包 732
re o</w> 732
帶 蓋 731
小 物</w> 730
粗 跟 730
客廳 臥室 730
全新未 拆</w> 730
原 創 729
座 椅 729
過 濾 729
榻 榻 729
ni s 729
迪 奧</w> 728
文 藝 728
th ing</w> 728
眼 影 727
七 龍 727
喇 叭</w> 727
t ers</w> 727
g ol 727
sp on 727
保 固</w> 726
夜 光 726
foo t</w> 726
電 池 725
內 褲 725
品 下殺</w> 725
感 應 725
be d 725
書 寶 724
g on</w> 724
儲物 柜 724
鑲 鑽 723
v c</w> 723
書寶 二手書</w> 723
短 裙</w> 722
顯 瘦</w> 722
褲 子 722
裝飾 品 722
原 廠</w> 721
學生 宿舍 721
多功 能</w> 721
body con</w> 721
eye shadow</w> 720
華 為</w> 719
s ca 719
i pad</w> 719
ur a</w> 719
ad he 718
r at 717
g et</w> 717
mi x 717
瑜 伽 716
烘 焙 716
m et</w> 716
ani mal</w> 716
coo l</w> 716
經典 款 715
glu ta</w> 715
lay er</w> 715
fru it</w> 715
re si 714
玫瑰 金 714
卡 通</w> 713
防 刮 713
sc en 713
key board</w> 713
坐 墊 712
馬 卡 712
綠 色</w> 712
ar o 712
mas sa 712
鞋 柜 711
刷 毛 711
k in</w> 711
v u 711
v an 711
窗 簾 710
me sh</w> 710
汽 車</w> 709
闊 腿 709
海外 代購</w> 709
童 裝 708
項 鏈</w> 708
sa fe 708
us a</w> 708
三葉 草 708
水桶 包</w> 708
手 包</w> 707
套 組</w> 707
全 身 707
系 帶 707
記 憶 707
真 皮</w> 707
充電 器</w> 707
專櫃 正品</w> 707
magne tic</w> 707
件 組</w> 706
z a 706
li ving</w> 706
da m</w> 706
pro fessi 706
under wear</w> 706
鞋 子 705
n ur 705
高品 質</w> 705
粉 底 704
p in</w> 704
h p</w> 704
ch amp</w> 704
de li 704
de red</w> 704
三 層 703
隔 熱 703
交 叉 703
g ath 702
hal f</w> 702
comple te</w> 702
牛 奶 701
積 木 701
f en 701
ki d 700
耳 釘 699
ear ring</w> 699
ac ry 699
拉 桿 698
潮 男 697
吊 墜 697
re pla 697
桌 上 696
家 庭 696
衣 帽 696
健 康 696
真 品</w> 696
pare nt</w> 696
co r</w> 695
el a</w> 695
sp ar 695
strip ed</w> 695
全 套 694
完 美 694
ma ll</w> 693
保護 套 693
ex ten 693
pack age</w> 693
書 包 692
發 貨</w> 692
空 間 692
cel l 691
奢 華 690
旗 艦 690
積 木</w> 690
現貨 實拍</w> 690
fla ts</w> 690
hu man</w> 690
手 動 689
海 洋 689
ea t</w> 689
連身 裙</w> 689
tumb ler</w> 689
acry lic</w> 689
衣 物 688
法 式 688
鉛 筆 688
生日 禮物 688
reju ven 688
羅 馬 687
球 鞋</w> 687
pho to</w> 687
colour pop</w> 687
lou is</w> 687
雙 色 686
偏 光 686
k er 686
韓國 代購</w> 686
bra ke</w> 686
航海 王</w> 686
椅 子</w> 685
童 鞋</w> 685
t es</w> 685
ou r 685
de cor 685
立 式 684
拍 照 683
香 氛 683
耳 釘</w> 683
鴨 舌 683
shi eld</w> 683
har d 683
拉 拉 682
de l</w> 682
多 肉 681
防 摔</w> 681
迷 你</w> 681
美 人 681
襪 子</w> 681
秒 殺</w> 681
秋冬 新款 681
比 基 680
t p</w> 680
w on 680
漫 畫</w> 679
搭 配 679
po sable</w> 679
水 晶</w> 678
飛 機 678
min t</w> 678
精 油 677
note book</w> 677
數 位 676
零 食 676
露 營 676
re n 676
an o</w> 676
co ol 675
跑步 鞋 675
圓領 短袖</w> 675
幼兒 園 675
purpo se</w> 675
vu it 675
戒 指 674
s d</w> 674
u al</w> 674
lu tion</w> 674
單肩 斜挎包</w> 674
dis posable</w> 674
professi onal</w> 674
cu tter</w> 673
史 努 672
d ata</w> 672
拼 圖</w> 671
wor ld</w> 671
col d</w> 670
功 夫 669
g y 669
stu d</w> 669
秋冬 季 669
深 藍</w> 668
sh ion</w> 668
收納 柜 668
絨 毛 667
淡 香 667
襪 子 667
glu t 667
trans parent</w> 667
行動 電源</w> 667
paw na 667
vuit ton</w> 667
品 質 666
慢 跑</w> 665
漁 夫 665
檸 檬 665
p es</w> 665
w e</w> 665
re lla</w> 665
ol s</w> 665
sea led</w> 665
機 家用 664
網 紅</w> 664
d c</w> 664
it o</w> 664
essen ce</w> 664
男 生</w> 663
東 京 663
lo t</w> 663
de cor</w> 663
we dding</w> 663
tr o</w> 663
fe male</w> 662
who le 662
inf ant</w> 662
rejuven ating</w> 662
修身 顯瘦 661
手 表 660
盒 裝</w> 660
轉 接 660
項 鏈 660
標 準 660
聖 羅 660
ver a</w> 660
新品 上 660
person al</w> 660
男 士</w> 659
喬 丹</w> 659
美 樂 659
微 波 659
or t</w> 659
li d</w> 659
ta g</w> 659
水 壺 658
新 娘 658
加 厚</w> 658
ne o 658
全新 品</w> 658
ati ve</w> 658
空 壓 657
cer a 657
butter fly</w> 657
手 鏈</w> 656
螢 幕 656
資 料 656
k et</w> 656
gu lar</w> 656
contro l</w> 656
adhe sive</w> 656
北 歐</w> 655
d en 655
第 一 654
b in 654
榻榻 米 654
勞 力 653
fit s</w> 653
點 點 652
大 型 652
禮 品</w> 652
裙 子 652
冰 箱 652
r and 652
se at</w> 652
dre am</w> 652
ter n</w> 652
ang le</w> 652
巴寶 莉</w> 652
使 用</w> 651
ma c</w> 651
si s</w> 651
vin yl</w> 651
pawna ble</w> 651
低 價</w> 650
d v 650
h or 650
ru ff 650
cor d</w> 650
ed ge</w> 650
阿瑪 尼 650
cosme tics</w> 650
大 氣 649
帥 氣 649
l ink</w> 649
ta n</w> 649
cell phone</w> 649
高 爾 648
玫瑰 金</w> 648
專 賣 647
吧 臺 647
i i</w> 647
to m</w> 647
棒球 帽</w> 647
自 拍 646
不 規 646
角落 生 646
魔 鬼 645
in fin 645
fa ce 645
tre e</w> 645
龍 頭 644
夾 克 644
高 級 644
sse d</w> 644
cu shion</w> 643
s ling 642
w r 642
ba bies</w> 642
巴寶 莉 642
手 抓 641
風 格</w> 641
第 二 641
世 界</w> 641
交 換 641
capsu les</w> 641
超 值 640
禮 服</w> 640
夢 幻 640
la sh</w> 640
日 常 639
夜 店 639
b y 639
ste reo</w> 639
小白 鞋</w> 639
gath ering</w> 639
下單 區</w> 638
金 證</w> 637
絕 版 637
d r</w> 637
b on</w> 637
口 袋</w> 636
衣 柜 636
字 母</w> 636
m ing</w> 636
si ble</w> 636
變 頻 635
中 性 635
發 光 635
t d</w> 635
en s</w> 635
rea dy</w> 635
min nie</w> 635
fro zen</w> 635
瀝 水 634
a d</w> 634
re pli 634
男 性 633
工 裝 633
clean er</w> 632
透 明</w> 630
朋 友 630
auto matic</w> 630
升 級 629
絕 版</w> 629
買 一 629
i a</w> 629
wall paper</w> 629
b o</w> 628
i one</w> 628
x e</w> 628
g g</w> 628
de o</w> 628
stu ff 628
獨 家 627
st on</w> 627
por t</w> 627
相機 包</w> 627
慢跑 鞋 627
立 領 626
巧 克力 626
f er 626
plu sh</w> 626
ite ms</w> 626
fir st</w> 626
超 人 625
星 巴 625
身 體 625
寬 褲</w> 625
道 具</w> 625
安 德 625
p vc</w> 625
se eds</w> 625
ur y</w> 625
ion al</w> 625
髮 夾</w> 624
sa n</w> 624
car a</w> 624
ac tion</w> 624
洗髮 精</w> 624
repli ca</w> 624
工 藝 623
a s 623
o on</w> 623
pa int</w> 623
ha ir 623
遮 光 622
s car 622
or din 622
小方 包</w> 622
出 版</w> 621
反 光</w> 621
草 莓 621
田 園 621
sh er</w> 621
ligh ts</w> 621
hea vy</w> 621
ll s</w> 621
gra de</w> 621
打底 衫</w> 621
remo ver</w> 621
高品 質 621
民 族 620
授 權</w> 620
u mb 620
l cd</w> 620
re al 620
ath ione</w> 619
行李 箱 619
餐 椅 618
ro y 618
to ols</w> 618
pa st 618
休閒 褲</w> 618
休閒 運動鞋</w> 618
休閑 鞋 618
平底 鞋</w> 618
雙肩 包 618
滿 版 617
le mon</w> 617
ri ce</w> 617
ex tra</w> 617
micro phone</w> 617
顯 示 616
兔 子 616
歡 迎 616
ck er</w> 616
po t</w> 616
mi ra 616
sc ent</w> 616
gi cal</w> 616
tre at 616
long sleeves</w> 616
雨 傘 615
老 人 615
k ar 615
bi t</w> 615
sil k</w> 615
graph ic</w> 615
送 禮 614
ch er</w> 614
qu ick</w> 614
韓版 百搭 614
兩件 套 614
一字 領 614
克 力</w> 613
u v</w> 613
a ci 613
aqu a</w> 613
毛 巾</w> 612
保 固 612
clu tch</w> 612
中國 風 612
小 小 611
名 媛 611
st ing</w> 611
whole sale</w> 611
充 電</w> 610
破 洞 610
優 品 610
ma y 610
防水 防 610
spe ed</w> 610
神奇 寶貝</w> 610
safe ty</w> 610
正 貨</w> 608
e li 608
日本 帶回</w> 608
con verse</w> 608
pan e 608
pand ora</w> 608
青 春 607
公 主</w> 607
lar e</w> 607
籃球 鞋 607
手拿 包 607
off shoulder</w> 607
包屁 衣</w> 607
一 番 606
背 帶 606
黃 色 606
d on 606
onesi e</w> 606
imp orted</w> 606
電 腦</w> 605
水 杯</w> 605
單 鞋 605
總 動 605
re s</w> 605
液 晶 604
震 動 604
her o</w> 604
按摩 棒</w> 604
gun dam</w> 604
潤 滑 603
吸 水 603
米 奇</w> 603
si mple</w> 603
su gar</w> 603
mi ly</w> 603
rain bow</w> 603
架 子</w> 602
海 綿 602
小 時 601
收 腰 601
橡 膠 601
z e 601
st it 601
gri p</w> 601
glut athione</w> 601
hon ey</w> 600
fol ding</w> 600
新生 兒 600
掛 件 599
台 北 599
騎 行 599
th ick</w> 599
sc o</w> 599
紙 巾 598
ur ban</w> 598
安全 帽</w> 598
玻 璃</w> 597
數 字 597
洗 面 597
長袖 上衣</w> 597
手 提</w> 596
假 兩件 596
mu g</w> 596
dd ed</w> 596
梳妝 臺 596
new born</w> 596
情 趣</w> 595
飛 行 595
燒 烤 595
rea r</w> 595
mo del</w> 595
sh guard</w> 594
wi fi</w> 594
cro chet</w> 594
韓 式 593
文 件 593
嘻 哈 593
v eni 593
flo w 593
loo se</w> 593
heal th</w> 593
不規 則 593
二 次 592
條 紋</w> 592
髮 飾</w> 592
閨 蜜 592
可 以 591
郵 差 591
奶 油 591
d es</w> 591
al ph 591
sha pe</w> 591
五 金 590
收 藏 590
我 的 590
z y</w> 590
sh ine</w> 590
un g</w> 590
fun ction</w> 590
吸 塵 589
d on</w> 589
h i</w> 589
音 響</w> 588
輕 量</w> 588
a i</w> 588
an de 588
sun glasses</w> 588
check ered</w> 588
購 入</w> 587
n al</w> 587
ro ll</w> 587
ny lon</w> 586
si a</w> 585
ti n</w> 585
sling bag</w> 585
安 卓 584
g h</w> 584
par is</w> 584
男 子 583
寶 石 583
si z 583
car di 583
男女 款 583
color ful</w> 583
裙 子</w> 582
史 迪 582
a ero 582
min um</w> 582
wi ld</w> 582
hang ing</w> 582
o c 581
g er 581
dre sses</w> 581
mo tor</w> 581
荔枝 紋 581
口 罩</w> 580
防 彈 579
t u</w> 579
ki e</w> 579
car ter</w> 579
gh e 579
fil m</w> 579
三件 套 579
大 童 578
k ne 578
de ep</w> 578
mar oon</w> 578
鋼化 玻璃 578
掛 式 577
sp ring</w> 577
口 紅 576
五 金</w> 576
鍵 盤 576
bar bie</w> 576
kin a</w> 575
折 扣 574
紋 身 574
材 質 574
p a</w> 574
運動 褲</w> 574
少女 心 574
glit ter</w> 574
毛 線 573
小 巧 573
螺 絲 573
o h</w> 573
sh ar 573
rand om</w> 573
音 響 572
卸 妝 572
p each</w> 572
g ear</w> 572
無線 藍牙 572
愛馬 仕</w> 572
地 墊</w> 571
嚴 選</w> 571
p l 571
tt y</w> 571
alu minum</w> 571
花 花 570
u ter</w> 570
h o</w> 570
角 色 569
設計 師 569
plan ner</w> 569
愛 麗 568
騎 士 568
p ra 568
a ging</w> 568
中 筒 567
台 灣</w> 567
v ans</w> 567
mari kina</w> 567
moisturi zing</w> 567
開 衫 566
寬 鬆</w> 566
c ts</w> 566
z o 566
z a</w> 566
j i</w> 566
愛馬 仕 566
disp lay</w> 566
萬 聖 565
加 長 565
絲 絨 565
紫 色 565
泰 迪 565
tur ban</w> 565
馬克 杯</w> 565
防 蚊 564
攜 帶 564
金 色</w> 564
手 袋</w> 563
毛 呢 563
鋼 帶 563
最 新款 563
s w 563
ba t 563
th in</w> 563
du ty</w> 563
廠家直 銷</w> 563
an ti 562
兩件 套</w> 562
dr ink</w> 562
服裝 店 562
阿瑪 尼</w> 562
古 著</w> 561
賣 場 561
調 味 561
粉 紅</w> 561
電 競 560
午 睡 560
消 毒 560
m ani 560
wh i 560
dra gon</w> 560
臺 灣 559
乳 液</w> 559
ap y</w> 559
aci d</w> 559
手 套 558
高 領 558
公 分 558
付 款</w> 558
g ers</w> 558
ch ing</w> 558
qu i 558
lov es</w> 558
mas cara</w> 558
leg ends</w> 558
sili con</w> 558
embroi dered</w> 558
nur sing</w> 558
cardi gan</w> 558
髮 圈</w> 557
co al</w> 557
手提 袋</w> 557
mon ey</w> 557
bang le</w> 557
專屬 賣場</w> 557
平 衡 556
馬 丁 556
t un 556
k u</w> 556
ca m</w> 556
bu il 556
學 步 555
高 腳 555
英 國</w> 555
餅 乾</w> 555
s mi 555
v ol 555
li ke</w> 555
抽屜 式 555
mang o</w> 555
道 具 554
e e 554
cross body</w> 554
手 鏈 553
機 能 553
傳 輸 553
re e</w> 553
pa ste</w> 553
te red</w> 553
北歐 風 553
hel met</w> 553
平 口 552
牙 刷 552
ra di 552
bed sheet</w> 552
小 卡</w> 551
蝦 皮 551
拆 封</w> 551
spa ghe 551
衣 櫃 550
吊 燈</w> 550
蔻 馳</w> 550
m g</w> 550
l i</w> 550
prin ts</w> 550
裝飾 畫 550
香 薰 549
ro se 549
創意 個性 549
顏 色 548
b lea 548
ra cing</w> 548
el la</w> 548
bi o 548
vi o 548
cera mic</w> 548
充電 線</w> 547
高跟 鞋</w> 547
high waist</w> 547
sna p</w> 547
cosme tic</w> 547
精 油</w> 546
派 對 546
零 食</w> 546
li ps</w> 546
fa mily</w> 546
fla v 546
地 毯 545
飄 窗 545
sh ell</w> 545
bo wl</w> 545
pa in 545
牛 津 544
全 白</w> 544
玩 偶 544
滿 千 544
te ch</w> 544
fi la</w> 544
shi p</w> 544
下標 區</w> 544
變 形 543
j ic</w> 543
so s</w> 543
hy dr 543
幸 福 542
ba se 542
fa ir 542
so lar</w> 542
pul lo 542
專 屬</w> 541
照 片 541
居 家</w> 541
g ga 541
恤 女 540
fa u 540
ce ment</w> 540
war s</w> 540
spaghe tti</w> 540
文 化</w> 539
爆 米 539
鏡 子 539
鄉 村 539
fi e</w> 539
pu b 539
ion s</w> 539
bre ath 539
代理 版</w> 539
風 衣</w> 538
紅 米</w> 538
打 火 538
ba sed</w> 538
bo t 538
be st 538
go wn</w> 538
購物 包</w> 538
實 體 537
鞋 架 537
泳 裝</w> 537
時尚 休閒 537
bra cket</w> 537
七龍 珠</w> 537
華 碩</w> 536
信 封 536
oo td</w> 536
韓 系 535
女 童</w> 535
開 發票</w> 535
地 墊 535
滋 潤 535
蛋 白 535
s nail</w> 535
st and 535
sho wer</w> 535
ga p</w> 535
阿迪達 斯</w> 535
方 向 534
so le</w> 534
cla ssy</w> 534
果 凍 533
小 夜 533
al lo 533
cle an</w> 533
新品 下殺</w> 533
spo on</w> 533
多 用 532
肩 背 532
d ers</w> 532
b l</w> 532
n or 532
ko jic</w> 532
eri al</w> 532
neo pre 532
哈 倫 531
手 環 531
高 筒 531
不 用 531
f lu 531
in ter 531
ch e</w> 531
ma id</w> 531
bla de</w> 531
高爾 夫 531
泡 茶 530
洗 漱 530
v ari 530
馬卡 龍 530
ta i 529
面 膜 528
度 假 528
凡 賽 528
s co 528
min e</w> 528
pand a</w> 528
pon y</w> 528
秋 裝 527
買 二 527
boo ts</w> 527
一番 賞</w> 527
neopre ne</w> 527
精 靈 526
簡 單 526
抽 繩 526
連 線</w> 526
森 林 526
玩具 總動 526
dai ly</w> 526
自 由 525
面 交</w> 525
墨 鏡 525
粉 餅</w> 525
鋼 圈 525
玫 瑰</w> 525
ani me</w> 525
remo te</w> 525
擺 飾</w> 524
鏡 頭 524
蝙 蝠 524
葡 萄 524
sli mming</w> 524
long champ</w> 524
free size</w> 524
卡 片</w> 523
明 信 523
海 報</w> 523
鎖 骨 523
y o</w> 523
ch ro 523
皮 卡 522
四 角 522
個 性</w> 522
恐 龍 522
wa ys</w> 522
mu sic</w> 522
lux ury</w> 522
男 用 521
小 店</w> 521
近 全新</w> 521
mo on</w> 521
oo d 521
三麗 鷗</w> 521
公文 包</w> 521
卡 片 520
毛 孔 520
壓 克力 520
珊 瑚 520
sli pper</w> 520
男 裝</w> 518
保 險 518
樂 器</w> 518
有 機 518
議 價</w> 518
c ir 518
夾 克</w> 517
名 片 517
吸 盤 517
ma ong</w> 517
ti es</w> 517
cro ptop</w> 517
jan sport</w> 517
頭層 牛皮 517
可 坐 516
in ner</w> 516
風 水 515
毛 毛 515
推 薦 515
徽 章</w> 515
控 油 515
r o</w> 515
re tro</w> 514
plu g</w> 514
電視 柜 514
女 生</w> 513
床 包 513
練 習 513
un der</w> 513
su b 513
專 區</w> 512
胸 包</w> 512
隔 離 512
密 碼 512
pi g</w> 512
ja pane 512
萬 能 511
車 內 511
筆 電 511
護 膚 511
鞋 子</w> 511
辦公 桌 511
ya ma 511
siz es</w> 511
japane se</w> 511
螢 光 510
紙 膠帶</w> 510
c c</w> 510
聚 攏 509
低 音 509
an kle</w> 509
ck ets</w> 509
pat tern</w> 509
電 熱 508
滑 板鞋</w> 508
床 單 508
雜 貨</w> 508
f lare</w> 508
real me</w> 508
星 空 507
t it 507
la ure 507
一次 性 507
天 使 506
燈 具</w> 506
g loves</w> 506
vi sor</w> 506
臥室 床頭 506
stit ch</w> 506
皮 鞋 505
偶 像 505
a c</w> 505
z oo 505
ch air</w> 505
tu tu</w> 505
防 紫外線 504
靠 墊 504
t ea 504
c lin 504
con ce 504
ho w</w> 504
迷你 小 504
彩 繪 503
修 復 503
亮 片 503
老 年 503
car bon</w> 503
ang el</w> 503
mag net</w> 503
cti onal</w> 503
卡 包</w> 502
訂 製 502
全 黑</w> 502
單 鞋</w> 502
泳 衣</w> 502
t ar 502
ssi on</w> 502
prote ctive</w> 502
sou veni 502
kne e</w> 502
高 筒</w> 501
優 選</w> 501
凱 蒂 501
s ol 501
s so 501
li es</w> 501
rea d</w> 501
por e</w> 501
lux xe</w> 501
umb rella</w> 501
手 辦 500
品 質</w> 500
冷 氣 500
施 華 500
ma ster</w> 500
日 版 499
潛 水 499
bi shi</w> 499
bea ds</w> 499
pu sh</w> 499
vio let</w> 499
圖 案</w> 498
精 美 498
女 孩</w> 498
情趣 用品</w> 498
dra w 498
ky lie</w> 498
sleep wear</w> 498
souveni r</w> 498
手 電 497
氣 質</w> 497
四 輪 497
門 廳 497
飲 料 497
in o</w> 497
kni t</w> 497
英 雄 496
遮 瑕 496
低 價 496
p le 496
pe sos</w> 496
cloth ing</w> 496
四件 套 496
嬰 幼兒 495
co un 495
ac ne</w> 495
ans i</w> 495
met al 495
zz le</w> 495
conta ct</w> 495
大 功 494
o pen</w> 494
l t</w> 494
car ri 494
防彈 少年 494
餐 具</w> 493
保 養 493
m c 493
char coal</w> 493
牙 刷</w> 492
t en</w> 492
po lish</w> 492
allo y</w> 492
雙 人</w> 491
兩 用</w> 491
服 飾</w> 491
補 充 491
名 牌 491
運動 套裝</w> 491
咖啡 廳 491
wa x</w> 490
wa ve</w> 490
zi p</w> 490
blan ket</w> 490
花 邊 489
果 汁 489
原 裝</w> 489
原 單 489
新 年 489
不 含 489
護 理 489
s ci 489
l g</w> 489
mo ss</w> 489
工業 風 489
防 撞 488
直 送</w> 488
ti re</w> 488
al er</w> 488
pre ss</w> 488
no vo</w> 488
女 學生 487
毛 球 487
大 衣</w> 487
清 洗 486
旅 遊 486
杯 子 486
al co 486
te ens</w> 486
限定 下標</w> 486
秋季 新款 486
皮 鞋</w> 485
錶 帶</w> 485
義 大利 485
st er 485
car s</w> 485
lux e</w> 485
moun t</w> 485
貨 到 484
超 火 484
盒 子 484
米 妮 484
柜 子 484
棋 盤 484
le tter</w> 484
cle ar 484
交換 禮物</w> 484
stuff ed</w> 484
會 議 483
多 款 483
人 字 483
d ea 483
h am 483
雪 花 482
i con 482
提 袋</w> 481
掛 畫 481
尺 碼</w> 481
范 思 481
微波 爐 481
手 工</w> 480
便 利 480
省 空間 480
j o</w> 480
qu art 480
充電 式 480
超 取 479
離 子 479
投 影 479
怪 獸 479
p al 479
運動 休閒 479
吹 風 478
s f</w> 478
bo u 478
el lo</w> 478
onesi es</w> 478
基本 款</w> 478
bag pack</w> 478
台 中 477
餅 乾 477
ear phones</w> 477
美 妝 476
開 口 476
專 櫃</w> 476
保 證</w> 476
m ansi</w> 476
in nis 476
en ser</w> 476
fa ct 476
au to</w> 476
gi v 476
古 典 475
合 金</w> 475
相 機</w> 475
for d</w> 474
treat ment</w> 474
bat man</w> 474
quart z</w> 474
開 叉 473
髮 帶</w> 473
v al 473
le e</w> 473
so cket</w> 473
fi sh</w> 473
innis free</w> 473
專 輯</w> 472
平 安 472
便 宜</w> 472
聊 聊 472
w a</w> 472
ra shguard</w> 472
pa ct</w> 472
ja de</w> 472
電腦 椅 472
moi st 472
原 木 471
鉚 釘 471
護 手 471
吸 管 471
抗 菌 471
秒 殺 471
e gg</w> 471
an y</w> 471
su pre 471
ste m</w> 471
va pe</w> 471
背景 墻 471
迪 奧 470
泡 沫 470
le br 470
be ige</w> 470
colle cti 470
英倫 風 470
室 外 469
好 市 469
出 售</w> 469
低 筒</w> 469
婚 紗 469
科 技 469
e u 469
se a</w> 469
現貨 免運 469
mer maid</w> 469
cand le</w> 469
庭 院 468
er o</w> 468
ca ps</w> 468
ro om</w> 468
ra in</w> 468
pa per 468
col lar</w> 468
mbo o</w> 468
gol den</w> 468
repla cement</w> 468
專賣 店</w> 468
性 感</w> 467
護 髮 467
台 風 467
法 蘭 467
露 背 467
垂 墜 467
p al</w> 467
wi de</w> 467
附購 證</w> 467
breath able</w> 467
yama ha</w> 467
手 繪 466
子 母 466
te x</w> 466
手 鐲</w> 465
花 盆 465
自 粘 465
收 藏</w> 465
深 層 465
掛 鉤 465
珠 寶 465
e tu 465
g th</w> 465
ba mboo</w> 465
infin ity</w> 465
roy al</w> 465
換 鞋 464
腕 錶 464
p un 464
收納 櫃</w> 464
char ge</w> 464
fun ctional</w> 464
淡香 精</w> 464
郵差 包</w> 464
壓 花 463
豹 紋 463
綜 合 463
r x</w> 463
c it 463
k le 463
alo g</w> 463
pl ant</w> 463
三 色 462
書 柜 462
帆 布</w> 462
勁 戰</w> 462
s or 462
b ble</w> 462
re gular</w> 462
te en</w> 462
so o 462
we st</w> 462
for ce</w> 462
洗衣 機 462
dro p</w> 462
tab let</w> 462
模 具</w> 461
緬 甸 461
z u 461
re pair</w> 461
sh es</w> 461
ne o</w> 461
男女 同款</w> 461
gu n</w> 461
lin er</w> 461
證 件 460
現 代</w> 460
銀 色</w> 460
懶人 沙發 460
gam es</w> 460
麥克 風</w> 460
face mask</w> 460
龍 頭</w> 459
加 熱 459
軟 底 459
襯 衣 459
深 藍 459
食 物 459
圍 巾 458
fla sh 458
pat ch</w> 458
whe el</w> 458
一 件 457
蛋 黃 457
ba se</w> 457
小香 風 457
中 長 456
文 具</w> 456
秋 冬</w> 456
淺 口 456
fe ed 456
ve st</w> 456
smo o 456
spon ge</w> 456
波 浪 455
全 套</w> 455
器 材 455
代 理</w> 455
轉 蛋</w> 455
銀 色 455
e la 455
an alog</w> 455
pa pa 455
ck ed</w> 455
mo squ 455
so lid</w> 455
cro wn</w> 455
保 暖</w> 454
海 軍 454
印 章</w> 454
養 生 454
送 禮</w> 454
f um</w> 454
ea sy</w> 454
uni q 454
正版 授權</w> 454
午 休 453
吊 墜</w> 453
球 衣</w> 453
ba ll 453
dis k</w> 453
base ball</w> 453
metal lic</w> 453
萬 向 452
變 色 452
歐 美</w> 452
長 條 452
衛 浴 452
聖羅 蘭</w> 452
past el</w> 452
清 爽 451
i s 451
n inten 451
se ts</w> 451
bel l</w> 451
mira cle</w> 451
買二 送一</w> 451
etu de</w> 451
超 商 450
美 麗 450
ea n</w> 450
不鏽 鋼</w> 450
may bel 450
小 花 449
特 別 449
k ong</w> 449
st a</w> 449
de o 449
pp er 449
wor k</w> 449
app ro 449
明星 同款 449
supp ort</w> 449
小 圓 448
維 尼</w> 448
鱷 魚 448
k pop</w> 448
pa dded</w> 448
mo ther</w> 448
stra w 448
lun ch</w> 448
aven gers</w> 448
uniq lo</w> 448
電 話 447
n ar 447
to o</w> 447
手機 套</w> 447
win dow</w> 447
ninten do</w> 447
制 服 446
調 料 446
ar ti 446
lu min 446
bri ef</w> 446
旅行 包</w> 446
豪 華 445
d ry 445
li pp 445
新款 時尚 445
feed ing</w> 445
拉 鍊</w> 444
廣 告 444
bu cks</w> 444
bu tter</w> 444
pu ff</w> 444
戶 外</w> 443
e ver 443
gu it 443
ballo ons</w> 443
卡西 歐</w> 443
draw string</w> 443
少 女</w> 442
料 理 442
針 織</w> 442
公 事 442
腳 蹬 442
掛 勾</w> 442
官 網 442
le g</w> 442
le novo</w> 442
te l</w> 442
ori g</w> 442
par fum</w> 442
jo y</w> 442
施華 洛 442
磁 吸 441
工 廠 441
n ed</w> 441
me li 441
ho l</w> 441
牛仔 短褲</w> 441
巴黎 世 441
pub lic</w> 441
紫 色</w> 440
隨 機 440
r are</w> 440
y ear</w> 440
si m</w> 440
bo ss</w> 440
pp e</w> 440
sig nature</w> 440
廚房 置物架 440
dol ph 440
空壓 殼</w> 440
icon ic</w> 440
背 帶</w> 439
先 生</w> 439
e p 439
t al 439
an a 439
ba king</w> 439
可愛 卡通 439
pe el 439
va len 439
stre et</w> 439
glo ssy</w> 439
三眼 計時 439
mosqu ito</w> 439
新 中式 438
轉 換 438
降 價</w> 438
媽 咪</w> 438
被 子 438
冰 雪 438
營 養 438
櫻 桃 438
幸 運 438
g in 438
v ir 438
人 體 437
大 人 437
東 大 437
c ru 437
to u 437
sli t</w> 437
jump short</w> 437
茶 杯 436
皮 質 436
清 倉 436
老 虎 436
罩 衫</w> 436
簽 名 436
m tg</w> 436
cu s</w> 436
潮 人 435
爆 品下殺</w> 435
藍 光 435
蔻 馳 435
b i</w> 435
bo y 435
po ke 435
sp ir 435
cro cs</w> 435
du st</w> 435
desig ns</w> 435
戰 士</w> 434
短 靴</w> 434
地 板 434
文 胸 434
良 品</w> 434
s coo 434
t t</w> 434
a h</w> 434
c in 434
ba lan 434
ch ri 434
日本 進口</w> 434
wa shi</w> 434
carri er</w> 434
短 裙 433
磁 性 433
大 學 433
蜜 蜂 433
f y</w> 433
m ed</w> 433
in clu 433
ro moss</w> 433
貨到 付款</w> 433
多 卡 432
超 人</w> 432
盒 裝 432
衣 著</w> 432
日 曆 432
p ig 432
v s</w> 432
v ani 432
手抓 包</w> 432
包 郵 431
米 妮</w> 431
n max</w> 431
ra l 431
mar k</w> 431
deli very</w> 431
桌 遊</w> 430
畢 業 430
a z 430
a g 430
to mmy</w> 430
ta sse 430
春季 新款 430
邊 幾 429
音 箱</w> 429
褲 女 429
排 扣 429
野 餐 429
增 高</w> 429
re public</w> 429
li n</w> 429
pa m 429
mo s</w> 429
ce i 429
電動 車 429
her bal</w> 429
墻 上 428
當 天 428
最 新款</w> 428
披 肩</w> 428
o ver</w> 428
男女 情侶 428
春夏 新款 428
女 用 427
樂 高 427
耳 針</w> 427
無 鋼圈 427
週 年 427
k at 427
sp ande 427
蝴蝶 結</w> 427
ali ba 427
水 器 426
第 三 426
溫 泉 426
資 生 426
r m</w> 426
an ello</w> 426
er e</w> 426
質 感</w> 425
一 對 425
麂 皮 425
g le</w> 425
g ne</w> 425
te c</w> 425
勞力 士</w> 425
spande x</w> 425
防 潮 424
存 錢 424
被 套 424
e va</w> 424
sh u 424
ga s</w> 424
blo sso 424
glu ta 424
disp enser</w> 424
民族 風 424
straw berry</w> 424
霧 面 423
平 角 423
派 對</w> 423
s wa 423
o d</w> 423
b are</w> 423
bri lli 423
nu de</w> 423
glo ss</w> 423
sat in</w> 423
磁 鐵 422
原 版 422
分 裝 422
保 濕</w> 422
尺 寸 422
靜 電 422
to e</w> 422
gen t</w> 422
花 卉 421
餐 椅</w> 421
睡 眠 421
b le 421
展示 架 421
alco hol</w> 421
giv ea 421
動 漫</w> 420
數 據 420
活 動</w> 420
散 熱 420
f s</w> 420
po ster</w> 420
mi s 420
tt ing</w> 420
pi o</w> 420
針織 衫 420
太陽 鏡 420
原廠 公司貨</w> 420
防彈少年 團</w> 420
飼 料</w> 419
y rs</w> 419
el f</w> 419
個性 創意 419
針織 上衣</w> 419
sal t</w> 419
fair y</w> 419
電 鍍 418
花 園 418
小 姐 418
天 天 418
有 線 418
褲 裙</w> 418
使 用 418
a e 418
it h</w> 418
bo ho</w> 418
me mor 418
茶 葉 417
電 磁 417
小 童 417
包 頭 417
連 帽</w> 417
椰 子 417
in fla 417
we ight</w> 417
maybel line</w> 417
電 影 416
透 視 416
鍵 盤</w> 416
lo r</w> 416
fi ll</w> 416
韓版 修身 416
ni a</w> 416
ex tra 416
公司 貨 416
laure n</w> 416
moist ure</w> 416
poke mon</w> 416
點 心 415
工 程 415
口 罩 415
折 扣</w> 415
美 妝</w> 415
入 耳 415
滿 版</w> 415
演 出 415
佈 置</w> 415
mar y</w> 415
cy c 415
紅 酒 414
新 貨 414
皮 夾 414
服 裝</w> 414
維 尼 414
ten ing</w> 414
chro me</w> 414
配 色 413
九 成新</w> 413
瑞 士 413
en g</w> 413
aliba ba</w> 413
電 瓶 412
女 式 412
折 疊</w> 412
加 濕 412
細 跟 412
s p</w> 412
po ol</w> 412
韓版 時尚 412
glu e</w> 412
黑 紅</w> 411
斜 背 411
飛 利 411
吃 飯 411
f ine</w> 411
lo w 411
ma sk 411
玩具總動 員</w> 411
潮 鞋</w> 410
雜 物 410
at es</w> 410
北歐 簡約 410
star bucks</w> 410
guit ar</w> 410
三 合一 409
小 胸 409
大 碼</w> 409
上 班 409
清 新</w> 409
聯 盟</w> 409
行 車 409
枕 頭</w> 409
剪 刀</w> 409
d dy</w> 409
m el 409
in stant</w> 409
時尚 商務 409
hand made</w> 409
小白 鞋 409
多 色 408
膠 囊</w> 408
躺 椅 408
過 道 408
港 風 408
春 裝 408
六 角 408
飛 線 408
wa shing</w> 408
ed t</w> 408
gar i</w> 408
餐桌 椅 408
aven t</w> 408
防 潑 407
快 樂 407
吊 飾 407
吉 他 407
分 體 407
達 人</w> 407
錢 夾 407
vi e 407
sand al</w> 407
va cu 407
she ets</w> 407
聖誕 節 407
廠家直 銷 407
supre me</w> 407
水 龍頭 406
兩 色</w> 406
書 桌</w> 406
彪 馬</w> 406
h ood</w> 406
li a</w> 406
au gh 406
win ter</w> 406
行李 箱</w> 406
light ning</w> 406
傳輸 線</w> 406
古 著 405
雙 頭 405
墊 子 405
美 背 405
潮 鞋 405
天 堂</w> 405
音 箱 405
種 子</w> 405
植 物</w> 405
避 震 405
d al</w> 405
w rist 405
er a 405
lu gga 405
sp f</w> 405
af for 405
三 折 404
編 號</w> 404
掛 件</w> 404
蔬 菜 404
攪 拌 404
a ma 404
st ation</w> 404
se am 404
化妝 水</w> 404
ve lo 404
stu ff</w> 404
jo h 404
vit a</w> 404
swe at 404
ther apy</w> 404
角色 扮 404
防 盜 403
漫 畫 403
高 雄 403
七 彩 403
不 對 403
獨 角 403
pro mo</w> 403
bri ght</w> 403
鴨舌 帽</w> 403
dolph in</w> 403
頭 戴 402
陽 台 402
誘 惑 402
T M</w> 402
k ed</w> 402
mar c</w> 402
高跟 鞋 402
snea ker</w> 402
亞 麻 401
筆 袋</w> 401
潔 面 401
凝 膠</w> 401
芬 迪</w> 401
宅 配 401
b v 401
in i</w> 401
an ne</w> 401
lon e</w> 401
bul b</w> 401
荷葉 邊 401
zoo m</w> 401
lugga ge</w> 401
繡 花 400
蜘 蛛 400
sha p 400
連身 褲</w> 400
sy n 400
阿迪達 斯 400
ameri can</w> 400
角落生 物</w> 400
pullo ver</w> 400
愛 心</w> 399
水 器</w> 399
眼 睛 399
金 屬</w> 399
羊 皮</w> 399
修 身</w> 399
巧 克力</w> 399
寢 室 399
f inger</w> 399
k es</w> 399
ba thro 399
su e 399
mi di</w> 399
三 人 398
開 關</w> 398
涼 感 398
煞 車 398
休閑 運動 398
for m</w> 398
三件 套</w> 398
vacu um</w> 398
大 象 397
迷 彩</w> 397
亞 克力 397
厚 底</w> 397
長 夾 397
近 視 397
re u 397
pp le</w> 397
du o</w> 397
裝飾 品</w> 397
淋 浴 396
膠 原 396
口 味</w> 396
耐 磨</w> 396
錄 音 396
螺 絲</w> 396
鏡 子</w> 396
太陽 鏡</w> 396
stre tch</w> 396
seam less</w> 396
高 溫 395
二 代 395
棉 花 395
de ca 395
len t</w> 395
whe els</w> 395
旗艦 店</w> 395
冰雪 奇 395
可 用</w> 394
小 姐</w> 394
圓 頭 394
束 口 394
濾 網</w> 394
武 士</w> 394
澳 洲 394
gar den</w> 394
box er</w> 394
吸頂 燈 394
flav or</w> 394
tasse l</w> 394
床 墊</w> 393
顏 色</w> 393
入 組</w> 393
b sco</w> 393
co con 393
wo ven</w> 393
be e</w> 393
客製 化 393
memor y</w> 393
雕 花 392
薄 款</w> 392
迷 妳 392
安 裝</w> 392
阿 甘 392
寫 真 392
黃 色</w> 392
樹 脂 392
屏 風 392
k ing 392
ca sh</w> 392
au dio</w> 392
ni es</w> 392
comb o</w> 392
sca le</w> 392
clear ance</w> 392
超 美 391
維 修 391
it em</w> 391
台灣 出貨</w> 391
mou fla 391
雜貨 鋪</w> 391
短 靴 390
盒 子</w> 390
sk i</w> 390
elect ron 390
fan ta 390
潤滑 液</w> 390
男 包 389
卡 娜 389
玻 尿 389
上 市</w> 389
快 充 389
零 錢 389
潘 朵 389
余 文 389
r h 389
ri e</w> 389
do ts</w> 389
stra w</w> 389
連身 衣</w> 389
施華洛 世 389
衣 櫃</w> 388
分 離 388
馬 甲 388
含 運</w> 388
塗 鴉 388
披 肩 388
椰 子</w> 388
ro t 388
po ly 388
el ite</w> 388
me ga</w> 388
現貨 在 388
長袖 襯衫</w> 388
mor e</w> 388
capsu le</w> 388
卡 其 387
三 色</w> 387
金 剛 387
網 布</w> 387
x t</w> 387
男女 士 387
ey el 387
pe e</w> 387
tat tered</w> 387
acti v 387
toi lette</w> 387
二次 元 387
眼 影</w> 386
坐 墊</w> 386
最 後 386
ba by 386
mat ion</w> 386
遮陽 帽</w> 386
水 槽 385
衣 櫥 385
另 有 385
掛 飾</w> 385
騎 士</w> 385
n ity</w> 385
w ri 385
da vi 385
pu zzle</w> 385
swi mming</w> 385
cre ative</w> 385
落地 式 385
壁掛 式 385
半身 裙 385
stand ard</w> 385
大功 率 385
sue de</w> 385
拼 接</w> 384
單 車 384
晚 宴 384
洞 洞 384
m me</w> 384
w et</w> 384
ar my</w> 384
la p</w> 384
bu cket</w> 384
單肩 斜挎 384
hoo k</w> 384
comp uter</w> 384
cocon ut</w> 384
掛 鉤</w> 383
賽 車 383
p y</w> 383
收納 袋 383
太陽 能 383
mit su 383
ben e 383
stat ion 383
式 耳環</w> 382
大 號</w> 382
日 系</w> 382
鏡 面 382
輔 助 382
e ffe 382
an na</w> 382
la sting</w> 382
兒童 玩具 382
筆記 本</w> 382
比基 尼 382
cyc ling</w> 382
手 表</w> 381
可 議價</w> 381
項 鍊 381
門 簾 381
主 機 381
排 汗 381
n i</w> 381
la tor</w> 381
st rea 381
ne l</w> 381
ex o</w> 381
leg it</w> 381
massa ge</w> 381
粉底 液</w> 381
reu sable</w> 381
型 男 380
合 一</w> 380
安 撫 380
掛 脖 380
仿 古 380
基 礎 380
re li 380
te e 380
簡約 時尚 380
bi cycle</w> 380
收納 箱 380
hea t</w> 380
op ti 380
轉 角 379
開 車 379
主 機</w> 379
紙 盒</w> 379
鋼 彈</w> 379
適 合 379
冰 箱</w> 379
傢 俱 379
si zed</w> 379
ki a</w> 379
ki ss</w> 379
car tri 379
玫瑰 花 379
兩件 式 379
com b</w> 379
精華 液</w> 379
套 腳 378
超 好 378
清 潔</w> 378
速 干 378
日 貨</w> 378
掛 鐘 378
墻 壁 378
mi ya</w> 378
hu b</w> 378
針織 衫</w> 378
商務 休閒 378
限時 下殺</w> 378
moufla ge</w> 378
卡娜 赫 378
精 選 377
配 方</w> 377
薰 衣 377
任 選</w> 377
s i</w> 377
ch u 377
收納 箱</w> 377
sti cks</w> 377
lip tint</w> 377
連身 裙 377
限量 版</w> 377
下殺 價</w> 377
風衣 外套</w> 377
blosso m</w> 377
affor dable</w> 377
防 滑</w> 376
d augh 376
to p 376
sk y 376
sk y</w> 376
魔鬼 氈</w> 376
買一 送一</w> 376
外 貿 375
小 桌子 375
連 線 375
洗 碗 375
鋼 鐵 375
播 放 375
s d 375
s now</w> 375
i m 375
帆布 鞋 375
meli ssa</w> 375
動 物</w> 374
壁 貼</w> 374
綁 帶</w> 374
ch i</w> 374
ligh ter</w> 374
tra y</w> 374
head phone</w> 374
lea f</w> 374
tab lets</w> 374
普拉 達 374
種 子 373
耳 夾</w> 373
松 糕 373
法 國</w> 373
骷 髏 373
v ai 373
th ree</w> 373
so lution</w> 373
tri pod</w> 373
exten sion</w> 373
短 襪</w> 372
上 下 372
網 路 372
貓 咪</w> 372
鏡 頭</w> 372
蠶 絲 372
at s</w> 372
時尚 百搭</w> 372
ul tra 372
ja ck</w> 372
head phones</w> 372
yo ung</w> 372
dis c</w> 372
空 間</w> 371
閃 光 371
i es</w> 371
in ing</w> 371
ch el</w> 371
sa w</w> 371
cho co</w> 371
electron ic</w> 371
小 屋</w> 370
進 門 370
掛 衣架 370
in di 370
en d 370
ma ka 370
out fit</w> 370
vo lu 370
情人節 禮物</w> 370
produ cts</w> 370
史努 比</w> 370
體 恤 369
遮 肚 369
海 報 369
襪 套</w> 369
b un 369
to ur</w> 369
pa irs</w> 369
mi cs</w> 369
新款 男士 369
bi ble</w> 369
au th</w> 369
mon o</w> 369
can on</w> 369
全新未 拆封</w> 369
優惠 價</w> 369
普拉 達</w> 369
不用 等</w> 369
eyel iner</w> 369
波 士 368
雙 耳 368
蝦 皮</w> 368
一 般 368
的 店</w> 368
休 閑</w> 368
m x</w> 368
簡約 百搭 368
tren d</w> 368
bur berry</w> 368
comfor table</w> 368
won der</w> 368
ral ph</w> 368
茶 幾</w> 367
三 星 367
雕 刻 367
中 跟 367
空 軍 367
早 餐 367
ra m</w> 367
ul ti 367
韓版 潮 367
電腦 包</w> 367
sy stem</w> 367
加絨 加厚 367
口 紅</w> 366
內 增高 366
極 簡 366
刀 劍 366
改 裝</w> 366
表 演 366
旗 袍 366
u p 366
el y</w> 366
plu m</w> 366
ja co 366
clo ck</w> 366
mu sc 366
hi l 366
conta iner</w> 366
acti ve</w> 366
conce aler</w> 366
手 包 365
滑 鼠 365
靠 枕 365
二 代</w> 365
墻 面 365
b ears</w> 365
ra i 365
防摔 殼</w> 365
star ter</w> 365
scar f</w> 365
輕 薄 364
零 錢包 364
i zed</w> 364
st ru 364
le tt 364
mp ing</w> 364
do m</w> 364
牛仔 長褲</w> 364
gra m</w> 364
hel lo 364
氣墊 鞋</w> 364
soo thing</w> 364
臥 室</w> 363
ch a</w> 363
ch y</w> 363
foo t 363
公事 包</w> 363
店 鋪 362
製 造</w> 362
調 理 362
舒 緩 362
泰 國</w> 362
m m</w> 362
x a</w> 362
ba ss</w> 362
man ual</w> 362
supp lies</w> 362
papa ya</w> 362
daugh ter</w> 362
薄 荷 361
肩 帶</w> 361
攝 像 361
史 密 361
哆 啦</w> 361
n igh 361
v ac 361
in vit 361
po ds</w> 361
新款 潮 361
pre s 361
床 墊 360
百 褶 360
天 鵝 360
莫 代 360
範 思 360
ck le</w> 360
運動 休閒鞋</w> 360
bu bble</w> 360
sta in</w> 360
dri ll</w> 360
內搭 褲</w> 360
sof t 360
冷 熱 359
翡 翠 359
m b</w> 359
in ci 359
re fill</w> 359
at in</w> 359
to mat 359
夏季 新款</w> 359
情人 節</w> 359
水 管 358
全 球 358
入 門 358
o pen 358
an as</w> 358
vi a</w> 358
con ne 358
sma x</w> 358
保溫 杯</w> 358
cap tain</w> 358
tooth paste</w> 358
fact ory</w> 358
bv l 358
韓 妞 357
寶 格 357
格 紋</w> 357
樂 福 357
製 作 357
魚 尾 357
蕾 絲</w> 357
ca mouflage</w> 357
su e</w> 357
ju st</w> 357
bri gh 357
spi der 357
聯名 款</w> 357
flow ers</w> 357
圖 騰 356
韓 風 356
星 際 356
特 賣 356
商 城</w> 356
燈 具 356
a sh 356
f er</w> 356
f old</w> 356
co ver 356
st le</w> 356
sty lish</w> 356
sel fie</w> 356
yo ga</w> 356
pack aging</w> 356
vani lla</w> 356
悠 遊 355
閱 讀 355
e du 355
an ces</w> 355
ta miya</w> 355
pi pe</w> 355
cartri dge</w> 355
茶 几</w> 354
帳 篷 354
價 格 354
襯 衣</w> 354
繽 紛 354
懷 舊 354
la ser</w> 354
ro pe</w> 354
ri pped</w> 354
mi d</w> 354
機械 錶</w> 354
smar t 354
maka pal</w> 354
戰 靴</w> 353
小 眾 353
壓 縮 353
床 包</w> 353
纖 維</w> 353
職 業 353
ro ck</w> 353
ch ine 353
pre tty</w> 353
男女 同款 353
pla id</w> 353
gu e</w> 353
mou r</w> 353
奶茶 店 353
眼 線 352
中 大童 352
時 鐘 352
白 金 352
瑜 珈 352
詢 問</w> 352
b new</w> 352
m sm</w> 352
i e</w> 352
j en 352
se ed</w> 352
mo m</w> 352
sta y</w> 352
bott les</w> 352
dr i</w> 352
ker atin</w> 352
gy m</w> 352
bot tom</w> 352
inci pio</w> 352
bvl gari</w> 352
夾 腳 351
光 療 351
耐 熱 351
華 為 351
鈦 鋼 351
珍 珠</w> 351
睡 覺 351
a re 351
o x 351
m r</w> 351
鑰匙 扣 351
石英 錶</w> 351
dv d</w> 351
flash light</w> 351
同 人 350
拖 鞋女 350
售 出</w> 350
co ordin 350
se i 350
lu s</w> 350
男女 通用 350
gr and</w> 350
tur tle</w> 350
tooth brush</w> 350
拼 裝 349
嬰 兒童 349
公 路 349
公 斤</w> 349
char ms</w> 349
gen er 349
手 辦</w> 348
花 架 348
防 雨 348
可 穿</w> 348
底 座 348
全 皮 348
的 小 348
早 教 348
碳 纖維 348
g b</w> 348
co co</w> 348
vi br 348
純棉 短袖</w> 348
spor ty</w> 348
tri bal</w> 348
blen d</w> 348
produ ct</w> 348
縮 口 347
無 印 347
烤 漆 347
bo b</w> 347
el le</w> 347
sho ppe</w> 347
日本 進口 347
men ts</w> 347
blo cks</w> 347
twi ce</w> 347
七分 袖 347
安德 瑪</w> 347
肩 背</w> 346
宴 會 346
漢 服 346
側 背 346
搖 搖 346
h dmi</w> 346
sa k 346
min er 346
we e 346
ha y</w> 346
電腦 桌</w> 346
垃圾 桶 346
眼影 盤</w> 346
吸塵 器</w> 346
出 租 345
超 長 345
特 殊 345
棉 褲</w> 345
t su 345
d ent</w> 345
b el</w> 345
x und 345
x xl</w> 345
g al 345
ra dio</w> 345
sho pee</w> 345
do t</w> 345
eri e</w> 345
bask et</w> 345
豆豆 鞋</w> 345
衣帽 架 345
decor ation</w> 345
mitsu bishi</w> 345
可 開發票</w> 344
一 起 344
功 能 344
溫 馨 344
p o</w> 344
b ru 344
sp a</w> 344
手機 包</w> 344
鑰匙 包</w> 344
四季 通用 344
xund d</w> 344
分 裝</w> 343
火 鍋 343
插 卡 343
觸 控 343
in es</w> 343
運動 休閑 343
flo or</w> 343
ja r</w> 343
ve ge 343
正品 現貨</w> 343
stra ight</w> 343
cer ity</w> 343
電 影</w> 342
款 式 342
書 籍</w> 342
復 仇 342
h tp</w> 342
ni ce</w> 342
fle x</w> 342
chine se</w> 342
茶 几 341
超 取</w> 341
不 沾 341
螢 幕</w> 341
p ly</w> 341
f ire</w> 341
on a</w> 341
cha mp 341
ben ch</w> 341
kni fe</w> 341
ameri ca</w> 341
peel ing</w> 341
pam ba 341
高 中 340
頭 飾 340
束 腳 340
開 關 340
樂 園</w> 340
耳 朵 340
芬 迪 340
pa s 340
兒童 房 340
爆米 花 340
戰 鬥 339
花 束</w> 339
女 士</w> 339
膠 帶 339
大 小 339
之 家</w> 339
頭 盔 339
盆 栽 339
安 裝 339
首 選</w> 339
越 野 339
p ti 339
a ce</w> 339
f ur 339
ca ses</w> 339
car go</w> 339
現貨 秒 339
cu p 339
臥室 客廳 339
不銹 鋼</w> 339
舒適 透氣 339
限定 版</w> 339
sw eat</w> 339
spider man</w> 339
切 割 338
送 女 338
杯 子</w> 338
d an 338
b ear 338
re ct 338
ti ger</w> 338
po li 338
ry x</w> 338
美容 院 338
sleep ing</w> 338
人 氣 337
大 衣 337
保 健 337
速 乾 337
涼 拖鞋</w> 337
福 利 337
k not</w> 337
j u</w> 337
hu mi 337
mul a</w> 337
der m</w> 337
comb in 337
kle in</w> 337
不對 稱 337
合 售</w> 336
窗 戶 336
掛 畫</w> 336
乳 膠 336
烤 箱 336
去 角 336
p back</w> 336
f ly 336
o v 336
ba y 336
da ys</w> 336
gu i 336
son ic</w> 336
over lap</w> 336
ssen ger</w> 336
原裝 進口</w> 336
萬聖 節 336
自 取</w> 335
彩 妝 335
彈 簧 335
便 攜</w> 335
宜 家 335
故 事 335
筷 子 335
哺 乳 335
st r 335
bo s 335
nu t</w> 335
gri ll</w> 335
hello kitty</w> 335
臺 燈 334
邊 柜 334
釣 具</w> 334
鏡 片</w> 334
橡 皮 334
宮 廷 334
n am 334
x smax</w> 334
sh ed</w> 334
boo st</w> 334
pri mer</w> 334
機器 人 334
tomat o</w> 334
超 強 333
掛 繩</w> 333
指 環 333
奶 瓶 333
跳 蛋</w> 333
p p</w> 333
di sh</w> 333
te ch 333
手機 支架</w> 333
ha vai 333
ten er</w> 333
clean ing</w> 333
mis sha</w> 333
高 效 332
極 度 332
肩 背包 332
蠟 筆 332
延 長 332
請 先 332
d ang 332
la ven 332
夏季 薄款 332
for mula</w> 332
hi m</w> 332
sau ce</w> 332
appro x</w> 332
infla table</w> 332
海 邊 331
洗 車 331
蛋 糕</w> 331
le ar 331
ma c 331
pro je 331
cro pped</w> 331
ban ana</w> 331
gar ter 331
har ry</w> 331
五分 褲</w> 331
mol y</w> 331
laven der</w> 331
客 廳</w> 330
全 掌 330
家 家 330
冰 淇 330
re f</w> 330
st ea 330
so und</w> 330
pre st 330
洗面 乳</w> 330
havai anas</w> 330
手 珠</w> 329
餐 桌</w> 329
吃 雞 329
e co</w> 329
en er 329
台灣 公司貨</w> 329
pe el</w> 329
星巴 克</w> 329
明信 片</w> 329
小 黑 328
城 市 328
b l 328
g oo 328
me lon</w> 328
wi red</w> 328
手機 架</w> 328
colo gne</w> 328
tor y</w> 328
prote ct</w> 328
gg le</w> 328
brilli ant</w> 328
雨 衣</w> 327
漆 皮 327
書 架</w> 327
長 裙 327
母 親 327
模 具 327
耳 飾</w> 327
飯 盒 327
f al 327
mi ss</w> 327
vi sion</w> 327
情侶 鞋 327
beau ti 327
stor y</w> 327
spa ce</w> 327
essenti als</w> 327
contro ller</w> 327
功夫 茶具 327
換鞋 凳 327
station ery</w> 327
口 水 326
能 量 326
線 條 326
走 廊 326
t b</w> 326
a ha</w> 326
di al</w> 326
tre me</w> 326
床頭 柜 326
可調 節 326
bathro om</w> 326
wri st</w> 326
精 選</w> 325
全 家 325
加 肥 325
園 藝 325
黃 銅 325
or e</w> 325
de cal</w> 325
ko be</w> 325
精品 下殺</w> 325
dri ver</w> 325
dri fit</w> 325
nu mber</w> 325
十字 紋 325
原宿 風 325
出 風 324
浮 雕 324
吸 汗 324
鋼 琴 324
鯊 魚 324
o tg</w> 324
j a</w> 324
st amp</w> 324
護手 霜</w> 324
手 鐲 323
丹 寧 323
褲 男 323
燈 泡</w> 323
兔 兔 323
y i</w> 323
at ions</w> 323
se n</w> 323
di fier</w> 323
垃圾 桶</w> 323
musc le</w> 323
可 面交</w> 322
帶 回 322
繪 本</w> 322
掛 墻 322
米 白</w> 322
研 磨 322
ca st</w> 322
mat er 322
波士 頓 322
裝 備 321
絲 光 321
一 套</w> 321
飯 店 321
壁 畫 321
圍 兜</w> 321
到 貨</w> 321
科 技</w> 321
ra b 321
tri ple</w> 321
lea ves</w> 321
補水 保濕 321
小 號</w> 320
高 壓 320
一 腳蹬 320
減 震 320
側 背包 320
紗 布 320
替 換 320
p t</w> 320
c ent</w> 320
co d 320
ma lone</w> 320
de sk 320
de sk</w> 320
con ver 320
圓領 短</w> 320
cra ft</w> 320
cli ps</w> 320
男 錶 319
款 式</w> 319
大 利</w> 319
甜 甜 319
除 臭 319
輕 鬆 319
o i 319
y ar 319
in t 319
sa fe</w> 319
te st</w> 319
男女 生 319
wat ches</w> 319
cho ker</w> 319
hoo ded</w> 319
字母 印花 319
鞋女 鞋 319
ky rie</w> 319
小夜 燈</w> 319
ela stic</w> 319
玻尿 酸 319
小 包 318
不 挑 318
線 器</w> 318
舞 蹈 318
a min 318
g i</w> 318
潮流 時尚 318
par t</w> 318
dd le</w> 318
按摩 器</w> 318
natu ra 318
massa ger</w> 318
lebr on</w> 318
假 髮 317
一 件</w> 317
贈 品</w> 317
魚 子 317
擺 設 317
腰 包 317
護 眼 317
悟 空</w> 317
p ling</w> 317
o live</w> 317
l le</w> 317
j bl</w> 317
do ve</w> 317
jo y 317
sak ura</w> 317
工 坊</w> 316
全 銅 316
鬼 滅 316
炫 彩 316
壓 紋 316
過 膝 316
布 丁 316
最 低價</w> 316
唇 釉</w> 316
武 士 316
a a</w> 316
l ers</w> 316
ol a</w> 316
pre ci 316
sou l</w> 316
可拆 洗 316
hang er</w> 316
實 用</w> 315
肩 包</w> 315
趣 味 315
草 本 315
米 亞 315
無 線</w> 315
漸 層 315
含 稅</w> 315
滿 額 315
i sh</w> 315
mo der 315
牛仔 外套</w> 315
for k</w> 315
ff y</w> 315
動漫 周邊 315
micro fiber</w> 315
rain coat</w> 315
blea ching</w> 315
三 輪 314
玉 米 314
冬 天 314
蠟 燭 314
榨 汁 314
p el 314
h un 314
li on</w> 314
po tter</w> 314
lan e 314
supp le 314
ure s</w> 314
pra da</w> 314
smoo th</w> 314
rh ine 314
冠 軍 313
管 理 313
吸 管</w> 313
洽 談 313
r c</w> 313
la tion</w> 313
休閒 百搭 313
na me</w> 313
pri vac 313
wor k 313
tw in 313
布藝 沙發 313
aero x</w> 313
馬丁 靴 313
deo dor 313
privac y</w> 313
浴 巾</w> 312
小 鋪 312
微 型 312
緊 緻 312
鞋 櫃</w> 312
羽 毛 312
艾 米 312
詹 姆 312
帆布 包</w> 312
high lighter</w> 312
scen ted</w> 312
rose gold</w> 312
chri sti 312
底 座</w> 311
低 筒 311
蠟 燭</w> 311
swi m</w> 311
情趣 內衣 311
聖誕 節</w> 311
網面 透氣 311
莫代 爾 311
復仇 者 311
小 羊皮 310
號 店</w> 310
海 灘 310
詢 問 310
w ren 310
si mp 310
pa cks</w> 310
ck en</w> 310
ho t 310
skin cerity</w> 310
ab sor 310
附購 買 310
balan ce</w> 310
jaco bs</w> 310
電 視</w> 309
自 己 309
中 文</w> 309
坐 便 309
清 淨 309
收 銀 309
刷 卡</w> 309
貓 頭 309
泳 裝 309
h s</w> 309
lo gy</w> 309
po in 309
sun nies</w> 309
可愛 小 309
mon it 309
懶人 鞋 309
年 新款 308
防 油 308
高 清</w> 308
車 貼</w> 308
腳 架</w> 308
山 地 308
雜 誌 308
選 擇</w> 308
芝 麻 308
he mi 308
head light</w> 308
寶可 夢 308
麥克 風 308
廚 房</w> 307
書 本 307
旅 行</w> 307
零 件 307
成 品 307
奶 瓶</w> 307
滿 天 307
e x</w> 307
ca bin 307
de luxe</w> 307
情侶 裝 307
小戶型 客廳 307
吊帶 褲</w> 307
美樂 蒂</w> 307
巴黎世 家</w> 307
humi difier</w> 307
lane ige</w> 307
deodor ant</w> 307
cabin et</w> 307
手 推車</w> 306
平 價 306
單 肩</w> 306
擺 設</w> 306
褲 襪</w> 306
零 件</w> 306
婚 慶 306
z el</w> 306
ma gical</w> 306
br on 306
stra igh 306
ban ner</w> 306
mask s</w> 306
vie w</w> 306
手 帳 305
滑 鼠</w> 305
一 組 305
收 腹 305
細 肩帶 305
記 錄 305
台 式 305
湯 匙</w> 305
蜂 蜜 305
擋 風 305
s and</w> 305
mb o</w> 305
便宜 賣</w> 305
volu me</w> 305
mater nity</w> 305
rab bit</w> 305
曼 尼 304
萬 寶 304
小 物 304
器 家用 304
足 球 304
封 口 304
福 袋</w> 304
請 勿 304
ch opp 304
ne on</w> 304
限時 特價</w> 304
fragr ances</w> 304
sat chel</w> 304
coordin ates</w> 304
夾 子 303
可 充電 303
服 飾 303
加 強 303
旅 游 303
提 亮 303
單 車</w> 303
速 發</w> 303
複 古 303
笑 臉 303
f ran 303
le x</w> 303
vi deo</w> 303
no se</w> 303
hel d</w> 303
clo u 303
沙灘 鞋</w> 303
資生 堂</w> 303
中 老年 302
美 女 302
件 套</w> 302
空 運</w> 302
壁 燈 302
成 人</w> 302
閃 亮 302
th o 302
po st 302
mi d 302
ing er 302
女生 包包</w> 302
pack ed</w> 302
fri end</w> 302
自行 車</w> 302
花 紋 301
拼 圖 301
氣 球</w> 301
分 類 301
十 二 301
臉 部 301
單 品</w> 301
相 框 301
串 珠 301
降 價 301
別 墅 301
f r 301
i os</w> 301
y or 301
y ard</w> 301
sha de</w> 301
mu st 301
ine ss</w> 301
史努 比 301
凱蒂 貓</w> 301
可 移動 300
做 舊 300
活 力 300
控 制 300
o es</w> 300
l c</w> 300
y ing</w> 300
y ou 300
g shock</w> 300
ar i</w> 300
bo hemi 300
th y</w> 300
mp s</w> 300
現貨 不用等</w> 300
pu ri 300
pu ma</w> 300
photo card</w> 300
ster ling</w> 300
秒殺 價</w> 300
wren ch</w> 300
雨 傘</w> 299
多 色可選</w> 299
白 黑</w> 299
護 頸 299
純 銅 299
鉛 筆</w> 299
剪 刀 299
認 證</w> 299
先 生 299
li zer</w> 299
ck ing</w> 299
sa chet</w> 299
sig n</w> 299
保溫 瓶</w> 299
multi functional</w> 299
az tec</w> 299
美 髮 298
平 板</w> 298
單 人</w> 298
輕 巧 298
激 光 298
唇 膏 298
e mp 298
f m</w> 298
cu ps</w> 298
ho se</w> 298
bro o 298
ther mal</w> 298
高 速 297
收 縮 297
護 唇膏</w> 297
老 帽</w> 297
個 人 297
權 志 297
慵 懶 297
e th 297
la n</w> 297
so phi 297
wi pes</w> 297
fu r</w> 297
貝殼 包</w> 297
ny x</w> 297
cup cake</w> 297
moder n</w> 297
手 柄 296
代 步 296
時 鐘</w> 296
掛 飾 296
春 夏</w> 296
s cu 296
se qu 296
di e 296
ta y 296
收納 櫃 296
ad ven 296
super man</w> 296
blen der</w> 296
吸頂 燈</w> 296
比基 尼</w> 296
invit ation</w> 296
手 搖 295
女 夏 295
重 低音 295
小 茶幾 295
中 古 295
桌 布 295
顆 粒 295
油 畫 295
真 絲 295
鋪 棉 295
魯 夫</w> 295
时 尚 295
賓 士</w> 295
d ery</w> 295
k en</w> 295
m old</w> 295
h old</w> 295
in su 295
ki pling</w> 295
現貨 出清</w> 295
歐美 風 295
eye glasses</w> 295
eye lash</w> 295
海賊 王 295
抖音 同款 295
茶 壺 294
硬 殼</w> 294
大 師 294
大 童</w> 294
書 店</w> 294
意 大利 294
拍 攝 294
髮 箍</w> 294
s l</w> 294
b c</w> 294
n g</w> 294
at ure</w> 294
ra sh</w> 294
al mon 294
win d 294
fit ness</w> 294
desk top</w> 294
上 新</w> 293
衣 櫥</w> 293
座 椅</w> 293
穿 搭</w> 293
涼 鞋女 293
最 愛 293
mon ster</w> 293
藍芽 耳機</w> 293
現貨在 台</w> 293
edu cat 293
pamba hay</w> 293
多 種 292
水 滴 292
保 留</w> 292
素 面</w> 292
魚 缸 292
紙 盒 292
含 稅 292
酵 素 292
s war 292
sa mple</w> 292
休閒 短褲</w> 292
flo p</w> 292
sc ri 292
len gth</w> 292
家居 服 292
國際 牌</w> 292
cool er</w> 292
出 版 291
女 王 291
超 薄</w> 291
數 碼 291
p ea 291
g es</w> 291
sh ad 291
ga me 291
ho li 291
cur ler</w> 291
兩用 包</w> 291
fri ends</w> 291
拉拉 熊</w> 291
extra ct</w> 291
防 走 290
防 曬</w> 290
小 豬 290
店 鋪</w> 290
劉 海 290
版 本</w> 290
香 爐 290
塑 身 290
溫 和 290
燈 籠 290
鼠 標 290
朋 友</w> 290
扶 手 290
桃 紅</w> 290
鏈條 包 290
明星 同款</w> 290
資料 夾</w> 290
花 園</w> 289
快 充</w> 289
一 年</w> 289
保 冷 289
鋯 石 289
淑 女 289
b ig 289
ar mour</w> 289
pre ssed</w> 289
fo cus</w> 289
免運 直 289
back less</w> 289
三件 組</w> 289
san disk</w> 289
under arm</w> 289
皮卡 丘</w> 289
雙 子 288
器 材</w> 288
不 掉 288
吊 牌</w> 288
貼 膜</w> 288
早 春 288
燈 飾</w> 288
杯 墊</w> 288
奶 嘴 288
匡 威</w> 288
e mer 288
ma ker</w> 288
情侶 裝</w> 288
ac er</w> 288
美國 正品</w> 288
鑰匙 扣</w> 288
wel l</w> 288
熱賣 款</w> 288
bur ch</w> 288
婚禮 小物</w> 288
台風 行</w> 288
下 擺 287
森 系 287
皇 家 287
f l</w> 287
y e 287
j et</w> 287
jam es</w> 287
小方 包 287
resi stant</w> 287
茶 桌 286
大 方 286
天 然</w> 286
純 手工 286
繫 帶 286
皇 冠 286
m in</w> 286
co mics</w> 286
al l 286
di or</w> 286
bea t</w> 286
藍牙 耳機</w> 286
custo m</w> 286
ple ated</w> 286
多卡 位 286
bohemi an</w> 286
educat ional</w> 286
免 費 285
工 廠</w> 285
購 買 285
不 粘 285
開 運 285
淨 化 285
錶 帶 285
登 機 285
g rea 285
bo t</w> 285
吊帶 裙</w> 285
sur gical</w> 285
clu b</w> 285
糖果 色 285
法蘭 絨 285
ulti mate</w> 285
大 戰</w> 284
靠 枕</w> 284
羊 絨 284
伴 娘 284
除 濕 284
導 航 284
繁 體 284
雛 菊 284
m d</w> 284
v i</w> 284
co ck 284
la s</w> 284
ti s 284
pan el</w> 284
tr i</w> 284
cor ner</w> 284
her mes</w> 284
adul ts</w> 284
pain ting</w> 284
givea ways</w> 284
swar ov 284
男 童</w> 283
訂 製</w> 283
小 型</w> 283
新 鮮 283
藤 原 283
商 店</w> 283
紀 梵 283
te x 283
日本 製 283
bu ds</w> 283
do gs</w> 283
slee ved</w> 283
咖啡 色</w> 283
eng lish</w> 283
supple ment</w> 283
男 友 282
人 偶</w> 282
原 子 282
寬 版 282
食 品</w> 282
鋁 合金</w> 282
籃 球</w> 282
強 化 282
me tri 282
sun screen</w> 282
gr in 282
洗手 間 282
豆豆 鞋 282
rat tan</w> 282
鬼滅 之 282
多 色</w> 281
保 留 281
忍 者 281
正 裝 281
紳 士 281
wa n</w> 281
for m 281
ed p</w> 281
fig er</w> 281
cli ck</w> 281
牛津 布 281
ash ley</w> 281
機 芯</w> 280
加 大</w> 280
木 工 280
洗 菜 280
側 掀 280
棒 棒 280
on i 280
pa u 280
lov ely</w> 280
sun flower</w> 280
ju i 280
tra ining</w> 280
健身 器材 280
dy e</w> 280
包包 女</w> 280
cool ing</w> 280
fau x</w> 280
蠟筆 小 280
古 風 279
長 洋裝</w> 279
金 剛</w> 279
主 播 279
k ir 279
j un 279
re ver 279
休閒 長褲</w> 279
秋冬 新款</w> 279
play er</w> 279
星巴 克 279
smi ggle</w> 279
monit or</w> 279
盒 玩</w> 278
美 少女 278
只 有 278
緩 震 278
樓 梯 278
n er 278
ti er</w> 278
su its</w> 278
wit h 278
da i</w> 278
bu mper</w> 278
boo k 278
boo ster</w> 278
che st</w> 278
stu dio</w> 278
bel le</w> 278
lit er</w> 278
gar lic</w> 278
com pact</w> 278
swarov ski</w> 278
健 身</w> 277
拍 攝</w> 277
定 做 277
深 藍色</w> 277
刷 毛</w> 277
s ni 277
in ser 277
ar a 277
li li 277
un a</w> 277
di f 277
fre sh 277
fu ser</w> 277
旅行 箱 277
remo val</w> 277
保鮮 盒</w> 277
便當 盒</w> 277
貨 架 276
打 包 276
專 柜 276
矯 正 276
f ul 276
ch ron 276
te le 276
特價 中</w> 276
met ers</w> 276
nai ls</w> 276
機器 人</w> 276
tru e</w> 276
paper back</w> 276
東大 門 276
hil figer</w> 276
手 鍊 275
手 推車 275
直 郵</w> 275
女 人 275
購 物</w> 275
內 飾 275
文 化 275
走 秀 275
惡 魔 275
芳 香 275
p tion</w> 275
an e</w> 275
lo we 275
se e</w> 275
ro w</w> 275
po ckets</w> 275
flo ps</w> 275
單肩 斜跨包</w> 275
hand held</w> 275
限時 下殺 275
body suit</w> 275
buil ding</w> 275
珊瑚 絨 275
fanta sy</w> 275
champ ion</w> 275
宇 宙 274
廚 師 274
直 銷</w> 274
恤 男 274
小 香</w> 274
大 頭 274
中 華 274
清 倉</w> 274
紋 繡 274
低 跟 274
方 便 274
隔 板 274
壁 燈</w> 274
a sse 274
ri ch</w> 274
bra lette</w> 274
spi der</w> 274
雪紡 上衣</w> 274
play station</w> 274
女性 淡香水</w> 274
手 感 273
防 爆 273
人 物 273
二 合一 273
馬 鞍 273
隔 音 273
最 新</w> 273
任 天堂</w> 273
傳 統 273
唯 美 273
k g</w> 273
ca pa 273
bi b</w> 273
fre n 273
tro us 273
mani la</w> 273
yor k</w> 273
一 盒</w> 272
貼 片</w> 272
公 克</w> 272
草 編 272
錶 盤 272
圍 欄 272
掃 地 272
a bo 272
ch ang 272
ta b</w> 272
男女 鞋 272
男士 腕錶</w> 272
stor e</w> 272
san iti 272
brea st</w> 272
凡賽 斯</w> 272
好 貨 271
水 鑽</w> 271
美 體 271
支 撐 271
英 雄</w> 271
彩 虹</w> 271
耐 高溫 271
雜 誌</w> 271
絕 對 271
露 趾 271
s in 271
s se</w> 271
u n</w> 271
f our</w> 271
se ven 271
me ssenger</w> 271
cu be</w> 271
百搭 時尚 271
pe an 271
par ts</w> 271
phi lipp 271
史迪 奇</w> 271
christi an</w> 271
水 波 270
獨 立 270
方 便</w> 270
日 文 270
藍 牙</w> 270
耳 針 270
麋 鹿</w> 270
m un 270
ri o</w> 270
chi cken</w> 270
毛絨 玩具 270
九分 褲</w> 270
mix ed</w> 270
打火 機</w> 270
頭戴 式 270
雨 衣 269
夏 裝</w> 269
眼 霜</w> 269
超 市 269
超 可愛 269
殺 菌 269
連 接 269
軟 妹 269
時 間 269
柔 軟</w> 269
腳 墊 269
歡 樂 269
搶 購</w> 269
re fle 269
re cei 269
男士 商務 269
單肩 斜跨 269
辦公 椅 269
pri se</w> 269
居家 裝飾 269
余文 樂</w> 269
shad es</w> 269
茶 道 268
多 美 268
直 購 268
加 拿 268
節 能 268
棉 質</w> 268
酒 柜 268
修 容 268
活 性 268
t le 268
ma l 268
de vi 268
pu t</w> 268
熱銷 款</w> 268
shap ed</w> 268
波 西 267
精 鋼 267
牛 仔</w> 267
丹 尼 267
黑 灰</w> 267
美 甲</w> 267
件 套 267
隨 行 267
s n 267
e ver</w> 267
d el 267
ca li 267
so ck</w> 267
現貨 實拍 267
韓版 寬松 267
tw in</w> 267
安全 帽 267
sub li 267
valen tin 267
pas sport</w> 267
出風 口 267
喬 丹 266
小 熊</w> 266
小 沙發 266
大 牌 266
合 身 266
牙 膏</w> 266
飲 水 266
維 他 266
le op 266
ma ls</w> 266
家用 客廳 266
男女 童 266
tri mmer</w> 266
cel l</w> 266
鋼化 膜</w> 266
貝殼 頭</w> 266
自慰 器</w> 266
val ve</w> 266
入耳 式 266
飛利 浦</w> 266
pres sure</w> 266
beauti ful</w> 266
抹 胸 265
一 個</w> 265
吉 他</w> 265
極 致 265
素 顏 265
公 升</w> 265
凳 子</w> 265
斜 背</w> 265
跳 跳 265
軌 道 265
f ying</w> 265
z ero</w> 265
el li 265
fa ke</w> 265
vi e</w> 265
mon key</w> 265
展示 架</w> 265
愛麗 絲 265
ball pen</w> 265
ana sta 265
miner al</w> 265
dang ling</w> 265
leop ard</w> 265
防 燙 264
分 格 264
軟 殼 264
復 刻 264
阿 贊 264
陽 光 264
春 秋季 264
珠 光 264
義 大利</w> 264
ad van 264
tu s</w> 264
loo p</w> 264
cra y 264
五分 褲 264
kid die</w> 264
大 學生 263
壓 器</w> 263
木 製 263
甜 品 263
網 布 263
吸 濕 263
串 珠</w> 263
露 營</w> 263
琉 璃 263
en velo 263
沙發 墊 263
she er</w> 263
ordin ary</w> 263
hydr ating</w> 263
ever y 263
阿甘 鞋</w> 263
你 的 262
地 毯</w> 262
平 光 262
灰 白</w> 262
鞋 櫃 262
個 月 262
燙 金 262
j s</w> 262
ca la 262
ca mi</w> 262
ch al 262
po int</w> 262
per i 262
sli de</w> 262
化妝 包 262
bri d</w> 262
精品 代購</w> 262
娃娃 機 262
新品上 市</w> 262
rever sible</w> 262
小 可愛</w> 261
亞 瑟 261
不 傷 261
滋 養 261
扣 式 261
指 紋 261
半 袖</w> 261
最 愛</w> 261
漸 變 261
烤 肉 261
嚴 選 261
a pri 261
l and 261
in fe 261
la ted</w> 261
se al</w> 261
mi a</w> 261
char les</w> 261
tra vel 261
ex clu 261
pen s</w> 261
com pre 261
西裝 外套</w> 261
comfor t</w> 261
保固 一年</w> 261
史迪 奇 261
rai der</w> 261
南 瓜 260
加 大碼 260
網 眼 260
跑 鞋 260
刷 破 260
把 手 260
演 唱 260
黏 土 260
to kong</w> 260
de ter 260
ph il</w> 260
so fi 260
da sh</w> 260
perfu mes</w> 260
hy un 260
下單 處</w> 260
靠背 椅 260
洗臉 盆 260
best seller</w> 260
茶 盤 259
水 鉆 259
大 眼 259
面 部 259
樂 器 259
筆 電</w> 259
安 卓</w> 259
牆 面 259
調 整 259
乳 霜</w> 259
胡 桃 259
插 電 259
寵 物</w> 259
唐 老 259
餃 子 259
a mp 259
b u</w> 259
c et</w> 259
m ea 259
v neck</w> 259
ca re 259
pa ci 259
pp a</w> 259
ct ure</w> 259
pe t 259
fit ted</w> 259
ben to</w> 259
洗衣 機</w> 259
sen se</w> 259
防風 外套</w> 259
the ft</w> 259
tis sue</w> 259
接 頭</w> 258
中 年 258
車 身 258
紫 砂 258
火 影 258
負 離子 258
校 園 258
ho le</w> 258
hy brid</w> 258
organi cs</w> 258
star s</w> 258
拉拉 熊 258
電磁 爐 258
garter ized</w> 258
男 式 257
女 寶寶 257
特 級 257
棉 衣 257
音 樂</w> 257
訓 練</w> 257
掛 鐘</w> 257
鞋 架</w> 257
春 夏季 257
拖 把 257
止 滑 257
圣 誕 257
k no 257
x rm</w> 257
ca mping</w> 257
sa ce</w> 257
運動 外套</w> 257
lon don</w> 257
mar ble</w> 257
休閑 百搭 257
gu ar 257
ex p 257
ste p</w> 257
儲物 櫃 257
com fy</w> 257
lin ing</w> 257
棒球 帽 257
the me</w> 257
客製 化</w> 257
魔術 貼 257
rhine stone</w> 257
接 待 256
睫 毛</w> 256
立 體</w> 256
啞 光 256
布 料 256
冷 凍 256
麋 鹿 256
豐 田</w> 256
s u</w> 256
t c</w> 256
w ol 256
sa i 256
fu n</w> 256
wal ker</w> 256
限時 促銷</w> 256
清潔 劑</w> 256
vo l</w> 256
沐浴 乳</w> 256
moisturi zer</w> 256
zu ki</w> 256
花 瓶 255
愛 情 255
水 族 255
可 躺 255
原 創</w> 255
廠 商 255
補 光 255
優 選 255
雅 詩 255
閃 電 255
緹 花 255
ph p</w> 255
pi c</w> 255
no kia</w> 255
北歐 實木 255
fla min 255
連帽 衛衣</w> 255
dr in 255
multi color</w> 255
桌椅 組合 255
三麗 鷗 255
clin i 255
lowe en</w> 255
打 印 254
小 飛 254
木 頭 254
瘦 身 254
正 生 254
t ela</w> 254
o t</w> 254
mp ers</w> 254
bu s 254
colo ring</w> 254
over sized</w> 254
scre w</w> 254
sof a</w> 254
reli ef</w> 254
dif fuser</w> 254
茶 水 253
古 裝 253
生 日</w> 253
小 說 253
小 清新</w> 253
麻 花 253
國 際</w> 253
瑪 瑙 253
教 學 253
ti p</w> 253
現貨 特價</w> 253
男士 短袖</w> 253
slee p</w> 253
電視 機 253
卡西 歐 253
滿千 減</w> 253
冰淇 淋 253
deter gent</w> 253
hyun dai</w> 253
機 車</w> 252
紅 外線 252
水 潤 252
實 物 252
面 料</w> 252
粉 紅色</w> 252
捲 髮 252
指 定 252
招 財</w> 252
彪 馬 252
n ood 252
en ce</w> 252
ta k 252
運動 短褲</w> 252
男鞋 女鞋</w> 252
cra f 252
女性 淡香精</w> 252
潘朵 拉</w> 252
bun ny</w> 252
lear ning</w> 252
must ard</w> 252
exclu sive</w> 252
防 寒 251
停 車 251
素 色</w> 251
u gh</w> 251
le n</w> 251
ba ct 251
ra y 251
th i 251
mo du 251
leg end</w> 251
supp ly</w> 251
香港 代購</w> 251
black pink</w> 251
雅詩 蘭 251
浴 巾 250
精 靈</w> 250
長 版</w> 250
減 肥 250
低 腰 250
耳 墜 250
授 權 250
售 價</w> 250
d get</w> 250
in door</w> 250
st roller</w> 250
ch ic</w> 250
ma y</w> 250
ri de</w> 250
dre am 250
sp y</w> 250
客廳 沙發 250
coo ker</w> 250
act ual</w> 250
闊腿 褲 250
拉桿 箱 250
漁夫 帽</w> 250
轉接 頭</w> 250
實體 店 250
薰衣 草 250
花 灑 249
可 刷卡</w> 249
中 號 249
頭 飾</w> 249
香 蕉 249
護 照 249
被 套</w> 249
官 方</w> 249
佩 佩 249
a sha</w> 249
c ct 249
le ver</w> 249
收納 包 249
cu tting</w> 249
sli me</w> 249
stri p</w> 249
stick y</w> 249
三眼 怪</w> 249
hor se</w> 249
萬向 輪 249
fren ch</w> 249
瓷 磚 248
皮 套 248
美 術 248
搭 配</w> 248
微 笑 248
耐 用 248
亮 面 248
奇 奇 248
兔 子</w> 248
蚊 帳 248
搖 滾 248
插 座 248
濃 縮 248
翡 翠</w> 248
sh in 248
st ones</w> 248
si ded</w> 248
al arm</w> 248
ki es</w> 248
per ia</w> 248
成人 兒童 248
gen eva</w> 248
her oes</w> 248
gar ter</w> 248
工作 服 248
藍牙 耳機 248
light en</w> 248
cir cle</w> 248
cock tail</w> 248
雨 鞋 247
作 者</w> 247
可 當 247
超 細 247
小 馬 247
立 牌</w> 247
圓 形</w> 247
壓 式 247
美 肌 247
門 簾</w> 247
拋 光 247
親 膚 247
驅 蚊 247
永 生 247
澳 洲</w> 247
si an</w> 247
me al</w> 247
ss or</w> 247
gre e</w> 247
針織 外套</w> 247
kin s</w> 247
loo k</w> 247
phi lips</w> 247
范思 哲 247
wrist let</w> 247
歐 米 246
訂 單</w> 246
寬 松</w> 246
腮 紅</w> 246
彩 繪</w> 246
排 汗</w> 246
扭 蛋 246
老 式 246
台 南 246
圍 裙</w> 246
奶 嘴</w> 246
循 環 246
k ha 246
x i</w> 246
j uni 246
時尚 簡約 246
pe plum</w> 246
fo li 246
dis infe 246
保證 正品</w> 246
角落生 物 246
好市 多 246
inclu ded</w> 246
史密 斯</w> 246
bus iness</w> 246
cct v</w> 246
戰 術 245
茶 花 245
出 口 245
店 長 245
本 舖</w> 245
平 滑 245
影 音 245
拍 立 245
脫 毛 245
香 氛</w> 245
景 觀 245
蓮 花 245
杯 緣 245
桃 園 245
c ure</w> 245
lo l</w> 245
ti que</w> 245
sa me</w> 245
新款 夏季 245
prin ter</w> 245
置物 櫃</w> 245
tu pper 245
充電 器 245
bel la</w> 245
男 孩</w> 244
明 星</w> 244
外 線</w> 244
管 理</w> 244
一 個 244
藤 編 244
藍 光</w> 244
橄 欖 244
v ar 244
ba si 244
li t</w> 244
tt le</w> 244
網紅 款 244
tro l 244
保溫 杯 244
美式 鄉村 244
ling erie</w> 244
fau cet</w> 244
古 巴 243
女 韓版 243
絲 襪</w> 243
氣 球 243
彩 色</w> 243
過 敏 243
方 型 243
方 頭 243
腕 表</w> 243
紙 袋</w> 243
買 家 243
檯 燈</w> 243
凝 露</w> 243
蛤 蟆 243
t shirts</w> 243
i ma 243
n ou 243
j our 243
w ine</w> 243
un ce</w> 243
su zuki</w> 243
sc ra 243
加厚 保暖 243
ex treme</w> 243
hi p</w> 243
bir ken 243
fle xi 243
sweat shirt</w> 243
去角 質 243
flamin go</w> 243
貨 號</w> 242
星 星</w> 242
絲 巾</w> 242
拉 格 242
保 守 242
寬 口 242
印 章 242
蓬 蓬 242
冷 氣</w> 242
蒸 汽 242
g at 242
la st</w> 242
di sh 242
de to 242
運動 長褲</w> 242
he el</w> 242
chi a</w> 242
ten t</w> 242
mac book</w> 242
seven teen</w> 242
subli mation</w> 242
磁 鐵</w> 241
小 汽車</w> 241
周 年 241
靠 墊</w> 241
面 料 241
西 班 241
布 料</w> 241
糖 果</w> 241
髮 束</w> 241
團 購 241
驚 喜 241
e ch 241
la und 241
le m</w> 241
bo l 241
cle s</w> 241
bea ch 241
her sch 241
bal let</w> 241
sen sor</w> 241
ruff led</w> 241
補充 包</w> 241
手 幅</w> 240
電 風扇</w> 240
免 洗 240
超 仙 240
黑 頭 240
制 作 240
不 可 240
改 良 240
時 光 240
掛 繩 240
樣 板 240
放 大 240
斜 挎</w> 240
整 套 240
橘 色</w> 240
靜 音</w> 240
貔 貅 240
契 爾 240
h c</w> 240
ca st 240
兒童 玩具</w> 240
ey es</w> 240
網紅 同款 240
gen tle</w> 240
hal loween</w> 240
長版 上衣</w> 240
全場 買二送一</w> 240
小熊 維尼</w> 240
四件 套</w> 240
洗手 盆 240
工藝 品 240
多用 途 240
凡賽 斯 240
tupper ware</w> 240
laund ry</w> 240
卡 套</w> 239
可 可 239
客 服</w> 239
圓 盤 239
一 對</w> 239
餐 巾 239
後 背包 239
軟 糖</w> 239
玉 石 239
相 框</w> 239
挎 包</w> 239
良 品 239
o id</w> 239
g gi 239
co mm 239
la shes</w> 239
ki mono</w> 239
百搭 款</w> 239
ani mals</w> 239
化妝 桌 239
短袖 上衣 239
mer ry</w> 239
sna pback</w> 239
nis san</w> 239
mix er</w> 239
bos ch</w> 239
anasta sia</w> 239
hersch el</w> 239
黑 武士</w> 238
特 典</w> 238
甜 心 238
涼 席 238
涼 拖鞋 238
倉 庫</w> 238
克 羅 238
和 風 238
信 用 238
強 光 238
r inger</w> 238
st ron 238
for tun 238
coo kie</w> 238
aro und</w> 238
alph a</w> 238
偶像 學 238
deca ls</w> 238
空軍 一 238
龍 貓 237
水 泥 237
中 型 237
擴 香 237
車 用</w> 237
面 包 237
本 田</w> 237
隱 藏 237
妝 前 237
u ses</w> 237
ba k 237
at o 237
ca m 237
男女 通用</w> 237
日本 正版</w> 237
colo ur</w> 237
mar ker</w> 237
kar ao 237
名片 夾</w> 237
adven ture</w> 237
電 玩</w> 236
防 臭 236
高 精 236
百 變 236
抽 象 236
照 明 236
低 幫</w> 236
香 檳 236
博 柏 236
月 亮 236
i ph 236
g in</w> 236
li st</w> 236
ca ct 236
sp ro 236
mat ting</w> 236
套裝 女 236
nat asha</w> 236
辦公 桌</w> 236
夏裝 新款 236
poin ted</w> 236
lili w</w> 236
直 接 235
女 子 235
絨 布 235
保 護</w> 235
香 皂 235
海 綿</w> 235
窗 簾</w> 235
踏 板 235
雪 花</w> 235
寄 出</w> 235
角 幾 235
科 學 235
科 比</w> 235
跳 舞 235
t ry</w> 235
ch ed</w> 235
un k</w> 235
do ctor</w> 235
be th</w> 235
保護 殼 235
純棉 短</w> 235
單人 雙人 235
sea son</w> 235
ribb ed</w> 235
photo cards</w> 235
mono pod</w> 235
角色扮 演</w> 235
brigh tening</w> 235
karao ke</w> 235
手 腕 234
年 保固</w> 234
卡 包 234
桌 家用 234
同 步 234
無 限 234
老 花</w> 234
魔 力 234
標 籤 234
雷 射 234
團 購</w> 234
s c</w> 234
m um</w> 234
z z</w> 234
bo und</w> 234
bo lt</w> 234
sk ater</w> 234
pla ins</w> 234
con tour</w> 234
北歐 風格 234
son s</w> 234
限時 優惠</w> 234
brea st 234
百貨 店</w> 234
spon ge 234
復仇者 聯盟</w> 234
水 瓶</w> 233
熊 貓 233
全 效 233
側 邊 233
純 色</w> 233
頸 椎 233
a ca 233
h g</w> 233
ba t</w> 233
ro a 233
現代 簡約</w> 233
二手 精品</w> 233
ssi l</w> 233
雙肩 背包</w> 233
spe e 233
cen ter</w> 233
可拆 卸 233
寶格 麗</w> 233
出版 社</w> 233
flexi ble</w> 233
皮 膚 232
起 子 232
專 賣</w> 232
肥 皂 232
華 麗 232
華 萊 232
馬 達</w> 232
輕 便</w> 232
m n</w> 232
se l</w> 232
po p 232
chi ps</w> 232
限定 款</w> 232
fig ures</w> 232
遮陽 帽 232
萬 代</w> 231
防 刮</w> 231
雙 向 231
陶 瓷</w> 231
天 使</w> 231
分 期</w> 231
金 標</w> 231
時 裝 231
櫃 子 231
空 運 231
記 事 231
掛 架 231
切 菜 231
約 會 231
燃 氣 231
陀 螺</w> 231
留 言 231
宅 配</w> 231
b ey 231
st y</w> 231
di re 231
sp en 231
男女 學生 231
br e</w> 231
單肩 斜挎包 231
pu re 231
限量 版 231
經濟 型</w> 231
spo t</w> 231
wr it 231
吹風 機</w> 231
straigh tener</w> 231
sponge bob</w> 231
精 致 230
大 框 230
實 木</w> 230
束 口袋</w> 230
轉 運 230
公 斤 230
彈 性</w> 230
配 飾 230
墻 貼 230
櫥 柜 230
週 年</w> 230
吧 台 230
滾 筒 230
坡 跟 230
r on</w> 230
ro bot</w> 230
ho b 230
廚房 用品 230
咖啡 色 230
gr an 230
沙灘 鞋 230
sur prise</w> 230
light weight</w> 230
hor n</w> 230
ener gy</w> 230
sofi a</w> 230
滑 板</w> 229
盤 子 229
帳 篷</w> 229
物 語</w> 229
焦 糖 229
產 品 229
耳 塞 229
翻 領</w> 229
t ine</w> 229
l te</w> 229
z u</w> 229
v ic</w> 229
ro s 229
全新 真品</w> 229
gi f 229
loo t</w> 229
sy ru 229
歐洲 站 229
tat too</w> 229
band ai</w> 229
resi n</w> 229
spar kle</w> 229
紙巾 盒 229
tay lor</w> 229
almon d</w> 229
三 菱</w> 228
警 示 228
毛 帽</w> 228
小 洋裝</w> 228
新 百 228
帶 鎖 228
貼 膜 228
繪 畫 228
體 重 228
方 形</w> 228
試 用 228
櫥 窗 228
孩 子 228
法 拉 228
h d 228
ro l</w> 228
bo w 228
fa v 228
家用 小型 228
ha n</w> 228
fo ssil</w> 228
chi ld</w> 228
特價 免運</w> 228
spi cy</w> 228
cur ity</w> 228
chil i</w> 228
四件 組</w> 228
美人 魚</w> 228
ruff le</w> 228
男性 淡香水</w> 228
冰雪奇 緣</w> 228
悠遊 卡</w> 228
combin ation</w> 228
假 髮</w> 227
可 樂 227
可 選 227
打 孔 227
小 桌子</w> 227
文 字 227
牆 壁 227
搖 擺 227
冰 鞋 227
櫻 花</w> 227
鳳 梨 227
d ru 227
o p</w> 227
in sta 227
ba tch</w> 227
sa ge</w> 227
sk irts</w> 227
ct ors</w> 227
du ction</w> 227
vo lution</w> 227
全場 免運</w> 227
inten se</w> 227
歐洲 代購</w> 227
喇叭 袖 227
eng ine</w> 227
asse mb 227
cact us</w> 227
電 器</w> 226
防 漏 226
紅 包 226
忍 者</w> 226
肌 膚 226
初 中 226
售 完 226
p m</w> 226
co ral</w> 226
bu ckle</w> 226
ce ta 226
blo od</w> 226
裝飾 畫</w> 226
化妝 臺 226
lea se</w> 226
腳踏 車</w> 226
滑板 車 226
hard cover</w> 226
卡 地 225
小 童</w> 225
後 視 225
仙 人 225
視 頻 225
琺 瑯 225
e mbo 225
新款 女士 225
韓版 學生 225
tr an 225
短袖 襯衫</w> 225
pu ppy</w> 225
lin en</w> 225
空氣 清淨 225
butt ons</w> 225
小腳 褲 225
方向 盤 225
母親 節 225
saniti zer</w> 225
原 宿</w> 224
客 人 224
實 戰 224
車 門 224
英 文</w> 224
字 裙 224
文 青 224
公 司</w> 224
鐘 表 224
恐 龍</w> 224
幼 稚 224
魅 力 224
l r</w> 224
g ig 224
sh ka</w> 224
and a</w> 224
vi sible</w> 224
fe min 224
玻璃 杯</w> 224
情趣 精品</w> 224
滑板 車</w> 224
勞力 士 224
發 熱 223
字 裙</w> 223
甜 蜜 223
耳 夾 223
野 營 223
貓 窩 223
納 米 223
碗 碟 223
送 一 223
成 長 223
輪 胎 223
菲 利 223
企 業 223
鸚 鵡 223
s no 223
p it 223
at h</w> 223
ne u 223
me i 223
ver sace</w> 223
ll ers</w> 223
沙發 椅 223
廚房 收納</w> 223
pen shoppe</w> 223
設計 感 223
大碼 女裝 223
hear ts</w> 223
拉鏈 錢包</w> 223
man i</w> 223
heal ing</w> 223
好市 多</w> 223
cala mansi</w> 223
clini que</w> 223
冠 軍</w> 222
超 亮 222
中 腰 222
麻 將 222
美 顏 222
限 時</w> 222
駕 車 222
燈 飾 222
毫 安 222
逼 真 222
热 销</w> 222
s lot</w> 222
t bag</w> 222
m and 222
n in 222
ri ck</w> 222
休閒 短</w> 222
me ch 222
car ters</w> 222
vi t</w> 222
fla w 222
tra ck</w> 222
充電 寶 222
新品 免運</w> 222
ton y</w> 222
era ser</w> 222
心 機 221
女 錶 221
小 牛皮</w> 221
大 師</w> 221
頭 皮 221
吉 祥 221
開 門 221
帶 燈 221
面 霜</w> 221
護 腰 221
側 翻 221
航 空 221
圍 裙 221
倉 鼠 221
x peria</w> 221
on y</w> 221
ma h</w> 221
ri ght</w> 221
da r</w> 221
na p 221
充電 寶</w> 221
wai sted</w> 221
coo king</w> 221
氣墊 粉餅</w> 221
hon or</w> 221
sou ven 221
指甲 油</w> 221
小腳 褲</w> 221
toi let</w> 221
口水 巾</w> 221
syru p</w> 221
手 指 220
短 夾 220
泡 澡 220
古 銅 220
款 號</w> 220
全 實木 220
加 粗 220
療 癒 220
第 五 220
只 要</w> 220
聯 繫 220
佛 牌 220
過 敏</w> 220
竹 節 220
熒 光 220
奶 茶</w> 220
晾 衣架 220
霸 氣 220
永 久 220
棕 色</w> 220
c lar 220
di a</w> 220
pre love</w> 220
休閑 褲 220
ani cal</w> 220
戶外 運動 220
歐美 時尚 220
整理 箱 220
femin ine</w> 220
水 洗</w> 219
大 馬 219
壓 力 219
典 藏 219
獨 家</w> 219
項 圈</w> 219
暗 黑 219
輻 射 219
獅 子 219
s b</w> 219
s la 219
i ke 219
n ic</w> 219
re nt</w> 219
er a</w> 219
休閒 褲 219
bu t</w> 219
wa s</w> 219
pe ppa</w> 219
sty lus</w> 219
旅行 包 219
chee se</w> 219
手電 筒</w> 219
隨機 出貨</w> 219
直購 價</w> 219
bact erial</w> 219
短 筒 218
電 風扇 218
花 茶 218
拼 布 218
透 膚 218
小 丸 218
加 寬 218
絲 襪 218
典 雅 218
樂 園 218
達 菲 218
布 置 218
主 題 218
燈 芯 218
推 拉 218
e s 218
d le</w> 218
d ani 218
pa w</w> 218
po oh</w> 218
di ffe 218
ig en</w> 218
sho t</w> 218
休閒 套裝</w> 218
全新 現貨 218
ja g</w> 218
ke ith</w> 218
ve hi 218
汽車 用 218
鑰匙 圈 218
儲物 柜</w> 218
防曬 衣 218
cat s</w> 218
under wire</w> 218
the tic</w> 218
emb lem</w> 218
預購 款</w> 218
升級 版</w> 218
獨角 獸 218
inser t</w> 218
birken stock</w> 218
花 草 217
防 身 217
下 午 217
熊 熊 217
憑 證</w> 217
加 固 217
天 空 217
軟 皮 217
四 色 217
豆 腐 217
徽 章 217
珍 藏 217
睡 裙 217
賦 活 217
緞 面 217
a v</w> 217
en han 217
保護 膜</w> 217
優惠 中</w> 217
打火 機 217
ama zing</w> 217
卡娜赫 拉 217
trol ley</w> 217
水 餃 216
小 紅 216
中 夾</w> 216
五 月 216
床 罩 216
專 利 216
軟 膠 216
牆 上 216
螺 旋 216
奈 米 216
克 斯</w> 216
卷 發 216
飛 線</w> 216
其 他 216
彌 月 216
k on</w> 216
n c</w> 216
lo af 216
blo uses</w> 216
美國 隊 216
特價 出清</w> 216
win d</w> 216
增高 鞋</w> 216
om ing</w> 216
九分 褲 216
學步 鞋</w> 216
存錢 筒</w> 216
tsu m</w> 216
natura ls</w> 216
波西 米亞 216
envelo pe</w> 216
雨 鞋</w> 215
套 餐</w> 215
黑 膠 215
書 法 215
桌 椅</w> 215
長 柄 215
簡 體 215
拉 桿</w> 215
開 衩 215
背 蓋</w> 215
螺 紋 215
鐳 射 215
n ine</w> 215
j c</w> 215
co le</w> 215
ri se</w> 215
coo kies</w> 215
adap tor</w> 215
cen tr 215
heal thy</w> 215
embroi dery</w> 215
oc ean</w> 215
高爾夫 球 215
chopp er</w> 215
all er 215
souven irs</w> 215
杏 仁 214
裝 備</w> 214
花 束 214
防 震 214
人 偶 214
折 優惠</w> 214
羊 羔 214
日 韓</w> 214
商 務</w> 214
老 師 214
設 備 214
激 情 214
fi c</w> 214
韓版 簡約 214
情侶 對 214
blo om</w> 214
du ra 214
gra ph</w> 214
na ked</w> 214
bea n</w> 214
stu dent</w> 214
nat ional</w> 214
手工 編織 214
限定 賣場</w> 214
dol ls</w> 214
ge o 214
熱賣 中</w> 214
ber shka</w> 214
材料 包</w> 214
鴨舌 帽 214
collecti ons</w> 214
行車 記錄 214
vege table</w> 214
metri c</w> 214
卡 其</w> 213
水 龍頭</w> 213
發 貨 213
嬰 幼 213
格 子</w> 213
腮 紅 213
禪 意 213
環 球 213
老 鼠 213
貓 抓 213
效 期</w> 213
試 衣 213
個 月</w> 213
慕 斯 213
蜜 桃 213
l ity</w> 213
in k 213
la b</w> 213
ca ca 213
de ta 213
prin ting</w> 213
秋冬 款 213
her e</w> 213
tro pi 213
bir d</w> 213
ther mo 213
送女 友 213
ceta phil</w> 213
古 董 212
愛 的 212
打 氣 212
全 能 212
休 闲 212
排 氣 212
粉 嫩 212
便 條 212
劇 場 212
各 種 212
雪 莉 212
陳 列 212
引 擎 212
瘋 狂 212
b it 212
c p</w> 212
st ers</w> 212
sp igen</w> 212
da sh 212
con sole</w> 212
韓國 連線</w> 212
牛仔 短褲 212
grin der</w> 212
assemb ly</w> 212
機 油 211
夾 縫 211
恤 女</w> 211
小 麥 211
皮 面 211
上 新 211
光 碟</w> 211
支 持 211
耐 用</w> 211
硅 膠</w> 211
爬 行 211
滿 鑽 211
pan ties</w> 211
be at 211
cti cal</w> 211
aqu ari 211
防潑 水</w> 211
絲光 棉 211
亞瑟 士</w> 211
臺 燈</w> 210
圖 書 210
精 梳 210
內 置 210
前 短 210
功 能</w> 210
溫 度 210
野 外 210
碳 纖維</w> 210
菲 拉格 210
髮 飾 210
雷 霆</w> 210
故 事</w> 210
现 货 210
e ven 210
b es</w> 210
c ul 210
h en 210
lo tte</w> 210
ba pti 210
po st</w> 210
mat erial</w> 210
歐美 代購</w> 210
fro sted</w> 210
wai i</w> 210
外套 女 210
全場 秒殺</w> 210
游泳 衣 210
blea ch</w> 210
bou tique</w> 210
with out</w> 210
滅 蚊 209
色 號</w> 209
小 吃 209
藝 術</w> 209
保 存 209
獨 特 209
相 片 209
牙 膏 209
掀 蓋 209
潔 膚 209
綠 茶 209
g ger</w> 209
ki lo</w> 209
qu il 209
韓版 新款 209
pan ini</w> 209
美國 正品代購</w> 209
印花 短袖</w> 209
multi function</w> 209
下標 處</w> 209
遙控 器 209
mari o</w> 209
腳踏 墊</w> 209
cri b</w> 209
馬克 杯 209
范思 哲</w> 209
緬甸 玉</w> 209
當天 出貨</w> 209
conne ctor</w> 209
pean ut</w> 209
三 代 208
尿 布 208
生 物 208
水 性 208
水 彩 208
新 手 208
制 冷 208
高 腰</w> 208
織 帶 208
製 作</w> 208
腳 架 208
亮 白 208
無 毒 208
頂 級</w> 208
綠 蘿 208
酵 素</w> 208
r gb</w> 208
b in</w> 208
re d 208
re stock</w> 208
co co 208
er t</w> 208
se curity</w> 208
so da</w> 208
bi c</w> 208
con centr 208
len a</w> 208
卡通 可愛 208
tin ted</w> 208
儲物 架 208
ly n</w> 208
五分 袖 208
butt on 208
聖羅 蘭 208
精靈 寶可夢</w> 208
電瓶 車 208
拍 賣</w> 207
體 驗 207
酒 紅</w> 207
網 面</w> 207
蚊 帳</w> 207
e m 207
a x 207
o k</w> 207
re pel 207
sh elf</w> 207
家用 多功能 207
全新 公司貨</w> 207
shor t 207
ni s</w> 207
do me</w> 207
沙發 床 207
gen ic</w> 207
go d</w> 207
go pro</w> 207
免打 孔</w> 207
lun a</w> 207
comb i</w> 207
麵包 超人 207
dv r</w> 207
人 造 206
黑 紅 206
小 魚 206
桌 遊 206
餐 盤</w> 206
駕 駛 206
胸 包 206
香 港</w> 206
耳 飾 206
維 修</w> 206
蕾 哈 206
鋰 電池</w> 206
比 賽 206
武 器 206
販 售</w> 206
丁 字 206
鬧 鐘</w> 206
f all</w> 206
b t</w> 206
g ate</w> 206
le i 206
to tal</w> 206
th ri 206
lu x</w> 206
ne t 206
ai d</w> 206
學生 用 206
ju ju 206
限量 款</w> 206
ya le</w> 206
fin ish</w> 206
移動 電源</w> 206
sophi e</w> 206
scri ption</w> 206
flaw less</w> 206
變 壓器</w> 205
硬 殼 205
高 質感 205
美 津 205
件 式 205
金 銀 205
前 後 205
油 煙 205
地 中 205
淨 白 205
宿 舍</w> 205
環 保</w> 205
王 國</w> 205
非 常 205
粉 刺 205
把 手</w> 205
隨 手 205
蜜 粉</w> 205
橡 木 205
y ang</w> 205
re n</w> 205
re ser 205
ar ts</w> 205
se le 205
ge or 205
bar ley</w> 205
mit h</w> 205
cos rx</w> 205
媽媽 包</w> 205
小夜 燈 205
滿天 星 205
amp li 205
caca o</w> 205
juju be</w> 205
南 極 204
單 層 204
理 發 204
葉 子 204
掛 衣 204
f c</w> 204
c i</w> 204
ar mani</w> 204
ma m</w> 204
sa mp 204
dre ss 204
wa r</w> 204
fu ji 204
fo g</w> 204
自動 機械 204
ele ph 204
高腰 顯瘦 204
優質 賣場</w> 204
om ni</w> 204
顯示 器</w> 204
數據 線</w> 204
strea ming</w> 204
好 物</w> 203
超 低價</w> 203
按 摩</w> 203
第 四 203
系 統</w> 203
佛 牌</w> 203
除 毛 203
雞 肉 203
野 生 203
片 裝</w> 203
漱 口 203
就 是 203
e e</w> 203
a le 203
i se</w> 203
v an</w> 203
th is</w> 203
簡約 現代</w> 203
pi ck</w> 203
ja s 203
長袖 帽</w> 203
wor d</w> 203
小戶 型</w> 203
dai sy</w> 203
基本 款 203
促銷 價</w> 203
band s</w> 203
iti ve</w> 203
deto x</w> 203
韓 系</w> 202
燕 麥 202
外 穿</w> 202
水 鬼 202
假 面 202
對 折 202
證 明</w> 202
小 包包</w> 202
全 包</w> 202
長 筒 202
噴 頭 202
氣 動 202
購 買</w> 202
面 盆 202
貼 身 202
盆 栽</w> 202
入 戶 202
潔 顏 202
夜 視 202
o b 202
i so 202
y an</w> 202
n on 202
ti ons</w> 202
so me</w> 202
手機 支架 202
gi oh</w> 202
旅行 組</w> 202
medi a</w> 202
購物 袋 202
war m</w> 202
war ran 202
玄關 柜 202
air pods</w> 202
yu gioh</w> 202
半身 裙</w> 202
萬聖 節</w> 202
護膚 品 202
tea m</w> 202
coun t</w> 202
原子 筆</w> 202
奇奇 蒂 202
warran ty</w> 202
茶 具</w> 201
長 襪</w> 201
絨 面 201
一 包</w> 201
流 蘇</w> 201
寶 石</w> 201
母 乳 201
伴 手 201
香 皂</w> 201
奇 蹟 201
切 片 201
雞 蛋 201
壁 掛</w> 201
銀 針 201
u e</w> 201
a o</w> 201
k k</w> 201
m c</w> 201
i ve</w> 201
n ano</w> 201
en er</w> 201
fi ed</w> 201
新品 熱賣</w> 201
eye glass</w> 201
dra wer</w> 201
brea k</w> 201
shar k</w> 201
皮卡 丘 201
syn thetic</w> 201
施華洛世 奇</w> 201
範思 哲 201
capa city</w> 201
disinfe ct 201
戰 士 200
家 族</w> 200
衣 著 200
保 養</w> 200
貼 布 200
日 期 200
竹 炭 200
葫 蘆 200
藍 芽</w> 200
聲 波 200
靴 子 200
桃 花 200
蔬 果 200
傢 俱</w> 200
暢 銷 200
緞 帶</w> 200
d s 200
z ir 200
la bel</w> 200
li ve 200
su c 200
時尚 個性 200
gi l 200
男生 短袖</w> 200
咖啡 杯 200
sto ve</w> 200
vit amin 200
fit flop</w> 200
pil low 200
指甲 油 200
麵包 超人</w> 200
scen ts</w> 200
中筒 襪</w> 200
哈倫 褲 200
ike a</w> 200
多 美</w> 199
直 播</w> 199
尿 布</w> 199
規 格</w> 199
王 子 199
壁 紙 199
寫 真</w> 199
煙 灰 199
冷 藏 199
抗 皺 199
鬧 鐘 199
z on</w> 199
g t</w> 199
si cal</w> 199
th ai</w> 199
te ddy</w> 199
wi l 199
mar ine</w> 199
ang er</w> 199
臥室 燈 199
he i 199
針織 毛衣</w> 199
hy dro 199
woo l</w> 199
hou se 199
筆記本 電腦 199
羽絨 外套</w> 199
lumin ous</w> 199
joh n 199
smart phone</w> 199
變 速 198
外 殼</w> 198
薄 外套</w> 198
小 朋友 198
全 店 198
麻 辣 198
流 行</w> 198
吊 牌 198
時 髦 198
預 訂</w> 198
提 花 198
圈 圈 198
穿 搭 198
雪 地 198
銀 飾</w> 198
托 盤 198
渡 假 198
k ra 198
lo g</w> 198
tt ed</w> 198
fi le</w> 198
cor d 198
cy lin 198
寬松 顯瘦 198
fri end 198
拉鍊 長夾</w> 198
枕頭 包</w> 198
飛機 杯</w> 198
一件 免運</w> 198
nar u 198
sni per</w> 198
大 地 197
嬰 兒</w> 197
乾 燥</w> 197
單 件 197
數 位</w> 197
阿 曼尼 197
鋼 絲 197
踏 板</w> 197
辣 椒 197
旋 轉</w> 197
拳 擊 197
an k 197
li ly</w> 197
qu a 197
car d 197
be ver 197
et c</w> 197
dr e</w> 197
cat cher</w> 197
cli pper</w> 197
睡衣 女 197
泳衣 女 197
滑鼠 墊</w> 197
曼 尼</w> 196
手 把</w> 196
萬 年 196
透 光 196
紅 白 196
磁 力 196
小 美 196
全 網 196
絲 巾 196
顆 粒</w> 196
同 步</w> 196
細 肩 196
定 做</w> 196
掛 架</w> 196
貓 眼 196
壁 畫</w> 196
髮 夾 196
刺 激 196
軍 綠</w> 196
庫 存 196
t mx</w> 196
z o</w> 196
co py</w> 196
ti cal</w> 196
po ur</w> 196
運動 拖鞋</w> 196
家用 臥室 196
收納 筐 196
男女 孩 196
plu s 196
fla p</w> 196
fo x</w> 196
tw s</w> 196
寬鬆 顯瘦 196
遊戲 王</w> 196
jog ging</w> 196
螢幕 保護貼</w> 196
星際 大戰</w> 196
advan ced</w> 196
dish washing</w> 196
可 伸縮 195
可 水洗 195
打 磨 195
發 財 195
不 易 195
不 倒 195
童 話 195
時 代</w> 195
話 筒 195
刻 字 195
罩 衫 195
斜 背包 195
插 頭</w> 195
飛 機</w> 195
縫 隙 195
v p</w> 195
j v</w> 195
in visible</w> 195
la min 195
lo cked</w> 195
li an</w> 195
to wer</w> 195
tin y</w> 195
太陽 眼鏡 195
lea gue</w> 195
三角 褲</w> 195
glo be</w> 195
美人 魚 195
juni or</w> 195
地中 海 195
花 瓣 194
花 朵</w> 194
巴 黎</w> 194
三 角</w> 194
三 代</w> 194
黑 金</w> 194
小 怪獸 194
書 櫃 194
木 紋 194
天 絲 194
破 壞 194
軟 包 194
容 量 194
日 發 194
場 景 194
壁 紙</w> 194
已 售出</w> 194
戀 愛 194
斑 馬 194
插 座</w> 194
狂 歡 194
私 密 194
籠 子 194
e k 194
d ell</w> 194
o wl</w> 194
at e 194
fi ve</w> 194
do or 194
ci a</w> 194
sun block</w> 194
bea ded</w> 194
back case</w> 194
stre n 194
mono gram</w> 194
preci ous</w> 194
短 款</w> 193
防 風</w> 193
兩 件</w> 193
高 幫</w> 193
家 電</w> 193
保 羅 193
白 紅</w> 193
胸 前 193
晚 安 193
板 凳 193
降 噪 193
枕 套</w> 193
去 污 193
p g</w> 193
j on 193
co il</w> 193
休閒 運動</w> 193
ni sh</w> 193
crea my</w> 193
gi or 193
免運 費 193
嬰兒 床 193
eli za 193
超取 請 193
insu lated</w> 193
膚 色 192
中 心</w> 192
實 驗 192
照 片</w> 192
減 壓 192
即 期 192
擺 攤 192
涼 拖 192
銀 針</w> 192
街 拍 192
企 鵝 192
教 師 192
觀 音 192
f on 192
w k</w> 192
an gular</w> 192
sh ir 192
it a</w> 192
ma lay 192
am el</w> 192
cor re 192
mil k 192
學院 風</w> 192
cal cu 192
radi ation</w> 192
明信 片 192
床包 組</w> 192
joh n</w> 192
game pad</w> 192
ampli fier</w> 192
eleph ant</w> 192
磁 扣 191
黑 曜 191
餐 盒</w> 191
後 背 191
定 時 191
暖 手 191
另 有</w> 191
穿 鞋 191
紙 巾</w> 191
矽 膠</w> 191
鋁 箔 191
蘭 蔻</w> 191
撞 色</w> 191
索 尼</w> 191
腋 下 191
现 货</w> 191
茉 莉 191
吐 司 191
p y 191
a la 191
o w 191
c b</w> 191
g ood 191
to pper</w> 191
al a</w> 191
po sta 191
ea gle</w> 191
ph y 191
運動 褲 191
時尚 休閑 191
男女 寶寶 191
pi cture</w> 191
lov e 191
ja mas</w> 191
韓國 製</w> 191
mb ers</w> 191
sha per</w> 191
lay ered</w> 191
cond ition</w> 191
神奇 寶貝 191
glit ters</w> 191
爆米 花</w> 191
bene fit</w> 191
aquari um</w> 191
精 準 190
可 放 190
客 製</w> 190
小 鹿 190
五 角 190
紫 外線</w> 190
代 言</w> 190
餐 飲 190
開 光 190
酒 精 190
港 味 190
粉 紅色 190
紗 裙</w> 190
月 光 190
虎 頭 190
溜 溜 190
社 團 190
怪 獸</w> 190
逛 街 190
參 考</w> 190
f ar 190
b les</w> 190
c table</w> 190
c ca</w> 190
n lighten</w> 190
g on 190
se wing</w> 190
me ga 190
ul a</w> 190
bi o</w> 190
男士 手錶</w> 190
ff le</w> 190
小型 犬 190
家居 服</w> 190
動漫 周邊</w> 190
適用 于 190
寫字 桌 190
漁夫 帽 190
宅配 免運</w> 190
open er</w> 190
you th</w> 190
波 點 189
生 肖 189
下 水 189
小 叮 189
北 海 189
漫 威 189
制 服</w> 189
平 跟 189
剎 車 189
老 板 189
堅 果 189
富 士 189
監 控 189
蘑 菇 189
a way</w> 189
st eri 189
di um</w> 189
de ck</w> 189
現貨 特價 189
min er</w> 189
置物 盒</w> 189
bri cks</w> 189
comp ati 189
現貨供 應 189
膠原 蛋白 189
平滑 扣 189
vitamin s</w> 189
posta le</w> 189
兩 折 188
車 載</w> 188
麗 嬰 188
修 補 188
佛 教 188
鞋 墊</w> 188
降 溫 188
肌 肉 188
成 新 188
凝 膠 188
簍 空 188
s ar 188
k an 188
re st</w> 188
co me</w> 188
su it 188
sp lay</w> 188
兒童 寶寶 188
ni pple</w> 188
北歐 創意 188
wal k</w> 188
swe e 188
攝影 機</w> 188
grea t</w> 188
valentin o</w> 188
維他 命</w> 188
exp lo 188
花 盆</w> 187
浴 缸 187
新 版</w> 187
晶 鑽 187
躺 椅</w> 187
潤 膚 187
游 戲</w> 187
香 草 187
護 目 187
識 別 187
松 緊 187
零 碼 187
克 斯 187
史 萊 187
g inger</w> 187
g inger 187
ar gan</w> 187
er ci 187
li s</w> 187
di vi 187
ligh ting</w> 187
ad a</w> 187
套裝 家用 187
化妝 鏡 187
par k</w> 187
va ble</w> 187
tri angle</w> 187
旅行 箱</w> 187
eye wear</w> 187
床頭 櫃 187
春夏 新款</w> 187
床上 用品</w> 187
藍芽 喇叭</w> 187
comfor ter</w> 187
dry er</w> 187
cord less</w> 187
茶 臺 186
防 踢 186
質 量 186
夾 子</w> 186
高 低 186
完 整 186
理 髮 186
海 鷗</w> 186
溫 柔 186
穿 衣 186
妹 妹 186
路 亞 186
橘 色 186
蛋 白</w> 186
黏 土</w> 186
t f</w> 186
t rea 186
k land</w> 186
i sh 186
la zy</w> 186
pa d 186
pla tin 186
du st 186
ex foli 186
現代簡約 客廳 186
mil ky</w> 186
工作 室</w> 186
pat ches</w> 186
厚底 鞋</w> 186
play ed</w> 186
air max</w> 186
todd lers</w> 186
餐具 組</w> 186
thro ugh</w> 186
餐桌椅 組合 186
防潑 水 186
activ ity</w> 186
gui de</w> 186
權志 龍</w> 186
nou ri 186
前短 後 186
naru to</w> 186
抹 茶 185
語 音 185
內 搭</w> 185
童 書</w> 185
棉 服 185
軟 毛 185
優 雅</w> 185
買 家</w> 185
箱 子 185
適 合</w> 185
烤 盤</w> 185
社 會 185
隨 機</w> 185
芭 比 185
沒 有 185
a me 185
o w</w> 185
i v 185
j in</w> 185
an th 185
so l</w> 185
家用 室內 185
am ber</w> 185
北歐 風</w> 185
je ju</w> 185
ex erci 185
tru ck</w> 185
platin um</w> 185
套 件</w> 184
小 獅 184
英 語 184
白 底 184
白 金</w> 184
定 型 184
配 飾</w> 184
印 度 184
稀 有 184
蕾 蕾 184
當 日 184
消 防 184
搞 怪 184
芭 蕾 184
緞 帶 184
棕 色 184
u le</w> 184
t w</w> 184
b lin 184
y our 184
n an 184
w ings</w> 184
un o</w> 184
po ck 184
fi re 184
日本 迪士尼 184
sc rat 184
短袖 套裝</w> 184
temp er 184
dd en</w> 184
連帽 衛衣 184
聯名 款 184
twi st</w> 184
inten sive</w> 184
帽子 女 184
ham mer</w> 184
施華洛世 奇 184
jour nal</w> 184
ros ary</w> 184
幼稚 園 184
龍 貓</w> 183
花 漾 183
新 店 183
一 代 183
附 贈 183
刀 架 183
白 鐵 183
俏 皮 183
模 特 183
彈 力</w> 183
早 期 183
粉 底</w> 183
無 穀 183
柜 子</w> 183
陳 冠 183
益 生 183
舞 臺 183
麥 當 183
添 加 183
p i</w> 183
b one</w> 183
n m</w> 183
ch ea 183
and er</w> 183
me lo 183
兒童 安全 183
ver s</w> 183
北歐 輕奢 183
cla mp</w> 183
bri e 183
tri al</w> 183
旅行 袋</w> 183
sto cks</w> 183
娃娃 機</w> 183
七龍 珠 183
多肉 植物</w> 183
aero postale</w> 183
防走 光 183
實體店 面</w> 183
手 臂 182
變 頻</w> 182
巴 斯 182
直 徑</w> 182
風 琴 182
出 國 182
水 箱 182
膚 色</w> 182
財 神 182
孔 雀 182
大 燈 182
周 歲 182
頭 套</w> 182
搭 扣 182
餐 邊柜 182
時 代 182
樂 樂 182
版 型 182
方 塊 182
拆 售</w> 182
職 員 182
別 針</w> 182
銀 飾 182
湖 水 182
s m 182
s ki 182
sa ki</w> 182
便攜 式</w> 182
ron es</w> 182
dra wing</w> 182
san rio</w> 182
multi purpose</w> 182
ab et</w> 182
男童 女童 182
青少年 學生 182
won der 182
棋盤 格 182
棋盤 格</w> 182
蛋黃 哥 182
nigh t 182
plus size</w> 182
compati ble</w> 182
夏 天</w> 181
通 勤 181
浴 室</w> 181
歐 舒 181
點 煙 181
毛 邊 181
小 雛菊 181
加 購 181
特 色 181
贈 送 181
平 面 181
懶 懶 181
四 葉 181
無 袖</w> 181
晴 雨 181
鏡 面</w> 181
莎 拉 181
妖 怪 181
a ba 181
l ery</w> 181
co m</w> 181
co splay</w> 181
ma ga 181
sho pping</w> 181
簡易 家用 181
tin a</w> 181
設計 款</w> 181
bang les</w> 181
bur y</w> 181
出清 價</w> 181
bul let</w> 181
who le</w> 181
alph abet</w> 181
電腦椅 家用 181
clou d</w> 181
日發 完</w> 181
水 鬼</w> 180
黑 金 180
藍 白</w> 180
調 節 180
無 人 180
各 式 180
最 便宜</w> 180
橘 子 180
史 黛 180
p ing</w> 180
e k</w> 180
o ven</w> 180
lo r 180
ro man 180
to ms</w> 180
pa jamas</w> 180
sa f 180
ur t</w> 180
mo ther 180
運動 套裝 180
wi g</w> 180
創意 家居 180
sta bi 180
bra ssi 180
ka waii</w> 180
原廠 正品</w> 180
dy na 180
沐浴 露</w> 180
雜貨 店</w> 180
首飾 盒 180
aro mat 180
無線藍牙 耳機 180
buil t</w> 180
刀劍 神 180
kir kland</w> 180
diffe rent</w> 180
vehi cle</w> 180
直 購</w> 179
星 座 179
轉 椅 179
都 會 179
跑 步</w> 179
梅 花 179
貿 易</w> 179
s j 179
p ins</w> 179
i p</w> 179
y n</w> 179
w in</w> 179
de fen 179
fe ather</w> 179
ho mme</w> 179
fo am 179
化妝 鏡</w> 179
商務 休閑 179
hoo dies</w> 179
石英 錶 179
ya o</w> 179
夏季新款 韓版 179
貝殼 頭 179
批發 價</w> 179
記憶 卡</w> 179
梳妝臺 臥室 179
筆電 包</w> 179
bear ing</w> 179
防 霧 178
女 神</w> 178
計 算 178
一 次</w> 178
內 刷毛 178
定 位 178
洗 發 178
洗 頭 178
掛 耳 178
活 膚 178
圍 兜 178
鋰 電 178
陰 陽 178
偵 探 178
r ing 178
a g</w> 178
n en 178
g round</w> 178
th y 178
ta was</w> 178
au tu 178
am i</w> 178
簡約現代 客廳 178
限時 免運</w> 178
按摩 器 178
war ri 178
pat rol</w> 178
可調 式 178
垂墜 耳環</w> 178
bron ze</w> 178
bak una</w> 178
cylin der</w> 178
膠 囊 177
星 光 177
用 具</w> 177
日 記 177
魚 竿 177
洗 顏 177
四 代 177
墻 紙 177
洛 克 177
杯 架 177
娜 美</w> 177
撲 克 177
爸 爸 177
耶 誕 177
o val</w> 177
g au 177
re volution</w> 177
th rones</w> 177
no tes</w> 177
sli des</w> 177
bb q</w> 177
lip o</w> 177
按摩 棒 177
快速 出貨 177
熱銷 款 177
san ta</w> 177
vo ice</w> 177
sna ck</w> 177
抖音 同款</w> 177
腳踏 車 177
親子 裝</w> 177
寫字 臺 177
智慧 型 177
乾燥 花</w> 177
收腰 顯瘦 177
clin ic</w> 177
分離 式 177
電 壓</w> 176
歐 文</w> 176
水 冷 176
原 味</w> 176
星 球</w> 176
床 單</w> 176
木 耳 176
寶 馬</w> 176
袋 子 176
白 雪 176
植 村 176
達 人 176
過 年 176
火 爆 176
西 瓜 176
米 色 176
無 敵 176
碗 筷 176
鑲 鉆 176
觸 摸 176
霹 靂 176
兄 弟 176
c l</w> 176
k w</w> 176
ta ins</w> 176
mo vie</w> 176
休閒 商務 176
ju mbo</w> 176
ani um</w> 176
cre me</w> 176
gen cy</w> 176
dol l 176
mor ning</w> 176
free bies</w> 176
chan nel</w> 176
益智 玩具</w> 176
美樂 蒂 176
中長 款</w> 176
延長 線</w> 176
手 冊</w> 175
圓 點 175
圓 圈 175
氣 泡 175
美 發 175
開 始 175
鍍 金 175
部 品</w> 175
白 藍</w> 175
石 榴 175
蘆 薈 175
墜 子</w> 175
深 藍色 175
未 來 175
月 子 175
媽 媽</w> 175
豆 漿 175
誘 惑</w> 175
奶 粉</w> 175
鎖 扣 175
斗 柜 175
刺 青 175
烘 焙</w> 175
壽 司 175
g els</w> 175
w ea 175
la u 175
ch un 175
bo ar 175
mo to 175
cu cu 175
sha ke</w> 175
nat ive</w> 175
咖啡 機</w> 175
平底 鞋 175
cur ry</w> 175
公主 風 175
der ma</w> 175
dai so</w> 175
轉換 器</w> 175
gener ation</w> 175
免運直 出</w> 175
美津 濃</w> 175
cucu mber</w> 175
雨 靴 174
夏 新款 174
泡 腳 174
風 景 174
水 凝 174
夾 心 174
口 味 174
北 極 174
邊 框 174
圓 環 174
內 膽 174
顯 示</w> 174
千 鳥 174
西 服 174
布 偶</w> 174
秘 密</w> 174
珠 寶</w> 174
輪 滑 174
胖 子 174
韩 版 174
简 约 174
o d 174
y u</w> 174
in ver 174
at o</w> 174
al d</w> 174
pe ts</w> 174
pri de</w> 174
咖啡 杯</w> 174
dri ed</w> 174
連衣裙 女 174
trans fer</w> 174
泡泡 袖 174
電腦桌 臺式 174
pin ea 174
spar k</w> 174
愛麗 絲</w> 174
qui ck 174
mech anical</w> 174
燈芯 絨 174
tropi cal</w> 174
牛 角 173
兩 穿 173
小 鳥 173
邊 桌 173
前 臺 173
后 現代 173
護 欄 173
馬 拉 173
鐵 板 173
側 背</w> 173
效 果 173
磨 毛 173
搖 籃 173
和 服 173
插 卡</w> 173
桃 紅 173
褶 皺 173
研 究 173
e sp 173
t z</w> 173
f igh 173
c ation</w> 173
sh el 173
sp l</w> 173
家用 廚房 173
fi x</w> 173
fu sion</w> 173
hu go</w> 173
hand y</w> 173
mer ic</w> 173
over all</w> 173
十字 繡 173
角落 小 173
gg les</w> 173
化妝品 收納盒 173
台風 行 173
超商 取 173
出租 房 173
洗菜 盆 173
契爾 氏</w> 173
短 版</w> 172
機 商用 172
水 池 172
毛 料 172
眼 部 172
黑 底 172
小 狗 172
中 號</w> 172
星 期 172
壓 紋</w> 172
特 大號 172
倒 車 172
分 隔 172
油 箱 172
板 手</w> 172
日 記</w> 172
復 刻</w> 172
組 裝</w> 172
草 莓</w> 172
淡 化 172
成 品</w> 172
滾 輪 172
傳 說</w> 172
消 光 172
廣 角 172
遇 見 172
仰 臥 172
u k</w> 172
c qu 172
z i</w> 172
re r</w> 172
an k</w> 172
se con 172
mi lit 172
ear buds</w> 172
手機 包 172
迷你 小型 172
cla t</w> 172
stra ps</w> 172
上衣 潮</w> 172
whit e 172
隨身 碟</w> 172
便當 盒 172
小胸 聚攏 172
tee th</w> 172
縮口 褲</w> 172
gal lon</w> 172
emer gency</w> 172
新百 倫</w> 172
pinea pple</w> 172
花 架</w> 171
套 罩 171
民 宿 171
餐 盤 171
分 享 171
裙 式 171
預 定</w> 171
貼 布</w> 171
照 明</w> 171
領 帶</w> 171
鍊 條 171
滿 月 171
檢 測 171
搬 家 171
s mith</w> 171
o at 171
o xi 171
lo s</w> 171
li f 171
ro yale</w> 171
po lar 171
di ck 171
de gree</w> 171
de scription</w> 171
wat ts</w> 171
pi la 171
日本 原裝</w> 171
per a</w> 171
gra ss</w> 171
eri zed</w> 171
茶幾 組合 171
sou p</w> 171
din o 171
om bre</w> 171
便當 袋</w> 171
as cor 171
prest o</w> 171
魚子 醬 171
詹姆 斯</w> 171
simp ly</w> 171
puri fier</w> 171
鬼滅之 刃</w> 171
保留 中</w> 171
丹尼 爾 171
wol f</w> 171
雅詩蘭 黛</w> 171
kha ki</w> 171
eliza beth</w> 171
手 把 170
茶 壺</w> 170
外 接 170
動 力 170
毛 毯</w> 170
長 效 170
圓 臉 170
絲 綢 170
沙 拉 170
發 飾 170
肚 子 170
榮 耀</w> 170
達 菲</w> 170
模 擬 170
鑰 匙</w> 170
敏 感 170
標 誌 170
托 盤</w> 170
蝴 蝶</w> 170
聊 聊</w> 170
宣 傳 170
姓 名 170
e mo 170
l la 170
h w</w> 170
g p</w> 170
in c</w> 170
in sp 170
le ft</w> 170
ro und 170
ch am 170
th ings</w> 170
po we 170
fa t</w> 170
te al</w> 170
so y</w> 170
時尚 潮流</w> 170
mar ks</w> 170
medi cal</w> 170
防塵 罩 170
水桶 包 170
紀念 品</w> 170
鬆緊 腰 170
repla c 170
身體 乳</w> 170
棉花 糖 170
雙子 星</w> 170
paci fier</w> 170
nood les</w> 170
空氣清淨 機</w> 170
sno w 170
milit ary</w> 170
電 工 169
浴 盆 169
人 生 169
書 櫃</w> 169
節 日 169
特 大 169
拉 絲 169
清 水 169
時 光</w> 169
單 反 169
有 蓋 169
幫 手</w> 169
秋 千 169
排 釦 169
鋼 筆 169
靴 子</w> 169
兄 弟</w> 169
凈 化 169
晾 衣 169
c ant</w> 169
v ance</w> 169
w t</w> 169
re tra 169
ma car 169
休閒 時尚 169
經典 雙</w> 169
經典 商務 169
pe dal</w> 169
ha pp 169
ke to</w> 169
電腦 臺式 169
帆布 包 169
圓領 套頭 169
mil d</w> 169
ampo ule</w> 169
遙控 器</w> 169
box es</w> 169
collecti ble</w> 169
蛋黃 哥</w> 169
福利 品</w> 169
波士頓 包</w> 169
紅包 袋</w> 169
autu mn</w> 169
少 年</w> 168
小 包包 168
拉 鏈</w> 168
一 片 168
美 食 168
轉 售</w> 168
倫 敦 168
開 業 168
房 子 168
收 音 168
互 動 168
主 持 168
排 水 168
奶 粉 168
烤 箱</w> 168
綠 植 168
瓦 斯 168
段 變頻 168
烘 培 168
鑄 鐵 168
拇 指 168
ca len 168
un locked</w> 168
di ap 168
de tai 168
運動 健身 168
時尚 創意 168
ki ller</w> 168
da y 168
ear ings</w> 168
vi l</w> 168
do w 168
休閑 運動鞋</w> 168
gla m</w> 168
化妝 桌</w> 168
嬰兒 推車 168
dro ps</w> 168
床上 用品 168
spar k 168
ruff les</w> 168
dry ing</w> 168
角色扮 演 168
杯緣 子</w> 168
melo dy</w> 168
硬 碟</w> 167
大 底</w> 167
伸 縮</w> 167
木 制 167
刀 具 167
系 統 167
地 球 167
日 立</w> 167
除 塵 167
四 驅 167
杯 架</w> 167
交 通 167
恒 溫 167
s car</w> 167
i an</w> 167
re seller</w> 167
ro ad</w> 167
現貨 現貨 167
ang e 167
wal king</w> 167
tra iner</w> 167
kit a</w> 167
性感 蕾絲 167
寬松 大碼 167
落地 多層 167
tren ding</w> 167
charact ers</w> 167
out put</w> 167
sna ps</w> 167
超輕 量 167
萬用 包</w> 167
哈倫 褲</w> 167
compre ssion</w> 167
aller genic</w> 167
your self</w> 167
精 裝 166
工 藝</w> 166
大 促銷</w> 166
加 密 166
七 夕 166
棉 被 166
金 證 166
我 愛 166
我 們 166
冬 裝 166
亮 面</w> 166
淡 斑 166
台 中</w> 166
鋼 筆</w> 166
雪 肌 166
睡 袋</w> 166
蒸 氣 166
杜 蘭 166
軍 事 166
染 發 166
眉 筆</w> 166
s lo 166
r r 166
b n 166
in tel</w> 166
re la 166
an ch 166
ro u 166
th or</w> 166
家用 簡易 166
男女 情侶款 166
sta n</w> 166
復古 風 166
玻璃 杯 166
ve a</w> 166
長袖 襯衫 166
squ ee 166
單人 床 166
棒球 外套</w> 166
sen s 166
鋼化 玻璃貼</w> 166
單肩包 斜挎包 166
cen se</w> 166
tit anium</w> 166
hob bies</w> 166
exerci se</w> 166
diap ers</w> 166
尼 龍</w> 165
拼 色</w> 165
人 生</w> 165
運 費</w> 165
可 議</w> 165
黑 灰 165
星 球 165
液 體 165
一 直 165
流 浪 165
櫃 子</w> 165
完 全 165
胸 針</w> 165
石 頭 165
公 升 165
藍 白 165
亮 片</w> 165
飯 桌 165
設 備</w> 165
元 素</w> 165
供 佛 165
基 酸 165
萌 萌 165
嫁 接 165
刮 鬍 165
富 貴 165
b n</w> 165
le vel</w> 165
en a</w> 165
bra i 165
ssi mo</w> 165
lan yard</w> 165
spi ral</w> 165
dol ce</w> 165
情趣 內衣</w> 165
nu mbers</w> 165
阿瑪尼 手錶</w> 165
鎖骨 鏈 165
手電 筒 165
vir gin</w> 165
mid night</w> 165
蠟筆小 新</w> 165
高精 度 165
spee dy</w> 165
calcu lator</w> 165
replac eable</w> 165
電 鍍</w> 164
三 用 164
牛 排 164
紅 茶</w> 164
歐 式</w> 164
免 釘 164
原 味 164
小 雞 164
全 館</w> 164
用 具 164
特 產 164
起 司 164
繪 本 164
針 扣 164
懸 掛 164
潔 牙 164
以 上 164
夜 燈</w> 164
臻 品下殺</w> 164
牡 丹 164
b ong</w> 164
j ol 164
co mic</w> 164
la d 164
li fe 164
日本 限定</w> 164
pe pper 164
新品 特惠</w> 164
fro g 164
water melon</w> 164
stre chable</w> 164
娃娃 鞋</w> 164
聖誕 禮物</w> 164
一字 肩 164
下標 前 164
睫毛 膏</w> 164
變形 金剛</w> 164
凱蒂 貓 164
philipp ines</w> 164
水波 紋 164
pillow case</w> 164
機 小型 163
眼 罩</w> 163
計 時</w> 163
大 特價</w> 163
用 書</w> 163
袋 裝</w> 163
緊 致 163
畫 畫 163
正 常</w> 163
無 瑕 163
斜 紋 163
真 品 163
菱 形 163
鍋 蓋 163
去 除 163
紐 約 163
企 鵝</w> 163
勿 下單</w> 163
魅 力</w> 163
夥 伴</w> 163
e tte</w> 163
h at 163
la i</w> 163
ma am</w> 163
收納 柜</w> 163
ni vea</w> 163
be ans</w> 163
北歐 現代簡約 163
ke e</w> 163
lit ers</w> 163
hi king</w> 163
無線 充電 163
cho ice</w> 163
cur tains</w> 163
elect ro 163
brea ker</w> 163
工業 風</w> 163
頭層 牛皮</w> 163
吸塵 器 163
effe ct</w> 163
dura ble</w> 163
pock et 163
aromat her 163
oat meal</w> 163
retra ctable</w> 163
雨 刷</w> 162
手 拉 162
電 線 162
巴 西 162
自 黏 162
點 點</w> 162
大 氣</w> 162
拉 力 162
餐 廳</w> 162
文 字</w> 162
遮 擋 162
蓮 蓬 162
拖 地 162
檀 香 162
迎 賓 162
狐 狸 162
輔 食 162
楠 竹 162
a ko</w> 162
o mega</w> 162
b li 162
k al 162
st ro 162
it ali 162
ch o</w> 162
ra z 162
bo at</w> 162
di ary</w> 162
fa b</w> 162
家用 小 162
現貨 速發</w> 162
cu ff</w> 162
潮流 百搭 162
ka t</w> 162
移動 電源 162
christ ening</w> 162
小熊 維尼 162
男孩 女孩 162
馬卡 龍</w> 162
門廳 柜 162
boy leg</w> 162
drin king</w> 162
brie fs</w> 162
接 收 161
心 形 161
熱 門 161
女 包包</w> 161
水 手 161
層 架</w> 161
可 折疊</w> 161
新 加 161
賣 家</w> 161
縮 腰 161
墊 子</w> 161
袖 珍 161
提 臀 161
定 妝 161
牆 貼</w> 161
越 南 161
po lo 161
su l 161
ph e</w> 161
mo ssimo</w> 161
uni que</w> 161
fe et</w> 161
二手 衣</w> 161
prin ce</w> 161
ath er 161
shi ba</w> 161
go d 161
設計 款 161
室內 外 161
拉鏈 包</w> 161
衛生間 浴室 161
play boy</w> 161
鋼化玻璃 保護貼</w> 161
冰雪奇 緣 161
rect angular</w> 161
貓頭 鷹 161
居家裝飾 廚房收納</w> 161
jas mine</w> 161
手 柄</w> 160
花 架子 160
三 宅 160
外 賣 160
雙 色</w> 160
上 架</w> 160
車 貼 160
天 下 160
金 扣</w> 160
穩 定 160
面 板</w> 160
定 價</w> 160
山 茶花 160
領 帶 160
鋪 子</w> 160
縫 紉 160
需 要 160
穆 勒 160
扳 手 160
运 动 160
s wear</w> 160
s kid</w> 160
s wing</w> 160
se c</w> 160
ri es</w> 160
ne ver</w> 160
pi lot</w> 160
pla ce</w> 160
學生 百搭 160
創意 園</w> 160
經典 時尚 160
ad vance</w> 160
bea d</w> 160
gi ant</w> 160
go ggles</w> 160
she a</w> 160
hy po 160
珍珠 耳環</w> 160
一字 扣 160
one x</w> 160
cal vin</w> 160
tab le 160
black head</w> 160
bon net</w> 160
上班 族 160
卡娜赫 拉</w> 160
全掌 氣墊 160
every day</w> 160
nap kin</w> 160
brassi ere</w> 160
茶 杯</w> 159
花 色 159
黑 藍</w> 159
小 碎花 159
上 海 159
一 套 159
美 式</w> 159
頭 發 159
木 馬 159
鬆 糕 159
腹 肌 159
道 教 159
網 卡</w> 159
米 色</w> 159
翅 膀 159
刷 具 159
羽 毛球 159
碗 架 159
森 林</w> 159
聲 光 159
冷 淡 159
到 付</w> 159
俄 羅 159
奧 運 159
滾 珠 159
私 人 159
檸 檬</w> 159
鈴 鐺 159
礦 物 159
s ity</w> 159
f x</w> 159
h ai 159
li ft</w> 159
un i</w> 159
po made</w> 159
ta ctical</w> 159
do zen</w> 159
男士 皮帶</w> 159
we igh 159
no vel</w> 159
desig ner</w> 159
tri u 159
圓領 短袖 159
vit ali 159
背心 裙</w> 159
學習 桌 159
lay ers</w> 159
dor ae 159
現貨秒 發</w> 159
conver ter</w> 159
馬鞍 包</w> 159
ech ers</w> 159
thermo meter</w> 159
男 鞋女鞋 158
電 器 158
變 裝 158
三 聯 158
心 理 158
夾 式耳環</w> 158
小 黃 158
小 蜜蜂 158
椅 家用 158
流 沙 158
甜 美</w> 158
海 盜 158
乳 器</w> 158
台 製</w> 158
培 訓 158
籃 子 158
標 籤</w> 158
世 紀 158
俱 樂 158
赤 足</w> 158
應 援 158
宮 崎 158
祛 痘 158
b ling</w> 158
m mi 158
m us 158
sa ver</w> 158
ig n 158
新款 百搭 158
mo mmy</w> 158
ko sh</w> 158
fi eld</w> 158
ss ors</w> 158
牛仔 裙</w> 158
sma l</w> 158
shi sei 158
ry x 158
通用 型 158
bur ner</w> 158
pon y 158
hard bound</w> 158
魔鬼 氈 158
tai wan</w> 158
加濕 器</w> 158
山地 車 158
spro cket</w> 158
dire ct</w> 158
劇場 版</w> 158
geor ge</w> 158
蕾蕾 小鋪 158
powe red</w> 158
手 串 157
泡 泡</w> 157
明 治 157
光 學 157
簡 易</w> 157
一 生 157
清 涼 157
棉 衣</w> 157
開 發 157
面 具</w> 157
單 寧 157
數 量 157
理 膚 157
東 方 157
耳 罩 157
阿 拉 157
領 劵 157
球 鞋 157
碗 盤 157
瑪 莎拉 157
普 洱 157
璀 璨 157
漸 層</w> 157
元 素 157
惠 靈 157
染 髮 157
鏤 空</w> 157
柴 犬 157
学 生 157
望 遠 157
鴛 鴦 157
z one</w> 157
co ck</w> 157
li me</w> 157
sa m</w> 157
mo p</w> 157
運動 服</w> 157
sk echers</w> 157
日本 帶回 157
百搭 休閒 157
ing co</w> 157
男士 休閑 157
ter nal</w> 157
美國 代購 157
par a 157
mu sh 157
上衣 女</w> 157
遊戲 片</w> 157
sea son 157
twi sted</w> 157
短版 上衣</w> 157
cir cu 157
海軍 藍</w> 157
tou gh</w> 157
數據 線 157
極度 乾燥</w> 157
艾米 家</w> 157
pau l</w> 157
加拿 大 157
writ ing</w> 157
shisei do</w> 157
好 貨</w> 156
好 看 156
出 差 156
重 複 156
超 美</w> 156
紫 水晶 156
購 入 156
美 腿 156
織 布 156
單 個 156
胸 章</w> 156
體 育</w> 156
暖 暖 156
四 代</w> 156
山 水 156
鞋 柜</w> 156
馬 車</w> 156
粘 貼 156
絕 地 156
維 多 156
醫 療 156
爵 士 156
皆 可 156
鉑 金 156
e u</w> 156
f el 156
z y 156
st d</w> 156
se same</w> 156
ro m</w> 156
ma xi 156
sp inner</w> 156
全新 轉賣</w> 156
gra in</w> 156
pe pper</w> 156
床頭 櫃</w> 156
han a 156
pain ted</w> 156
sci ssors</w> 156
範思 哲</w> 156
紀梵 希</w> 156
店長 推薦</w> 156
stron g</w> 156
dorae mon</w> 156
卡 夾 155
花 苞 155
套 筒 155
自 動</w> 155
超 大號 155
木 板 155
後 庭 155
白 光</w> 155
空 姐 155
拍 照</w> 155
合 作 155
方 領 155
王 者 155
線 上 155
仿 舊 155
馬 達 155
個 子 155
漂 亮 155
濾 心</w> 155
概 論</w> 155
t r</w> 155
y x</w> 155
n au 155
re max</w> 155
an ni 155
ca ll</w> 155
ro o 155
po s 155
全新 正品 155
gh am</w> 155
玻璃 保護貼</w> 155
shi mmer</w> 155
ten si 155
電視 櫃 155
全新未 拆 155
fron tro 155
米奇 米妮 155
老爹 鞋 155
dor oid</w> 155
tou ch 155
king dom</w> 155
樂福 鞋</w> 155
fal se</w> 155
最愛 二手精品</w> 155
偶像學 園</w> 155
roman tic</w> 155
nen doroid</w> 155
inver ter</w> 155
aromather apy</w> 155
手 帕</w> 154
水 平 154
大 全 154
加 高 154
國 外 154
氣 囊 154
美 美 154
樂 購 154
翻 新 154
夢 想 154
米 家 154
登 月</w> 154
無 框 154
入 裝</w> 154
雪 茄 154
供 應 154
衝 評 154
檀 木 154
史 奴 154
啤 酒 154
创 意 154
p ment</w> 154
h b 154
h eng</w> 154
lu ffy</w> 154
mp h</w> 154
pi yao</w> 154
韓國 東大門 154
gi o</w> 154
pri ced</w> 154
lit ter</w> 154
ge ment</w> 154
爆款 熱賣</w> 154
明星 款 154
gri d</w> 154
foo ds</w> 154
桌上 型 154
eu ro 154
戰鬥 陀螺</w> 154
house hold</w> 154
pepper mint</w> 154
風 機</w> 153
外 銷 153
可 超取</w> 153
超 靜音 153
喬 巴</w> 153
中 大尺碼</w> 153
長 洋</w> 153
極 速 153
專 家</w> 153
鏈 條</w> 153
文 學 153
網 絡 153
升 級</w> 153
墨 水 153
阿 甘</w> 153
馬 來 153
搖 椅 153
遙 控</w> 153
梯 子 153
左 右 153
衝 擊 153
s cal 153
o ther</w> 153
m t</w> 153
m j</w> 153
y e</w> 153
h f</w> 153
g our 153
v ga</w> 153
co pper</w> 153
la test</w> 153
lo west</w> 153
ra w</w> 153
ti ff 153
sho p 153
二手 書 153
for e</w> 153
免運 中</w> 153
上衣 女 153
motor s</w> 153
ass y</w> 153
nu ts</w> 153
zz a</w> 153
歐洲 站</w> 153
fen di</w> 153
夾克 外套</w> 153
opti cal</w> 153
prest ige</w> 153
trous ers</w> 153
chang ing</w> 153
reser ved</w> 153
scrat ch</w> 153
frontro w</w> 153
手 推 152
可 調</w> 152
恤 上衣</w> 152
訂 單 152
折 下殺</w> 152
書 套</w> 152
靠 墻 152
實 心 152
喜 歡 152
魚 嘴 152
安 娜 152
秋 季</w> 152
門 墊 152
布 鞋 152
博 士 152
八 五 152
八 成新</w> 152
走 路 152
未 來</w> 152
台 製 152
蒙 古 152
成 年 152
輪 胎</w> 152
滾 邊 152
雲 朵 152
紀 念</w> 152
巨 無 152
扳 手</w> 152
f arm</w> 152
o li 152
x box</w> 152
j in 152
pa in</w> 152
ur o</w> 152
so lu 152
收納 籃</w> 152
pi e</w> 152
wi per</w> 152
do ctors</w> 152
fu el</w> 152
辦公 室</w> 152
鑰匙 包 152
spa dri 152
雙人 床 152
沙灘 褲</w> 152
hon ey 152
man y</w> 152
美式 復古 152
襯衫 女 152
shu i</w> 152
獨角 獸</w> 152
屏風 隔斷 152
晚宴 包</w> 152
foot wear</w> 152
vibr ator</w> 152
附購買 證明</w> 152
sn oo 152
dru m</w> 152
電 壓 151
花 生 151
雙 層</w> 151
重 磅 151
小 女孩 151
大 作 151
大 陸 151
大 眾 151
高 音 151
專 業</w> 151
金 絲 151
油 漆 151
貼 畫 151
勞 保 151
速 幹 151
戴 妃 151
秘 密 151
未 拆</w> 151
狗 窩 151
純 金 151
週 邊</w> 151
鋰 電池 151
杯 套</w> 151
夜 光</w> 151
r l</w> 151
i de 151
an te 151
ba lls</w> 151
ma dre</w> 151
ath le 151
wal lets</w> 151
打底 褲 151
scre w 151
mor phe</w> 151
顯示 器 151
洗漱 臺 151
吹風 機 151
鱷魚 紋 151
gin gham</w> 151
蜘蛛 人</w> 151
rot ating</w> 151
sei ko</w> 151
海邊 度假 151
水餃 包</w> 151
lei sure</w> 151
bever ly</w> 151
stren gth</w> 151
丹尼爾 惠靈 151
手 袋 150
電 暖 150
電 子</w> 150
直 銷 150
雙 面</w> 150
膠 水 150
兩 色 150
學 院</w> 150
液 態 150
家 居家 150
發 售</w> 150
聯 盟 150
哥 吉 150
修 飾 150
來 電 150
方 巾</w> 150
香 香 150
耳 麥 150
漢 堡 150
米 蘭 150
鐵 皮 150
燙 鑽 150
菊 花 150
團 體 150
牽 引 150
k night</w> 150
z ine</w> 150
h in 150
on ic</w> 150
si x</w> 150
ki ll</w> 150
me la 150
全新 正版</w> 150
vi os</w> 150
pla t 150
hi lls</w> 150
mou th</w> 150
清潔 刷</w> 150
one piece</w> 150
sna ke</w> 150
隔斷 簾 150
品質 保證</w> 150
骷髏 頭 150
peri pera</w> 150
apri l</w> 150
歐米 茄</w> 150
ame thy 150
foam ing</w> 150
anch or</w> 150
tiff any</w> 150
出 門 149
熱 褲</w> 149
水 機</w> 149
超 低 149
小 外套</w> 149
大 包</w> 149
二 合一</w> 149
包 鞋</w> 149
面 板 149
有 現貨</w> 149
護 士 149
草 機 149
磨 刀 149
瑪 莉 149
菱 格紋 149
碎 花</w> 149
p on</w> 149
t ata</w> 149
ti ca</w> 149
po ly</w> 149
el sa</w> 149
家用 門口 149
手機 通用 149
uni t</w> 149
ex cel 149
mu sical</w> 149
shi e</w> 149
rubb erized</w> 149
war dro 149
直筒 褲</w> 149
馬丁 靴</w> 149
超長 待 149
holi day</w> 149
beach kin</w> 149
bapti smal</w> 149
disinfect ant</w> 149
round neck</w> 149
理膚 寶 149
男 人 148
三 種 148
套 書</w> 148
紅 茶 148
紅 豆 148
子 的 148
超 萌 148
全 面 148
漫 威</w> 148
圓 珠 148
發 夾 148
彩 妝</w> 148
爆 裂 148
火 車 148
港 版</w> 148
鉆 石 148
無 縫 148
馬 自 148
路 由 148
旗 袍</w> 148
狗 狗</w> 148
呼 吸 148
索 隆</w> 148
測 試 148
d al 148
h q</w> 148
st ate</w> 148
lo ws</w> 148
時尚 氣質 148
ul t</w> 148
sle y</w> 148
flo w</w> 148
be ef</w> 148
多功能 家用 148
par i 148
ka i</w> 148
cre w</w> 148
ban g</w> 148
居家 家</w> 148
大尺 寸</w> 148
ky o</w> 148
gro c 148
公文 包 148
activ ated</w> 148
滿額 免運</w> 148
brai ded</w> 148
手 拎 147
機 油</w> 147
紅 木 147
小 孩</w> 147
小 舖 147
小 禮服</w> 147
皮 包</w> 147
折 起</w> 147
袖 上衣</w> 147
情 侣 147
汽 油 147
胸 針 147
齊 全</w> 147
間 約 147
冬 季</w> 147
錶 盤</w> 147
畫 家 147
正 方形 147
關 節 147
燈 光 147
乳 液 147
碳 素 147
圍 脖</w> 147
緩 震</w> 147
蘇 打 147
濾 芯</w> 147
散 裝 147
省 空間</w> 147
庫 洛 147
a pe 147
f u</w> 147
v r</w> 147
in se 147
co ated</w> 147
st an 147
ba c</w> 147
ro l 147
si ons</w> 147
ti me 147
de er</w> 147
vi ce</w> 147
per form 147
ga in</w> 147
經典 復古 147
北歐 客廳 147
廚房 收納 147
新品 特價</w> 147
spor t 147
bro w 147
ten s</w> 147
防滑 墊</w> 147
連身 洋裝</w> 147
情趣 用品 147
sau r</w> 147
plan e</w> 147
gro wer</w> 147
禮盒 組</w> 147
出貨 前 147
graph y</w> 147
絨毛 娃娃</w> 147
inter national</w> 147
南極 人 147
qua ff</w> 147
雙 門 146
生 命 146
紅 白</w> 146
小 提 146
全 台 146
墊 片</w> 146
高 潮 146
一 家 146
利 亞 146
落 肩 146
貓 狗 146
儲 存 146
供 奉 146
蜂 巢 146
紐 巴 146
總 成</w> 146
瀏 海 146
猴 子 146
s ink</w> 146
r in 146
d ate</w> 146
k la 146
st ance</w> 146
at tire</w> 146
on line</w> 146
vi s</w> 146
ce lebr 146
che ts</w> 146
ac cent</w> 146
mm a</w> 146
ke ttle</w> 146
手工 皂</w> 146
手工 皂 146
nu tr 146
squ are 146
glo bal</w> 146
西裝 褲</w> 146
涼鞋 女</w> 146
工藝 品</w> 146
anti bacterial</w> 146
smi le</w> 146
掛鐘 客廳 146
鋼鐵 人</w> 146
perform ance</w> 146
電 扇</w> 145
直 流 145
好 物 145
夾 式 145
小 屋 145
長 款</w> 145
家 家</w> 145
甲 油 145
分 鐘 145
單 頭 145
減 齡 145
網 格 145
方 包</w> 145
香 爐</w> 145
藍 寶石 145
阿 爾 145
線 器 145
正 宗 145
無 紡 145
老 鼠</w> 145
刻 字</w> 145
街 頭</w> 145
唱 歌 145
悟 空 145
e co 145
o sh 145
k ri 145
l bc</w> 145
re packed</w> 145
re priced</w> 145
lo g 145
ba re 145
ca ge</w> 145
ro d</w> 145
ti s</w> 145
me i</w> 145
全新 商品</w> 145
bu bb 145
夏季 韓版 145
玻璃 殼</w> 145
電腦 包 145
針織 背心</w> 145
tin ts</w> 145
太陽 帽 145
簡約現代 臥室 145
go t</w> 145
skin care</w> 145
隨身 包</w> 145
眼鏡 框 145
dro p 145
小小 兵 145
日版 金證</w> 145
人體 工 145
東大 門</w> 145
播放 器 145
im pact</w> 145
absor b 145
mun a 145
樣板 房 145
aca de 145
friend ly</w> 145
calen dar</w> 145
itali an</w> 145
手 串</w> 144
風 火 144
可 攜 144
服 務 144
壓 克力</w> 144
霧 面</w> 144
美 版</w> 144
潮 款 144
贈 品 144
天 堂 144
寶 馬 144
屁 屁 144
甜 點 144
素 材</w> 144
四 色</w> 144
草 帽 144
掛 衣架</w> 144
馬 尾 144
冰 種 144
親 筆 144
衝 浪 144
砧 板 144
炒 菜 144
饅 頭 144
儿 童 144
沛 納 144
橢 圓 144
e ce</w> 144
f li 144
b by</w> 144
k yo 144
i m</w> 144
n md</w> 144
re no</w> 144
si der</w> 144
rea der</w> 144
休閒 包</w> 144
au stra 144
手機 皮套</w> 144
防水 貼紙</w> 144
mb a</w> 144
por ts</w> 144
mu les</w> 144
ven t</w> 144
帆布 袋</w> 144
tri o</w> 144
hol low</w> 144
ry ing</w> 144
吊帶 背心 144
工具 箱 144
tur meric</w> 144
整理 箱</w> 144
手作 材料</w> 144
原裝 正品</w> 144
mini ma 144
mini figure</w> 144
fan cy</w> 144
新品上 架</w> 144
bin der</w> 144
信封 包</w> 144
yar n</w> 144
even ing</w> 144
ginger snaps</w> 144
triu mph</w> 144
三 色可選</w> 143
款 可選</w> 143
機 芯 143
水 光 143
水 族</w> 143
可 動 143
小 站</w> 143
一 代</w> 143
百 分 143
來 圖 143
線 控 143
松 木 143
磨 砂</w> 143
任 選 143
e spadri 143
d ear</w> 143
c run 143
ch lo 143
sa chets</w> 143
家用 簡約 143
car pet</w> 143
uni form</w> 143
sti ce</w> 143
sil ky</w> 143
gre en 143
長袖 衛衣</w> 143
儲物 箱 143
安全 帶 143
hear t 143
cand les</w> 143
健身 房 143
har ness</w> 143
access ory</w> 143
沐浴 露 143
春秋 新款 143
臺式 電腦 143
scoo ter</w> 143
proje ctor</w> 143
三輪 車 143
emp ty</w> 143
chron o 143
唐老 鴨</w> 143
shin y</w> 143
假面 騎士</w> 143
全店 免運</w> 143
dick ies</w> 143
hypo allergenic</w> 143
電 焊 142
圖 騰</w> 142
防 輻射 142
韓 風</w> 142
毛 筆 142
可 自取</w> 142
皮 衣 142
袖 套</w> 142
頭 枕 142
面 罩 142
單 售</w> 142
漁 具 142
商 場 142
紙 膠帶 142
櫥 櫃 142
碳 粉 142
婚 紗</w> 142
競 技 142
惡 搞 142
紀 錄 142
求 生 142
教 育 142
今 日 142
泫 雅 142
p less</w> 142
o va</w> 142
h l</w> 142
re e 142
an i</w> 142
co tt 142
sh e</w> 142
sp lash</w> 142
pi ston</w> 142
百搭 潮流 142
學生 韓版 142
be dro 142
北歐 鐵藝 142
fla kes</w> 142
tu b</w> 142
秋冬 裝 142
寵物 用品</w> 142
出清 特價</w> 142
台灣現貨 限時下殺 142
van ity</w> 142
瀝水 架 142
隔離 霜</w> 142
hun ter</w> 142
隨行 杯</w> 142
modu le</w> 142
insta x</w> 142
卡地 亞</w> 142
nouri shing</w> 142
wardro be</w> 142
muna fie</w> 142
年 級 141
會 計 141
套 餐 141
尾 牙 141
超 軟 141
黑 魂</w> 141
新 版 141
加 絨</w> 141
高 彈 141
按 鍵 141
潤 澤 141
都 市 141
健 康</w> 141
單 雙人 141
數 字</w> 141
日 貨 141
日 式</w> 141
期 限</w> 141
瑪 麗 141
課 本</w> 141
圍 欄</w> 141
儀 器 141
買 就 141
聲 寶</w> 141
普 卡</w> 141
土 耳 141
扶 手</w> 141
夜 間 141
涂 鴉 141
佈 置 141
福 特</w> 141
留 香 141
f lip 141
l p</w> 141
ar row</w> 141
it ed</w> 141
ba y</w> 141
ch oo 141
sp ray 141
運動 跑步 141
me mo</w> 141
orig in 141
ho bo</w> 141
經典 老花 141
ke ds</w> 141
gi a</w> 141
mu ff 141
工作 褲</w> 141
ther mos</w> 141
連衣裙 女</w> 141
trans for 141
鋼化 玻璃</w> 141
shar pen 141
dea d</w> 141
ep son</w> 141
gluta mansi</w> 141
飛利 浦 141
suc cu 141
bedro om</w> 141
手 掌 140
會 員 140
豬 八 140
自 製 140
毛 圈 140
重 型 140
小 豬</w> 140
小 凳子 140
全 家</w> 140
高 雄</w> 140
一 拖 140
頭 包</w> 140
保 時 140
補 水</w> 140
臉 盆 140
空 機</w> 140
攝 影</w> 140
晚 禮服 140
布 娃娃 140
早 秋 140
老 闆 140
球 球 140
純 白 140
維 生 140
搖 頭 140
普 普 140
潔 淨 140
慕 斯</w> 140
蝸 牛 140
l le 140
at ta 140
on ce</w> 140
ch ance</w> 140
to shiba</w> 140
sa ck</w> 140
運動 服 140
運動 上衣</w> 140
ja ck 140
ju stice</w> 140
tra in</w> 140
pe o 140
沙發 床</w> 140
ste ph 140
正品 代購 140
clo set</w> 140
pen gu 140
女生 衣著</w> 140
fol ded</w> 140
vo red</w> 140
il lumin 140
訓練 鞋</w> 140
十字 架 140
mini ature</w> 140
乾燥 花 140
闊腿 褲</w> 140
液晶 電視</w> 140
davi d</w> 140
top shop</w> 140
proje ct</w> 140
坐便 器 140
mea su 140
火影 忍者</w> 140
fortun er</w> 140
茶 樹 139
浮 潛 139
可 升降 139
超 火</w> 139
新 竹 139
圓 框 139
車 上 139
美 睫 139
內 裡 139
衛 褲</w> 139
莫 斯 139
老 爺 139
避 震</w> 139
鋼 管 139
真 的 139
鑲 嵌 139
街 舞 139
姐 妹 139
隨 意 139
暈 染 139
唐 裝 139
站 立 139
u a</w> 139
o per 139
m n 139
x x 139
la tex</w> 139
ba d</w> 139
al li 139
lu ck</w> 139
po u 139
di l 139
mi ca</w> 139
qu et</w> 139
日本 原裝進口</w> 139
ci a 139
夏季 透氣 139
sig nal</w> 139
fla vored</w> 139
hea ds</w> 139
tra ding</w> 139
電腦 椅</w> 139
stra pless</w> 139
精品 店</w> 139
寬鬆 短袖</w> 139
brea d</w> 139
新生 兒</w> 139
arti fi 139
boy friend</w> 139
不挑 色</w> 139
好市多 代購</w> 139
nin ja</w> 139
geo metric</w> 139
mush room</w> 139
pari sian</w> 139
防 塵</w> 138
小 蒼 138
車 牌 138
紫 羅 138
美 的 138
頭 髮 138
進 化 138
置 物</w> 138
價 格</w> 138
體 恤</w> 138
酒 紅 138
酒 櫃 138
居 家用 138
低 胸 138
火 山 138
翻 蓋</w> 138
布 朗 138
登 山</w> 138
燈 泡 138
活 頁 138
純 天然 138
倉 庫 138
集 中 138
湯 鍋</w> 138
傳 說 138
e i 138
t m</w> 138
t ang 138
i dea 138
g eni 138
v at 138
j ig 138
li er</w> 138
ma i 138
ma kita</w> 138
bo mb</w> 138
di ent</w> 138
運動 內衣</w> 138
簡約 客廳 138
男女 生</w> 138
日本 代購 138
ter o</w> 138
二手 出清</w> 138
bra ss</w> 138
性感 睡衣</w> 138
防滑 耐磨 138
hoo p</w> 138
適用 於</w> 138
fan tech</w> 138
my phone</w> 138
櫻花 粉</w> 138
食品 級 138
mang a</w> 138
衣帽 架</w> 138
fer n</w> 138
pun ch</w> 138
oi ls</w> 138
收縮 毛孔 138
pila ten</w> 138
hana bishi</w> 138
chrono graph</w> 138
免 安裝 137
全 車 137
學 習</w> 137
國 家 137
衣 物</w> 137
背 後 137
瘦 腿 137
健 腹 137
胸 墊 137
火 焰 137
彈 跳 137
純 金</w> 137
首 爾 137
雪 紡</w> 137
克 蘭 137
混 合 137
蝶 古巴 137
蔓 越 137
s al</w> 137
n ers</w> 137
v ity</w> 137
w ig 137
ca mi 137
ne eds</w> 137
car b</w> 137
fi sher</w> 137
cu tie</w> 137
am our</w> 137
do min 137
ja ckets</w> 137
be fore</w> 137
ani e</w> 137
bal i</w> 137
app li 137
鏈條 單肩包</w> 137
air con</w> 137
light stick</w> 137
禮盒 裝</w> 137
moun tain</w> 137
安德 瑪 137
小小 兵</w> 137
bio aqua</w> 137
sco pe</w> 137
子母 包</w> 137
pig ment</w> 137
加肥 加大碼 137
藤原 浩</w> 137
ggi es</w> 137
空軍一 號</w> 137
pony tail</w> 137
osh kosh</w> 137
手 寫 136
電 飯 136
花 瓶</w> 136
多 媒 136
拼 貼</w> 136
直 發 136
熊 貓</w> 136
小 風扇 136
大 牌</w> 136
光 澤 136
座 墊 136
寶 緹 136
棉 布</w> 136
提 拉 136
單 色 136
來 令 136
聚 寶 136
疊 疊 136
除 臭</w> 136
腳 墊</w> 136
帽 衫</w> 136
米 白 136
正 貨 136
輕 盈 136
儀 表 136
銀 樓</w> 136
冷 暖 136
舒 服 136
炸 鍋 136
處 理 136
抓 皺 136
探 索 136
塗 鴉</w> 136
d k 136
k on 136
m tb</w> 136
i su 136
i mm 136
v on</w> 136
in iti 136
re v 136
re vitali 136
an ten 136
ba o</w> 136
al i</w> 136
bo mb 136
el bow</w> 136
新款 兒童 136
me e</w> 136
現貨 居家裝飾廚房收納</w> 136
臥室 床邊 136
折疊 桌 136
折疊 床 136
sha wl</w> 136
clo se</w> 136
lan tern</w> 136
nu tri 136
雪紡 衫 136
石英 手錶</w> 136
書架 組合 136
手持 式 136
旗艦 店 136
鉛筆 盒</w> 136
攜帶 式 136
聊聊 我</w> 136
萬寶 龍</w> 136
演唱 會 136
拍立 得</w> 136
iph onex</w> 136
奇奇蒂 蒂</w> 136
maga zine</w> 136
screw driver</w> 136
minima list</w> 136
夏 威 135
自 制 135
人 的 135
點 心</w> 135
假 發 135
黑 眼 135
小 資 135
店 面 135
衛 褲 135
倒 流 135
寶 藍</w> 135
號 碼 135
提 供 135
單 桿 135
東 立</w> 135
持 久</w> 135
兔 兔</w> 135
台 北</w> 135
震 動</w> 135
銀 行 135
黃 金</w> 135
科 比 135
湯 姆 135
屏 幕 135
a k</w> 135
k ai 135
re cor 135
or i</w> 135
un ds</w> 135
un sealed</w> 135
ir on 135
ck ers</w> 135
fa ith</w> 135
sp in</w> 135
mo on 135
ct ing</w> 135
ear th</w> 135
bu g</w> 135
du ck</w> 135
正品 保證</w> 135
新品 特價 135
len e</w> 135
shi ft</w> 135
蕾絲 拼接 135
eye lashes</w> 135
pat ter 135
遮陽 傘 135
out let</w> 135
moi st</w> 135
香港 正生 135
super star</w> 135
荔枝 皮</w> 135
休閒運動 慢跑鞋</w> 135
大理石 紋 135
don ut</w> 135
sol o</w> 135
dea d 135
pal m</w> 135
scoo p</w> 135
ag es</w> 135
eth yl</w> 135
登機 箱</w> 135
john son</w> 135
pad lock</w> 135
frog suit</w> 135
raz or</w> 135
snoo py</w> 135
pengu in</w> 135
男 子</w> 134
浴 簾 134
自 帶 134
人 魚 134
兩 個 134
車 架</w> 134
美 人</w> 134
美 杜 134
考 試 134
租 房 134
羅 技</w> 134
耳 墜</w> 134
四 方 134
布 藝</w> 134
山 本 134
春 款 134
商 店 134
粉 餅 134
蓋 布 134
兔 毛 134
羽 球 134
適 配 134
胖 胖 134
貴 妃 134
勺 子 134
認 證 134
豹 紋</w> 134
匡 威 134
膳 魔 134
u ce</w> 134
a b</w> 134
ma p</w> 134
al ur 134
th read</w> 134
mo tion</w> 134
sk ull</w> 134
ci vic</w> 134
ga bb 134
je g 134
新品 現貨</w> 134
嬰兒 寶寶 134
coo k 134
吊帶 裙 134
絕版 品</w> 134
螺絲 刀 134
人字 拖</w> 134
緬甸 玉 134
givea way</w> 134
bru shes</w> 134
側掀 皮套</w> 134
簡體 書</w> 134
dino saur</w> 134
杜蘭 特</w> 134
artifi cial</w> 134
isu zu</w> 134
青 蛙 133
三 腳架 133
雙 眼 133
子 彈 133
假 花 133
可 用 133
超 值</w> 133
打 蛋 133
小 個子 133
中 學生 133
書 籍 133
桌 布</w> 133
噴 漆 133
床 笠 133
支 援</w> 133
旅 遊</w> 133
名 牌</w> 133
深 海 133
布 魯 133
啟 動 133
曬 衣 133
調 光 133
馬 上 133
老 師</w> 133
歲 寶寶 133
鈕 扣 133
婚 禮</w> 133
閃 卡</w> 133
閃 耀 133
異 世界 133
如 意 133
姑 娘</w> 133
p tor</w> 133
e st</w> 133
e qui 133
t x</w> 133
o int 133
b f</w> 133
ar s</w> 133
ro uter</w> 133
mi zer</w> 133
sp read</w> 133
ta gs</w> 133
現貨 熱銷</w> 133
fi x 133
兒童 小 133
pi x 133
男士 真皮 133
休閑 椅 133
gra dient</w> 133
新品 優惠</w> 133
cre di 133
特價 下殺</w> 133
hi malay 133
water color</w> 133
canva ss</w> 133
荔枝 紋</w> 133
英國 代購</w> 133
七分 褲</w> 133
ze bra</w> 133
巴黎世 家 133
加濕 器 133
仙人 掌 133
蕾蕾小鋪 正</w> 133
anni vers 133
himalay an</w> 133
心 率 132
自 助 132
滑 滑 132
外 搭 132
可 樂</w> 132
小 風扇</w> 132
中 藥 132
邊 櫃 132
加 贈 132
長 髮 132
摩 登 132
轉 賣 132
音 器</w> 132
袋 子</w> 132
十 一 132
收 纳 132
馬 甲</w> 132
柜 組合 132
罩 杯 132
騎 車 132
土 豆 132
柯 南</w> 132
捕 蚊 132
勿 下標</w> 132
副 廠 132
a pr 132
d ance</w> 132
y un 132
re ci 132
ba d 132
ch u</w> 132
si n</w> 132
休閒 百搭</w> 132
學生 鞋</w> 132
bra d 132
ex press</w> 132
辦公 椅</w> 132
男生 衣著</w> 132
her sh 132
英倫 學院風 132
fle ece</w> 132
ari el</w> 132
包裝 袋</w> 132
可拆 洗</w> 132
dia c</w> 132
毛巾 架 132
kid ston</w> 132
cei ling</w> 132
soft gels</w> 132
tech no 132
黏土 人</w> 132
deta chable</w> 132
小獅 王 132
plat form</w> 132
手 排</w> 131
三 合一</w> 131
好 運 131
貨 車 131
原 版</w> 131
熊 本 131
百 年 131
百 摺 131
童 鞋 131
開 瓶 131
鍍 膜 131
白 藍 131
柔 光 131
樂 活 131
藤 椅 131
筆 袋 131
西 裝</w> 131
掛 牆 131
無 法 131
球 員 131
拋 棄 131
舒 這 131
梳 子</w> 131
廣 場 131
筷 子</w> 131
核 桃 131
琥 珀 131
e per</w> 131
a st 131
k ki</w> 131
n b</w> 131
in tex</w> 131
re new</w> 131
ba dge</w> 131
ma ge</w> 131
to m 131
ti ble</w> 131
lu ck 131
收納 置物架 131
au x</w> 131
char lotte</w> 131
化妝 臺</w> 131
沙發 邊幾 131
個性 百搭 131
ban presto</w> 131
居家 生活 131
進口 牛皮 131
hy alur 131
純銀 耳環</w> 131
整理 盒</w> 131
水洗 棉 131
thro w</w> 131
航海 王 131
treat s</w> 131
strea m</w> 131
遮肚 顯瘦 131
武士 鞋</w> 131
不粘 鍋 131
kra ft</w> 131
哈 利 130
夏 涼 130
短 襪 130
三 腳架</w> 130
廚 具 130
自 用 130
滑 雪 130
外 殼 130
色 彩 130
水 瓶 130
免 稅 130
超 可愛</w> 130
財 務 130
全 氣墊</w> 130
學 校 130
星 空</w> 130
烏 龍 130
一 體</w> 130
按 壓 130
貝 雷 130
包 巾</w> 130
物 理 130
鬆 餅 130
空 白 130
胸 罩 130
酒 神 130
修 剪 130
護 具</w> 130
稀 有</w> 130
涼 拖</w> 130
刷 子 130
封 閉 130
碗 柜 130
指 環</w> 130
從 零 130
去 黑頭 130
e on</w> 130
j j 130
in side</w> 130
an dre 130
le vi</w> 130
en o</w> 130
su spen 130
sp lit</w> 130
mo to</w> 130
簡約 家用 130
兒童 成人 130
bra zi 130
汽車 精品</w> 130
swi ss</w> 130
high quality</w> 130
fore st</w> 130
官方 正品</w> 130
升級 版 130
zo diac</w> 130
播放 器</w> 130
lett uce</w> 130
stea mer</w> 130
exfoli ating</w> 130
來令 片</w> 130
oint ment</w> 130
戰 馬 129
男 表</w> 129
電 繡</w> 129
水 桶</w> 129
膠 水</w> 129
可 配 129
可 拆</w> 129
可 參考</w> 129
全 場</w> 129
大 方</w> 129
亞 馬 129
高 潮</w> 129
高 貴 129
美 好 129
抽 取 129
音 頻 129
金 箔 129
袋 裝 129
鏈 帶 129
有 效 129
安 全</w> 129
幫 寶 129
及 膝 129
西 餐 129
顏 料 129
商 業 129
無 耳 129
蒂 芬 129
普 通 129
智 能</w> 129
抗 菌</w> 129
雷 朋</w> 129
芒 果 129
擦 拭 129
技 術</w> 129
幽 靈 129
p l</w> 129
a sp 129
a ur 129
a ce 129
in du 129
in nova</w> 129
ra ce</w> 129
ra ff 129
bo ston</w> 129
de ss 129
運動 風 129
sk et</w> 129
min ions</w> 129
ce y</w> 129
韓國 進口</w> 129
blo oming</w> 129
of er</w> 129
套裝 組</w> 129
ex ternal</w> 129
女士 香水</w> 129
印花 短</w> 129
swi ft</w> 129
氣質 百搭 129
medi c 129
cou ture</w> 129
限定 下單</w> 129
spe cs</w> 129
香港 代購 129
平板 電腦 129
材料 包 129
flow y</w> 129
高腳 凳 129
radi ator</w> 129
pullo ut</w> 129
演出 服 129
lett ers</w> 129
韓妞 必備</w> 129
conver tible</w> 129
前短後 長 129
secon d</w> 129
俱樂 部</w> 129
馬自 達</w> 129
inse ct</w> 129
滑 輪 128
風 味 128
果 凍</w> 128
眼 睛</w> 128
超 高 128
超 大容量 128
訂 做</w> 128
小 樣</w> 128
大 量 128
邊 框</w> 128
書 籤</w> 128
亞 洲 128
國 旗 128
圓 桌 128
高 光 128
英 寸 128
極 限 128
童 車</w> 128
開 襟 128
帶 輪 128
提 升 128
單 鞋女 128
版 型</w> 128
秋 款 128
鋼 彈 128
買 菜 128
最 佳 128
斗 篷 128
司 機 128
孫 悟空</w> 128
橫 條 128
柴 犬</w> 128
劃 痕 128
p les</w> 128
t ul 128
m ble</w> 128
i x</w> 128
h ul 128
re l</w> 128
re fri 128
sa lon</w> 128
sa int</w> 128
ru s</w> 128
am u 128
pi d</w> 128
ja m</w> 128
mar ket</w> 128
mat ch</w> 128
客廳 茶幾 128
ang ler</w> 128
hu sh</w> 128
sse y</w> 128
置物架 落地 128
tur tle 128
一字 帶 128
multi media</w> 128
ite ch</w> 128
記憶 體</w> 128
手抓 包 128
form ers</w> 128
cast or</w> 128
breast feeding</w> 128
丁字 褲</w> 128
chun ky</w> 128
哥吉 拉</w> 128
annivers ary</w> 128
神 秘 127
臺 面 127
萬 圣 127
花 開 127
好 好 127
大 全</w> 127
大 台北 127
坐 姿 127
實 品 127
長 板 127
不 凋 127
吊 帶</w> 127
件 免運</w> 127
開 衫</w> 127
過 家家 127
塑 鋼 127
干 濕 127
整 裝 127
指 示 127
奶 奶 127
死 皮 127
擦 手 127
填 充 127
酷 奇 127
刮 痧 127
測 量 127
監 視 127
犀 牛 127
柚 子 127
s n</w> 127
e v 127
r u</w> 127
a sh</w> 127
f ted</w> 127
y es</w> 127
po tat 127
rea ding</w> 127
wo ofer</w> 127
car t</w> 127
min ers</w> 127
ho me 127
ju mp</w> 127
客廳 燈 127
blo wer</w> 127
mon tero</w> 127
chi ef</w> 127
玩具 店</w> 127
簡易 書架 127
hi p 127
條紋 上衣</w> 127
cur l</w> 127
war mer</w> 127
太空 鋁 127
漁夫 鞋</w> 127
is land</w> 127
連線 代購</w> 127
無印 良品</w> 127
紀梵 希 127
西班 牙 127
伴手 禮</w> 127
zir con</w> 127
超取請 聊聊我</w> 127
fon dant</w> 127
initi al</w> 127
龍 婆 126
年 新款</w> 126
電 容 126
多 拉</w> 126
豬 小 126
層 架 126
小 卡 126
全 白 126
大 氣墊</w> 126
椅 墊 126
簡 潔 126
高 手</w> 126
流 水 126
時 間</w> 126
文 胸</w> 126
褲 帶</w> 126
鑽 石</w> 126
鐵 盒</w> 126
真 人 126
半 高領 126
冰 塊 126
聖 誕</w> 126
滿 意 126
衝 鋒 126
挑 戰 126
等 身 126
梨 花 126
o lay</w> 126
c j</w> 126
la p 126
al do</w> 126
po ts</w> 126
de ss</w> 126
時尚 潮 126
簡約 創意 126
car tier</w> 126
pla tes</w> 126
per ry</w> 126
per man 126
ter y</w> 126
gra pe 126
短袖 衣服</w> 126
沙發 椅</w> 126
ex pand 126
充電 線 126
ten nis</w> 126
太陽 帽</w> 126
寬松 百搭 126
台灣製 造 126
trans formers</w> 126
梳妝 台 126
無袖 背心</w> 126
緊身 褲</w> 126
附購買 憑證</w> 126
sai lor</w> 126
華萊 士 126
杏 色</w> 125
電 話</w> 125
卡 夢</w> 125
通 話 125
花 器</w> 125
多 款</w> 125
圖 書</w> 125
防 過敏 125
直 排 125
女 寶 125
浮 雕</w> 125
毛 毯 125
兩 面 125
管 道 125
小 柜子 125
小 美人魚</w> 125
賣 家 125
購 回</w> 125
不 退 125
起 子</w> 125
音 波 125
彩 膜 125
離 合 125
名 品 125
名 偵探 125
喜 糖 125
有 貨</w> 125
火 烈 125
領 結 125
表 情 125
便 捷 125
罐 頭</w> 125
成 功 125
珍 品下殺</w> 125
元 氣 125
托 架 125
枸 杞 125
認 明</w> 125
再 生 125
父 親 125
誠 信 125
a cou 125
o t 125
co t</w> 125
co phone</w> 125
se al 125
ro ck 125
to l 125
pa mpers</w> 125
lu lu 125
休閒 板鞋</w> 125
br y 125
wa sher</w> 125
fe el</w> 125
ho lic</w> 125
經典 格紋 125
be tter</w> 125
現代簡約 小戶型 125
儲物 櫃</w> 125
beau te 125
長款 錢包</w> 125
冬季 新款 125
必備 款</w> 125
摩托 車</w> 125
托特 包 125
荔枝紋 牛皮 125
潔面 乳</w> 125
poli ce</w> 125
萬寶 龍 125
recei ver</w> 125
多美 小汽車</w> 125
北海 道 125
碳粉 匣</w> 125
peo ple</w> 125
refri ger 125
perman ent</w> 125
戰 靴 124
手 沖 124
多 彩 124
三 條 124
防 蟲 124
水 溶 124
毛 孔</w> 124
全 方 124
大 紅 124
服 務</w> 124
一 生</w> 124
抽 紙盒 124
保 羅</w> 124
軟 套</w> 124
臉 書 124
相 容</w> 124
知 名 124
線 條</w> 124
矮 凳 124
貓 砂 124
檔 案 124
森 女 124
入 式 124
淺 藍 124
觸 屏 124
髮 圈 124
唇 蜜</w> 124
凱 莉 124
皇 冠</w> 124
省 力 124
福 斯</w> 124
嚕 嚕 124
s ma</w> 124
a va</w> 124
m eat</w> 124
y er</w> 124
w i</w> 124
w yi</w> 124
ba of 124
th u 124
th at</w> 124
ki m</w> 124
休閒 外套</w> 124
wh at</w> 124
car ry</w> 124
ss d</w> 124
mat i 124
防水 布 124
可愛 動物 124
sc ul 124
che f</w> 124
pe st</w> 124
牛皮 紙 124
純棉 短袖 124
玩具 車</w> 124
sto p</w> 124
太陽 傘 124
squ ish 124
win nie</w> 124
max x</w> 124
棒球 服 124
cat h</w> 124
斜跨 包 124
冬季 保暖 124
包裝 盒</w> 124
fru its</w> 124
wr angler</w> 124
fer r 124
燒烤 爐 124
tit an</w> 124
春裝 新款 124
bl k</w> 124
tak al</w> 124
試用 包</w> 124
便條 紙</w> 124
刀劍神 域</w> 124
polo shirt</w> 124
庫洛 魔法 124
spray er</w> 124
cia ga</w> 124
turtle neck</w> 124
baof eng</w> 124
男 短</w> 123
心 型 123
精 工 123
精 緻</w> 123
生 存 123
磁 扣</w> 123
眼 膜</w> 123
重 工 123
大 力 123
邊 幾</w> 123
美 味 123
內 裡</w> 123
寬 肩帶 123
影 樓 123
秋 裝</w> 123
鏡 片 123
斜 肩 123
奧 利 123
淺 藍</w> 123
複 合 123
閃 粉 123
賽 車</w> 123
霸 王 123
探 險 123
跨 境 123
副 食品 123
終 極 123
e ster</w> 123
r it 123
t pad</w> 123
l u</w> 123
y ee 123
g li 123
in kle</w> 123
lo real</w> 123
lo tus</w> 123
ri der</w> 123
wh eat</w> 123
bi scu 123
sk et 123
男女 情侶鞋</w> 123
pi ano</w> 123
sun ny</w> 123
stra ppy</w> 123
tre ss</w> 123
男生 短</w> 123
筆記本 電腦桌 123
手機殼 蘋果</w> 123
smo cked</w> 123
客訂 商品</w> 123
eng ine 123
黃色 小 123
best way</w> 123
flu id</w> 123
自由 組合 123
tech ni 123
jui cer</w> 123
fresh ener</w> 123
素顏 霜</w> 123
餐巾 紙</w> 123
enhan cer</w> 123
beat le</w> 123
台風行 家具</w> 123
gour met</w> 123
無紡 布 123
anten na</w> 123
aur ora</w> 123
神 仙 122
手 拿</w> 122
茶 包</w> 122
萬 斯</w> 122
花 紋</w> 122
多 件 122
三 洋</w> 122
雙 拉鏈 122
熱 敷 122
水 藍</w> 122
對 講 122
大 風 122
大 錶盤 122
書 房</w> 122
家 電 122
足 浴 122
不 脫 122
座 墊</w> 122
部 落 122
濕 紙巾</w> 122
空 專</w> 122
產 品</w> 122
腰 部 122
掛 袋 122
鞋 架子 122
守 護 122
碳 纖 122
台 南</w> 122
斜 跨</w> 122
整 理</w> 122
克 麗 122
胡 椒 122
傳 奇 122
強 效 122
徒 步 122
趴 趴 122
t ing 122
a vi 122
d un 122
f a</w> 122
m ur 122
m oul 122
m cm</w> 122
n ct</w> 122
in as</w> 122
co in 122
st s</w> 122
st he 122
pa la 122
lu bri 122
ne ed 122
pre order</w> 122
pan a 122
手提 袋 122
手提 肩背 122
二手 非 122
pow dered</w> 122
ha wk</w> 122
stu dded</w> 122
透氣 舒適 122
廚房 生活 122
ka wa 122
ten g</w> 122
ven us</w> 122
簡約現代 經濟型 122
熱賣 款 122
工作 服</w> 122
海外 代購 122
cen ta</w> 122
smo ke</w> 122
comple x</w> 122
無線藍牙 耳機</w> 122
tar te</w> 122
sci ence</w> 122
資生 堂 122
tee ther</w> 122
薰衣 草</w> 122
攝像 頭 122
dani el</w> 122
samp ler</w> 122
dyna mic</w> 122
植村 秀</w> 122
角落小 夥伴</w> 122
emo ji</w> 122
indu stri 122
好 穿</w> 121
重 力 121
大 燈</w> 121
光 感 121
高 密 121
發 泡 121
包 邊 121
後 照 121
佛 像 121
網 球 121
布 鞋</w> 121
掛 袋</w> 121
春 秋</w> 121
拆 賣</w> 121
荷 蘭 121
造 景 121
插 頭 121
斐 樂</w> 121
溜 冰鞋 121
飛 人 121
湯 鍋 121
鍛 煉 121
班 服 121
削 肩 121
蜜 蜂</w> 121
黏 貼 121
蘿 莉 121
勁 戰 121
煤 油 121
u ti 121
e ve</w> 121
c co</w> 121
le mon 121
lo ss</w> 121
ma inten 121
si de 121
sp y 121
運動 襪</w> 121
運動 短褲 121
sk ort</w> 121
男女 皆 121
男女 情侶款</w> 121
ear ing</w> 121
plu shie</w> 121
ni ll 121
ni kon</w> 121
ci ous</w> 121
ke ima 121
ssi e</w> 121
stri ps</w> 121
mu d</w> 121
ff el</w> 121
保暖 外套</w> 121
實拍 現貨</w> 121
cat ed</w> 121
一體 式 121
reju vin 121
奶茶 色</w> 121
大型 犬 121
小時 快速出貨</w> 121
平衡 車 121
nor th</w> 121
bou quet</w> 121
寶格 麗 121
博柏 利 121
後視 鏡 121
embo ssed</w> 121
gil dan</w> 121
四葉 草 121
撲克 牌</w> 121
doll shoes</w> 121
俄羅 斯 121
ryx skincerity</w> 121
gabb ana</w> 121
hyalur onic</w> 121
從零 開始 121
ferr ari</w> 121
作 品</w> 120
直 髮 120
雙 效 120
水 鞋 120
膠 條</w> 120
小 椰子</w> 120
五 色 120
桌 墊</w> 120
上 市 120
禮 包</w> 120
絨 毛</w> 120
車 充</w> 120
快 遞 120
吊 籃 120
天 下</w> 120
油 畫</w> 120
植 萃 120
速 出 120
幻 彩 120
仿 實木 120
無 痕</w> 120
刻 度 120
滋 潤</w> 120
球 衣 120
月 亮</w> 120
胡 迪</w> 120
夜 店</w> 120
結 單</w> 120
賽 亞 120
私 處 120
隨 便 120
濃 密 120
迴 力 120
k el 120
g n 120
g el 120
j m</w> 120
w d</w> 120
w anna</w> 120
re x</w> 120
ma z 120
ma ma</w> 120
mi t</w> 120
de te 120
qu in 120
cu t 120
ver tical</w> 120
男士 休閒 120
手提 式 120
no ir</w> 120
客廳 餐廳 120
套裝 女</w> 120
ste ering</w> 120
chi e</w> 120
秋冬 款</w> 120
bro ther</w> 120
咖啡 豆</w> 120
上衣 服 120
少女 心</w> 120
打底 褲</w> 120
電子 錶</w> 120
辦公室 桌面 120
sen sual</w> 120
mari e</w> 120
一體 成 120
荔枝 皮 120
英文 字母 120
游泳 衣</w> 120
翻領 短袖</w> 120
aro ma</w> 120
葡萄 酒 120
valen tine</w> 120
davi s</w> 120
慵懶 風 120
演唱 會</w> 120
spark ling</w> 120
absorb ent</w> 120
nill kin</w> 120
手 帳</w> 119
年 終 119
接 頭 119
直 條紋 119
倍 思</w> 119
小 衫 119
全 皮</w> 119
皮 質</w> 119
星 辰 119
上 盆 119
貝 親 119
餐 盒 119
油 性 119
擺 飾 119
護 理</w> 119
草 帽</w> 119
春 季</w> 119
食 用 119
傘 狀 119
紗 裙 119
飯 盒</w> 119
插 花 119
插 畫 119
熨 斗 119
髮 膜</w> 119
幼 童 119
嘻 哈</w> 119
硫 化 119
e b</w> 119
d w</w> 119
b ond</w> 119
k d</w> 119
m po 119
h b</w> 119
g ed</w> 119
v alu 119
新款 上市</w> 119
du al 119
折疊 桌</w> 119
純棉 圓領 119
電動 牙刷</w> 119
上衣 服</w> 119
hi dden</w> 119
spi ce</w> 119
mou sse</w> 119
家居 の 119
家居 館</w> 119
筆記 型 119
il lu 119
行動 電源 119
背景 牆 119
auto light</w> 119
wr inkle</w> 119
深層 清潔 119
口罩 套</w> 119
潘朵 拉 119
樂福 鞋 119
trous er</w> 119
devi ce</w> 119
實物 拍攝</w> 119
蛤蟆 鏡</w> 119
紐巴 倫</w> 119
squish y</w> 119
rejuvin ating</w> 119
男 短袖</w> 118
少 量 118
防 藍光 118
精 英 118
盤 子</w> 118
可 口 118
可 發 118
黑 板 118
小 款</w> 118
北 京 118
中 秋 118
厚 款 118
圓 型 118
沙 龍 118
頭 巾</w> 118
金 毛 118
數 學 118
名 品</w> 118
速 乾</w> 118
藍 寶 118
草 坪 118
主 食 118
鞋 帶</w> 118
博 士</w> 118
馬 桶</w> 118
零 售</w> 118
蒂 芙 118
歲 月</w> 118
和 紙膠帶</w> 118
浪 漫</w> 118
冰 冰 118
爽 膚 118
艾 斯</w> 118
烤 漆</w> 118
娜 娜 118
刺 激</w> 118
言 情 118
橫 款 118
擋 板 118
遠 程 118
須 刀 118
冒 險</w> 118
彼 得 118
u ri 118
a ve 118
a aa</w> 118
l ly</w> 118
re gu 118
re tail</w> 118
re scu 118
ar bu 118
er ina</w> 118
on yx</w> 118
ch ange</w> 118
su ction</w> 118
de rella</w> 118
me d 118
car amel</w> 118
wat tpad</w> 118
休閑 板鞋</w> 118
化妝 刷 118
stra y</w> 118
玩具 車 118
電動 摩托車 118
精品 包</w> 118
小型 家用 118
防曬 衣</w> 118
her b</w> 118
限時 搶購</w> 118
xi e</w> 118
hy per 118
hon g 118
一字 領</w> 118
雜貨 舖</w> 118
空調 被 118
ren ce</w> 118
飛行 員 118
秋裝 新款 118
余文 樂 118
含稅 附發票</w> 118
維生 素</w> 118
年 輕 117
電 玩 117
套 筒</w> 117
紅 綠 117
果 蔬 117
小 羊皮</w> 117
絲 滑 117
拉 手 117
摩 洛 117
行 政 117
酒 紅色</w> 117
合 成 117
褲 帶 117
腕 表 117
山 葉</w> 117
扭 扭 117
無 煙 117
別 針 117
頂 上 117
聲 控 117
炸 鍋</w> 117
初 音 117
私 訊 117
毯 子</w> 117
枚 入</w> 117
聰 明 117
e di 117
i ii</w> 117
y sl</w> 117
n u</w> 117
j r</w> 117
w w 117
la kers</w> 117
ch er 117
ra men</w> 117
ra cer</w> 117
to kyo</w> 117
ne stle</w> 117
fa ced</w> 117
mo d</w> 117
ko ol</w> 117
fi lip 117
手機 套 117
br o</w> 117
創意 簡約 117
ja zz</w> 117
客廳 裝飾 117
客廳 玄關 117
ad d</w> 117
je sus</w> 117
沙發 凳 117
戶外 防水 117
圓領 上衣</w> 117
sto ck 117
防曬 乳</w> 117
brace lets</w> 117
spe ci 117
tur n</w> 117
一字 拖 117
comp art 117
電視 櫃</w> 117
ab s</w> 117
cra zy</w> 117
the med</w> 117
mari a</w> 117
choco la 117
初學 者</w> 117
媽咪 包</w> 117
吧臺 椅 117
紙巾 盒</w> 117
同人 誌</w> 117
gif ts</w> 117
菲利 普 117
雪莉 玫</w> 117
jon i</w> 117
sens itive</w> 117
jeg gings</w> 117
acou stic</w> 117
茶 桌</w> 116
多 多 116
明 日 116
直 營</w> 116
機 械</w> 116
女 男 116
式 耳機</w> 116
全 民 116
大 戰 116
大 款</w> 116
長 頸 116
攜 帶</w> 116
家 族 116
烏 龜 116
衣 板 116
微 電腦 116
刀 片</w> 116
母 嬰 116
羊 毛</w> 116
素 描 116
平 安</w> 116
練 字 116
遮 瑕</w> 116
跑 車 116
復 活 116
護 髮</w> 116
門 市 116
夫 妻 116
刷 街 116
貓 爬 116
密 碼</w> 116
必 買 116
挎 包 116
造 景</w> 116
睡 裙</w> 116
扇 子</w> 116
蘇 菲 116
鱷 魚</w> 116
如 圖</w> 116
杜 嘉 116
p ir 116
e led</w> 116
a y 116
j el 116
an y 116
bo mber</w> 116
mo ti 116
mo st</w> 116
so dium</w> 116
ru st</w> 116
日本 迪士尼</w> 116
pla centa</w> 116
防水 臺 116
多功能 防水 116
pu pp 116
充電 式</w> 116
女士 手提包</w> 116
sty ling</w> 116
va p 116
組合 包</w> 116
cho p 116
外套 女</w> 116
bar ako</w> 116
石英 腕錶</w> 116
sur f</w> 116
內衣 女 116
原裝 進口 116
cal ci 116
慢跑 褲</w> 116
gro w</w> 116
情人節 禮物 116
art work</w> 116
fen g</w> 116
三星 標</w> 116
joy stick</w> 116
控制 器</w> 116
loaf ers</w> 116
fuji film</w> 116
milk tea</w> 116
ante ed</w> 116
transfor mer</w> 116
sharpen er</w> 116
莫斯 奇 116
equi pment</w> 116
rescu e</w> 116
電 動</w> 115
圖 解 115
尾 燈</w> 115
機 能</w> 115
可 換 115
可 改 115
黑 糖 115
小 金 115
小 宅 115
小 禮服 115
全 罩 115
新 配色</w> 115
大 臉 115
大 耳 115
高 亮 115
家 飾</w> 115
氣 壓 115
太 極 115
開 心 115
金 盞 115
種 植 115
單 眼 115
單 面 115
名 器</w> 115
佛 珠 115
聚 會 115
火 星 115
久 保 115
護 膝 115
墨 水</w> 115
四 軸 115
掛 勾 115
玩 家</w> 115
未 開 115
艾 莉 115
貴 婦 115
員 工 115
采 用 115
建 築 115
握 把</w> 115
絞 肉 115
u pper</w> 115
e ty</w> 115
a ph 115
b p</w> 115
i o</w> 115
la k 115
or ts</w> 115
en e 115
en ts</w> 115
ma la 115
de x</w> 115
韓版 寬鬆 115
兒童 床 115
ter ran 115
休閑 褲</w> 115
單肩 手提 115
fu ture</w> 115
cha mo 115
hu ggies</w> 115
bel tbag</w> 115
hol li 115
蕾絲 花邊 115
小型 迷你 115
衛生 棉</w> 115
man o</w> 115
san it 115
整理 盒 115
青年 學生 115
平板 電腦</w> 115
羽絨 服 115
mol der</w> 115
decor ative</w> 115
玩具總動 員 115
鎖骨 鏈</w> 115
老虎 頭 115
史密 斯 115
ox y 115
twin kle</w> 115
die sel</w> 115
美少女 戰士</w> 115
驚喜 價</w> 115
博柏 利</w> 115
法拉 利</w> 115
哈利 波 115
beaute derm</w> 115
arbu tin</w> 115
杜嘉 班 115
雨 刷 114
短 上衣</w> 114
花 藝 114
變 身 114
變 焦 114
三 國 114
室 內</w> 114
防 腐 114
風 車</w> 114
精 萃 114
水 管</w> 114
小 貓 114
小 車</w> 114
新 勁戰</w> 114
大 人</w> 114
周 年</w> 114
加 大尺碼 114
高 山 114
不 二 114
二 件式 114
專 輯 114
殺 手包</w> 114
母 子 114
塑 膠</w> 114
王 子</w> 114
鐘 錶 114
落 地</w> 114
萊 卡 114
和 服</w> 114
導 航</w> 114
靴 女 114
淺 灰</w> 114
章 魚 114
紐 西 114
繃 帶 114
t wee 114
d d</w> 114
d ge 114
d angle</w> 114
l tb</w> 114
la de 114
le le</w> 114
ma king</w> 114
po le</w> 114
ur ine</w> 114
日本 品牌</w> 114
sta mps</w> 114
pe di 114
na v 114
gre et 114
新品 促銷</w> 114
chi bi</w> 114
浴室 衛生間 114
公主 裙 114
工作 鞋</w> 114
bar s</w> 114
清潔 劑 114
man u 114
翻蓋 包</w> 114
拉桿 箱</w> 114
鋼化玻璃 膜</w> 114
分裝 瓶</w> 114
零錢 袋</w> 114
poly ester</w> 114
wee k 114
布丁 狗</w> 114
除濕 機</w> 114
藤原 浩 114
guar anteed</w> 114
佩佩 豬 114
西班 牙</w> 114
冷淡 風 114
ign ition</w> 114
shop kins</w> 114
戴妃 包</w> 114
bry ant</w> 114
pana sonic</w> 114
mainten ance</w> 114
多 口袋 113
自 有 113
直 升 113
水 果</w> 113
超 聲波 113
五 斗 113
圓 筒 113
家 的 113
擴 充 113
一 鍵 113
按 壓式 113
頭 燈</w> 113
極 光 113
面 紙 113
白 粉</w> 113
胸 罩</w> 113
的 家</w> 113
方 塊</w> 113
海 豚 113
深 灰</w> 113
四 腳 113
華 碩 113
鐵 盒 113
箱 子</w> 113
勇 者 113
最 高 113
斑 馬</w> 113
世 家</w> 113
陀 螺 113
薯 條 113
寵 愛 113
坑 條 113
藻 土 113
瑞 士</w> 113
段 式 113
楊 冪 113
m u</w> 113
i or</w> 113
ba len 113
se tting</w> 113
ro mpers</w> 113
al th</w> 113
tt a</w> 113
de fin 113
me m 113
收納 籃 113
am ore</w> 113
blu sher</w> 113
be er</w> 113
sc ato</w> 113
寶寶 兒童 113
he m</w> 113
女士 包包</w> 113
bri dal</w> 113
fro g</w> 113
落地 燈 113
go ku</w> 113
設計 師</w> 113
衣服 架子 113
stre ss</w> 113
skin food</w> 113
wel ding</w> 113
蘋果 安卓 113
過濾 器</w> 113
多肉 植物 113
天鵝 絨 113
cover s</w> 113
bay max</w> 113
貓頭 鷹</w> 113
jui cy</w> 113
蠟筆小 新 113
thri fted</w> 113
五角 星 113
歐舒 丹</w> 113
warri ors</w> 113
可攜 式 113
沛納 海</w> 113
萬圣 節 113
potat o</w> 113
industri al</w> 113
holli ster</w> 113
茶 葉</w> 112
男 褲</w> 112
裝 修 112
韓 站</w> 112
機 器</w> 112
熱 褲 112
牛 肉 112
女 潮</w> 112
女 夏季 112
子 彈</w> 112
熊 抱 112
黑 粉</w> 112
立 式</w> 112
實 惠 112
特 典 112
代 發</w> 112
一 雙</w> 112
美 白</w> 112
頭 套 112
內 襯</w> 112
木 雕 112
民 謠 112
貝 親</w> 112
分 售</w> 112
面 紙盒</w> 112
貼 片 112
筆 筒</w> 112
海 馬 112
洗 腳 112
東 立 112
彈 簧</w> 112
吸 盤</w> 112
蘭 芝</w> 112
淺 色 112
傳 奇</w> 112
窄 管 112
貔 貅</w> 112
講 義</w> 112
葡 萄</w> 112
採 用 112
誠 品</w> 112
龐 克 112
p ter</w> 112
t l</w> 112
a mi 112
c tic</w> 112
h ori 112
to a 112
lu re</w> 112
sa ving</w> 112
mo ck</w> 112
mo de</w> 112
ki sses</w> 112
休閒 上衣</w> 112
gh o 112
ss ing</w> 112
百搭 款 112
ing a</w> 112
sti x</w> 112
韓國 可愛 112
sc end</w> 112
desig ned</w> 112
沙發 背景墻 112
bb w</w> 112
mon th</w> 112
sma sh</w> 112
帆布 鞋女 112
電動 車</w> 112
儲物 架</w> 112
dr one</w> 112
bur st</w> 112
機車 包</w> 112
英文 版</w> 112
ku ma</w> 112
jan e</w> 112
gol d 112
新品上 市 112
螢光 綠</w> 112
週年 紀念 112
indi an</w> 112
刀劍 亂 112
現貨秒 出</w> 112
下午 茶 112
巴斯 光 112
mmi es</w> 112
celebr ity</w> 112
人體工 學 112
bomb shell</w> 112
iron man</w> 112
dess ert</w> 112
refriger ator</w> 112
卡 比 111
會 客 111
多 格 111
豬 豬 111
愛 買</w> 111
好 禮</w> 111
熱 帶 111
歐 洲</w> 111
兩 色可選</w> 111
薄 紗 111
打 亮 111
黑 貓 111
小 包包女</w> 111
潮 男</w> 111
不 會 111
屁 股 111
開 檔 111
金 邊 111
背 膠 111
軟 管 111
部 落</w> 111
貼 畫</w> 111
柔 膚 111
數 顯 111
板 橋 111
的 秘密</w> 111
灰 黑</w> 111
火 鍋</w> 111
耳 麥</w> 111
四 層 111
翻 糖 111
掛 式</w> 111
仿 真</w> 111
鼠 年 111
隔 層 111
扣 腰帶 111
紙 尿 111
首 刷 111
增 壓 111
睡 袋 111
益 智</w> 111
向 日 111
艾 灸 111
票 夾</w> 111
襪 套 111
巨 人</w> 111
盥 洗 111
牧 田</w> 111
p lease</w> 111
d f 111
f lan 111
f inger 111
o s 111
o wn</w> 111
i con</w> 111
x y 111
re lease</w> 111
lo p</w> 111
lo st</w> 111
ro m 111
to s</w> 111
to k</w> 111
ti gh 111
ri t</w> 111
bo ws</w> 111
pr i</w> 111
ru by</w> 111
ru shguard</w> 111
vi al</w> 111
台灣 熱 111
潮流 鞋</w> 111
hu da</w> 111
汽車 用品</w> 111
soa ps</w> 111
sha ver</w> 111
mag s</w> 111
tri m</w> 111
鑰匙 套</w> 111
限時 特賣</w> 111
stor m</w> 111
fun ny</w> 111
拉鏈 長夾</w> 111
ton y 111
plan ts</w> 111
便宜 出清</w> 111
customi ze</w> 111
保鮮 盒 111
自拍 神器</w> 111
我的 英雄 111
蝙蝠 俠 111
蝙蝠 俠</w> 111
四角 褲</w> 111
人字 拖 111
eu c</w> 111
int elli 111
die cast</w> 111
小丸 子</w> 111
理發 店 111
iso pro 111
defen se</w> 111
oper ated</w> 111
美杜 莎 111
regu lator</w> 111
terran ova</w> 111
卡 套 110
花 卉</w> 110
牛 軋 110
夾 式</w> 110
工 場</w> 110
全 部 110
中 小童 110
亞 曼尼</w> 110
光 燈 110
壓 花</w> 110
快 拆 110
代 餐 110
童 趣 110
面 具 110
濕 巾</w> 110
本 命 110
產 后 110
筆 記</w> 110
除 螨 110
布 袋 110
奇 異 110
無 盒</w> 110
老 公 110
儲 蓄 110
斜 口 110
鋼 托 110
以 上</w> 110
市 集</w> 110
應 急 110
曲 線 110
煥 膚 110
s r</w> 110
a de</w> 110
i pa 110
h m</w> 110
g ang</w> 110
sh er 110
la c</w> 110
ba te</w> 110
ti de</w> 110
ti res</w> 110
ti fied</w> 110
ir ing</w> 110
so me 110
sho o 110
pre pa 110
bu ff 110
創意 可愛 110
flo ater</w> 110
sun shine</w> 110
寶寶 嬰兒 110
tra sh</w> 110
個性 時尚 110
sha ft</w> 110
chi p</w> 110
修身 短袖</w> 110
電動 牙刷 110
cre pe</w> 110
透明 殼</w> 110
儲物 盒 110
pur it 110
gar nish</w> 110
保濕 面膜</w> 110
格子 襯衫</w> 110
三件 式 110
play ing</w> 110
全自動 機械 110
甜美 可愛 110
音樂 盒 110
背景 布 110
cal ming</w> 110
pol ka 110
mini so</w> 110
吸盤 式 110
cit rus</w> 110
證件 套</w> 110
pig gy</w> 110
近視 眼鏡 110
嬰兒童 裝</w> 110
掛墻 式 110
鬼滅之 刃 110
ful ly</w> 110
roa sted</w> 110
美國隊 長</w> 110
quil ted</w> 110
repel lent</w> 110
蕾哈 娜</w> 110
小叮 噹</w> 110
木耳 邊 110
維多 利亞 110
大作 戰</w> 110
choo se</w> 110
夏威 夷 110
yun teng</w> 110
balen ciaga</w> 110
夏 款 109
年 中 109
卡 牌</w> 109
多 多</w> 109
菜 板 109
三 重 109
自 己</w> 109
打 造 109
打 底</w> 109
新 北 109
邊 桌</w> 109
上 的 109
加 壓 109
簡 單</w> 109
禮 券</w> 109
霧 化 109
內 襯 109
百 合 109
保 潔 109
白 勾</w> 109
麗 莎 109
除 菌 109
安 心 109
穿 戴 109
山 居 109
春 裝</w> 109
魔 幻 109
紗 窗 109
罐 裝</w> 109
呢 子 109
朋 克 109
半 圓 109
增 強 109
被 子</w> 109
冰 涼 109
奧 迪</w> 109
鳥 籠 109
閃 電</w> 109
救 生 109
复 古 109
蛇 紋 109
攻 略</w> 109
扮 家家</w> 109
冒 險 109
核 心</w> 109
o ca 109
c l 109
h au 109
st in 109
st ande 109
ba le</w> 109
bo k</w> 109
po pu 109
日本 精品</w> 109
fe mme</w> 109
客廳 家用 109
cha ins</w> 109
tra p</w> 109
沙發 套 109
lan g</w> 109
性感 百搭 109
wai st 109
spe ed 109
lea sh</w> 109
厚底 松糕 109
下單 前 109
全館 免運 109
colla p 109
新款韓版 百搭 109
無袖 洋裝</w> 109
孕婦 裝</w> 109
招財 貓 109
記憶 棉 109
den tal</w> 109
高爾 夫</w> 109
mani cure</w> 109
信封 包 109
請先 詢問 109
權志 龍 109
唐老 鴨 109
var sity</w> 109
button ed</w> 109
door mat</w> 109
史萊 姆 109
divi ded</w> 109
主持 人 109
rou ge</w> 109
家居家 具 109
steph en</w> 109
dk ny</w> 109
新品特價 台灣熱 109
hul k</w> 109
從零開始 的 109
lade sh</w> 109
電 力 108
自 然</w> 108
精 密 108
女 友 108
小 花</w> 108
小 馬</w> 108
大 馬</w> 108
中 童</w> 108
碼 數</w> 108
啞 鈴 108
頭 盔</w> 108
不 要 108
金 絲絨 108
容 量</w> 108
料 理</w> 108
白 綠</w> 108
空 調</w> 108
單 冷 108
香 吉 108
優 質</w> 108
掛 布 108
粉 撲</w> 108
潑 墨</w> 108
無 毒</w> 108
八 角 108
備 註 108
帆 船 108
雪 糕 108
勇 士 108
什 麼 108
城 堡</w> 108
醫 生 108
初 回 108
胖 妹妹 108
綠 茶</w> 108
搶 先 108
刮 胡 108
樹 葉 108
船 型 108
o real</w> 108
k elly</w> 108
z inc</w> 108
w and</w> 108
w th</w> 108
an ts</w> 108
ma r</w> 108
mi lan 108
tt es</w> 108
qu ad</w> 108
fi ller</w> 108
pi zza</w> 108
wi ll</w> 108
創意 時尚 108
韓國 進口 108
客廳 小戶型 108
女士 腕錶</w> 108
浴室 鏡 108
拉鏈 錢夾</w> 108
dra in</w> 108
der ma 108
防塵 罩</w> 108
全場 促銷</w> 108
直筒 牛仔褲</w> 108
洗髮 乳</w> 108
牛仔褲 女 108
pul ley</w> 108
kid swear</w> 108
可坐 可躺 108
卡其 色</w> 108
大師 圖書 108
refle ctive</w> 108
加拿 大</w> 108
餃子 包</w> 108
永生 花 108
拍立 得 108
點煙 器 108
figh ter</w> 108
一片 式 108
理膚寶 水</w> 108
tony moly</w> 108
男 潮 107
充 氣</w> 107
古 早 107
三 眼</w> 107
三 明治 107
運 費 107
果 盤 107
兩 款 107
可 機 107
可 貨到付款</w> 107
超 柔 107
原 色 107
大 大 107
之 旅</w> 107
娃 衣</w> 107
高 質感</w> 107
烏 克麗 107
不 是 107
吊 床 107
改 善 107
背 景</w> 107
細 緻 107
平 底</w> 107
現 場 107
灰 藍</w> 107
抖 音</w> 107
耐 摔 107
溫 控 107
休 息 107
西 點 107
門 窗 107
翻 譯 107
釣 魚</w> 107
粉 碎 107
無 油 107
磨 豆 107
砂 輪 107
純 淨 107
鋼 圈</w> 107
克 拉 107
指 紋</w> 107
比 熊 107
睡 袍 107
懸 掛式 107
市 場 107
鑒 賞</w> 107
柵 欄 107
醬 油 107
簽 字 107
裸 色 107
逗 貓 107
橢 圓形 107
s ata</w> 107
p b</w> 107
e uro</w> 107
b its</w> 107
m to</w> 107
l x</w> 107
z ers</w> 107
co w</w> 107
co se</w> 107
st ery</w> 107
or al</w> 107
se ven</w> 107
se duction</w> 107
ti k 107
po mpo 107
di ct</w> 107
sa le 107
新款 女 107
休閒 短袖</w> 107
do ws</w> 107
per spir 107
mat t</w> 107
men ow</w> 107
gra ded</w> 107
ha zel</w> 107
for nia</w> 107
長袖 上衣 107
實木 質 107
stra ct</w> 107
修身 顯瘦</w> 107
戶外 登山 107
va mp 107
男生 女生 107
bang ladesh</w> 107
bur n</w> 107
sou th</w> 107
blan k</w> 107
菱格 紋</w> 107
東京 迪士尼 107
vol can 107
cin derella</w> 107
deca y</w> 107
broo ch</w> 107
棒棒 糖 107
調整 型 107
bol ts</w> 107
行車記錄 器</w> 107
菲拉格 慕</w> 107
detai ls</w> 107
measu ring</w> 107
kawa saki</w> 107
keima v</w> 107
卡 貼</w> 106
泡 面 106
作 業 106
風 機 106
動 畫 106
好 穿 106
水 感 106
恤 男</w> 106
打 擊 106
全 系列 106
新 書</w> 106
大 黃 106
上 課 106
椅 背 106
發 射 106
美 容</w> 106
極 品 106
分 褲</w> 106
酒 紅色 106
速 出</w> 106
羅 意 106
春 天 106
正 廠</w> 106
雞 肉</w> 106
食 玩</w> 106
巧 虎 106
瑪 瑙</w> 106
幾 何</w> 106
飄 逸 106
跳 蛋 106
檢 驗 106
虧 本 106
a x</w> 106
a k 106
d unk</w> 106
y am 106
in stru 106
si e</w> 106
th ong</w> 106
時尚 印花 106
sho e 106
fi dget</w> 106
全新 盒裝</w> 106
wi se</w> 106
日本 直送</w> 106
vi vi 106
sta ge</w> 106
uni verse</w> 106
復古 慢跑鞋</w> 106
fe e 106
ho tel</w> 106
韓國 空運</w> 106
裝飾 貼</w> 106
gra b</w> 106
gir dle</w> 106
ke vin</w> 106
tu red</w> 106
真皮 皮帶</w> 106
女士 手錶</w> 106
pie u</w> 106
跑步 健身 106
精品 館</w> 106
fol der</w> 106
sy m 106
cat or</w> 106
洗衣 精</w> 106
ab stract</w> 106
環保 袋</w> 106
模型 車</w> 106
床上 用 106
西裝 夾</w> 106
全包 防摔 106
om nia</w> 106
隱形 襪</w> 106
原宿 風</w> 106
調味 料 106
卡片 夾</w> 106
一起 賣</w> 106
fly knit</w> 106
stea m</w> 106
妝前 乳</w> 106
法拉 利 106
駕車 鞋</w> 106
sla cks</w> 106
情侶對 錶</w> 106
god dess</w> 106
衝評 價</w> 106
square pants</w> 106
dil do</w> 106
ave eno</w> 106
套 装 105
風 味</w> 105
動 畫</w> 105
女 表</w> 105
女 王</w> 105
假 睫毛</w> 105
超 硬 105
薄 荷</w> 105
小 茶幾</w> 105
實 務</w> 105
園 藝</w> 105
發 卡 105
二 層 105
木 質</w> 105
極 新</w> 105
補 丁 105
潤 髮 105
潤 唇膏</w> 105
文 學</w> 105
日 常</w> 105
相 冊 105
腰 掛 105
護 膝</w> 105
印 刷 105
華 倫 105
未 拆封</w> 105
蘭 蔻 105
首 飾</w> 105
頸 枕</w> 105
菱 格</w> 105
叉 子</w> 105
唱 片</w> 105
閨 蜜</w> 105
鯉 魚 105
p j</w> 105
e c</w> 105
e vil</w> 105
d p</w> 105
c di</w> 105
x x</w> 105
x ion</w> 105
h ex 105
li l</w> 105
sa la 105
全新 原廠 105
pi c 105
ho pe</w> 105
韓國 帶回</w> 105
北歐 簡約現代 105
shi mano</w> 105
懶人 沙發</w> 105
dis count</w> 105
舒適 透氣</w> 105
dri ving</w> 105
tren ch</w> 105
高跟 涼鞋</w> 105
短褲 套裝</w> 105
水果 盤 105
加絨 保暖 105
小方 巾</w> 105
低幫 鞋</w> 105
af ter</w> 105
toi le 105
高級 感 105
第二 彈</w> 105
防水防 油 105
oc to 105
泰迪 熊 105
老年 人 105
投影 儀 105
swa n</w> 105
indi vi 105
耐熱 玻璃 105
rect angle</w> 105
abo ut</w> 105
cali fornia</w> 105
concentr ate</w> 105
懶懶 熊</w> 105
sj cam</w> 105
仰臥 起 105
土耳 其 105
全方 位 105
sanit ary</w> 105
神 明 104
男 真皮 104
電 推 104
通 訊</w> 104
菜 瓜 104
三 點 104
自 取 104
防 霉 104
防 疫 104
假 睫毛 104
可 摺疊 104
小 禮物</w> 104
全 黑 104
全 屏 104
郵 票</w> 104
麻 繩 104
一 批</w> 104
不 敗 104
意 式 104
音 量 104
背 巾</w> 104
乾 濕 104
白 玉 104
白 灰</w> 104
本 田 104
現 金 104
產 後 104
海 苔 104
腳 蹬</w> 104
褲 襪 104
印 刷</w> 104
奇 哥</w> 104
鐵 藝</w> 104
鋼 架 104
六 月 104
指 針 104
角 度 104
世 代</w> 104
艾 瑪 104
烤 盤 104
婚 房 104
止 滑</w> 104
湯 匙 104
教 室 104
福 袋 104
永 恆 104
喂 奶 104
p ls</w> 104
e gar</w> 104
c el</w> 104
z on 104
g r</w> 104
g ly 104
la ces</w> 104
lo ad</w> 104
it i</w> 104
th ers</w> 104
di et</w> 104
ur ing</w> 104
qu es</w> 104
per t</w> 104
pan t</w> 104
be cca</w> 104
fla g</w> 104
gla di 104
sli cer</w> 104
prote in</w> 104
com pa 104
vin egar</w> 104
格紋 襯衫</w> 104
背景 布</w> 104
fen der</w> 104
zo o</w> 104
制服 誘惑 104
多卡 位</w> 104
ox ford</w> 104
fr ance</w> 104
佩佩 豬</w> 104
益生 菌</w> 104
ascor bate</w> 104
happ y 104
親筆 簽名 104
jig saw</w> 104
asp ire</w> 104
cut lery</w> 104
popu lar</w> 104
拼 布</w> 103
人 緣 103
好 吃 103
水 母 103
毛 球</w> 103
夾 鏈 103
熊 大 103
黑 藍 103
全 省 103
皮 面</w> 103
噴 水 103
一 箱</w> 103
頭 枕</w> 103
支 裝 103
金 鍊 103
白 板 103
寬 褲 103
單 品 103
體 感 103
網 狀 103
筆 筒 103
門 鎖 103
刷 卡 103
旗 艦</w> 103
壁 飾 103
雪 靴</w> 103
釘 珠 103
銀 扣</w> 103
消 臭 103
抑 菌 103
宅 急 103
p ean</w> 103
e vo</w> 103
r j</w> 103
d oo 103
f inal</w> 103
c ig 103
g ps</w> 103
w ard</w> 103
ca stle</w> 103
un ited</w> 103
ou l</w> 103
de tail</w> 103
時尚 單肩包</w> 103
pp ee</w> 103
car ol 103
兒童 益智 103
wi d 103
bu dd 103
con stru 103
韓國 代購 103
fla sk</w> 103
短袖 洋裝</w> 103
歐美 爆款 103
蕾絲 上衣</w> 103
lip cream</w> 103
jo e</w> 103
居家 裝飾</w> 103
can to</w> 103
can adi 103
床頭 燈 103
key s</w> 103
石英 表</w> 103
sur face</w> 103
star ry</w> 103
美甲 店 103
男鞋 子 103
ab c</w> 103
全場 下殺</w> 103
親子 裝 103
鬆緊 帶 103
pin ky</w> 103
自慰 杯</w> 103
exten der</w> 103
收納柜 子 103
郵差 包 103
洞洞 鞋</w> 103
chu ck</w> 103
preci sion</w> 103
absor ber</w> 103
走秀 款</w> 103
飲水 機 103
pet ite</w> 103
craf ts</w> 103
coco a</w> 103
net work</w> 103
fire fly</w> 103
史黛 拉 103
穆勒 鞋</w> 103
euro pean</w> 103
蒙古 包 103
kla irs</w> 103
prepa id</w> 103
短 洋裝</w> 102
古 龍 102
作 品 102
雙 翹 102
兩 輪 102
可 可</w> 102
黑 綠</w> 102
新 色</w> 102
大 堂 102
中 空 102
長 度</w> 102
高 檔</w> 102
快 手 102
特 大</w> 102
第 六 102
開 學 102
鍍 鉻 102
同 學 102
格 蘭 102
掌 上 102
來 自 102
場 景</w> 102
腳 底 102
安 瓶</w> 102
瓶 裝</w> 102
馬 車 102
輕 奢</w> 102
墻 角 102
壁 式 102
獵 人</w> 102
頸 部 102
黃 光</w> 102
智 慧</w> 102
讀 卡 102
澎 澎 102
舞 台 102
散 打 102
軍 綠 102
捕 夢 102
辛 巴</w> 102
烘 干 102
急 速 102
決 戰</w> 102
乒 乓 102
坎 肩 102
裹 胸 102
副 廠</w> 102
r g</w> 102
b k</w> 102
c ta 102
c pu</w> 102
z el 102
in fra 102
le vis</w> 102
ca ss 102
ca pri</w> 102
su gar 102
su ka</w> 102
mi le</w> 102
新款 復古 102
pi mple</w> 102
ce le 102
we i 102
ho lo 102
tr unk</w> 102
gra pe</w> 102
ha wai 102
長袖 洋裝</w> 102
mu gs</w> 102
lip sticks</w> 102
現代簡約 臥室 102
防滑 墊 102
連帽 外套 102
專櫃 品牌</w> 102
ge m</w> 102
long back</w> 102
浴室 置物架 102
三角 形 102
remo vable</w> 102
相機 包 102
三眼 怪 102
無袖 上衣</w> 102
reju v</w> 102
促銷 活動</w> 102
密封 罐</w> 102
滿千 免運</w> 102
床單 被套 102
cit ron 102
小圓 桌 102
syn c</w> 102
膠原 蛋白</w> 102
收銀 臺 102
wind proof</w> 102
ful l 102
華萊 士</w> 102
boar d 102
超商取 貨 102
刮鬍 刀</w> 102
season ing</w> 102
chlo e</w> 102
蝶古巴 特</w> 102
yee zy</w> 102
sthe tic</w> 102
maz da</w> 102
摩洛 哥 102
ipa ky</w> 102
collap sible</w> 102
volcan ic</w> 102
手 槍 101
防 丟 101
防 紫外線</w> 101
滑 行 101
精 工</w> 101
生 理 101
好 幫手</w> 101
出 租</w> 101
色 眼影盤</w> 101
性 愛 101
打 蠟 101
小 可愛 101
小 背心</w> 101
皮 包 101
中 款</w> 101
中 褲 101
長 巾</w> 101
液 壓 101
七 天 101
同 人</w> 101
細 節 101
面 交 101
平 民 101
低 音</w> 101
翻 斗 101
牆 紙 101
鞋 男 101
商 用</w> 101
牙 齒 101
野 餐</w> 101
魔 女 101
農 用 101
辦 公</w> 101
圍 脖 101
鈦 晶 101
扇 子 101
艾 草 101
任 意 101
止 癢 101
回 力 101
回 收 101
營 業 101
武 器</w> 101
教 學</w> 101
駝 色</w> 101
茉 莉</w> 101
疲 勞 101
s g</w> 101
u tensi 101
e g 101
n n</w> 101
g m</w> 101
it as</w> 101
ca fe</w> 101
ra t</w> 101
ti ps</w> 101
al y 101
mi ll</w> 101
新款 熱賣</w> 101
sho w</w> 101
簡約 復古 101
韓版 休閑 101
pi ka 101
學生 書包</w> 101
手提 斜挎包</w> 101
手提 肩背包</w> 101
cor set</w> 101
pu ff 101
eni x</w> 101
網紅 款</w> 101
hand s</w> 101
嬰兒 車 101
防曬 霜</w> 101
her bs</w> 101
床頭 燈</w> 101
tur bo</w> 101
free ship</w> 101
學習 桌</w> 101
春秋 款 101
香港 迪士尼 101
super hero</w> 101
優質 現貨</w> 101
持久 淡香 101
band age</w> 101
自慰 套</w> 101
shar p</w> 101
花盆 架 101
證件 夾</w> 101
大衣 外套</w> 101
hot wheels</w> 101
post card</w> 101
繁體 中文版</w> 101
補光 燈 101
克羅 心 101
tran scend</w> 101
黑曜 石 101
ow ned</w> 101
fel t</w> 101
touch screen</w> 101
athle tic</w> 101
amethy st</w> 101
雙眼 皮 101
compart ment</w> 101
perspir ant</w> 101
infra red</w> 101
男 用</w> 100
年 會 100
化 學 100
防 爆</w> 100
雙 排扣 100
出 品</w> 100
水 機 100
兩 款</w> 100
可 定制</w> 100
恤 衫 100
客 戶 100
小 林 100
全 自動</w> 100
新 色 100
漆 皮</w> 100
皮 筋 100
中 控 100
中 古</w> 100
立 領</w> 100
之 星</w> 100
代 籃球鞋</w> 100
起 泡 100
棉 襪</w> 100
裙 擺 100
瘦 臉 100
酒 瓶 100
酒 杯 100
耳 塞</w> 100
印 象 100
布 貼</w> 100
牆 貼 100
啟 蒙 100
調 色 100
無 塵 100
兔 裝</w> 100
墻 貼</w> 100
紙 袋 100
買 到 100
指 尖 100
城 堡 100
塔 羅 100
為 止</w> 100
紐 扣 100
簽 名</w> 100
屏 風</w> 100
股 東 100
參 考 100
薔 薇 100
s w</w> 100
s cho 100
p si 100
b ani 100
c ani 100
k ur 100
an n</w> 100
ar ch</w> 100
st ur 100
st ent</w> 100
ba ti 100
ca se 100
運動 慢跑鞋</w> 100
現貨 熱賣</w> 100
收納 神器 100
韓版 休閒 100
boo ties</w> 100
hu ara 100
化妝 品</w> 100
折疊 式 100
美國 直郵</w> 100
clo ver</w> 100
bro ws</w> 100
lan e</w> 100
hand ker 100
bri ck</w> 100
手工 藝 100
生活 館 100
限時 特惠</w> 100
長款 錢包 100
家居 裝飾品 100
歐式 復古 100
ge m 100
正版 現貨</w> 100
健身 器材</w> 100
工具 箱</w> 100
餐廳 燈 100
pil lows</w> 100
整理 架 100
一體 機 100
垃圾 袋 100
gro wth</w> 100
首飾 盒</w> 100
超人 氣 100
飛行 器</w> 100
whi p</w> 100
方向 燈</w> 100
sco tch</w> 100
夾腳 拖鞋</w> 100
公路 車 100
combin ed</w> 100
圣誕 節 100
空軍一 號 100
fav or 100
loaf er</w> 100
saf ari</w> 100
蓮蓬 頭</w> 100
excel lent</w> 100
espadri lle</w> 100
多媒 體 100
medic ine</w> 100
tul le</w> 100
valu e</w> 100
oxy gen</w> 100
山居 歲月</w> 100
從零開始的 異世界 100
華倫 天 100
canadi an</w> 100
citron ella</w> 100
波 波 99
抹 布</w> 99
抹 布 99
青 花 99
卡 牌 99
卡 夢 99
套 装</w> 99
直 出</w> 99
雙 口袋 99
銷 售 99
水 墨 99
小 館</w> 99
大 包 99
大 批發</w> 99
一 年保固</w> 99
不 透明 99
極 緻 99
天 竺 99
開 岔 99
分 子 99
部 屋</w> 99
貼 鑽 99
即 食 99
合 奏 99
跑 車</w> 99
日 文</w> 99
曬 衣架</w> 99
正 常 99
奢 侈 99
無 味 99
刷 色 99
希 爾 99
珠 珠 99
恐 怖 99
拖 車 99
最 強 99
戀 與 99
冰 河 99
潛 水</w> 99
泳 褲</w> 99
回 饋</w> 99
鎮 宅 99
滿 鋪 99
技 術 99
教 材</w> 99
蘿 蔔 99
a si 99
d ana</w> 99
d ano</w> 99
f ate</w> 99
b ha</w> 99
c ath 99
k t</w> 99
v t</w> 99
q q 99
re new 99
ar c</w> 99
en chan 99
新款 現貨</w> 99
de light</w> 99
de lai</w> 99
運動 跑步鞋</w> 99
do ta</w> 99
no v 99
bea st</w> 99
ke ep</w> 99
he eled</w> 99
正品 全新</w> 99
秋冬 新款韓版 99
特價 促銷</w> 99
寬松 休閑 99
hoo ks</w> 99
情趣 睡衣</w> 99
gam o</w> 99
耳環 女 99
pear ls</w> 99
小米 手環</w> 99
寫字 桌</w> 99
gg ed</w> 99
過濾 器 99
decor ations</w> 99
拍照 道具</w> 99
小時 出貨</w> 99
果汁 機</w> 99
多款 可選</w> 99
新貨 特價</w> 99
新貨 下殺</w> 99
快充 線</w> 99
cover age</w> 99
無印 良品 99
衣帽架 落地 99
棒棒 糖</w> 99
聯繫 客服</w> 99
菲拉格 慕 99
麥當 勞</w> 99
掛耳 式 99
居家用 品</w> 99
cook ware</w> 99
開瓶 器</w> 99
brazi lian</w> 99
ting i</w> 99
calci um</w> 99
purit an</w> 99
波 希 98
杏 色 98
花 香 98
套 頭</w> 98
機 動 98
雙 重 98
好 看</w> 98
色 系 98
兩 種 98
可 動</w> 98
超 大容量</w> 98
工 地 98
喬 登</w> 98
小 兔</w> 98
大 擺 98
大 包包</w> 98
中 長裙</w> 98
上 鋪 98
光 動 98
高 雅 98
拉 花 98
沙 灘</w> 98
發 行</w> 98
內 外 98
潮 品 98
轉 印 98
貝 殼</w> 98
帶 蓋</w> 98
補 漏 98
預 定 98
行 者 98
離 子</w> 98
修 眉 98
網 美 98
王 者</w> 98
護 身 98
護 具 98
布 置</w> 98
領 口 98
馬 戲 98
視 覺 98
枕 套 98
枕 芯 98
純 白</w> 98
鋼 帶</w> 98
鋼 琴</w> 98
半 罩</w> 98
沖 洗 98
沖 擊 98
舒 壓 98
控 油</w> 98
奧 特 98
任 何 98
燙 金</w> 98
異 形 98
伊 布</w> 98
屋 頂 98
埃 及 98
售 完</w> 98
急 救 98
螃 蟹 98
s z</w> 98
la gun 98
lo cal</w> 98
se ph 98
ca d 98
ma ss</w> 98
di p</w> 98
ea st</w> 98
sa y</w> 98
現貨 正品</w> 98
現貨 新品</w> 98
pi er 98
休閑 時尚 98
ho p</w> 98
fo un 98
cor por 98
短袖 襯衫 98
透氣 網面 98
修身 小腳 98
bel ly</w> 98
精品 包包</w> 98
生活 百貨</w> 98
無線 耳機</w> 98
防曬 外套</w> 98
居家 服</w> 98
兩件 式</w> 98
run ner</w> 98
平底 鍋</w> 98
ali ce</w> 98
工具 套裝 98
工作 桌</w> 98
bar be 98
精華 液 98
米奇 米妮</w> 98
glit tery</w> 98
買一 送一 98
文件 夾</w> 98
低音 炮 98
effe ctive</w> 98
提亮 膚色 98
holi ka</w> 98
打印 機 98
ggi e</w> 98
bey blade</w> 98
oli via</w> 98
超長待 機 98
stan ley</w> 98
買就 送 98
rev lon</w> 98
家居家具 傢俱 98
tik tok</w> 98
huara che</w> 98
電 競</w> 97
多 層</w> 97
泡 麵</w> 97
自 慰</w> 97
防 掉 97
生 態 97
色 系</w> 97
水 袋 97
超 夯 97
小 新 97
全 系列</w> 97
新 疆 97
大 象</w> 97
大 學生宿舍 97
皮 藝 97
之 心</w> 97
之 戰</w> 97
光 面 97
快 煮 97
代 籃球鞋 97
內 附 97
內 有 97
百 科</w> 97
不 織布 97
二 館</w> 97
棉 服</w> 97
白 證</w> 97
製 冰 97
能 量</w> 97
酒 店</w> 97
達 爾</w> 97
懶 人</w> 97
魚 骨 97
火 車</w> 97
另 售</w> 97
穿 過 97
刷 具</w> 97
妞 妞 97
和 平 97
露 臍 97
抓 絨 97
剪 裁 97
番 茄 97
川 久保 97
蔡 依 97
炒 鍋 97
裸 妝 97
餵 食 97
p yl</w> 97
co di 97
st en 97
se awe 97
ch box</w> 97
pa p 97
di c</w> 97
新款 熱銷</w> 97
ta il 97
運動 背心</w> 97
運動 電子 97
時尚 手提包</w> 97
簡約 休閒 97
pi a</w> 97
pi cks</w> 97
手機 架 97
手機 電腦 97
學生 書包 97
colo ure 97
創意 客廳 97
flo ur</w> 97
mat eri 97
mat tress</w> 97
gra ce</w> 97
sam u 97
ke eper</w> 97
個性 潮流 97
ssi n</w> 97
len ses</w> 97
卡通 印花 97
連帽 上衣</w> 97
兩件 套裝 97
can non</w> 97
沙灘 褲 97
沙灘 拖鞋</w> 97
熱銷 中</w> 97
camer as</w> 97
fin i 97
penci ls</w> 97
臺式 機 97
預購 商品</w> 97
可拆 式 97
牛仔褲 男 97
超輕 量</w> 97
計時 碼 97
band ana</w> 97
特惠 價</w> 97
仙女 風 97
送禮 首選</w> 97
手辦 模型 97
避震 器</w> 97
king ston</w> 97
poly mer</w> 97
燈籠 袖 97
cray on</w> 97
吸濕 排汗 97
tak ara</w> 97
小丸 子 97
環球 影 97
nutr ition</w> 97
風火 輪</w> 97
香吉 士</w> 97
fee der</w> 97
男 寶寶 96
年 後</w> 96
電 機 96
接 線 96
直 立式 96
人 緣</w> 96
水 上 96
打 結 96
中 的 96
折 優惠 96
車 輪 96
一 級 96
甲 醛 96
不 褪 96
太 郎</w> 96
童 車 96
同 名 96
文 創</w> 96
感 應</w> 96
有 聲 96
奇 妙 96
鞋 套 96
鞋 墊 96
扭 結 96
無 限</w> 96
食 堂 96
魔 法</w> 96
避 光 96
備 箱 96
整 套</w> 96
臟 衣 96
蠟 線 96
斐 樂 96
托 腹 96
初 生 96
飛 鏢 96
帥 氣</w> 96
旋 風 96
唇 釉 96
赫 本 96
幸 福</w> 96
氨 基酸 96
富 士</w> 96
沉 香 96
煤 氣 96
现 代 96
祛 斑 96
p k</w> 96
e mul 96
b ite</w> 96
c ate</w> 96
v ary</w> 96
in ed</w> 96
in fan 96
in cense</w> 96
ar den</w> 96
lo ver</w> 96
ba i</w> 96
or nam 96
ma d</w> 96
bo bb 96
su shi</w> 96
mi gh 96
新款 真皮 96
時尚 女包</w> 96
時尚 流行 96
家用 折疊 96
家用 小戶型 96
min ion</w> 96
ce e</w> 96
男士 香水</w> 96
客廳 創意 96
二手 片</w> 96
ang el 96
che v 96
sam yang</w> 96
ha ve</w> 96
玻璃 膜</w> 96
gi ve</w> 96
us er</w> 96
he li 96
par t 96
ka mi 96
bri de</w> 96
jo ker</w> 96
天然 緬甸玉</w> 96
保濕 補水 96
lin es</w> 96
hy per</w> 96
secre ts</w> 96
機械 腕錶</w> 96
bir th</w> 96
耳環 耳釘 96
春季 新款</w> 96
預購 中</w> 96
avai l</w> 96
smo k</w> 96
泰國 佛牌 96
粉紅 豬小 96
my stery</w> 96
連體 衣 96
奶油 底</w> 96
lipp ie</w> 96
功能 正常</w> 96
請勿 下標</w> 96
飲水 機</w> 96
後視 鏡</w> 96
羊羔 毛 96
蕾哈 娜 96
gior dano</w> 96
corre ction</w> 96
穿衣 鏡 96
iv ory</w> 96
esp rit</w> 96
cham pa 96
macar on</w> 96
新加 坡 96
球員 卡</w> 96
vap or</w> 96
lak kuma</w> 96
isopro pyl</w> 96
仰臥起 坐 96
gladi ator</w> 96
lagun a</w> 96
coloure tte</w> 96
臺 盆 95
滑 步 95
雙 用 95
紅 藍 95
紅 棗 95
眼 罩 95
可 水洗</w> 95
原 液 95
客 服 95
小 推車 95
新 包裝</w> 95
中 袖 95
星 辰</w> 95
書 柜</w> 95
擴 音 95
紫 水晶</w> 95
一 年 95
發 廊 95
美 品</w> 95
內 出貨</w> 95
棉 襖 95
字 紋</w> 95
軟 膠</w> 95
話 筒</w> 95
繪 圖 95
文 創 95
低 調 95
日 產</w> 95
海 鮮 95
溫 暖 95
無 糖 95
魔 方 95
扣 環 95
踏 墊</w> 95
蠟 筆</w> 95
儀 器</w> 95
元 免運費</w> 95
膝 蓋 95
初 版</w> 95
勵 志 95
異 味 95
揹 包</w> 95
嫩 膚 95
鳳 梨</w> 95
疏 通 95
t ation</w> 95
a ura</w> 95
o x</w> 95
o k 95
g d</w> 95
g org 95
la mp 95
la cqu 95
st ories</w> 95
un lock</w> 95
al ma</w> 95
mi sh</w> 95
te z</w> 95
時尚 韓版 95
休閒 慢跑鞋</w> 95
fi ction</w> 95
da d</w> 95
da mage</w> 95
兒童 節 95
男士 手錶 95
sti l 95
韓國 氣質 95
tra cker</w> 95
宿舍 學生 95
雪紡 衫</w> 95
雪紡 洋裝</w> 95
av an 95
石英 女錶</w> 95
女裝 韓版 95
spea kers</w> 95
書桌 書架組合 95
靠背 椅</w> 95
五分 袖</w> 95
可調 整 95
指甲 剪</w> 95
毛巾 架</w> 95
ken ne 95
瀝水 架</w> 95
名媛 氣質 95
便利 貼</w> 95
行車 紀錄 95
煞車 皮</w> 95
加肥 加大 95
tho mas</w> 95
不掉 色 95
book mark</w> 95
茶水 柜 95
記事 本 95
dash board</w> 95
湖水 綠</w> 95
aba ca</w> 95
千鳥 格 95
數量 有 95
pika chu</w> 95
codi le</w> 95
materi als</w> 95
花 香</w> 94
花 梨 94
心 經 94
好 用 94
女 帝</w> 94
可 移 94
大 腿 94
大 阪 94
大 叔 94
口 金 94
靠 背</w> 94
加 長</w> 94
高 倍 94
高 絲</w> 94
發 票 94
美 工 94
內 增高</w> 94
不 同 94
支 裝</w> 94
開 幕 94
破 盤 94
跟 鞋</w> 94
紋 牛皮 94
寬 版</w> 94
瑕 疵 94
事 務 94
日 月 94
理 論 94
飾 條</w> 94
模 組</w> 94
鐘 錶</w> 94
深 度 94
敬 酒 94
夢 幻</w> 94
涼 感</w> 94
正 廠 94
無 雙</w> 94
刷 頭</w> 94
八 卦 94
乳 酸 94
鋼 針 94
已 預訂</w> 94
六 針 94
捲 線器</w> 94
露 肩</w> 94
瞬 間 94
膝 上 94
固 體 94
近 全新 94
嫩 白 94
瑞 典</w> 94
操 作 94
鬍 子 94
s word</w> 94
p n</w> 94
a y</w> 94
d l</w> 94
d ges</w> 94
f r</w> 94
c x</w> 94
h e</w> 94
g w 94
g um</w> 94
re tte</w> 94
la ced</w> 94
st ir 94
st al 94
le x 94
or o</w> 94
se llers</w> 94
ca s</w> 94
ca ly 94
ch ina</w> 94
to my</w> 94
ti ck</w> 94
ne g 94
me s 94
car i 94
fi shing</w> 94
cu e</w> 94
pan ther</w> 94
ga sket</w> 94
情侶 短袖</w> 94
ligh tening</w> 94
mar tin</w> 94
cro codile</w> 94
韓國 簡約 94
客廳 裝飾畫 94
潮流 個性 94
防水 袋</w> 94
tr on</w> 94
牛皮 材質 94
長袖 衛衣 94
美國 帶回</w> 94
男生 包包 94
咖啡 壺</w> 94
hi ll</w> 94
gen a</w> 94
儲物 盒</w> 94
eye let</w> 94
藍牙 喇叭</w> 94
餐廳 吊燈 94
防摔 手機殼</w> 94
loo tbag</w> 94
單肩包 斜挎包</w> 94
柔軟 舒適 94
歡迎 詢問</w> 94
mira ge</w> 94
滿千 折 94
大功 率</w> 94
appro ved</w> 94
peel er</w> 94
散熱 器</w> 94
一般 小說</w> 94
攝像 頭</w> 94
全球 購</w> 94
oi se</w> 94
好貨 下殺</w> 94
modu lar</w> 94
瑪莎拉 蒂 94
保時 捷</w> 94
recor der</w> 94
拋棄 式 94
亞馬 遜 94
engine ering</w> 94
handker chief</w> 94
很 仙 93
多 肉</w> 93
泡 麵 93
心 靈 93
自 來 93
風 鈴 93
女 郎 93
夾 板 93
可 穿 93
可 旋轉 93
硬 幣 93
黑 銀</w> 93
證 書</w> 93
計 步 93
全 鋼 93
桌 面</w> 93
國 旗</w> 93
噴 劑</w> 93
特 種 93
抽 屜</w> 93
清 透 93
極 細 93
棉 布 93
後 車 93
軟 管</w> 93
時 空 93
完 美</w> 93
筆 芯</w> 93
四 月 93
葉 黃 93
涼 爽 93
調 酒 93
景 德 93
這 樣 93
鴨 嘴 93
半 截 93
蓬 鬆 93
選 擇 93
角 幾</w> 93
鑲 鑽</w> 93
親 子</w> 93
熨 燙 93
桃 紅色</w> 93
梳 子 93
碧 璽 93
范 斯</w> 93
班 服</w> 93
許 願 93
索 尼 93
网 红 93
芥 末 93
琪 琪 93
逍 遙 93
d t</w> 93
f ury</w> 93
c nc</w> 93
h ats</w> 93
q i 93
in d 93
st ine</w> 93
st rings</w> 93
ra i</w> 93
ti les</w> 93
al len</w> 93
sa ve</w> 93
現貨 下殺</w> 93
bi lena</w> 93
min d</w> 93
兒童 學習 93
日本 正版 93
百搭 韓版 93
ni er</w> 93
夏季 男生 93
二手 正品</w> 93
na m</w> 93
sil ver 93
牛皮 壓花 93
gi ven 93
pu mps</w> 93
ex pert</w> 93
廚房 用品</w> 93
back packs</w> 93
ka y 93
專用 賣場</w> 93
jo jo</w> 93
落地 置物架 93
通用 型</w> 93
cur ved</w> 93
glit tered</w> 93
禮盒 裝 93
大理 石</w> 93
cri ss</w> 93
優品 の 93
pane ma</w> 93
鍵盤 鼠標 93
whi stle</w> 93
轉換 器 93
平角 褲 93
ae sthetic</w> 93
茶葉 罐 93
側翻 皮套</w> 93
clar i 93
爬行 墊 93
button down</w> 93
現貨供應 中</w> 93
芭蕾 舞 93
晴雨 兩用 93
mother care</w> 93
圍兜 兜</w> 93
rela x 93
squee ze</w> 93
groc eries</w> 93
amu let</w> 93
intelli gent</w> 93
champa gne</w> 93
手 縫 92
三 隻 92
女 襪</w> 92
毛 領 92
黑 勾</w> 92
黑 白色 92
小 愛 92
皮 衣</w> 92
中 小學生 92
五 星 92
長 方形</w> 92
圓 球 92
園 林 92
家 庭</w> 92
百 元 92
天 梭 92
包 入</w> 92
開 運</w> 92
連 續 92
軟 木 92
乾 洗 92
地 區 92
空 中 92
文 書</w> 92
文 青</w> 92
魚 鱗 92
盆 帽 92
配 方 92
吸 血 92
鞋 面 92
正 規 92
表 帶</w> 92
松 鼠 92
路 跑 92
老 二 92
貓 罐</w> 92
雜 糧 92
吋 盆</w> 92
尺 碼 92
聲 卡 92
銀 河 92
和 尚 92
杯 墊 92
睡 墊</w> 92
爬 服</w> 92
貴 賓 92
交 叉</w> 92
抗 敏 92
唇 彩</w> 92
幼 兒</w> 92
凹 凸 92
披 風</w> 92
段 變頻</w> 92
曲 面 92
脖 子 92
賓 士 92
賓 館 92
辟 邪 92
p eni 92
e ous</w> 92
r t</w> 92
r anger</w> 92
a lex</w> 92
f light</w> 92
i mar 92
i panema</w> 92
g c</w> 92
j y</w> 92
en ga 92
to mica</w> 92
di va</w> 92
de co</w> 92
qu oise</w> 92
家用 成人 92
wh a 92
手機 保護殼</w> 92
情侶 錶</w> 92
情侶 手錶</w> 92
二手 商品</w> 92
北歐 大理石 92
新品 热销</w> 92
自動 鉛筆</w> 92
head bands</w> 92
hi fi</w> 92
兩件 組</w> 92
衛生 紙 92
單人 沙發 92
娃娃 領 92
bor o</w> 92
colla red</w> 92
light ly</w> 92
包裝 袋 92
ber t</w> 92
真空 壓縮 92
fir ming</w> 92
羽絨 服</w> 92
flu ffy</w> 92
sub woofer</w> 92
手辦 模型</w> 92
午休 床 92
cin nam 92
卡其 色 92
top sider</w> 92
同人 本</w> 92
甜甜 圈 92
吸濕 排汗</w> 92
廠商 直送</w> 92
記事 本</w> 92
售完 不 92
lamin ated</w> 92
bn wt</w> 92
kal ine</w> 92
宮崎 駿</w> 92
austra lia</w> 92
mn l</w> 92
hip ster</w> 92
chocola tes</w> 92
cig are 92
wid th</w> 92
cad bury</w> 92
戰 神</w> 91
男 表 91
電 機</w> 91
防 靜電 91
質 量</w> 91
牛 奶</w> 91
女 潮 91
續 航 91
重 量 91
中 性</w> 91
中 島 91
長 方 91
炫 酷 91
高 彈力 91
發 光</w> 91
按 扣 91
抽 拉 91
太 陽</w> 91
開 拓 91
聯 想 91
聯 府</w> 91
分 層 91
行 銷 91
板 式 91
千 層 91
港 風</w> 91
門 后 91
吸 油 91
掛 包 91
掛 簾 91
潑 墨 91
領 上衣</w> 91
妹 妹</w> 91
玩 家 91
鋁 框 91
真 愛 91
鎖 頭 91
托 德 91
挖 寶 91
髮 帶 91
滴 膠 91
雷 姆</w> 91
檯 燈 91
隨 身</w> 91
蜜 粉 91
救 援 91
毯 子 91
庫 存</w> 91
单 肩 91
柑 仔 91
雛 菊</w> 91
卧 室 91
e qu 91
f ter</w> 91
f ight</w> 91
c u</w> 91
i ler</w> 91
l b</w> 91
y oo 91
x o</w> 91
j ean</w> 91
ba thing</w> 91
ro cker</w> 91
ir y</w> 91
ri m</w> 91
al kaline</w> 91
fa ded</w> 91
新款 歐美 91
mo cha</w> 91
時尚 男士 91
ai delai</w> 91
pro bio 91
百搭 休閑 91
mat cha</w> 91
fe e</w> 91
gu c</w> 91
gu mmy</w> 91
防水 包</w> 91
牛仔 布 91
pe tal</w> 91
cor tez</w> 91
長袖 外套</w> 91
廚房 衛生間 91
sha ker</w> 91
商務 女包</w> 91
tor ch</w> 91
玫瑰 花</w> 91
can dies</w> 91
nu t 91
spe ct 91
保溫 袋</w> 91
tur quoise</w> 91
大尺 寸 91
star wars</w> 91
必備 款 91
cen t 91
棉質 上衣</w> 91
枕頭 套</w> 91
專賣 店 91
hydr o</w> 91
清洗 劑 91
平安 符 91
澳洲 代購</w> 91
jen na</w> 91
拖鞋女 夏 91
搖搖 椅 91
束腳 褲</w> 91
請先 詢問</w> 91
thi ck 91
ato mizer</w> 91
spen cer</w> 91
煙灰 缸 91
hei st</w> 91
gior gio</w> 91
suit case</w> 91
dust bag</w> 91
kyo wa</w> 91
apr on</w> 91
廣場 舞 91
監視 器</w> 91
金盞 花 91
巴斯光 年</w> 91
雨 靴</w> 90
青 蘋果</w> 90
接 口 90
自 留 90
韓 貨</w> 90
機 多功能 90
雙 排 90
好 朋友</w> 90
出 遊 90
女 寶</w> 90
量 販 90
毛 器 90
夾 棉 90
客 制 90
客 厅 90
小 心機 90
大 口袋 90
五 代</w> 90
高 街 90
拉 杆 90
沙 袋 90
進 擊 90
保 溫</w> 90
影 片</w> 90
拍 拍 90
的 一 90
日 歷 90
香 味</w> 90
火 箭 90
護 腕 90
阿 卡 90
畫 冊</w> 90
夢 遊 90
米 白色</w> 90
刷 牙 90
桶 裝 90
馬 蹄 90
荷 花 90
瑪 利 90
戲 水 90
端 子</w> 90
吧 椅 90
頸 鍊</w> 90
銀 鍊</w> 90
奶 器</w> 90
戀 人</w> 90
壹 腳蹬 90
元 起 90
潛 航 90
傳 動 90
演 奏 90
削 皮 90
值 得 90
染 色 90
孫 芸 90
砧 板</w> 90
求 婚 90
晾 曬 90
思 思 90
鳳 凰 90
鯨 魚 90
河 馬 90
監 測 90
就 愛 90
鼻 子 90
e po 90
o logy</w> 90
c r</w> 90
q t</w> 90
re fre 90
en gra 90
on ey</w> 90
ca sing</w> 90
ma mba</w> 90
ir ving</w> 90
pa y 90
di an</w> 90
ta p</w> 90
de si 90
ko ko</w> 90
韓版 潮</w> 90
韓版 潮流</w> 90
ce real</w> 90
pan g</w> 90
pan ty 90
復古 鞋</w> 90
gla n</w> 90
cha se</w> 90
gi e</w> 90
he al</w> 90
真皮 女包</w> 90
ori zed</w> 90
美國 進口</w> 90
上衣 打底衫</w> 90
mou se 90
置物架 壁掛 90
專櫃 貨</w> 90
tro gena</w> 90
brand ing</w> 90
雙肩 背包 90
正版 二手</w> 90
耳機 套</w> 90
超級 賽亞 90
耐磨 防滑 90
birth stone</w> 90
偏光 太陽眼鏡</w> 90
轉接 線</w> 90
fer ra 90
洗面 奶 90
電視柜 組合 90
arti st</w> 90
短靴 女 90
ultra sonic</w> 90
滿天 星</w> 90
sequ ins</w> 90
保冷 袋</w> 90
philipp ine</w> 90
cali per</w> 90
basi cs</w> 90
hd d</w> 90
四驅 車</w> 90
reci pe</w> 90
犀牛 盾</w> 90
庫洛魔法 使</w> 90
新品特價台灣熱 售 90
migh ty</w> 90
peni s</w> 90
直 條 89
機 全自動 89
人 物</w> 89
人 類 89
超 越</w> 89
小 咪 89
小 書架 89
新 穎 89
口 腔 89
中 心 89
車 頂 89
一 盒 89
床 尾 89
支 援 89
吊 椅 89
木 炭 89
開 放 89
聯 想</w> 89
行 軍 89
體 育 89
植 絨 89
日 期</w> 89
日 牌</w> 89
爆 乳 89
草 機</w> 89
西 洋 89
掛 燙 89
登 月 89
翅 膀</w> 89
領 巾</w> 89
燈 家用 89
老 闆</w> 89
隔 板</w> 89
拆 封 89
壹 家 89
醫 用 89
固 齒 89
桃 紅色 89
輸 出</w> 89
舞 會 89
挺 版 89
認 知 89
蘿 卜 89
霸 王</w> 89
披 風 89
每 日 89
p ond</w> 89
p lun 89
e os</w> 89
e sca 89
m si</w> 89
i ld</w> 89
v als</w> 89
w ang</w> 89
in ty</w> 89
ba i 89
on it 89
ti e 89
pa ssion</w> 89
ne ed</w> 89
新款 女包</w> 89
ta les</w> 89
運動 休閒鞋 89
家用 創意 89
wh o</w> 89
兒童 卡通 89
ct ed</w> 89
be et 89
置物 袋</w> 89
sam son 89
na var 89
pu s</w> 89
stu dy</w> 89
汽車 用品 89
透氣 網 89
新品 熱銷</w> 89
歐式 創意 89
bund les</w> 89
購物 車 89
dra gon 89
pat ent</w> 89
男款 短袖</w> 89
micro matic</w> 89
長版 外套</w> 89
air plane</w> 89
din ing</w> 89
小香 風</w> 89
孕婦 裝 89
ition al</w> 89
bre e 89
釣魚 竿 89
露肩 上衣</w> 89
閨蜜 裝 89
護髮 素</w> 89
主機 板</w> 89
眼線 筆</w> 89
fur nit 89
emer ald</w> 89
neu trogena</w> 89
dress ing</w> 89
ank let</w> 89
松緊 腰 89
當日 出貨</w> 89
weigh ing</w> 89
circu lar</w> 89
八五 折</w> 89
credi t</w> 89
uti lity</w> 89
rom ance</w> 89
hawai ian</w> 89
家居家具傢俱 用品</w> 89
emul sion</w> 89
kenne th</w> 89
景德 鎮 89
龍 泉 88
卡 卡 88
通 話</w> 88
花 果 88
會 場 88
多 益 88
菜 刀 88
愛 運動</w> 88
防 護</w> 88
毛 怪</w> 88
可 開 88
可 單 88
超 輕</w> 88
原 液</w> 88
小 木 88
小 背包</w> 88
大 型</w> 88
皮 皮 88
加 油 88
袖 口 88
車 業</w> 88
美 女</w> 88
抽 獎 88
束 腰 88
棉 麻</w> 88
汽 材</w> 88
金 標 88
柔 順 88
地 面 88
文 克 88
理 療 88
竹 編 88
火 辣 88
我 是 88
項 圈 88
優 優 88
掛 包</w> 88
鞋 帶 88
鞋 匯</w> 88
飲 料</w> 88
棒 壘 88
蚊 香 88
真 標 88
入 門</w> 88
肌 因 88
克 洛 88
標 誌</w> 88
滾 輪</w> 88
統 一 88
鋯 石</w> 88
燃 脂 88
筋 膜 88
報 警 88
綁 繩 88
義 式 88
教 具</w> 88
饅 頭</w> 88
駝 背 88
站 立</w> 88
握 把 88
境 內 88
纯 棉 88
丸 子 88
僅 試 88
喵 喵 88
啦 啦 88
瑤 瑤 88
s it 88
p ed</w> 88
t wo 88
a f</w> 88
f o</w> 88
o re 88
c rush</w> 88
in spir 88
in voice</w> 88
re ne</w> 88
la la 88
ro ses</w> 88
ra sta 88
ne xt</w> 88
sp er</w> 88
運動 休閑鞋</w> 88
休閒 椅</w> 88
收納 架子 88
da inty</w> 88
am y</w> 88
pi ping</w> 88
pro ce 88
ss o</w> 88
ter ry</w> 88
夏季 新品 88
韓國 連線 88
du bai</w> 88
hu a 88
stu ds</w> 88
he x</w> 88
透氣 鞋</w> 88
va ult</w> 88
dis ru 88
cou ples</w> 88
lin ers</w> 88
室內 拖鞋</w> 88
情趣 精品 88
one er</w> 88
jump shorts</w> 88
隨身 瓶</w> 88
mor inga</w> 88
multi ple</w> 88
multi vitamins</w> 88
書桌 椅 88
fri dge</w> 88
free shipping</w> 88
衛衣 女 88
直筒 褲 88
女神 必備</w> 88
七分 褲 88
blan c</w> 88
gga y</w> 88
臥室床頭 燈 88
ag ate</w> 88
bear d</w> 88
十字紋 牛皮 88
work out</w> 88
健身器材 家用 88
影音 大批發</w> 88
警示 燈</w> 88
dash cam</w> 88
sar ah</w> 88
零碼 出清</w> 88
陳冠 希 88
chea p</w> 88
洗發 水 88
gau ge</w> 88
分離式 冷氣</w> 88
lif ting</w> 88
流浪 包</w> 88
接收 器</w> 88
ree bok</w> 88
蔓越 莓 88
hersh ey</w> 88
名偵探 柯南</w> 88
頂上 決戰</w> 88
未開 刃</w> 88
stande e</w> 88
foun tain</w> 88
夢遊 仙 88
季 節 87
男 神 87
臺 布 87
臺 上盆 87
多 啦</w> 87
圖 鑑</w> 87
古 曼 87
韓 製</w> 87
酸 奶 87
人 頭 87
毛 器</w> 87
膠 底</w> 87
工 作</w> 87
小 桃 87
小 丑 87
全 明星 87
加 購</w> 87
光 陽</w> 87
擴 大 87
發 箍 87
美 好</w> 87
束 帶</w> 87
二 用 87
微 景觀 87
天 梭</w> 87
拿 鐵</w> 87
十 足</w> 87
單 雙 87
修 護</w> 87
方 格 87
海 底 87
東 西 87
吸 水</w> 87
掛 表 87
粉 彩 87
粉 藍</w> 87
路 跑</w> 87
整 箱 87
半 月 87
半 透明 87
冰 霸 87
程 式 87
康 是 87
歷 史 87
閃 燈 87
雷 射</w> 87
去 汙 87
教 練 87
皇 家</w> 87
晾 衣架</w> 87
煥 白 87
鬍 子</w> 87
核 心 87
宽 松 87
菠 蘿 87
侃 爺 87
p sp</w> 87
d ha</w> 87
b en</w> 87
m se</w> 87
y t</w> 87
h h 87
g urt</w> 87
w an 87
re cord</w> 87
ro t</w> 87
ra glan</w> 87
ti l 87
so il</w> 87
me tro 87
ul er</w> 87
sk ate 87
韓版 復古 87
pi oneer</w> 87
ear ly</w> 87
bu tt</w> 87
手機 座</w> 87
mar sh 87
sun glass</w> 87
wal kie</w> 87
玻璃 瓶</w> 87
shoul ders</w> 87
pu mp 87
mon t</w> 87
sha w</w> 87
stri ke</w> 87
ka bu 87
便攜 折疊 87
hand bags</w> 87
商務 包</w> 87
hi lux</w> 87
tor o</w> 87
兩件 套裝</w> 87
sur plus</w> 87
sou r 87
運動鞋 跑步鞋 87
仿真 花 87
百貨 鋪</w> 87
gro oming</w> 87
pli ers</w> 87
桌椅 組合</w> 87
mang o 87
襪子 鞋</w> 87
東京 迪士尼</w> 87
慢跑鞋 籃球鞋 87
hair pin</w> 87
壓克力 吊飾</w> 87
bou ght</w> 87
婚紗 禮服 87
tal kie</w> 87
rot ary</w> 87
effe cts</w> 87
sky drive</w> 87
去角 質</w> 87
不挑 款</w> 87
twin ning</w> 87
詹姆 斯 87
平光 鏡 87
火影 忍者 87
美國隊 長 87
temper ature</w> 87
三宅 一生</w> 87
acade mia</w> 87
muff ler</w> 87
succu lent</w> 87
寶緹 嘉</w> 87
無耳 洞 87
lubri cant</w> 87
hong kong</w> 87
戀與 製作 87
samu rai</w> 87
gorg eous</w> 87
哈 士 86
青 木 86
年 度 86
電 繡 86
直 筒</w> 86
韓 范 86
雕 刻</w> 86
午 後 86
夾 層 86
可 挑 86
可 爱 86
小 公主 86
全 集</w> 86
大 廳 86
書 坊</w> 86
療 癒</w> 86
內 刷毛</w> 86
二 色</w> 86
天 線</w> 86
寶 藍 86
甜 心</w> 86
前 衛 86
版 本 86
數 學</w> 86
方 框 86
日 用 86
所 有 86
公 牛 86
海 洋</w> 86
相 容 86
墨 綠</w> 86
歌 林</w> 86
切 肉 86
干 花 86
月 餅 86
著 用</w> 86
整 組</w> 86
成 套 86
田 宮</w> 86
豎 款 86
佳 麗 86
處 理</w> 86
幼 犬 86
揹 巾</w> 86
剃 須刀 86
樹 枝 86
霓 淨 86
請 看 86
舖 棉 86
s ss</w> 86
s eni 86
e w</w> 86
t n</w> 86
o il 86
b g</w> 86
m f 86
i zer</w> 86
an t 86
co lic</w> 86
ba be</w> 86
ri a</w> 86
pa ges</w> 86
ne st</w> 86
時尚 女士 86
mp o</w> 86
現貨 熱賣 86
cu bic</w> 86
da mi 86
手機 袋</w> 86
vi p</w> 86
br it 86
手提 女包</w> 86
手提 單肩包</w> 86
ho les</w> 86
be anie</w> 86
北歐 現代 86
col gate</w> 86
mu d 86
顯瘦 百搭 86
簡易 衣柜 86
mer a</w> 86
sel ine</w> 86
lip balm</w> 86
beau t 86
限定 版 86
專櫃 品質</w> 86
進口 牛皮</w> 86
cur ling</w> 86
工具 組</w> 86
pat rick</w> 86
comp any</w> 86
秋季 新款</w> 86
短款 錢包</w> 86
可調 節</w> 86
持久 留香 86
休閒運動 套裝</w> 86
電源 線</w> 86
密封 罐 86
purpo ses</w> 86
交叉 綁帶 86
infin ix</w> 86
第二 代 86
可坐 躺 86
poli s</w> 86
好貨 促銷</w> 86
克羅 心</w> 86
iph on 86
ob se 86
stabi lizer</w> 86
quick sand</w> 86
史奴 比</w> 86
log itech</w> 86
黑眼 圈 86
酒神 包</w> 86
techni ques</w> 86
高密 度 86
迴力 車</w> 86
gho st</w> 86
toile try</w> 86
菜瓜 布</w> 86
budd ha</w> 86
mes sage</w> 86
beet le</w> 86
rasta clat</w> 86
disru ptor</w> 86
手 賬 85
士 頓</w> 85
萬 代 85
花 樣 85
三 頭 85
淋 雨 85
紅 黑</w> 85
歐 風 85
水 槍 85
下 鋪 85
對 錶</w> 85
超 厚 85
喬 治 85
黑 暗 85
鉚 釘</w> 85
折 免運</w> 85
立 牌 85
解 析</w> 85
潮 吹 85
金 鍊</w> 85
金 泰 85
規 格 85
品 味 85
面 罩</w> 85
白 銀</w> 85
地 藏 85
單 孔 85
胸 墊</w> 85
遮 陽</w> 85
日 空 85
日 單</w> 85
公 園 85
四 合一 85
主 管 85
釣 竿 85
切 絲 85
無 葉 85
放 置 85
野 獸 85
扣 頭 85
斜 肩包</w> 85
說 話 85
六 字 85
控 制</w> 85
移 門 85
初 秋 85
票 卡夾</w> 85
結 婚</w> 85
斗 櫃</w> 85
桃 園</w> 85
垂 釣 85
嘟 嘟 85
唇 彩 85
蜂 窩 85
射 燈</w> 85
教 室</w> 85
住 宿 85
售 出 85
等 級</w> 85
燜 燒 85
a a 85
b remo 85
c g</w> 85
i kon</w> 85
n j</w> 85
n ad 85
v ig 85
in duction</w> 85
ro be</w> 85
ch en 85
si des</w> 85
bo ur 85
mi mi</w> 85
sa em</w> 85
so und 85
wo w</w> 85
時尚 腕錶</w> 85
簡約 氣質 85
簡約 時尚</w> 85
家用 學生 85
min e 85
兒童 學生 85
全新 品 85
全新 含 85
bu s</w> 85
vi et 85
do ff</w> 85
flo ra</w> 85
情侶 拖鞋</w> 85
夏季 男士 85
sun set</w> 85
blo o 85
臥室 家用 85
col a</w> 85
tu mmy</w> 85
造型 上衣</w> 85
歐美 復古 85
防曬 霜 85
居家 生活</w> 85
premi ere</w> 85
雙人 床</w> 85
organi x</w> 85
sur vi 85
person a</w> 85
防塵 套</w> 85
防塵 袋</w> 85
cer t</w> 85
香港 迪士尼</w> 85
抽屜 櫃</w> 85
包裝 盒 85
全包 邊 85
毛衣 外套</w> 85
pli age</w> 85
cri ssa</w> 85
電源 供應 85
保證 真品</w> 85
褲子 男 85
瑜伽 墊 85
第二 代</w> 85
防水防 汗 85
愛馬仕 皮帶</w> 85
nar s</w> 85
清倉 價</w> 85
畢業 禮物</w> 85
天天 特價</w> 85
百褶 裙</w> 85
走廊 過道 85
work book</w> 85
馬丁靴 女 85
cray ola</w> 85
chal len 85
小飛 象</w> 85
溫度 計</w> 85
穿鞋 凳 85
coin purse</w> 85
刀劍亂 舞</w> 85
從零開始的異世界 生活</w> 85
seph ora</w> 85
lacqu er</w> 85
mouse pad</w> 85
onit suka</w> 85
bremo d</w> 85
手 繩</w> 84
男 朋友 84
電 鍋 84
電 鑽</w> 84
卡 哇 84
通 風 84
人 像 84
生 產 84
可 到付</w> 84
重 機 84
重 低音</w> 84
超 小 84
喬 巴 84
小 店 84
小 沙發</w> 84
大 小號 84
椅 墊</w> 84
圓 凳 84
情 人</w> 84
一 腳蹬</w> 84
床 頭</w> 84
足 球</w> 84
衛 浴</w> 84
轉 蛋 84
木 柄 84
貝 兒</w> 84
斯 特 84
聯 合 84
殺 人 84
保 健</w> 84
背 部 84
洋 氣</w> 84
洋 芋 84
後 跟 84
單 機 84
單 支 84
板 扣腰帶 84
抱 抱 84
塑 料</w> 84
竹 制 84
褲 裙 84
印 表 84
掛 布</w> 84
奇 幻 84
鞋 底</w> 84
春 夏季新款 84
貓 跳 84
萊 雅</w> 84
航 拍 84
混 色 84
冷 水壺</w> 84
標 示 84
齒 輪 84
智 力 84
得 力 84
柯 基 84
回 彈 84
炒 鍋</w> 84
象 牙 84
滲 透 84
煎 鍋 84
汪 汪 84
s kool</w> 84
s lightly</w> 84
i sa 84
g tx</w> 84
w y 84
in do 84
re du 84
la cey</w> 84
en ta</w> 84
on ion</w> 84
se p 84
ro y</w> 84
ma u 84
ti le</w> 84
th a</w> 84
sp in 84
sp litter</w> 84
tt o</w> 84
ta i</w> 84
ta pes</w> 84
ki ck</w> 84
fi sh 84
wi sh</w> 84
日本 購入</w> 84
do tted</w> 84
mat tel</w> 84
no ise</w> 84
短袖 套裝 84
gi s</w> 84
ka s</w> 84
lit hi 84
hi s</w> 84
hi ja 84
kin e 84
hoo dy</w> 84
背心 上衣</w> 84
supp lier</w> 84
超級 英雄</w> 84
中國 風</w> 84
空氣 凈化 84
tan kini</w> 84
游戲 機 84
zz y</w> 84
sal ted</w> 84
老花 鏡 84
洗髮 露</w> 84
毛衣 女 84
泰國 佛牌</w> 84
moun ted</w> 84
包臀 裙</w> 84
全套 包裝</w> 84
工裝 褲</w> 84
as std</w> 84
折扣 卷</w> 84
hydr ation</w> 84
有機 棉 84
mc queen</w> 84
特別 版</w> 84
野餐 墊</w> 84
kat e 84
淋浴 花灑 84
davi doff</w> 84
dan cing</w> 84
全掌 氣墊</w> 84
羊絨 圍巾</w> 84
蛤蟆 鏡 84
隱藏 式 84
照明 燈</w> 84
竹節 棉 84
short sleeve</w> 84
下水 道 84
麥當 勞 84
無人 機 84
巨無 霸 84
tom mee</w> 84
火烈 鳥 84
greet ings</w> 84
vamp ire</w> 84
corpor ate</w> 84
given chy</w> 84
ferra gamo</w> 84
furnit ure</w> 84
iphon ex 84
lithi um</w> 84
手 燈</w> 83
圖 片 83
直 送 83
風 鈴</w> 83
紅 石榴 83
假 一 83
對 開 83
小 海 83
小 皮鞋 83
全 棉</w> 83
北 美 83
噴 頭</w> 83
一 洗 83
足 部 83
頭 燈 83
百 寶 83
吊 卡</w> 83
件 組 83
保 冰 83
收 口 83
面 盤</w> 83
面 霜 83
菩 提 83
都 是 83
遮 臉 83
香 味 83
海 苔</w> 83
窗 臺 83
非 洲 83
畫 眉 83
綿 羊 83
商 行</w> 83
展 示</w> 83
輕 薄</w> 83
零 錢夾</w> 83
必 買</w> 83
磨 牙 83
鏡 框</w> 83
說 明 83
漂 亮</w> 83
夜 燈 83
桃 心 83
官 網</w> 83
權 誌 83
教 你 83
皇 后 83
捕 魚 83
曲 奇 83
兵 器 83
船 襪</w> 83
婷 婷 83
概 念 83
檜 木 83
a ga 83
d ji</w> 83
o reo</w> 83
k ath 83
m ga</w> 83
v ine</w> 83
sh an 83
la w</w> 83
en e</w> 83
en lar 83
se en</w> 83
ti ppee</w> 83
su b</w> 83
fa ct</w> 83
ur ant</w> 83
運動 耳機</w> 83
休閒 拖鞋</w> 83
收納 神器</w> 83
ru bi 83
全新 正貨</w> 83
日本 正品</w> 83
slee k</w> 83
mat h</w> 83
sun day</w> 83
北歐 式 83
ve gan</w> 83
沙發 墊</w> 83
真皮 錢包</w> 83
網紅 同款</w> 83
pri z 83
ssi s</w> 83
造型 耳環</w> 83
修身 百搭 83
lan come</w> 83
cre ations</w> 83
圓領 衛衣</w> 83
lip gloss</w> 83
生活 家居</w> 83
金屬 扣 83
正版 全新</w> 83
key chains</w> 83
字母 刺繡 83
不鏽鋼 帶 83
三角 內褲</w> 83
遊戲 機</w> 83
sou r</w> 83
小白 鞋女 83
sal mon</w> 83
基本 安裝</w> 83
pon cho</w> 83
洗澡 桶 83
幾何 圖 83
中性 筆</w> 83
民族 風</w> 83
鞋架 多層 83
蝙蝠 袖 83
冷氣 濾網</w> 83
cin ia</w> 83
swa ddle</w> 83
新貨 熱賣</w> 83
束口 褲</w> 83
代步 車 83
水波 紋</w> 83
卡西歐 手錶</w> 83
嬰幼 兒</w> 83
concentr ated</w> 83
不倒 翁 83
phy si 83
識別 證 83
陳冠 希</w> 83
小提 琴 83
tol sen</w> 83
我的英雄 學院</w> 83
電源供應 器</w> 83
神 話</w> 82
泡 茶</w> 82
三 件</w> 82
自 在 82
直 飲 82
風 雲 82
警 察 82
透 亮 82
人 工 82
牛 油 82
歐 貨 82
超 高跟 82
小 子</w> 82
新 春 82
大 錶 82
大 降價</w> 82
五 色</w> 82
邊 夾 82
漫 步 82
圓 柱 82
高 達 82
節 慶 82
代 言 82
沙 漏 82
床 褥 82
足 療 82
流 星 82
微 星</w> 82
附 錄</w> 82
附 原廠 82
英 式 82
寶 藍色</w> 82
專 營 82
前 置 82
身 高 82
牌 照 82
臨 時 82
貼 花</w> 82
地 攤 82
寬 楦</w> 82
功 率 82
影 視 82
喜 慶 82
掌 櫃</w> 82
速 度 82
合 格</w> 82
廁 所</w> 82
護 腕</w> 82
四 人 82
四 面 82
門 後 82
帽 衫 82
春 日 82
兔 耳朵 82
鼠 標</w> 82
效 果</w> 82
景 品 82
磨 粉 82
淡 水 82
蘭 芝 82
六 層 82
和 田 82
普 利 82
土 除</w> 82
比 利 82
艾 多美</w> 82
城 市</w> 82
桃 花</w> 82
碧 兒 82
麥 飯 82
省 電 82
魅 惑 82
握 力 82
犬 貓 82
概 要</w> 82
s r 82
d z</w> 82
f d</w> 82
f at 82
b lon 82
m bie</w> 82
l m</w> 82
l ant</w> 82
h t</w> 82
in te 82
an ner</w> 82
li z</w> 82
to day</w> 82
de mon</w> 82
休閒 長褲 82
家用 經濟型 82
min a</w> 82
cu lo 82
da w 82
韓版 可愛 82
am ar 82
ear t</w> 82
學生 兒童 82
創意 家用 82
cha ssis</w> 82
牛仔 長褲 82
tr d</w> 82
裝飾 貼紙</w> 82
置物 籃</w> 82
ani mation</w> 82
mb er 82
化妝 箱</w> 82
化妝 台</w> 82
沙發 套</w> 82
新品 折扣</w> 82
mag enta</w> 82
lan cer</w> 82
歐美 街頭 82
jo int</w> 82
家居 客廳 82
小戶型 臥室 82
zi p 82
雪紡 襯衫</w> 82
dar k 82
編織 鞋</w> 82
ton ite</w> 82
遮陽 傘</w> 82
背心 式 82
背心 洋裝</w> 82
pho enix</w> 82
格子 襯衫 82
椅子 靠背 82
ab er 82
fri es</w> 82
free bie</w> 82
機車 精品</w> 82
plan et</w> 82
招財 貓</w> 82
mono kini</w> 82
自拍 桿 82
平口 褲</w> 82
四角 內褲</w> 82
會議 桌 82
三眼計時 腕錶</w> 82
上下 鋪 82
韓妞 必備 82
bos ny</w> 82
橡皮 擦</w> 82
海灘 褲</w> 82
雙子 星 82
走秀 款 82
活性 碳 82
nood le</w> 82
scra p 82
菲利 普</w> 82
ax le</w> 82
麗嬰 房</w> 82
護目 鏡</w> 82
馬來 西 82
andre a</w> 82
刮胡 刀 82
seawe ed</w> 82
caly p 82
挖寶 二手片</w> 82
進擊 的 82
samson ite</w> 82
年 貨 81
電 煮 81
臺 灣</w> 81
花 色</w> 81
多 拉 81
韓 站 81
尾 翼</w> 81
外 置 81
機 場 81
雙 輪 81
紅 黑 81
水 貂 81
果 果 81
可 放</w> 81
超 大</w> 81
原 礦 81
恤 衫</w> 81
打 造</w> 81
黑 檀木 81
小 車 81
新 娘</w> 81
大 家 81
中 大童</w> 81
書 局</w> 81
架 家用 81
亞 曼尼 81
加 大尺碼</w> 81
長 靴</w> 81
光 碟 81
經 絡 81
絲 帶 81
快 乾 81
一 張</w> 81
美 學 81
甲 蟲 81
七 成新</w> 81
束 縛 81
衛 星 81
吊 頂 81
殺 菌</w> 81
字 帖 81
甜 甜</w> 81
織 帶</w> 81
部 分 81
柔 霧 81
榮 耀 81
事 業 81
速 食 81
與 配件</w> 81
溫 熱 81
吸 乳器</w> 81
米 家</w> 81
鞋 套</w> 81
鞋 盒</w> 81
調 情</w> 81
粉 白</w> 81
馬 賽 81
八 音 81
試 題 81
拆 裝 81
壁 挂 81
入 一組</w> 81
寄 送</w> 81
標 準</w> 81
奧 地 81
滴 塑 81
散 裝</w> 81
毫 安</w> 81
飼 料 81
刮 刀</w> 81
麵 包</w> 81
搬 運 81
u ts</w> 81
u red</w> 81
u va</w> 81
p f</w> 81
p ear</w> 81
x c</w> 81
x treme</w> 81
g ori 81
j k</w> 81
w y</w> 81
ra sp 81
ma lun 81
to wn</w> 81
to wel 81
ri ding</w> 81
th an</w> 81
el mo</w> 81
mi e</w> 81
te en 81
運動 手錶</w> 81
qu al 81
me et</w> 81
me mber</w> 81
現貨 當天 81
pro polis</w> 81
we alth</w> 81
con cert</w> 81
du tch</w> 81
na h</w> 81
化妝 箱 81
tu ff</w> 81
par adi 81
自動 上 81
va seline</w> 81
蕾絲 洋裝</w> 81
旅行 背包</w> 81
wor th</w> 81
現代簡約 創意 81
gar cinia</w> 81
室內 家用 81
ser vice</w> 81
spa cer</w> 81
bar gain</w> 81
mit tens</w> 81
cel ine</w> 81
bur ger</w> 81
ben tonite</w> 81
英倫 風</w> 81
椅子 家用 81
精華 乳</w> 81
頂級 品質</w> 81
套頭 衛衣</w> 81
gro up</w> 81
bul k</w> 81
自慰 器 81
機家用 小型 81
自拍 桿</w> 81
鄉村 風 81
鎖骨 鍊</w> 81
名牌 包包</w> 81
時尚商務 牛皮材質 81
薄荷 綠</w> 81
ox o</w> 81
chopp ing</w> 81
透光 不透明 81
far ra 81
dow ny</w> 81
hb w</w> 81
丹尼爾惠靈 頓 81
夏涼 被 81
ot to 81
紙尿 褲</w> 81
潤髮 乳</w> 81
很仙 的 81
clari fying</w> 81
手 繪</w> 80
茶 海 80
花 邊</w> 80
防 震</w> 80
風 情 80
機 甲 80
點 讀 80
點 數</w> 80
水 培 80
水 泵 80
眼 唇 80
兩 層 80
工 房</w> 80
熊 大</w> 80
黑 白色</w> 80
小 西裝 80
中 筒</w> 80
桌 球 80
國 語 80
長 型 80
袖 套 80
絲 質 80
擴 展 80
車 衣 80
一 分 80
一 定 80
沙 漠 80
內 裏 80
貝 兒 80
包 女 80
分 析 80
種 口味</w> 80
軟 軟</w> 80
細 帶 80
補 習 80
白 鐵</w> 80
製 造 80
地 圖 80
地 漏 80
練 功 80
修 復</w> 80
聚 合 80
日 立 80
環 繞 80
深 灰 80
褲 頭 80
排 毒 80
早 餐</w> 80
米 白色 80
度 旋轉 80
正 反 80
雞 翅 80
馬 油 80
試 題</w> 80
飯 碗 80
飯 桌</w> 80
送 女生 80
豆 沙 80
沖 泡 80
卷 紙 80
熨 斗</w> 80
固 態 80
統 計 80
集 點</w> 80
挖 土 80
綠 光 80
垂 感 80
信 號 80
舞 會</w> 80
蜜 糖 80
鋸 齒 80
酥 油 80
讓 你 80
楔 型 80
棘 輪 80
p lea 80
r ange</w> 80
f rying</w> 80
c f</w> 80
m el</w> 80
m tp</w> 80
i f</w> 80
g w</w> 80
j maxx</w> 80
co l</w> 80
le tt</w> 80
ch in 80
ch el 80
ir l</w> 80
bo s</w> 80
ne ver 80
po me 80
ol y 80
ki sh</w> 80
min ton</w> 80
ru gged</w> 80
全新 出清</w> 80
pi lip 80
情侶 套裝</w> 80
mat s</w> 80
cro mbie</w> 80
gu mmies</w> 80
sli der</w> 80
cha n</w> 80
裝飾 擺件 80
廚房 家用 80
cy cles</w> 80
透明 玻璃 80
hi k 80
衛生 紙</w> 80
rubb er 80
run way</w> 80
爆款 下殺</w> 80
ass i</w> 80
colle ctor</w> 80
石英 男錶</w> 80
遮陽 防曬 80
victori as</w> 80
fin d</w> 80
cr an 80
arri vals</w> 80
ab y 80
cer tified</w> 80
衛衣 外套</w> 80
五分 短褲</w> 80
全包 軟殼</w> 80
sal vat 80
fru ity</w> 80
cri ss 80
包屁 衣 80
過濾 網 80
exten ded</w> 80
飛機 杯 80
標準 尺碼</w> 80
送禮 自用 80
coun ting</w> 80
sci ssor</w> 80
便利 店</w> 80
開口 笑</w> 80
collecti bles</w> 80
海軍 風 80
brilli ance</w> 80
vibr ating</w> 80
str anger</w> 80
護頸 枕 80
重低音 炮 80
cray ons</w> 80
chal k</w> 80
雅詩蘭 黛 80
永生 花</w> 80
fortun e</w> 80
天空 藍</w> 80
輪滑 鞋 80
ape x</w> 80
紫羅 蘭 80
bad minton</w> 80
expand able</w> 80
貓爬 架 80
chamo mile</w> 80
oca do</w> 80
七天 鑒賞</w> 80
cani ster</w> 80
gem stone</w> 80
數量有 限</w> 80
enga gement</w> 80
康是 美</w> 80
seni or</w> 80
aber crombie</w> 80
龍 蝦 79
花 花</w> 79
自 訂 79
防 過敏</w> 79
動 感 79
人 份</w> 79
好 用</w> 79
貨 架</w> 79
女 優 79
超 柔軟 79
原 花</w> 79
工 業</w> 79
丹 寧</w> 79
小 櫃子 79
大 促</w> 79
之 城</w> 79
圓 餅 79
高 田 79
二 版</w> 79
吊 扇 79
民 俗 79
英 寸</w> 79
天 氣 79
包 覆 79
進 階 79
開 店 79
背 面 79
裙 女 79
羊 肉 79
助 力 79
樂 扣 79
麗 絲 79
單 排扣 79
酒 吧</w> 79
喜 樂 79
反 折 79
日 光 79
安 娜</w> 79
藍 莓 79
翻 轉 79
度 數 79
表 演</w> 79
燈 管</w> 79
命 運 79
老 虎</w> 79
鋼 化</w> 79
拖 把</w> 79
標 簽 79
到 貨 79
虎 頭</w> 79
懸 浮 79
梯 形 79
扇 形 79
雷 霆 79
蜂 蜜</w> 79
柴 油 79
烘 乾 79
悶 燒 79
炭 治 79
煎 蛋 79
淘 寶 79
確 認</w> 79
襦 裙 79
e ter 79
e book</w> 79
t k</w> 79
d ir 79
m w</w> 79
g an 79
g mate</w> 79
re lay</w> 79
ar ctic</w> 79
or chi 79
on g 79
se ll</w> 79
ca mbo 79
ro user</w> 79
pa co</w> 79
sa les</w> 79
sp ell</w> 79
mo ana</w> 79
ki kay</w> 79
me tro</w> 79
現貨 熱銷 79
min is</w> 79
am d</w> 79
日本 景品</w> 79
vi be</w> 79
學生 宿舍</w> 79
con fe 79
ci der</w> 79
夏季 短袖</w> 79
du ster</w> 79
臥室 簡易 79
cha in 79
ll i</w> 79
手工 制作 79
va li 79
va por 79
batt le</w> 79
外套 潮</w> 79
雙肩 後背包</w> 79
床頭 柜</w> 79
日系 復古 79
av ocado</w> 79
茶幾 簡約現代 79
男款 短</w> 79
high t</w> 79
sna p 79
bor ne</w> 79
mini figures</w> 79
益智 玩具 79
法國 代購</w> 79
as sa 79
一字領 上衣</w> 79
液晶 顯示器</w> 79
開衫 外套</w> 79
牙刷 架</w> 79
保險 箱 79
遮瑕 膏</w> 79
ham ster</w> 79
pun k</w> 79
懶人沙發 榻榻米 79
arti fact</w> 79
ble ssed</w> 79
棉花 糖</w> 79
兩件式 套裝</w> 79
書本 熊</w> 79
bron zer</w> 79
請勿 下單</w> 79
tex tured</w> 79
chron i 79
devi l</w> 79
pure gold</w> 79
售完 為止</w> 79
卡地 亞 79
blin d</w> 79
馬拉 松 79
brad shaw</w> 79
tigh ts</w> 79
行車紀錄 器</w> 79
neg ative</w> 79
rasp berry</w> 79
pome gran 79
criss cross</w> 79
曼 谷 78
裝 潢 78
電 鍋</w> 78
迪 卡 78
花 童 78
三 線</w> 78
自 粘</w> 78
直 郵 78
直 立 78
機 電動 78
出 行 78
女 用</w> 78
午 餐 78
層 板 78
超 能 78
超 低價 78
訂 購 78
喬 治</w> 78
小 皮 78
大 中 78
中 幫 78
五 層 78
上 色 78
娃 神器 78
拉 長 78
一 步 78
不 起 78
不 必 78
包 膜</w> 78
前 后 78
品 木 78
油 炸 78
完 整</w> 78
日 雜 78
非 滿版</w> 78
秋 衣 78
顏 料</w> 78
米 其 78
鞋 款</w> 78
涼 被</w> 78
粉 絲 78
碟 盤</w> 78
無 聲 78
鐵 灰</w> 78
試 管 78
洛 麗 78
鎖 精 78
旺 旺 78
髮 繩</w> 78
以 北 78
焊 接 78
撕 拉 78
市 區 78
如 何 78
窄 裙</w> 78
窄 版 78
慕 絲</w> 78
桑 蠶絲 78
毫 升</w> 78
查 理 78
弓 形 78
應 用</w> 78
狐 狸</w> 78
蹦 迪 78
監 控</w> 78
宣 言</w> 78
卯 釘 78
魷 魚 78
渦 輪 78
屈 臣 78
r d</w> 78
a live</w> 78
b h</w> 78
y i 78
z ard</w> 78
j l</w> 78
j j</w> 78
re ar 78
re born</w> 78
re branding</w> 78
st o</w> 78
lo lli 78
or ing</w> 78
li ce</w> 78
se aler</w> 78
ma g</w> 78
th ou 78
po reless</w> 78
di ce</w> 78
de w</w> 78
car bon 78
sk a</w> 78
wi ck</w> 78
bu ild</w> 78
創意 小 78
ter ra</w> 78
單肩 手提包</w> 78
be dding</w> 78
ang els</w> 78
臥室 小戶型 78
fu bu</w> 78
boo m</w> 78
he ight</w> 78
ka soy</w> 78
mu lation</w> 78
yo gurt</w> 78
無線 藍芽 78
居家 必備</w> 78
落地 燈</w> 78
ty lex</w> 78
快速 發貨 78
氣墊 慢跑鞋</w> 78
comp u 78
三角 架 78
短褲 男 78
全新未 使用</w> 78
micro wave</w> 78
air bag</w> 78
可調 式</w> 78
輕便 折疊 78
適用 於 78
洗澡 盆 78
水杯 子 78
輕量 化 78
瑜伽 服 78
秋冬季 新款 78
den ts</w> 78
日常 百搭 78
smi ley</w> 78
蝙蝠 包</w> 78
人字 梯 78
paper bag</w> 78
換鞋 凳</w> 78
bru shed</w> 78
puri fying</w> 78
掃地 機器人</w> 78
travel ing</w> 78
補光 燈</w> 78
超細 纖維 78
bey ond</w> 78
gig a 78
od or</w> 78
染發 劑 78
slo ts</w> 78
ide al</w> 78
ast ro</w> 78
熊抱 哥</w> 78
理論 與 78
kate spade</w> 78
oly mp 78
青 蛙</w> 77
三 圈 77
愛 瑪 77
雙 拉鍊 77
人 參 77
雕 塑 77
水 鞋</w> 77
水 氧 77
熊 熊</w> 77
小 學 77
小 艾 77
全 明星</w> 77
大 班 77
大 小</w> 77
大 呎 77
中 壢 77
五 代 77
星 月 77
車 罩 77
車 材</w> 77
快 感 77
拉 伸 77
百 樂</w> 77
兒 代購</w> 77
汽 機車 77
做 飯 77
細 紋 77
紋 路 77
地 柜 77
本 人 77
行 燈</w> 77
行 者</w> 77
酒 架 77
修 容</w> 77
網 紗</w> 77
網 吧 77
日 韓版 77
公 寓 77
俏 麗 77
模 式</w> 77
安 瓶 77
墜 飾</w> 77
印 尼 77
腕 帶 77
掛 毯 77
鞋 女</w> 77
領 結</w> 77
鐵 架</w> 77
燈 條</w> 77
側 肩包</w> 77
老 佛 77
羽 毛</w> 77
個 裝</w> 77
狗 頭 77
鋼 珠 77
腿 部 77
指 甲</w> 77
寄 出 77
角 質 77
浪 琴</w> 77
虛 擬 77
杯 袋</w> 77
吹 泡泡 77
蒸 籠 77
集 點 77
鍋 具</w> 77
婚 鞋</w> 77
燙 鉆 77
負 離子</w> 77
赤 足 77
蒜 泥 77
擱 板 77
痘 痘 77
髒 衣 77
热 销 77
梨 子 77
u c</w> 77
e lo 77
r uler</w> 77
t ell</w> 77
a w</w> 77
a sa 77
d u</w> 77
f ty</w> 77
b ull</w> 77
i p 77
g f</w> 77
g sm</w> 77
in hal 77
in canto</w> 77
ba ge</w> 77
en ter 77
ro xy</w> 77
ra pid</w> 77
si t</w> 77
un s</w> 77
bo un 77
pa i 77
pa ul 77
ck able</w> 77
mi cel 77
pre packed</w> 77
男女 運動鞋</w> 77
日本 製造</w> 77
ga dget</w> 77
經典 百搭 77
韓國 直送</w> 77
men t 77
be li 77
du ffle</w> 77
臥室 陽臺 77
fu ch 77
ha m</w> 77
化妝 椅 77
真皮 牛皮 77
stra iner</w> 77
美國 製</w> 77
玩具 屋</w> 77
性感 夜店 77
tri logy</w> 77
女生 短袖</w> 77
氣質 名媛 77
blue berry</w> 77
限時 折扣</w> 77
寬鬆 休閒 77
寬鬆 上衣</w> 77
gar nier</w> 77
gr and 77
春夏 款 77
包包 女 77
遮陽 鏡</w> 77
黑白 條紋 77
餐桌 布 77
glo ssi 77
hou sing</w> 77
動物 園</w> 77
high cut</w> 77
矽膠 套</w> 77
精華 露</w> 77
my lar</w> 77
acti ve 77
桌椅 套裝 77
輕量 化</w> 77
泰迪 熊</w> 77
sco pic</w> 77
萬向 輪</w> 77
存錢 罐 77
shu tter</w> 77
三人 位 77
bene tton</w> 77
百褶 裙 77
價格 下殺</w> 77
hot pot</w> 77
中老年 人 77
廠商 直銷</w> 77
dream s</w> 77
護照 夾</w> 77
歐米 茄 77
泡澡 桶 77
推拉 門 77
live selling</w> 77
stabi lo</w> 77
白雪 公主</w> 77
重複 使用</w> 77
scal lop</w> 77
電暖 器</w> 77
rol ling</w> 77
抽取 式 77
scul p 77
後照 鏡</w> 77
筆記型 電腦</w> 77
pic nic</w> 77
波希 米亞 77
bree ze</w> 77
pump kin</w> 77
日空 版</w> 77
電 扇 76
花 器 76
三 格 76
浴 袍 76
防 脹 76
尾 巴 76
女 郎</w> 76
超 好</w> 76
小 人 76
小 汽車 76
全 遮光 76
大 出清</w> 76
大 波浪 76
五 行 76
麻 布 76
易 買 76
拉 拉</w> 76
一 口 76
發 聲 76
足 球鞋</w> 76
美 胸 76
美 少女</w> 76
潮 包</w> 76
座 便 76
金 釦</w> 76
破 褲</w> 76
背 夾 76
帶 帽 76
寬 袖 76
單 支</w> 76
修 邊 76
網 眼</w> 76
魚 骨</w> 76
羅 紋 76
羅 賓</w> 76
幫 浦</w> 76
褲 腰帶</w> 76
護 脊 76
翻 頁 76
錄 音</w> 76
米 老鼠 76
曬 衣架 76
華 夫 76
食 指 76
臭 氧 76
貓 貓 76
墻 壁掛 76
魔 道 76
雜 物</w> 76
棒 球</w> 76
純 日版</w> 76
端 子 76
買 三 76
克 里 76
搖 桿</w> 76
半 永久 76
杯 蓋</w> 76
比 亞</w> 76
湯 碗 76
含 運 76
窄 版</w> 76
唇 露</w> 76
滿 滿 76
擋 板</w> 76
鏟 子 76
蛇 紋</w> 76
户 外 76
弧 形 76
坦 克 76
抄 經 76
e z</w> 76
a ero</w> 76
d m</w> 76
o y</w> 76
i sta</w> 76
n p</w> 76
g u</w> 76
in ti 76
in joy</w> 76
co b</w> 76
co ro 76
ca pe</w> 76
ir a</w> 76
ri lakkuma</w> 76
th ic</w> 76
th ank</w> 76
mi ssion</w> 76
ig h</w> 76
ki m 76
qu in</w> 76
ss le</w> 76
手機 通用</w> 76
mat ching</w> 76
復古 做舊 76
ho yo 76
韓國 正品</w> 76
加厚 加絨 76
ste ps</w> 76
正品 公司貨</w> 76
廚房 置物架</w> 76
mu s</w> 76
cre ed</w> 76
居家 廚房生活 76
保濕 霜</w> 76
雪紡 紗 76
保溫 飯盒 76
石英 手錶 76
熱銷 搶先 76
純銀 項鍊</w> 76
桌面 收納盒 76
電子 鍋</w> 76
vel ve 76
全包 防摔</w> 76
糖果 色</w> 76
stret chy</w> 76
茶具 套裝 76
gol f</w> 76
防刮 皮革 76
露營 燈</w> 76
買一 送 76
攜帶 方便</w> 76
radi ance</w> 76
密碼 箱 76
會議 椅 76
投影 機</w> 76
pun cher</w> 76
pig eon</w> 76
頭戴 式</w> 76
松糕 厚底 76
墻面 裝飾 76
送女 友</w> 76
吃雞 神器 76
笑臉 包</w> 76
美女 與 76
jun e</w> 76
ner f</w> 76
abo ve</w> 76
煙灰 缸</w> 76
lamin ating</w> 76
suit able</w> 76
完整 版</w> 76
nan cy</w> 76
lau der</w> 76
消光 黑</w> 76
wig o</w> 76
聚寶 盆</w> 76
filip ino</w> 76
octo pus</w> 76
夾鏈 袋</w> 76
constru ction</w> 76
bati k</w> 76
cigare tte</w> 76
viet nam</w> 76
hija b</w> 76
malun ggay</w> 76
paradi se</w> 76
pomegran ate</w> 76
fuch sia</w> 76
哈 雷 75
夏 日</w> 75
接 口</w> 75
愛 戀 75
雙 十一 75
雕 像</w> 75
果 樹 75
喬 遷 75
黑 人 75
小 牛 75
小 時</w> 75
小 仙女 75
新 型 75
新 年</w> 75
新 郎 75
大 豆 75
中 央 75
折 叠 75
袖 子 75
制 作</w> 75
高 階 75
高 溫</w> 75
高 景觀 75
噴 火 75
發 酵 75
美 學</w> 75
美 食</w> 75
百 货 75
束 腹 75
考 試</w> 75
餐 墊</w> 75
刀 架</w> 75
金 石 75
金 蔥 75
洋 基 75
甜 點</w> 75
格 拉 75
油 蠟 75
白 底</w> 75
名 字 75
文 藝</w> 75
有 型 75
香 辣 75
盆 景 75
安 心</w> 75
安 妮 75
港 版 75
腰 枕 75
四 色可選</w> 75
西 瓜</w> 75
秋 天 75
漁 具</w> 75
幻 影 75
涼 席</w> 75
粉 紫</w> 75
貓 爪 75
混 搭</w> 75
咖 哩 75
爽 身 75
蒸 臉 75
胖 達</w> 75
貴 族 75
康 乃 75
尖 端</w> 75
私 訊</w> 75
闆 娘 75
蜜 粉餅</w> 75
怪 物 75
軍 規 75
豐 田 75
橡 膠</w> 75
觀 音</w> 75
問 題 75
礦 泉 75
媚 比 75
经 典 75
茜 茜 75
实 木 75
祈 福 75
u ps</w> 75
t les</w> 75
a p</w> 75
a h 75
d x 75
d ood 75
h ur 75
co s</w> 75
co pter</w> 75
it a 75
ca sh 75
ca mp 75
ma ma 75
ma stur 75
運動 短袖</w> 75
運動 鞋女 75
ki e 75
簡約 個性 75
現貨 全新</w> 75
pla s</w> 75
百搭 顯瘦 75
男士 皮帶 75
台灣 發貨</w> 75
經典 花紋 75
men tal</w> 75
臥室 房間 75
玻璃 貼 75
牛皮 女包</w> 75
ste in</w> 75
cla w</w> 75
新品 現貨 75
免運 現貨</w> 75
手工 製作 75
嬰兒 床</w> 75
精品 女包 75
寬鬆 大碼 75
ele ment</w> 75
安全 褲</w> 75
外套 男 75
正版 授權 75
key pad</w> 75
鏈條 斜挎包</w> 75
zi pp 75
編織 包</w> 75
純銀 手鍊</w> 75
ya sen</w> 75
loo t 75
electri cal</w> 75
展示 柜 75
展示 盒</w> 75
展示 櫃</w> 75
play set</w> 75
四季 通用</w> 75
頂級 原單</w> 75
super break</w> 75
蛋糕 模</w> 75
ling ton</w> 75
收納架 子</w> 75
ber ries</w> 75
低幫 鞋 75
包臀 裙 75
mix ing</w> 75
生日禮物 女生 75
hard case</w> 75
一字領 露肩 75
震動 棒</w> 75
alph abo 75
蝦皮 優選</w> 75
顏色 隨機</w> 75
flav ors</w> 75
nor mal</w> 75
森林 系 75
電視柜 茶幾組合 75
投影 機 75
is sue</w> 75
豪華 版</w> 75
rot ate</w> 75
最後 一 75
骷髏 頭</w> 75
foot ball</w> 75
眼線 液 75
假髮 女 75
新鮮 貨</w> 75
美少女 戰士 75
芳香 劑</w> 75
recei pt</w> 75
mea sure</w> 75
放大 鏡</w> 75
初中 生 75
ale xa</w> 75
steri lizer</w> 75
蒂芬 妮 75
spy der</w> 75
初音 未來</w> 75
finger print</w> 75
乒乓 球 75
barbe cue</w> 75
yoo bao</w> 75
proce ssor</w> 75
麥飯 石 75
towel s</w> 75
hik vision</w> 75
inhal er</w> 75
glossi er</w> 75
coro lla</w> 75
龍 鳳 74
茶 盤</w> 74
泡 棉 74
韓 劇</w> 74
水 電 74
水 草 74
假 兩件</w> 74
重 機</w> 74
恤 男士 74
恤 短袖 74
小 象 74
全 民</w> 74
學 校</w> 74
郵 票 74
邊 櫃</w> 74
亞 絲 74
易 烊 74
晶 片</w> 74
家 樂 74
氣 氛 74
特 考</w> 74
床 罩</w> 74
寶 劍 74
童 襪</w> 74
棉 鞋 74
保 管 74
保 貼</w> 74
背 蓋 74
後 背</w> 74
預 售</w> 74
部 曲</w> 74
單 片 74
練 習</w> 74
現 在 74
賠 本 74
過 濾</w> 74
除 蟎 74
海 鹽 74
竹 子 74
爆 炸 74
墨 綠 74
畫 板 74
夢 思 74
米 老鼠</w> 74
春 節 74
正 生</w> 74
奢 華</w> 74
無 鋼圈</w> 74
刷 子</w> 74
滋 補 74
月 號</w> 74
純 牛皮 74
維 納 74
森 友 74
造 形 74
斷 貨 74
沖 鋒 74
混 搭 74
角 川</w> 74
止 汗 74
閃 充 74
交 換</w> 74
刺 客 74
蜂 膠 74
校 服 74
披 薩 74
誇 張 74
p ler</w> 74
e ste 74
r ine</w> 74
t n 74
d ora</w> 74
k k 74
re m</w> 74
co nia</w> 74
co urt</w> 74
st ool</w> 74
at ional</w> 74
se par 74
ri x</w> 74
al vin</w> 74
ne il</w> 74
di stri 74
mi k 74
ta le</w> 74
de cant</w> 74
te xt</w> 74
ki s 74
家用 電動 74
bi bs</w> 74
收納 筐</w> 74
ru ssi 74
con tin 74
二手 書店</w> 74
臥室 書房 74
加厚 不銹鋼 74
ste en</w> 74
kit s</w> 74
chi ll</w> 74
chi cco</w> 74
tre st</w> 74
針織 毛線 74
性感 睡衣 74
歐美 風</w> 74
son g</w> 74
hi ace</w> 74
連身 褲 74
防曬 隔熱 74
her ba 74
衛生 間</w> 74
安全 座椅</w> 74
hoo ps</w> 74
vit a 74
com bat</w> 74
爆款 熱銷</w> 74
cti on 74
吊帶 背心</w> 74
字母 印花</w> 74
hal o</w> 74
電視 背景墻 74
gri ller</w> 74
書桌 椅</w> 74
三眼 日曆 74
cri spy</w> 74
魔術 貼</w> 74
七分 袖</w> 74
網面 透氣</w> 74
化妝品 收納盒</w> 74
榻榻 米</w> 74
infin ite</w> 74
scar let</w> 74
飛行 器 74
卸妝 水</w> 74
攜帶 型 74
pub g</w> 74
vari ant</w> 74
偶像 夢幻 74
名牌 精品包</w> 74
[...]
