for 53271
with 22878
dress 21660
bag 21199
and 20712
case 20257
set 19445
cod 16847
women 14856
black 13253
new 13187
shirt 12799
men 12481
top 12420
in 12111
size 11739
korean 11702
fashion 10870
shoes 10628
kids 10115
plus 9794
authentic 9715
white 9678
original 9642
baby 9533
the 9150
preloved 9058
of 7745
mini 7723
by 7691
sale 7636
gold 7063
high 6993
blue 6842
samsung 6695
cotton 6653
quality 6535
to 6334
free 6307
watch 6228
ladies 6035
on 5991
sling 5946
shorts 5928
iphone 5899
design 5804
pants 5708
terno 5684
long 5614
pro 5387
silver 5337
cream 5295
short 5287
glass 5265
red 5163
box 5158
100 5130
pink 5037
floral 4972
body 4919
blouse 4909
mask 4887
cover 4876
shoulder 4867
hard 4843
soap 4811
light 4761
10 4593
color 4419
leather 4317
unisex 4316
nike 4235
tempered 4132
one 4102
usb 4085
hand 4047
backpack 4031
hair 3995
face 3963
oil 3950
small 3949
led 3879
pack 3868
green 3769
denim 3729
skin 3672
phone 3620
necklace 3611
casual 3598
12 3582
live 3536
up 3521
piece 3485
brand 3471
pcs 3453
car 3451
ring 3388
oppo 3382
stainless 3379
wallet 3364
sandals 3311
matte 3287
back 3258
hello 3252
skirt 3250
kitty 3199
polo 3184
soft 3169
all 3163
battery 3140
lip 3106
girl 3082
holder 3081
printed 3037
style 3025
plain 3015
huawei 3006
bluetooth 2990
cute 2990
bracelet 2956
large 2946
water 2941
earrings 2929
socks 2881
perfume 2874
off 2871
sexy 2870
girls 2861
jacket 2858
air 2849
gel 2843
only 2842
charger 2800
anti 2773
mobile 2744
full 2742
cable 2735
old 2688
kit 2667
powder 2651
waterproof 2649
2018 2643
no 2614
medium 2598
power 2571
steel 2560
sleeve 2557
super 2549
rubber 2541
pre 2537
jeans 2522
us 2517
summer 2509
toy 2497
portable 2491
pouch 2485
out 2457
lotion 2446
vivo 2444
neck 2435
lace 2434
card 2430
bottle 2421
wireless 2413
book 2404
max 2401
premium 2398
big 2390
bags 2362
whitening 2332
travel 2300
e@@ 2285
beauty 2283
from 2272
couple 2271
sports 2268
magic 2266
tshirt 2264
series 2263
100ml 2243
brush 2242
motorcycle 2222
fit 2208
selling 2205
tops 2201
20 2192
bundle 2190
assorted 2189
strap 2171
per 2167
print 2161
bath 2159
secret 2151
good 2148
sticker 2143
k@@ 2142
love 2131
galaxy 2058
or 2055
a 2042
cap 2042
s@@ 2037
heart 2026
mens 2022
inspired 2004
adidas 2003
star 1986
stand 1982
de 1980
belt 1974
3d 1959
double 1952
lite 1935
bra 1930
mouse 1930
speaker 1916
home 1913
g@@ 1908
rose 1907
2019 1903
waist 1897
flower 1890
type 1887
ultra 1883
hot 1877
30 1876
universal 1873
japan 1869
ml 1866
11 1865
clear 1860
sleeveless 1860
two 1859
t@@ 1849
my 1845
care 1841
round 1836
toys 1836
fan 1831
made 1831
re@@ 1831
flat 1829
pen 1809
brown 1805
plastic 1804
sleeves 1798
character 1795
p@@ 1794
onhand 1788
coach 1783
lipstick 1778
camera 1755
organizer 1755
d@@ 1754
apple 1748
l@@ 1745
swimsuit 1738
adult 1732
tea 1730
crop 1725
loved 1724
pocket 1720
italy 1715
tote 1715
2016 1702
50 1702
edition 1699
milk 1699
18k 1687
2in1 1687
tee 1686
note 1685
jewelry 1683
candy 1681
classic 1676
tpu 1676
dark 1670
n@@ 1670
natural 1670
c@@ 1667
best 1664
2017 1662
spray 1656
wall 1656
liquid 1650
18 1645
o@@ 1643
take 1638
x@@ 1634
collection 1631
i 1631
i@@ 1629
organic 1628
92 1626
6s 1622
paper 1618
cut 1612
dual 1609
boys 1603
yellow 1602
victoria 1601
boy 1598
a@@ 1593
accessories 1588
m@@ 1588
stripe 1585
metal 1582
romper 1581
15 1580
gray 1576
y@@ 1568
coffee 1564
j7 1558
electric 1555
pc 1552
16 1546
shampoo 1542
xl 1541
pure 1539
trendy 1538
b@@ 1536
prime 1535
bar 1534
storage 1534
slim 1533
mist 1531
pad 1528
branded 1524
doll 1520
headset 1519
h@@ 1512
game 1511
colors 1510
protector 1509
clothes 1490
side 1490
tint 1490
chain 1485
eye 1477
shirts 1477
check 1474
cat 1473
shock 1470
arrival 1464
laptop 1461
multi 1461
buy 1457
cartoon 1455
facial 1455
pendant 1454
pop 1447
sando 1446
man 1444
skinny 1444
party 1438
r@@ 1437
wash 1437
casio 1431
makeup 1430
me 1429
21 1427
j@@ 1425
clip 1424
food 1424
dog 1421
2020 1408
u@@ 1408
checkout 1396
z@@ 1390
f@@ 1378
shockproof 1376
vintage 1375
school 1374
screen 1373
gift 1371
pillow 1371
cup 1368
smart 1366
panty 1365
hoodie 1362
silicone 1361
korea 1360
navy 1358
12pcs 1353
way 1352
glow 1346
e 1345
inches 1343
xiaomi 1342
low 1339
knitted 1335
maxi 1334
shop 1334
swimwear 1333
little 1332
bikini 1331
mickey 1327
charm 1326
wear 1325
s 1324
costume 1319
unicorn 1318
o 1315
nature 1310
xs 1306
tees 1305
towel 1301
head 1300
v@@ 1298
stripes 1294
lv 1289
pencil 1288
a7 1286
bear 1284
w@@ 1276
serum 1273
bts 1271
handbag 1271
mirror 1271
slip 1271
disney 1269
40 1268
works 1262
t 1255
digital 1252
stick 1248
3in1 1244
14 1242
2@@ 1242
shipping 1242
sport 1242
lens 1241
in@@ 1240
non 1239
3@@ 1232
ing 1230
d 1229
michael 1228
x 1227
tie 1214
de@@ 1211
fast 1211
24 1208
cherry 1207
single 1205
grams 1204
happy 1203
saudi 1202
5@@ 1200
sneakers 1200
square 1194
basketball 1193
genuine 1191
go 1189
8@@ 1188
orange 1188
vitamin 1186
oem 1184
elegant 1180
ms 1180
25 1178
10@@ 1173
foam 1171
k 1171
ball 1167
an 1165
keychain 1164
kitchen 1159
frame 1158
handle 1158
13 1156
fresh 1154
overruns 1153
tape 1152
mk 1151
lacoste 1149
gucci 1147
collagen 1144
c 1141
li@@ 1140
ph 1138
toner 1131
nba 1129
4@@ 1128
y 1125
bangkok 1124
button 1124
chocolate 1116
inch 1116
as@@ 1115
kors 1115
se 1115
60 1114
board 1110
as 1108
pet 1108
6@@ 1107
nova 1107
womens 1107
fashionable 1103
crystal 1102
formal 1102
adapter 1100
ink 1100
asus 1099
le@@ 1098
1@@ 1096
you 1093
nail 1092
apparel 1091
mio 1088
2015 1083
pajama 1080
zipper 1076
it 1075
jordan 1075
redmi 1074
9@@ 1070
b 1068
sun 1067
jumpsuit 1065
front 1062
lamp 1062
figure 1058
canvas 1057
ed 1053
tube 1053
sold 1051
360 1049
slippers 1048
eau 1041
12@@ 1038
cross 1038
order 1036
m 1035
leggings 1031
running 1029
powerbank 1027
p 1020
al@@ 1018
bavin 1017
kid 1017
wooden 1016
5s 1013
7@@ 1011
forever 1008
ear 1007
table 1007
se@@ 1005
charging 1004
l 1004
sony 1004
n 1001
10pcs 998
shoe 998
children 993
king 991
u 989
g 982
statement 982
earphone 980
ar@@ 979
make 977
washable 977
co@@ 975
lucky 975
limited 972
velvet 971
es 970
christmas 969
coin 967
micro 966
pearl 965
co 964
heels 963
essential 962
jelly 955
purse 955
diamond 954
semi 953
mix 952
years 952
36 949
an@@ 949
filter 946
le 946
z 944
150 939
house 938
office 938
band 937
oz 936
is 932
925 929
funko 927
price 927
personalized 926
stone 926
er 925
fabric 923
hd 923
adjustable 922
day 922
conditioner 921
ribbon 921
night 919
la 918
special 918
cm 915
proof 915
mat 914
balloon 911
fragrance 911
ice 911
ro@@ 911
blush 908
palette 908
art 906
50ml 904
0@@ 902
jogger 902
mo@@ 902
thailand 902
6pcs 899
album 899
al 898
cloth 897
stretchable 897
code 895
can 894
jersey 891
available 890
tool 890
door 889
time 888
wallpaper 888
outdoor 887
32 882
android 879
pair 876
tester 876
perfect 875
princess 872
touch 872
beach 871
birthday 871
bank 870
w 869
guard 867
aloe 866
mi 866
wrap 865
key 863
rechargeable 861
switch 861
diy 859
17 858
cleansing 858
plated 857
her 855
version 855
j2 854
tv 854
grey 853
juice 852
zenfone 852
lock 851
hp 848
machine 848
me@@ 848
eyebrow 847
2pcs 846
a37 846
bed 844
flip 842
keyboard 842
st@@ 842
f5 841
armor 838
curtain 838
di@@ 838
ba@@ 837
pro@@ 836
at 835
a3s 834
dry 834
f7 833
ti@@ 830
zara 828
am@@ 827
pieces 827
purple 827
chanel 826
foil 826
19 824
r 824
seller 824
bb 823
bike 822
blazer 822
adhesive 821
protection 821
class 819
string 817
lego 814
lo@@ 814
foundation 813
gaming 812
h 812
stickers 811
toyota 811
basic 810
tank 810
en@@ 809
lady 809
marvel 809
wedge 809
headband 808
kate 808
scrub 807
ac@@ 806
ukay 805
35 802
brandnew 802
longsleeve 802
books 800
19@@ 798
er@@ 798
f9 798
suit 798
drive 797
un@@ 796
line 795
overrun 795
mi@@ 794
to@@ 794
used 794
woman 794
ma@@ 793
plate 793
jumper 792
honda 791
ri@@ 791
cheek 789
play 789
logo 786
sp@@ 786
colored 785
01 782
flash 782
hat 782
official 779
mg 778
earring 776
months 775
clay 774
be 773
cleanser 771
5g 770
human 770
iron 770
a71 769
18@@ 767
ma 767
ts 766
1pc 765
avon 765
life 765
diaper 764
stud 764
pull 763
pump 763
si@@ 763
125 762
self 762
70 761
your 761
hk 760
13@@ 759
car@@ 759
f 759
15@@ 758
foldable 758
core 757
28 756
chiffon 756
polka 755
16@@ 754
250ml 753
a83 753
toddler 753
customized 752
halter 751
guess 746
sweater 746
spade 745
3pcs 744
y53 744
a5 742
gluta 742
wood 742
ipad 738
rack 738
sweet 738
2 735
usa 735
xr 735
eyeshadow 734
be@@ 733
la@@ 733
coat 731
sh@@ 731
bodycon 730
30ml 729
st 729
real 726
su@@ 726
j5 725
mic 725
ers 724
half 724
living 721
magnetic 721
mesh 721
animal 720
decor 720
photo 720
tumbler 720
underwear 720
f1s 715
mall 714
wire 714
layer 712
edge 710
complete 709
capsules 708
louis 707
tone 707
disposable 706
data 703
flats 701
brake 700
foot 700
te@@ 698
500ml 697
balm 697
striped 697
v7 697
20@@ 696
professional 696
acrylic 694
notebook 694
30@@ 692
pvc 692
essence 691
200 689
colourpop 689
cold 687
ds 687
dc 686
vuitton 685
mar@@ 684
rejuvenating 683
pads 682
package 680
cutter 679
50@@ 677
pawnable 677
v9 677
el@@ 676
14@@ 675
transparent 675
11@@ 674
at@@ 674
infant 674
queen 674
world 674
5mm 673
mac 672
action 671
cake 671
fruit 671
wedding 671
female 670
v11 670
down 669
it@@ 669
pesos 668
90 667
tag 667
stock 666
mate 665
personal 665
uv 663
butterfly 661
control 661
dream 661
500 660
vinyl 660
cool 659
a59 658
bedsheet 657
bow 657
cellphone 657
items 657
y6 656
10ml 655
lcd 655
sheet 655
seeds 653
3 652
pan 652
cosmetics 651
cushion 651
automatic 650
frozen 650
s8 650
26 648
45 648
60@@ 648
stereo 648
vera 648
00@@ 647
babies 645
f3 645
cleaner 643
6g 641
sa 641
minnie 640
clutch 639
gathering 639
microphone 639
remover 639
ch@@ 637
ine 637
seat 637
j4 636
q@@ 636
80 634
el 634
glutathione 634
honey 632
replica 631
paint 630
speed 630
first 629
plush 629
tree 629
lu@@ 628
onesie 628
pe@@ 628
block 627
heavy 627
so@@ 627
extra 626
ko@@ 626
v 626
wholesale 626
4in1 625
ac 625
mm 625
23 624
rice 624
link 623
pandora 623
po@@ 623
longsleeves 619
offshoulder 619
quick 617
safety 617
sugar 617
16gb 616
converse 616
folding 616
bi@@ 615
city 615
do@@ 615
dr 615
v5 615
gundam 614
we 613
fits 612
urban 612
17@@ 611
ho@@ 611
ready 610
simple 610
y71 610
am 609
imported 609
ly 609
wifi 609
ab@@ 608
no@@ 608
not 608
pin 608
1 607
deep 607
j6 607
marikina 607
rainbow 607
model 605
rear 604
sunglasses 604
crochet 603
slingbag 603
tools 603
carter 602
bo@@ 601
newborn 600
thick 600
mug 599
roll 599
motor 598
ne@@ 598
port 598
health 597
paris 597
loose 596
checkered 595
grade 593
nylon 593
shape 593
7g 591
acid 591
dresses 591
spring 591
ver 591
moisturizing 590
aluminum 589
glitter 589
hanging 589
wild 589
cards 588
planner 587
colorful 585
02 584
net 583
s7 583
sis 583
barbie 582
th@@ 581
lenovo 580
maroon 578
silicon 578
on@@ 576
a6 575
random 575
ad@@ 574
mascara 574
80@@ 573
display 573
drink 573
peach 573
thin 573
snail 572
25@@ 571
bangle 571
duty 570
flare 569
legends 569
luxxe 568
vans 568
cardigan 567
each 567
turban 567
s6 566
lights 565
ls 565
nursing 565
40@@ 564
embroidered 564
highwaist 564
en 563
38 562
graphic 562
like 562
lg 561
mango 561
money 561
sa@@ 561
ar 559
ki@@ 559
my@@ 559
helmet 558
cc 557
crossbody 557
family 557
sd 557
solar 557
ceramic 556
do 556
fila 556
ps 555
4 554
5pcs 554
bowl 554
racing 554
gear 553
cosmetic 552
grip 552
polish 552
silk 552
110 551
ation 551
lemon 550
japanese 549
pot 549
bracket 548
22 547
luxury 547
panda 547
slipper 546
32gb 545
less 545
ang 544
innisfree 544
kojic 544
roller 544
spaghetti 544
ss 544
gown 543
shield 543
shower 543
1kg 541
scent 541
daily 540
f11 540
ootd 540
p20 540
4a 539
spoon 539
v11i 538
8 537
classy 537
pony 537
100g 536
sealed 536
jansport 535
slimming 535
anime 534
boots 534
ch 533
longchamp 533
or@@ 532
freesize 531
gap 531
maong 531
neoprene 531
remote 531
snap 531
ta 531
24@@ 530
clean 530
pi@@ 530
99 528
bu@@ 528
kylie 527
music 527
so 527
brow 525
27 524
plug 524
retro 524
a50 523
croptop 523
y91 523
sizes 521
hi 520
sm 520
gu@@ 518
pattern 518
ra@@ 518
realme 518
hero 517
carbon 515
romoss 515
dragon 514
magnet 514
stitch 514
use 514
how 513
ii 513
ankle 512
protective 512
gloves 511
5 509
bagpack 509
visor 509
acne 508
knee 508
tutu 508
umbrella 508
angel 506
blanket 506
200ml 505
beads 505
y81 505
charcoal 504
purpose 504
34 503
based 503
mint 503
push 503
ai@@ 502
caps 502
clothing 501
cord 501
open 501
sleepwear 501
souvenir 501
a8 500
contact 499
letter 499
300 497
chair 497
zip 497
250 495
alloy 495
na 495
neo 495
ps4 495
moon 494
pig 494
film 493
onesies 493
prints 493
quartz 493
auto 492
pore 492
socket 492
5ml 491
te 491
5d 490
60ml 490
shine 490
cars 489
con@@ 489
replacement 489
stuffed 489
ta@@ 489
ka 487
teens 487
31 486
now 486
s9 486
aqua 485
earphones 485
etude 485
golden 485
pa 485
8g 484
ks 484
charge 483
mount 483
th 483
treatment 483
y69 483
age 482
cd 482
ke@@ 482
rashguard 482
breathable 481
id 481
master 481
100pcs 480
tri@@ 480
batman 479
facemask 479
jo@@ 479
lee 479
candle 478
violet 478
001 477
egg 477
22@@ 476
games 476
jade 476
alcohol 475
repair 475
4g 474
miracle 474
da 473
for@@ 473
j8 473
mermaid 473
pre@@ 473
analog 472
infinity 472
6plus 471
designs 471
tablet 471
beige 470
rain 470
royal 470
v15 470
a5s 469
baking 469
bamboo 469
collar 469
yamaha 469
ap@@ 468
patch 468
year 468
28@@ 467
da@@ 467
fiber 467
75 466
brief 466
crown 466
metallic 466
republic 466
ni@@ 465
window 465
50pcs 464
balloons 462
sun@@ 462
100@@ 461
6 461
base 461
4pcs 460
pastel 459
solid 459
sponge 459
baseball 458
min@@ 458
parfum 458
he@@ 457
support 457
y9 457
00 456
lunch 456
mother 456
a10 455
yrs 455
butter 454
crocs 454
li 454
msm 454
um 454
jumpshort 453
ion 452
nintendo 452
sets 452
ya 452
j1 451
kpop 451
sim 451
uniqlo 451
vi@@ 451
26@@ 450
blade 450
glossy 450
meter 450
orig 450
wars 450
35@@ 449
a30 449
avengers 449
boss 449
easy 449
padded 449
street 449
wax 449
ana 447
drop 447
iconic 447
under 447
a39 446
bar@@ 446
ter 446
90@@ 445
ce@@ 445
male 445
plant 445
ver@@ 445
wheel 445
mosquito 444
privacy 444
rare 444
ty 444
washi 444
carrier 443
drawstring 443
pa@@ 443
signature 443
go@@ 442
regular 442
ve 442
slit 441
64gb 439
php 439
33 438
alibaba 438
anello 437
ins 436
mtg 436
sandal 436
get 435
herbal 435
per@@ 435
tommy 435
delivery 434
nmax 434
120 433
fish 433
1a 432
ra 432
dust 431
sf 431
bare 430
factory 430
over 430
fairy 428
incipio 428
item 428
29 427
cartridge 426
ga 426
satin 426
spandex 426
dispenser 425
maybelline 425
moisture 425
strawberry 425
150ml 424
03 423
bulb 423
nude 423
starbucks 423
a4 422
gun 422
lauren 422
mu@@ 422
poster 422
salt 422
vest 422
7 420
der 420
wave 420
avent 419
boho 419
3i 418
cs 418
luggage 418
pairs 418
pokemon 418
32@@ 417
glue 417
supreme 417
cu@@ 416
les 416
duo 415
fine 415
guitar 415
vape 415
winter 415
41 414
spf 414
wide 414
instant 413
ka@@ 413
liner 413
toe 413
400 412
gas 412
therapy 412
capsule 411
edt 411
f1 411
midi 411
sex 411
ex@@ 410
j 410
acer 409
handmade 409
lightning 409
zoom 409
70@@ 408
end 408
shell 408
36@@ 407
dolphin 407
du@@ 407
ler 407
marc 407
sneaker 407
stuff 407
tattered 407
bt21 406
finger 406
promo 406
soothing 406
standard 406
canon 405
memory 405
vacuum 405
7plus 404
hood 404
pullover 404
seamless 404
tu@@ 404
38@@ 403
american 403
awei 403
jo 403
tablets 403
air@@ 402
boxer 402
sc@@ 402
son 402
ter@@ 402
woven 402
arm 401
hi@@ 401
ve@@ 401
2i 400
a20 400
ag@@ 400
clearance 400
garden 400
puff 400
stretch 400
tail 400
chrome 399
pc@@ 399
a9 398
ck 398
ted 398
9 397
flavor 397
scale 397
audio 396
fi@@ 396
hook 396
re 396
sheets 396
cash 395
melissa 395
tassel 395
coconut 394
vs 394
bsco 393
heat 393
15ml 392
combo 392
elite 392
swimming 392
computer 391
solution 391
straw 391
toilette 391
knit 390
puzzle 390
suede 390
88@@ 388
bucket 388
creative 388
kiss 388
wet 388
wonder 388
50g 387
days 387
liptint 387
grand 386
ia 386
more 386
ply 386
ss@@ 386
army 385
hub 385
massage 385
snow 385
bicycle 384
function 384
ko 384
s3 384
12v 383
ate 383
reusable 383
s10 383
blossom 382
bright 382
drill 382
exo 382
tripod 382
55@@ 381
a33 381
choco 381
legit 381
sea 381
clock 380
cycling 380
affordable 379
are 379
extension 379
pan@@ 379
supplies 379
disc 378
ft 378
headphones 378
ph@@ 378
yo 378
young 378
ge@@ 377
tray 377
we@@ 377
ca 376
headphone 376
ku@@ 376
leaf 376
vita 376
bubble 375
burberry 375
concealer 375
electronic 375
three 375
toothpaste 375
die 374
jack 374
ralph 374
starter 374
system 374
gen 373
products 373
bible 372
ca@@ 372
eyeliner 372
trend 372
39 371
active 371
bottom 371
fe@@ 371
ina 371
outfit 371
papaya 371
selfie 371
bears 370
cod@@ 370
je@@ 370
mah 370
packaging 370
42 369
auth 369
comfortable 369
container 369
daughter 369
shopee 369
5a 368
j2prime 368
pu@@ 368
2xl 367
camouflage 367
gi@@ 367
just 367
p30 367
ripped 367
s1 367
keratin 366
lasting 366
tire 366
y95 366
dvd 365
ford 365
hu@@ 365
man@@ 365
os 365
pipe 365
s5 365
scarf 365
sy 365
bvlgari 364
manual 364
yoga 364
10k 363
bottles 363
flashlight 363
refill 363
sleeping 363
ton 363
37 362
captain 362
vanilla 362
approx 361
hdmi 361
laser 361
1st 360
dri 360
flowers 360
force 360
makapal 360
peeling 360
pretty 360
tamiya 360
gym 358
mat@@ 358
rock 358
ryx 358
stylish 358
45@@ 357
500g 357
a57 357
ig@@ 357
a70 356
ship 356
america 355
ic 355
mon@@ 355
product 355
xundd 355
ed@@ 354
missha 354
plaid 353
toothbrush 353
tribal 353
bnew 352
klein 352
radio 352
s4 352
turtle 352
blocks 351
sporty 351
blend 350
floor 350
mr 350
ys 350
aha 349
bass 349
coco 349
fi 349
ity 349
charms 348
laneige 348
twice 348
bl@@ 347
cor@@ 347
decoration 347
let 347
nice 347
nova3i 347
ram 347
basket 346
chinese 346
ga@@ 346
knife 346
mitsubishi 346
24k 345
anne 345
ce 345
ju@@ 345
mary 345
ong 345
29@@ 344
75@@ 344
fire 344
htp 344
peel 344
room 344
spa 344
stain 344
straight 344
dove 343
jar 343
kg 343
mid 343
spiderman 343
brilliant 342
cargo 342
number 342
primer 342
bench 341
ic@@ 341
lavender 341
sweat 341
gloss 340
hellokitty 340
ling 340
protect 340
xa 340
xsmax 340
ak@@ 339
ci@@ 339
ge 339
havaianas 339
mom 339
shadow 339
tiger 339
ting 339
inflatable 338
j7pro 338
overlap 338
ru@@ 338
tomato 338
cologne 337
dish 337
glasses 336
sauce 336
decal 335
grill 335
harry 335
ref 335
14k 334
banana 334
drifit 334
formula 334
space 334
super@@ 334
wired 334
1000 333
cleaning 333
controller 333
cropped 333
him 333
27@@ 332
essentials 332
otg 332
rope 332
v2 332
cam 331
jbl 331
lebron 331
cas@@ 330
gh@@ 330
miss 330
name 330
rosegold 330
stationery 330
sterling 330
triple 330
wrist 330
y17 330
y55 330
bathroom 329
bleaching 329
kobe 329
muscle 329
128gb 328
48 328
ace 328
dial 328
prada 328
pu 328
sky 328
tech 328
tory 328
hooded 327
inner 327
eco 326
feeding 326
34@@ 325
ios 325
leaves 325
236ml 324
fork 324
fu@@ 324
massager 324
ons 324
desk 323
eyeglasses 323
j3 323
pool 323
cases 322
microfiber 322
sakura 322
stamp 322
choker 321
gs 321
gshock 321
po 321
raincoat 321
sandisk 321
swim 321
1l 320
elastic 320
j7prime 320
ke 320
4s 319
ated 319
bl 319
sachet 319
soul 319
tr@@ 319
volume 319
watches 319
a31 318
headlight 318
olive 318
potter 318
wrench 318
3m 317
ah 317
hanger 317
meters 317
nokia 317
sk@@ 317
als 316
chi@@ 316
ite 316
mp 316
part 316
ur@@ 316
8plus 315
aerox 315
bal@@ 315
berry 315
cabinet 315
lo 315
magical 315
mo 315
sound 315
8gb 314
balance 314
highlighter 314
jacobs 314
smooth 314
TM 313
deodorant 313
ly@@ 313
malone 313
rush 313
wipes 313
y15 313
au@@ 312
ing@@ 312
banner 311
88 310
cups 310
deluxe 310
et 310
q 310
surgical 310
bell 309
dot 309
humidifier 309
masks 309
ant 308
comb 308
nose 308
rabbit 308
sm@@ 308
video 308
20ml 307
cat@@ 307
p9 307
04 306
aztec 306
coordinates 306
invitation 306
maternity 306
dots 305
hand@@ 305
pe 305
rc 305
satchel 305
sn@@ 305
ty@@ 305
fragrances 304
kyrie 304
neon 304
nova2i 304
ul@@ 304
cupcake 303
ella 303
bs 302
fl 302
length 302
modern 302
multifunctional 302
nyx 302
44 301
kipling 301
mp@@ 301
pambahay 301
photocard 301
thermal 301
deo 300
desktop 300
eyelash 300
puma 300
tab 300
180 299
blender 299
ir@@ 299
seed 299
superman 299
tic 299
watts 299
ws 299
xxl 299
85@@ 298
ashley 298
joy 298
qu@@ 298
wheels 298
120ml 297
gr@@ 297
ff@@ 296
fm 296
mold 296
par@@ 296
player 296
cooler 295
fitness 295
liter 295
ment 295
pockets 295
press 295
rash 295
sample 295
san@@ 295
curler 294
extract 294
g4 294
sunflower 294
underarm 294
05 293
1m 293
5in1 293
ba 293
br@@ 293
maker 293
monster 293
101 292
37@@ 292
av@@ 292
der@@ 292
friends 292
painting 292
g21 291
sunscreen 291
burch 290
club 290
comics 290
dangling 290
dy 290
gra@@ 290
james 290
very 290
5m 289
backless 289
hermes 289
lips 289
ordinary 289
panel 289
10g 288
anna 288
dior 288
english 288
lc 288
a10s 287
booster 287
bumper 287
che@@ 287
clips 287
custom 287
mark 287
pleated 287
resistant 287
ultimate 287
55 286
able 286
adults 286
bohemian 286
bralette 286
educational 286
fo@@ 286
giveaways 286
il@@ 286
lovely 286
sense 286
supplement 286
tan 286
bag@@ 285
can@@ 285
compact 285
sign 285
tin 285
wa@@ 285
click 284
dogs 284
fantasy 284
playstation 284
rattan 284
shade 284
ste@@ 284
swarovski 284
training 284
cal@@ 283
cooling 283
ha@@ 283
hose 283
monitor 283
removal 283
yo@@ 283
65@@ 282
dye 282
garlic 282
monkey 282
studio 282
200g 281
bt 281
building 281
chest 281
edp 281
forever21 281
gb 281
pod 281
sh 281
faux 280
nu@@ 280
smiggle 280
1080p 279
sock 279
bodysuit 278
breast 278
ct 278
dy@@ 278
hilfiger 278
300ml 277
bee 277
boost 277
lot 277
nails 277
paperback 277
rx 277
shades 277
valve 277
champion 276
messenger 276
mineral 276
rings 276
66@@ 275
bib 275
cube 275
flex 275
han@@ 275
handheld 275
har@@ 275
pressed 275
pressure 275
stylus 275
23@@ 274
65 274
four 274
knot 274
lin 274
see 274
spider 274
true 274
bio@@ 273
med 273
story 273
zero 273
ballpen 272
chicken 272
christian 272
sho@@ 272
20000mah 271
mixed 271
twin 271
fs 270
ker 270
perfumes 270
3xl 269
a35 269
ber@@ 269
bri@@ 269
hydrating 269
ings 269
ol@@ 269
002 268
95@@ 268
decals 268
hs 268
passport 268
shaped 268
sheer 268
trimmer 268
20pcs 267
39@@ 267
43 267
beautiful 267
fake 267
marble 267
pens 267
350 266
cooker 266
dash 266
hole 266
kiddie 266
kimono 266
leopard 266
lining 266
mer@@ 266
rhinestone 266
shi@@ 266
ky 265
legend 265
moisturizer 265
packs 265
screw 265
aa 264
fitted 264
organics 264
scented 264
seal 264
sleeved 264
slide 264
sofa 264
tokong 264
270 263
armour 263
bestseller 263
cami 263
charles 263
comfort 263
store 263
tissue 263
us@@ 263
1pcs 262
ator 262
cre@@ 262
ex 262
garterized 262
leg 262
raider 262
reversible 262
stars 262
xrm 262
a20s 261
business 261
era 261
fun 261
herschel 261
hybrid 261
london 261
sticky 261
theft 261
4x 260
camping 260
comfy 260
den@@ 260
exclusive 260
f11pro 260
mc@@ 260
pin@@ 260
relief 260
safe 260
step 260
vneck 260
300@@ 259
sunnies 259
the@@ 259
4gb 258
bento 258
coloring 258
detergent 258
diffuser 257
multicolor 257
p10 257
sided 257
supply 257
theme 257
cho@@ 256
ny 256
33@@ 255
ali@@ 255
hy@@ 255
learning 255
ps3 255
strip 255
stroller 255
tip 255
ang@@ 254
angle 254
bo 254
buttons 254
cutting 254
elle 254
gentle 254
hyundai 254
kay 254
ki 254
lever 254
oversized 254
printer 254
ster 254
sweatshirt 254
tela 254
alarm 253
blackpink 253
boutique 253
cctv 253
french 253
fur 253
parts 253
sam@@ 253
xperia 253
64@@ 252
bunny 252
di 252
ds@@ 252
faucet 252
indoor 252
mustard 252
philips 252
sl@@ 252
ze@@ 252
10000mah 251
a50s 251
actual 251
bat@@ 251
chic 251
cocktail 251
ng 251
144 250
46 250
beat 250
char@@ 250
colour 250
garter 250
men@@ 250
2014 249
geneva 249
honor 249
karaoke 249
slime 249
sublimation 249
sy@@ 249
tor@@ 249
tri 249
tupperware 249
vol 249
lin@@ 248
lingerie 248
manila 248
ne 248
peplum 248
rich 248
uni@@ 248
wristlet 248
ben@@ 247
gri@@ 247
heel 247
lte 247
macbook 247
matting 247
sleep 247
stay 247
c2 246
focus 246
included 246
last 246
lol 246
ti 246
anastasia 245
bosch 245
center 245
circle 245
cr@@ 245
sensor 245
95 244
con 244
flamingo 244
ous 244
rs 244
ruffled 244
sen@@ 244
suzuki 244
48@@ 243
cell 243
ck@@ 243
extreme 243
ie 243
merry 243
monopod 243
pen@@ 243
tshirts 243
wine 243
y7 243
99@@ 242
alpha 242
halloween 242
horse 242
marker 242
seventeen 242
47@@ 241
500@@ 241
ballet 241
laundry 241
mine 241
snapback 241
york 241
85 240
brightening 240
cy@@ 240
flo@@ 240
fold 240
mos 240
robot 240
season 240
sk 240
tra@@ 240
200@@ 239
ag 239
around 239
ct@@ 239
ear@@ 239
engine 239
es@@ 239
eyes 239
land 239
mixer 239
nissan 239
pp@@ 239
57@@ 238
adventure 238
ating 238
contour 238
cookie 238
cosrx 238
doctor 238
energy 238
ip@@ 238
pointed 238
pr@@ 238
ringer 238
ad 237
cetaphil 237
liliw 237
natasha 237
plains 237
skater 237
yu@@ 237
batch 236
carters 236
gar@@ 236
io 236
photocards 236
ribbed 236
tw@@ 236
y85 236
135 235
2012 235
2a 235
almond 235
av 235
flexible 235
hg 235
ns 235
sanitizer 235
saw 235
tom 235
44@@ 234
68 234
a30s 234
chips 234
feminine 234
healing 234
loop 234
resin 234
born 233
clinique 233
combination 233
mini@@ 233
res 233
spicy 233
spongebob 233
tattoo 233
versace 233
3g 232
bur@@ 232
fr@@ 232
straightener 232
y51 232
24pcs 231
250g 231
64 231
amazing 231
craft 231
horn 231
lion 231
m1 231
san 231
za 231
2nd 230
ard 230
bb@@ 230
blood 230
bre@@ 230
child 230
chili 230
em@@ 230
fossil 230
intense 230
ken 230
lightweight 230
mb@@ 230
skirts 230
sofia 230
surprise 230
07 229
98 229
bandai 229
is@@ 229
loot 229
mega 229
power@@ 229
ruffle 229
skin@@ 229
sparkle 229
taylor 229
water@@ 229
400ml 228
cooking 228
moly 228
tent 228
toilet 228
tony 228
400@@ 227
calamansi 227
coral 227
linen 227
v15pro 227
wa 227
x2 227
58@@ 226
66 226
ance 226
belle 226
buckle 226
hardcover 226
puppy 226
read 226
aid 225
cactus 225
cheese 225
hair@@ 225
j4plus 225
one@@ 225
underwire 225
verse 225
06 224
150@@ 224
bas@@ 224
birkenstock 224
bolt 224
cam@@ 224
eraser 224
ha 224
hearts 224
js 224
mas@@ 224
may 224
na@@ 224
ou@@ 224
sd@@ 224
syrup 224
track 224
west 224
52 223
corner 223
insert 223
ocean 223
penshoppe 223
ry 223
spot 223
ves 223
250@@ 222
ban@@ 222
fa@@ 222
ja@@ 222
ren@@ 222
ze 222
600 221
800@@ 221
ay@@ 221
ful 221
heroes 221
keith 221
peppa 221
right 221
soda 221
sticks 221
trolley 221
wh@@ 221
800 220
ah@@ 220
prelove 220
size@@ 220
spigen 220
too 220
y12 220
y91c 220
003 219
emblem 219
jag 219
k10 219
nine 219
pooh 219
she@@ 219
sole 219
y67 219
72 218
aging 218
cats 218
console 218
cookies 218
envelope 218
healthy 218
naked 218
omni 218
peanut 218
printing 218
well 218
3w 217
adaptor 217
assembly 217
eyeglass 217
m20 217
naturals 217
panties 217
paw 217
run 217
5l 216
blouses 216
chopper 216
embroidery 216
morning 216
star@@ 216
student 216
bloom 215
dell 215
grinder 215
kilo 215
m10 215
souvenirs 215
view 215
ware 215
wind 215
78@@ 214
animals 214
bershka 214
bleach 214
cur@@ 214
ley 214
mario 214
nut 214
slot 214
total 214
vegetable 214
ven@@ 214
washing 214
any 213
cacao 213
frosted 213
her@@ 213
mal@@ 213
tinted 213
barley 212
black@@ 212
bon@@ 212
elf 212
flawless 212
liters 212
luna 212
pl@@ 212
scents 212
08 211
42@@ 211
connector 211
don 211
dvr 211
ever 211
material 211
mor@@ 211
multifunction 211
post 211
without 211
6in1 210
78 210
dor@@ 210
ten 210
ts@@ 210
unlocked 210
warm 210
wool 210
crib 209
ding 209
gopro 209
mari@@ 209
panini 209
rgb 209
security 209
stove 209
sw@@ 209
work 209
85ml 208
advanced 208
cl@@ 208
gt 208
restock 208
sunblock 208
thai 208
700 207
armani 207
combi 207
detox 207
dome 207
finish 207
gen@@ 207
glitters 207
gsm 207
pri@@ 207
ro 207
sophie 207
spy 207
ten@@ 207
vo@@ 207
walker 207
5t 206
daisy 206
fitflop 206
gi 206
globe 206
ll 206
luminous 206
m2 206
teddy 206
this 206
51 205
97 205
bird 205
col@@ 205
cp 205
jujube 205
look 205
point 205
va 205
war 205
warranty 205
10m 204
chia 204
coil 204
fog 204
lip@@ 204
mam 204
bella 203
dishwashing 203
drawer 203
etc 203
gr5 203
in1 203
nano 203
smartphone 203
synthetic 203
team 203
110@@ 202
130 202
180@@ 202
30g 202
77@@ 202
airpods 202
capacity 202
kar@@ 202
label 202
nlighten 202
radiation 202
shark 202
tws 202
wo@@ 202
yugioh 202
125ml 201
54 201
and@@ 201
backcase 201
invisible 201
jeju 201
ry@@ 201
sniper 201
tmx 201
vit 201
win@@ 201
away 200
by@@ 200
deck 200
gamepad 200
ikea 200
jogging 200
kingdom 200
micro@@ 200
pour 200
skincerity 200
wi@@ 200
68@@ 199
cb@@ 199
clipper 199
creamy 199
ky@@ 199
park 199
spl 199
tiny 199
tower 199
tre@@ 199
tsum 199
120@@ 198
bel@@ 198
ble 198
flap 198
lash 198
mil@@ 198
op 198
pm 198
precious 198
vision 198
comforter 197
copy 197
ff 197
fox 197
g530 197
junior 197
jv 197
ken@@ 197
ms@@ 197
picture 197
45cm 196
airmax 196
argan 196
five 196
hammer 196
ku 196
monogram 196
pas@@ 196
red@@ 196
ride 196
stones 196
75ml 195
beaded 195
bearing 195
bit 195
bra@@ 195
elephant 195
f21 195
owl 195
v3 195
wing 195
000 194
09 194
49 194
ap 194
back@@ 194
bricks 194
dolls 194
insulated 194
ji@@ 194
lan@@ 194
league 194
miner 194
tawas 194
amplifier 193
aquarium 193
ash@@ 193
baby@@ 193
bio 193
bt@@ 193
condition 193
dr@@ 193
john 193
layered 193
lie 193
lily 193
pal@@ 193
patches 193
shaper 193
69 192
8pcs 192
benefit 192
cylinder 192
driver 192
eagle 192
mm@@ 192
sli@@ 192
topper 192
135g 191
56@@ 191
az@@ 191
dri@@ 191
dryer 191
ginger 191
intensive 191
milky 191
nipple 191
oven 191
sb 191
ser@@ 191
sewing 191
tin@@ 191
clinic 190
cordless 190
dre@@ 190
eyewear 190
ip 190
naruto 190
opener 190
shelf 190
shi 190
trial 190
valentino 190
2000 189
47 189
channel 189
compatible 189
earings 189
great 189
platinum 189
play@@ 189
triangle 189
weight 189
é 189
gallon 188
long@@ 188
truck 188
xt 188
activity 187
boxes 187
cro@@ 187
il 187
op@@ 187
plussize 187
ters 187
toddlers 187
71 186
96 186
aeropostale 186
cri@@ 186
feet 186
guide 186
kn95 186
lazy 186
nm 186
played 186
sp 186
tf 186
1pair 185
67@@ 185
alphabet 185
ans 185
bangles 185
ger 185
hd@@ 185
journal 185
kirkland 185
road 185
twist 185
30cm 184
600@@ 184
61 184
a1 184
clamp 184
cloud 184
god 184
luxe 184
multipurpose 184
notes 184
ol 184
paste 184
rosary 184
stocks 184
z1 184
3t 183
98@@ 183
bone 183
champ 183
different 183
drawing 183
homme 183
hoodies 183
lid 183
match 183
ni 183
streaming 183
tough 183
wings 183
wn 183
4k 182
63 182
built 182
bullet 182
cle@@ 182
cucumber 182
cy 182
fall 182
ies 182
sanrio 182
transfer 182
vehicle 182
wig 182
155 181
ata 181
cosplay 181
flops 181
free@@ 181
freebies 181
myphone 181
pajamas 181
shopping 181
spark 181
teeth 181
whole 181
2t 180
46@@ 180
ani@@ 180
hugo 180
jet 180
kawaii 180
ombre 180
sal@@ 180
sand@@ 180
1000ml 179
18inches 179
5c 179
autumn 179
bakuna 179
big@@ 179
boat 179
creme 179
feather 179
ger@@ 179
php@@ 179
piston 179
tan@@ 179
top@@ 179
v8 179
150g 178
4t 178
amour 178
bronze 178
color@@ 178
degree 178
eu 178
fix 178
fly 178
oval 178
pat@@ 178
patrol 178
pride 178
replaceable 178
revolution 178
santa 178
thrones 178
21@@ 177
77 177
a3@@ 177
ara 177
bbq 177
daiso 177
ded 177
elizabeth 177
emergency 177
fan@@ 177
file 177
generation 177
lab 177
layers 177
movie 177
noodles 177
slides 177
snack 177
sprocket 177
wal@@ 177
2pc 176
amber 176
ao@@ 176
ay 176
collectible 176
curry 176
fashion@@ 176
gr3 176
ica 176
jumbo 176
multi@@ 176
pets 176
ray 176
ua 176
62 175
m3 175
mer 175
pillowcase 175
sand 175
simply 175
smith 175
speedy 175
under@@ 175
zer 175
zi@@ 175
ash 174
dolce 174
dried 174
earbuds 174
handy 174
ita 174
max@@ 174
mechanical 174
overall 174
soup 174
tropical 174
tt@@ 174
x3 174
zing 174
79@@ 173
chi 173
drops 173
giant 173
hip 173
mild 173
straps 173
teen 173
through 173
a3 172
ampoule 172
assy 172
cl 172
compression 172
dar@@ 172
eye@@ 172
fun@@ 172
hydro@@ 172
keto 172
ness 172
pineapple 172
s2 172
seiko 172
2013 171
5v 171
calculator 171
description 171
don@@ 171
ele@@ 171
head@@ 171
ino 171
intel 171
ito 171
khaki 171
medical 171
mk@@ 171
output 171
pt 171
purifier 171
rom 171
royale 171
spf50 171
teal 171
things 171
via 171
virgin 171
advance 170
characters 170
curtains 170
diapers 170
ea@@ 170
fat 170
hiking 170
killer 170
left 170
melody 170
military 170
new@@ 170
pacifier 170
pedal 170
sachets 170
sc 170
shot 170
25pcs 169
corn 169
dis@@ 169
drying 169
mag@@ 169
nivea 169
pins 169
r17 169
walking 169
y66 169
yourself 169
2way 168
81 168
ders 168
dra@@ 168
everyday 168
level 168
midnight 168
philippines 168
quaff 168
reseller 168
ruffles 168
sky@@ 168
sti@@ 168
vit@@ 168
30pcs 167
500mg 167
bi 167
bling 167
burner 167
glam 167
mac@@ 167
numbers 167
oatmeal 167
toshiba 167
trainer 167
trending 167
105 166
9h 166
briefs 166
choice 166
disk 166
exercise 166
fre@@ 166
functional 166
hobbies 166
mb 166
omega 166
retractable 166
spiral 166
titanium 166
y62018 166
1x 165
8mm 165
beans 165
cap@@ 165
durable 165
gal@@ 165
ingco 165
jin 165
lan 165
lanyard 165
pilot 165
strechable 165
sur@@ 165
taiwan 165
test 165
tp 165
watermelon 165
aspire 164
blackhead 164
che 164
comic 164
drinking 164
maam 164
por@@ 164
prince 164
raider150 164
rectangular 164
stan 164
war@@ 164
x9 164
y11 164
53 163
boyleg 163
bro@@ 163
but 163
christening 163
designer 163
diary 163
effect 163
fab 163
frontrow 163
inverter 163
nat@@ 163
rl 163
rm 163
shiseido 163
swing 163
tactical 163
uno 163
up@@ 163
x1 163
y5 163
youth 163
220 162
6p 162
ax 162
bonnet 162
cole 162
collections 162
dozen 162
false 162
ine@@ 162
ker@@ 162
lift 162
mossimo 162
playboy 162
102 161
4d 161
aqu@@ 161
direct 161
gm 161
goggles 161
here 161
jan@@ 161
jasmine 161
knight 161
lighting 161
shea 161
unique 161
van@@ 161
wiper 161
zen@@ 161
11pro 160
1tb 160
bead 160
brassiere 160
calvin 160
its 160
mommy 160
napkin 160
never 160
nova2lite 160
place 160
pomade 160
strong 160
thermometer 160
triumph 160
ways 160
writing 160
006 159
3ply 159
7p 159
cc@@ 159
converter 159
doraemon 159
gre@@ 159
grid 159
jc 159
key@@ 159
madre 159
novel 159
saver 159
sec 159
uni 159
130@@ 158
anti@@ 158
bean 158
george 158
hardbound 158
ir 158
lime 158
mop 158
morphe 158
optical 158
peppermint 158
pg 158
powered 158
skechers 158
ye@@ 158
005 157
160@@ 157
20g 157
256gb 157
derma 157
eva 157
fer@@ 157
fuel 157
high@@ 157
j2pro 157
luffy 157
oo@@ 157
painted 157
paul 157
pepper 157
scissors 157
sesame 157
sl 157
spinner 157
twisted 157
004 156
5cm 156
ab 156
april 156
beachkin 156
fc 156
fendi 156
mc 156
mp3 156
nuts 156
prestige 156
remax 156
romantic 156
tion 156
trousers 156
waisted 156
008 155
58 155
aromatherapy 155
cast 155
crew 155
ent 155
fl@@ 155
foods 155
household 155
mj 155
nendoroid 155
pain 155
piyao 155
shimmer 155
sin@@ 155
strength 155
tro@@ 155
vanity 155
yu 155
baptismal 154
cli@@ 154
copper 154
disinfectant 154
drum 154
farm 154
figures 154
foaming 154
holiday 154
kettle 154
native 154
peripera 154
ports 154
scratch 154
stri@@ 154
vga 154
zed 154
zircon 154
1set 153
40ml 153
49@@ 153
6m 153
ach@@ 153
ai 153
aux 153
changing 153
gingersnaps 153
glutamansi 153
joy@@ 153
kill 153
lar@@ 153
latest 153
lowest 153
motors 153
mt 153
raw 153
reserved 153
140 152
300g 152
67 152
79 152
balls 152
beef 152
blue@@ 152
call 152
dear 152
doctors 152
gingham 152
ground 152
grower 152
heng 152
kai 152
mouth 152
our 152
pam@@ 152
tg 152
vibrator 152
wallets 152
xbox 152
2gb 151
activated 151
anchor 151
beverly 151
braided 151
df@@ 151
global 151
impact 151
j6plus 151
lon 151
makita 151
onepiece 151
rotating 151
roundneck 151
rubberized 151
shake 151
six 151
tt 151
unit 151
vios 151
wardrobe 151
43@@ 150
ep 150
epson 150
ethyl 150
han 150
hills 150
ian 150
instax 150
ja 150
manga 150
ok 150
snake 150
state 150
turmeric 150
witch 150
zz@@ 150
115 149
160 149
91 149
antibacterial 149
coated 149
elsa 149
month 149
musical 149
phones 149
pick 149
pilaten 149
pper 149
sink 149
softgels 149
sto@@ 149
tata 149
thor 149
59@@ 148
76@@ 148
bor@@ 148
date 148
ela 148
fern 148
flow 148
hanabishi 148
harness 148
hq 148
italian 148
mit@@ 148
nmd 148
repacked 148
210 147
accent 147
accessory 147
ak 147
attire 147
bat 147
c1 147
calendar 147
castor 147
international 147
lbc 147
len@@ 147
v5s 147
y6pro 147
yarn 147
09@@ 146
25ml 146
89 146
900 146
ari@@ 146
bay 146
blu@@ 146
candles 146
fe 146
fin@@ 146
hunter 146
leisure 146
nourishing 146
online 146
performance 146
projector 146
ram@@ 146
rise 146
si 146
sr@@ 146
tg@@ 146
vr 146
120g 145
3pc 145
450 145
89@@ 145
8p 145
chance 145
clo@@ 145
dw@@ 145
empty 145
fancy 145
friendly 145
gl@@ 145
hypoallergenic 145
keds 145
marine 145
ps@@ 145
ren 145
repriced 145
rod 145
skincare 145
smile 145
tar@@ 145
va@@ 145
wor@@ 145
57 144
82 144
ack 144
ada 144
catcher 144
cuff 144
fantech 144
frogsuit 144
hold 144
hollow 144
im 144
minifigure 144
mules 144
ning 144
reader 144
reno 144
sil@@ 144
tam@@ 144
trio 144
win 144
xi@@ 144
ass@@ 143
binder 143
boyfriend 143
carpet 143
dickies 143
evening 143
fusion 143
johnson 143
kw 143
munafie 143
over@@ 143
sam 143
scooter 143
shiny 143
silky 143
sol@@ 143
splash 143
spread 143
tat@@ 143
thermos 143
trading 143
uniform 143
x5@@ 143
y92019 143
yn 143
20cm 142
2g 142
a5@@ 142
cage 142
com@@ 142
ction 142
dead 142
folded 142
fx 142
grass 142
hobo 142
hw 142
lantern 142
min 142
miniature 142
module 142
nikon 142
pampers 142
v7plus 142
56 141
6splus 141
7a 141
83 141
ane 141
ano 141
ate@@ 141
bad 141
bedroom 141
bil@@ 141
closet 141
dv@@ 141
fortuner 141
geometric 141
lipo 141
lit@@ 141
los 141
memo 141
padlock 141
project 141
que 141
router 141
strapless 141
ur 141
700@@ 140
750 140
cm@@ 140
cs@@ 140
flavored 140
highquality 140
himalayan 140
hoop 140
jackets 140
justice 140
luck 140
moist 140
mtb 140
ok@@ 140
once 140
punch 140
superstar 140
topshop 140
train 140
uk 140
wd 140
xa1 140
000@@ 139
73 139
aircon 139
bioaqua 139
bomb 139
brass 139
bread 139
fisher 139
gg@@ 139
ini 139
lightstick 139
melon 139
ninja 139
parisian 139
pic@@ 139
pigment 139
renew 139
signal 139
spin 139
tz 139
168 138
240 138
bali 138
before 138
carb 138
ceiling 138
chronograph 138
eyelashes 138
gro@@ 138
gs@@ 138
latex 138
minimalist 138
mountain 138
mushroom 138
needs 138
oils 138
oshkosh 138
p30lite 138
screwdriver 138
sha@@ 138
shawl 138
sty@@ 138
thread 138
v17 138
zone 138
400g 137
ali 137
close 137
dinosaur 137
got7 137
intex 137
kat@@ 137
lac@@ 137
magazine 137
motion 137
multimedia 137
ointment 137
pk 137
plu@@ 137
ponytail 137
pp 137
sel@@ 137
solo 137
throw 137
76 136
abs 136
case@@ 136
cutie 136
earth 136
elbow 136
giveaway 136
iphonex 136
levi 136
mol@@ 136
oh 136
ses 136
shift 136
snoopy 136
vin@@ 136
52@@ 135
artificial 135
boo@@ 135
brushes 135
bul@@ 135
civic 135
db@@ 135
detachable 135
donut 135
isuzu 135
other 135
palm 135
penguin 135
razor 135
scoop 135
split 135
tour 135
unsealed 135
walk 135
watercolor 135
90ml 134
ations 134
brother 134
chu@@ 134
des 134
duck 134
dw 134
faith 134
footwear 134
gradient 134
jr 134
map 134
outlet 134
platform 134
skull 134
tier 134
ure 134
zebra 134
10mm 133
2008 133
canvass 133
cer@@ 133
dollshoes 133
kidston 133
mic@@ 133
mx 133
salon 133
second 133
sed 133
tags 133
ties 133
v1 133
12m 132
2011 132
86 132
ariel 132
blk 132
blower 132
breaker 132
cha 132
charlotte 132
ci 132
exfoliating 132
express 132
fleece 132
gifts 132
gp 132
lon@@ 132
lp 132
ors 132
rub 132
swiss 132
ut 132
von 132
zodiac 132
15g 131
220@@ 131
3ds 131
ages 131
badge 131
banpresto 131
dan@@ 131
et@@ 131
external 131
ey@@ 131
gin@@ 131
ics 131
initial 131
miners 131
p8 131
perry 131
pping 131
rai@@ 131
son@@ 131
treats 131
tur@@ 131
2x 130
6a 130
9oz 130
adi@@ 130
anniversary 130
arts 130
bc 130
blooming 130
cel@@ 130
cla@@ 130
daniel 130
dynamic 130
fu 130
gabbana 130
huggies 130
hush 130
inside 130
lettuce 130
lia 130
md@@ 130
mono 130
ola 130
olay 130
pullout 130
ryxskincerity 130
steamer 130
tiffany 130
val@@ 130
1box 129
1pack 129
350ml 129
3a 129
amp 129
boston 129
chunky 129
convertible 129
couture 129
ery 129
flowy 129
innova 129
insect 129
letters 129
low@@ 129
minions 129
mur@@ 129
radiator 129
sailor 129
saint 129
specs 129
ssd 129
swift 129
zu@@ 129
ary 128
beatle 128
blo@@ 128
breastfeeding 128
ches 128
gt@@ 128
jam 128
jump 128
kd 128
kid@@ 128
king@@ 128
las@@ 128
lotus 128
ming 128
permanent 128
plan@@ 128
powdered 128
receiver 128
scar 128
sunny 128
tas@@ 128
tes 128
warmer 128
yi 128
zo@@ 128
59 127
cart 127
cartier 127
dress@@ 127
em 127
fla@@ 127
fluid 127
fondant 127
island 127
kie 127
meat 127
montero 127
plates 127
pots 127
rider 127
05@@ 126
1liter 126
7pcs 126
ae@@ 126
aldo 126
better 126
complex 126
curl 126
dance 126
embossed 126
freshener 126
fro@@ 126
fujifilm 126
fy 126
ghz 126
kim 126
loss 126
mcm 126
ore 126
police 126
poloshirt 126
reading 126
sized 126
sonic 126
sprayer 126
station 126
tennis 126
transcend 126
transformers 126
wolf 126
wrangler 126
antenna 125
ats 125
aurora 125
baofeng 125
cath 125
cj 125
eli@@ 125
emoji 125
feel 125
herb 125
k7 125
klairs 125
kraft 125
lay 125
lene 125
loreal 125
ml@@ 125
people 125
some 125
sta 125
str@@ 125
that 125
thrifted 125
titan 125
volcanic 125
winnie 125
ya@@ 125
170@@ 124
2m 124
69@@ 124
ail 124
ama 124
carry 124
chef 124
eb 124
enhancer 124
fruits 124
hawk 124
hb@@ 124
juicer 124
kia 124
kisses 124
marie 124
ner@@ 124
py@@ 124
sf@@ 124
stop 124
strips 124
takal 124
turtleneck 124
van 124
venus 124
vp 124
what 124
wr@@ 124
wyi 124
230 123
350@@ 123
3n1 123
5kg 123
autolight 123
bars 123
bestway 123
break 123
c3 123
colo@@ 123
gildan 123
gourmet 123
hb 123
ju 123
ot 123
panasonic 123
piano 123
ramen 123
ron 123
sampler 123
skort 123
smocked 123
sparkling 123
steering 123
strappy 123
tarte 123
tec 123
transformer 123
wheat 123
y19 123
304 122
54@@ 122
ale 122
ati@@ 122
beautederm 122
best@@ 122
davis 122
ears 122
ferrari 122
gold@@ 122
hidden 122
hyaluronic 122
iii 122
kh@@ 122
ments 122
mud 122
nct 122
north 122
ona 122
photo@@ 122
plum 122
preorder 122
rick 122
sch@@ 122
science 122
skinfood 122
studded 122
tb 122
teether 122
toms 122
valentine 122
white@@ 122
wrinkle 122
80g 121
a40 121
a72018 121
bouquet 121
celebrity 121
cha@@ 121
david 121
den 121
nestle 121
nillkin 121
plushie 121
race 121
ser 121
sharpener 121
ssa 121
tm 121
yunteng 121
08@@ 120
2n1 120
3rd 120
4wd 120
82@@ 120
87@@ 120
absorbent 120
aroma 120
device 120
form 120
jazz 120
joni 120
ll@@ 120
may@@ 120
mousse 120
noir 120
pur@@ 120
sensual 120
sing 120
sodium 120
trouser 120
vertical 120
wanna 120
yard 120
123 119
280 119
3s 119
750ml 119
add 119
arrow 119
ates 119
bond 119
comp@@ 119
del@@ 119
ee@@ 119
faced 119
icon 119
ji 119
joystick 119
lbs 119
loafers 119
nia 119
nutri@@ 119
pop@@ 119
rejuvinating 119
rescue 119
sensitive 119
smoke 119
spice 119
squishy 119
tires 119
trim 119
welding 119
a60 118
acoustic 118
arbutin 118
barako 118
bf 118
bombshell 118
bracelets 118
caramel 118
crazy 118
cru@@ 118
dd@@ 118
defense 118
gb@@ 118
ignition 118
industrial 118
kin@@ 118
lam@@ 118
mama 118
mel@@ 118
nor@@ 118
onyx 118
retail 118
sale@@ 118
sol 118
tal@@ 118
tokyo 118
trench 118
tub 118
upper 118
wattpad 118
yl 118
zh 118
000mah 117
19v 117
2005 117
3000 117
40g 117
74 117
ado 117
ala 117
beer 117
bob 117
calming 117
future 117
gn@@ 117
gy@@ 117
hal@@ 117
hol@@ 117
jeggings 117
jesus 117
lakers 117
maria 117
mia 117
mtp 117
nu 117
ny@@ 117
racer 117
suction 117
surf 117
themed 117
tr 117
ysl 117
103 116
2l 116
90g 116
artwork 116
bn 116
bomber 116
bug 116
cdi 116
cf@@ 116
decorative 116
diesel 116
equipment 116
feng 116
flakes 116
ft@@ 116
j710 116
kw@@ 116
lic 116
milktea 116
mono@@ 116
placenta 116
refrigerator 116
rest 116
shopkins 116
squ@@ 116
styling 116
tex 116
tints 116
twinkle 116
un 116
wit@@ 116
y75 116
007 115
3ml 115
aro@@ 115
auto@@ 115
baymax 115
beltbag 115
bha 115
dz 115
goku 115
isopropyl 115
maintenance 115
manicure 115
off@@ 115
pole 115
polyester 115
regulator 115
scato 115
soaps 115
soft@@ 115
stamps 115
tc 115
warriors 115
yang 115
1000@@ 114
5x@@ 114
bridal 114
bryant 114
bun@@ 114
cb 114
chibi 114
dangle 114
guaranteed 114
holes 114
indian 114
inter@@ 114
ipaky 114
jin@@ 114
jj@@ 114
ltb 114
making 114
molder 114
pie 114
saving 114
setting 114
shir@@ 114
stre@@ 114
stu@@ 114
x10 114
x4 114
y79 114
yes 114
170 113
2009 113
87 113
94 113
a7@@ 113
blusher 113
bp 113
burst 113
covers 113
cow 113
designed 113
diecast 113
drone 113
gang 113
grow 113
hem 113
hollister 113
huda 113
ins@@ 113
juicy 113
mattress 113
md 113
mode 113
nova5t 113
omnia 113
own 113
pinky 113
potato 113
rain@@ 113
rompers 113
rust 113
shaver 113
stress 113
sunshine 113
t1 113
tran@@ 113
unlock 113
vent 113
y5ii 113
63@@ 112
880@@ 112
97@@ 112
aveeno 112
bands 112
bbw 112
bk 112
buds 112
cit@@ 112
clu@@ 112
deer 112
dessert 112
doormat 112
i5 112
ironman 112
jane 112
kan@@ 112
kin 112
mags 112
mai@@ 112
menow 112
nb 112
piggy 112
pit@@ 112
playing 112
please 112
quad 112
roasted 112
ruby 112
rushguard 112
seduction 112
stage 112
storm 112
xy 112
a80 111
ach 111
ami@@ 111
ani 111
citrus 111
cker 111
customize 111
deli@@ 111
euc 111
femme 111
forest 111
fully 111
funny 111
hen@@ 111
iphone6 111
kes 111
las 111
lashes 111
lost 111
marks 111
miniso 111
nel 111
operated 111
plants 111
reflective 111
release 111
sata 111
smash 111
stream 111
terranova 111
tide 111
ton@@ 111
vial 111
zinc 111
0 110
009 110
106 110
360@@ 110
4xl 110
balenciaga 110
chip 110
choose 110
cks 110
cou@@ 110
crepe 110
dia 110
divided 110
dkny 110
ever@@ 110
fighter 110
floater 110
france 110
garnish 110
glo@@ 110
keys 110
kidswear 110
kingston 110
leash 110
quilted 110
repellent 110
stephen 110
trash 110
tte 110
will 110
y6ii 110
111 109
320 109
96@@ 109
buttoned 109
cinderella 109
dental 109
euro 109
filler 109
hazel 109
hel@@ 109
hor@@ 109
hulk 109
ie@@ 109
kal@@ 109
keimav 109
kelly 109
lt 109
oreal 109
p1 109
pulley 109
rouge 109
slacks 109
toycastle3 109
varsity 109
vinegar 109
washer 109
25g 108
428 108
aero@@ 108
ascorbate 108
ces 108
cher 108
concentrate 108
correction 108
drain 108
driving 108
evo 108
folder 108
gd 108
jigsaw 108
kawasaki 108
lil 108
market 108
measuring 108
note8 108
out@@ 108
pizza 108
poly@@ 108
prepaid 108
rectangle 108
rj 108
sage 108
sha 108
south 108
squarepants 108
ster@@ 108
temp@@ 108
tl 108
tonymoly 108
wand 108
010 107
02@@ 107
18m 107
220v 107
501 107
abstract 107
ade 107
after 107
bale 107
ban 107
bangladesh 107
blank 107
bolts 107
brooch 107
burn 107
buy1take1 107
california 107
capri 107
cocoa 107
decay 107
details 107
df 107
diet 107
girdle 107
goddess 107
goo@@ 107
lipcream 107
love@@ 107
matt 107
mr@@ 107
mto 107
mx@@ 107
oral 107
oxford 107
seven 107
steam 107
tai@@ 107
wel@@ 107
y6pro2019 107
113 106
180ml 106
2007 106
8oz 106
a2 106
aaa 106
about 106
bs@@ 106
combined 106
cutlery 106
dam@@ 106
dildo 106
evil 106
fidget 106
firefly 106
flyknit 106
grab 106
hotel 106
kat 106
kevin 106
kri@@ 106
lang 106
load 106
pant 106
pj 106
sar@@ 106
shimano 106
stem 106
swan 106
thong 106
universe 106
wave125 106
xx@@ 106
yeezy 106
108 105
127 105
330 105
4oz 105
888 105
93 105
a79 105
cab@@ 105
compartment 105
cookware 105
discount 105
ering 105
eu@@ 105
european 105
extender 105
fil@@ 105
flag 105
fur@@ 105
green@@ 105
heads 105
io@@ 105
levis 105
petite 105
samyang 105
sanitary 105
shoppe 105
sjcam 105
stent 105
absorber 104
ami 104
aw@@ 104
bang 104
bit@@ 104
canadian 104
collapsible 104
dai@@ 104
fender 104
flour 104
gem 104
gg 104
network 104
pimple 104
pl 104
pls 104
popular 104
precision 104
protein 104
seasoning 104
sion 104
slicer 104
spe@@ 104
surface 104
to1 104
windproof 104
y91i 104
ye 104
zy 104
175 103
188 103
6mm 103
9t 103
abc 103
castle 103
chuck 103
corset 103
count 103
coverage 103
cross@@ 103
detail 103
ec@@ 103
excellent 103
final 103
flask 103
gps 103
grape 103
hooks 103
joe 103
kt 103
lets 103
lux 103
mass 103
matic 103
mazda 103
medicine 103
om@@ 103
r1 103
removable 103
starry 103
tips 103
touchscreen 103
united 103
zoo 103
1g 102
2006 102
2010 102
6x 102
ander 102
ath@@ 102
bac@@ 102
booties 102
chloe 102
crafts 102
eos 102
espadrille 102
freeship 102
growth 102
heeled 102
holika 102
hot@@ 102
i7 102
laminating 102
lipsticks 102
loafer 102
local 102
longback 102
lyn 102
mt@@ 102
mugs 102
oxygen 102
puritan 102
rejuv 102
rer 102
sharp 102
shui 102
stanley 102
superhero 102
trunk 102
turbo 102
value 102
vitamins 102
whip 102
zen 102
118 101
2kg 101
72@@ 101
74@@ 101
ace@@ 101
amethyst 101
athletic 101
bandage 101
beyblade 101
care@@ 101
citronella 101
cpu 101
derm 101
dota 101
dp 101
fri@@ 101
friend 101
hands 101
herbs 101
hotwheels 101
infrared 101
micromatic 101
mn@@ 101
ner 101
pi 101
pillows 101
postcard 101
pr 101
pul@@ 101
show 101
tab@@ 101
vel@@ 101
vic@@ 101
vo 101
107 100
8in1 100
af@@ 100
ann 100
aw 100
beast 100
brazilian 100
buy1 100
clover 100
dd 100
decorations 100
delight 100
earing 100
felt 100
flu@@ 100
foot@@ 100
gam@@ 100
grace 100
mir@@ 100
pearls 100
safari 100
sub@@ 100
sync 100
tingi 100
ved 100
201 99
2mm 99
53@@ 99
650 99
alice 99
ane@@ 99
arden 99
belly 99
ble@@ 99
calcium 99
gd@@ 99
glu@@ 99
ino@@ 99
iu 99
keep 99
keeper 99
kyowa 99
lenses 99
originals 99
pho@@ 99
sco@@ 99
sen 99
sg 99
shing 99
skid 99
smok 99
tick 99
tit@@ 99
tulle 99
1ml 98
5w 98
5x 98
7ml 98
aidelai 98
anklet 98
bandana 98
cafe 98
cannon 98
cd@@ 98
day@@ 98
effective 98
gasket 98
glittery 98
gram 98
hershey 98
hop 98
huarache 98
hyper 98
k1 98
km 98
kong 98
lightening 98
lover 98
macaron 98
nutrition 98
olivia 98
pencils 98
pla@@ 98
pure@@ 98
rac@@ 98
rat 98
revlon 98
runner 98
sor@@ 98
spf@@ 98
tiktok 98
tru@@ 98
und 98
wat@@ 98
width 98
380 97
3l 97
450@@ 97
550 97
app@@ 97
ashi 97
bm@@ 97
brick 97
cameras 97
colourette 97
crayon 97
damage 97
fa 97
feeder 97
giordano 97
gladiator 97
handkerchief 97
hipster 97
home@@ 97
ines 97
lc@@ 97
leg@@ 97
ltp 97
many 97
minion 97
mothercare 97
pia 97
picks 97
polymer 97
rock@@ 97
takara 97
thomas 97
tooth 97
ving 97
xi 97
16oz 96
230@@ 96
abaca 96
ale@@ 96
allen 96
avail 96
birth 96
bite 96
bride 96
curved 96
d3 96
dashboard 96
dip 96
esprit 96
firming 96
flor@@ 96
give 96
grain 96
have 96
incense 96
ivory 96
joker 96
jy 96
katerina 96
ks@@ 96
laguna 96
lette 96
lippie 96
lootbag 96
mod 96
mystery 96
secrets 96
she 96
ssy 96
sushi 96
vapor 96
vary 96
yam@@ 96
190 95
199 95
9g 95
alma 95
amulet 95
aura 95
aya 95
backpacks 95
bookmark 95
cadbury 95
china 95
circular 95
cp@@ 95
ctor 95
cul@@ 95
dad 95
ell 95
expert 95
fishing 95
got 95
laminated 95
len 95
lines 95
magenta 95
martin 95
materials 95
modular 95
ora 95
panther 95
pikachu 95
rim 95
sb@@ 95
sig@@ 95
speakers 95
squeeze 95
stories 95
tracker 95
trap 95
vy 95
wi 95
128 94
3mm 94
3yrs 94
60cm 94
ae 94
alex 94
approved 94
atomizer 94
bilena 94
buttondown 94
ching 94
chocolates 94
crocodile 94
diva 94
eat 94
emulsion 94
engineering 94
eyelet 94
fiction 94
fit@@ 94
fury 94
giorgio 94
gum 94
hifi 94
j5prime 94
kn@@ 94
kon@@ 94
laced 94
mirage 94
pages 94
peeler 94
ppe 94
pumps 94
que@@ 94
recorder 94
rose@@ 94
skydrive 94
sword 94
tomy 94
topsider 94
tu 94
wan 94
worth 94
5000 93
aesthetic 93
ao 93
australia 93
caliper 93
casing 93
champagne 93
cnc 93
cone 93
dro@@ 93
els 93
glittered 93
gp@@ 93
groceries 93
he 93
hex 93
ink@@ 93
intelligent 93
invoice 93
ipanema 93
ition 93
jojo 93
kay@@ 93
mocha 93
mu 93
om 93
pb 93
ranger 93
rio 93
rocker 93
row 93
save 93
tap 93
ther@@ 93
tos 93
turquoise 93
ura 93
whistle 93
y67v5s 93
07@@ 92
10w 92
201@@ 92
205 92
a73 92
alkaline 92
amy 92
apron 92
bnwt 92
body@@ 92
collared 92
criss 92
deco 92
dies 92
dining 92
flight 92
flop 92
fluffy 92
fountain 92
gummy 92
hawaiian 92
hdd 92
headbands 92
hydro 92
id@@ 92
jean 92
jenna 92
koko 92
lay@@ 92
life@@ 92
neo@@ 92
petal 92
recipe 92
set@@ 92
sof@@ 92
starwars 92
subwoofer 92
tomica 92
utility 92
104 91
1s 91
2003 91
212 91
25cm 91
4mm 91
80ml 91
900@@ 91
academia 91
bathing 91
birthstone 91
candies 91
cereal 91
cortez 91
ct100 91
cu 91
dustbag 91
ea 91
faded 91
fal@@ 91
fee 91
gauge 91
hats 91
heist 91
ical 91
ix@@ 91
jumpshorts 91
kai@@ 91
kit@@ 91
mam@@ 91
matcha 91
multivitamins 91
np@@ 91
ori@@ 91
philippine 91
quicksand 91
shaker 91
shoulders 91
soy 91
spencer 91
suitcase 91
talkie 91
ther 91
tle 91
torch 91
ultrasonic 91
140@@ 90
240@@ 90
365 90
airplane 90
ally 90
artist 90
b0@@ 90
basics 90
boy@@ 90
credit 90
crush 90
dal@@ 90
fubu 90
infinix 90
irving 90
kenneth 90
lifting 90
mamba 90
mhz 90
mighty 90
mimi 90
neutrogena 90
organix 90
paper@@ 90
penis 90
pet@@ 90
sequins 90
shop@@ 90
stix 90
study 90
take1 90
tolsen 90
vault 90
voice 90
vol@@ 90
weighing 90
yan 90
1200 89
530 89
600ml 89
60g 89
amore 89
arti@@ 89
b2 89
bla@@ 89
bremod 89
bundles 89
cos@@ 89
dainty 89
effects 89
emerald 89
field 89
fridge 89
hard@@ 89
iphone5 89
ix 89
list 89
logitech 89
lv@@ 89
metro 89
moringa 89
mousepad 89
need 89
pap@@ 89
passion 89
patent 89
poly 89
pond 89
romance 89
ron@@ 89
saem 89
sle@@ 89
stabilizer 89
tales 89
techniques 89
ture 89
who 89
wow 89
1200@@ 88
24m 88
2ml 88
agate 88
ari 88
ase 88
ato 88
beard 88
change 88
cheap 88
colgate 88
couples 88
cubic 88
curling 88
dashcam 88
db 88
del 88
dubai 88
ee 88
electro@@ 88
ena 88
ez 88
freeshipping 88
frog 88
gorgeous 88
hairpin 88
hilux 88
ideapad 88
kor@@ 88
lacey 88
loo@@ 88
lubricant 88
mes 88
message 88
mid@@ 88
mnl 88
next 88
piping 88
ppy 88
psp 88
purposes 88
realme3 88
ree 88
reebok 88
roses 88
rotary 88
sarah 88
sn 88
standee 88
studs 88
sunglass 88
surplus 88
tuff 88
vie 88
walkie 88
workout 88
yt 88
125@@ 87
50mm 87
84@@ 87
ack@@ 87
art@@ 87
axle 87
beetle 87
ben 87
bought 87
brilliance 87
butt 87
cee 87
davidoff 87
early 87
ere 87
est@@ 87
fd 87
g1 87
greetings 87
grooming 87
handbags 87
ho 87
hongkong 87
hope 87
infinite 87
mj@@ 87
mse 87
msi 87
muffler 87
multiple 87
pear 87
pic 87
pioneer 87
puregold 87
raglan 87
rat@@ 87
record 87
rep@@ 87
sab@@ 87
samurai 87
sav@@ 87
scen@@ 87
slots 87
strike 87
succulent 87
supplier 87
temperature 87
twin@@ 87
twinning 87
vaseline 87
vers 87
x6 87
112 86
12oz 86
30m 86
4ml 86
aj@@ 86
babe 86
beanie 86
bentonite 86
buddha 86
cer 86
clarifying 86
company 86
corporate 86
crayola 86
creations 86
disruptor 86
eco@@ 86
eng@@ 86
engagement 86
far@@ 86
fingerprint 86
gon 86
hon@@ 86
ht 86
induction 86
isa 86
k20 86
lancome 86
liners 86
lipbalm 86
lithium 86
mattel 86
mon 86
nest 86
nic 86
patrick 86
pliers 86
premiere 86
propolis 86
rastaclat 86
robe 86
same 86
samsonite 86
scar@@ 86
sephora 86
sie 86
sj@@ 86
soil 86
spf30 86
sz 86
toiletry 86
tummy 86
ung 86
vip 86
wang 86
xo 86
xrm110 86
y7pro 86
yards 86
16inches 85
18650 85
31@@ 85
555 85
86@@ 85
andrea 85
asstd 85
ato@@ 85
bay@@ 85
bin 85
coinpurse 85
crissa 85
d2 85
dji 85
ev@@ 85
fire@@ 85
flora 85
fol@@ 85
furniture 85
ghost 85
glare 85
glas@@ 85
ikon 85
inst@@ 85
kick 85
kur@@ 85
lacquer 85
law 85
lies 85
lov@@ 85
mounted 85
nan@@ 85
nars 85
noise 85
onitsuka 85
pang 85
persona 85
pliage 85
rg 85
riding 85
rpm 85
salted 85
senior 85
shortsleeve 85
spacer 85
stray 85
sunset 85
tankini 85
tapes 85
tina 85
tommee 85
trd 85
workbook 85
yasen 85
yoobao 85
013 84
3mg 84
8x 84
ative 84
bir@@ 84
bn@@ 84
chan@@ 84
chen 84
cider 84
dancing 84
dark@@ 84
dotted 84
ferragamo 84
flat@@ 84
gat@@ 84
ght 84
givenchy 84
gtx 84
gy 84
his 84
hoody 84
hydration 84
lava 84
liveselling 84
lt@@ 84
lululemon 84
mcqueen 84
meal 84
monokini 84
moto 84
ob@@ 84
onion 84
oreo 84
ple@@ 84
purifying 84
rh@@ 84
salmon 84
skool 84
slightly 84
splitter 84
swaddle 84
tabs 84
tai 84
tippee 84
tm@@ 84
tta 84
v2s 84
vampire 84
whit@@ 84
wish 84
118@@ 83
165 83
2002 83
260@@ 83
4th 83
9m 83
a750 83
animation 83
arc 83
bosny 83
cola 83
concentrated 83
downy 83
e5 83
expandable 83
fran@@ 83
freebie 83
fries 83
gil@@ 83
hm 83
iphone7 83
ite@@ 83
j730 83
jen@@ 83
jk 83
jmaxx 83
joint 83
kasoy 83
keychains 83
lb 83
lipgloss 83
math 83
mga 83
mittens 83
mn 83
non@@ 83
np 83
page 83
poncho 83
r17pro 83
range 83
rd 83
rel@@ 83
rolls 83
rotate 83
seen 83
sleek 83
sta@@ 83
stabilo 83
sub 83
sunday 83
today 83
vegan 83
xtreme 83
011 82
012 82
2004 82
303 82
8l 82
a92020 82
alive 82
alo@@ 82
avocado 82
chassis 82
cher@@ 82
clas@@ 82
concert 82
demon 82
dutch 82
extended 82
face@@ 82
find 82
gan 82
gf 82
gmate 82
gummies 82
if 82
lancer 82
lm 82
lou@@ 82
microwave 82
mik@@ 82
minis 82
mixes 82
noodle 82
phoenix 82
planet 82
ri 82
roo@@ 82
seaweed 82
spell 82
std 82
tang@@ 82
tell 82
tou@@ 82
uc 82
ven 82
wall@@ 82
work@@ 82
00mah 81
06@@ 81
168@@ 81
40pcs 81
alu@@ 81
amd 81
arrivals 81
astro 81
bargain 81
bows 81
bronzer 81
bulk 81
canister 81
chalk 81
chamomile 81
chopping 81
cock 81
collector 81
crayons 81
dan 81
duster 81
elmo 81
fra@@ 81
garcinia 81
group 81
hbw 81
hight 81
ideal 81
illa 81
int 81
ire 81
kikay 81
liz 81
lotte 81
mart 81
meet 81
minifigures 81
ners 81
note9 81
opti@@ 81
ov@@ 81
processor 81
relay 81
runway 81
sealer 81
service 81
slider 81
tap@@ 81
tights 81
town 81
trans@@ 81
vibe 81
wealth 81
wl 81
xx 81
yr 81
03@@ 80
12ml 80
190@@ 80
2s 80
5oz 80
9a 80
a0@@ 80
a8@@ 80
abercrombie 80
aki 80
angel@@ 80
apex 80
arctic 80
badminton 80
balancing 80
blind 80
certified 80
chan 80
chic@@ 80
collectibles 80
com 80
cycle 80
ddr4 80
dur@@ 80
dx 80
ek 80
fas@@ 80
fix@@ 80
fortune 80
fruity 80
frying 80
full@@ 80
gemstone 80
hat@@ 80
housing 80
inc 80
j82018 80
jer@@ 80
jj 80
june 80
katespade 80
keypad 80
lar 80
mats 80
octopus 80
odor 80
pack@@ 80
packed 80
paco 80
pn 80
rca 80
reborn 80
rugged 80
scissor 80
shutter 80
stamping 80
stranger 80
tac@@ 80
tra 80
traveling 80
try 80
tti 80
vibrating 80
victorias 80
wick 80
320@@ 79
8yrs 79
a77 79
artifact 79
banila 79
battle 79
beau@@ 79
bedding 79
bedsheets 79
blessed 79
blueberry 79
bradshaw 79
brushed 79
celine 79
chill 79
cia 79
crisscross 79
dent 79
devil 79
dew 79
ens 79
garnier 79
hamster 79
height 79
kabuki 79
kno@@ 79
magnesium 79
mei 79
mill 79
moana 79
motor@@ 79
negative 79
pigeon 79
poreless 79
punk 79
raspberry 79
rouser 79
sales 79
sour 79
stra@@ 79
strainer 79
textured 79
than 79
windows 79
xy@@ 79
zi 79
112@@ 78
2001 78
210@@ 78
301 78
40mm 78
999 78
airbag 78
angels 78
beyond 78
bf@@ 78
blan@@ 78
blanc 78
book@@ 78
boom 78
breeze 78
build 78
claw 78
cob 78
construction 78
electrical 78
fab@@ 78
flash@@ 78
fr 78
hikvision 78
ik@@ 78
ila 78
iz 78
j7@@ 78
jl 78
kers 78
live@@ 78
measure 78
paperbag 78
picnic 78
r3 78
radiance 78
ran@@ 78
rapid 78
rebranding 78
rolling 78
s7@@ 78
sau@@ 78
say 78
sia 78
smiley 78
sr 78
terry 78
thank 78
tylex 78
undies 78
vi 78
yogurt 78
2yrs 77
720 77
ast 77
benetton 77
bong 77
bu 77
bull 77
cape 77
chicco 77
cin@@ 77
dc@@ 77
dol@@ 77
dreams 77
duffle 77
ec 77
element 77
gadget 77
gas@@ 77
good@@ 77
highcut 77
hotpot 77
i9@@ 77
incanto 77
liqu@@ 77
malunggay 77
mansi 77
mind 77
mylar 77
orders 77
ow@@ 77
p20lite 77
pd 77
pomegranate 77
prepacked 77
prote@@ 77
pubg 77
pumpkin 77
qui@@ 77
roxy 77
ruler 77
scallop 77
sell 77
superbreak 77
swim@@ 77
tn 77
trilogy 77
unisilver 77
ups 77
vc 77
volts 77
word 77
z3 77
100m 76
280@@ 76
310 76
35ml 76
73@@ 76
7s 76
8m 76
above 76
aero 76
aj 76
alexa 76
alvin 76
anda 76
asia 76
ature 76
barong 76
batik 76
berries 76
box@@ 76
brows 76
c6 76
cal 76
corolla 76
cr 76
creed 76
fac@@ 76
filipino 76
flavors 76
fle@@ 76
football 76
fuchsia 76
gelpen 76
glossier 76
golf 76
gu 76
hijab 76
inhaler 76
injoy 76
ipad@@ 76
iphone@@ 76
issue 76
ized 76
j510 76
kk@@ 76
lauder 76
log 76
matching 76
mpo 76
nerf 76
normal 76
ong@@ 76
paradise 76
person 76
puncher 76
refreshing 76
rilakkuma 76
sin 76
spyder 76
steps 76
stretchy 76
su 76
suitable 76
sutla 76
throttle 76
trac@@ 76
various 76
vietnam 76
wafer 76
wigo 76
xt@@ 76
advantage 75
ala@@ 75
alex@@ 75
au 75
ava 75
barbecue 75
bg@@ 75
bibs 75
bites 75
bon 75
bp@@ 75
ced 75
cmx@@ 75
combat 75
court 75
cq@@ 75
dex 75
droplets 75
est 75
exp 75
flyball 75
gc 75
gli@@ 75
hardcase 75
hp@@ 75
jy@@ 75
kb@@ 75
ls@@ 75
m5 75
marian 75
mixing 75
musk 75
nb@@ 75
ney 75
ns@@ 75
obsession 75
ottogi 75
pad@@ 75
passenger 75
playset 75
radiant 75
receipt 75
safeguard 75
stein 75
sterilizer 75
t3 75
text 75
tine 75
tis 75
towels 75
tp@@ 75
vt 75
wan@@ 75
x5 75
y9prime 75
117 74
15w 74
750@@ 74
7mm 74
94@@ 74
alphabounce 74
alva 74
ax@@ 74
blonde 74
carolina 74
cra@@ 74
crispy 74
das 74
decant 74
dh@@ 74
ekel 74
ence 74
eve 74
f3plus 74
footrest 74
griller 74
halo 74
hiace 74
hill 74
honeycomb 74
hoops 74
jump@@ 74
kits 74
lean 74
media 74
mi9 74
navarro 74
needle 74
perfecting 74
pirate 74
polarized 74
pouches 74
rr 74
saddle 74
salvatore 74
sel 74
shaft 74
shifter 74
sketch 74
stockings 74
stool 74
timer 74
travelling 74
trigger 74
tuna 74
uv@@ 74
variant 74
velcro 74
virus 74
wil@@ 74
zzy 74
12mos 73
12pairs 73
330@@ 73
4l 73
5th 73
601 73
801 73
83@@ 73
8ml 73
8x@@ 73
act 73
always 73
bacterial 73
bea@@ 73
blemish 73
bust 73
bw@@ 73
canada 73
cover@@ 73
cubes 73
deadpool 73
death 73
dge 73
ebook 73
eternity 73
fb 73
fillers 73
flush 73
frames 73
gel@@ 73
glove 73
gol@@ 73
grapeseed 73
gravity 73
gue 73
gw@@ 73
issey 73
j7core 73
jackson 73
jewel 73
jug 73
lead 73
mani@@ 73
multicolored 73
nar@@ 73
note5 73
organi@@ 73
ory 73
powdery 73
rattle 73
rcb 73
realmec2 73
rit@@ 73
roast 73
rs@@ 73
s5@@ 73
scarlet 73
shapes 73
sit 73
song 73
spag 73
spare 73
swimsuits 73
thin@@ 73
thing 73
union 73
uratex 73
v4 73
x12 73
x18 73
y93 73
zaxy 73
zo 73
018 72
01@@ 72
10400mah 72
10x 72
116 72
6000 72
ant@@ 72
avanza 72
bandeau 72
bh 72
birds 72
biscuits 72
bits 72
bliss 72
bounce 72
celina 72
cen@@ 72
cf 72
chronicles 72
compressor 72
conditioning 72
ctive 72
curly 72
das@@ 72
ely 72
enamel 72
eng 72
g5 72
gab@@ 72
giraffe 72
glowing 72
goat 72
goods 72
gx@@ 72
gymboree 72
hai@@ 72
heat@@ 72
hr 72
ion@@ 72
keyring 72
let@@ 72
lord 72
missy 72
paddle 72
pal 72
pill 72
powerful 72
rate 72
rol@@ 72
ros 72
rosehip 72
run@@ 72
scoopback 72
sou@@ 72
tale 72
td 72
tender 72
tw 72
ukulele 72
v17pro 72
vase 72
washed 72
wu 72
wwe 72
xoxo 72
yn@@ 72
10s 71
228 71
355 71
668 71
84 71
a9@@ 71
amazon 71
amo@@ 71
are@@ 71
ass 71
babydoll 71
baked 71
band@@ 71
barrel 71
bebe 71
bie 71
bin@@ 71
boot 71
boxed 71
bus 71
canin 71
ched 71
cigarette 71
corp 71
daster 71
delicious 71
dora 71
duyan 71
eh@@ 71
elegance 71
ew 71
flannel 71
hammock 71
heart@@ 71
hg@@ 71
imd 71
iphone11pro 71
ise 71
ist 71
jollibee 71
knob 71
lane 71
latte 71
laura 71
ligh@@ 71
litter 71
mbps 71
mel 71
nation 71
night@@ 71
optimum 71
ped 71
pocketbac 71
revitali@@ 71
sassy 71
sense@@ 71
spor@@ 71
standing 71
steve 71
sting 71
stopper 71
students 71
swi@@ 71
tc@@ 71
tmx155 71
torque 71
twilly 71
variety 71
vic 71
vs@@ 71
020 70
100s 70
133 70
185 70
18k@@ 70
1996 70
201804@@ 70
202 70
70cm 70
a52020 70
anal 70
anthony 70
atm 70
bathrobe 70
becca 70
belo 70
benedict 70
betty 70
blades 70
bodybag 70
bpa 70
bulls 70
camo 70
coaster 70
dhc 70
digitizer 70
din 70
disco 70
dongle 70
dv 70
eclat 70
eq 70
filled 70
gerber 70
gh 70
gx 70
harley 70
hoyoma 70
ideas 70
iring 70
jungle 70
kam@@ 70
lai 70
ld 70
lp@@ 70
medicated 70
mh@@ 70
mix@@ 70
moon@@ 70
mvp 70
ot@@ 70
outer 70
pd@@ 70
pha 70
pitcher 70
ppers 70
prin@@ 70
react 70
rookie 70
sealant 70
sequin 70
tch 70
tor 70
totoro 70
und@@ 70
vir@@ 70
where 70
whipp 70
windshield 70
wonder@@ 70
words 70
zz 70
121 69
1kilo 69
208 69
2x@@ 69
38mm 69
500gb 69
age@@ 69
amp@@ 69
ams 69
b1 69
ballerina 69
bao 69
bear@@ 69
beaute 69
bg 69
cambogia 69
coco@@ 69
damier 69
ddr3 69
dressing 69
eg@@ 69
elujai 69
ep@@ 69
erasable 69
ero 69
everything 69
fate 69
fda 69
fenty 69
flea 69
floating 69
gifo 69
givi 69
hnj 69
infants 69
ipod 69
jumpsuits 69
ket 69
land@@ 69
laptops 69
lemonade 69
lovers 69
mangosteen 69
medi@@ 69
micellar 69
million 69
mis@@ 69
motherboard 69
nina 69
note2 69
onal 69
oneplus 69
perfection 69
pol@@ 69
popcorn 69
rearview 69
rn 69
shin 69
skateboard 69
ski@@ 69
source 69
strings 69
sunrise 69
tile 69
ttgr 69
uhf 69
vari@@ 69
when 69
wl@@ 69
xmas 69
y7pro2019 69
yumi 69
10a 68
119 68
12mm 68
138 68
3gb 68
520 68
5inch 68
5r 68
6months 68
accesories 68
alien 68
aoa 68
arms 68
axe 68
below 68
carrot 68
cinnamon 68
clar@@ 68
cuyi 68
detector 68
ethernet 68
explosion 68
fied 68
gl 68
glam@@ 68
gpp 68
happy@@ 68
harden 68
iced 68
individual 68
kc 68
kk 68
lj 68
lucas 68
mble 68
milani 68
national 68
neck@@ 68
nos 68
origin 68
pancake 68
petals 68
photobook 68
pinkish 68
polkadots 68
posters 68
potty 68
rabanne 68
renewal 68
sack 68
sante 68
scott 68
sebum 68
shelves 68
slique 68
sounds 68
spirulina 68
tear 68
technology 68
tered 68
tight 68
types 68
waistline 68
wedges 68
wise 68
wk 68
wonders 68
wrapped 68
yves 68
2021 67
235@@ 67
260 67
340g 67
41@@ 67
680@@ 67
8a 67
a51 67
any@@ 67
asa 67
az 67
bby 67
benassi 67
butter@@ 67
cabin 67
chin 67
cho 67
chro@@ 67
classics 67
coun@@ 67
crystals 67
curve 67
dawn 67
drainer 67
dslr 67
ei@@ 67
elas@@ 67
estee 67
fans 67
far 67
figurine 67
general 67
gie 67
glory 67
graded 67
howru 67
ial 67
image 67
imarflex 67
insulation 67
jt 67
mad 67
madam 67
main 67
mar 67
med@@ 67
mei@@ 67
moments 67
pantene 67
parker 67
pastry 67
pea 67
pods 67
ponds 67
pra@@ 67
ring@@ 67
rosy 67
scanner 67
scarlett 67
smo@@ 67
sperry 67
sse 67
ssi@@ 67
telescopic 67
treat 67
why 67
wristband 67
100grams 66
122 66
2000@@ 66
21k 66
302 66
3c 66
4ghz 66
65ml 66
acqua 66
aegis 66
aire 66
albums 66
bajaj 66
beau 66
bose 66
both 66
comm@@ 66
crime 66
crunch 66
decor@@ 66
dinner 66
dl 66
domino 66
doom 66
eas@@ 66
ey 66
gging 66
gigabyte 66
gudetama 66
guyabano 66
hea@@ 66
highlight 66
highwaisted 66
hilton 66
hong 66
input 66
ira 66
ith 66
iti@@ 66
jh@@ 66
katy 66
lollipop 66
lus 66
lx 66
mag 66
meow 66
mf@@ 66
minerals 66
notepad 66
orchid 66
ox 66
philip 66
pig@@ 66
pil@@ 66
pilipinas 66
revitalizing 66
ribbons 66
riordan 66
roman 66
rou@@ 66
rtw 66
sher 66
sing@@ 66
soccer 66
soldering 66
spo@@ 66
sq@@ 66
stirring 66
sty 66
tableware 66
til@@ 66
too@@ 66
whi@@ 66
winner 66
woo 66
016 65
04@@ 65
11promax 65
1995 65
20v 65
268 65
270@@ 65
510 65
512gb 65
60w 65
af 65
allure 65
ascorbic 65
blu 65
br 65
breastmilk 65
broken 65
burger 65
cing 65
claire 65
classi@@ 65
colourtint 65
couch 65
culottes 65
dawning 65
decorating 65
desire 65
dong 65
eds 65
eiffel 65
ez@@ 65
fo 65
freedom 65
gigabit 65
handsfree 65
herrera 65
ille 65
inspirational 65
jp 65
kitten 65
merah 65
moschino 65
moto@@ 65
n1 65
nc 65
necklaces 65
nie 65
nt 65
openline 65
ounce 65
pac@@ 65
pacific 65
patterned 65
peep 65
ping 65
pollution 65
realme5 65
refillable 65
reli@@ 65
rf 65
select 65
shoe@@ 65
silver@@ 65
sw 65
tarnish 65
tas 65
treasure 65
tricolor 65
ultra@@ 65
v00@@ 65
valentines 65
was@@ 65
222 64
5yrs 64
62@@ 64
6t 64
802 64
airy 64
apricot 64
ater 64
avenue 64
baller 64
baseus 64
bc@@ 64
ber 64
blends 64
bowknot 64
brac@@ 64
bro 64
challis 64
crusher 64
cyan 64
drip 64
ek@@ 64
exhaust 64
favors 64
fli@@ 64
foodaholic 64
ful@@ 64
gal 64
gio 64
gms 64
ham@@ 64
horizontal 64
internal 64
j2core 64
kaws 64
light@@ 64
magnets 64
mrs 64
mul@@ 64
nationwide 64
note3 64
palda 64
peter 64
plat@@ 64
powerhouse 64
prima 64
pti@@ 64
qi 64
real@@ 64
resistance 64
samantha 64
sey 64
short@@ 64
sian 64
soldier 64
sound@@ 64
stackable 64
stic@@ 64
straws 64
talk 64
temp 64
thailook 64
tial 64
turn 64
wind@@ 64
y83 64
ziplock 64
zirconia 64
114 63
145 63
225 63
2usb 63
3x 63
550@@ 63
650@@ 63
a92018 63
almonds 63
antiskid 63
athena 63
aviator 63
ballpoint 63
batwing 63
bd@@ 63
blackberry 63
bottoms 63
boxing 63
camel 63
camisole 63
casa 63
century 63
challenge 63
cheapest 63
chee@@ 63
childrens 63
chopsticks 63
cj@@ 63
computers 63
cullotes 63
diameter 63
drinks 63
ets 63
favorite 63
g3 63
gorilla 63
hairband 63
hazelnut 63
headlamp 63
heritage 63
hig@@ 63
hug 63
imports 63
inspiron 63
jenny 63
jet@@ 63
kas@@ 63
kl 63
kle@@ 63
lb@@ 63
lers 63
lle 63
michaela 63
monopoly 63
mould 63
nigh@@ 63
oc 63
overnight 63
pavilion 63
perspirant 63
phantom 63
phi@@ 63
pieu 63
pine 63
plas@@ 63
present 63
rin 63
ringke 63
rubber@@ 63
sai@@ 63
salad 63
sco 63
scotch 63
sher@@ 63
soak 63
sons 63
speed@@ 63
squad 63
sts 63
telephone 63
tho@@ 63
tilbury 63
trade 63
tus 63
waffle 63
won@@ 63
é@@ 63
149 62
1500 62
15pcs 62
180cm 62
203 62
236 62
305 62
30mm 62
70ml 62
7d 62
a2@@ 62
a6@@ 62
a90 62
aim 62
antique 62
ardeur 62
awesome 62
bendix 62
bill 62
brooklyn 62
bum 62
cara 62
carrying 62
cg 62
chain@@ 62
chie 62
citrine 62
cos 62
crunchy 62
dal 62
darling 62
dunk 62
faber 62
flame 62
g2 62
gosh 62
headdress 62
holy 62
hour 62
irish 62
jun@@ 62
lighter 62
lovecorner 62
maid 62
mann 62
medela 62
mh 62
most 62
mus@@ 62
natura 62
nebulizer 62
neo7 62
nworld 62
od@@ 62
orig@@ 62
overuns 62
pak 62
pest 62
plating 62
prizm 62
repellant 62
rotor 62
s10e 62
sabrina 62
seagate 62
selena 62
seoul 62
shin@@ 62
side@@ 62
sir 62
siwa 62
sniper150 62
soen 62
softgel 62
start 62
stic 62
styles 62
suits 62
trail 62
tresemme 62
ult 62
university 62
varicose 62
veggie 62
vet 62
weave 62
winder 62
wood@@ 62
y6s 62
yh 62
you@@ 62
z2 62
z5 62
014 61
109 61
10meters 61
129 61
15cm 61
15mm 61
2d 61
2mp 61
4pc 61
502 61
808 61
850 61
901 61
airforce 61
andy 61
ann@@ 61
ants 61
asics 61
attack 61
beauty@@ 61
bot 61
brew 61
cardigans 61
castell 61
chase 61
clippers 61
dg@@ 61
dtv 61
fash@@ 61
fb@@ 61
fear 61
frost 61
fs@@ 61
garterize 61
german 61
glamour 61
gly@@ 61
gn 61
heaven 61
into 61
janoski 61
jessica 61
jolly 61
jp@@ 61
jumper@@ 61
k5 61
kamiseta 61
kt@@ 61
ladie 61
lighten 61
lit 61
m2@@ 61
minecraft 61
mma 61
mq 61
neckline 61
nk 61
og 61
oversize 61
owned 61
phr 61
pixie 61
poccophone 61
purederm 61
qq@@ 61
quick@@ 61
r9s 61
ric 61
rog 61
sandwich 61
scout 61
sea@@ 61
serving 61
shed 61
singapore 61
stradivarius 61
sugar@@ 61
survival 61
thri@@ 61
timeless 61
tow 61
trucker 61
tsu@@ 61
uri@@ 61
vice 61
ward 61
whiteboard 61
019 60
10in1 60
1997 60
4r 60
a4tech 60
angeles 60
ans@@ 60
arm@@ 60
banderitas 60
basin 60
bli@@ 60
bookmarks 60
boro 60
brallete 60
chewable 60
cool@@ 60
copier 60
dice 60
dino 60
dio 60
dissipation 60
envy 60
eo 60
feli@@ 60
fuji 60
ginseng 60
goody 60
herbalife 60
hl 60
igprints 60
iner 60
inf@@ 60
ivy 60
kentucky 60
kind 60
kts 60
lavander 60
lim 60
mach@@ 60
maine 60
mand@@ 60
masking 60
member 60
models 60
neo9 60
oro@@ 60
p100 60
pocophone 60
pompom 60
posted 60
quest 60
resist 60
rib 60
rimmel 60
root 60
rt 60
s7edge 60
sat@@ 60
shu@@ 60
sit@@ 60
skate 60
sleev@@ 60
speci@@ 60
stand@@ 60
ste 60
tel 60
twilight 60
una 60
vil@@ 60
wisdom 60
working 60
x7 60
za@@ 60
12inches 59
12months 59
14t 59
18mos 59
2018@@ 59
20w 59
215 59
2in 59
370@@ 59
50cm 59
805 59
92@@ 59
9pcs 59
a01 59
ain 59
app 59
autofocus 59
bang@@ 59
biker 59
buah 59
coming 59
coo@@ 59
cti@@ 59
culture 59
cutout 59
cx 59
doodle 59
dream@@ 59
dxn 59
emb@@ 59
enjoy 59
eucalyptus 59
fer 59
fill 59
fly@@ 59
flying 59
foo@@ 59
fringe 59
gadgets 59
gowoori 59
guava 59
gus 59
hairclip 59
hang 59
honey@@ 59
hydra 59
hyper@@ 59
ions 59
laserjet 59
led@@ 59
lona 59
lor 59
lowcut 59
marketing 59
mars 59
mas 59
matrix 59
maximum 59
mumuso 59
nighties 59
organ@@ 59
packing 59
peacock 59
peanuts 59
pedigree 59
potion 59
qi@@ 59
racket 59
recollections 59
redmi@@ 59
rel 59
royu 59
sara 59
sj 59
slayer 59
slee@@ 59
snow@@ 59
sph 59
ssed 59
stella 59
tonic 59
tter 59
unbranded 59
ungrip 59
vers@@ 59
wee 59
zr 59
zy@@ 59
017 58
25mm 58
26cm 58
340 58
3way 58
4c 58
6gb 58
6mos 58
7yrs 58
902 58
acy 58
aff@@ 58
ars 58
audrey 58
baguio 58
baptism 58
basil 58
batteries 58
beam 58
bees 58
blin@@ 58
blow 58
blur 58
bou@@ 58
brace 58
breath 58
bubbles 58
buster 58
cau@@ 58
cele@@ 58
cg@@ 58
circuit 58
cw 58
deals 58
dos 58
emma 58
epoxy 58
fade 58
fino 58
fj@@ 58
flo 58
fryer 58
furry 58
gan@@ 58
gar 58
germany 58
ges 58
glit@@ 58
grendha 58
harem 58
hexagon 58
hil@@ 58
i3 58
imm@@ 58
indoplas 58
interior 58
j120 58
j2@@ 58
jam@@ 58
kap@@ 58
lanvin 58
lat 58
learn 58
lice 58
lined 58
lisa 58
lor@@ 58
markers 58
merch 58
monthly 58
nasa 58
nl 58
oilbased 58
pax 58
plane 58
pob 58
pou@@ 58
ps2 58
pt@@ 58
s6@@ 58
selection 58
shel@@ 58
singles 58
slo@@ 58
slow 58
spatula 58
styler 58
sul@@ 58
sweety 58
t0@@ 58
talking 58
terra 58
theory 58
tics 58
tie@@ 58
ula 58
ultraboost 58
wacoal 58
y5@@ 58
y81i 58
y9prime2019 58
zel 58
zoo@@ 58
015 57
108@@ 57
1999 57
200w 57
2f 57
35mm 57
4y 57
5i 57
aa@@ 57
aco 57
ail@@ 57
amino 57
ania 57
bea 57
belted 57
botton 57
bridge 57
buddy 57
c0@@ 57
cebu 57
check@@ 57
cln 57
coats 57
college 57
corrector 57
derma@@ 57
dg 57
dock 57
elements 57
ero@@ 57
every 57
faceshield 57
fantastic 57
fig@@ 57
figuarts 57
flipflops 57
game@@ 57
georgette 57
goodquality 57
gran@@ 57
gun@@ 57
hairbow 57
hay@@ 57
hin@@ 57
hydraulic 57
illuminating 57
import 57
itch 57
kb 57
labo 57
lal@@ 57
laurent 57
lie@@ 57
liter@@ 57
ls2 57
mera 57
merchandise 57
minute 57
mont 57
muji 57
nam@@ 57
nappy 57
nautica 57
nescafe 57
nit@@ 57
nozzle 57
open@@ 57
pamela 57
photography 57
pon@@ 57
posh 57
q10 57
rebel 57
resellers 57
rin@@ 57
rp 57
russian 57
sally 57
scalp 57
shor@@ 57
shortsleeves 57
sides 57
silent 57
simulation 57
sions 57
sophia 57
spirit 57
sters 57
stufftoys 57
tassle 57
temptation 57
ul 57
vanguard 57
var@@ 57
verdon 57
vitality 57
weather 57
xie 57
yas@@ 57
yss 57
10l 56
12s 56
132 56
1500@@ 56
18inch 56
1993 56
380@@ 56
3kg 56
40cm 56
450ml 56
568 56
8kg 56
93@@ 56
A@@ 56
a6plus 56
activewear 56
anth@@ 56
beautéderm 56
bic 56
cakes 56
caremask 56
cashmere 56
chicago 56
clear@@ 56
cn@@ 56
counter 56
crank 56
dca 56
die@@ 56
diving 56
dou@@ 56
dreamcatcher 56
dt@@ 56
durant 56
dustproof 56
e27 56
earpods 56
ethnic 56
favor 56
garbage 56
gauze 56
glow@@ 56
google 56
htc 56
jason 56
lish 56
lootbags 56
lower 56
mannequin 56
melt 56
mizon 56
momoland 56
moss 56
motocross 56
motorcycles 56
nhk 56
note4 56
notebooks 56
orly 56
peace 56
q7 56
rda 56
reflector 56
rotation 56
sdhc 56
seater 56
sequined 56
sg@@ 56
shapers 56
smartphones 56
speedometer 56
sss 56
sweetheart 56
tall 56
technomarine 56
temporary 56
texture 56
traveler 56
trifold 56
turmask 56
tx 56
unofficial 56
vital 56
voltage 56
warrior 56
wt 56
yy@@ 56
zar@@ 56
130g 55
1b 55
28cm 55
2b 55
325 55
350g 55
480 55
6th 55
800ml 55
85g 55
I@@ 55
abi 55
acb 55
adap@@ 55
ado@@ 55
almost 55
ame@@ 55
apollo 55
applicator 55
arizona 55
ather 55
ball@@ 55
bayong 55
bound 55
caviar 55
ceramics 55
charge@@ 55
coins 55
colle@@ 55
confetti 55
costumes 55
cour@@ 55
covergirl 55
cranberry 55
crocheted 55
crv 55
cts 55
daddy 55
dani@@ 55
desert 55
dirty 55
dk@@ 55
dl@@ 55
dropper 55
dun@@ 55
enhanced 55
euro@@ 55
extensions 55
fg 55
fresh@@ 55
gate 55
graphics 55
grocery 55
guy 55
hav@@ 55
hc 55
hydr@@ 55
ily 55
jh 55
jk@@ 55
kd@@ 55
koi 55
lilac 55
lou 55
lysol 55
m30 55
mandarin 55
maru@@ 55
mate20 55
mber 55
mee 55
melasma 55
neutral 55
ology 55
ony 55
pab@@ 55
parka 55
peony 55
pit 55
placemat 55
premier 55
r9 55
racerback 55
return 55
rho@@ 55
rj45 55
s8plus 55
sagmit 55
sapphire 55
separ@@ 55
sizzix 55
suave 55
suspension 55
tf@@ 55
toned 55
uf 55
vegetables 55
vibrant 55
wn@@ 55
wristwatch 55
x8 55
yoko 55
zippered 55
025 54
030 54
12cm 54
12w 54
195 54
200mm 54
209 54
30s 54
6ml 54
ange@@ 54
annie 54
bel 54
bility 54
bobbi 54
boo 54
boun@@ 54
breed 54
brownies 54
budget 54
busha 54
bv 54
bv@@ 54
calligraphy 54
carburetor 54
catherine 54
cav@@ 54
chambray 54
chelsea 54
corduroy 54
core@@ 54
cruiser 54
cure 54
dat@@ 54
dig@@ 54
din@@ 54
dragonball 54
duffel 54
edifice 54
emily 54
epsa 54
exten@@ 54
famous 54
frank 54
fry 54
gard 54
garfield 54
garland 54
genie 54
ging 54
gtw 54
gur@@ 54
history 54
hk@@ 54
inspire 54
jay 54
jay@@ 54
jx 54
kutkutin 54
lee@@ 54
lex 54
met 54
mice 54
miu 54
mouthwash 54
movies 54
n95 54
n9@@ 54
nadine 54
ned 54
onic 54
pay@@ 54
peri 54
playpen 54
pork 54
qc 54
rb 54
realme@@ 54
receiving 54
rfid 54
samples 54
sculpting 54
sealing 54
sembo 54
shan@@ 54
shooter 54
sisley 54
sive 54
skinpotions 54
snacks 54
sno@@ 54
solutions 54
spoiler 54
stationary 54
t2 54
tto 54
unscented 54
ust 54
ut@@ 54
vap@@ 54
want 54
welcome 54
wonderland 54
wy@@ 54
zation 54
zigzag 54
189 53
1d 53
2k 53
30x@@ 53
3ce 53
5inches 53
adorable 53
against 53
alberto 53
alie 53
angelus 53
apido 53
ave@@ 53
ayesha 53
baao 53
beatles 53
blinds 53
bodysuits 53
bolero 53
british 53
brow@@ 53
bys 53
candy@@ 53
capacitor 53
casserole 53
clin@@ 53
closed 53
cn 53
coating 53
coca 53
compass 53
concept 53
dable 53
deal 53
debut 53
destiny 53
dietary 53
distributor 53
dj 53
dolly 53
dom 53
ead 53
enzo 53
fen@@ 53
fertilizer 53
fg@@ 53
float 53
g6 53
geekvape 53
gluta@@ 53
gr 53
i7s 53
ich 53
imitation 53
imperial 53
inclusions 53
india 53
k3 53
ked 53
kee@@ 53
kets 53
kilos 53
lat@@ 53
lumin@@ 53
mantra 53
megapro 53
mie 53
minimum 53
mood 53
moving 53
nicole 53
nissin 53
ornament 53
pai@@ 53
plier 53
puri@@ 53
ray@@ 53
river 53
robert 53
ros@@ 53
rough 53
shining 53
smartwatch 53
spike 53
stain@@ 53
stal@@ 53
statue 53
stro@@ 53
swatch 53
table@@ 53
taupe 53
tk@@ 53
trolls 53
tubeless 53
tumi 53
ube 53
ud 53
val 53
venom 53
vivid 53
way@@ 53
wb 53
wellington 53
xb@@ 53
y7prime 53
228@@ 52
22cm 52
255 52
333 52
5y 52
606 52
608 52
701 52
aka 52
ako 52
alph@@ 52
amethyste 52
aron 52
bowls 52
brain 52
cans 52
carbon@@ 52
cartoons 52
chino 52
col 52
colours 52
come 52
costumized 52
covered 52
crash 52
diamonds 52
dru@@ 52
dt 52
eden 52
eggs 52
fight 52
fitch 52
fixed 52
fuschia 52
ga110 52
gagage 52
gin 52
hologram 52
ide 52
inserts 52
jacob 52
jones 52
jungkook 52
kins 52
kl@@ 52
lli@@ 52
loves 52
lunchbox 52
lw 52
mathematics 52
midwaist 52
motorola 52
mum 52
mun@@ 52
munchkin 52
mystic 52
neverfull 52
nicholas 52
pale 52
pes 52
porcelain 52
puppies 52
qcy 52
realme3pro 52
reverse 52
rhinestones 52
ria 52
scope 52
scrap 52
scrapbook 52
shar@@ 52
share 52
shines 52
sider 52
soluble 52
ssion 52
sto 52
stocking 52
sui 52
swe@@ 52
teacher 52
teen@@ 52
therapeutic 52
thermo@@ 52
tiles 52
to0 52
tooth@@ 52
transmission 52
uhs 52
unk 52
utensil 52
uva 52
watery 52
wizard 52
y9@@ 52
yah 52
zalora 52
zevy 52
026 51
0mm 51
1000mg 51
100w 51
131 51
16g 51
171 51
213 51
2y 51
603 51
a6s 51
academy 51
accounting 51
acetate 51
agatha 51
alcatel 51
beauche 51
bestguard 51
bifold 51
biscuit 51
bk@@ 51
bkk 51
blending 51
bossini 51
brands 51
bras 51
but@@ 51
bw 51
c5 51
cherokee 51
cloth@@ 51
commercial 51
country 51
cowl 51
dandruff 51
domin@@ 51
echo 51
eon 51
ferrero 51
fication 51
fuji@@ 51
gee 51
gent 51
handcrafted 51
hardware 51
hasbro 51
hoo@@ 51
hung 51
intimate 51
ipon 51
ize 51
jagger 51
jeffree 51
jelly@@ 51
jen 51
jm 51
kry@@ 51
kuku 51
legging 51
legs 51
lifter 51
lis 51
listing 51
mediheal 51
microsd 51
mina 51
nas@@ 51
nath@@ 51
nautical 51
opp 51
ord@@ 51
ori 51
ox@@ 51
papi 51
pasta 51
polaroid 51
posture 51
practical 51
probiotics 51
qq 51
quilt 51
refle@@ 51
reju@@ 51
robin 51
rorec 51
rug 51
sandalwood 51
senza 51
sequence 51
sliding 51
soo@@ 51
spi@@ 51
succulents 51
thunder 51
times 51
traditional 51
tun@@ 51
tuyo 51
utensils 51
vg 51
vibes 51
waste 51
web 51
weekend 51
xxxl 51
zia 51
zumba 51
126 50
12pieces 50
16pcs 50
18w 50
1998 50
420 50
4n1 50
4yrs 50
50m 50
ache 50
all@@ 50
aloha 50
altis 50
arturo 50
asahi 50
bangs 50
been 50
blaster 50
boxy 50
chicharon 50
defender 50
disinfecting 50
everpower 50
fengshui 50
fever 50
finder 50
finishing 50
fjs@@ 50
fru@@ 50
gig@@ 50
glaze 50
heater 50
heating 50
help 50
hn 50
holly 50
hr@@ 50
ice@@ 50
im@@ 50
itive 50
iv 50
kkw 50
lea@@ 50
lifestyle 50
little@@ 50
lj@@ 50
locket 50
loom 50
lopez 50
mae 50
mega@@ 50
meiji 50
moment 50
monsters 50
mutant 50
myra 50
nights 50
nightwear 50
nongshim 50
nov@@ 50
offer 50
oni 50
opening 50
org@@ 50
os@@ 50
papaw 50
paubos 50
piercing 50
pocketbooks 50
popsicle 50
press@@ 50
prom 50
qfashion 50
qt 50
rette 50
reviewer 50
sad@@ 50
saucer 50
sauna 50
scion 50
seas@@ 50
section 50
shock@@ 50
skeleton 50
soles 50
sparks 50
stevia 50
surge 50
taillight 50
tak@@ 50
tal 50
there 50
wash@@ 50
wea@@ 50
wei@@ 50
whale 50
y6@@ 50
yen 50
047 49
120mm 49
124 49
142 49
2ply 49
5pc 49
70g 49
809 49
S@@ 49
aba 49
add@@ 49
adhesion 49
alada 49
answer 49
aq@@ 49
arri@@ 49
b3 49
baybayin 49
bolster 49
bottled 49
bron@@ 49
buffet 49
cac@@ 49
chess 49
chevrolet 49
chew 49
christ@@ 49
chy 49
civil 49
claus 49
cruz 49
cruzer 49
dang@@ 49
definition 49
deli 49
dictionary 49
east 49
empire 49
ered 49
export 49
flare@@ 49
fuse 49
geforce 49
gentleman 49
grapefruit 49
haikyuu 49
hang@@ 49
hansen 49
holo 49
hyperdunk 49
i8@@ 49
inspi 49
insta@@ 49
intl 49
jt5 49
jumping 49
ket@@ 49
keyholder 49
kings 49
kissproof 49
knits 49
lense 49
liniment 49
locking 49
looney 49
madden 49
mamonde 49
march 49
mason 49
ones 49
pck 49
pli@@ 49
polo@@ 49
pos@@ 49
pped 49
r150 49
razer 49
rex 49
saudigold 49
ski 49
skmei 49
sof 49
starmobile 49
stencil 49
studios 49
suga 49
swivel 49
taste 49
temperament 49
tles 49
tunic 49
twill 49
um@@ 49
venice 49
vin 49
weekly 49
wellness 49
whey 49
xp 49
1001 48
12in1 48
141 48
161 48
180g 48
187 48
18cm 48
192 48
1gb 48
20mm 48
249 48
24v 48
308 48
3mos 48
40w 48
40x@@ 48
4g@@ 48
6pairs 48
6x@@ 48
6yrs 48
700ml 48
75g 48
8000 48
a10@@ 48
alco@@ 48
atx 48
axis 48
bee@@ 48
bhw 48
bigger 48
bihaku 48
board@@ 48
bow@@ 48
cane 48
caster 48
chil@@ 48
chisel 48
chopstick 48
chris 48
ciao 48
cir@@ 48
clio 48
colour@@ 48
cozy 48
cular 48
dakki 48
dash@@ 48
degrees 48
dge@@ 48
doc 48
dose 48
dpi 48
droplet 48
dual@@ 48
duos 48
eh 48
fair 48
father 48
fic 48
fiesta 48
fifty 48
gamer 48
grater 48
harper 48
holders 48
hours 48
invitations 48
iphones 48
iso@@ 48
j1@@ 48
jewel@@ 48
jimin 48
juli@@ 48
kitkat 48
kore@@ 48
lap 48
leafy 48
logy 48
lq 48
lu 48
mate20pro 48
mates 48
mcneil 48
mfsunnies 48
nake@@ 48
ninewest 48
note@@ 48
nursery 48
oats 48
occasions 48
pantulog 48
pat 48
pers 48
personality 48
pixi 48
plus@@ 48
post@@ 48
pow@@ 48
reflectorized 48
regatta 48
repack 48
revo 48
rizoma 48
ru 48
sak@@ 48
severus 48
sgp 48
shoulderbag 48
sili@@ 48
ske@@ 48
slu@@ 48
soaplada 48
speaks 48
squeezer 48
stuff@@ 48
superfood 48
swanson 48
swit@@ 48
tar 48
throne 48
timberland 48
tty 48
tunes 48
uo 48
vac 48
vader 48
veronica 48
wearable 48
xerox 48
xrm125 48
yul 48
033 47
039 47
125g 47
128@@ 47
136 47
151 47
156 47
1989 47
1990 47
1dozen 47
207 47
211 47
225@@ 47
2k@@ 47
300mbps 47
300mm 47
30w 47
3r 47
505 47
610 47
6d 47
777 47
810 47
850@@ 47
alert 47
amanda 47
amar@@ 47
armored 47
ask 47
ath 47
authen@@ 47
brave 47
bushing 47
c9 47
carat 47
carnitine 47
catch 47
ccml 47
celtics 47
chairs 47
charlie 47
clean@@ 47
darth 47
dazzling 47
dest@@ 47
dk 47
dm@@ 47
doorbell 47
dough 47
dvi 47
education 47
eless 47
embossing 47
excel 47
farmstay 47
fashionista 47
fatigue 47
flashing 47
flyman 47
folds 47
fra 47
graffiti 47
grips 47
gul@@ 47
hit@@ 47
holographic 47
honor@@ 47
hou@@ 47
igh@@ 47
imag@@ 47
ining 47
instrument 47
irene 47
jasper 47
jon@@ 47
kili 47
kpads 47
kyla 47
lamb 47
lea 47
macro 47
mandala 47
masturbator 47
merrell 47
miyake 47
must 47
nap@@ 47
nets 47
novo 47
od 47
odyssey 47
options 47
pact 47
paisley 47
palmolive 47
pambata 47
peso 47
phil 47
poco 47
polishing 47
polybag 47
ppr 47
pulse 47
qf 47
queens 47
quinn 47
radi@@ 47
rebonding 47
redragon 47
relaxed 47
rella 47
res@@ 47
rising 47
rocket 47
rows 47
rudu 47
s9plus 47
scene 47
sedan 47
sele@@ 47
should 47
sma 47
stark 47
stilton 47
stor@@ 47
strange 47
sum 47
supp@@ 47
supremo 47
tailored 47
tarpaulin 47
taytay 47
tech@@ 47
think 47
tn@@ 47
toaster 47
toxic 47
velo@@ 47
versatile 47
von@@ 47
witness 47
yaya 47
yi@@ 47
0l 46
10x@@ 46
12000mah 46
12g 46
20x@@ 46
216 46
233 46
24mos 46
304@@ 46
355@@ 46
3v 46
401 46
530@@ 46
55ml 46
5hp 46
5xl 46
60pcs 46
720p 46
9d 46
C@@ 46
E@@ 46
aba@@ 46
acks 46
aga 46
ality 46
allan 46
ame 46
anton 46
arte@@ 46
asha 46
bezel 46
biore 46
bles 46
bmw 46
bold 46
booldeet 46
bumblebee 46
c4 46
cai@@ 46
career 46
cashew 46
cement 46
cham 46
chun@@ 46
condenser 46
crackers 46
create 46
creston 46
document 46
draw 46
dualpro 46
dust@@ 46
elixir 46
embroided 46
enchanteur 46
endgame 46
enemy 46
england 46
ening 46
eros 46
evolution 46
fast@@ 46
friendship 46
gameboy 46
gels 46
generic 46
gibi 46
glut@@ 46
glycolic 46
grinding 46
hanuman 46
ick 46
idea 46
idol 46
igo 46
impulse 46
inkjet 46
inten@@ 46
ipega 46
ities 46
ives 46
jewelries 46
kee 46
kicks 46
kitchenware 46
kra@@ 46
kumot 46
kyb 46
l1 46
lr 46
m0@@ 46
m4 46
maganda 46
management 46
mania 46
mccormick 46
meizu 46
melamine 46
metric 46
momo 46
nipples 46
nutri 46
nyc 46
ols 46
organza 46
p20pro 46
paints 46
papel 46
para 46
pendants 46
pinoy 46
pixel 46
pretend 46
psi 46
puppet 46
pv@@ 46
quil@@ 46
reaction 46
relax 46
ret 46
roche 46
roshe 46
sai 46
sci@@ 46
shaping 46
sheep 46
signage 46
silhouette 46
skip 46
skk 46
smart@@ 46
smoothing 46
spir@@ 46
stator 46
sten 46
stepsill 46
sulfur 46
sup 46
tee@@ 46
tensioner 46
thea 46
thi@@ 46
ufw 46
uring 46
variable 46
vguc 46
wave100 46
wh 46
ws@@ 46
zeus 46
036 45
139 45
140g 45
178 45
51@@ 45
7in1 45
absor@@ 45
acker 45
alli@@ 45
aly@@ 45
aman 45
apieu 45
arabica 45
arena 45
asian 45
august 45
bac 45
bal 45
bed@@ 45
bibdana 45
blossoms 45
cali@@ 45
careline 45
cathy 45
cayler 45
changer 45
charming 45
clog 45
connect 45
cosmic 45
cotton@@ 45
dore@@ 45
doughnut 45
dsn 45
ef 45
emp@@ 45
fanny 45
feelin 45
four@@ 45
fried 45
garage 45
gbb 45
ged 45
girl@@ 45
grease 45
guards 45
hab@@ 45
hada 45
hans 45
hobby 45
hut 45
icing 45
inflator 45
jacquard 45
jerry 45
julia 45
justees 45
karat 45
kir@@ 45
ktees 45
leatherette 45
lh 45
lits 45
liver 45
liza 45
lr@@ 45
memories 45
menthol 45
microsoft 45
mobiles 45
msmhk 45
muffin 45
nal 45
navara 45
neo5 45
nordic 45
oat 45
omg 45
pallete 45
pleasure 45
pops 45
queen@@ 45
qw@@ 45
rash@@ 45
rc@@ 45
reference 45
reg@@ 45
riders 45
saffiano 45
seat@@ 45
shy 45
sies 45
social 45
spectra 45
stethoscope 45
stit@@ 45
stock@@ 45
stripped 45
supple 45
sure 45
surveillance 45
swirl 45
synergy 45
t5@@ 45
t8@@ 45
tala 45
textiles 45
thousand 45
ticket 45
tong 45
tro 45
trooper 45
trunks 45
vee 45
vity 45
volu@@ 45
vr@@ 45
wave@@ 45
worn 45
wraps 45
zipped 45
zoro 45
024 44
100mm 44
157 44
160g 44
1992 44
206 44
223 44
227 44
2lite 44
310@@ 44
32g 44
473ml 44
630 44
65g 44
730 44
7t 44
8y 44
9ml 44
ables 44
absorption 44
also 44
aming 44
amu@@ 44
assi@@ 44
benton 44
bff 44
blackbox 44
bm 44
bny 44
booty 44
botanical 44
bugs 44
burt 44
carburator 44
cell@@ 44
centella 44
clara 44
clogs 44
cobra 44
craw@@ 44
crest 44
dairy 44
devices 44
dex@@ 44
distressed 44
dorothy 44
e1 44
eight 44
elli@@ 44
ellis 44
emer@@ 44
equ@@ 44
esp@@ 44
fitting 44
flip@@ 44
fm@@ 44
gardening 44
gospel 44
gy6 44
handlebar 44
haw@@ 44
heli@@ 44
hera 44
hips 44
holi@@ 44
huawie 44
hun@@ 44
ils 44
indonesia 44
isolation 44
jd 44
jjc 44
kgs 44
kinoki 44
kle 44
kotobukiya 44
kultura 44
l1r1 44
luckycharm 44
maldives 44
martha 44
mike 44
motorbike 44
mule 44
muslim 44
nd@@ 44
newest 44
nonwire 44
note10 44
nutella 44
oc@@ 44
olympus 44
optic 44
p250 44
panoramic 44
pas 44
peachy 44
peak 44
peg 44
personalize 44
petit 44
pk@@ 44
prepack 44
pringles 44
r7 44
ratchet 44
redu@@ 44
rei@@ 44
rie 44
rmg 44
royal@@ 44
s8@@ 44
saiyan 44
samgyupsal 44
seasons 44
shrink 44
sleeper 44
snap@@ 44
speedo 44
spinning 44
ssions 44
staple 44
stapler 44
sted 44
stret@@ 44
stru@@ 44
success 44
suki 44
superior 44
sweet@@ 44
sweetener 44
sz@@ 44
tek 44
to2 44
translucent 44
travel@@ 44
tumblers 44
unused 44
use@@ 44
vig@@ 44
vine 44
volt 44
with@@ 44
wrislet 44
xl@@ 44
y62 44
yd 44
zie 44
022 43
1100 43
140cm 43
14cm 43
158 43
16cm 43
184 43
237 43
24cm 43
256 43
30000mah 43
3110 43
3d@@ 43
3pro 43
3x3 43
60s 43
800g 43
90cm 43
aci@@ 43
alia 43
armband 43
ast@@ 43
bad@@ 43
bailey 43
bare@@ 43
beginners 43
border 43
brit@@ 43
burgundy 43
cassette 43
cat6 43
cbn 43
chap@@ 43
chart 43
circo 43
cloudfone 43
colic 43
compound 43
coordinate 43
cottony 43
cx@@ 43
distance 43
ello 43
endless 43
entertainment 43
espresso 43
eth@@ 43
ette 43
explorer 43
faceshop 43
festival 43
ffe@@ 43
fie 43
fitbit 43
folio 43
gimbal 43
goal 43
gothic 43
grand@@ 43
greek 43
gv 43
haan 43
hell 43
hoddie 43
holic 43
j62018 43
jing@@ 43
jlt 43
kang 43
kc@@ 43
kha@@ 43
koala 43
kurtina 43
lake 43
lapel 43
lash@@ 43
legendary 43
license 43
lightness 43
ling@@ 43
locks 43
luck@@ 43
m6 43
mal 43
matchbox 43
mcg 43
middle 43
mink 43
mirac@@ 43
misumi 43
nd 43
necktie 43
nic@@ 43
nitro 43
novels 43
nur@@ 43
nurse 43
p150 43
p2 43
penny 43
pf 43
pg@@ 43
phone@@ 43
playful 43
polar 43
pun@@ 43
ral@@ 43
rechargable 43
religious 43
s10plus 43
scientific 43
shells 43
sister 43
sley 43
sni@@ 43
somebymi 43
spin@@ 43
splashproof 43
t5 43
telesin 43
tic@@ 43
tim 43
tk 43
toblerone 43
trends 43
tron 43
ttes 43
tumblr 43
twins 43
ue 43
ultr@@ 43
upto 43
user 43
victory 43
western 43
wilson 43
wink 43
writer 43
xpander 43
zg 43
zza 43
021 42
027 42
028 42
031 42
100cm 42
12a 42
162 42
19mm 42
1c 42
2022 42
3ft 42
3oz 42
3pairs 42
3y 42
428@@ 42
500w 42
520@@ 42
710@@ 42
720@@ 42
access 42
achi 42
activ 42
adventures 42
ando 42
arduino 42
aster 42
automotive 42
b5 42
barefoot 42
beat@@ 42
bonne 42
britney 42
bun 42
buy@@ 42
cecilia 42
cel 42
chevron 42
complexion 42
cry@@ 42
ctions 42
damper 42
delights 42
divider 42
eline 42
ell@@ 42
equal 42
espadrilles 42
eur 42
fair@@ 42
farrah 42
fel@@ 42
figma 42
firm 42
fish@@ 42
floss 42
gems 42
geo@@ 42
glutalipo 42
gluten 42
gor@@ 42
gue@@ 42
harajuku 42
harvest 42
has@@ 42
heartbeat 42
hf 42
hs@@ 42
hur@@ 42
icy 42
ight 42
illuminator 42
imprint 42
itech 42
jac@@ 42
jang 42
jars 42
jasmin 42
jes 42
kel@@ 42
knotted 42
labels 42
lanbena 42
lilo 42
lippies 42
luv 42
m5@@ 42
make@@ 42
mambi 42
marshmallow 42
matchy 42
mber@@ 42
medal 42
mental 42
mf 42
microwavable 42
ming@@ 42
moda 42
molded 42
motowolf 42
mudguard 42
mug@@ 42
navyblue 42
nex@@ 42
ole@@ 42
origami 42
p3@@ 42
panic 42
pass 42
peptide 42
perfumed 42
pie@@ 42
plugs 42
positive 42
postcards 42
practice 42
relumins 42
reveal 42
rox 42
rsgw 42
rubik 42
s20 42
sander 42
scraper 42
shimmering 42
shogun 42
skorts 42
smi@@ 42
stle 42
straightening 42
supersale 42
sweets 42
sx@@ 42
tagalog 42
theo@@ 42
timing 42
tinkerbell 42
tow@@ 42
trend@@ 42
ultrathin 42
umb@@ 42
v10 42
vhf 42
volkswagen 42
wer@@ 42
worm 42
x3@@ 42
xuping 42
zc@@ 42
032 41
105@@ 41
170ml 41
176 41
193 41
226g 41
232 41
328 41
3in 41
3yo 41
55mm 41
5pro 41
60x@@ 41
702 41
7i 41
905 41
ands 41
ano@@ 41
aro 41
asher 41
assn 41
badescu 41
beater 41
beauti@@ 41
bers 41
bianca 41
bidet 41
blair 41
bobb@@ 41
boxers 41
brand@@ 41
breakfast 41
bulgari 41
burning 41
calling 41
camilla 41
cation 41
chewy 41
closer 41
common 41
cond 41
contrast 41
crab 41
creamer 41
d1 41
daban 41
daylight 41
delicate 41
diagonal 41
dicer 41
digi@@ 41
dish@@ 41
disinfection 41
dtc 41
easy@@ 41
ejuice 41
enlarger 41
escada 41
eureka 41
evvph 41
expiry 41
eyebag 41
fairy@@ 41
fin 41
flaws 41
flex@@ 41
flood 41
flower@@ 41
fluorescent 41
fp 41
freeze 41
goblin 41
hag@@ 41
hannah 41
hindi 41
hotdog 41
ices 41
ico 41
inclu@@ 41
inclusion 41
index 41
indicator 41
interchangeable 41
ive 41
kiss@@ 41
kp1 41
kz 41
ladys 41
lampin 41
lgts 41
lili@@ 41
lola 41
lube 41
lum 41
mamala 41
maxi@@ 41
maxx 41
membrane 41
mexico 41
mg@@ 41
mig@@ 41
mmer 41
mock 41
moonlight 41
mosaic 41
nes 41
netbook 41
nies 41
ninjago 41
ntsc 41
offset 41
paula 41
phil@@ 41
photos 41
playmat 41
port@@ 41
qualcomm 41
quotes 41
ras@@ 41
remo@@ 41
remove 41
rocher 41
roger 41
rolex 41
sac@@ 41
server 41
signed 41
skylanders 41
snapshot 41
sofitec 41
sos 41
spec 41
stufftoy 41
style@@ 41
suspen@@ 41
tac 41
tangerine 41
tation 41
tiara 41
tictac 41
tting 41
tus@@ 41
ub 41
uc@@ 41
wd@@ 41
wer 41
wipe 41
wonderline 41
yarns 41
zb@@ 41
046 40
1080 40
10oz 40
1600@@ 40
182 40
186 40
1994 40
2012@@ 40
265 40
2tb 40
311 40
390 40
3months 40
410@@ 40
411 40
4x4 40
5000@@ 40
511 40
620@@ 40
760@@ 40
7v 40
addidas 40
alaska 40
australian 40
aven@@ 40
bga 40
bot@@ 40
buildmate 40
causal 40
cci 40
chal@@ 40
cham@@ 40
chas@@ 40
cherrymobile 40
chubby 40
clearing 40
clever 40
containers 40
coords 40
cracker 40
cradle 40
cyclo@@ 40
dahua 40
det@@ 40
dh 40
diana 40
dil@@ 40
dimmable 40
down@@ 40
du 40
duvet 40
edible 40
energi@@ 40
enfant 40
epic 40
escape 40
every@@ 40
excess 40
fence 40
fhd 40
fore@@ 40
forme 40
freesf 40
ganda 40
gatas 40
gle@@ 40
grosgrain 40
hangers 40
hdtv 40
headrest 40
ht@@ 40
ids 40
ig 40
imak 40
inger 40
iope 40
iphone11 40
jjt 40
k2 40
kas 40
kasya 40
kineza 40
kjm 40
korean@@ 40
laces 40
lana 40
lang@@ 40
laud 40
leo 40
literide 40
malaysia 40
mitsu@@ 40
moisturising 40
monopad 40
multivitamin 40
nancy 40
nee 40
nin@@ 40
nn 40
occasion 40
originai 40
oring 40
oxide 40
oxidi@@ 40
pao 40
pawnablesplcodgenuine100 40
pegasus 40
pineng 40
pixar 40
playsuit 40
plunger 40
poe 40
poop 40
preowned 40
preparation 40
presto 40
prime@@ 40
prism 40
probiotic 40
psicom 40
puff@@ 40
qc3 40
raptors 40
rated 40
realme5pro 40
ream 40
rip 40
rollers 40
rosemary 40
ross 40
rusty 40
satellite 40
serial 40
shoes@@ 40
shopper 40
simpson 40
since 40
skinfit 40
slim@@ 40
smoo@@ 40
soap@@ 40
softener 40
sportswear 40
sq 40
still 40
storybook 40
stunning 40
sunnyware 40
syn@@ 40
tail@@ 40
ted@@ 40
thy 40
timewise 40
tins 40
tique 40
together 40
tracing 40
transmitter 40
tter@@ 40
tweezer 40
upgrade 40
upgraded 40
valley 40
variants 40
vibration 40
vogue 40
vul@@ 40
weapon 40
week 40
wigs 40
wimpy 40
wj 40
woo@@ 40
x10@@ 40
zoe 40
α@@ 40
060 39
1100@@ 39
120cm 39
135@@ 39
15a 39
1600 39
16inch 39
1800 39
204 39
215@@ 39
218 39
219 39
234 39
245 39
290 39
299 39
3cm 39
402 39
50w 39
580 39
670@@ 39
6kg 39
710 39
7th 39
803 39
950 39
9v 39
acti@@ 39
akg 39
alite 39
andra 39
anion 39
aphrodisia 39
atomy 39
avenger 39
awa@@ 39
bau@@ 39
beachwear 39
bet 39
bga@@ 39
bigbang 39
bones 39
brit 39
canopy 39
cardfight 39
catriona 39
cca 39
celer@@ 39
chen@@ 39
chers 39
cica 39
cle 39
corn@@ 39
cree 39
dau@@ 39
dec@@ 39
delay 39
dinnerware 39
door@@ 39
drag 39
emperor 39
eri@@ 39
everest 39
factor 39
fei@@ 39
fem 39
ffy 39
fighting 39
fittings 39
flashdrive 39
flowering 39
freezer 39
front@@ 39
g7 39
gai@@ 39
grms 39
gro 39
groom 39
habits 39
ham 39
hau@@ 39
hd3 39
heal 39
hits 39
hogwarts 39
hue 39
ide@@ 39
immortal 39
isl@@ 39
ited 39
j210 39
jd@@ 39
jose 39
jz118@@ 39
kang@@ 39
kim@@ 39
knuckle 39
leader 39
leather@@ 39
lil@@ 39
ln@@ 39
lux@@ 39
mamypoko 39
maya 39
maze 39
meduim 39
milo 39
mio@@ 39
monsta 39
mux 39
ngk 39
old@@ 39
pajero 39
paracord 39
paw@@ 39
phy@@ 39
plaka 39
pores 39
qs 39
quiet 39
r8 39
rapunzel 39
rasta 39
realistic 39
rocking 39
sandy 39
scra@@ 39
sds 39
shave 39
sidebag 39
space@@ 39
spoke 39
sport@@ 39
srp 39
sten@@ 39
strada 39
superstay 39
t10 39
telescope 39
thinkpad 39
tia 39
tnt 39
tool@@ 39
tour@@ 39
trouble 39
tubular 39
tweeter 39
twi@@ 39
utp 39
vac@@ 39
vapormax 39
vega 39
whisk 39
wife 39
wing@@ 39
wjf 39
wy 39
yaiba 39
yar@@ 39
yazi 39
yf 39
zaful 39
zer@@ 39
ñ@@ 39
034 38
045 38
10000 38
1000w 38
137 38
13cm 38
13mm 38
221 38
236@@ 38
242 38
24mm 38
25a 38
2in1@@ 38
2p 38
316@@ 38
340@@ 38
35g 38
410 38
42a 38
45w 38
500grams 38
512@@ 38
602 38
620 38
660@@ 38
680 38
6y 38
705 38
858 38
906 38
985@@ 38
990@@ 38
9w 38
adam 38
aloevera 38
antiperspirant 38
ape 38
apo 38
aquamarine 38
arma@@ 38
asi@@ 38
awa 38
bangtan 38
bataan 38
bayo 38
belts 38
berg 38
blackheads 38
blackout 38
bru@@ 38
camshaft 38
carton 38
chainsaw 38
claiborne 38
cles 38
clouds 38
cook 38
cus 38
dart 38
degreaser 38
dion 38
dn@@ 38
dooney 38
doug 38
electri@@ 38
electroplated 38
elle@@ 38
fabulous 38
farrar 38
filling 38
filters 38
fitflops 38
flesh 38
fty 38
fw@@ 38
g7@@ 38
garnet 38
gasoline 38
genic 38
gia 38
gir@@ 38
gla@@ 38
gm@@ 38
grant 38
guality 38
gudi 38
happiness 38
has 38
heather 38
hub@@ 38
hus@@ 38
i9082 38
immune 38
ind@@ 38
instru@@ 38
internet 38
jennifer 38
jig@@ 38
jimmy 38
jl@@ 38
joyride 38
just@@ 38
kalamansi 38
kenzo 38
kids@@ 38
kilogram 38
kimetsu 38
knitting 38
lau@@ 38
lots 38
madrid 38
magic@@ 38
mans 38
maple 38
marcus 38
mate@@ 38
maxidress 38
micky 38
mobi@@ 38
moroccan 38
mper 38
mustache 38
nami 38
nasal 38
netflix 38
nz@@ 38
oddstickers 38
oil@@ 38
others 38
p200 38
physical 38
piglet 38
planer 38
pldt 38
pochette 38
predator 38
pw@@ 38
rb@@ 38
reci@@ 38
refresh 38
rene 38
respirator 38
retina 38
rite 38
rosa 38
sanuk 38
sega 38
sellers 38
sie@@ 38
sign@@ 38
simcard 38
songs 38
starex 38
static 38
sterili@@ 38
strai@@ 38
sung 38
sweat@@ 38
sym@@ 38
target 38
tb@@ 38
td@@ 38
tft 38
thanos 38
thru 38
thumb 38
tian 38
torani 38
tox 38
tren@@ 38
uag 38
veg 38
ville 38
vis@@ 38
voltmeter 38
warts 38
watch@@ 38
wears 38
whipped 38
wild@@ 38
wolverine 38
wrist@@ 38
x125 38
xs@@ 38
y3 38
y9s 38
è 38
023 37
070 37
10inches 37
10t 37
11oz 37
12inch 37
1300 37
146 37
20m 37
20s 37
247 37
252 37
288 37
2oz 37
2tone 37
309 37
331 37
366 37
4000 37
405 37
450g 37
4kg 37
64g 37
6l 37
7b 37
818 37
8cm 37
8s 37
950@@ 37
N@@ 37
R@@ 37
a13@@ 37
a8plus 37
abi@@ 37
activ@@ 37
addict 37
ald 37
alkansya 37
angela 37
antioxidant 37
antiseptic 37
appli@@ 37
aries 37
assassin 37
autograph 37
battle@@ 37
beverage 37
billiard 37
bing 37
biotin 37
biztree 37
bloom@@ 37
bub@@ 37
cad@@ 37
calm 37
cameo 37
cappuccino 37
capshop 37
cignus 37
cin 37
ckle 37
classa 37
clavicle 37
clip@@ 37
comes 37
commuter 37
conne@@ 37
coolant 37
cowboy 37
creation 37
d3@@ 37
damaged 37
dea@@ 37
delta 37
digest 37
dm 37
dmc 37
dolph@@ 37
donna 37
dragons 37
dreamer 37
drunk 37
elena 37
epi@@ 37
erie 37
expansion 37
feline 37
fic@@ 37
fifi 37
fig 37
flaw 37
furball 37
fying 37
gfriend 37
guardian 37
guilty 37
hairclips 37
hanes 37
headwear 37
hear@@ 37
helmets 37
inpods 37
interface 37
iphone4 37
iphone6s 37
ista 37
ivt 37
jpop 37
july 37
jumpskirt 37
kel 37
kies 37
kinds 37
kris 37
lands 37
legacy 37
less@@ 37
lipp@@ 37
lipton 37
lm@@ 37
lolita 37
lush 37
macaroon 37
magne@@ 37
mark@@ 37
memor@@ 37
mex 37
moul@@ 37
move 37
myrrh 37
neu@@ 37
nova3 37
on7 37
optimus 37
origin@@ 37
p50 37
pag@@ 37
payless 37
pel@@ 37
phar@@ 37
pid 37
pisonet 37
plasma 37
playtex 37
poker 37
polkadot 37
prayer 37
proble@@ 37
purchase 37
ql 37
qnet 37
quar@@ 37
r15 37
rd@@ 37
rece@@ 37
ribb@@ 37
rinse 37
ris 37
rk@@ 37
rr@@ 37
rusi 37
s0@@ 37
sac 37
seafood 37
senka 37
setter 37
sexy@@ 37
shaving 37
sierra 37
sil 37
sill 37
skintone 37
slam 37
spar@@ 37
spd 37
speak 37
spout 37
stack 37
sticated 37
swab 37
t110 37
teardrop 37
tele@@ 37
temperd 37
tied 37
totebag 37
tubes 37
tune 37
updated 37
ure@@ 37
ux 37
vco 37
veins 37
vel 37
volleyball 37
was 37
wen@@ 37
wrapper 37
wwfph 37
x6@@ 37
yayamanin 37
yoyo 37
zh@@ 37
035 36
037 36
143 36
147 36
148 36
158@@ 36
170g 36
179 36
17cm 36
200mah 36
229 36
272 36
2ways 36
32mm 36
7l 36
880 36
888s 36
8inches 36
908 36
acai 36
adf 36
ank 36
artisan 36
ary@@ 36
backs 36
backup 36
barber 36
bath@@ 36
believe 36
boardwalk 36
bodyworks 36
bowtie 36
brook 36
camille 36
chang@@ 36
cheddar 36
chemical 36
cky 36
classical 36
comb@@ 36
compaq 36
condom 36
connecting 36
cont@@ 36
contouring 36
corelle 36
cork 36
cott@@ 36
creamsilk 36
crossbar 36
cruise 36
crushed 36
crystalline 36
cted 36
dio@@ 36
discounted 36
divi@@ 36
dog@@ 36
dragon@@ 36
eable 36
extractor 36
f0@@ 36
fds@@ 36
finger@@ 36
fiona 36
fp@@ 36
freshner 36
friction 36
frnc 36
g7106 36
garment 36
gc@@ 36
ggie 36
glitz 36
greatest 36
h4 36
had@@ 36
hama 36
hap@@ 36
happywallph 36
harmony 36
hatchback 36
headed 36
hide 36
himalaya 36
homemade 36
hua@@ 36
icons 36
infallible 36
investment 36
ionic 36
ishigaki 36
j5pro 36
je 36
jeep 36
journey 36
jz@@ 36
k8 36
kag@@ 36
knorr 36
kodak 36
konzert 36
ladder 36
late 36
lazel 36
logic 36
lpg 36
lun@@ 36
macbeth 36
magnum 36
mai 36
mary@@ 36
maxine 36
michelle 36
mtrt 36
murano 36
nate 36
natures 36
nav@@ 36
nc@@ 36
nel@@ 36
nhance 36
nk@@ 36
novelty 36
ollie 36
opal 36
pageant 36
pantyliner 36
patterns 36
pb@@ 36
peculiar 36
pee 36
pickup 36
pipes 36
pm@@ 36
pong 36
pregnancy 36
produ@@ 36
props 36
protec 36
prreti 36
psu 36
puzzles 36
quadcopter 36
r2 36
rad 36
rein@@ 36
rocks 36
roy 36
roy@@ 36
scales 36
sei@@ 36
selected 36
send 36
shirt@@ 36
shopp 36
simpsons 36
snor@@ 36
some@@ 36
something 36
spring@@ 36
sse@@ 36
streetwear 36
stroke 36
submersible 36
suspender 36
tainer 36
tel@@ 36
thomson 36
ths 36
toothpick 36
typec 36
ug@@ 36
ull 36
unlimited 36
vooc 36
weigh@@ 36
wika 36
wu@@ 36
yield 36
yun 36
zhi 36
zzle 36
040 35
042 35
1151 35
12yrs 35
152 35
153 35
159 35
169 35
1991 35
199@@ 35
1t 35
21st 35
2500 35
295ml 35
3000@@ 35
32oz 35
355ml 35
430 35
45pcs 35
552 35
5meters 35
605 35
675@@ 35
678 35
727 35
8th 35
900ml 35
P@@ 35
a00@@ 35
a510 35
abel 35
acce@@ 35
aku 35
alle@@ 35
alyn 35
amer@@ 35
ances 35
archie 35
asymmetrical 35
aur@@ 35
babyg 35
bagonly 35
bak@@ 35
bas 35
bedside 35
ben10 35
binlu 35
bly 35
bmx 35
boards 35
bol@@ 35
brownie 35
btob 35
butane 35
butterscotch 35
caddy 35
cardholder 35
casino 35
celebr@@ 35
choco@@ 35
cindy 35
cket 35
code@@ 35
collectors 35
cook@@ 35
crist@@ 35
cuffed 35
day6 35
denso 35
diamante 35
doh 35
dynam@@ 35
e7 35
ef@@ 35
ene 35
ener@@ 35
erase 35
ertiga 35
eun@@ 35
events 35
extendable 35
fam@@ 35
fleur 35
floor@@ 35
formulas 35
framed 35
gee@@ 35
geek 35
georgia 35
gged 35
gger 35
ggy 35
gies 35
gogh 35
graham 35
graphy 35
gunmetal 35
hardtop 35
havainas 35
hero@@ 35
hollywood 35
hstnn 35
ido@@ 35
ier 35
illusion 35
ingredients 35
integrated 35
iridium 35
ish 35
ith@@ 35
jdm 35
jf 35
joseph 35
kara 35
karen 35
keepers 35
kelsey 35
krist@@ 35
lla 35
loaf 35
lust 35
magni@@ 35
marlboro 35
mela 35
miku 35
mists 35
mit 35
mitch 35
mme 35
movement 35
mrc 35
mugen 35
mura 35
nai@@ 35
nicer 35
nouvo 35
ntc 35
nudes 35
ob 35
ole 35
omni@@ 35
oni@@ 35
oppe 35
p30pro 35
pans 35
panty@@ 35
paulo 35
pear@@ 35
pedicure 35
periwinkle 35
petrol 35
pills 35
pix 35
pn@@ 35
portrait 35
propeller 35
psy@@ 35
put 35
quart 35
quarter 35
rachel 35
raffles 35
rebecca 35
recovery 35
repeater 35
resi@@ 35
restore 35
rk 35
rohto 35
rubbershoes 35
rxr 35
s10@@ 35
sdxc 35
secosana 35
servings 35
shoot 35
show@@ 35
shredder 35
shure 35
silverworks 35
snowflake 35
sockets 35
solotica 35
soon 35
spears 35
spoons 35
step@@ 35
sucker 35
sulwhasoo 35
sunsilk 35
sus@@ 35
swa@@ 35
take@@ 35
tea@@ 35
teabags 35
teething 35
textile 35
thunder@@ 35
toast 35
tons 35
ttle@@ 35
twenty 35
ufc 35
ush 35
vehicles 35
viva 35
waistband 35
watchportal 35
weight@@ 35
windbreaker 35
wk@@ 35
woody 35
woofer 35
xuebami 35
y7@@ 35
yale 35
yel@@ 35
yuri 35
zoey 35
zon 35
0001 34
029 34
041 34
043 34
054 34
0a 34
1288 34
139@@ 34
173 34
18pcs 34
18v 34
18x@@ 34
200grams 34
20inches 34
20l 34
226 34
238@@ 34
285 34
2cm 34
307 34
318 34
322 34
326 34
3533 34
36b 34
3b 34
45mm 34
470@@ 34
4ft 34
5000mah 34
6000mah 34
7000 34
703 34
707 34
7inches 34
946ml 34
acle 34
adjuster 34
ador 34
adri@@ 34
african 34
anie 34
apo@@ 34
appliances 34
area 34
armrest 34
astray 34
backlight 34
bacon 34
bae 34
bian 34
blast 34
blazers 34
bleu 34
bor 34
braid 34
bral@@ 34
bucks 34
bye 34
carri@@ 34
caseology 34
cause 34
cg125 34
chamois 34
checkerd 34
christie 34
chrono 34
clasp 34
clau@@ 34
clay@@ 34
coldshoulder 34
collage 34
conceal 34
cop@@ 34
course 34
crankcase 34
crisp 34
croc 34
cutters 34
d0@@ 34
d4 34
death@@ 34
dee 34
detective 34
dollhouse 34
earl 34
embroid 34
enchanted 34
enclosure 34
f2 34
fat@@ 34
fd@@ 34
feed 34
fir@@ 34
flange 34
foglight 34
footsocks 34
freesia 34
frill 34
fujidenzo 34
gain 34
genuine100 34
glutax 34
gluth@@ 34
griffin 34
guit@@ 34
gym@@ 34
hanna 34
hbd 34
helicopter 34
hersheys 34
houston 34
hrv 34
hx@@ 34
i125 34
icare 34
inn 34
inno@@ 34
int@@ 34
inte@@ 34
iphonexr 34
iris 34
iro 34
iting 34
itzy 34
j5@@ 34
jack@@ 34
jaguar 34
jewellery 34
jim 34
julong 34
jw 34
kiehl 34
know 34
kr@@ 34
kyle 34
lamborghini 34
les@@ 34
lf@@ 34
lids 34
lina 34
lint 34
lose 34
magnolia 34
maii 34
main@@ 34
mango@@ 34
manufactured 34
marga 34
meg 34
menstrual 34
mercier 34
metro@@ 34
microns 34
miller 34
monarch 34
mps 34
nal@@ 34
nano@@ 34
near 34
nectarine 34
nick 34
nr 34
nut@@ 34
nv@@ 34
oily 34
ornaments 34
ort 34
oversea 34
pals 34
papemelroti 34
party@@ 34
patched 34
physicians 34
plex 34
poison 34
poli@@ 34
poppy 34
pub@@ 34
pulls 34
punny 34
q3 34
quinoa 34
rainy 34
raz@@ 34
repairing 34
reserve 34
rexona 34
rh 34
rivet 34
sa1e 34
saf@@ 34
safe@@ 34
sew 34
shan 34
shooting 34
sins 34
sion@@ 34
sippy 34
smoothie 34
sonia 34
spl@@ 34
stains 34
stam@@ 34
stance 34
stretch@@ 34
sweatshorts 34
tali 34
tease 34
teenage 34
then@@ 34
thic@@ 34
thrift 34
tive 34
toy@@ 34
ual 34
village 34
voucher 34
westbrook 34
wra@@ 34
x9@@ 34
yema 34
yours 34
yoyoso 34
zan 34
038 33
044 33
0m 33
110g 33
16mm 33
211@@ 33
251 33
2c 33
306 33
330ml 33
3x@@ 33
4m 33
5ft 33
609 33
650ml 33
6pc 33
9000 33
9months 33
O@@ 33
abe 33
adore 33
ahd 33
aller@@ 33
alligator 33
ameri@@ 33
ancer 33
antibac 33
anya 33
anycast 33
ariana 33
armpit 33
arr@@ 33
aser 33
atin 33
atmosphere 33
att@@ 33
bake 33
baruan 33
beats 33
beginner 33
bells 33
billabong 33
bj 33
blankets 33
bradley 33
buil@@ 33
cassie 33
celeteque 33
chief 33
chin@@ 33
cide 33
coke 33
colleen 33
compress 33
conan 33
cooper 33
crossing 33
cz 33
density 33
dha 33
dic@@ 33
dimension 33
dir 33
diver 33
dle 33
donald 33
doz 33
dry@@ 33
ejm 33
electroplate 33
ellie 33
ems 33
engraved 33
enne 33
entry 33
enzyme 33
etti 33
executive 33
fleer 33
fragrant 33
freego 33
freshly 33
frixion 33
gallery 33
girly 33
glide 33
glucose 33
godzilla 33
gw 33
hara 33
henry 33
hourglass 33
hyun 33
i12 33
ibo 33
icm 33
imp@@ 33
impre@@ 33
indigo 33
insta 33
ique 33
irl 33
irregular 33
jennie 33
jinju 33
jun 33
k001 33
kool 33
kout 33
ktph 33
kyo@@ 33
lara 33
lattice 33
lds 33
leave 33
leigh 33
leonard 33
lexi 33
library 33
lier 33
lje 33
lounge 33
lx@@ 33
made@@ 33
mage 33
mascot 33
mate10 33
mauve 33
mech 33
memo@@ 33
midoko 33
minimal 33
mis 33
miz@@ 33
moose 33
mortal 33
movable 33
much 33
natur@@ 33
ng@@ 33
noblekids 33
o2 33
oes 33
oli 33
oli@@ 33
omron 33
oriental 33
pang@@ 33
park@@ 33
parking 33
pcx 33
pentel 33
phen@@ 33
pis 33
points 33
pom 33
pregnant 33
putty 33
quad@@ 33
ralliart 33
rayon 33
refills 33
relx 33
ritz 33
rl@@ 33
runs 33
russell 33
rustic 33
sala 33
salve 33
scooper 33
seasoned 33
semi@@ 33
sex@@ 33
singing 33
six@@ 33
skinlab 33
slice 33
specialty 33
spokes 33
spotlight 33
stefan 33
sticker@@ 33
stila 33
stine 33
stique 33
strand 33
suv 33
tera 33
thickening 33
thompson 33
tl@@ 33
tokidoki 33
toppers 33
toronto 33
tuner 33
turband 33
tv@@ 33
units 33
unity 33
uy 33
v5lite 33
veil 33
vivi 33
vu@@ 33
weekender 33
wii 33
wishes 33
wm@@ 33
wol@@ 33
wr 33
wre@@ 33
writ@@ 33
x21 33
yakimoto 33
yan@@ 33
zf 33
è@@ 33
050 32
1050 32
10cm 32
10pc 32
163 32
191 32
1mm 32
1x@@ 32
200cm 32
231 32
239 32
275 32
344@@ 32
34b 32
399 32
413@@ 32
430@@ 32
4pairs 32
503 32
50grams 32
510@@ 32
5600 32
5e 32
611 32
640@@ 32
688 32
6oz 32
790 32
80cm 32
81@@ 32
909 32
L@@ 32
acu@@ 32
ade@@ 32
airbrush 32
ake 32
alaric 32
alchemist 32
allo@@ 32
amic 32
anas 32
angry 32
ank@@ 32
aqva 32
aria 32
asp@@ 32
asymmetric 32
atlan@@ 32
b1@@ 32
b4 32
baf 32
baker 32
baleno 32
bble 32
beach@@ 32
bedtime 32
bija 32
bour@@ 32
bowling 32
brothers 32
buck@@ 32
c10 32
c100 32
c24 32
campus 32
caribbean 32
carla 32
cassandra 32
chable 32
chel@@ 32
chole@@ 32
connection 32
conver@@ 32
creator 32
cum 32
curvy 32
ddy 32
designplus 32
dev@@ 32
dexe 32
divine 32
dn 32
donruss 32
dylan 32
dz@@ 32
eff@@ 32
ego 32
encore 32
entrance 32
erry 32
extra@@ 32
fabcon 32
faito 32
favorites 32
fc@@ 32
fingers 32
gamuza 32
gence 32
geronimo 32
gerry 32
glutalight 32
going 32
h0@@ 32
hazeshop 32
horizon 32
hum@@ 32
hydrogel 32
hygiene 32
icks 32
illu@@ 32
inal 32
inang 32
inch@@ 32
infusion 32
instabright 32
j42018 32
jama 32
jc@@ 32
jonaxx 32
kojic@@ 32
koso 32
lady@@ 32
lh@@ 32
lig@@ 32
longrich 32
luckin 32
lumens 32
lunar 32
macrame 32
madison 32
magnifier 32
mara 32
mavic 32
mmies 32
mochi 32
moistfull 32
msh 32
mtr 32
muscletech 32
newyork 32
nova4 32
occas@@ 32
omaga 32
oo 32
origins 32
osmo 32
padding 32
patterson 32
paws 32
pekas 32
perfu@@ 32
pink@@ 32
piso 32
plan 32
ple 32
pore@@ 32
pos 32
prevent 32
primark 32
primary 32
private 32
promise 32
proph@@ 32
pudding 32
puffs 32
quantum 32
rail 32
raven 32
recording 32
resealable 32
rhi@@ 32
rid 32
riley 32
rockets 32
rollerball 32
rrj 32
rta 32
saber 32
sace 32
sailormoon 32
school@@ 32
schoolbag 32
scul@@ 32
sdf@@ 32
secure 32
september 32
shopp@@ 32
shoul@@ 32
siren 32
sleveless 32
slip@@ 32
smashbox 32
smd 32
snickers 32
softband 32
sophi@@ 32
stacking 32
sterile 32
terminal 32
theater 32
then 32
thief 32
trees 32
triton 32
tuxedo 32
twopiece 32
ua@@ 32
vivi@@ 32
vtech 32
warning 32
watt 32
waves 32
wei 32
whe@@ 32
willow 32
women@@ 32
write 32
x75 32
xe 32
xion 32
xtra 32
yet 32
yna 32
051 31
055 31
150mm 31
166 31
196 31
1987 31
1piece 31
259 31
25l 31
282 31
287 31
323 31
4cm 31
4yo 31
580@@ 31
591ml 31
5in 31
5yo 31
600w 31
6yo 31
7inch 31
920 31
989 31
T@@ 31
a14@@ 31
abe@@ 31
abo@@ 31
ako@@ 31
aler 31
aluminium 31
arch@@ 31
arpege 31
atten@@ 31
aussie 31
avi@@ 31
bakeware 31
balanced 31
banks 31
bata 31
biking 31
blake 31
blaze 31
blowout 31
bonbon 31
booklet 31
bos 31
bumble 31
bumebime 31
butterflies 31
cameron 31
cent 31
center@@ 31
cheesecake 31
chimmy 31
chon 31
choo@@ 31
cici 31
cms 31
coelho 31
conversion 31
cor 31
corned 31
cosme@@ 31
coverup 31
crane 31
crate 31
dandelion 31
dashing 31
ddle 31
defen@@ 31
dermacol 31
des@@ 31
devo@@ 31
dine 31
dipbrow 31
drama 31
dresser 31
drl 31
drypers 31
eeee@@ 31
effector 31
eno 31
ergonomic 31
esme 31
ess 31
essen@@ 31
exchange 31
fai@@ 31
falling 31
fav 31
fearless 31
feeling 31
ffle 31
fibre 31
fine@@ 31
fishnet 31
fleetmax 31
fon@@ 31
furla 31
gamosa 31
gluco@@ 31
gone 31
goo 31
gra 31
graphite 31
groot 31
gsw 31
guardians 31
guerisson 31
gui@@ 31
half@@ 31
hikari 31
icosmetica 31
impro@@ 31
inclusive 31
intra 31
itas 31
jjs 31
jojoba 31
js@@ 31
juan 31
justin 31
jvt 31
kathryn 31
kie@@ 31
kily 31
kindergarten 31
kiwi 31
komine 31
komodo 31
kr 31
lac 31
lbb 31
lebelage 31
lence 31
lev@@ 31
lings 31
loops 31
louise 31
lumi@@ 31
m4@@ 31
m6@@ 31
macadamia 31
mad@@ 31
master@@ 31
matter 31
mented 31
miss@@ 31
mori 31
mun 31
nak@@ 31
negotiable 31
nemo 31
nik 31
nourish 31
oid 31
olaf 31
onia 31
ono@@ 31
oro 31
osram 31
oud 31
overwatch 31
p9@@ 31
paperang 31
parallel 31
part@@ 31
password 31
pawn@@ 31
penta@@ 31
percy 31
poe@@ 31
prep 31
presen@@ 31
preven@@ 31
projection 31
qube 31
quiksilver 31
ramyun 31
reno6 31
reno@@ 31
rey 31
rive@@ 31
roblox 31
roof 31
rs100 31
ryxskin 31
ryzen 31
s10lite 31
s925 31
sad 31
saga 31
sanitizing 31
scrat@@ 31
scrubber 31
scu@@ 31
shadows 31
shrimp 31
silica 31
simpli@@ 31
skintouch 31
sla@@ 31
sling@@ 31
smar@@ 31
sofi@@ 31
spanish 31
spf15 31
sses 31
stansmith 31
stant 31
stealth 31
strengthening 31
summer@@ 31
sus 31
susan 31
sv 31
tapioca 31
thening 31
tiesides 31
totally 31
tron@@ 31
tted 31
ubiquiti 31
ulzzang 31
uma 31
underwater 31
vag@@ 31
vanessa 31
vegetarian 31
vein 31
velvetines 31
virginity 31
vitam@@ 31
vn@@ 31
w125 31
whisky 31
wp@@ 31
ww@@ 31
wx 31
x40@@ 31
xiao@@ 31
xqt 31
yaris 31
yj@@ 31
yon 31
yy 31
053 30
1005 30
118ml 30
12x12 30
160ml 30
164 30
16x@@ 30
177 30
181 30
1970 30
1kl 30
20000 30
20180@@ 30
2020@@ 30
213@@ 30
217 30
238 30
24x@@ 30
2inch 30
315 30
327 30
3310 30
334 30
375 30
480@@ 30
4b 30
50s 30
551 30
666 30
6v 30
708 30
88ml 30
8inch 30
900g 30
90s 30
9mos 30
a62018 30
a91 30
aape@@ 30
abdomen 30
adilette 30
agent 30
aline 30
amor 30
ande@@ 30
apruva 30
aquatic 30
arab@@ 30
astro@@ 30
attached 30
atv 30
azur 30
b1t1 30
barcode 30
benz 30
bigsize 30
bourke 30
bq@@ 30
brocade 30
bubblegum 30
bustier 30
busy 30
cabana 30
camcorder 30
cavaliers 30
cers 30
chew@@ 30
chilli 30
cial 30
citizen 30
cking 30
coachella 30
compre@@ 30
continental 30
cost@@ 30
cot 30
croco 30
d001 30
decker 30
decool 30
deodor@@ 30
design@@ 30
despicable 30
diab@@ 30
dna 30
dor 30
dp@@ 30
drawers 30
econo@@ 30
editions 30
emboss 30
enriched 30
envelopes 30
epoch 30
eric 30
essie 30
ew@@ 30
f18 30
feathers 30
finished 30
flage 30
flirt 30
foglamp 30
furious 30
gatsby 30
gigi 30
gle 30
godox 30
greeting 30
guil@@ 30
hairbows 30
hamilton 30
hamper 30
haven 30
highlighters 30
hinges 30
holster 30
hua 30
hy 30
ida 30
ill@@ 30
individually 30
infl@@ 30
iri@@ 30
ites 30
ivana 30
jelt 30
jeweled 30
jibbitz 30
joggers 30
jung 30
jute 30
kan 30
kao 30
karadium 30
katrina 30
katsa 30
kimchi 30
kne@@ 30
kuroko 30
lacy 30
ladladlandph 30
lamaze 30
lamps 30
lans@@ 30
layout 30
lemongrass 30
lepin 30
lever@@ 30
lewis 30
lex@@ 30
lion@@ 30
ln 30
locker 30
log@@ 30
looking 30
lulu 30
maca 30
mang@@ 30
manuka 30
mati@@ 30
maxglow 30
mdr 30
mediapad 30
medicinal 30
meric 30
metromanila 30
mfjewelry 30
micron 30
mio125 30
mlb 30
mona 30
mons 30
morty 30
motorcy@@ 30
muse 30
nan 30
naturacentials 30
needles 30
nova5i 30
nuby 30
nuo 30
oh@@ 30
online@@ 30
onlyyouth 30
ono 30
outerwear 30
overun 30
palawan 30
papers 30
pay 30
pba 30
perkins 30
pick@@ 30
pier@@ 30
pms 30
primera 30
printable 30
program@@ 30
puffed 30
quality@@ 30
ree@@ 30
reese 30
regi@@ 30
register 30
retinol 30
robes 30
rox@@ 30
rs150 30
ruched 30
rules 30
rx@@ 30
say@@ 30
shabu 30
shane 30
shapewear 30
shat@@ 30
shiro 30
similac 30
sketch@@ 30
skins 30
slimfit 30
slr 30
sooper 30
sor 30
spectrum 30
spyker 30
squareneck 30
sri@@ 30
ssam@@ 30
strobe 30
stx 30
sulfate 30
supplements 30
teach@@ 30
television 30
tension 30
thickened 30
thor@@ 30
throat 30
thumbler 30
timex 30
tix 30
tongue 30
toning 30
touch@@ 30
tracy 30
tsubaki 30
twice@@ 30
txt 30
tyre 30
uk@@ 30
ulity 30
underarmour 30
unsweetened 30
v5plus 30
vc@@ 30
ventilation 30
vero 30
vinci 30
washcloth 30
webcam 30
west@@ 30
wg 30
wic@@ 30
woods 30
yle 30
zc554kl 30
zoya 30
zu 30
001@@ 29
058 29
1000pcs 29
104@@ 29
12v@@ 29
12x@@ 29
134 29
137@@ 29
154 29
18mm 29
198 29
1yr 29
218@@ 29
241 29
243 29
258 29
278@@ 29
28mm 29
2colors 29
2x2 29
312 29
316l 29
345@@ 29
3color 29
3e 29
45ml 29
460@@ 29
509 29
512 29
540@@ 29
5grams 29
5lbs 29
5pairs 29
61@@ 29
662 29
6900 29
6cm 29
704 29
903 29
910 29
920@@ 29
925silver 29
a11 29
a12@@ 29
a710 29
acc 29
adjust 29
aesop 29
again 29
aged 29
aircraft 29
alizer 29
aller 29
allergenic 29
alyssa 29
andre@@ 29
anker 29
aq 29
asu@@ 29
atom 29
attr@@ 29
aukey 29
authorized 29
b12 29
bagoong 29
barebody 29
barely 29
bh@@ 29
birken 29
bos@@ 29
break@@ 29
bulldog 29
cables 29
camry 29
cand@@ 29
canned 29
carol 29
cello@@ 29
central 29
cerave 29
chapter 29
chest@@ 29
ckers 29
cocoberry 29
colourful 29
corrugated 29
counting 29
crimson 29
ction@@ 29
cudd@@ 29
cuffs 29
dale 29
deodorizer 29
desig@@ 29
destash 29
developer 29
diaries 29
dinosaurs 29
dire@@ 29
doo@@ 29
dre 29
dyo@@ 29
earloop 29
engrave 29
enhance 29
ents 29
es1 29
exfoli@@ 29
exfoliant 29
exotic 29
exquisite 29
f4 29
fect 29
files 29
filipiniana 29
finest 29
finn 29
flexi 29
flounce 29
flute 29
follow 29
fpv 29
francesca 29
freak 29
friday 29
fudge 29
fujitsu 29
fullface 29
gate@@ 29
ghoul 29
gkk 29
grit 29
grizzly 29
hac 29
hak@@ 29
hea 29
hugot 29
hunt 29
hz 29
incredible 29
ingo 29
intal 29
isabelle 29
january 29
jar@@ 29
john@@ 29
jordana 29
kanken 29
kath@@ 29
kita 29
kul@@ 29
kx 29
lace@@ 29
lai@@ 29
lary 29
latitude 29
leng@@ 29
lian 29
linda 29
liptints 29
litchi 29
lite@@ 29
livestreaming 29
lk 29
luncheon 29
luxcent 29
lyn@@ 29
m9 29
maiden 29
maldita 29
mali@@ 29
mallows 29
marmont 29
masked 29
mature 29
mess 29
milkca 29
mind@@ 29
minimizer 29
mobile@@ 29
modeling 29
monica 29
monte 29
mots 29
mounting 29
mping 29
mummy 29
mutarru 29
mw 29
n10 29
nacific 29
narrow 29
naturactor 29
never@@ 29
nib 29
nike@@ 29
nip 29
nova5 29
nova@@ 29
octa@@ 29
of@@ 29
oria 29
oscar 29
outside 29
packbag 29
pand@@ 29
penelope 29
phat 29
physi@@ 29
pillowcases 29
pitta 29
pld 29
poin@@ 29
polisher 29
premi@@ 29
q1 29
qual@@ 29
rand@@ 29
read@@ 29
reclin@@ 29
rectifier 29
renewing 29
resident 29
ress 29
rich@@ 29
rier 29
rober@@ 29
rodeo 29
rub@@ 29
sag@@ 29
sandugo 29
sanji 29
sausage 29
secondhand 29
seconds 29
serve 29
shad@@ 29
sheath 29
shirly 29
shuta 29
sincerity 29
slogan 29
smash@@ 29
snack@@ 29
spea@@ 29
squeaky 29
stan@@ 29
stiletto 29
ston 29
sx 29
sym 29
talc 29
tassels 29
teats 29
tex@@ 29
textbook 29
thir@@ 29
tilt 29
ting@@ 29
tom@@ 29
topps 29
track@@ 29
tries 29
tubbies 29
tul@@ 29
turtles 29
une 29
urine 29
urs 29
valiant 29
vas@@ 29
vd 29
velour 29
vina 29
virtual 29
visible 29
w10 29
watsons 29
wc 29
wear@@ 29
whitener 29
wp 29
wynn 29
x20 29
x21@@ 29
x4@@ 29
xin 29
xing 29
xinjia 29
xlarge 29
xmax 29
yummy 29
zc520tl 29
062 28
109@@ 28
10kg 28
185@@ 28
18months 28
1oz 28
220g 28
230gsm 28
240ml 28
256@@ 28
260gsm 28
262 28
264 28
28street 28
324 28
32cm 28
345 28
3usb 28
453 28
45g 28
4u 28
507 28
518 28
556@@ 28
55g 28
6ft 28
790@@ 28
7oz 28
806 28
828@@ 28
90w 28
a11@@ 28
a4@@ 28
a70s 28
alt 28
anger 28
antine 28
asse@@ 28
atlas 28
avr 28
barbara 28
beddings 28
bennett 28
bert 28
bia 28
bler 28
blisty 28
blush@@ 28
bnwot 28
bobson 28
bonus 28
broad@@ 28
brushless 28
bsn 28
buzz 28
cache 28
cali 28
calorie 28
camou 28
cas 28
cath@@ 28
cellular 28
cere@@ 28
cess 28
checker 28
chekered 28
chinkee 28
ciss 28
cleanse 28
cleveland 28
coas@@ 28
coin@@ 28
colla@@ 28
collins 28
commander 28
concrete 28
constellation 28
coupler 28
crafting 28
crank@@ 28
cta 28
cup@@ 28
demi 28
dic 28
digit 28
dmax 28
doors 28
dra 28
dul@@ 28
dusk 28
ebene 28
ecosport 28
eliminator 28
elo 28
embo@@ 28
embroider 28
ended 28
energizer 28
environmental 28
experia 28
fallen 28
fashionice 28
financial 28
flags 28
flair 28
flam@@ 28
florence 28
frequency 28
freshwater 28
frontier 28
fx@@ 28
gand@@ 28
garanimals 28
gers 28
giving 28
glade 28
glas 28
grandia 28
graph 28
grs 28
handles 28
hatsune 28
held 28
hello@@ 28
hemp 28
hh 28
hh@@ 28
hinge 28
hui 28
hungry 28
hypo 28
ici@@ 28
inche@@ 28
insipio 28
iph@@ 28
ips 28
iso 28
isol@@ 28
ital 28
ito@@ 28
iv@@ 28
izer 28
jel@@ 28
joyo 28
jum@@ 28
kandp 28
kawhi 28
kevler 28
kickstand 28
kinder 28
kis 28
kittens 28
kuro@@ 28
lactation 28
laine 28
lav@@ 28
ld@@ 28
leak 28
lesportsac 28
lettes 28
liv 28
lls 28
loft 28
looks 28
lucy 28
luke 28
lunchbag 28
mak@@ 28
maver@@ 28
maxell 28
ment@@ 28
micari 28
mined 28
mise 28
muddy 28
mw@@ 28
naturale 28
nau@@ 28
nex 28
nomad 28
nori 28
obi 28
october 28
olo 28
oppo@@ 28
outfits 28
overalls 28
oxi@@ 28
oy 28
oz@@ 28
paren@@ 28
parent 28
parfu@@ 28
parfums 28
personali@@ 28
phase 28
pili 28
pocketbook 28
popp@@ 28
pranela 28
pristine 28
prize 28
prosperity 28
psvita 28
quin@@ 28
rays 28
reality 28
refining 28
reg 28
relaxing 28
restaurant 28
restocked 28
role 28
rucksack 28
rus@@ 28
sabina 28
salt@@ 28
samplers 28
satur@@ 28
saudigoldpawnable@@ 28
savers 28
saya 28
scre@@ 28
screen@@ 28
scripture 28
scs 28
seatcover 28
see@@ 28
sense4 28
sentra 28
sequ@@ 28
sette 28
shf 28
shoelace 28
shou@@ 28
sisters 28
slate 28
slay 28
sleep@@ 28
smashing 28
spark@@ 28
splen@@ 28
sportsbra 28
stir@@ 28
stripper 28
sunvit 28
superbklean 28
superheroes 28
symbol 28
t230 28
tablea 28
tain 28
terno@@ 28
tes@@ 28
thy@@ 28
tica 28
topp@@ 28
trapal 28
triangular 28
trinity 28
true@@ 28
tulip 28
twisting 28
ucc 28
ufo 28
uhd 28
ukelele 28
ume 28
unic@@ 28
vise 28
w7 28
waikiki 28
wata 28
wearing 28
weison 28
whiskas 28
wholesaler 28
wns 28
ys@@ 28
yx 28
zai 28
zaku 28
zenfone@@ 28
zx 28
0000@@ 27
1002 27
110ml 27
125i 27
13pcs 27
14inches 27
150cm 27
150i 27
183 27
1960 27
1mp 27
20a 27
250v 27
269 27
299@@ 27
329 27
36pcs 27
3grams 27
40a 27
435@@ 27
4in 27
4ply 27
4v 27
50x@@ 27
5se 27
60mm 27
621 27
685 27
767@@ 27
7cm 27
80mm 27
828 27
925@@ 27
abby 27
absolu 27
aceking 27
acidic 27
af1 27
agi 27
akes 27
aladdin 27
along 27
amin@@ 27
ange 27
animated 27
ante 27
api 27
astronaut 27
atar 27
aves 27
bagshop 27
bias 27
bikers 27
binding 27
birkin 27
block@@ 27
bloody 27
bob@@ 27
bonnie 27
bore 27
bratz 27
brite 27
bulbs 27
bumgenius 27
bury 27
camp 27
cardcaptor 27
centrix 27
chafing 27
chains 27
chakra 27
charm@@ 27
chay 27
cheeks 27
cherie 27
chick 27
chocol@@ 27
class10 27
cling 27
coast 27
confe@@ 27
constru@@ 27
cov@@ 27
crème 27
d5 27
dana 27
digits 27
dimen@@ 27
direct@@ 27
directional 27
disp@@ 27
dist@@ 27
doggy 27
downlight 27
draw@@ 27
drift 27
dryfit 27
dumbbell 27
dura 27
dx@@ 27
eclipse 27
eee 27
eleven 27
eliz@@ 27
emi@@ 27
ene@@ 27
essences 27
eternal 27
eve@@ 27
examination 27
explosive 27
f5@@ 27
fantasies 27
faye 27
flav@@ 27
found@@ 27
gang@@ 27
geena 27
geo 27
germ 27
ggs 27
gles 27
gma 27
gods 27
grammar 27
granules 27
graph@@ 27
greentea 27
hardness 27
headsets 27
henne@@ 27
hobonichi 27
horror 27
ichiban 27
ille@@ 27
ilog 27
in1@@ 27
infused 27
inje@@ 27
iphone5g 27
jenner 27
jewels 27
jg 27
jol@@ 27
jto 27
kad@@ 27
kak@@ 27
kari 27
keep@@ 27
kendall 27
kenko 27
ktv 27
lala 27
laurel 27
leen 27
legg@@ 27
lexing 27
lio 27
ller 27
locked 27
loloph 27
loud 27
lucky@@ 27
mable 27
machines 27
malt 27
mamas 27
manufacturer 27
matte@@ 27
metalic 27
meyer 27
milliliters 27
mission 27
mk5@@ 27
mod@@ 27
moist@@ 27
monitoring 27
mou@@ 27
mustela 27
muster 27
mxr 27
nac 27
nag@@ 27
naughty 27
neca 27
nirvana 27
northface 27
november 27
nutritional 27
nx 27
one68 27
onics 27
oper@@ 27
orginal 27
oréal 27
ou 27
ow 27
p3 27
paci@@ 27
panla@@ 27
paramore 27
pashmina 27
path 27
paul@@ 27
person@@ 27
pinas 27
pique 27
pistach@@ 27
pito 27
plusize 27
polly 27
polycotton 27
position 27
pple 27
prewalker 27
ptop 27
quet 27
r6 27
racks 27
rement 27
retailer 27
reve 27
rian 27
ries 27
rire 27
riverdale 27
roi@@ 27
ryan 27
s6edge 27
sabo 27
sang@@ 27
sdd@@ 27
sensational 27
sense6 27
shots 27
silverhan 27
sim@@ 27
singer 27
skippy 27
skt 27
smock 27
snowflakes 27
soleil 27
sparco 27
spr@@ 27
squa@@ 27
stack@@ 27
stuffed@@ 27
surround 27
sweatshirts 27
tacti@@ 27
tails 27
tara 27
tard 27
tay@@ 27
tek@@ 27
tery 27
thai@@ 27
they 27
thigh 27
titans 27
tofu 27
treasures 27
tress 27
trip 27
trust 27
unde@@ 27
usb3 27
usborne 27
vani@@ 27
vct 27
vince 27
violin 27
volcom 27
wavy 27
weatherproof 27
wf 27
williams 27
wish@@ 27
xii 27
xp@@ 27
xr@@ 27
yalex 27
yco 27
zombie 27
zx@@ 27
059 26
0hp 26
1004 26
1015 26
101@@ 26
10grams 26
10th 26
11g 26
129@@ 26
159@@ 26
15x@@ 26
1986 26
200pcs 26
20kg 26
235 26
280ml 26
283 26
2v 26
316 26
35cm 26
4000mah 26
454 26
4p 26
4s1m 26
4usb 26
500pcs 26
556 26
6000@@ 26
655 26
70x@@ 26
819@@ 26
820 26
830 26
881 26
883 26
9000mah 26
911 26
960@@ 26
9s 26
a5000 26
a520 26
accen@@ 26
active@@ 26
aira 26
alized 26
already 26
alter@@ 26
ancient 26
andre 26
ascen@@ 26
ashi@@ 26
astringent 26
ators 26
aud@@ 26
aventurine 26
background 26
bakery 26
bark 26
bathtub 26
beachkins 26
bet@@ 26
beth 26
bib@@ 26
bieber 26
birth@@ 26
booth 26
bras@@ 26
bre 26
breasted 26
breastpump 26
breathe 26
brera 26
bridesmaid 26
brigh@@ 26
broad 26
buck 26
bull@@ 26
bus@@ 26
buyer 26
c7 26
canmake 26
capac@@ 26
capo 26
carbonate 26
card@@ 26
cardboard 26
cardstock 26
chat 26
cheeky 26
chok 26
chu 26
ckles 26
closure 26
colorstay 26
coloured 26
colu@@ 26
coq10 26
cora 26
costu@@ 26
craf@@ 26
creams 26
cry 26
cting 26
custo@@ 26
dalandan 26
danielle 26
davao 26
davi@@ 26
decathlon 26
deepcool 26
deoproce 26
desi@@ 26
dew@@ 26
dick@@ 26
diff@@ 26
direction 26
dive 26
division 26
dont 26
dota2 26
dowell 26
duck@@ 26
duct 26
dut@@ 26
eart 26
eb@@ 26
ebike 26
eg 26
elli 26
ely@@ 26
engraving 26
enlar@@ 26
eo@@ 26
excelsior 26
f7youth 26
falcon 26
fansite 26
fibisco 26
fierce 26
fir 26
fraiche 26
frankincense 26
gala@@ 26
gardenia 26
garments 26
girbaud 26
girlfriend 26
glassware 26
glutam@@ 26
graduation 26
grande 26
greencross 26
guns 26
hana 26
haru@@ 26
haze 26
hc@@ 26
helper 26
highlighting 26
highly 26
houseware 26
hss 26
ich@@ 26
iko 26
illustrated 26
impor@@ 26
indo@@ 26
ini@@ 26
invictus 26
iphonexs 26
jak@@ 26
jan 26
jb 26
jean@@ 26
jerseys 26
jewelry@@ 26
jour@@ 26
julius 26
juniors 26
jurassic 26
kapote 26
kaye 26
kayu@@ 26
kigurumi 26
kihno 26
kinis 26
knapsack 26
kojie 26
kst 26
l300 26
lamin@@ 26
lance@@ 26
lasercut 26
lc150 26
leapfrog 26
licensed 26
lifetime 26
lime@@ 26
lock@@ 26
lotions 26
lowback 26
ltd 26
luxxe@@ 26
madeca 26
margar@@ 26
maru 26
masters 26
maui 26
maxwell 26
mcdo 26
megap@@ 26
mela@@ 26
melimelo 26
micheal 26
might 26
milk@@ 26
mine@@ 26
mini4 26
miso 26
mitt 26
mium 26
mizuno 26
mna 26
moisturi@@ 26
monaco 26
monte@@ 26
mov@@ 26
msa 26
mtk 26
murang 26
mv@@ 26
mxi 26
n5 26
n88 26
napkins 26
nas 26
nectar 26
neem 26
neil 26
nido 26
nightmare 26
nord 26
nothing 26
obsidian 26
older 26
olymp@@ 26
orocan 26
otterbox 26
overlay 26
packaged 26
pantyhose 26
pasalubong 26
pebble 26
percent 26
perfectly 26
peri@@ 26
perm 26
phonecase 26
phyto 26
pir@@ 26
pixma 26
pneumatic 26
polit@@ 26
pompoms 26
pretty@@ 26
profe@@ 26
prun@@ 26
ption 26
pwe@@ 26
rapoo 26
realmex 26
reflex 26
rejuven@@ 26
restor@@ 26
revi@@ 26
rics 26
ringlight 26
rison 26
road@@ 26
robo@@ 26
rounds 26
rubi 26
s7562 26
s9@@ 26
sana 26
sasha 26
scoo@@ 26
sdcz@@ 26
seven@@ 26
shie 26
shment 26
shun 26
sional 26
skybox 26
sne@@ 26
snowman 26
society 26
soya 26
squee@@ 26
stamp@@ 26
stimulator 26
stitching 26
strapped 26
suit@@ 26
swag 26
t285 26
t4k 26
tang 26
tca 26
techtrance 26
third 26
thro@@ 26
tiered 26
tional 26
touchpad 26
touri@@ 26
trafaluc 26
trans 26
trek 26
trucks 26
truth 26
tual 26
tuffgear 26
tweed 26
twine 26
tx@@ 26
ultima 26
v380 26
vacation 26
variation 26
vu 26
wahl 26
waltz 26
wanted 26
wintermelon 26
wires 26
within 26
workpro 26
xm 26
y55s 26
yeast 26
ying 26
yk 26
ym 26
znb 26
zooey 26
zurc 26
050@@ 25
063 25
1000rpm 25
1008 25
100pesos 25
10yrs 25
15m 25
197 25
1k 25
1meter 25
2019@@ 25
20sheets 25
212@@ 25
214 25
224 25
230ml 25
240g 25
24months 25
253 25
2600mah 25
317 25
3200 25
337 25
368 25
36kg 25
370 25
375@@ 25
378@@ 25
3inch 25
440@@ 25
451 25
454g 25
470 25
499 25
4x@@ 25
562 25
58mm 25
616 25
618 25
6inches 25
711 25
775@@ 25
780@@ 25
818@@ 25
820@@ 25
8t 25
8x11 25
91@@ 25
955 25
959 25
abbott 25
abil@@ 25
activities 25
acupuncture 25
adjustment 25
adv@@ 25
aer@@ 25
agri 25
akk7@@ 25
alis 25
andriod 25
anne@@ 25
annual 25
appro@@ 25
aqua@@ 25
arcade 25
arch 25
aso@@ 25
assemble 25
assy@@ 25
asy 25
b5@@ 25
bacteria 25
bai@@ 25
bber 25
becado 25
beeswax 25
bikes 25
billie 25
bioline 25
birken@@ 25
blade@@ 25
blink 25
blooms 25
bly@@ 25
bnc 25
boa 25
bobs 25
bomb@@ 25
boost@@ 25
bud@@ 25
buffing 25
builder 25
buldak 25
bundled 25
calendula 25
capiz 25
carryall 25
carved 25
cate 25
caterpillar 25
cellu@@ 25
ceramide 25
certificate 25
chandelier 25
chargers 25
chlorine 25
christ 25
chua 25
cinnamoroll 25
clai@@ 25
click@@ 25
codpawnable 25
cology 25
columbia 25
convenient 25
cooky 25
corps 25
correcting 25
cracked 25
ctors 25
cuticle 25
dai 25
daks 25
dallas 25
darci 25
deadly 25
deformation 25
dip@@ 25
dir@@ 25
drive@@ 25
earbud 25
eczema 25
edens 25
ellen 25
embellished 25
engineer 25
eping 25
equalizer 25
europe 25
exia 25
f3@@ 25
f5youth 25
farm@@ 25
fashions 25
fiber@@ 25
fing 25
fisher@@ 25
flared 25
flon 25
flux 25
focallure 25
fortified 25
frogsuits 25
fructis 25
funnel 25
g5@@ 25
galactomyces 25
gary 25
gener@@ 25
generator 25
genesis 25
genius 25
geometry 25
gif@@ 25
ginger@@ 25
given 25
gk@@ 25
glutagen 25
goodnight 25
graco 25
grat@@ 25
guc 25
gunpla 25
handi@@ 25
handsoap 25
hao@@ 25
hexagonal 25
hn@@ 25
hoy 25
hunger 25
hurley 25
ik 25
illuminated 25
ilo 25
inga 25
injection 25
inks 25
isab@@ 25
iwhite 25
j7plus 25
jetflash 25
jill 25
jona 25
jord@@ 25
jovan 25
jyun 25
kathy 25
kawa 25
knit@@ 25
known 25
kose 25
kus@@ 25
laid 25
language 25
lao 25
laughing 25
leak@@ 25
legion 25
ler@@ 25
lev3 25
lipkit 25
litre 25
lychee 25
m7 25
macy 25
magi@@ 25
margaret 25
masquerade 25
mct 25
melted 25
meme 25
meteor 25
mgs 25
miami 25
midri@@ 25
mika@@ 25
milkshake 25
mirro@@ 25
mirrorless 25
moo@@ 25
moti@@ 25
motomo 25
mus 25
nail@@ 25
narnia 25
natal 25
neogen 25
nn@@ 25
no6 25
nutr@@ 25
oasis 25
ohm 25
onwards 25
opaque 25
ord 25
ost 25
oxidant 25
p1000 25
p500 25
p8@@ 25
papa 25
papas 25
pasjel 25
passion@@ 25
patri@@ 25
pave 25
photopaper 25
pirates 25
pired 25
planter 25
pleats 25
plushies 25
pokémon 25
polar@@ 25
polvoron 25
preschool 25
prescription 25
procare 25
prone 25
protectant 25
puller 25
quest@@ 25
r001 25
r11s 25
rado 25
rag@@ 25
rakk 25
ras 25
rede@@ 25
relic 25
rence 25
replace 25
rev@@ 25
review 25
richard 25
rockstud 25
roman@@ 25
row@@ 25
rugs 25
rule 25
s4@@ 25
sable 25
sak 25
sardines 25
scand@@ 25
scars 25
scho@@ 25
scrapbooking 25
sei 25
self@@ 25
seren@@ 25
serena 25
shinee 25
sic 25
sio 25
siopao 25
sletic 25
slingback 25
smacker 25
sman 25
snakeskin 25
sorting 25
soybean 25
spld 25
spoo@@ 25
spro@@ 25
squash 25
ssive 25
starfish 25
starting 25
stea@@ 25
stone@@ 25
straw@@ 25
subli@@ 25
sumsung 25
sunshield 25
sylv@@ 25
tain@@ 25
tally 25
tapered 25
tears 25
terminator 25
tessa 25
than@@ 25
thayers 25
thrasher 25
tical 25
tightening 25
tnx 25
toasted 25
tomat@@ 25
tors 25
tracking 25
transfor@@ 25
travis 25
trin@@ 25
trumpet 25
turn@@ 25
until 25
uro 25
urvan 25
using 25
vegeta 25
vida 25
villa 25
whit 25
whole@@ 25
wily 25
wm 25
wok 25
wpf 25
wq@@ 25
x155 25
xlr 25
yao 25
yin 25
yopokki 25
ysp 25
zealand 25
zers 25
zest 25
ña 25
ö@@ 25
020@@ 24
066 24
11pcs 24
172 24
194 24
2000mah 24
263 24
286 24
312@@ 24
315@@ 24
324@@ 24
388 24
38cm 24
393 24
3in1@@ 24
3meters 24
411@@ 24
455 24
4ch 24
50l 24
540 24
604 24
675 24
6i 24
6w 24
706 24
74a 24
75mm 24
775 24
7w 24
80x@@ 24
823@@ 24
9yrs 24
abdominal 24
accord 24
aces 24
actor 24
aichun 24
alluring 24
alone 24
alphaland 24
alta 24
ama@@ 24
angelica 24
aniel 24
antonio 24
ap24 24
athle@@ 24
ator@@ 24
atures 24
auth@@ 24
avdf 24
aways 24
bab 24
babyboy 24
barrier 24
bbs 24
bc175 24
beryl 24
bes 24
beta 24
blen@@ 24
bobble 24
bounty 24
boyz 24
brazillian 24
breathing 24
brief@@ 24
brightest 24
broom 24
bros 24
buff@@ 24
c9@@ 24
cancelling 24
cancer 24
caplets 24
carrie 24
cartridges 24
cateye 24
celestial 24
cello 24
cheer@@ 24
child@@ 24
chinos 24
chocker 24
cinema 24
circles 24
citro@@ 24
cked 24
ckey 24
clare 24
comp 24
compressed 24
condor 24
corsair 24
covid 24
crypton 24
cto 24
cua 24
cv@@ 24
dare 24
dashiki 24
deco@@ 24
defin@@ 24
dentist 24
dered 24
descendants 24
detoxifying 24
dhendhenshop 24
dilis 24
dirt 24
discover 24
discovery 24
dj@@ 24
dney 24
donal@@ 24
dres 24
driven 24
drool 24
e5@@ 24
electr@@ 24
emo@@ 24
enti@@ 24
eric@@ 24
especial 24
evapor@@ 24
experience 24
extras 24
eyebrows 24
fasion 24
fiberglass 24
flavoring 24
fluoride 24
forehead 24
fred 24
fren@@ 24
ghi@@ 24
gian 24
gk 24
glutamax 24
grounds 24
gth 24
gugo 24
h1 24
hachi 24
hams 24
hawaii 24
heavy@@ 24
heimish 24
heroine 24
hippo 24
hjc 24
hl@@ 24
holding 24
huggable 24
human@@ 24
hx 24
ico@@ 24
ii@@ 24
iler 24
inary 24
inda 24
innov@@ 24
insole 24
intro 24
ip65 24
iphonexsmax 24
iron@@ 24
jackie 24
jagthug 24
jap@@ 24
jart 24
jb@@ 24
jenga 24
jf@@ 24
jomalone 24
julie 24
kev@@ 24
kf@@ 24
kil@@ 24
kine@@ 24
kissed 24
kj 24
klean 24
kn 24
knock 24
kyt 24
lah 24
lax 24
leap 24
leds 24
ledsign 24
lem 24
lepuff 24
line@@ 24
lington 24
lomo@@ 24
loo 24
lure 24
lyne@@ 24
m9@@ 24
macar@@ 24
manifold 24
marri@@ 24
mated 24
matthe@@ 24
maybeline 24
mcfarlane 24
megalast 24
meisons 24
mendoza 24
mes@@ 24
metallica 24
mexican 24
mies 24
mile 24
milka 24
milleni@@ 24
miniatures 24
minidress 24
misaki 24
mist@@ 24
molds 24
molten 24
momma 24
mond 24
montessori 24
motif 24
mulberry 24
multimeter 24
muslin 24
mz 24
n3 24
name@@ 24
names 24
nesoberi 24
nickel 24
nis 24
nish 24
nister 24
np300 24
numerals 24
nvidia 24
oak 24
offwhite 24
ola@@ 24
oliver 24
onlineshop 24
opi 24
option 24
organ 24
organizers 24
osaki 24
osh 24
oyster 24
packet 24
packets 24
palazzo 24
pallet 24
parti@@ 24
pastillas 24
peas 24
pellet 24
pendant@@ 24
pera 24
petron 24
philipp@@ 24
phoebe 24
phon 24
pictures 24
plo@@ 24
pm2 24
poo 24
porsche 24
pout 24
prai@@ 24
preppy 24
proof@@ 24
pss 24
pusheen 24
pussy 24
q8 24
qoute 24
quelch 24
quicksilver 24
rach@@ 24
raff@@ 24
reel 24
repackage 24
rid@@ 24
rightpack 24
rihanna 24
rio@@ 24
rj@@ 24
rn@@ 24
rotatable 24
roth 24
rubbing 24
rubi@@ 24
russe 24
salicylic 24
sanchez 24
sanicare 24
saurus 24
scorpio 24
script 24
sensation 24
serpentina 24
sharpie 24
shatterproof 24
shinny 24
shippuden 24
shirataki 24
shovel 24
showa 24
skn 24
slipon 24
sliver 24
smoked 24
smooth@@ 24
snowy 24
sole@@ 24
som 24
soo 24
soprano 24
squir@@ 24
sso@@ 24
ssss@@ 24
stable 24
starts 24
steel@@ 24
stimul@@ 24
stor 24
string@@ 24
stro 24
struck 24
subaru 24
sulit 24
supergirl 24
survi@@ 24
tanktop 24
taro 24
tarte@@ 24
tatcha 24
tbc 24
temper 24
thology 24
thongs 24
thr@@ 24
threaded 24
time@@ 24
tired 24
tis@@ 24
tneck 24
toe@@ 24
tol@@ 24
tolda 24
topic 24
tourmaline 24
trai@@ 24
trekking 24
trolly 24
tsu 24
two@@ 24
unbreakable 24
unique@@ 24
unt 24
ured 24
us10k 24
usa@@ 24
uta 24
ute 24
v5@@ 24
valentus 24
velvety 24
vh 24
victor 24
vio@@ 24
vivo@@ 24
vw 24
w0@@ 24
wade 24
wed 24
weeks 24
whirlpool 24
wilton 24
wire@@ 24
workbooks 24
xc@@ 24
xin@@ 24
xis 24
xo@@ 24
yaki 24
young@@ 24
yuan 24
yurry 24
zippy 24
zoeva 24
0002 23
010@@ 23
068 23
1006 23
102@@ 23
10b 23
10mx45cm 23
115@@ 23
130ml 23
148@@ 23
167 23
17mm 23
1816 23
18karat 23
1color 23
1grams 23
2200 23
22mm 23
281 23
2ce@@ 23
2ft 23
2to1 23
2yo 23
313 23
335@@ 23
341 23
354ml 23
363 23
36cm 23
399@@ 23
3layer 23
407 23
462 23
532ml 23
5n1 23
600g 23
60caps 23
664 23
6led 23
725 23
751 23
7y 23
850g 23
9005 23
917@@ 23
9x@@ 23
a1k 23
a6000 23
abonne 23
ader 23
adul@@ 23
ager 23
ago 23
alangan 23
albom 23
alcoplus 23
am4 23
ampalaya 23
ample 23
anastacia 23
ance@@ 23
angled 23
aplus 23
applique 23
archer 23
atos 23
audi 23
avai@@ 23
avan@@ 23
ave 23
babyland 23
backpack@@ 23
badia 23
baekhyun 23
bandi@@ 23
barbeque 23
beep 23
beli@@ 23
bene@@ 23
bli 23
bluehouse 23
blur@@ 23
boardshorts 23
boba 23
bodywash 23
boned 23
bookshelf 23
boysen 23
branch 23
brande@@ 23
bread@@ 23
broadway 23
brooke 23
brun@@ 23
buckles 23
cafe@@ 23
caged 23
calf 23
caly@@ 23
catholic 23
cedarwood 23
centri@@ 23
cess@@ 23
cheaper 23
chel 23
chl@@ 23
chry@@ 23
cjve 23
clamps 23
cloths 23
coffe 23
colander 23
cole@@ 23
cove 23
crafted 23
cream@@ 23
crewneck 23
crossgrain 23
crossover 23
ctable 23
cyber 23
dbz 23
ddr5 23
december 23
dence 23
detailed 23
detailing 23
dian 23
dianne 23
difference 23
dipper 23
dis 23
dummy 23
easysoft 23
edc 23
egy@@ 23
embelli@@ 23
eqt 23
essensa 23
everlasting 23
expe@@ 23
eyo@@ 23
fading 23
fbt@@ 23
february 23
fern@@ 23
ff353 23
fia 23
fier 23
flashcards 23
flavour 23
fleshlight 23
flipcover 23
flowery 23
flutter 23
fort 23
fortnite 23
frameless 23
fsl 23
g9@@ 23
gashapon 23
gdplus 23
gemini 23
ghter 23
gillette 23
glass11 23
glutha 23
granola 23
gst 23
gutter 23
halogen 23
handsome 23
heal@@ 23
heartstrings 23
hey 23
hit 23
hou 23
hu 23
icide 23
ili 23
ilove@@ 23
imari 23
improved 23
indi@@ 23
ined 23
instruments 23
ip11 23
irdy 23
jabra 23
janet 23
jas@@ 23
jaw 23
jig 23
jor@@ 23
joyce 23
k9 23
kapeng 23
kari@@ 23
karl 23
kata 23
kidz 23
kka 23
koreanfashion 23
kou 23
lab@@ 23
labiotte 23
laila 23
lak@@ 23
lalaloopsy 23
lavatory 23
lazypod 23
leche 23
lemon@@ 23
lexington 23
liary 23
lica 23
lipz 23
livestream 23
loaded 23
lockset 23
logi@@ 23
logical 23
lol@@ 23
lumbar 23
lumia 23
m3@@ 23
magaz@@ 23
maggie 23
mah@@ 23
mailtank 23
mals 23
mane 23
marsh@@ 23
martens 23
masturbation 23
mba 23
mbled 23
mechanism 23
megan 23
melan@@ 23
meri@@ 23
merrysun 23
metrosunnies 23
microwaveable 23
mijia 23
milan 23
milestone 23
milwaukee 23
mitchell 23
mng 23
modified 23
molly 23
monomola 23
mont@@ 23
mothers 23
moulded 23
mulan 23
mumu 23
n0@@ 23
narciso 23
nata 23
naturally 23
negosyo 23
nf 23
niv 23
nuk 23
nuskin 23
opti 23
opulent 23
oster 23
p10@@ 23
p350 23
parfois 23
patricia 23
pepero 23
pere@@ 23
pered 23
perfector 23
phonics 23
plain@@ 23
pleat 23
porefessional 23
poten@@ 23
powe 23
powerpuff 23
price@@ 23
promil 23
pulu@@ 23
punching 23
pupp@@ 23
pyrex 23
quen@@ 23
quote 23
rad@@ 23
radeon 23
rant 23
raptor 23
raven@@ 23
really 23
rei 23
research 23
rev 23
rg@@ 23
rhy@@ 23
ricci 23
rip@@ 23
rm@@ 23
roronoa 23
sacred 23
saemmul 23
saliva 23
santé 23
scal@@ 23
scalar 23
sculp@@ 23
seneck 23
sep 23
shepherd 23
signs 23
sissy 23
skywalker 23
slam@@ 23
snaps 23
snsd 23
som@@ 23
sory 23
soul@@ 23
soulty 23
spagetti 23
spareparts 23
sphere 23
spray@@ 23
sprin@@ 23
sser 23
stap@@ 23
stitched 23
strontium 23
struct@@ 23
suckle 23
sue 23
sweeper 23
swipe 23
t6 23
t8 23
tabletop 23
taehyung 23
tamarind 23
tanya 23
tcg 23
template 23
tener 23
threads 23
thug 23
tig 23
tik 23
tions 23
tle@@ 23
tomorrow 23
tot 23
trid 23
trident 23
turbans 23
turkey 23
twinings 23
twister 23
twotone 23
tyshop 23
uli 23
ultraso@@ 23
ultraviolet 23
ultron 23
upper@@ 23
ural 23
usb2 23
v11pro 23
vagina 23
vca 23
vf 23
victorian 23
vie@@ 23
visi@@ 23
vn 23
voyager 23
vs1 23
wart 23
wbb@@ 23
wc@@ 23
wicked 23
wreath 23
wyer 23
xf 23
xunod 23
y52 23
yaoi 23
yun@@ 23
zc520kl 23
zc553kl 23
zipback 23
002@@ 22
056 22
061 22
064 22
093 22
1000mm 22
106@@ 22
10inch 22
110l 22
1150 22
123@@ 22
1300@@ 22
178@@ 22
1975 22
19cm 22
1inch 22
244 22
246 22
289 22
290@@ 22
2n@@ 22
2w 22
300m 22
311@@ 22
325@@ 22
32a 22
34a 22
3ab 22
3colors 22
3inches 22
420@@ 22
4grams 22
4inches 22
4tb 22
5208 22
570 22
5gs 22
5mp 22
5x7 22
610@@ 22
621@@ 22
6grams 22
6mg 22
8000@@ 22
800w 22
80mb 22
80pcs 22
825 22
988 22
M@@ 22
able@@ 22
acey 22
aches 22
adam@@ 22
airdots 22
airs 22
ais 22
aking 22
alliance 22
alternative 22
alto 22
amazonian 22
amelia 22
amon 22
amway 22
ana@@ 22
anatomy 22
ander@@ 22
andi 22
anian 22
another 22
aprilskin 22
aroma@@ 22
arrive 22
arthur 22
asy@@ 22
ateneo 22
aunthentic 22
author 22
availa@@ 22
avery 22
b2@@ 22
babygirl 22
backlit 22
bago 22
baru 22
basahan 22
beyouthiful 22
blended 22
blitz 22
blues 22
bok 22
bosca 22
boya 22
brazil 22
breath@@ 22
brey@@ 22
brighten 22
bvq 22
c11p@@ 22
cavity 22
cellowax 22
centrum 22
ceu@@ 22
champions 22
chemica 22
cheska 22
choo 22
chrome@@ 22
clinical 22
cocos 22
coleen 22
colorblock 22
content 22
conve@@ 22
cow@@ 22
crop@@ 22
current 22
cz@@ 22
dant 22
daypack 22
dbs 22
dddd@@ 22
dea 22
dedic@@ 22
definer 22
deflector 22
deo@@ 22
dette 22
development 22
dobe 22
dok 22
doo 22
doremi 22
drin@@ 22
duncan 22
e7@@ 22
ecotools 22
eland 22
elise 22
elisse 22
emoti@@ 22
enchan@@ 22
eras@@ 22
explo@@ 22
eyel@@ 22
f7@@ 22
factorie 22
fairness 22
fiers 22
fifth 22
finds 22
flagship 22
flame@@ 22
fliptop 22
float@@ 22
fowl 22
francisco 22
franco 22
freya 22
ga110@@ 22
gao 22
ghts 22
gladking 22
glutapower 22
gly 22
gordon 22
got@@ 22
gsx 22
gwen 22
gyro 22
hairpins 22
headpiece 22
hearing 22
hematite 22
here@@ 22
hip@@ 22
hippie 22
hipseat 22
homes 22
honesty 22
howlite 22
huenicorn 22
hurricane 22
hygi@@ 22
illumin@@ 22
illustration 22
ilo@@ 22
in1set 22
ipad2 22
iphone8 22
iverson 22
izing 22
j4@@ 22
jarrow 22
jergens 22
jkysd 22
joan 22
jys 22
k30 22
kaidon 22
kane@@ 22
kape 22
kappa 22
kaw 22
keroppi 22
kills 22
kinetic 22
kingever 22
kki 22
kneepad 22
kristine 22
kuji 22
laboratory 22
lactum 22
ladle 22
lanolin 22
latch 22
lead@@ 22
lear@@ 22
leng 22
leur 22
licious 22
lico@@ 22
lighten@@ 22
lipliner 22
lis@@ 22
loading 22
locally 22
lone 22
longwear 22
luc@@ 22
lumi 22
luxurious 22
lyra 22
maggi 22
magnus 22
maje@@ 22
makoto 22
mang 22
manipis 22
maro@@ 22
marshall 22
mation 22
mau@@ 22
maxxis 22
measurement 22
medit@@ 22
mercedes 22
mercury 22
metal@@ 22
mica 22
mikay@@ 22
milanos 22
mimosa 22
miya 22
mizing 22
mmt 22
moccas@@ 22
model@@ 22
morocco 22
moun@@ 22
mountaineering 22
navig@@ 22
nen@@ 22
neocell 22
nestea 22
news 22
niacinamide 22
nickelodeon 22
nipper 22
noel 22
note7 22
novel@@ 22
nss 22
nutshell 22
nx@@ 22
officewear 22
ond 22
orico 22
orth@@ 22
outfitters 22
ovo 22
p20@@ 22
pac 22
pagoda 22
pai 22
painless 22
panyo 22
par 22
para@@ 22
paras@@ 22
parat@@ 22
pass@@ 22
pastels 22
patchwork 22
pebbles 22
ped@@ 22
pediasure 22
pee@@ 22
petroleum 22
picanto 22
pied@@ 22
plac@@ 22
planters 22
poc@@ 22
pooch 22
portal 22
posed 22
powerline 22
pper@@ 22
pray 22
preloved@@ 22
presi@@ 22
pretzel 22
profile 22
proven 22
pucca 22
pug 22
purchas@@ 22
puree 22
purr 22
push@@ 22
py 22
pyunkang 22
q6 22
qqq 22
ques 22
qy 22
r11 22
radial 22
rah 22
randomly 22
recon 22
reducer 22
retur@@ 22
rhino 22
rivets 22
robu@@ 22
rodriguez 22
roe 22
rue 22
ruth 22
rxk 22
rz 22
s530 22
sal 22
sang 22
sas@@ 22
sassa 22
savage 22
scan 22
scro@@ 22
scrubsuit 22
scrunchie 22
sekushi 22
sennheiser 22
sharing 22
shear 22
shion 22
shit 22
sho 22
shu 22
shuya 22
sidemirror 22
sigma 22
silk@@ 22
silka 22
skyline 22
sleepsuit 22
sorry 22
spain 22
spam 22
spear@@ 22
spellbinders 22
sprinkles 22
squares 22
starch 22
starlight 22
steri@@ 22
stol 22
ston@@ 22
sugardolls 22
swad@@ 22
swap 22
sweaters 22
swiss@@ 22
t350 22
tastic 22
taway 22
taz@@ 22
teach 22
tequila 22
testers 22
theraphy 22
tion@@ 22
tobi 22
toes 22
toha 22
toni 22
transceiver 22
trenchcoat 22
ttl 22
tucson 22
twee@@ 22
twist@@ 22
twor@@ 22
ulta 22
ung@@ 22
uses 22
uso 22
vels 22
velve@@ 22
vert 22
vgod 22
vibr@@ 22
volumizing 22
vor 22
wai@@ 22
waist@@ 22
walnut 22
web@@ 22
wed@@ 22
wers 22
wgw 22
william 22
windmill 22
worship 22
wrapping 22
xenon 22
xia 22
xylophone 22
yc 22
yonex 22
yonk 22
yuki 22
zero@@ 22
zhi@@ 22
zl@@ 22
zte 22
ç@@ 22
ée 22
016g 21
032g 21
057 21
071 21
082 21
089 21
100x@@ 21
107@@ 21
120l 21
12pc 21
1400 21
14g 21
14oz 21
14x@@ 21
165@@ 21
1660 21
175g 21
18000mah 21
1800@@ 21
1980 21
1lb 21
1pairs 21
1pck 21
210g 21
217@@ 21
260ml 21
2g@@ 21
2grams 21
305@@ 21
310mm 21
338 21
352 21
359 21
37a 21
382 21
388@@ 21
3for@@ 21
404 21
460 21
48pcs 21
4d@@ 21
528 21
531 21
550ml 21
591 21
5k 21
612 21
625 21
670 21
6color 21
6usb 21
8000mah 21
855 21
889 21
8v 21
978@@ 21
a21 21
a32 21
abacus 21
absolu@@ 21
abundant 21
acer@@ 21
ageless 21
agen@@ 21
agua 21
alm 21
almay 21
alo 21
amy@@ 21
anytek 21
aphrodite 21
appetite 21
argen@@ 21
aur 21
authenthic 21
ba110 21
bage 21
base@@ 21
batch@@ 21
bbc 21
bca@@ 21
beauté 21
benefits 21
bergamot 21
bey 21
bies 21
bikin@@ 21
bluetooh 21
boar@@ 21
boombox 21
bootleg 21
boracay 21
borrowed 21
bottega 21
bourbon 21
bragg 21
breaking 21
bring 21
buhay 21
buyers 21
c8 21
came@@ 21
camel@@ 21
captoe 21
carabiner 21
cardam@@ 21
centelli@@ 21
cfv 21
chao@@ 21
char 21
checked 21
cheetah 21
chord 21
clit@@ 21
cobalt 21
colon 21
colorfull 21
comple@@ 21
composition 21
concentr@@ 21
concepts 21
condura 21
continuous 21
contro@@ 21
controlled 21
correct 21
cosmos 21
craft@@ 21
craze 21
crazy@@ 21
cricut 21
crinkles 21
cuir 21
cultivera 21
cultured 21
customi@@ 21
customizable 21
cute@@ 21
d5@@ 21
dasdas@@ 21
defying 21
dennis 21
diane 21
dishwasher 21
doll@@ 21
doms 21
dub 21
dunge@@ 21
dunhill 21
dusty 21
dwarf 21
eled 21
elev@@ 21
eliquid 21
enhancement 21
enhancing 21
enthusiast 21
enza 21
epilator 21
erasers 21
essenti@@ 21
evangelion 21
event 21
expander 21
eyelid 21
fahrenheit 21
fajardo 21
feast 21
fifa 21
filtration 21
fjallraven 21
flatsandals 21
foe 21
food@@ 21
foreign 21
frida 21
fro 21
fury125 21
g6@@ 21
gamusa 21
genevieve 21
gery 21
gest 21
ggies 21
ggle 21
ghten@@ 21
git@@ 21
glamorous 21
glazed 21
goals 21
gon@@ 21
goya 21
grommet 21
gypsy 21
h8@@ 21
hailey 21
hate 21
hauling 21
hearty 21
hibiscus 21
highend 21
hin 21
hir@@ 21
hughes 21
hundred 21
i11 21
icecream 21
ido 21
iga 21
ih@@ 21
inas 21
includes 21
increase 21
intermediate 21
ipx 21
j1mini 21
jon 21
jul@@ 21
juvia 21
jz 21
kalimba 21
kathle@@ 21
katie 21
kg@@ 21
kham 21
klay 21
kneepads 21
kosh 21
kung 21
ladybug 21
landscape 21
languages 21
launcher 21
lazuli 21
leon 21
lete 21
lg@@ 21
liberty 21
lighted 21
lind@@ 21
lipstain 21
liteTM 21
loc 21
longsleve 21
lons 21
lows 21
lubric@@ 21
lyla 21
lz 21
mach 21
mademoiselle 21
mall@@ 21
mandy 21
margot 21
masonry 21
masque 21
mater@@ 21
mattifying 21
maure@@ 21
mcdavid 21
mcdodo 21
meco 21
mef@@ 21
meiya 21
members 21
mercer 21
mers 21
meth@@ 21
metrical 21
metry 21
microtex 21
miguel 21
mika 21
millen@@ 21
mirr@@ 21
mmi@@ 21
mmmmm 21
moby 21
modes 21
moi@@ 21
moonstone 21
mother@@ 21
n00@@ 21
nac@@ 21
naked3 21
namu 21
nerdy 21
nett 21
newly 21
nightdress 21
noble 21
noni 21
nora 21
nova2 21
ode 21
odor@@ 21
oled 21
oph 21
ort@@ 21
orthodontic 21
p120 21
p1zbad@@ 21
parade 21
pcie 21
pcs@@ 21
peach@@ 21
pedi 21
perfect@@ 21
pico@@ 21
pinwheel 21
plac 21
plunging 21
polaris 21
pony@@ 21
princesses 21
profession@@ 21
promag 21
promod 21
purses 21
px 21
pyramid 21
qiyi 21
quarts 21
radical 21
raion 21
redmino@@ 21
reducing 21
reggae 21
reindeer 21
reliever 21
remember 21
repelling 21
repleni@@ 21
resist@@ 21
resun 21
revo@@ 21
rhea 21
rhian 21
rita 21
ritual 21
rizal 21
rmk 21
rms 21
roots 21
s1pro 21
sae 21
saki 21
sas 21
sasuke 21
screws 21
scru@@ 21
scrunchies 21
sdsq@@ 21
sean@@ 21
seedling 21
semilarge 21
serpen@@ 21
shake@@ 21
shallow 21
shen@@ 21
shia 21
shiba 21
shut 21
sight 21
sinu@@ 21
sitting 21
skit@@ 21
skye 21
sma@@ 21
small@@ 21
smocking 21
snorkeling 21
sock@@ 21
softbound 21
solemate 21
souls 21
soundbar 21
sper 21
sponges 21
spots 21
standar@@ 21
standees 21
stich 21
store@@ 21
strand@@ 21
stv 21
styled 21
superb 21
superdry 21
sure@@ 21
suyod 21
sweatpants 21
swoosh 21
taclight 21
takoyaki 21
tart 21
tax@@ 21
tch@@ 21
tend 21
tering 21
tested 21
thickness 21
tiger@@ 21
tigger 21
tinapa 21
tista 21
tones 21
totu 21
tsa 21
tulips 21
turner 21
uncommon 21
urinal 21
ury 21
uts 21
vaio 21
vate 21
vden 21
vermic@@ 21
vette 21
vey 21
visco@@ 21
vita@@ 21
vmi 21
voyage 21
w00@@ 21
warfare 21
wj@@ 21
xen@@ 21
xipin 21
yama 21
yb 21
your@@ 21
ypad 21
yt@@ 21
zaine 21
zenutrients 21
zip@@ 21
0003 20
052 20
069 20
072 20
090 20
100a 20
100php 20
10y 20
116@@ 20
117@@ 20
167@@ 20
1892 20
18g 20
2000w 20
208@@ 20
2100 20
214@@ 20
21cm 20
21g 20
227g 20
232@@ 20
24hr 20
267 20
279 20
295 20
2color 20
2pillowcase 20
3000mah 20
30l 20
335 20
361 20
362 20
36mm 20
373 20
38b 20
400mg 20
403 20
415@@ 20
425 20
425g 20
440 20
465 20
473 20
50h 20
514@@ 20
557 20
560 20
578@@ 20
619 20
623@@ 20
628 20
65w 20
669 20
678@@ 20
6colors 20
731 20
771 20
7days 20
7g@@ 20
804 20
80s 20
878 20
a7000 20
aal 20
abeauty 20
accor@@ 20
ackle 20
acs 20
activator 20
ades 20
adium 20
ads 20
adven@@ 20
affor@@ 20
aida 20
aio 20
alexander 20
alfred 20
alga@@ 20
allergy 20
ally@@ 20
althea 20
amara 20
amatte 20
amig 20
angelfashion 20
anko 20
anton@@ 20
aozi 20
appearance 20
aquari@@ 20
aste 20
ately 20
athered 20
auxi@@ 20
axel 20
baellerry 20
bana 20
banig 20
bart 20
bca 20
beasts 20
beautika 20
bebeta 20
beg@@ 20
beginning 20
behind 20
beth@@ 20
bey@@ 20
bills 20
bitter 20
bj@@ 20
bleach@@ 20
bless@@ 20
blkshp 20
blocking 20
blos 20
blv 20
boarding 20
bobby 20
bonakid 20
bonet 20
bongbong 20
bott@@ 20
bottons 20
brassi@@ 20
btm 20
bukid 20
buko 20
bulgar@@ 20
bund@@ 20
bz 20
caffeine 20
camelbak 20
camou@@ 20
candie 20
canter 20
cardam 20
cardinal 20
cares 20
cariz@@ 20
casu@@ 20
chalkboard 20
chameleon 20
chanyeol 20
chargeable 20
chari@@ 20
chemistry 20
chico 20
chr@@ 20
chri@@ 20
church 20
cian 20
cic@@ 20
city@@ 20
climbing 20
clothesline 20
cockroach 20
colar 20
cold@@ 20
colle 20
comou@@ 20
component 20
condiments 20
confidence 20
convention 20
cora@@ 20
cotta 20
crisps 20
cristina 20
crun@@ 20
ctr@@ 20
curity 20
cushion@@ 20
cylin@@ 20
cynthia 20
dame 20
daw@@ 20
dazzle 20
deadbolt 20
dealer 20
dean 20
defining 20
desgin 20
deskjet 20
dess 20
dewalt 20
digi 20
dimm 20
dium 20
diver@@ 20
doterra 20
dreamy 20
drums 20
dz09 20
earpick 20
earth@@ 20
effici@@ 20
eggplant 20
eilish 20
elly 20
empress 20
enlarge@@ 20
ensure 20
enterprise 20
epi 20
epsom 20
erin 20
esi 20
even 20
exam 20
expanding 20
expre@@ 20
extracts 20
fang 20
ffe 20
fh 20
filament 20
finding 20
fjs 20
fn 20
foiled 20
forms 20
forte 20
fucos 20
funandsmart 20
functions 20
fundamentals 20
furi@@ 20
ga100 20
gabri@@ 20
ganoderma 20
gba 20
georg@@ 20
ghao 20
gibson 20
ginebra 20
gingersnap 20
gioia 20
gixx@@ 20
glamorosa 20
glorious 20
gmo 20
goji 20
goodbye 20
gou@@ 20
hairbrush 20
hairdressing 20
haphapph 20
hardsole 20
hayabusa 20
hee 20
hermès 20
heuer 20
hex@@ 20
hguc 20
hiphop 20
hm@@ 20
hokkaido 20
hol 20
holmes 20
hongli 20
horse@@ 20
houndstooth 20
hugger 20
hul@@ 20
hyg@@ 20
i10 20
ick@@ 20
ill 20
ilyn 20
infantino 20
infer@@ 20
inkles 20
installation 20
invicta 20
ip6 20
iri 20
iser 20
isha 20
ism 20
ist@@ 20
iz@@ 20
izumi 20
j72016 20
jai@@ 20
jane@@ 20
jany@@ 20
jayson 20
jeon@@ 20
jm@@ 20
johnny 20
johnsons 20
juiced 20
jumsuit 20
juniper 20
kamen 20
katty 20
kdrama 20
kick@@ 20
kidd 20
kidsafe 20
kilo@@ 20
kirei 20
kixx 20
kkjjshop 20
kleancolor 20
know@@ 20
kombat 20
korilakkuma 20
kre@@ 20
kwen@@ 20
kyocera 20
l200 20
ladies@@ 20
lambskin 20
lameila 20
lampshade 20
lany 20
lari@@ 20
laugh 20
lazy@@ 20
lefootwear 20
lenti@@ 20
levithan 20
litt@@ 20
lives 20
lled 20
lly 20
loki 20
longe@@ 20
loot@@ 20
lorac 20
love11shop 20
lstar 20
luci@@ 20
lug 20
luigi 20
m12 20
m88 20
mahogany 20
mail@@ 20
majestic 20
maltesers 20
mate30 20
mayonnaise 20
mba@@ 20
mbs 20
megab@@ 20
megam@@ 20
melatonin 20
menthol@@ 20
metis 20
michelin 20
micidal 20
mickeymouse 20
miner@@ 20
ministar 20
mioi125 20
missugars 20
mize 20
mized 20
mmx@@ 20
moh@@ 20
mom@@ 20
momoso 20
mongol 20
morgan 20
motivational 20
moyou 20
mrg 20
mudmaster 20
murakami 20
mustang 20
naomi 20
nations 20
nature@@ 20
navar@@ 20
nba@@ 20
nec 20
need@@ 20
nhc 20
nica 20
nik@@ 20
nium 20
no7 20
note10pro 20
notepads 20
nuit 20
nunbell 20
nw@@ 20
oakley 20
ohms 20
oma 20
omo 20
opium 20
optics 20
oran 20
oregano 20
orient 20
outs 20
p180 20
p30@@ 20
p40 20
pacsafe 20
palo@@ 20
partition 20
pau@@ 20
pearly 20
pedi@@ 20
pedia 20
peppapig 20
phane 20
philosophy 20
phshop 20
pimp@@ 20
pinsan 20
pio 20
plunge 20
pompompurin 20
portia 20
ppee 20
ppies 20
preci@@ 20
preserv@@ 20
primadonna 20
procu@@ 20
program 20
protectors 20
pull@@ 20
qkz 20
quin 20
quiz 20
raffle 20
ragn@@ 20
rainforest 20
rape 20
readers 20
recomm@@ 20
reef 20
refur@@ 20
reign 20
reno2 20
resto@@ 20
resurfacing 20
revenge 20
revit@@ 20
rica 20
rit 20
roma 20
rot 20
round@@ 20
rum 20
rush@@ 20
rw 20
sama 20
samgyup 20
sap@@ 20
sapatos 20
sasimi 20
saugwunder 20
schedule 20
scoopy 20
secret@@ 20
seeth@@ 20
sef 20
selma 20
seuss 20
shana 20
shantahl 20
sharp@@ 20
sharpening 20
sherlock 20
shs 20
shuttlecock 20
simul@@ 20
skate@@ 20
sket@@ 20
sleevess 20
slin@@ 20
smokey 20
snailwhite 20
snoe 20
snugg@@ 20
soba 20
soho 20
songbook 20
spanribs 20
sparkly 20
spearmint 20
spf60 20
spiced 20
spirit@@ 20
sporti@@ 20
spurs 20
ssa@@ 20
ssb 20
ssh 20
stop@@ 20
street@@ 20
stun@@ 20
sunkissed 20
supermarket 20
supr@@ 20
surpri@@ 20
sweatshort 20
tables 20
taco 20
teak 20
tec@@ 20
tere@@ 20
tess 20
thalia 20
ticity 20
tinker 20
tio 20
tokkyo 20
traffic 20
trailblazer 20
transdermal 20
trf 20
tribe 20
tropic@@ 20
troy 20
tton 20
twe@@ 20
tweezers 20
type@@ 20
tytiffany 20
ultragirl 20
ultralight 20
umi 20
underpants 20
urban@@ 20
uri 20
v12 20
valerie 20
valkyrie 20
vapor@@ 20
venum 20
vials 20
videoke 20
vive 20
vk@@ 20
voltes 20
voltron 20
wal 20
wallpapers 20
wallsticker 20
weld 20
wheelchair 20
wonderful 20
world@@ 20
x24 20
xc 20
xg 20
xhilaration 20
xring 20
ych 20
yee@@ 20
yp 20
zan@@ 20
zash@@ 20
zee 20
zmi 20
zon@@ 20
085 19
1050@@ 19
1080@@ 19
10c 19
1102 19
1205 19
126@@ 19
138@@ 19
1420 19
14mm 19
16a 19
174 19
1800w 19
190g 19
1963 19
1avdf 19
2017@@ 19
23ml 19
258@@ 19
260g 19
275@@ 19
277 19
278 19
284 19
2lbs 19
2years 19
319@@ 19
321 19
349 19
35w 19
364 19
369 19
36w 19
372 19
390@@ 19
391 19
3p 19
414@@ 19
43cm 19
456 19
495@@ 19
4inch 19
508 19
515 19
516 19
575@@ 19
5v@@ 19
681 19
6pieces 19
711@@ 19
750g 19
760 19
7kg 19
7years 19
807 19
811 19
816 19
817 19
888@@ 19
904 19
912 19
9b 19
9l 19
a16@@ 19
a20@@ 19
acial 19
act@@ 19
adv 19
afic@@ 19
ah4u 19
air2 19
airbed 19
aky 19
alist 19
ambo 19
amk 19
amuse 19
angie 19
anxi@@ 19
apart@@ 19
aper 19
aph@@ 19
apple@@ 19
architecture 19
aring 19
ark 19
arok 19
aspe@@ 19
assa@@ 19
athione 19
atione 19
atoys 19
atra 19
attach@@ 19
b4@@ 19
b6 19
babyliss 19
batangas 19
bazooka 19
bbi@@ 19
bean@@ 19
bei 19
beloved 19
bloo@@ 19
blotted 19
bluegreen 19
bound@@ 19
bourne 19
bps@@ 19
brandy 19
brembo 19
bright@@ 19
brim 19
broma 19
brtc 19
bush@@ 19
camu 19
cani@@ 19
cardi@@ 19
carnau@@ 19
carnelian 19
cass 19
cbr@@ 19
cea@@ 19
cedar 19
cee@@ 19
chant 19
chaos 19
chelle 19
chime 19
chlo@@ 19
chroma 19
chron@@ 19
cie 19
citron 19
cko 19
clown 19
coastar 19
coby 19
coleman 19
colo 19
companion 19
condi@@ 19
condu@@ 19
consu@@ 19
cough 19
coupling 19
cowhide 19
cpsa 19
crescent 19
cru 19
crump@@ 19
cuddle 19
cue 19
cumin 19
cv 19
cyclone 19
d2@@ 19
dam 19
danger 19
daphne 19
dare@@ 19
dder 19
deet 19
deni@@ 19
denti@@ 19
designing 19
det 19
did 19
diff 19
dine@@ 19
dm1 19
dollar 19
dresss 19
drop@@ 19
earcuff 19
eda 19
edu@@ 19
eigh@@ 19
electro 19
elitebook 19
end@@ 19
eni@@ 19
epub 19
ergobaby 19
eta 19
euphoria 19
evi@@ 19
excellence 19
exerci@@ 19
exo@@ 19
expect@@ 19
eyed 19
f4@@ 19
faces 19
families 19
feb 19
feder@@ 19
fisheye 19
flas@@ 19
florals 19
foamer 19
foli@@ 19
fondue 19
font 19
forks 19
fortun@@ 19
franc@@ 19
freeshipping@@ 19
freshness 19
fring@@ 19
fy@@ 19
g313 19
g360 19
ga700 19
gau@@ 19
gay 19
gem@@ 19
gentlemen 19
gift@@ 19
gochu@@ 19
goldfish 19
gomez 19
gozum 19
gradable 19
grapes 19
gras@@ 19
gree 19
gross 19
gual 19
gz 19
h2 19
halal 19
hall 19
haltered 19
happ@@ 19
harman 19
hart 19
headlights 19
heaven@@ 19
heidi 19
heiress 19
helix 19
honeywell 19
hoover 19
house@@ 19
hud@@ 19
hui@@ 19
hunters 19
husb@@ 19
hyperx 19
iam@@ 19
ike@@ 19
ilk 19
impress 19
ington 19
inoh 19
inson 19
insul@@ 19
intake 19
interactive 19
inti@@ 19
inver@@ 19
invit@@ 19
iphone5s 19
iphone6plus 19
iphone8plus 19
isla 19
jaclyn 19
jake 19
jap 19
jeanne 19
ject 19
jedi 19
jie 19
jlh 19
juices 19
kakashi 19
kanteen 19
kellogg 19
kill@@ 19
killing 19
kish 19
kissy 19
knights 19
koby 19
kolin 19
kum 19
labs 19
ladi@@ 19
ldnio 19
leboy 19
lei 19
lenci@@ 19
lettering 19
lev 19
lexus 19
ley@@ 19
lga@@ 19
lick 19
lipcolor 19
llan@@ 19
lomvum 19
longsleeved 19
lop 19
loving 19
lucent 19
lululun 19
m8 19
mace 19
mae@@ 19
magsafe 19
malay@@ 19
mand 19
marin@@ 19
marykay 19
maxene 19
maz@@ 19
merlot 19
merona 19
microsdhc 19
mig 19
mila 19
milano 19
mming 19
moder@@ 19
mood@@ 19
mption 19
mush@@ 19
n9 19
natrol 19
next@@ 19
ning@@ 19
nitri@@ 19
nt@@ 19
nuggets 19
nutra@@ 19
nutrilite 19
nw 19
oblong 19
occitane 19
ocean@@ 19
oe 19
okin@@ 19
oline 19
onsale 19
oooo@@ 19
ore@@ 19
outdoors 19
overla@@ 19
p1z@@ 19
p300 19
p3100 19
pag 19
pain@@ 19
paintings 19
pala@@ 19
pana 19
pand 19
pandan 19
pandor 19
parachu@@ 19
partner 19
patcho@@ 19
pauline 19
pdf 19
pea@@ 19
petit@@ 19
phab 19
pierre 19
pla 19
plex@@ 19
pocket@@ 19
pointer 19
pot@@ 19
potted 19
poy 19
preser@@ 19
prise 19
prizes 19
pz 19
q18@@ 19
qb 19
rag 19
reduction 19
refined 19
regenerist 19
remastered 19
reme@@ 19
removing 19
rent 19
reser@@ 19
rix 19
rol 19
rosewater 19
rouser@@ 19
rtx 19
sala@@ 19
savannah 19
scorpion 19
scrabble 19
sean 19
search 19
selle 19
sensu@@ 19
separate 19
services 19
shab@@ 19
sham 19
shezi 19
shields 19
shoebox 19
showcase 19
simp@@ 19
sine@@ 19
sj6 19
skills 19
skindig@@ 19
slick 19
smarth@@ 19
smoking 19
sniper@@ 19
splcodgenuine100 19
ssen@@ 19
stal 19
stay@@ 19
steak 19
steam@@ 19
sting@@ 19
strate@@ 19
strix 19
stronger 19
stur@@ 19
stussy 19
sup@@ 19
surf@@ 19
swee@@ 19
swingman 19
syringe 19
taek@@ 19
tals 19
tama 19
tdd 19
tear@@ 19
tempo 19
thenorthface 19
ticals 19
tney 19
toile@@ 19
tomb 19
tombow 19
topping 19
tortoi@@ 19
tps 19
trace 19
triang@@ 19
tric 19
trrri@@ 19
tubing 19
tures 19
unds 19
uniheart 19
unik 19
uns 19
unt@@ 19
uty 19
v6 19
valu@@ 19
veneta 19
verus 19
vio 19
viper 19
visual 19
vl 19
voopoo 19
vortex 19
wander@@ 19
warehouse 19
wares 19
wayfarer 19
wet@@ 19
wht 19
widow 19
wie 19
wo 19
worksheets 19
xz 19
y532017 19
yak@@ 19
yin@@ 19
yl@@ 19
yor@@ 19
younger 19
yufiya 19
zeh 19
zhiyun 19
zic 19
zin@@ 19
zki 19
0000 18
01b 18
088 18
1030 18
1060 18
110cm 18
113g 18
128g 18
12t 18
12y 18
144hz 18
149@@ 18
14pcs 18
1500w 18
15s 18
166@@ 18
1688 18
1701 18
1982 18
1988 18
1p 18
20th 18
219@@ 18
23cm 18
24h 18
24s 18
250gb 18
257 18
25x@@ 18
266 18
276 18
294 18
297 18
29ml 18
2layer 18
320g 18
320ml 18
339 18
3500 18
3500@@ 18
356 18
357 18
360ml 18
380ml 18
3years 18
4000@@ 18
412 18
468 18
46cm 18
4w 18
5050 18
513 18
535@@ 18
54mm 18
558 18
560@@ 18
561 18
588 18
590 18
6020 18
623 18
693 18
6c 18
6pro 18
700g 18
726 18
732 18
770@@ 18
7x 18
8001 18
8017 18
8ft 18
998 18
E 18
F@@ 18
abella 18
abu@@ 18
adata 18
adi 18
affair 18
after@@ 18
airwalk 18
alan 18
alina 18
aling 18
alize 18
ambi@@ 18
andrew 18
antetoko@@ 18
appa@@ 18
arrow@@ 18
artfx 18
asos 18
ation@@ 18
aus 18
aviation 18
baku@@ 18
ballon 18
bally 18
bangko@@ 18
batt 18
battlefield 18
bd 18
being 18
bett@@ 18
bijin 18
blt 18
boop 18
bop 18
brai@@ 18
brake@@ 18
bram 18
broo@@ 18
brs 18
bud 18
budf 18
buff 18
bush 18
cabo@@ 18
calci@@ 18
candice 18
canteen 18
carnival 18
cavs 18
cera 18
challenger 18
chateau 18
cherry@@ 18
chiller 18
chip@@ 18
chur@@ 18
clan@@ 18
cloud@@ 18
cmyk 18
colla 18
conce@@ 18
conden@@ 18
cori@@ 18
cost 18
croc@@ 18
ctor@@ 18
cus@@ 18
cut@@ 18
cuties 18
cvi 18
dahlia 18
dak@@ 18
darts 18
debbie 18
dee@@ 18
dere@@ 18
detai@@ 18
dete@@ 18
dilu@@ 18
dotcom 18
drac@@ 18
drake 18
egg@@ 18
eli 18
ellar 18
endurance 18
eneloop 18
ense@@ 18
exit 18
exp@@ 18
ext 18
f9@@ 18
fetish 18
fh@@ 18
first@@ 18
fm2 18
folk 18
fourth 18
freestyle 18
g40 18
g50 18
gag@@ 18
garmin 18
gddr5 18
gears 18
geni@@ 18
getz 18
giannis 18
gic 18
gis 18
gj@@ 18
goose@@ 18
gourd 18
grove 18
guerlain 18
gurashi 18
gus@@ 18
hallmark 18
harris 18
hay 18
hbs 18
hedgren 18
henna 18
hf@@ 18
hikers 18
hog 18
hon 18
hsm 18
ib@@ 18
if@@ 18
ila@@ 18
ind 18
iness 18
infin@@ 18
inse@@ 18
inspiration 18
intelli@@ 18
ip67 18
ip68 18
iqos 18
itation 18
itos 18
jeremy 18
jhope 18
jt@@ 18
karma 18
keen 18
kemei 18
kimi 18
kind@@ 18
kirin 18
knives 18
kopiko 18
koyo 18
l120 18
l2 18
l22 18
lage 18
leah 18
ledge 18
lent 18
leon@@ 18
links 18
living@@ 18
lng 18
loc@@ 18
lox 18
lust@@ 18
m14 18
maas 18
madon 18
manhattan 18
mani 18
mano@@ 18
marula 18
mash@@ 18
maxim 18
mcc@@ 18
megas@@ 18
melo 18
meo 18
messy 18
miche@@ 18
microsdxc 18
miles 18
mindy 18
missing 18
mobius 18
modem 18
moisturiser 18
mole@@ 18
monday 18
monochrome 18
mud@@ 18
mv 18
n4@@ 18
nap 18
naturehike 18
ndl 18
neal 18
neutr@@ 18
nfl 18
nh 18
nikki 18
nings 18
nitecore 18
nrb 18
nwt 18
nye 18
ofra 18
okay 18
omen@@ 18
once@@ 18
ool 18
oppa 18
oracle 18
osc@@ 18
otto 18
ove@@ 18
pak@@ 18
path@@ 18
peo@@ 18
percussion 18
pix@@ 18
poke@@ 18
poli 18
polished 18
poo@@ 18
position@@ 18
possi@@ 18
pren@@ 18
primrose 18
principles 18
pur 18
purity 18
quan@@ 18
rap@@ 18
reas@@ 18
ref@@ 18
reneg@@ 18
resu@@ 18
revive 18
revoltech 18
reyes 18
rif@@ 18
rival 18
rogue 18
rosette 18
rosie 18
rus 18
s5830 18
samsung@@ 18
sans@@ 18
saudigold@@ 18
scence 18
scri@@ 18
sds@@ 18
seas 18
shiel@@ 18
sienna 18
sivanna 18
sixteen 18
sleepy 18
smat@@ 18
smell 18
smp@@ 18
smu@@ 18
specific 18
spel@@ 18
spider@@ 18
spill 18
sson 18
stash 18
stephanie 18
stormtrooper 18
stra 18
supporter 18
swat@@ 18
sylvia 18
syo 18
t7@@ 18
tair 18
taper 18
terra@@ 18
thetic 18
tidy 18
tly 18
toco@@ 18
toro 18
toss 18
trader 18
travelmate 18
tretta 18
tribute 18
trick 18
trol 18
tum 18
tung@@ 18
tvi 18
tyl 18
uchiha 18
uda 18
uel 18
unchar@@ 18
us7 18
uto 18
uvc 18
vene@@ 18
vernis 18
vicks 18
vigor@@ 18
vite 18
vpower 18
w100 18
waf@@ 18
waterfall 18
weird 18
whim@@ 18
whisper 18
wt@@ 18
ww 18
wx@@ 18
x12@@ 18
x30 18
xa2 18
xe@@ 18
xf@@ 18
xv 18
yuja 18
zap@@ 18
zelda 18
zeta 18
zoids 18
ü@@ 18
0005 17
048 17
073 17
075 17
094 17
1003 17
10050mah 17
1018 17
115g 17
1188 17
120w 17
140x@@ 17
144@@ 17
155@@ 17
155g 17
1700 17
1e 17
1hp 17
2023 17
2400 17
248 17
2500@@ 17
261 17
268@@ 17
28g 17
296 17
2x1 17
3001 17
300w 17
30x30cm 17
314@@ 17
32017 17
336 17
338@@ 17
343 17
378 17
392 17
395@@ 17
408 17
421 17
42mm 17
432 17
472 17
4color 17
4in1@@ 17
504 17
506 17
525 17
565 17
574 17
57mm 17
585 17
5d@@ 17
5x5 17
60p 17
626 17
640 17
652 17
660 17
672 17
690 17
690@@ 17
709 17
70mm 17
728 17
733 17
740@@ 17
755 17
773 17
788 17
7c 17
7m 17
812 17
813 17
852 17
887 17
8g@@ 17
915 17
980@@ 17
983 17
9cm 17
B@@ 17
a50@@ 17
absolute 17
acan 17
adjust@@ 17
agnes 17
agri@@ 17
airpod 17
aki@@ 17
alfa 17
alic@@ 17
alisa 17
amon@@ 17
ampli@@ 17
anais 17
anner 17
ante@@ 17
aromat@@ 17
arowana 17
astic 17
astr@@ 17
ather@@ 17
attra@@ 17
ay9@@ 17
b20 17
b7@@ 17
b8 17
bait 17
bao@@ 17
bap 17
baro@@ 17
bella@@ 17
belle@@ 17
bloks 17
blp@@ 17
boat@@ 17
bondage 17
breast@@ 17
bst 17
buffalo 17
buy1@@ 17
bx 17
c6@@ 17
camo@@ 17
capture 17
carle 17
carlo 17
caroline 17
carpen@@ 17
chai 17
chand@@ 17
chec@@ 17
cheer 17
cheron 17
chet 17
choc 17
cil 17
cit 17
club@@ 17
coach@@ 17
come@@ 17
compu@@ 17
cony 17
corre@@ 17
crash@@ 17
creeper 17
crit@@ 17
curi@@ 17
cw@@ 17
d7 17
daier 17
dami@@ 17
dap@@ 17
daze 17
dead@@ 17
deca@@ 17
dess@@ 17
dian@@ 17
dit@@ 17
dson 17
edit 17
ela@@ 17
elantra 17
elementary 17
eles 17
emporio 17
envelo@@ 17
esse 17
ety 17
eucerin 17
eunice 17
ev 17
exhi@@ 17
expir@@ 17
fame 17
fami@@ 17
fau@@ 17
fds 17
ffff@@ 17
flaps 17
flaw@@ 17
fling 17
force1 17
frame@@ 17
fus@@ 17
gen2 17
ght@@ 17
giga 17
gina 17
glo 17
gogo 17
goodies 17
goyard 17
gr8@@ 17
gry@@ 17
h2o 17
h7 17
hack@@ 17
hai 17
haier 17
harvey 17
hazard 17
hdr 17
hed@@ 17
hold@@ 17
hone@@ 17
howard 17
hudson 17
hypno@@ 17
hypo@@ 17
igh 17
ijoy 17
ika 17
ile 17
iled 17
illes 17
illy 17
in2@@ 17
inox 17
instinct 17
integr@@ 17
ious 17
iphone11promax 17
isabel 17
ish@@ 17
ity@@ 17
izone 17
j310 17
jal@@ 17
jamie 17
jardin 17
jeff@@ 17
job 17
jr@@ 17
juven@@ 17
k4 17
k53@@ 17
k5@@ 17
katherine 17
kawa@@ 17
kewpie 17
kite 17
kiyo@@ 17
kracie 17
kylo 17
label@@ 17
lable 17
laga 17
lap@@ 17
lazer 17
lei@@ 17
lena 17
leslie 17
letti 17
lic@@ 17
lob@@ 17
lomo 17
m7@@ 17
major 17
malibu 17
mallow 17
mamamoo 17
marcelo 17
marley 17
mcdonald 17
mck 17
meguiar 17
melo@@ 17
melting 17
meur 17
midea 17
mimi@@ 17
mimo 17
mini1 17
miranda 17
mister 17
mk6@@ 17
mmi 17
mmmm@@ 17
mmy 17
moo 17
munch@@ 17
nad@@ 17
nam 17
natu@@ 17
nels 17
nexus 17
niac@@ 17
nico@@ 17
nipp@@ 17
nurture 17
nwb 17
ota@@ 17
our@@ 17
ova 17
p10plus 17
paro@@ 17
pawnable@@ 17
pci 17
perfor@@ 17
perpe@@ 17
pey@@ 17
pharm@@ 17
pico 17
pik 17
places 17
pleasures 17
posite 17
posket 17
potions 17
potting 17
prest@@ 17
prive 17
psack 17
psal 17
pton 17
puni@@ 17
pus 17
px@@ 17
q9 17
qposket 17
rabb@@ 17
rap 17
reen 17
refre@@ 17
relax@@ 17
rena 17
revol@@ 17
rico@@ 17
rosal@@ 17
rrrr@@ 17
s2@@ 17
salomon 17
sandra 17
saucony 17
sca 17
scor@@ 17
scy@@ 17
seachem 17
seam@@ 17
sedu@@ 17
sehun 17
shine@@ 17
shir 17
shred@@ 17
simon 17
sity 17
sj4000 17
skir@@ 17
smoky 17
smt 17
smudge 17
smy@@ 17
soli@@ 17
sour@@ 17
spa@@ 17
spee@@ 17
ssing 17
sso 17
stages 17
status 17
sue@@ 17
suite 17
sumikko 17
surfer 17
sweetened 17
tanjun 17
tank@@ 17
tart@@ 17
tasty 17
tayo 17
tcl 17
tcm 17
techni@@ 17
techno 17
tol 17
tote@@ 17
tresor 17
tropic 17
tsuki@@ 17
tsumtsum 17
tube@@ 17
twear 17
u2 17
ui 17
uke 17
ultraman 17
urance 17
uskin 17
uv400 17
vam@@ 17
vcd 17
video@@ 17
vienna 17
villa@@ 17
vis 17
vocal 17
w6 17
wait 17
webber 17
weed 17
weng 17
wolf@@ 17
x27 17
yj 17
yong 17
yuyu 17
z00@@ 17
z5x 17
zanne 17
zb601kl 17
zipp@@ 17
zom@@ 17
ä@@ 17
067 16
076 16
083 16
1013 16
11cm 16
140ml 16
15000mah 16
150w 16
15l 16
1650 16
1966 16
198@@ 16
1w 16
2016@@ 16
22g 16
230g 16
26mm 16
274 16
292 16
293 16
298 16
2e 16
2nd@@ 16
314 16
319 16
3200@@ 16
348 16
35a 16
371 16
375g 16
385 16
409 16
40s 16
423@@ 16
443 16
475@@ 16
485 16
613 16
613@@ 16
615 16
617 16
630@@ 16
6500@@ 16
650w 16
658 16
6900@@ 16
699 16
70s 16
752 16
770 16
799 16
819 16
824@@ 16
884 16
898 16
907 16
9082 16
910@@ 16
922@@ 16
966 16
970 16
981 16
986 16
991 16
No@@ 16
a12 16
a15@@ 16
a1@@ 16
a320m 16
ac1200 16
acacia 16
achable 16
acro@@ 16
adel@@ 16
adora 16
aiba 16
ain@@ 16
amansi 16
americ@@ 16
ancy 16
arte 16
atelier 16
atsu 16
b11@@ 16
b7 16
barn 16
barre@@ 16
basa 16
begins 16
bent 16
bing@@ 16
bracele@@ 16
brad@@ 16
brio 16
bubi 16
burnt 16
c5@@ 16
cab 16
cai 16
carl 16
ccino 16
charged 16
cler@@ 16
clone 16
clyde 16
cmos 16
cog@@ 16
compart@@ 16
contemporary 16
crack@@ 16
creatine 16
cture 16
cyber@@ 16
dac@@ 16
dc12v 16
dden 16
ddr2 16
deer@@ 16
develo@@ 16
displayport 16
dodo 16
dope 16
double@@ 16
duke 16
e10 16
e6@@ 16
easter 16
edo 16
ei 16
ele 16
eleanor 16
eq@@ 16
ess@@ 16
eti@@ 16
exodus 16
exq 16
fairies 16
feel@@ 16
fen 16
fex 16
fini@@ 16
fizz 16
flax 16
flies 16
forces 16
fore 16
fter 16
fuck 16
gap@@ 16
gelato 16
gf@@ 16
ggage 16
glen@@ 16
god@@ 16
grace@@ 16
gray@@ 16
gusto 16
hamburger 16
hann@@ 16
harden@@ 16
havi@@ 16
hella 16
hero5 16
hers 16
hic@@ 16
hosp@@ 16
hype 16
i6 16
iam 16
icure 16
ign@@ 16
ima@@ 16
iq@@ 16
iran 16
iridescent 16
iro@@ 16
isse 16
ista@@ 16
itake 16
jacqu@@ 16
jag@@ 16
jas 16
jav@@ 16
jdi 16
jeep@@ 16
jenny@@ 16
jou 16
jouer 16
kei 16
kenwood 16
kindle 16
kru@@ 16
ktor 16
l0@@ 16
lain 16
lett@@ 16
liber@@ 16
listic 16
liz@@ 16
lrw 16
luminarc 16
madeline 16
mala@@ 16
mastermind 16
mate20@@ 16
mbo 16
meeting 16
midori 16
mil 16
milli@@ 16
minator 16
mizu@@ 16
mk3@@ 16
moc 16
moleskine 16
mor 16
mosqu@@ 16
musi@@ 16
nado 16
nah 16
neg@@ 16
neroli 16
nier 16
nit 16
noki@@ 16
nvme 16
nxt 16
och@@ 16
officejet 16
og@@ 16
ony@@ 16
opp@@ 16
ops 16
p6 16
palmer 16
papa@@ 16
peek 16
pencil@@ 16
perforated 16
pilat@@ 16
poko 16
pororo 16
posse@@ 16
proto@@ 16
prs 16
ptor 16
pump@@ 16
pus@@ 16
pz@@ 16
qr 16
rae 16
ran 16
rangers 16
reaper 16
rem 16
retro@@ 16
ridge 16
rt@@ 16
rudy 16
s90 16
s90@@ 16
sasa 16
scot@@ 16
screw@@ 16
seawe@@ 16
secon@@ 16
shang 16
shima 16
shino@@ 16
shops 16
shr@@ 16
sio@@ 16
siz@@ 16
sooth@@ 16
spen@@ 16
spf40 16
spon@@ 16
sponge@@ 16
spun 16
spy@@ 16
state@@ 16
steelseries 16
stem@@ 16
str 16
swal@@ 16
t20 16
technic 16
tenda 16
tenga 16
tha 16
titan@@ 16
toki 16
toki@@ 16
tree@@ 16
trophy 16
trs 16
tuf 16
u1 16
ud@@ 16
ug 16
us10 16
us6 16
v20 16
vali@@ 16
vector 16
vely 16
vement 16
victorinox 16
vincent 16
viola 16
vivobook 16
vix@@ 16
vp@@ 16
w1 16
wax@@ 16
wee@@ 16
wel 16
wga 16
wizar@@ 16
wmns 16
xa1@@ 16
xd 16
xxs 16
yah@@ 16
yama@@ 16
yard@@ 16
yong@@ 16
yoo@@ 16
youtube 16
zah@@ 16
zb555kl 16
ze552kl 16
0006 15
011@@ 15
078 15
086 15
091 15
1000g 15
100l 15
1016 15
11a 15
1210 15
124@@ 15
135ml 15
13c 15
13g 15
1400@@ 15
180mm 15
188@@ 15
1950 15
200m 15
220mm 15
224@@ 15
23g 15
240v 15
25c 15
25s 15
288@@ 15
291 15
2ds 15
30a 15
340ml 15
342 15
375ml 15
379 15
380g 15
384 15
398 15
3f 15
418 15
431 15
441 15
448 15
452 15
5020 15
50a 15
511@@ 15
517 15
522 15
528@@ 15
550kl 15
553 15
5600@@ 15
58cm 15
5b 15
5p 15
618@@ 15
635 15
649 15
661 15
680g 15
715 15
719 15
721 15
735 15
767 15
778 15
810@@ 15
835 15
840 15
851 15
885 15
8c 15
8d 15
9006 15
90x@@ 15
931 15
950ml 15
951 15
960 15
990 15
9th 15
G@@ 15
a19@@ 15
a515 15
aaaa 15
aape 15
achi@@ 15
adhe@@ 15
adver@@ 15
agv 15
air1 15
aj1 15
alber@@ 15
amas 15
amaz@@ 15
amen@@ 15
amer 15
analy@@ 15
anc@@ 15
anni@@ 15
anpanman 15
aph 15
api@@ 15
apink 15
aritaum 15
artistry 15
asd 15
assi 15
aton 15
attitude 15
awg 15
b10 15
b12@@ 15
bab@@ 15
batmobile 15
berlin 15
bicy@@ 15
botanic@@ 15
brilli@@ 15
brooks 15
bruce 15
bty 15
c02 15
carol@@ 15
cash@@ 15
catrice 15
cerin 15
chang 15
charg@@ 15
christine 15
cine@@ 15
circus 15
closet@@ 15
coffee@@ 15
cons 15
const@@ 15
coolmax 15
cop 15
corona 15
cosmo 15
cr2032 15
culti@@ 15
cupid 15
cyl 15
davidson 15
deci@@ 15
diag@@ 15
diam@@ 15
diffe@@ 15
disneyland 15
distribu@@ 15
dsc 15
dude 15
dumbb@@ 15
dunlop 15
dxf 15
e3 15
eller 15
embroi@@ 15
ener 15
enie 15
ental 15
erboard 15
erd 15
ert 15
expl@@ 15
explore 15
extr@@ 15
f001 15
fem@@ 15
formation 15
fran 15
francis 15
fv@@ 15
g10 15
g2000 15
gav@@ 15
ghost@@ 15
glass@@ 15
goose 15
gran 15
grim 15
grind 15
groove 15
grown 15
gtr 15
gtx10@@ 15
guc@@ 15
hao 15
health@@ 15
hei@@ 15
hoco 15
hoya 15
hpc 15
htt@@ 15
https 15
hummer 15
hv@@ 15
hw@@ 15
ibm 15
icon@@ 15
infe@@ 15
ior 15
ipen 15
italia 15
itor 15
ium 15
jima 15
josh@@ 15
jou@@ 15
kash@@ 15
kens 15
kiki 15
kimmy 15
koya 15
kun@@ 15
l8@@ 15
laro@@ 15
lele 15
lf 15
lgbt 15
lide 15
lillard 15
limit@@ 15
limitless 15
lipo@@ 15
lique 15
listen 15
llll@@ 15
loween 15
lubri@@ 15
m8@@ 15
mack 15
madame 15
madonna 15
maki 15
marina 15
mbox 15
mee@@ 15
mentary 15
mercy 15
minu@@ 15
miumiu 15
momo@@ 15
monge 15
mur 15
n7100 15
naru@@ 15
net@@ 15
nfc 15
no1 15
nouri@@ 15
nsw 15
oki 15
oll 15
omi 15
orbit 15
orchi@@ 15
orgasm 15
orted 15
oxy@@ 15
palace 15
pebb@@ 15
pei@@ 15
pilip@@ 15
pome@@ 15
porcel@@ 15
potat@@ 15
presario 15
prima@@ 15
primo 15
provi@@ 15
psycho@@ 15
quaker 15
quat@@ 15
quer@@ 15
r4 15
rela@@ 15
relle 15
repel@@ 15
replac@@ 15
replace@@ 15
rera 15
rhythm 15
rig 15
rina 15
rist@@ 15
rot@@ 15
s100 15
saniti@@ 15
sap 15
sch 15
scuba 15
sday 15
sens@@ 15
senti@@ 15
seri@@ 15
shuttle 15
simm@@ 15
sj5000 15
skill 15
smd@@ 15
soar 15
soci@@ 15
spagh@@ 15
span 15
spawn 15
spect@@ 15
sprint 15
squi@@ 15
stics 15
stuart 15
sunray 15
swagger 15
swat 15
t6@@ 15
tage 15
taking 15
tali@@ 15
tam 15
tammy 15
terre 15
tet 15
there@@ 15
thern 15
toyo 15
triu@@ 15
trol@@ 15
try@@ 15
ture@@ 15
u3 15
uchi@@ 15
unic 15
us8 15
usb@@ 15
vines 15
vv 15
vx 15
wcf 15
wendy 15
wf@@ 15
whisk@@ 15
who@@ 15
win10 15
winter@@ 15
wri@@ 15
x7@@ 15
xps 15
xxx 15
yaki@@ 15
yankees 15
yeah 15
yeon 15
yol@@ 15
z1@@ 15
zb551kl 15
zd553kl 15
zor@@ 15
0011 14
006@@ 14
049 14
065 14
079 14
080 14
095 14
096 14
097 14
0g 14
100mb 14
1011 14
110mm 14
1130 14
11x@@ 14
1250 14
1401 14
179@@ 14
1801 14
1803 14
186@@ 14
189@@ 14
200a 14
20oz 14
24g 14
24oz 14
270ml 14
271 14
308@@ 14
30t 14
332 14
332@@ 14
33cm 14
344 14
346 14
34t 14
360g 14
369@@ 14
36a 14
381 14
387 14
397 14
415 14
424 14
449 14
44mm 14
505@@ 14
50th 14
513@@ 14
532 14
570@@ 14
599 14
641 14
653 14
657 14
667 14
673 14
6b 14
717 14
723 14
768 14
780 14
785 14
808@@ 14
822@@ 14
860@@ 14
870 14
886 14
90mm 14
917 14
922 14
930 14
946 14
968 14
980 14
993 14
997 14
9mm 14
D@@ 14
U@@ 14
a18@@ 14
a500@@ 14
a88@@ 14
accessor@@ 14
ahan 14
aime 14
airmax@@ 14
aiwa 14
alba 14
alk@@ 14
allu@@ 14
amo 14
angan 14
ape@@ 14
ara@@ 14
ational 14
aus@@ 14
ava@@ 14
bahay 14
baile 14
bandouli@@ 14
bass@@ 14
bcbg 14
belkin 14
bition 14
blocked 14
blood@@ 14
bluetooth@@ 14
bohemi@@ 14
bonjour 14
borne 14
bran@@ 14
bravo 14
brick@@ 14
broc@@ 14
bubble@@ 14
bur 14
bushi@@ 14
butler 14
bx@@ 14
c01 14
cadi@@ 14
calli@@ 14
champion@@ 14
chat@@ 14
chr 14
christopher 14
cis 14
clou@@ 14
comfor@@ 14
conta@@ 14
contigo 14
contr@@ 14
control@@ 14
cooked 14
corpor@@ 14
cort 14
cosmo@@ 14
coul@@ 14
d7@@ 14
dah 14
dazz@@ 14
destroyer 14
distortion 14
dodge 14
dometer 14
dremel 14
drew 14
dudu 14
e0@@ 14
efs 14
electrolux 14
elo@@ 14
ense 14
enter@@ 14
ergo 14
ergo@@ 14
erson 14
evol@@ 14
excite 14
fad@@ 14
fang@@ 14
fantas@@ 14
fiel@@ 14
fighters 14
fj 14
flourish 14
flytrap 14
force@@ 14
fted 14
fz 14
gad@@ 14
garcia 14
gazelle 14
ghi 14
gho@@ 14
ghtener 14
gogg@@ 14
gradu@@ 14
grandista 14
groo@@ 14
guan 14
guarantee 14
gum@@ 14
h11 14
h2@@ 14
haha 14
hario 14
hazel@@ 14
hear 14
heu@@ 14
hhhh@@ 14
how@@ 14
i8 14
idol@@ 14
illa@@ 14
incre@@ 14
iphone7plus 14
irt 14
j0@@ 14
jg@@ 14
jian 14
jit@@ 14
joh@@ 14
jordan@@ 14
josh 14
k70@@ 14
kazu@@ 14
keima@@ 14
kening 14
keras@@ 14
kiehls 14
kitchenaid 14
kko 14
kol@@ 14
koto 14
kp@@ 14
lancôme 14
laser@@ 14
leader@@ 14
leten 14
lone@@ 14
lot@@ 14
lovey@@ 14
lude 14
lumix 14
lys@@ 14
lyte 14
madness 14
marque@@ 14
mate30@@ 14
max3 14
mbing 14
meli@@ 14
melville 14
menu 14
mercer@@ 14
mich@@ 14
microusb 14
mideer 14
mir 14
mira 14
mizer 14
mmy@@ 14
money@@ 14
moomin 14
more@@ 14
mori@@ 14
motul 14
mper@@ 14
n5@@ 14
nichi@@ 14
nsk 14
oce@@ 14
olds@@ 14
ome 14
ome@@ 14
orihiro 14
orion 14
orlando 14
osprey 14
oto@@ 14
ough 14
oy@@ 14
p5@@ 14
pantone 14
patty 14
pf@@ 14
physici@@ 14
pipe@@ 14
pj@@ 14
pment 14
prem 14
pso 14
puffy 14
qa@@ 14
rabeanco 14
ranch 14
rebel@@ 14
reflector@@ 14
rele@@ 14
remix 14
retin@@ 14
ricoh 14
rika 14
robinson 14
ruff@@ 14
rv@@ 14
s25 14
s26 14
s3@@ 14
sach@@ 14
sass@@ 14
sharon 14
simo 14
sk8 14
sme@@ 14
sper@@ 14
spf20 14
ssi 14
ssss 14
stat@@ 14
steady 14
sthe@@ 14
summ@@ 14
sutton 14
sv@@ 14
symbo@@ 14
tamar@@ 14
tarot 14
tase 14
tbag 14
teas@@ 14
tein 14
tendre 14
teng 14
thermal@@ 14
tice 14
tini 14
tong@@ 14
topa@@ 14
trad@@ 14
trapeze 14
trun@@ 14
tte@@ 14
tz@@ 14
ulo 14
ulti@@ 14
univers@@ 14
urus 14
us9 14
valentin@@ 14
vege@@ 14
verse@@ 14
vicky 14
vil 14
vixx 14
vv@@ 14
wik@@ 14
wit 14
won 14
wwww@@ 14
x11 14
x14 14
x17 14
x20@@ 14
x360 14
x8@@ 14
xiao 14
y1 14
yal 14
yankee 14
yen@@ 14
yg 14
ykk 14
yoda 14
yr@@ 14
z4 14
zb501kl 14
zel@@ 14
007@@ 13
01a 13
060@@ 13
070@@ 13
092 13
1007 13
1008@@ 13
1009 13
1020 13
1024 13
1024@@ 13
1040 13
10w40 13
1101 13
1106 13
1201 13
130cm 13
13a 13
145g 13
157@@ 13
160mm 13
165g 13
187@@ 13
190ml 13
1910 13
1985 13
200h 13
2025 13
21mm 13
220ml 13
2300 13
237ml 13
2400@@ 13
273 13
2l@@ 13
32b 13
351 13
354 13
358@@ 13
359@@ 13
377 13
395 13
406 13
40m 13
416@@ 13
425@@ 13
434@@ 13
444 13
468@@ 13
475 13
490@@ 13
500d 13
517@@ 13
529 13
539 13
5400@@ 13
550w 13
559 13
55w 13
572 13
581 13
5g@@ 13
607 13
622 13
647 13
654 13
65mm 13
676 13
683 13
6g@@ 13
718@@ 13
740 13
753 13
860 13
890 13
918 13
929 13
978 13
995 13
999@@ 13
W@@ 13
a170@@ 13
a41 13
abc@@ 13
aco@@ 13
ader@@ 13
afri@@ 13
agi@@ 13
ahc 13
alien@@ 13
alli 13
allstar 13
alpine@@ 13
amatic 13
analysis 13
apa 13
asd@@ 13
athering 13
atti@@ 13
austin 13
b100 13
b8@@ 13
babygap 13
bali@@ 13
bamb@@ 13
bbit 13
belif 13
betta 13
billy 13
blac@@ 13
blythe 13
border@@ 13
braun 13
brea@@ 13
bruno 13
bubb@@ 13
butt@@ 13
c7@@ 13
c8@@ 13
cade 13
calculus 13
cavali@@ 13
cdg 13
chach@@ 13
chara 13
charac@@ 13
chy@@ 13
clothes@@ 13
clothing@@ 13
cock@@ 13
concep@@ 13
continu@@ 13
cork@@ 13
cosbaby 13
cot@@ 13
cote 13
coupe 13
cree@@ 13
cushi@@ 13
d8 13
dary 13
dece@@ 13
depen@@ 13
derrick 13
deuter 13
dget 13
dia@@ 13
dior@@ 13
dispen@@ 13
duo@@ 13
dyn@@ 13
eas 13
edifier 13
enix 13
environ@@ 13
eri 13
eries 13
esl@@ 13
eta@@ 13
excalibur 13
f1@@ 13
fantasia 13
fei 13
flouri@@ 13
fou@@ 13
frank@@ 13
fund@@ 13
gabrielle 13
gamma 13
garter@@ 13
geographic 13
ggay 13
goes 13
grey@@ 13
gta 13
guar@@ 13
guer@@ 13
h8 13
hammer@@ 13
hardy 13
hawai@@ 13
horiz@@ 13
hq@@ 13
huang 13
humi@@ 13
icer 13
icy@@ 13
incredi@@ 13
inner@@ 13
intro@@ 13
iq 13
irwin 13
iste 13
itek 13
itz@@ 13
kami@@ 13
kiko 13
kira 13
knigh@@ 13
kon 13
kp 13
kuma 13
kure@@ 13
lada 13
lala@@ 13
leath@@ 13
lett 13
lilli@@ 13
lites 13
loz 13
lulu@@ 13
lution 13
luxuri@@ 13
maison 13
manu@@ 13
mata 13
mathemat@@ 13
mbal 13
medicin@@ 13
mess@@ 13
mistine 13
mks 13
mlc 13
moi 13
mosa 13
mpy 13
mq@@ 13
nalgene 13
nda 13
neko 13
nero 13
nest@@ 13
nino 13
nismo 13
numer@@ 13
nv 13
obey 13
original@@ 13
ortho@@ 13
otto@@ 13
p15 13
paj@@ 13
pam 13
pamp@@ 13
pez 13
philipp 13
place@@ 13
planet@@ 13
plein 13
pods@@ 13
pokki 13
ppe@@ 13
projects 13
promax 13
psy 13
pullo@@ 13
r8@@ 13
rane@@ 13
rec 13
refin@@ 13
refriger@@ 13
regener@@ 13
rell 13
repl@@ 13
resur@@ 13
rex@@ 13
rim@@ 13
roc@@ 13
rocky 13
rp@@ 13
s55@@ 13
samgy@@ 13
schol@@ 13
schwarzkopf 13
scp 13
scrip@@ 13
seba@@ 13
seed@@ 13
sene@@ 13
seph@@ 13
sheen 13
shoel@@ 13
shoo@@ 13
sible 13
simply@@ 13
ska 13
sko@@ 13
sprou@@ 13
stel@@ 13
steph@@ 13
sti 13
stream@@ 13
strip@@ 13
summit 13
swing@@ 13
t11 13
t295 13
t9 13
tains 13
talon 13
tao@@ 13
tay 13
tefal 13
thread@@ 13
tissot 13
tless 13
town@@ 13
tre 13
treme@@ 13
tronics 13
ttle 13
tutu@@ 13
une@@ 13
urumi 13
uss 13
v30 13
v3@@ 13
vable 13
vamp@@ 13
vand@@ 13
verde 13
veron@@ 13
versus 13
vey@@ 13
vip@@ 13
vitara 13
vocaloid 13
vou@@ 13
wav@@ 13
wen 13
wiz 13
x00@@ 13
xiii 13
xiv 13
y3@@ 13
yaz@@ 13
yb@@ 13
yh@@ 13
yon@@ 13
zar 13
zd551kl 13
zd552kl 13
zs@@ 13
0008 12
0012 12
012@@ 12
030@@ 12
074 12
077 12
1010 12
1108 12
119@@ 12
1202 12
12l 12
140mm 12
150m 12
150x@@ 12
15kg 12
16l 12
175ml 12
1807 12
1901 12
1984 12
1u 12
205@@ 12
206@@ 12
2070 12
2080 12
216@@ 12
22l 12
25kg 12
27cm 12
2800 12
280g 12
2k18 12
301@@ 12
309@@ 12
38a 12
40p 12
414 12
416 12
423 12
442 12
446 12
455@@ 12
458 12
461 12
466 12
471 12
476 12
479 12
488 12
4h@@ 12
4pin 12
514 12
526 12
538@@ 12
545 12
5500 12
5500@@ 12
563 12
564 12
571 12
579 12
601@@ 12
646 12
656 12
65cm 12
663 12
665 12
691 12
6k 12
70a 12
717@@ 12
71@@ 12
729 12
739 12
75cm 12
766 12
774 12
815 12
826 12
856 12
882 12
893 12
899 12
8k 12
8pro 12
956 12
962 12
991@@ 12
996 12
H@@ 12
S 12
a13 12
a18 12
a19 12
a8s 12
abo 12
ache@@ 12
ada@@ 12
aes 12
agu@@ 12
alan@@ 12
alpha@@ 12
amazon@@ 12
amit 12
anas@@ 12
anus 12
apa@@ 12
appear@@ 12
aprica 12
athers 12
athletics 12
avene 12
awe@@ 12
baguette 12
bambi 12
bape 12
baru@@ 12
batter@@ 12
beck@@ 12
bell@@ 12
beri 12
berry@@ 12
beyou@@ 12
bie@@ 12
bis 12
biz@@ 12
botan@@ 12
branding 12
bree@@ 12
bridge@@ 12
brush@@ 12
byredo 12
c3@@ 12
cake@@ 12
captor 12
ceci@@ 12
champs 12
clarins 12
cleef 12
clemen@@ 12
cny 12
co2 12
comme 12
cond@@ 12
cose 12
ctional 12
cutt@@ 12
dar 12
derella 12
deto@@ 12
ducati 12
duplo 12
dynasty 12
e2 12
edge@@ 12
eleph@@ 12
enh@@ 12
esc@@ 12
ester 12
evelyn 12
f2@@ 12
f6@@ 12
fah@@ 12
ferre@@ 12
figh@@ 12
fing@@ 12
fk 12
fox@@ 12
fum 12
fw 12
fz@@ 12
galac@@ 12
gamo@@ 12
gear@@ 12
gene 12
get@@ 12
gian@@ 12
glamglow 12
gnc 12
gner 12
goreng 12
gour@@ 12
gre 12
h3 12
haru 12
hercules 12
hgb@@ 12
hgbf 12
hope@@ 12
hv 12
hz@@ 12
igu@@ 12
iling 12
imper@@ 12
iner@@ 12
insp@@ 12
intu@@ 12
ital@@ 12
itional 12
itz 12
java 12
jbj 12
jessie 12
joie 12
jus@@ 12
k6 12
kali@@ 12
kanebo 12
kd10 12
kini 12
kla@@ 12
kni@@ 12
koi@@ 12
koko@@ 12
kong@@ 12
konica 12
kv 12
kv@@ 12
lago@@ 12
lander 12
liana 12
like@@ 12
lily@@ 12
limit 12
lolli@@ 12
lovetoy 12
lunarlon 12
majo@@ 12
mcgra@@ 12
mechanics 12
meow@@ 12
metri@@ 12
midor@@ 12
mild@@ 12
minolta 12
mob 12
mone@@ 12
mony 12
mpers 12
mph 12
n2 12
nana 12
nec@@ 12
oblique 12
olympic 12
only@@ 12
orts 12
ott 12
pace 12
pepper@@ 12
pero 12
pert 12
pg1 12
piko 12
ping@@ 12
plush@@ 12
pok@@ 12
posay 12
pose 12
posh@@ 12
powe@@ 12
powershot 12
prim 12
protro 12
q5 12
qua@@ 12
race@@ 12
radar 12
raider@@ 12
recharg@@ 12
rie@@ 12
rine 12
rom@@ 12
rui 12
ryn 12
ryo 12
sae@@ 12
sanit@@ 12
sao 12
sar 12
scape 12
season@@ 12
shen 12
sical 12
sora 12
span@@ 12
sur 12
taxi 12
temper@@ 12
thic 12
tian@@ 12
tility 12
toi@@ 12
tok 12
tonka 12
trainers 12
turb@@ 12
turismo 12
uch 12
uler 12
ulous 12
ures 12
vanna 12
vii 12
virgin@@ 12
vivienne 12
vk 12
voo@@ 12
voyage@@ 12
vt@@ 12
wannaone 12
wb@@ 12
weather@@ 12
week@@ 12
westwood 12
wins 12
xh 12
xr1 12
y91@@ 12
yang@@ 12
yuasa 12
zam@@ 12
zard 12
zaz@@ 12
zc600kl 12
zelle 12
zl 12
zm 12
0004 11
003@@ 11
009@@ 11
081 11
084 11
1012 11
1017 11
1055 11
105g 11
105mm 11
1070 11
10pro 11
1118 11
114@@ 11
1155 11
1203 11
120x@@ 11
1220 11
127@@ 11
1301 11
13ml 11
13w 11
145@@ 11
1802 11
1920 11
1cm 11
1f 11
2010@@ 11
227@@ 11
297@@ 11
298@@ 11
2a@@ 11
2p@@ 11
313@@ 11
32g@@ 11
330g 11
339@@ 11
33mm 11
347 11
353 11
35x@@ 11
368@@ 11
383 11
389 11
394 11
3k 11
422@@ 11
42cm 11
466@@ 11
469 11
480ml 11
490 11
4e 11
500g@@ 11
500h 11
516@@ 11
521 11
523@@ 11
527 11
533 11
568@@ 11
595@@ 11
5plus 11
5x2 11
5z 11
6001 11
6002 11
6005 11
60a 11
60t 11
6200 11
627 11
636 11
651 11
659 11
689 11
699@@ 11
6sp 11
6xl 11
716 11
718 11
755@@ 11
75oz 11
764 11
779 11
789 11
827 11
850ml 11
854 11
857 11
8800 11
8w 11
919 11
930@@ 11
940@@ 11
958 11
970@@ 11
9c 11
L 11
aaaa@@ 11
ab6ix 11
acc@@ 11
achu 11
airpo@@ 11
ake@@ 11
akira 11
aku@@ 11
amazfit 11
anna@@ 11
anten@@ 11
appe@@ 11
applied 11
arc@@ 11
archi@@ 11
archite@@ 11
armor@@ 11
asdf@@ 11
ati 11
atmo@@ 11
austr@@ 11
bak 11
basic@@ 11
basket@@ 11
beh@@ 11
bern@@ 11
bever@@ 11
bic@@ 11
bird@@ 11
blox 11
bls 11
bry@@ 11
c11 11
c12 11
c30@@ 11
c9pro 11
caf@@ 11
calcul@@ 11
camaro 11
camp@@ 11
centr@@ 11
cet 11
cheng 11
chop@@ 11
chou 11
chris@@ 11
cigare@@ 11
cleans@@ 11
cran@@ 11
d6 11
dah@@ 11
danica 11
dario 11
daytona 11
ddings 11
dear@@ 11
ded@@ 11
deep@@ 11
denim@@ 11
desk@@ 11
ding@@ 11
dman 11
docu@@ 11
dope@@ 11
dou 11
dred 11
dumbo 11
durex 11
e55@@ 11
east@@ 11
ej@@ 11
eko@@ 11
eleg@@ 11
eling 11
emul@@ 11
enf@@ 11
enzy@@ 11
f10 11
f8 11
f8@@ 11
fie@@ 11
filip@@ 11
fina 11
fn@@ 11
formul@@ 11
fragr@@ 11
franci@@ 11
ftc 11
g12 11
g9 11
gaga 11
geant 11
gggg@@ 11
gls 11
gob@@ 11
gucci@@ 11
h110@@ 11
handle@@ 11
hank 11
hele@@ 11
hersh@@ 11
hey@@ 11
hid 11
hitachi 11
hola 11
hound@@ 11
hype@@ 11
idal 11
iners 11
inet 11
inven@@ 11
iss@@ 11
iw@@ 11
iwatch@@ 11
jacket@@ 11
jing 11
k20@@ 11
kf 11
kj@@ 11
kom 11
kyo 11
laco@@ 11
lad@@ 11
lif@@ 11
link@@ 11
lix 11
lk@@ 11
load@@ 11
lounge@@ 11
lowepro 11
lunch@@ 11
manfrotto 11
manufac@@ 11
marco 11
massa@@ 11
mem@@ 11
mile@@ 11
minkoff 11
miro@@ 11
moc@@ 11
msn 11
neigh@@ 11
nf@@ 11
nile 11
nimbus 11
nine@@ 11
nixon 11
noble@@ 11
oi 11
oi@@ 11
olin 11
ordin@@ 11
org 11
ours 11
oxo 11
p0@@ 11
p7 11
paragraph 11
pei 11
peli@@ 11
pharm 11
phas@@ 11
phy 11
pillar 11
pon 11
pouch@@ 11
prince@@ 11
purit@@ 11
q2 11
qd 11
quer 11
r35 11
rac 11
raf 11
rapi@@ 11
reali@@ 11
reo 11
rep 11
rever@@ 11
rf@@ 11
riche 11
riz@@ 11
roland 11
roll@@ 11
romand 11
s20@@ 11
samsun@@ 11
sep@@ 11
session 11
shadow@@ 11
shooky 11
skinny@@ 11
smr 11
solar@@ 11
solu@@ 11
sonic@@ 11
spalding 11
spec@@ 11
spectr@@ 11
spf35 11
spine 11
springs 11
ssk 11
staff 11
stampede 11
stems 11
steven 11
suho 11
superfly 11
syner@@ 11
t00@@ 11
t4 11
tah 11
tako 11
tango 11
techno@@ 11
termin@@ 11
tero 11
text@@ 11
thers 11
thia 11
thu@@ 11
till@@ 11
tino 11
tory@@ 11
trou@@ 11
tzu@@ 11
ue@@ 11
uemura 11
uly 11
unge 11
ustar 11
vage 11
valen@@ 11
ventil@@ 11
versa 11
very@@ 11
viv@@ 11
vivier 11
vor@@ 11
wagon 11
whoo@@ 11
wren@@ 11
x1@@ 11
x2@@ 11
xiumin 11
xz@@ 11
y2 11
yab@@ 11
yuu@@ 11
zc55@@ 11
ze550kl 11
zenbook 11
zenfone5 11
zig@@ 11
zinger 11
zp@@ 11
zs 11
zs620kl 11
à@@ 11
á@@ 11
0007 10
0010 10
008@@ 10
013@@ 10
014@@ 10
044@@ 10
080@@ 10
1015@@ 10
1062 10
10k@@ 10
1107 10
1110 10
1112 10
1405 10
1500ml 10
1501 10
1601 10
1616 10
180x@@ 10
1810 10
1899 10
1l@@ 10
1r 10
1x1 10
202@@ 10
20w@@ 10
2280 10
254 10
269@@ 10
2hp 10
3008 10
317@@ 10
326@@ 10
34c 10
358 10
376 10
3l@@ 10
40l 10
413 10
417 10
419@@ 10
420ml 10
433@@ 10
439 10
457 10
459 10
48cm 10
48mm 10
48v 10
493 10
498@@ 10
5006 10
50t 10
519 10
538 10
53mm 10
554 10
55s 10
564@@ 10
567 10
578 10
5q 10
607@@ 10
612@@ 10
622@@ 10
625@@ 10
631 10
632 10
684 10
686 10
687 10
6r 10
705@@ 10
720ml 10
741 10
745@@ 10
754 10
781 10
782 10
823 10
831 10
868 10
877 10
878@@ 10
8813 10
891 10
912@@ 10
928 10
928@@ 10
9300 10
948@@ 10
953 10
955@@ 10
963 10
982 10
987 10
K@@ 10
T 10
Y 10
abs@@ 10
abund@@ 10
acry@@ 10
addiction 10
afternoon 10
agility 10
akb48 10
aker 10
alley 10
alter 10
amat@@ 10
ampo@@ 10
andsia 10
anium 10
anny@@ 10
arden@@ 10
artist@@ 10
astar 10
aug@@ 10
aun@@ 10
b00@@ 10
baba 10
barbar@@ 10
beaute@@ 10
bebe@@ 10
benro 10
bian@@ 10
biz 10
bling@@ 10
bluebird 10
bod@@ 10
boss@@ 10
bred 10
bts@@ 10
cambo@@ 10
camer@@ 10
campbell 10
capsu@@ 10
cardin 10
cator 10
caud@@ 10
cec@@ 10
ceo 10
chung 10
ckets 10
cla 10
climacool 10
cloudfoam 10
como 10
condition@@ 10
confi@@ 10
contin@@ 10
conveni@@ 10
cozy@@ 10
cq 10
dant@@ 10
dart@@ 10
ddie 10
dem 10
descen@@ 10
dle@@ 10
dmw 10
duel 10
dupont 10
dwar@@ 10
dyna 10
e00@@ 10
ece 10
eddie 10
eler 10
elite@@ 10
endur@@ 10
eno@@ 10
esp 10
ett@@ 10
eur@@ 10
evangeli@@ 10
even@@ 10
f07 10
f15 10
facebook 10
fal 10
fav@@ 10
feed@@ 10
fessi@@ 10
forever@@ 10
fret 10
fs5@@ 10
furyu 10
fuzzy 10
gene@@ 10
geor@@ 10
gger@@ 10
given@@ 10
gor 10
gram@@ 10
grandline 10
gregory 10
gund@@ 10
hdhd@@ 10
hing@@ 10
hob@@ 10
hori 10
hyalur@@ 10
ias 10
imo@@ 10
ipo@@ 10
ips@@ 10
itude 10
izu@@ 10
j6@@ 10
jia 10
jia@@ 10
jour 10
kabu@@ 10
kakao 10
kina 10
kmc 10
kobe@@ 10
kokuyo 10
koo@@ 10
laun@@ 10
leaf@@ 10
lelo 10
lipse 10
lous 10
lv8 10
lw@@ 10
lz@@ 10
m20@@ 10
m40@@ 10
mamon 10
mao 10
marga@@ 10
mariah 10
mariner 10
marion 10
marjorie 10
mavis 10
max155 10
mbl@@ 10
megui@@ 10
met@@ 10
micha@@ 10
mickey@@ 10
minim@@ 10
minum 10
modi@@ 10
mouth@@ 10
movi@@ 10
mpo@@ 10
muse@@ 10
napo@@ 10
nie@@ 10
noe 10
nr@@ 10
odles 10
oto 10
paradi@@ 10
peg@@ 10
penny@@ 10
phe 10
pippen 10
princess@@ 10
protect@@ 10
qc@@ 10
qz@@ 10
r5 10
rascal 10
reads 10
rear@@ 10
ronin 10
rubb@@ 10
running@@ 10
s11 10
sandal@@ 10
scallo@@ 10
scopic 10
scription 10
sdi@@ 10
sebamed 10
sent 10
shado@@ 10
shap@@ 10
siri@@ 10
site 10
skul@@ 10
skull@@ 10
souven@@ 10
spag@@ 10
special@@ 10
splcod@@ 10
squish@@ 10
srp@@ 10
stabil@@ 10
stin 10
stm 10
studi@@ 10
success@@ 10
sui@@ 10
sum@@ 10
supre@@ 10
supreme@@ 10
swift@@ 10
t1@@ 10
tau@@ 10
team@@ 10
tern 10
tesla 10
til 10
tley 10
todd@@ 10
totolink 10
tough@@ 10
treat@@ 10
trit@@ 10
troll 10
trop@@ 10
tul 10
tumbl@@ 10
tured 10
tyler 10
tzu 10
uary 10
undefeated 10
uptempo 10
us5 10
users 10
uu@@ 10
ux@@ 10
vana 10
vape@@ 10
victor@@ 10
vigor 10
viii 10
virtue 10
vista 10
wards 10
wid@@ 10
x100@@ 10
x54@@ 10
xon 10
yk@@ 10
yoshi@@ 10
yte 10
z5@@ 10
zb631kl 10
ze55@@ 10
zf@@ 10
zur@@ 10
á 10
ø@@ 10
ᅠ 10
0009 9
004@@ 9
005@@ 9
100b 9
100v 9
1028 9
1037 9
10p 9
1103 9
1115 9
1156 9
1206 9
1207 9
1302 9
1333 9
156@@ 9
1900 9
1900@@ 9
1911 9
1970s 9
1981 9
1v 9
2030 9
204@@ 9
2100@@ 9
210mm 9
2204 9
225g 9
229@@ 9
23l 9
23mm 9
24h@@ 9
250mm 9
25w 9
2600 9
2m@@ 9
2r 9
3002 9
3010 9
327@@ 9
32x@@ 9
334@@ 9
34cm 9
367 9
396 9
3c@@ 9
40c 9
412@@ 9
426 9
427 9
429 9
463 9
467 9
474 9
477 9
478 9
481 9
491 9
4a@@ 9
4k@@ 9
4x6 9
5001 9
555@@ 9
566@@ 9
5mm@@ 9
60hz 9
664@@ 9
682 9
688@@ 9
696 9
6s@@ 9
713@@ 9
737 9
739@@ 9
7500 9
756 9
759@@ 9
765 9
778@@ 9
787 9
8010 9
8018 9
859 9
868@@ 9
899@@ 9
8e 9
932@@ 9
933 9
984 9
992 9
9h@@ 9
9x 9
A 9
V@@ 9
a300 9
achen 9
action@@ 9
agen 9
alight 9
alphab@@ 9
ambassador 9
amg 9
anch@@ 9
androi@@ 9
anese 9
aphy 9
aps 9
arnold 9
arth@@ 9
athlon 9
atmos 9
atta 9
audio@@ 9
autu@@ 9
b01 9
bagu@@ 9
bena 9
brat@@ 9
bridesm@@ 9
brother@@ 9
buc@@ 9
bz@@ 9
capu@@ 9
carry@@ 9
cartoon@@ 9
cay@@ 9
champ@@ 9
charon 9
cheese@@ 9
chette 9
chopp@@ 9
clari@@ 9
colum@@ 9
combin@@ 9
constance 9
coste 9
cp3 9
cryst@@ 9
cuisin@@ 9
dac 9
deon 9
destin@@ 9
diorama 9
disk@@ 9
dison 9
dol 9
dow@@ 9
dox 9
due 9
duffy 9
dula 9
e14 9
economics 9
elaine 9
eld 9
euph@@ 9
evo@@ 9
excel@@ 9
exclu@@ 9
f01 9
fiya 9
flake 9
foun@@ 9
g50@@ 9
garcons 9
gator 9
genu@@ 9
gio@@ 9
glad@@ 9
gladi@@ 9
greg@@ 9
grin@@ 9
gtx@@ 9
gurt 9
hape@@ 9
helen 9
helle 9
hemi@@ 9
hime 9
hj@@ 9
hobo@@ 9
hong@@ 9
hoo 9
ial@@ 9
iggle 9
illian 9
ily@@ 9
immor@@ 9
indepen@@ 9
industri@@ 9
initi@@ 9
jab@@ 9
japan@@ 9
jeans@@ 9
jeffrey 9
joe@@ 9
jw@@ 9
k8@@ 9
kate@@ 9
kav@@ 9
kom@@ 9
ktm 9
kymco 9
l3 9
lebron@@ 9
lets@@ 9
liar 9
licca 9
longsle@@ 9
lovely@@ 9
lowe@@ 9
m16 9
m22 9
m67@@ 9
major@@ 9
mano 9
marathon 9
mash 9
mask@@ 9
maybel@@ 9
mechan@@ 9
mero 9
mini2 9
mirror@@ 9
mitch@@ 9
modu@@ 9
mouse@@ 9
muscle@@ 9
must@@ 9
naraya 9
ncy 9
nh@@ 9
nico 9
nite 9
nity 9
nl@@ 9
nokia5 9
notor@@ 9
nova5@@ 9
oat@@ 9
olf 9
onesi@@ 9
ophidia 9
ornam@@ 9
osh@@ 9
pastil@@ 9
pepti@@ 9
perfe@@ 9
pher 9
phyto@@ 9
pillow@@ 9
pipp@@ 9
pol 9
pran@@ 9
priced 9
prophere 9
pub 9
qin 9
qn@@ 9
qua 9
qz 9
r9@@ 9
rav4 9
recor@@ 9
rene@@ 9
rens 9
repu@@ 9
respir@@ 9
roberta 9
rosherun 9
rossi 9
rover 9
rw@@ 9
rx5@@ 9
s01 9
s1@@ 9
sanyo 9
sby 9
sche 9
sche@@ 9
schwar@@ 9
sf9 9
sgs 9
shka 9
sii 9
slender 9
slp@@ 9
snake@@ 9
soldi@@ 9
soy@@ 9
sports@@ 9
square@@ 9
stery 9
stopp@@ 9
story@@ 9
stren@@ 9
tae@@ 9
taga@@ 9
taito 9
tarmac 9
therm 9
think@@ 9
tify 9
tik@@ 9
tim@@ 9
toc 9
tout 9
transpa@@ 9
tulog 9
tuning 9
turi@@ 9
ub@@ 9
udf 9
ulan@@ 9
ule 9
ultras@@ 9
uncle 9
usage 9
v11@@ 9
v60 9
vals 9
vas 9
vat@@ 9
vessel 9
vest@@ 9
viet@@ 9
vm 9
vy@@ 9
w3 9
walt 9
wang@@ 9
warri@@ 9
whoo 9
wig@@ 9
xa@@ 9
xn@@ 9
xu@@ 9
yao@@ 9
yne 9
yoko@@ 9
zal@@ 9
ze520kl 9
zenfone4 9
zg@@ 9
zilla 9
ø 9
ō@@ 9
스@@ 9
0015 8
0022 8
028@@ 8
040@@ 8
10000@@ 8
1011@@ 8
1022 8
1029 8
1030@@ 8
1109 8
1204 8
15w@@ 8
16g@@ 8
18ml 8
192@@ 8
1a4 8
1g@@ 8
1h 8
2060 8
20d 8
265@@ 8
2666 8
2z 8
300h 8
300s 8
3100 8
318@@ 8
31cm 8
328@@ 8
329@@ 8
32d 8
336@@ 8
3570 8
365@@ 8
37mm 8
38c 8
3m@@ 8
4100 8
422 8
434 8
437@@ 8
4500 8
45x@@ 8
483 8
487 8
495 8
496 8
499@@ 8
4e@@ 8
5002 8
50mah 8
519@@ 8
5200 8
524 8
526@@ 8
527@@ 8
52mm 8
534@@ 8
537@@ 8
545@@ 8
546 8
55cm 8
569 8
575 8
5800 8
590@@ 8
593 8
614 8
633 8
644 8
645@@ 8
671 8
674 8
712 8
712@@ 8
722 8
723@@ 8
728@@ 8
738 8
747@@ 8
757 8
758 8
772 8
783 8
786 8
812@@ 8
814 8
821 8
836@@ 8
848@@ 8
876 8
916 8
923 8
941 8
985 8
9999@@ 8
TM@@ 8
Y@@ 8
a03 8
a17 8
a70@@ 8
aan 8
acou@@ 8
adidas@@ 8
adr 8
aesthe@@ 8
afford@@ 8
akra@@ 8
alog 8
alpine 8
amiibo 8
ancing 8
anessa 8
angler 8
ansi 8
antha 8
aorus 8
appy 8
april@@ 8
aromather@@ 8
atic 8
atory 8
b3@@ 8
bai 8
baja@@ 8
baker@@ 8
bam@@ 8
bcd 8
bdsm 8
bergam@@ 8
blah@@ 8
boe@@ 8
brown@@ 8
budd@@ 8
bureau 8
bwfc 8
c10@@ 8
calyp@@ 8
caro@@ 8
carto@@ 8
castle@@ 8
chao 8
chun 8
cig@@ 8
cil@@ 8
cls 8
clutch@@ 8
cocon@@ 8
coni 8
court@@ 8
ctis 8
cuis@@ 8
cyc@@ 8
dding 8
demon@@ 8
dents 8
deter@@ 8
devil@@ 8
disinfe@@ 8
duction 8
duramo 8
e250 8
e8 8
edi@@ 8
elet 8
equip@@ 8
eter@@ 8
etude@@ 8
eys 8
f30 8
ffl@@ 8
flexi@@ 8
fron@@ 8
futura 8
future@@ 8
gawa 8
gether 8
gna@@ 8
gol 8
grape@@ 8
gts 8
gv@@ 8
h3@@ 8
haiky@@ 8
hiro 8
huawe@@ 8
ichi 8
idolish7 8
ige 8
inese 8
infan@@ 8
inser@@ 8
introduction 8
ione 8
irs 8
ise@@ 8
isk 8
ison 8
iti 8
ition@@ 8
iu@@ 8
j8@@ 8
jitsu 8
jordan1 8
jq@@ 8
juni@@ 8
katsu 8
kh 8
kig@@ 8
kis@@ 8
km@@ 8
l01 8
l3@@ 8
lane@@ 8
lego@@ 8
lightly 8
lins 8
liss 8
logg 8
logo@@ 8
loop@@ 8
loubou@@ 8
loulou 8
love11@@ 8
lun 8
m11 8
m2k 8
maisto 8
maj@@ 8
marjor@@ 8
match@@ 8
mbo@@ 8
mets 8
mk2 8
mk57@@ 8
mk8@@ 8
montre@@ 8
mot 8
n6@@ 8
n7@@ 8
nay@@ 8
nct@@ 8
nds 8
nespresso 8
ney@@ 8
nini 8
nj 8
noah 8
nokia6 8
note4x 8
oak@@ 8
orch@@ 8
oride 8
orio 8
oul 8
p4 8
peau 8
pepp@@ 8
peti@@ 8
phan@@ 8
physics 8
playmobil 8
pocky 8
pool@@ 8
porter 8
prop@@ 8
psv 8
pw 8
qs@@ 8
r2@@ 8
refe@@ 8
regul@@ 8
rer@@ 8
reven@@ 8
roid 8
roller@@ 8
ror@@ 8
rug@@ 8
rur@@ 8
ryx@@ 8
s75@@ 8
sabon 8
saudi@@ 8
seal@@ 8
secre@@ 8
serv@@ 8
sf314 8
shampo@@ 8
shang@@ 8
shav@@ 8
shaw 8
sii@@ 8
smal 8
sou 8
splash@@ 8
ssie 8
starbu@@ 8
stati@@ 8
streng@@ 8
structure 8
sturi@@ 8
sumi 8
sunny@@ 8
surve@@ 8
taipei 8
tamron 8
tant 8
tape@@ 8
tari@@ 8
technica 8
tens 8
tified 8
tings 8
tium 8
towel@@ 8
tq@@ 8
trail@@ 8
trese@@ 8
tura 8
tze 8
unc 8
uno@@ 8
vd@@ 8
velo 8
vinci@@ 8
vuit@@ 8
vx@@ 8
whide 8
wireless@@ 8
wool@@ 8
wth 8
wurth 8
xbox@@ 8
xh@@ 8
xvi 8
xw@@ 8
xxl@@ 8
yach@@ 8
yd@@ 8
yes@@ 8
yeti 8
yuan@@ 8
za550kl 8
zak@@ 8
zd@@ 8
zes 8
zk 8
zp 8
018@@ 7
022@@ 7
1014 7
1021 7
110v 7
1111 7
1113 7
1117 7
1122 7
1165@@ 7
1180@@ 7
1231 7
1268 7
1280 7
12kg 7
135mm 7
14ml 7
1502 7
184@@ 7
18650@@ 7
195@@ 7
1a@@ 7
1adr 7
1p@@ 7
20000@@ 7
2000ml 7
207@@ 7
209@@ 7
2203 7
22x@@ 7
23a 7
247@@ 7
3005 7
3007 7
34mm 7
36g 7
374 7
37g 7
396@@ 7
39mm 7
3g@@ 7
3kl 7
41mm 7
433 7
43mm 7
445 7
447 7
480g 7
482 7
486 7
494 7
500kl 7
525@@ 7
566 7
584 7
588@@ 7
594 7
599@@ 7
5cm@@ 7
6006 7
608@@ 7
611@@ 7
615@@ 7
617@@ 7
643 7
64g@@ 7
6500 7
666@@ 7
677 7
695@@ 7
700d 7
707@@ 7
714@@ 7
722@@ 7
724 7
724@@ 7
727@@ 7
730@@ 7
736 7
7500@@ 7
761 7
763 7
789@@ 7
7cm@@ 7
816@@ 7
824 7
830@@ 7
840@@ 7
853 7
85cm 7
870@@ 7
873 7
895 7
9001 7
906@@ 7
913 7
914 7
924@@ 7
935 7
938@@ 7
945@@ 7
946@@ 7
952 7
976 7
994 7
N 7
a22@@ 7
acade@@ 7
alar@@ 7
alche@@ 7
amos 7
anderson 7
angeli@@ 7
apri@@ 7
ascor@@ 7
assembl@@ 7
ater@@ 7
atex 7
atine 7
audi@@ 7
aux@@ 7
bacter@@ 7
bake@@ 7
bandou@@ 7
baobao 7
bcb@@ 7
beaut@@ 7
begin@@ 7
benq 7
bisco 7
bjd 7
blon@@ 7
bobo@@ 7
bom 7
bone@@ 7
brisk 7
c13 7
c18@@ 7
c1@@ 7
cami@@ 7
celest@@ 7
cezanne 7
chef@@ 7
chronic@@ 7
cindy@@ 7
coal 7
compati@@ 7
compon@@ 7
concord 7
corsa 7
cullo@@ 7
cé@@ 7
dants 7
dermal 7
dery 7
detoxi@@ 7
dino@@ 7
distri@@ 7
dix 7
dq@@ 7
drag@@ 7
dresse@@ 7
e6 7
edt@@ 7
efr 7
ej 7
elec@@ 7
elect@@ 7
enri@@ 7
erun@@ 7
espo@@ 7
este@@ 7
f6 7
fare 7
favor@@ 7
festi@@ 7
fk@@ 7
flow@@ 7
fluore@@ 7
form@@ 7
friend@@ 7
fry@@ 7
gano@@ 7
garden@@ 7
gelat@@ 7
gets 7
gil 7
grizz@@ 7
grom@@ 7
gry 7
gucc 7
guess@@ 7
h7@@ 7
haha@@ 7
haku 7
hepa 7
hom@@ 7
hud 7
hydra@@ 7
hyun@@ 7
i6s 7
ility 7
imit@@ 7
indu@@ 7
ine100 7
infu@@ 7
instin@@ 7
ishig@@ 7
isu@@ 7
isure 7
jae@@ 7
jie@@ 7
jim@@ 7
jog 7
jogg@@ 7
jx@@ 7
k0@@ 7
keepall 7
kered 7
kinder@@ 7
kipl@@ 7
kitchen@@ 7
kitty@@ 7
koff 7
kook 7
kopf 7
labor@@ 7
legen@@ 7
leica 7
lover@@ 7
lunar@@ 7
macaro@@ 7
mainten@@ 7
makap@@ 7
makeup@@ 7
mandar@@ 7
manolo 7
mare 7
mccartney 7
measure@@ 7
mech@@ 7
mechani@@ 7
megahouse 7
membr@@ 7
mez@@ 7
miffy 7
miko 7
mk33@@ 7
mmd 7
montaigne 7
montblanc 7
mp3@@ 7
mtr@@ 7
n4 7
narci@@ 7
nca@@ 7
nite@@ 7
nm@@ 7
nove@@ 7
opa@@ 7
opu@@ 7
opy 7
own@@ 7
pallas 7
panor@@ 7
peggy 7
pengu@@ 7
pentax 7
phe@@ 7
phen 7
philo@@ 7
pik@@ 7
plc 7
pleas@@ 7
popo@@ 7
prairie 7
prelov@@ 7
print@@ 7
prm 7
quo@@ 7
r20 7
rayban 7
rect@@ 7
refil@@ 7
repe@@ 7
reve@@ 7
river@@ 7
rou 7
rv 7
s80@@ 7
sain@@ 7
samson@@ 7
sant@@ 7
schu@@ 7
shal@@ 7
sharpen@@ 7
shimm@@ 7
shipp@@ 7
simi@@ 7
sium 7
smo 7
speedy@@ 7
spf25 7
sps 7
squea@@ 7
ssk@@ 7
stabi@@ 7
steen 7
stron@@ 7
suc@@ 7
superme 7
sut@@ 7
switch@@ 7
syl@@ 7
syru@@ 7
taps 7
tekno 7
thentic 7
timber@@ 7
titude 7
tod 7
toga 7
tomytec 7
touring 7
turer 7
ubi@@ 7
ui@@ 7
uncaged 7
undercover 7
usm 7
vdl 7
ves@@ 7
wacom 7
wardro@@ 7
wq 7
x23 7
xk 7
xz2 7
xzs 7
yeh 7
yf@@ 7
yg@@ 7
z01@@ 7
ze554kl 7
ze620kl 7
zj@@ 7
â@@ 7
ère 7
า@@ 7
0918 6
1010@@ 6
1090 6
1105 6
1133 6
113@@ 6
1199 6
1234@@ 6
15mm@@ 6
1605 6
1650@@ 6
16gb@@ 6
1n 6
200x@@ 6
2015@@ 6
2024 6
249@@ 6
24v@@ 6
2560 6
2665 6
285@@ 6
306@@ 6
349@@ 6
386 6
4200 6
424@@ 6
435 6
464 6
465@@ 6
46mm 6
470ml 6
502@@ 6
5100 6
523 6
532@@ 6
543@@ 6
5503 6
577@@ 6
586 6
598 6
624 6
626@@ 6
629@@ 6
637 6
639 6
648 6
695 6
6p@@ 6
708@@ 6
70b 6
725@@ 6
742 6
744@@ 6
766@@ 6
768@@ 6
769 6
776 6
791 6
796 6
798 6
813@@ 6
822 6
833 6
839 6
844@@ 6
864@@ 6
890@@ 6
8cm@@ 6
909@@ 6
957 6
957@@ 6
9kg 6
a30@@ 6
addi@@ 6
adian 6
airing 6
aldo@@ 6
amoto 6
anci@@ 6
anish 6
annivers@@ 6
apon 6
apu@@ 6
ashes 6
asis 6
b9 6
balmain 6
banne 6
bate 6
benz@@ 6
beta@@ 6
blee@@ 6
bluetoo@@ 6
bonding 6
brazi@@ 6
brook@@ 6
burton 6
button@@ 6
c200 6
cabas 6
caes@@ 6
calbee 6
calibur 6
calor@@ 6
cancel@@ 6
carhartt 6
cayenne 6
cent@@ 6
cerity 6
chanel@@ 6
chev@@ 6
cite 6
coffe@@ 6
constell@@ 6
coo 6
cooper@@ 6
copi@@ 6
corte@@ 6
cro 6
crocs@@ 6
crystal@@ 6
culus 6
curry@@ 6
cyn@@ 6
d12 6
date@@ 6
deur 6
distor@@ 6
diy@@ 6
doki 6
doris 6
dot@@ 6
dus 6
e8@@ 6
edison 6
emper@@ 6
enta 6
epo@@ 6
erina 6
etu@@ 6
expan@@ 6
expand@@ 6
experi@@ 6
f28@@ 6
f30@@ 6
femin@@ 6
ferra@@ 6
find@@ 6
focus@@ 6
forester 6
fos@@ 6
france@@ 6
frey 6
frog@@ 6
fuj@@ 6
g1@@ 6
g3@@ 6
g4@@ 6
gall@@ 6
gham 6
h12@@ 6
handker@@ 6
herit@@ 6
hour@@ 6
hoyo@@ 6
huar@@ 6
hwa 6
ica@@ 6
ichi@@ 6
ickers 6
ign 6
igue 6
ike 6
ina@@ 6
inci@@ 6
individu@@ 6
indonesi@@ 6
insi@@ 6
inspir@@ 6
ional 6
ivy@@ 6
j00@@ 6
jenni@@ 6
jn 6
judy 6
jung@@ 6
k11 6
kenne@@ 6
kirk@@ 6
kyrie3 6
kyrie@@ 6
lamp@@ 6
licen@@ 6
loid 6
longines 6
lq@@ 6
lunarglide 6
m18@@ 6
marry 6
marvel@@ 6
mate9 6
max2 6
mbers 6
meas@@ 6
merchan@@ 6
messen@@ 6
mfi 6
mics 6
miki 6
mino@@ 6
mk32@@ 6
mk55@@ 6
mk59@@ 6
mma@@ 6
mos@@ 6
msi@@ 6
msp@@ 6
muller 6
nee@@ 6
nir@@ 6
nnnn@@ 6
nou@@ 6
nova3@@ 6
nrg 6
né@@ 6
obd2 6
odle 6
office@@ 6
oku@@ 6
onthe@@ 6
oom 6
oos 6
ora@@ 6
ords 6
oroll 6
orus 6
outlander 6
ozweego 6
p1@@ 6
p5 6
palladium 6
pari@@ 6
peeka@@ 6
perspir@@ 6
pharrell 6
piece@@ 6
pine@@ 6
pist@@ 6
postale 6
pound 6
pressor 6
putitto 6
q8@@ 6
qh 6
qo@@ 6
quel@@ 6
r18 6
receip@@ 6
retrac@@ 6
rfid@@ 6
rgb@@ 6
ribs 6
richell 6
rob@@ 6
room@@ 6
ror 6
s60 6
salo@@ 6
saram@@ 6
sca@@ 6
scienti@@ 6
sherry 6
shox 6
sip@@ 6
smallrig 6
sml 6
soft99 6
solo@@ 6
sop@@ 6
spat@@ 6
ssd@@ 6
ssr 6
station@@ 6
suzu@@ 6
swar@@ 6
swarov@@ 6
sweeth@@ 6
tasia 6
teco 6
thavasa 6
thursday 6
tifying 6
tigo 6
titi@@ 6
tmax 6
toyo@@ 6
tpu@@ 6
trape@@ 6
trey 6
troo@@ 6
u11 6
ufu@@ 6
ugg@@ 6
usable 6
usal 6
v2@@ 6
v8@@ 6
vacu@@ 6
vea@@ 6
ving@@ 6
viral 6
virtu@@ 6
vise@@ 6
vivian 6
vulc 6
w5 6
w8@@ 6
weeken@@ 6
well@@ 6
wester@@ 6
wheel@@ 6
willi@@ 6
wis@@ 6
x450@@ 6
xj@@ 6
xu 6
xw 6
yaman@@ 6
yc@@ 6
ym@@ 6
z6 6
zb570tl 6
zb633kl 6
zenfone3 6
zir@@ 6
zojirushi 6
å@@ 6
ê@@ 6
ì 6
ó@@ 6
ú@@ 6
ஐ@@ 6
소@@ 6
웃 6
032@@ 5
0cm 5
1023 5
1025 5
1025@@ 5
1028@@ 5
10ml@@ 5
111@@ 5
1166@@ 5
11mm 5
1208 5
1450@@ 5
153@@ 5
1580 5
1610@@ 5
1680 5
177@@ 5
1955 5
197@@ 5
1m@@ 5
2014@@ 5
210ml 5
233@@ 5
2600@@ 5
267@@ 5
279@@ 5
2800@@ 5
2cd 5
2s@@ 5
2w@@ 5
3003 5
303@@ 5
307@@ 5
3300 5
387@@ 5
3a@@ 5
438 5
4500@@ 5
484 5
486@@ 5
488@@ 5
489 5
48x@@ 5
498 5
501@@ 5
50c 5
5118@@ 5
524@@ 5
535 5
537 5
544@@ 5
551kl 5
565@@ 5
5m@@ 5
5w30 5
5w@@ 5
616@@ 5
636@@ 5
645 5
679 5
697 5
698 5
704@@ 5
70d 5
715@@ 5
744 5
749@@ 5
7x@@ 5
807@@ 5
815@@ 5
817@@ 5
825@@ 5
832 5
834@@ 5
846@@ 5
849@@ 5
916@@ 5
918@@ 5
995@@ 5
996@@ 5
997@@ 5
9forty 5
C 5
D 5
H 5
a007 5
a200 5
a40s 5
a45 5
a75 5
a77@@ 5
abac@@ 5
ablo@@ 5
achu@@ 5
acia 5
alas@@ 5
alcat@@ 5
alls 5
amide 5
andri@@ 5
anita 5
aoc 5
apex@@ 5
ardo 5
armo@@ 5
arn@@ 5
asm 5
assc 5
aveng@@ 5
ax5 5
bade@@ 5
baell@@ 5
bani@@ 5
barba@@ 5
beas@@ 5
belie@@ 5
bime 5
booking 5
bray 5
bubu@@ 5
bum@@ 5
carne@@ 5
cefiro 5
challen@@ 5
chies 5
chlor@@ 5
christo@@ 5
chrono@@ 5
cks@@ 5
conven@@ 5
cophone 5
copter 5
crown@@ 5
cules 5
d12@@ 5
darwin 5
ddr@@ 5
demo 5
diap@@ 5
dient 5
diptyque 5
disney@@ 5
doe 5
duroy 5
edel@@ 5
edition@@ 5
educat@@ 5
ema 5
engra@@ 5
enna 5
ers@@ 5
evel@@ 5
f58@@ 5
fear@@ 5
ffin 5
fgo 5
fgo@@ 5
fitch@@ 5
flan@@ 5
furnit@@ 5
fury@@ 5
g8@@ 5
gddr@@ 5
geek@@ 5
gentle@@ 5
ggings 5
givea@@ 5
gne@@ 5
gogo@@ 5
gono@@ 5
gou 5
grl 5
gsi 5
gt3 5
gts@@ 5
h6@@ 5
hcg 5
hdf 5
hei 5
hill@@ 5
hugg@@ 5
hun 5
ige@@ 5
imar@@ 5
impreza 5
infalli@@ 5
inger@@ 5
inhal@@ 5
inkle 5
inspi@@ 5
instab@@ 5
install@@ 5
ipan@@ 5
iris@@ 5
ita@@ 5
itsu@@ 5
jai 5
jano@@ 5
jazz@@ 5
jessi@@ 5
jojo@@ 5
jose@@ 5
k12 5
k7@@ 5
knu@@ 5
kuku@@ 5
kutku@@ 5
l2@@ 5
lade@@ 5
lagerfeld 5
laugh@@ 5
lauren@@ 5
laz@@ 5
lebr@@ 5
lele@@ 5
leo@@ 5
lette@@ 5
levit@@ 5
liu 5
loe@@ 5
lotto 5
m18 5
m50@@ 5
m60@@ 5
malun@@ 5
mama@@ 5
margi@@ 5
maserati 5
masturbat@@ 5
mbus 5
mea 5
mendo@@ 5
mia@@ 5
michaelkors 5
migh@@ 5
mita 5
mobil 5
moda@@ 5
monster@@ 5
month@@ 5
mous@@ 5
mp4 5
mtd 5
mz@@ 5
neighborhood 5
nendor@@ 5
neonoe 5
neso@@ 5
nice@@ 5
ninten@@ 5
npg 5
oa@@ 5
oem@@ 5
ophi@@ 5
oppor@@ 5
orne 5
osp@@ 5
otes 5
p40@@ 5
palla@@ 5
peace@@ 5
philip@@ 5
pinn@@ 5
pinnacle 5
polis 5
popu@@ 5
posable 5
ppsu 5
pq 5
prospex 5
psa 5
psp@@ 5
purcell 5
purpo@@ 5
puzz@@ 5
qb@@ 5
qm 5
quant@@ 5
rea@@ 5
renew@@ 5
repub@@ 5
restock@@ 5
revie@@ 5
rhine@@ 5
ril@@ 5
rode 5
rodri@@ 5
rons 5
salvat@@ 5
saugw@@ 5
saur 5
scoop@@ 5
scrub@@ 5
se2 5
seac@@ 5
shih 5
shoulder@@ 5
simba 5
simple@@ 5
soph@@ 5
sories 5
spic@@ 5
spig@@ 5
splus 5
spm 5
ssey 5
stradi@@ 5
sual 5
t2@@ 5
t9@@ 5
teana 5
tencel 5
teque 5
test@@ 5
teur 5
therap@@ 5
three@@ 5
tinker@@ 5
tods 5
togo 5
tone@@ 5
toto 5
tpad 5
trance 5
trek@@ 5
tupper@@ 5
turenne 5
twen@@ 5
u7 5
ude 5
ulzz@@ 5
unce 5
uniqlo@@ 5
uu 5
v10@@ 5
v6@@ 5
v7@@ 5
vane@@ 5
vid 5
vintage@@ 5
vl@@ 5
volcan@@ 5
waii 5
walk@@ 5
will@@ 5
willy 5
winflo 5
wip 5
woc 5
xd@@ 5
xiu 5
xm@@ 5
xrm@@ 5
xxxx@@ 5
xz1 5
yamamoto 5
yaya@@ 5
yea@@ 5
yesha 5
yung 5
yur@@ 5
zable 5
zj 5
ö 5
ā@@ 5
ღ@@ 5
년@@ 5
단 5
방@@ 5
유 5
이@@ 5
탄@@ 5
015@@ 4
017@@ 4
019@@ 4
036@@ 4
090@@ 4
1000ml@@ 4
1026 4
103@@ 4
1090@@ 4
10w@@ 4
1114 4
1155@@ 4
12000@@ 4
12l@@ 4
1360@@ 4
1380 4
169@@ 4
1700@@ 4
1733 4
1750 4
1b@@ 4
1t@@ 4
2004@@ 4
2013@@ 4
2022@@ 4
2032 4
2088 4
256g 4
2980 4
2kl 4
302@@ 4
350v2 4
3558 4
3600 4
3ds@@ 4
3p@@ 4
3q 4
3w@@ 4
401@@ 4
417@@ 4
419 4
429@@ 4
4l@@ 4
504@@ 4
515@@ 4
547@@ 4
559@@ 4
567@@ 4
606@@ 4
634@@ 4
642 4
698@@ 4
6mm@@ 4
70c 4
716@@ 4
762 4
80d 4
826@@ 4
857@@ 4
875@@ 4
896 4
898@@ 4
8plus@@ 4
908@@ 4
936@@ 4
940 4
943@@ 4
9999 4
G 4
P 4
access@@ 4
adida 4
almon@@ 4
alumini@@ 4
amarine 4
amination 4
angela@@ 4
animate 4
annah 4
anto 4
aphrodi@@ 4
appa 4
arai 4
arine 4
armp@@ 4
ata@@ 4
atf 4
aya@@ 4
b37@@ 4
b9@@ 4
bale@@ 4
ballo@@ 4
bana@@ 4
bapti@@ 4
bbia 4
bearbrick 4
betrue 4
bhm 4
bike@@ 4
braz@@ 4
bride@@ 4
brita 4
bt21@@ 4
bvl@@ 4
c2@@ 4
c30 4
calvin@@ 4
camper 4
canto 4
carter@@ 4
cashe@@ 4
cc9@@ 4
cci@@ 4
celine@@ 4
certi@@ 4
chee 4
cheon 4
ching@@ 4
chiu 4
chukka 4
cious 4
citizen@@ 4
classic@@ 4
cockro@@ 4
collap@@ 4
collection@@ 4
coordin@@ 4
cph@@ 4
croche@@ 4
cucci@@ 4
cuti@@ 4
d6@@ 4
daiwa 4
datejust 4
dayan 4
daybreak 4
defi@@ 4
deser@@ 4
difier 4
digit@@ 4
discoun@@ 4
dmc@@ 4
dorae@@ 4
dow 4
dup@@ 4
dyson 4
e10@@ 4
e63 4
effe@@ 4
ego@@ 4
elu@@ 4
engine@@ 4
era@@ 4
error 4
evera 4
extrac@@ 4
eyescream 4
f20 4
[...]
