for 51199
with 22378
dress 20937
bag 20667
and 20497
set 18820
case 18095
cod 16529
women 14498
black 13013
new 12936
shirt 12547
men 12153
top 12074
in 11703
size 11387
korean 11189
fashion 10452
shoes 10291
kids 9895
authentic 9552
white 9510
original 9322
baby 9315
plus 9085
the 9025
preloved 8836
of 7644
by 7599
mini 7535
sale 7511
high 6817
blue 6775
gold 6519
cotton 6471
quality 6390
to 6264
free 6203
watch 6044
on 5869
sling 5773
shorts 5768
design 5678
ladies 5598
terno 5590
pants 5538
long 5507
samsung 5478
iphone 5401
short 5172
red 5145
cream 5090
pink 5017
pro 5008
box 4992
floral 4874
body 4843
shoulder 4760
cover 4758
blouse 4749
mask 4709
light 4665
soap 4653
hard 4378
silver 4327
color 4314
glass 4259
unisex 4256
leather 4213
nike 4151
one 4012
hand 3997
usb 3971
small 3931
hair 3929
backpack 3878
face 3875
oil 3811
pack 3766
green 3694
led 3632
skin 3607
denim 3540
casual 3523
phone 3480
up 3448
brand 3401
car 3393
piece 3383
wallet 3329
live 3328
necklace 3302
stainless 3249
matte 3218
hello 3180
skirt 3176
kitty 3131
polo 3129
ring 3121
sandals 3087
soft 3087
back 3086
pcs 3076
tempered 3058
lip 3053
holder 3034
all 3032
girl 3016
style 2993
plain 2991
printed 2988
cute 2973
large 2933
bracelet 2842
water 2837
bluetooth 2831
off 2829
sexy 2817
girls 2813
socks 2802
perfume 2798
oppo 2786
jacket 2781
air 2776
only 2768
earrings 2711
anti 2688
battery 2663
gel 2641
cable 2627
old 2621
kit 2615
huawei 2608
mobile 2600
charger 2592
waterproof 2587
powder 2570
medium 2568
sleeve 2528
no 2524
full 2516
super 2506
pre 2502
toy 2481
steel 2474
rubber 2473
summer 2462
pouch 2457
power 2446
portable 2445
jeans 2435
out 2417
card 2399
lace 2399
neck 2389
big 2374
bottle 2360
book 2358
lotion 2349
premium 2343
wireless 2334
us 2332
bags 2305
max 2294
travel 2267
from 2255
whitening 2252
beauty 2250
sports 2233
magic 2230
tshirt 2227
series 2200
couple 2177
assorted 2176
brush 2160
bundle 2156
fit 2155
motorcycle 2148
print 2146
tops 2127
bath 2125
strap 2124
good 2122
love 2113
secret 2073
per 2060
selling 2047
vivo 2038
cap 2014
e@@ 1994
heart 1986
or 1985
inspired 1978
adidas 1974
sticker 1972
de 1962
belt 1942
mens 1921
stand 1921
star 1907
double 1904
mouse 1897
bra 1884
a@@ 1883
rose 1883
i@@ 1873
care 1864
hot 1857
flower 1856
sleeveless 1849
type 1848
japan 1844
universal 1843
home 1841
two 1831
waist 1831
toys 1826
galaxy 1818
made 1818
fan 1806
round 1802
brown 1797
re@@ 1796
ultra 1785
onhand 1780
sleeves 1777
character 1774
plastic 1772
speaker 1772
clear 1769
my 1768
pen 1759
coach 1743
flat 1734
lite 1734
organizer 1734
lipstick 1723
adult 1717
crop 1716
camera 1713
apple 1695
loved 1695
k@@ 1692
edition 1691
tote 1691
swimsuit 1689
tee 1688
milk 1675
tea 1670
pocket 1667
ml 1659
classic 1651
best 1638
o@@ 1638
natural 1632
s@@ 1624
spray 1624
candy 1622
liquid 1622
organic 1602
cut 1598
take 1596
dark 1593
collection 1589
note 1587
yellow 1587
accessories 1583
boys 1582
dual 1579
tpu 1575
boy 1567
gray 1565
wall 1556
metal 1551
paper 1551
stripe 1549
coffee 1544
romper 1544
victoria 1543
storage 1522
electric 1520
trendy 1519
branded 1509
g@@ 1507
pad 1503
a 1492
game 1492
mist 1491
bar 1490
pure 1490
me 1488
slim 1485
shampoo 1480
headset 1476
doll 1473
tint 1472
side 1471
eye 1467
d@@ 1463
cat 1456
shirts 1451
man 1447
multi 1445
xl 1444
chain 1440
clothes 1440
pop 1440
cartoon 1435
o 1432
sando 1432
party 1431
arrival 1426
pc 1425
facial 1422
m@@ 1421
buy 1417
makeup 1417
dog 1411
colors 1409
food 1407
t@@ 1405
prime 1401
check 1398
skinny 1384
jewelry 1380
clip 1374
wash 1366
shock 1360
cup 1357
protector 1356
vintage 1349
hoodie 1346
navy 1343
gift 1341
pillow 1341
panty 1336
silicone 1333
i 1321
mickey 1315
smart 1315
low 1313
charm 1309
costume 1306
pendant 1306
little 1305
school 1305
checkout 1304
wear 1303
maxi 1302
way 1297
knitted 1296
laptop 1292
korea 1291
xiaomi 1290
stripes 1286
swimwear 1284
glow 1283
unicorn 1283
towel 1278
head 1276
casio 1268
bear 1265
tees 1265
y@@ 1265
xs 1264
disney 1261
pencil 1260
shop 1260
handbag 1258
u@@ 1258
bts 1257
slip 1255
works 1254
italy 1239
shipping 1238
lv 1231
digital 1230
screen 1229
non 1226
bikini 1224
serum 1222
mirror 1216
sport 1215
stick 1212
lens 1211
c@@ 1207
de@@ 1197
michael 1193
ma@@ 1192
n@@ 1191
fast 1187
nature 1187
single 1187
happy 1176
orange 1175
sneakers 1175
square 1175
basketball 1174
oem 1170
la@@ 1168
go 1167
inches 1165
ball 1164
keychain 1162
elegant 1161
tie 1161
in@@ 1156
shockproof 1156
mk 1142
kitchen 1140
li@@ 1136
se 1134
fresh 1133
handle 1133
ms 1131
ba@@ 1130
vitamin 1126
s 1125
overruns 1123
gucci 1119
lacoste 1117
f@@ 1114
nba 1113
foam 1112
z@@ 1104
collagen 1101
tape 1100
genuine 1098
button 1097
frame 1095
pet 1094
kors 1090
b@@ 1088
cherry 1086
formal 1084
you 1083
crystal 1082
apparel 1081
fashionable 1080
ph 1080
chocolate 1076
pajama 1075
mio 1072
board 1067
womens 1061
nova 1055
figure 1051
front 1051
sun 1051
lamp 1049
jordan 1043
toner 1042
h@@ 1039
zipper 1039
slippers 1037
sold 1036
adapter 1035
ca@@ 1034
jumpsuit 1034
nail 1032
tube 1032
le@@ 1030
eau 1029
cross 1028
sa@@ 1028
canvas 1026
order 1026
ink 1022
e 1018
running 1013
saudi 1012
p@@ 1010
redmi 1008
wooden 1007
forever 1006
ear 1001
it 1001
kid 1000
leggings 998
asus 996
charging 993
l@@ 993
table 993
children 984
j@@ 982
shoe 982
ta@@ 975
limited 972
co 969
statement 969
bangkok 968
x@@ 967
washable 963
velvet 961
earphone 960
make 960
pearl 960
coin 958
micro 953
mi@@ 951
purse 947
christmas 944
essential 938
semi 938
diamond 933
band 931
jelly 930
ro@@ 927
filter 926
mo@@ 925
funko 924
lucky 924
heels 922
co@@ 921
mix 919
ribbon 915
adjustable 914
personalized 914
r@@ 914
la 912
ra@@ 911
king 910
night 909
v@@ 908
inch 907
price 907
stone 907
bavin 906
can 906
fabric 906
as 903
day 903
sony 901
ti@@ 898
palette 897
album 895
fragrance 894
house 894
powerbank 893
se@@ 893
office 889
mat 887
available 886
blush 885
tool 885
hd 883
t 883
thailand 882
jogger 877
k 877
door 875
outdoor 875
special 875
jersey 873
x 873
stretchable 872
tester 868
princess 867
art 866
cloth 865
android 861
beach 860
conditioner 860
balloon 858
time 857
years 855
birthday 854
mi 854
es 852
le 852
rechargeable 852
di@@ 850
grey 847
guard 847
perfect 846
switch 846
touch 845
an@@ 841
version 840
juice 838
key 838
wrap 838
diy 836
proof 836
machine 835
u 831
tv 829
her 828
lock 828
purple 825
w@@ 825
zara 825
line 823
eyebrow 822
ice 822
is 822
da@@ 817
pa@@ 816
seller 816
chanel 811
string 809
bike 808
class 808
ri@@ 807
toyota 807
marvel 806
pair 806
bank 805
bed 805
blazer 805
dry 805
an 804
aloe 803
flip 803
lego 802
lo@@ 802
ar@@ 801
gaming 801
grams 800
headband 800
lady 798
play 797
tank 797
brandnew 795
oz 795
foil 793
stickers 793
basic 792
books 791
cleansing 791
scrub 791
ukay 791
foundation 790
suit 788
kate 787
longsleeve 782
honda 781
logo 781
zenfone 781
colored 780
used 780
cheek 778
protection 778
official 777
plate 773
al@@ 772
d 772
curtain 771
woman 770
overrun 768
jumper 765
hat 764
st 764
armor 762
bb 762
pieces 761
iron 760
wood 757
your 757
si@@ 755
foldable 754
me@@ 753
pump 751
avon 750
code 750
chiffon 748
diaper 747
wedge 747
halter 745
plated 745
pull 745
be 744
customized 744
polka 744
toddler 744
to@@ 743
po@@ 742
sweater 742
sweet 740
guess 738
months 738
rack 738
z 736
clay 735
ka@@ 735
m 735
pro@@ 735
ing 734
cleanser 733
y 733
life 729
drive 728
ma 728
spade 727
su@@ 726
bi@@ 725
xr 725
flash 724
bodycon 721
eyeshadow 720
ipad 719
en@@ 718
animal 716
be@@ 715
gluta 715
keyboard 713
mesh 710
coat 709
real 708
un@@ 708
magnetic 707
living 706
underwear 706
hp 704
mar@@ 704
complete 702
half 702
earring 699
wire 699
striped 695
core 694
mall 693
p 692
flats 690
human 690
acrylic 689
tumbler 689
tone 688
colourpop 687
louis 687
mic 687
photo 687
usa 687
brake 686
foot 684
at 682
g 679
notebook 677
disposable 674
ed 674
er 674
professional 674
cutter 673
data 672
balm 670
cold 670
package 669
pan 669
c 668
na@@ 668
fruit 667
transparent 667
vuitton 667
cake 665
cm 665
dc 664
down 664
essence 664
decor 663
wedding 663
female 662
ha@@ 662
infant 662
rejuvenating 662
stock 661
cool 660
personal 660
queen 658
bow 657
butterfly 657
car@@ 657
adhesive 656
control 656
layer 656
dream 652
mac 651
pawnable 651
pi@@ 651
vinyl 651
cosmetics 650
edge 650
cellphone 649
sa 647
pads 646
vi@@ 646
ko@@ 645
stud 644
cushion 643
self 643
babies 642
capsules 641
tag 640
ds 639
gathering 639
stereo 639
hk 638
er@@ 637
frozen 635
minnie 635
bo@@ 634
cleaner 632
automatic 630
lu@@ 629
mate 629
wallpaper 629
first 626
items 626
plush 626
al 625
pvc 625
seeds 625
link 624
replica 624
paint 623
heavy 621
remover 621
lcd 620
extra 617
microphone 617
longsleeves 616
seat 615
tree 615
quick 614
uv 613
clutch 612
wholesale 611
safety 610
speed 610
ready 609
world 609
city 608
converse 608
not 608
pandora 608
action 607
ch@@ 607
ho@@ 607
offshoulder 607
block 606
ga@@ 606
imported 606
onesie 606
fits 604
gundam 604
rainbow 603
simple 603
sugar 603
glutathione 601
sis 601
folding 600
honey 600
thick 599
sheet 598
urban 598
mug 596
newborn 596
tools 596
model 595
rear 595
vera 595
crochet 594
wifi 594
health 593
loose 593
we 593
b 592
shape 591
dr 590
n 590
checkered 588
sd 588
sunglasses 588
ts 588
at@@ 587
roll 587
nylon 586
or@@ 586
rice 585
slingbag 585
paris 584
colorful 583
grade 582
hanging 582
wild 582
bu@@ 581
dresses 581
motor 581
carter 579
l 579
deep 578
maroon 578
net 578
sh@@ 578
cards 577
spring 577
barbie 576
so@@ 576
ne@@ 575
ers 574
glitter 574
random 573
peach 572
aluminum 571
h 571
planner 569
do 568
graphic 568
so 568
marikina 567
moisturizing 567
te@@ 567
vans 567
display 566
turban 565
port 563
thin 563
ver 563
drink 562
ki@@ 562
lights 562
da 560
do@@ 560
acid 559
it@@ 559
cardigan 558
embroidered 558
legends 558
mascara 558
nursing 558
silicon 558
bangle 557
money 557
mango 555
crossbody 554
helmet 553
bedsheet 552
pin 549
silk 549
ceramic 548
ly 548
racing 548
sm 548
ch 547
cosmetic 547
highwaist 547
family 546
bowl 545
grip 545
duty 544
fila 544
lemon 543
roller 542
solar 542
st@@ 541
scent 540
spaghetti 540
el 539
shield 539
gown 538
bracket 537
fa@@ 536
ootd 536
en 535
gap 535
ps 535
shower 535
snail 535
classy 534
r 534
clean 533
spoon 533
ce@@ 532
kojic 532
less 532
gear 530
ni@@ 530
sealed 530
snap 529
ca 528
panda 528
pony 528
boots 527
neoprene 527
pe@@ 527
daily 526
anime 525
remote 525
freesize 524
longchamp 524
slimming 524
brow 523
pot 523
like 522
luxury 522
music 522
slipper 520
ss 520
croptop 517
jansport 517
maong 517
el@@ 515
id 515
retro 514
japanese 511
sizes 511
ankle 509
pattern 509
flare 508
realme 508
gloves 506
mg 506
stitch 506
visor 506
ac 505
tutu 505
hi 504
how 504
angel 503
carbon 503
hero 503
magnet 503
knee 502
na 502
protective 502
cord 501
luxxe 501
umbrella 501
beads 499
push 499
kylie 498
sleepwear 498
souvenir 498
plug 497
clothing 496
ii 496
pesos 496
acne 495
contact 495
dragon 495
open 494
charcoal 493
purpose 493
alloy 492
ck 492
polish 492
ine 491
blanket 490
prints 490
zip 490
ang 489
lg 489
moon 489
ta 489
each 488
pig 488
v 487
mint 486
teens 486
cars 485
chair 485
ka 485
mount 485
letter 484
ls 484
stuffed 484
pa 483
cc 482
cd 482
based 481
master 480
shine 480
now 479
bagpack 478
cs 478
onesies 478
earphones 477
f 477
aqua 476
auto 476
jo@@ 476
violet 476
con@@ 475
use 475
batman 474
on@@ 474
pre@@ 474
quartz 474
treatment 474
tri@@ 474
innisfree 473
lee 473
jade 472
rashguard 472
egg 471
ra 471
beige 470
th@@ 470
candle 469
mermaid 469
caps 468
collar 468
golden 468
rain 468
replacement 468
breathable 467
yamaha 467
bamboo 465
fi@@ 465
infinity 465
royal 465
charge 464
am@@ 463
film 463
tablet 462
neo 461
repair 461
facemask 460
games 460
fiber 459
patch 458
base 457
sponge 456
analog 455
crown 455
socket 455
solid 455
easy 454
baseball 453
metallic 453
li 452
pastel 452
du@@ 451
etude 451
miracle 451
son 450
support 449
wars 449
avengers 448
gu@@ 448
kpop 448
lunch 448
mother 448
padded 448
uniqlo 448
am 447
nintendo 447
window 447
brief 446
no@@ 446
sp@@ 445
butter 444
mu@@ 444
pore 444
wax 444
balloons 443
drawstring 443
plant 443
lenovo 442
ler 442
orig 442
parfum 442
boss 440
iconic 440
rare 440
signature 440
sim 440
te 440
ve@@ 440
year 440
baking 439
glossy 439
mosquito 439
street 439
sf 438
jumpshort 437
slit 437
tu@@ 437
wheel 437
male 436
mtg 436
crocs 435
designs 435
dust 435
carrier 434
ve 434
washi 434
blade 433
romoss 433
delivery 431
min@@ 431
nmax 431
wa@@ 431
get 430
tommy 430
fish 429
herbal 429
regular 429
republic 429
ks 428
anello 426
go@@ 426
under 426
drop 425
spandex 425
dispenser 424
sets 424
strawberry 424
bare 423
nude 423
satin 423
end 422
alcohol 421
poster 420
fairy 419
gun 419
salt 419
yrs 419
boho 418
vape 418
chi@@ 417
cu@@ 417
maybelline 417
lauren 416
moisture 416
pokemon 416
ya 415
vest 414
vs 414
alibaba 413
over 413
glue 412
wave 412
fine 411
sex 411
shell 411
guitar 410
starbucks 410
handmade 409
instant 409
ja@@ 409
arm 408
avent 408
edt 408
ins 408
ko 408
sandal 407
supreme 407
ver@@ 407
hood 406
lightning 406
winter 406
gas 405
liner 405
spf 405
tail 405
stuff 404
sun@@ 404
therapy 404
dolphin 403
promo 403
wide 403
marc 402
sneaker 402
bulb 401
luggage 401
zoom 401
american 400
ku@@ 400
pullover 400
finger 399
midi 399
re 399
vacuum 398
duo 397
hi@@ 397
puff 397
chrome 396
seamless 396
stretch 396
boxer 394
flavor 394
garden 394
tassel 394
bsco 393
memory 393
woven 393
audio 392
cash 392
clearance 392
combo 392
hu@@ 392
scale 392
item 391
knit 391
der 390
ar 389
bar@@ 389
ce 389
die 389
straw 389
age 388
ana 388
capsule 388
elite 388
more 388
jo 387
ke@@ 387
tattered 387
toilette 387
pu@@ 386
creative 385
puzzle 385
standard 385
suede 385
swimming 385
army 384
awei 384
bucket 384
coconut 384
computer 384
hook 384
wet 384
q@@ 383
toe 383
ty 383
cycling 382
exo 381
function 381
legit 381
massage 381
reusable 381
sea 381
bicycle 380
heat 380
kiss 379
hub 378
sh 378
um 378
ad@@ 377
affordable 377
blossom 377
gi@@ 377
liptint 377
meter 377
vita 376
melissa 375
snow 375
headphone 374
leaf 374
tablets 374
tray 374
extension 373
solution 373
three 373
tripod 373
disc 372
ga 372
gen 372
headphones 372
jack 372
young 372
bright 371
choco 371
electronic 371
ion 371
w 371
outfit 370
products 370
auth 369
bible 369
canon 369
eyeliner 369
pairs 369
burberry 368
comfortable 368
for@@ 368
ralph 368
trend 368
wonder 368
system 367
clock 366
concealer 366
container 366
bears 365
scarf 365
starter 365
soothing 364
bass 362
daughter 362
manual 362
papaya 362
supplies 362
ter 362
bubble 360
drill 360
ci@@ 359
fe@@ 359
lasting 359
mo 359
mon@@ 359
refill 359
captain 358
dy 358
factory 358
he@@ 358
ss@@ 358
toothpaste 358
camouflage 357
flowers 357
just 357
sy 357
packaging 356
selfie 356
stylish 356
vanilla 356
yoga 356
cartridge 355
force 355
pipe 355
tamiya 355
laser 354
makapal 354
mat@@ 354
ripped 354
ation 353
per@@ 353
plaid 353
pretty 353
rock 353
ship 353
bnew 352
bottles 352
bottom 352
bvlgari 352
dri 352
ford 352
ge@@ 352
gym 352
incipio 352
keratin 352
msm 352
dvd 351
flashlight 351
mr 351
gra@@ 350
grand 350
toothbrush 350
turtle 350
charms 349
ph@@ 349
blend 348
coco 348
pan@@ 348
product 348
sporty 348
tribal 348
active 347
blocks 347
twice 347
hdmi 346
basket 345
decoration 345
mitsubishi 345
radio 345
shopee 345
sky 345
mary 344
spa 344
xundd 344
floor 343
ge 343
jar 343
straight 343
chinese 342
htp 342
mm 342
nice 342
tire 342
america 341
fi 341
knife 341
peeling 341
ply 341
gloss 340
sti@@ 340
cargo 339
shadow 339
spiderman 339
stain 339
sweat 339
ex@@ 338
ram 338
ryx 338
sleeping 338
tiger 338
ck@@ 337
klein 337
anne 336
days 336
fu@@ 336
mom 336
overlap 336
super@@ 336
ya@@ 336
grill 335
hellokitty 335
ina 335
ly@@ 334
man@@ 334
os 334
primer 334
tomato 334
xsmax 334
cleaning 333
mid 333
missha 333
ru@@ 333
approx 332
formula 332
him 332
inflatable 332
sauce 332
banana 331
cropped 331
glasses 331
harry 331
lavender 331
shi@@ 331
havaianas 330
my@@ 330
ref 330
ter@@ 330
eco 329
peel 329
room 329
rope 329
va@@ 329
brilliant 328
cologne 328
let 328
protect 328
tory 328
wired 328
controller 327
essentials 327
inner 327
miss 327
space 327
stationery 327
aha 326
are 326
bathroom 326
dial 326
tech 326
tra@@ 326
wrist 326
air@@ 325
bench 325
decal 325
drifit 325
fire 325
kobe 325
number 325
otg 324
stamp 324
muscle 323
sheets 322
ing@@ 321
leaves 321
triple 321
cod@@ 320
desk 320
har@@ 320
ai@@ 319
bs 319
choker 319
elastic 319
hooded 319
pu 319
san@@ 319
watches 319
bell 318
lebron 318
massager 318
part 318
cam 317
dish 317
dove 317
feeding 317
jbl 317
olive 317
sakura 317
hanger 316
soul 316
we@@ 316
bleaching 315
fork 315
ling 315
microfiber 315
ons 315
pool 315
raincoat 315
bra@@ 314
potter 314
prada 314
smooth 314
yo 314
aerox 313
lo 313
name 313
privacy 313
rush 313
sound 313
ba 312
cat@@ 312
highlighter 312
je@@ 312
rosegold 312
cases 311
swim 311
tan 311
ton 311
balance 310
berry 310
jacobs 310
les 309
dot 308
headlight 308
cabinet 307
deluxe 307
deodorant 307
humidifier 307
ig@@ 307
laneige 307
banner 306
ju@@ 306
magical 306
masks 306
cha@@ 305
comb 305
cor@@ 305
ed@@ 305
maternity 305
rabbit 305
volume 305
coordinates 304
fragrances 304
neon 304
satchel 304
ste@@ 304
nose 303
video 303
ac@@ 301
ios 301
dots 300
gshock 300
lc 300
photocard 300
puma 300
sterling 300
wrench 300
au@@ 299
aztec 299
ir@@ 299
kyrie 299
multifunctional 299
sachet 299
cups 298
fm 298
pe 298
san 298
thermal 298
ber@@ 297
cupcake 297
malone 297
modern 297
nyx 297
wipes 297
ys 297
blender 296
deo 296
invitation 296
superman 296
eyeglasses 295
eyelash 295
kipling 295
mold 295
desktop 294
fitness 294
rash 294
sta@@ 294
wheels 294
xxl 294
et 293
monster 293
pambahay 293
sha@@ 293
cooler 292
length 292
sample 292
curler 291
extract 291
friends 291
mine 291
joy 290
men@@ 290
backless 289
sandisk 289
underarm 289
acer 288
burch 288
maker 288
ted 288
th 288
very 288
james 287
resistant 287
xa 287
bohemian 286
comics 286
custom 286
dior 286
educational 286
mark 286
pleated 286
char@@ 285
press 285
surgical 285
tin 285
ultimate 285
adults 284
giveaways 284
hermes 284
painting 284
panel 284
po 284
clips 283
dogs 283
english 283
supplement 283
uni@@ 283
lips 282
rattan 282
rc 282
seed 282
sunscreen 282
ashley 281
che@@ 281
click 281
edp 281
ol@@ 281
cooling 280
dye 280
faux 280
ic 280
lovely 280
sunflower 280
training 280
ella 279
monitor 279
player 279
smiggle 279
wi@@ 279
booster 278
bumper 278
chest 278
compact 278
garlic 278
hand@@ 278
liter 278
studio 278
swarovski 278
TM 277
removal 277
rings 277
boost 276
gh@@ 276
hilfiger 276
meters 276
nails 276
paperback 276
pod 276
sign 276
true 276
bodysuit 275
building 275
champion 275
fantasy 275
handheld 275
nu@@ 275
pockets 275
see 275
sk 275
ws 275
yo@@ 275
bralette 274
ki 274
playstation 274
spider 274
ster 274
bib 273
knot 273
story 273
breast 272
hose 272
tab 272
bee 271
christian 271
cube 271
four 271
messenger 271
yu@@ 271
chicken 270
ite 270
mixed 270
fl 269
ong 269
shades 269
ity 268
shaped 268
club 267
land 267
passport 267
sock 267
twin 267
beautiful 266
pressed 266
pressure 266
trimmer 266
valve 266
ace 265
ballpen 265
ben@@ 265
dangling 265
fake 265
leopard 265
mineral 265
monkey 265
zero 265
ant 264
kiddie 264
shade 264
sk@@ 264
sleeved 264
ting 264
hydrating 263
sheer 263
cami 262
lot 262
reversible 262
slide 262
charles 261
comfort 261
ct@@ 261
pens 261
raider 261
seal 261
armour 260
bestseller 260
dash 260
perfumes 260
safe 260
scented 260
tokong 260
bento 259
bo 259
fitted 259
ky 259
leg 259
sense 259
theft 259
tissue 259
vneck 259
fs 258
garterized 258
hybrid 258
organics 258
stars 258
camping 257
comfy 257
hs 257
lining 257
london 257
marble 257
rhinestone 257
sho@@ 257
step 257
sunnies 257
theme 257
xrm 257
za@@ 257
fun 256
moisturizer 256
sen@@ 256
vol 256
multicolor 255
nokia 255
php 255
coloring 254
di 254
diffuser 254
ny 254
oversized 254
par@@ 254
relief 254
screw 254
sofa 254
tela 254
detergent 253
fur 253
hyundai 253
sleep 253
tip 253
ze 253
bunny 252
exclusive 252
han@@ 252
learning 252
mustard 252
blackpink 251
ke 251
legend 251
mos 251
ne 251
supply 251
actual 250
belle 250
chic 250
cooker 250
der@@ 250
flex 250
fo@@ 250
indoor 250
ll 250
stroller 250
cho@@ 249
cutting 249
french 249
horse 249
j 249
ji@@ 249
lever 249
ng 249
parts 249
slime 249
sticky 249
strip 249
alarm 248
circle 248
cocktail 248
garter 248
geneva 248
mp 248
sided 248
dy@@ 247
gs 247
philips 247
wristlet 247
angle 246
business 246
cctv 246
cell 246
con 246
included 246
ordinary 246
peplum 246
za 246
flo@@ 245
lol 245
printer 245
ty@@ 245
beat 244
faucet 244
hy@@ 244
lingerie 244
mer@@ 244
ex 243
extreme 243
flamingo 243
gar@@ 243
hole 243
manila 243
mp@@ 243
suzuki 243
sweatshirt 243
tshirts 243
ur@@ 243
vo@@ 243
wine 243
ft 242
heel 242
last 242
macbook 242
seventeen 242
stay 242
sublimation 242
ballet 241
lin@@ 241
ruffled 241
rx 241
sensor 241
york 241
ea@@ 240
eyes 240
gentle 240
halloween 240
laundry 240
tupperware 240
anastasia 239
bosch 239
cla@@ 239
herschel 239
kimono 239
merry 239
mixer 239
nissan 239
snapback 239
alpha 238
around 238
ate 238
cookie 238
ct 238
cy@@ 238
decals 238
ringer 238
tri 238
adventure 237
ang@@ 237
colour 237
marker 237
liliw 236
matting 236
natasha 236
pointed 236
and@@ 235
brightening 235
doctor 235
karaoke 235
kg 235
monopod 235
photocards 235
ribbed 235
season 235
contour 234
kay 234
plains 234
read 234
skater 234
ven@@ 234
center 233
flexible 233
hg 233
q 233
skin@@ 233
chips 232
tom 232
born 231
bri@@ 231
qu@@ 231
spongebob 231
spot 231
straightener 231
as@@ 230
den@@ 230
energy 230
focus 230
horn 230
lightweight 230
robot 230
sofia 230
surprise 230
almond 229
bandai 229
loot 229
lte 229
may 229
resin 229
saw 229
sparkle 229
tattoo 229
taylor 229
anna 228
bella 228
can@@ 228
child 228
chili 228
combination 228
fossil 228
ruffle 228
spicy 228
tic 228
batch 227
bio@@ 227
cactus 227
engine 227
intense 227
skirts 227
blood 226
buckle 226
coral 226
hardcover 226
mega 226
ze@@ 226
buttons 225
ever 225
fold 225
linen 225
mor@@ 225
puppy 225
sanitizer 225
mari@@ 224
rich 224
star@@ 224
tent 224
verse 224
calamansi 223
clinique 223
healing 223
hearts 223
moly 223
penshoppe 223
versace 223
bur@@ 222
carters 222
corner 222
elle 222
eraser 222
rs 222
slot 222
store 222
tony 222
track 222
cooking 221
honor 221
lin 221
mah 221
pin@@ 221
right 221
si 221
syrup 221
toilet 221
west 221
xperia 221
feminine 220
heroes 220
pen@@ 220
prelove 220
ble 219
cheese 219
ll@@ 219
peppa 219
sb 219
stylus 219
birkenstock 218
cats 218
cy 218
emblem 218
ha 218
insert 218
jag 218
keith 218
paw 218
pooh 218
too 218
underwire 218
amazing 217
av 217
loop 217
packs 217
sc@@ 217
trolley 217
als 216
any 216
blouses 216
craft 216
ear@@ 216
envelope 216
naturals 216
pp@@ 216
sp 216
ten@@ 216
adaptor 215
bl 215
chopper 215
cookies 215
embroidery 215
healthy 215
nine 215
ocean 215
sole 215
souvenirs 215
the@@ 215
xi@@ 215
bershka 214
bloom 214
bolt 214
don 214
naked 214
student 214
vegetable 214
br@@ 213
cetaphil 213
printing 213
run 213
aging 212
animals 212
assembly 212
console 212
cp 212
elf 212
ger 212
grinder 212
hair@@ 212
ings 212
ker 212
ou@@ 212
ride 212
spigen 212
sticks 212
view 212
js 211
panties 211
bleach 210
boutique 210
frosted 210
gi 210
material 210
without 210
ban@@ 209
connector 209
crib 209
kilo 209
mario 209
multifunction 209
panini 209
peanut 209
chi 208
restock 208
rgb 208
security 208
soda 208
tinted 208
work 208
combi 207
dome 207
dvr 207
gopro 207
luna 207
pri@@ 207
aid 206
bt 206
finish 206
flawless 206
sophie 206
total 206
walker 206
barley 205
cacao 205
cosrx 205
cro@@ 205
jujube 205
med 205
res 205
shi 205
va 205
armani 204
ff@@ 204
fog 204
mam 204
omni 204
war 204
water@@ 204
cre@@ 203
daisy 203
detox 203
era 203
lash 203
this 203
airpods 202
ali@@ 202
lip@@ 202
point 202
team 202
tor@@ 202
warm 202
warranty 202
yugioh 202
capacity 201
drawer 201
eyeglass 201
lan@@ 201
ment 201
nano 201
ns 201
power@@ 201
shark 201
synthetic 201
dre@@ 200
fitflop 200
ikea 200
label 200
sam@@ 200
scents 200
stove 200
wind 200
baby@@ 199
gt 199
luminous 199
smartphone 199
teddy 199
thai 199
tsum 199
wo@@ 199
wool 199
aa 198
look 198
mini@@ 198
ry 198
sniper 198
ul@@ 198
back@@ 197
bird 197
clipper 197
etc 197
lily 197
nut 197
ro 197
ti 197
vision 197
ab@@ 196
advanced 196
copy 196
dar@@ 196
dishwashing 196
flap 196
fox 196
ir 196
jogging 196
pour 196
stones 196
tmx 196
tws 196
ction 195
globe 195
invisible 195
junior 195
league 195
ley 195
paste 195
post 195
tiny 195
tower 195
vit 195
washing 195
zi@@ 195
backcase 194
beaded 194
dell 194
five 194
ku 194
monogram 194
owl 194
precious 194
sunblock 194
coil 193
creamy 193
insulated 193
sc 193
wa 193
amplifier 192
elephant 192
gamepad 192
john 192
long@@ 192
ah 191
aquarium 191
benefit 191
condition 191
eagle 191
glitters 191
layered 191
picture 191
ray 191
shaper 191
topper 191
ves 191
zer 191
bel@@ 190
bio 190
bon@@ 190
chia 190
ken@@ 190
nlighten 190
opener 190
sewing 190
ated 189
away 189
bag@@ 189
bricks 189
deck 189
driver 189
jet 189
miner 189
skincerity 189
bit 188
black@@ 188
fall 188
great 188
nipple 188
sy@@ 188
valentino 188
é 188
argan 187
comforter 187
cordless 187
dryer 187
eyewear 187
ginger 187
op 187
park 187
ren@@ 187
triangle 187
weight 187
well 187
activity 186
airmax 186
ance 186
fla@@ 186
guide 186
han 186
lazy 186
lie 186
milky 186
naruto 186
patches 186
played 186
tf 186
through 186
toddlers 186
tre@@ 186
amber 185
dra@@ 185
ful 185
god 185
jeju 185
mc@@ 185
pat@@ 185
platinum 185
truck 185
che 184
hammer 184
intensive 184
journal 184
rosary 184
shelf 184
twist 184
wings 184
aeropostale 183
bone 183
clamp 183
il 183
lid 183
nm 183
pm 183
stocks 183
trial 183
wing 183
compatible 182
ded 182
drawing 182
ff 182
gr@@ 182
her@@ 182
lon 182
multipurpose 182
plussize 182
sanrio 182
alphabet 181
bangles 181
bullet 181
cloud 181
cosplay 181
flops 181
lan 181
one@@ 181
play@@ 181
sand@@ 181
shopping 181
whole 181
built 180
champ 180
different 180
kawaii 180
kirkland 180
lab 180
oven 180
pajamas 180
vehicle 180
wig 180
xt 180
ard 179
bearing 179
cast 179
feather 179
homme 179
hoodies 179
ip 179
ori@@ 179
pla@@ 179
sta 179
win 179
bakuna 178
bronze 178
cylinder 178
luxe 178
patrol 178
tawas 178
ware 178
win@@ 178
bbq 177
clinic 177
cri@@ 177
file 177
ni 177
notes 177
oval 177
revolution 177
santa 177
shot 177
slides 177
snack 177
thrones 177
channel 176
com@@ 176
creme 176
dolls 176
freebies 176
jumbo 176
mb@@ 176
mer 176
morning 176
movie 176
ous 176
sd@@ 176
spy 176
cks 175
cucumber 175
curry 175
daiso 175
fly 175
generation 175
kar@@ 175
mel@@ 175
radiation 175
sand 175
streaming 175
dried 174
lit@@ 174
mechanical 174
pets 174
pride 174
spark 174
transfer 174
tropical 174
big@@ 173
fix 173
handy 173
hip 173
hugo 173
jv 173
overall 173
red@@ 173
spl 173
ye@@ 173
earbuds 172
emergency 172
gallon 172
pineapple 172
ry@@ 172
straps 172
teeth 172
ten 172
ani@@ 171
blue@@ 171
degree 171
description 171
elizabeth 171
et@@ 171
khaki 171
len@@ 171
ombre 171
purifier 171
royale 171
simply 171
smith 171
soup 171
tin@@ 171
tt@@ 171
via 171
watts 171
fat 170
fra@@ 170
left 170
medical 170
military 170
noodles 170
pacifier 170
teal 170
things 170
ampoule 169
autumn 169
boxes 169
collectible 169
corn 169
em@@ 169
ger@@ 169
keto 169
micro@@ 169
mild 169
pedal 169
rm 169
drops 168
drying 168
earings 168
glam 168
killer 168
melody 168
ness 168
ruffles 168
tro@@ 168
unlocked 168
wal@@ 168
cal 167
characters 167
compression 167
des 167
il@@ 167
output 167
reseller 167
road 167
sto@@ 167
tes 167
trainer 167
trending 167
walking 167
yourself 167
bor@@ 166
but 166
diapers 166
exercise 166
hobbies 166
intel 166
ky@@ 166
oo@@ 166
stan 166
titanium 166
bi 165
bre@@ 165
calculator 165
dolce 165
eye@@ 165
functional 165
gri@@ 165
lanyard 165
level 165
lion 165
midnight 165
numbers 165
rea@@ 165
replaceable 165
sing 165
speedy 165
spiral 165
stri@@ 165
teen 165
virgin 165
comic 164
ding 164
disk 164
new@@ 164
philippines 164
pillowcase 164
strechable 164
watermelon 164
beans 163
cal@@ 163
ches 163
choice 163
cur@@ 163
curtains 163
durable 163
effect 163
hiking 163
liters 163
maam 163
mc 163
nivea 163
oatmeal 163
retractable 163
war@@ 163
bal@@ 162
boat 162
boyleg 162
briefs 162
christening 162
cole 162
diary 162
drinking 162
fab 162
omega 162
ari@@ 161
feet 161
fre@@ 161
jasmine 161
lighting 161
mossimo 161
playboy 161
pr@@ 161
prince 161
rectangular 161
unique 161
ad 160
advance 160
bead 160
blackhead 160
bonnet 160
brassiere 160
calvin 160
cra@@ 160
everyday 160
giant 160
goggles 160
napkin 160
never 160
pilot 160
place 160
sec 160
shea 160
swing 160
under@@ 160
youth 160
cl 159
converter 159
designer 159
don@@ 159
dozen 159
is@@ 159
ken 159
layers 159
lia 159
lift 159
novel 159
pomade 159
tactical 159
tar@@ 159
thermometer 159
tp 159
uni 159
bling 158
bro@@ 158
burner 158
by@@ 158
collections 158
direct 158
free@@ 158
george 158
hardbound 158
mommy 158
powered 158
saver 158
sprocket 158
taiwan 158
uno 158
bean 157
here 157
ingco 157
lime 157
mop 157
paul 157
pg 157
pins 157
sam 157
shiseido 157
skechers 157
sl 157
tough 157
twisted 157
writing 157
doraemon 156
eu 156
high@@ 156
pepper 156
rom 156
scissors 156
sesame 156
spinner 156
strong 156
aromatherapy 155
bb@@ 155
call 155
clo@@ 155
cru@@ 155
derma 155
false 155
inverter 155
kingdom 155
nendoroid 155
pp 155
remax 155
romantic 155
shimmer 155
waisted 155
cker 154
dri@@ 154
foods 154
grid 154
heng 154
household 154
lla 154
luffy 154
peppermint 154
piyao 154
sea@@ 154
wor@@ 154
ana@@ 153
assy 153
changing 153
copper 153
fendi 153
figures 153
frontrow 153
latest 153
lowest 153
mj 153
motors 153
mt 153
native 153
nuts 153
optical 153
prestige 153
raw 153
reserved 153
scratch 153
sed 153
tr@@ 153
trousers 153
vga 153
dan@@ 152
doctors 152
drum 152
eva 152
farm 152
fuel 152
lar@@ 152
pain 152
sli@@ 152
vibrator 152
wiper 152
xbox 152
zing 152
ara 151
balls 151
beverly 151
gingham 151
gre@@ 151
jc 151
leisure 151
madre 151
morphe 151
por@@ 151
rl 151
rotating 151
seiko 151
ser 151
strength 151
vit@@ 151
wallets 151
anchor 150
april 150
cer 150
cle@@ 150
ele@@ 150
eli@@ 150
foaming 150
hills 150
jin 150
kill 150
knight 150
mouth 150
onepiece 150
over@@ 150
peripera 150
que 150
shake 150
six 150
snake 150
tt 150
van@@ 150
vios 150
ans 149
baptismal 149
beachkin 149
disinfectant 149
elsa 149
holiday 149
min 149
musical 149
roundneck 149
rubberized 149
ser@@ 149
sol@@ 149
tata 149
unit 149
activated 148
beef 148
braided 148
ces 148
crew 148
flow 148
hq 148
hydro@@ 148
ok 148
phones 148
able 147
coated 147
grower 147
international 147
pick 147
quaff 147
sin@@ 147
tan@@ 147
witch 147
accent 146
antibacterial 146
attire 146
date 146
fan@@ 146
global 146
kettle 146
marine 146
online 146
op@@ 146
our 146
performance 146
rise 146
smile 146
cage 145
calendar 145
friendly 145
impact 145
italian 145
ker@@ 145
lbc 145
repacked 145
repriced 145
rod 145
sha 145
skincare 145
binder 144
evening 144
fancy 144
gingersnaps 144
gro@@ 144
hollow 144
los 144
minifigure 144
mules 144
nmd 144
ports 144
reader 144
reno 144
thor 144
top@@ 144
trio 144
triumph 144
turmeric 144
vin@@ 144
yarn 144
zen@@ 144
accessory 143
candles 143
carpet 143
cuff 143
dear 143
dickies 143
empty 143
harness 143
head@@ 143
hypoallergenic 143
plu@@ 143
projector 143
sachets 143
scooter 143
shiny 143
silky 143
test 143
uniform 143
zu@@ 143
av@@ 142
hunter 142
ia 142
instax 142
ito 142
mag@@ 142
module 142
multi@@ 142
munafie 142
nourishing 142
piston 142
splash 142
up@@ 142
vanity 142
wardrobe 142
bedroom 141
catcher 141
dead 141
epson 141
fusion 141
fx 141
glutamansi 141
grass 141
hobo 141
hol@@ 141
hold 141
ie 141
keds 141
lp 141
memo 141
tat@@ 141
thermos 141
ways 141
bat 140
cha 140
chance 140
closet 140
ery 140
folded 140
fortuner 140
gal@@ 140
gb 140
gla@@ 140
ja 140
justice 140
miniature 140
once 140
painted 140
pping 140
project 140
toshiba 140
train 140
yu 140
zone 140
bad 139
boyfriend 139
flavored 139
geometric 139
ino 139
its 139
latex 139
luck 139
mega@@ 139
mm@@ 139
mushroom 139
ninja 139
parisian 139
pper 139
signal 139
strapless 139
trading 139
ua 139
bomb 138
brass 138
chronograph 138
fantech 138
fc 138
fern 138
hanabishi 138
hoop 138
hw 138
ine@@ 138
makita 138
manga 138
melon 138
mx 138
myphone 138
oils 138
pilaten 138
punch 138
que@@ 138
ren 138
scar 138
she@@ 138
aircon 137
amour 137
ati@@ 137
ating 137
bali 137
before 137
bioaqua 137
carb 137
cutie 137
dd@@ 137
dor@@ 137
fisher 137
jackets 137
jan@@ 137
lightstick 137
mountain 137
nat@@ 137
needs 137
oh 137
oshkosh 137
pigment 137
ponytail 137
ters 137
van 137
ali 136
ath@@ 136
close 136
elbow 136
ground 136
iphonex 136
kes 136
lantern 136
lipo 136
magazine 136
minimalist 136
mit@@ 136
mtb 136
rick 136
screwdriver 136
shawl 136
von 136
zo@@ 136
donut 135
duck 135
earth 135
ethyl 135
eyelashes 135
faith 135
frogsuit 135
johnson 135
kin@@ 135
lene 135
moist 135
outlet 135
padlock 135
palm 135
penguin 135
razor 135
scoop 135
shift 135
snoopy 135
sol 135
solo 135
spin 135
superstar 135
tour 135
unsealed 135
anti@@ 134
ao@@ 134
artificial 134
brushes 134
civic 134
dinosaur 134
fashion@@ 134
giveaway 134
isuzu 134
kid@@ 134
lon@@ 134
map 134
motion 134
pal@@ 134
ses 134
skull 134
thread 134
uk 134
walk 134
bf 133
blo@@ 133
canvass 133
ering 133
footwear 133
gradient 133
himalayan 133
kai 133
router 133
son@@ 133
spread 133
state 133
tags 133
watercolor 133
zebra 133
ariel 132
ceiling 132
cia 132
cli@@ 132
cou@@ 132
dance 132
detachable 132
eri@@ 132
express 132
fleece 132
fro@@ 132
kidston 132
platform 132
softgels 132
ther@@ 132
ap@@ 131
aux 131
badge 131
banpresto 131
charlotte 131
fe 131
fer@@ 131
fin@@ 131
gen@@ 131
intex 131
kraft 131
other 131
renew 131
throw 131
treats 131
vr 131
zz@@ 131
arts 130
bul@@ 130
exfoliating 130
ey@@ 130
highquality 130
inside 130
lettuce 130
levi 130
max@@ 130
mono 130
ointment 130
plan@@ 130
split 130
station 130
steamer 130
swiss 130
tiffany 130
ton@@ 130
un 130
wolf 130
zodiac 130
blooming 129
boston 129
convertible 129
couture 129
external 129
flowy 129
innova 129
insect 129
ji 129
letters 129
minions 129
ny@@ 129
pt 129
pullout 129
race 129
radiator 129
second 129
specs 129
su 129
swift 129
ties 129
ur 129
anniversary 128
breaker 128
breastfeeding 128
castor 128
chunky 128
col@@ 128
fy 128
hush 128
ire 128
jam 128
match 128
mil@@ 128
multimedia 128
rub 128
saint 128
salon 128
sink 128
us@@ 128
yn 128
bc 127
blower 127
cap@@ 127
cart 127
curl 127
fondant 127
initial 127
island 127
jump 127
lyn 127
miners 127
montero 127
reading 127
ssy 127
stu@@ 127
ultra@@ 127
val@@ 127
vp 127
warmer 127
zircon 127
aldo 126
ata 126
break 126
cartier 126
cj 126
deer 126
dia 126
kw 126
olay 126
perry 126
plates 126
pots 126
sailor 126
tennis 126
tion 126
transformers 126
better 125
chu@@ 125
color@@ 125
hor@@ 125
ita 125
ning 125
pampers 125
people 125
permanent 125
police 125
receiver 125
sized 125
ag 124
app@@ 124
baofeng 124
blk 124
carry 124
cath 124
chef 124
fruits 124
kat@@ 124
kia 124
kim 124
mas@@ 124
may@@ 124
meat 124
poloshirt 124
sprayer 124
ssd 124
stop 124
takal 124
that 124
tier 124
titan 124
topshop 124
turtleneck 124
what 124
winnie 124
wrangler 124
wyi 124
yi 124
antenna 123
aurora 123
auto@@ 123
bay 123
beatle 123
bestway 123
ders 123
enhancer 123
fluid 123
form 123
freshener 123
gourmet 123
joy@@ 123
juicer 123
key@@ 123
loreal 123
lotus 123
mia 123
piano 123
rider 123
smocked 123
strappy 123
sunny 123
tit@@ 123
wheat 123
bn 122
bread 122
complex 122
daniel 122
dynamic 122
em 122
emoji 122
ent 122
fran@@ 122
fu 122
glo@@ 122
gp 122
hawk 122
lea@@ 122
mcm 122
nct 122
powdered 122
preorder 122
sampler 122
science 122
smoke 122
squ@@ 122
studded 122
tarte 122
tc 122
teether 122
venus 122
zed 122
boo@@ 121
bouquet 121
colo@@ 121
dollshoes 121
embossed 121
ferrari 121
fun@@ 121
gabbana 121
gildan 121
hyaluronic 121
ju 121
leg@@ 121
loss 121
mud 121
nikon 121
north 121
plushie 121
ryxskincerity 121
sil@@ 121
skort 121
strips 121
absorbent 120
ai 120
aroma 120
brother 120
davis 120
ela@@ 120
mama 120
marie 120
nillkin 120
noir 120
plum 120
pra@@ 120
sensual 120
sparkling 120
steering 120
tm 120
toms 120
valentine 120
vertical 120
wanna 120
wd 120
wn 120
arrow 119
autolight 119
bla@@ 119
bond 119
david 119
device 119
dw 119
eb 119
hb 119
hidden 119
kd 119
king@@ 119
lux 119
mousse 119
pur@@ 119
rejuvinating 119
spice 119
squishy 119
tea@@ 119
tg 119
trouser 119
wrinkle 119
yard 119
yl 119
bit@@ 118
caramel 118
cb 118
ctor 118
herb 118
lic 118
onyx 118
out@@ 118
ran@@ 118
retail 118
suction 118
wattpad 118
abs 117
acoustic 117
add 117
ator 117
blu@@ 117
bracelets 117
bun@@ 117
cin@@ 117
crazy 117
faced 117
gifts 117
iii 117
jazz 117
jeggings 117
jesus 117
joni 117
jr 117
lakers 117
maria 117
mb 117
md 117
mono@@ 117
nestle 117
ona 117
photo@@ 117
racer 117
ramen 117
sensitive 117
sma@@ 117
some 117
sub@@ 117
themed 117
tokyo 117
ysl 117
artwork 116
barako 116
bob 116
bomber 116
ep 116
equipment 116
feng 116
fujifilm 116
grow 116
joystick 116
loafers 116
milktea 116
ming 116
pi 116
placenta 116
rescue 116
rust 116
sharpener 116
sodium 116
soft@@ 116
sting 116
styling 116
surf 116
tints 116
transformer 116
tub 116
ab 115
arbutin 115
beautederm 115
beltbag 115
bp 115
decorative 115
den 115
diesel 115
ears 115
es@@ 115
flakes 115
future 115
huggies 115
kat 115
molder 115
rest 115
sage 115
sal@@ 115
sonic 115
twinkle 115
upper 115
ag@@ 114
ages 114
bars 114
bryant 114
bug 114
care@@ 114
chibi 114
dangle 114
del@@ 114
guaranteed 114
ignition 114
inter@@ 114
ltb 114
maintenance 114
making 114
panasonic 114
pl 114
pole 114
polyester 114
shopkins 114
stamps 114
tz 114
wh@@ 114
xi 114
ban 113
baymax 113
beer 113
blusher 113
bridal 113
covers 113
hem 113
hollister 113
industrial 113
juicy 113
potato 113
rompers 113
scato 113
setting 113
skinfood 113
stress 113
thrifted 113
vent 113
warriors 113
welding 113
bbw 112
bombshell 112
burst 112
celebrity 112
designed 112
dessert 112
drone 112
ey 112
gg 112
gin@@ 112
indian 112
ironman 112
jane 112
kisses 112
mode 112
month 112
ol 112
refrigerator 112
ron 112
saving 112
sch@@ 112
smash 112
stix 112
tl 112
bands 111
buds 111
cr@@ 111
customize 111
defense 111
df@@ 111
diecast 111
euc 111
funny 111
huda 111
icon 111
lost 111
mags 111
marks 111
mol@@ 111
ner 111
ola 111
operated 111
own 111
pie 111
plants 111
please 111
regulator 111
release 111
ruby 111
rushguard 111
shaver 111
soaps 111
storm 111
tec 111
terranova 111
tos 111
trim 111
vial 111
ano 110
balenciaga 110
calming 110
cel@@ 110
chip 110
choose 110
citrus 110
crepe 110
floater 110
forest 110
fully 110
gang 110
garnish 110
kin 110
miniso 110
nor@@ 110
ot 110
piggy 110
playing 110
quilted 110
repellent 110
roasted 110
sr 110
sunshine 110
tide 110
tires 110
tr 110
trash 110
yunteng 110
ane 109
bale 109
bang 109
buttoned 109
dental 109
divided 109
dkny 109
doormat 109
femme 109
hulk 109
leash 109
mai@@ 109
manicure 109
ors 109
qui@@ 109
rouge 109
stephen 109
trap 109
varsity 109
ved 109
ble@@ 108
drain 108
feel 108
fighter 108
filler 108
goo@@ 108
hel@@ 108
kan@@ 108
kelly 108
kidswear 108
low@@ 108
market 108
ner@@ 108
oreal 108
pit@@ 108
pizza 108
pulley 108
quad 108
reflective 108
sco@@ 108
spi@@ 108
stream 108
tonymoly 108
wand 108
zinc 108
bangladesh 107
blank 107
bolts 107
brooch 107
cinderella 107
cow 107
decay 107
derm 107
details 107
euro 107
ever@@ 107
hazel 107
ini 107
kawasaki 107
keimav 107
kri@@ 107
love@@ 107
matt 107
measuring 107
menow 107
mto 107
oral 107
pb 107
sale@@ 107
sata 107
seduction 107
seven 107
south 107
vo 107
abstract 106
aveeno 106
dildo 106
dr@@ 106
fidget 106
flyknit 106
folder 106
girdle 106
goddess 106
gon 106
grab 106
hotel 106
kevin 106
omnia 106
slacks 106
squarepants 106
ssa 106
sse 106
stage 106
steam 106
thong 106
universe 106
about 105
after 105
bin@@ 105
california 105
cdi 105
concentrate 105
discount 105
dp 105
driving 105
evil 105
fur@@ 105
len 105
lil 105
nb 105
pj 105
rectangle 105
sanitary 105
shimano 105
sjcam 105
swan 105
trench 105
washer 105
ani 104
ascorbate 104
aspire 104
cutlery 104
diet 104
est 104
fender 104
flag 104
france 104
jigsaw 104
jin@@ 104
lashes 104
load 104
oxford 104
pant 104
pls 104
popular 104
protein 104
rai@@ 104
slicer 104
stem 104
stra@@ 104
sty 104
vel@@ 104
vinegar 104
zoo 104
abc 103
absorber 103
castle 103
chuck 103
cocoa 103
crafts 103
detail 103
eat 103
european 103
evo 103
extender 103
final 103
firefly 103
flask 103
fri@@ 103
gps 103
joe 103
keys 103
klairs 103
lipcream 103
network 103
petite 103
pinky 103
precision 103
prepaid 103
py@@ 103
rj 103
sky@@ 103
starry 103
surface 103
tru@@ 103
tur@@ 103
tw@@ 103
united 103
aqu@@ 102
arti@@ 102
ash 102
az@@ 102
bk 102
capri 102
ching 102
chloe 102
clu@@ 102
collapsible 102
cpu 102
gem 102
grape 102
ipaky 102
kong 102
levis 102
lipsticks 102
longback 102
mazda 102
mugs 102
nit@@ 102
pimple 102
rejuv 102
removable 102
seasoning 102
shui 102
spa@@ 102
sync 102
trunk 102
volcanic 102
windproof 102
yeezy 102
zen 102
aaa 101
ala 101
amethyst 101
athletic 101
bandage 101
cafe 101
ci 101
compartment 101
corset 101
dai@@ 101
felt 101
freeship 101
hands 101
heads 101
herbs 101
ho 101
hotwheels 101
infrared 101
nutri@@ 101
postcard 101
rat 101
sg 101
sharp 101
show 101
superhero 101
tips 101
touchscreen 101
transcend 101
turbo 101
vitamins 101
ann 100
booties 100
brick 100
canadian 100
citronella 100
clover 100
combined 100
ee 100
espadrille 100
excellent 100
friend 100
growth 100
ines 100
list 100
loafer 100
medicine 100
nu 100
of@@ 100
oxygen 100
pillows 100
ppy 100
rock@@ 100
safari 100
sn 100
stent 100
tulle 100
value 100
whip 100
beast 99
bha 99
brazilian 99
calcium 99
cookware 99
coverage 99
decorations 99
delight 99
dota 99
flu@@ 99
hard@@ 99
heeled 99
hooks 99
keep 99
kt 99
pearls 99
puritan 99
sel@@ 99
sion 99
skid 99
tingi 99
tou@@ 99
alice 98
belly 98
beyblade 98
dip 98
effective 98
gat@@ 98
glittery 98
holika 98
hop 98
huarache 98
local 98
lou@@ 98
lov@@ 98
mass 98
matic 98
moto 98
olivia 98
revlon 98
ron@@ 98
runner 98
say 98
sher 98
shu@@ 98
sig@@ 98
stanley 98
sz 98
tiktok 98
wel@@ 98
ye 98
bandana 97
cameras 97
cannon 97
count 97
crayon 97
dis@@ 97
feeder 97
flour 97
gan 97
grace 97
keeper 97
kie 97
kingston 97
kk 97
lenses 97
loo@@ 97
mattress 97
mon 97
nutrition 97
pencils 97
pic 97
picks 97
polymer 97
pop@@ 97
ral 97
takara 97
xy 97
arden 96
avail 96
birth 96
bite 96
bride 96
cee 96
colourette 96
com 96
correction 96
dd 96
esprit 96
giordano 96
give 96
gladiator 96
goku 96
hal@@ 96
have 96
hyper 96
incense 96
isopropyl 96
ivory 96
joker 96
laguna 96
lines 96
lippie 96
lover 96
macaron 96
minion 96
mod 96
mystery 96
pk 96
samyang 96
secrets 96
she 96
smok 96
sushi 96
tte 96
ure 96
vapor 96
vary 96
wat@@ 96
abaca 95
alma 95
aura 95
bookmark 95
dad 95
damage 95
dashboard 95
ere 95
fiction 95
gd 95
got 95
kit@@ 95
lt 95
materials 95
pikachu 95
sia 95
speakers 95
stories 95
sty@@ 95
tai@@ 95
thomas 95
tracker 95
unlock 95
zi 95
approved 94
ay 94
china 94
crocodile 94
dl 94
ela 94
engineering 94
eyelet 94
fishing 94
fr 94
gasket 94
grain 94
gum 94
handkerchief 94
he 94
hen@@ 94
laced 94
lar 94
lightening 94
lootbag 94
many 94
martin 94
mirage 94
modular 94
panther 94
peeler 94
pn 94
recorder 94
sword 94
tick 94
tomy 94
xx@@ 94
yes 94
aesthetic 93
allen 93
amulet 93
art@@ 93
ay@@ 93
backpacks 93
bilena 93
buttondown 93
champagne 93
chan@@ 93
cky 93
cnc 93
cos@@ 93
criss 93
curved 93
earing 93
expert 93
fury 93
glittered 93
gluta@@ 93
groceries 93
hats 93
intelligent 93
jojo 93
ked 93
lang 93
ments 93
mothercare 93
nel 93
ora 93
ppe 93
pumps 93
save 93
sen 93
squeeze 93
sur@@ 93
whistle 93
wi 93
alex 92
ami@@ 92
australia 92
bnwt 92
cadbury 92
chocolates 92
collared 92
cone 92
deco 92
diva 92
firming 92
flight 92
fluffy 92
gc 92
ging 92
green@@ 92
headbands 92
hifi 92
hipster 92
ipanema 92
jy 92
laminated 92
phi@@ 92
rain@@ 92
ranger 92
run@@ 92
soy 92
subwoofer 92
tine 92
tomica 92
topsider 92
ung 92
width 92
aidelai 91
alkaline 91
apron 91
atomizer 91
bathing 91
body@@ 91
burn 91
candies 91
cortez 91
cu 91
day@@ 91
dustbag 91
faded 91
giorgio 91
gummy 91
heist 91
home@@ 91
hot@@ 91
hydro 91
jean 91
jenna 91
kyowa 91
matcha 91
mocha 91
petal 91
rim 91
rocker 91
rose@@ 91
shaker 91
spencer 91
starwars 91
suitcase 91
torch 91
tran@@ 91
trans@@ 91
turquoise 91
will 91
xo 91
yang 91
artist 90
basics 90
bin 90
birthstone 90
caliper 90
casing 90
cereal 90
cr 90
deli@@ 90
ered 90
good@@ 90
hdd 90
irving 90
koko 90
las 90
mamba 90
mighty 90
mu 90
ow@@ 90
pang 90
penis 90
philippine 90
recipe 90
sequins 90
sm@@ 90
tap 90
tti 90
ultrasonic 90
airplane 89
anklet 89
ary 89
bundles 89
circular 89
credit 89
cts 89
dge 89
dining 89
emerald 89
emulsion 89
eos 89
hawaiian 89
kai@@ 89
kenneth 89
lets 89
micromatic 89
mir@@ 89
msi 89
need 89
neutrogena 89
nia 89
passion 89
patent 89
poly@@ 89
pond 89
pul@@ 89
romance 89
sin 89
ssi@@ 89
study 89
tales 89
temp@@ 89
tter 89
utility 89
vi 89
vie 89
voice 89
wang 89
weighing 89
who 89
zy 89
agate 88
amy 88
ara@@ 88
ax 88
beard 88
blanc 88
cheap 88
ched 88
couples 88
crush 88
dainty 88
dashcam 88
dies 88
dol@@ 88
dubai 88
field 88
fountain 88
freeshipping 88
fridge 88
gauge 88
hershey 88
hex 88
hon@@ 88
invoice 88
jumpshorts 88
lifting 88
liners 88
mal@@ 88
moringa 88
multiple 88
multivitamins 88
next 88
piping 88
reebok 88
rio 88
roses 88
sarah 88
sie 88
sor@@ 88
standee 88
stre@@ 88
studs 88
swa@@ 88
terry 88
ther 88
twin@@ 88
vault 88
workout 88
academia 87
ben 87
bong 87
bought 87
butt 87
change 87
cti@@ 87
del 87
early 87
effects 87
eni@@ 87
fa 87
foot@@ 87
frog 87
gorgeous 87
grooming 87
hairpin 87
handbags 87
hilux 87
hongkong 87
hope 87
lubricant 87
mani@@ 87
mid@@ 87
mse 87
muffler 87
night@@ 87
pal 87
pioneer 87
pliers 87
poly 87
psp 87
raglan 87
record 87
rer 87
rotary 87
sack 87
samurai 87
shoulders 87
skydrive 87
soil 87
strike 87
succulent 87
sunglass 87
surplus 87
talkie 87
temperature 87
thi@@ 87
twinning 87
walkie 87
yan 87
yt 87
amore 86
babe 86
beanie 86
beetle 86
bg 86
buddha 86
cen@@ 86
colgate 86
company 86
ctive 86
cubic 86
curling 86
disruptor 86
dro@@ 86
ew 86
ghost 86
holes 86
infinix 86
ition 86
ligh@@ 86
lipbalm 86
logitech 86
message 86
mpo 86
nest 86
pages 86
patrick 86
purposes 86
quicksand 86
rastaclat 86
ria 86
stabilizer 86
techniques 86
tex 86
tn 86
toiletry 86
vip 86
ami 85
bremod 85
cc@@ 85
chen 85
coinpurse 85
cola 85
crayola 85
crissa 85
dress@@ 85
eve 85
flora 85
ikon 85
induction 85
lacquer 85
late 85
mimi 85
mousepad 85
nars 85
onitsuka 85
organix 85
pack@@ 85
persona 85
pliage 85
premiere 85
robe 85
saem 85
sephora 85
spe@@ 85
stray 85
sunset 85
tummy 85
ura 85
ut 85
vy 85
workbook 85
wow 85
xx 85
ala@@ 84
asstd 84
bon 84
cit@@ 84
corporate 84
dan 84
dancing 84
davidoff 84
dotted 84
far@@ 84
ferragamo 84
fr@@ 84
furniture 84
givenchy 84
gm 84
greetings 84
gtx 84
his 84
hoody 84
hydration 84
kick 84
kon@@ 84
lacey 84
lithium 84
mattel 84
mcqueen 84
meal 84
mes 84
mounted 84
noise 84
onion 84
ory 84
salted 84
sca@@ 84
shing 84
shortsleeve 84
skool 84
slightly 84
splitter 84
spo@@ 84
sse@@ 84
stic 84
supplier 84
tai 84
tankini 84
tapes 84
tommee 84
vampire 84
vol@@ 84
wish 84
zzy 84
ak@@ 83
arc 83
band@@ 83
bea@@ 83
bl@@ 83
clar@@ 83
concentrated 83
creations 83
dji 83
gli@@ 83
keychains 83
lancome 83
lipgloss 83
lis 83
lle 83
math 83
medi@@ 83
mga 83
oreo 83
ple@@ 83
poncho 83
salmon 83
seen 83
sleek 83
sour 83
sub 83
sunday 83
swaddle 83
tippee 83
tolsen 83
vegan 83
andrea 82
animation 82
ans@@ 82
axle 82
bosny 82
chassis 82
dark@@ 82
demon 82
dz 82
fd 82
freebie 82
fries 82
gam@@ 82
ght 82
ht 82
joint 82
lancer 82
liz 82
lm 82
magenta 82
monokini 82
noodle 82
phoenix 82
planet 82
rg 82
row 82
samsonite 82
sau@@ 82
seaweed 82
sof@@ 82
sons 82
sw@@ 82
today 82
trd 82
twi@@ 82
white@@ 82
ats 81
bargain 81
bentonite 81
bles 81
bows 81
bulk 81
celine 81
chopping 81
clarifying 81
concert 81
coo@@ 81
cycle 81
downy 81
ee@@ 81
elmo 81
fire@@ 81
garcinia 81
gg@@ 81
group 81
hbw 81
hd@@ 81
iti@@ 81
meet 81
mittens 81
nar@@ 81
neo@@ 81
om@@ 81
pear 81
propolis 81
riding 81
service 81
shin@@ 81
spacer 81
than 81
tle 81
tooth 81
town 81
tsu@@ 81
tuff 81
vaseline 81
wealth 81
worth 81
xtreme 81
abercrombie 80
apex 80
arrivals 80
badminton 80
brilliance 80
canister 80
certified 80
chalk 80
chamomile 80
chan 80
collectibles 80
collector 80
crayons 80
dent 80
eng 80
engagement 80
expandable 80
extended 80
find 80
fol@@ 80
fortune 80
fruity 80
frying 80
gemstone 80
gummies 80
if 80
jmaxx 80
mats 80
mei 80
mel 80
mtp 80
packed 80
para@@ 80
pia 80
range 80
rat@@ 80
rugged 80
runway 80
scissor 80
senior 80
slider 80
stranger 80
und 80
vibrating 80
victorias 80
é@@ 80
amd 79
arctic 79
ari 79
artifact 79
avocado 79
battle 79
blessed 79
blind 79
bradshaw 79
bronzer 79
cho 79
cider 79
cle 79
crisscross 79
duster 79
ebook 79
glu@@ 79
gmate 79
gy@@ 79
hamster 79
hight 79
hm 79
jer@@ 79
kikay 79
lay 79
lotte 79
metro 79
minifigures 79
minis 79
moana 79
negative 79
off@@ 79
paco 79
punk 79
puregold 79
raspberry 79
relay 79
rouser 79
sales 79
sco 79
sell 79
spell 79
ste 79
textured 79
tights 79
vibe 79
airbag 78
ak 78
alive 78
alo@@ 78
angels 78
ao 78
astro 78
ations 78
bedding 78
beyond 78
bh 78
boom 78
brushed 78
bu 78
build 78
cock 78
dal@@ 78
dew 78
fubu 78
heart@@ 78
height 78
ideal 78
jj 78
kasoy 78
katespade 78
lus 78
mag 78
mala@@ 78
mar 78
microwave 78
odor 78
paperbag 78
poreless 78
purifying 78
rd 78
reborn 78
rebranding 78
sealer 78
slots 78
smiley 78
tina 78
traveling 78
tta 78
tylex 78
wall@@ 78
wick 78
word 78
yogurt 78
af@@ 77
ama@@ 77
aw 77
benetton 77
blueberry 77
breeze 77
bull 77
cci 77
das 77
derma@@ 77
dreams 77
duffle 77
eco@@ 77
els 77
eu@@ 77
gadget 77
garnier 77
gf 77
gsm 77
highcut 77
hotpot 77
housing 77
incanto 77
ld 77
liqu@@ 77
liveselling 77
lli@@ 77
mind 77
mylar 77
nan@@ 77
picnic 77
prepacked 77
pumpkin 77
pure@@ 77
rapid 77
rolling 77
roxy 77
ruler 77
scallop 77
shutter 77
sit 77
ssion 77
stabilo 77
strainer 77
tell 77
trilogy 77
uc 77
ving 77
wit@@ 77
wl 77
above 76
aero 76
batik 76
brows 76
cape 76
cer@@ 76
cher 76
cigarette 76
cob 76
coco@@ 76
construction 76
creed 76
din@@ 76
electro@@ 76
ette 76
ez 76
fee 76
filipino 76
fit@@ 76
fuchsia 76
golf 76
gu 76
hijab 76
injoy 76
io 76
ion@@ 76
ira 76
iring 76
june 76
laminating 76
lauder 76
malunggay 76
matching 76
mnl 76
nerf 76
ners 76
np 76
octopus 76
ok@@ 76
paradise 76
pigeon 76
pomegranate 76
puncher 76
radiance 76
rilakkuma 76
scar@@ 76
sn@@ 76
steps 76
stretchy 76
suitable 76
tb 76
thank 76
tis 76
vietnam 76
wigo 76
ah@@ 75
alexa 75
ap 75
barbecue 75
berries 75
bir@@ 75
cation 75
claw 75
corolla 75
electrical 75
element 75
ero 75
fingerprint 75
flavors 75
fly@@ 75
football 75
gh 75
glossier 75
hardcase 75
hikvision 75
inhaler 75
issue 75
jun@@ 75
keypad 75
lane 75
measure 75
mixing 75
normal 75
playset 75
processor 75
receipt 75
rotate 75
spyder 75
stein 75
sterilizer 75
superbreak 75
tal@@ 75
towels 75
ups 75
ven 75
yasen 75
yoobao 75
alphabounce 74
alvin 74
bibs 74
bites 74
blonde 74
chicco 74
chill 74
ckle 74
combat 74
court 74
crispy 74
decant 74
dex 74
dora 74
droplets 74
griller 74
halo 74
hiace 74
honeycomb 74
hoops 74
infinite 74
jen@@ 74
kabuki 74
kits 74
lay@@ 74
light@@ 74
lululemon 74
lx 74
media 74
moon@@ 74
obsession 74
oni@@ 74
ping 74
pirate 74
polarized 74
pouches 74
prin@@ 74
pubg 74
salvatore 74
scarlet 74
sj@@ 74
song 74
ster@@ 74
stockings 74
stool 74
swim@@ 74
tale 74
text 74
travelling 74
variant 74
virus 74
vita@@ 74
whi@@ 74
ally 73
always 73
bacterial 73
banila 73
canada 73
deadpool 73
death 73
eng@@ 73
exp 73
fillers 73
flop 73
footrest 73
full@@ 73
glare 73
hill 73
hong 73
im 73
jackson 73
jump@@ 73
latte 73
lava 73
lies 73
ling@@ 73
lord 73
main 73
mart 73
mixes 73
multicolored 73
musk 73
page 73
powdery 73
rattle 73
rcb 73
refreshing 73
rr 73
saddle 73
sar@@ 73
shapes 73
shifter 73
sketch 73
ski@@ 73
spare 73
sters 73
sure 73
td 73
timer 73
union 73
various 73
wafer 73
wea@@ 73
ae 72
aqua@@ 72
avanza 72
bandeau 72
bebe 72
bel 72
bliss 72
chronicles 72
cing 72
conditioning 72
dv 72
enamel 72
eternity 72
filled 72
giraffe 72
glowing 72
goat 72
goods 72
gram 72
gue 72
ham@@ 72
jewel 72
keyring 72
missy 72
needle 72
ox 72
pet@@ 72
ppers 72
qi@@ 72
radiant 72
roast 72
same 72
sassy 72
spag 72
std 72
tuna 72
vase 72
wan 72
wwe 72
yr 72
zo 72
zy@@ 72
zz 72
ae@@ 71
aj 71
arm@@ 71
ate@@ 71
baked 71
bat@@ 71
bear@@ 71
birds 71
biscuits 71
boot 71
boxed 71
boy@@ 71
bru@@ 71
bust 71
camo 71
curly 71
daster 71
dou@@ 71
duyan 71
flush 71
frames 71
gol@@ 71
gravity 71
hammock 71
imd 71
iz 71
jollibee 71
jug 71
kay@@ 71
laura 71
live@@ 71
magnesium 71
mira@@ 71
nation 71
om 71
orders 71
originals 71
perfecting 71
pig@@ 71
pill 71
powerful 71
rate 71
scoopback 71
shoppe 71
standing 71
steve 71
trigger 71
unisilver 71
val 71
variety 71
velcro 71
washed 71
windows 71
amazon 70
anal 70
anthony 70
babydoll 70
balancing 70
bathrobe 70
bby 70
benedict 70
book@@ 70
bounce 70
bulls 70
carolina 70
check@@ 70
coaster 70
compressor 70
dani@@ 70
delicious 70
disco 70
dx 70
ea 70
ekel 70
elegance 70
ero@@ 70
fb 70
flannel 70
gal 70
glove 70
grapeseed 70
gymboree 70
harley 70
hoyoma 70
ideas 70
issey 70
jungle 70
kers 70
km 70
knob 70
kor@@ 70
lead 70
litter 70
lla@@ 70
ney 70
ob@@ 70
outer 70
pine 70
pitcher 70
pl@@ 70
pocketbac 70
rit@@ 70
rookie 70
rosehip 70
sel 70
sequin 70
stopper 70
strings 70
students 70
swimsuits 70
throttle 70
torque 70
ukulele 70
vers 70
where 70
whipp 70
wk 70
words 70
xoxo 70
ballerina 69
barrel 69
beaute 69
becca 69
belo 69
betty 69
bm 69
bpa 69
bus 69
cambogia 69
celina 69
dong 69
dongle 69
dressing 69
ek 69
ell 69
fate 69
fda 69
ffy 69
flea 69
fli@@ 69
gerber 69
gifo 69
infants 69
int 69
jumpsuits 69
lovers 69
micellar 69
miu 69
navarro 69
optimum 69
ore 69
paddle 69
popcorn 69
ree 69
rolls 69
safeguard 69
source 69
sunrise 69
tender 69
totoro 69
uhf 69
vt 69
when 69
xmas 69
zh 69
aero@@ 68
alien 68
amp 68
ants 68
aoa 68
axe 68
bay@@ 68
below 68
blemish 68
canin 68
carrot 68
chro@@ 68
cubes 68
cus 68
damier 68
detector 68
explosion 68
far 68
fied 68
floating 68
gn@@ 68
hai@@ 68
happy@@ 68
harden 68
hc 68
individual 68
laptops 68
lated 68
lemonade 68
mad 68
marian 68
medicated 68
mul@@ 68
mvp 68
nina 68
ottogi 68
pancake 68
petals 68
photobook 68
polkadots 68
posters 68
pr 68
react 68
rearview 68
scott 68
shin 68
skateboard 68
sounds 68
tear 68
technology 68
tight 68
tra 68
ttgr 68
ture 68
vig@@ 68
vir@@ 68
ward 68
wind@@ 68
windshield 68
wise 68
wonders 68
wu 68
yards 68
zaxy 68
accesories 67
ada 67
adi@@ 67
advantage 67
asia 67
atm 67
benassi 67
bits 67
box@@ 67
cabin 67
case@@ 67
classics 67
crime 67
crystals 67
curve 67
dawn 67
dg 67
digitizer 67
eclat 67
eq 67
estee 67
everything 67
face@@ 67
fenty 67
figurine 67
gie 67
glory 67
gon@@ 67
graded 67
hnj 67
howru 67
iced 67
image 67
imarflex 67
kc 67
lit 67
lls 67
madam 67
mangosteen 67
milani 67
moments 67
mrs 67
national 67
oneplus 67
paper@@ 67
pastry 67
pd 67
pea 67
perfection 67
pinkish 67
ponds 67
potty 67
qi 67
rabanne 67
rin@@ 67
scen@@ 67
shar@@ 67
shelves 67
short@@ 67
sit@@ 67
speci@@ 67
sperry 67
sss 67
sts 67
telescopic 67
treat 67
try 67
twilly 67
types 67
why 67
wrapped 67
yves 67
aba@@ 66
aegis 66
albums 66
ars 66
ava 66
bedsheets 66
bility 66
blades 66
bodybag 66
bro 66
cara 66
casa 66
chin 66
cinnamon 66
claire 66
cross@@ 66
dinner 66
gard 66
general 66
gudetama 66
hea@@ 66
highlight 66
highwaisted 66
hilton 66
id@@ 66
insulation 66
juli@@ 66
lollipop 66
mit 66
motherboard 66
notepad 66
pak 66
parker 66
philip 66
pilipinas 66
pods 66
renewal 66
rf 66
riordan 66
roman 66
rosy 66
sat@@ 66
scanner 66
scarlett 66
scotch 66
sealant 66
soccer 66
soldering 66
speed@@ 66
spor@@ 66
stirring 66
sutla 66
tar 66
tto 66
tw 66
vice 66
wedges 66
whit@@ 66
wristband 66
burger 65
cf 65
cloth@@ 65
colourtint 65
comp@@ 65
couch 65
culottes 65
desire 65
domino 65
ds@@ 65
dslr 65
ec 65
ens 65
erasable 65
ethernet 65
guyabano 65
input 65
inspirational 65
ith 65
kitten 65
law 65
let@@ 65
magi@@ 65
mill 65
moschino 65
nie 65
non@@ 65
orchid 65
ounce 65
passenger 65
patterned 65
peep 65
revitalizing 65
sebum 65
select 65
sher@@ 65
slique 65
spirulina 65
stine 65
tableware 65
tang@@ 65
tial 65
tricolor 65
und@@ 65
undies 65
valentines 65
winner 65
aa@@ 64
ale@@ 64
baseus 64
bowknot 64
broken 64
challis 64
decorating 64
drip 64
eiffel 64
fans 64
favors 64
freedom 64
ful@@ 64
gui@@ 64
handsfree 64
horizontal 64
ink@@ 64
ipod 64
jh@@ 64
lai 64
lr 64
meow 64
merah 64
mie 64
million 64
mma 64
nationwide 64
nc 64
neck@@ 64
necklaces 64
ned 64
palda 64
person 64
pho@@ 64
prima 64
quick@@ 64
refillable 64
ribbons 64
rtw 64
samantha 64
sla@@ 64
sle@@ 64
sound@@ 64
ssed 64
straws 64
thing 64
treasure 64
ville 64
yan@@ 64
yumi 64
zirconia 64
acqua 63
allure 63
alu@@ 63
any@@ 63
apricot 63
ates 63
aviator 63
bajaj 63
batwing 63
bill 63
both 63
boxing 63
but@@ 63
butter@@ 63
camel 63
camisole 63
cau@@ 63
childrens 63
chopsticks 63
cked 63
cket 63
cking 63
crunch 63
drainer 63
drinks 63
dutch 63
elujai 63
exhaust 63
favorite 63
fil@@ 63
flo 63
gelpen 63
gigabit 63
gigabyte 63
gio 63
hairband 63
hang 63
heritage 63
hl 63
imports 63
iner 63
internal 63
jenny 63
jj@@ 63
katy 63
lers 63
lice 63
lisa 63
lou 63
magnets 63
mn 63
mould 63
ong@@ 63
origin 63
pantene 63
pea@@ 63
perspirant 63
phantom 63
powerhouse 63
present 63
reli@@ 63
resistance 63
sabrina 63
salad 63
squad 63
stackable 63
stella 63
tas 63
telephone 63
temp 63
trade 63
turn 63
vic 63
vital 63
aro@@ 62
ative 62
awesome 62
bang@@ 62
beau 62
blan@@ 62
blends 62
br 62
brooklyn 62
brow@@ 62
bum 62
cg 62
challenge 62
cheapest 62
chee@@ 62
citrine 62
computers 62
crusher 62
cullotes 62
dhc 62
diameter 62
dos 62
dream@@ 62
ena 62
fear 62
fix@@ 62
flame 62
gorilla 62
gosh 62
gran@@ 62
hat@@ 62
headdress 62
headlamp 62
hig@@ 62
hin@@ 62
holy 62
ian 62
ideapad 62
inc 62
jk 62
jor@@ 62
jp 62
kaws 62
lb 62
lighter 62
lovecorner 62
ltp 62
mann 62
medela 62
monopoly 62
nebulizer 62
nworld 62
openline 62
organi@@ 62
pest 62
peter 62
pol@@ 62
prizm 62
repellant 62
ringke 62
rt 62
sante 62
seoul 62
serving 62
shan@@ 62
sir 62
siwa 62
soen 62
start 62
sto 62
suits 62
tabs 62
tarnish 62
tilbury 62
trail 62
varicose 62
vc 62
veggie 62
waffle 62
weave 62
wil@@ 62
airforce 61
alva 61
anda 61
antiskid 61
athena 61
ato 61
attack 61
bao 61
bendix 61
blu 61
breastmilk 61
brew 61
carrying 61
century 61
chase 61
circuit 61
clippers 61
crunchy 61
cul@@ 61
cw 61
cx 61
devil 61
dice 61
doom 61
fo 61
frost 61
german 61
gl 61
gly@@ 61
herrera 61
iu 61
janoski 61
jessica 61
jolly 61
kamiseta 61
kee 61
lean 61
lor 61
mand@@ 61
michaela 61
minecraft 61
most 61
moto@@ 61
mur@@ 61
natura 61
neckline 61
overnight 61
oversize 61
overuns 61
owned 61
pes 61
pha 61
phr 61
pieu 61
pixie 61
poccophone 61
pollution 61
ri 61
rn 61
rotor 61
sable 61
sara 61
selena 61
sey 61
sj 61
soldier 61
stradivarius 61
survival 61
talk 61
tch 61
timeless 61
trucker 61
university 61
uratex 61
wan@@ 61
aim 60
almonds 60
angel@@ 60
angeles 60
antique 60
ascorbic 60
asics 60
avenue 60
baller 60
ballpoint 60
banderitas 60
barong 60
beau@@ 60
bose 60
bottoms 60
bou@@ 60
cardigans 60
comm@@ 60
copier 60
cyan 60
darling 60
dawning 60
dino 60
dunk 60
eo 60
faber 60
foodaholic 60
fore@@ 60
garterize 60
gate 60
goody 60
heaven 60
herbalife 60
igprints 60
irish 60
jl 60
jt 60
kentucky 60
labo 60
lala@@ 60
log 60
maine 60
member 60
mix@@ 60
models 60
nk 60
nt 60
pacific 60
phar@@ 60
pompom 60
posted 60
quest 60
rimmel 60
rog 60
root 60
sandwich 60
scout 60
seagate 60
shed 60
shoe@@ 60
side@@ 60
skate 60
stamping 60
stand@@ 60
tresemme 60
twilight 60
vari@@ 60
vin 60
you@@ 60
ziplock 60
ash@@ 59
autofocus 59
ball@@ 59
basin 59
beauty@@ 59
biker 59
bookmarks 59
brallete 59
cam@@ 59
castell 59
cide 59
coming 59
culture 59
cutout 59
dal 59
dio 59
doodle 59
dun@@ 59
enjoy 59
eur 59
flying 59
gadgets 59
ges 59
gold@@ 59
gue@@ 59
gus 59
hairclip 59
hug 59
hydra 59
ivy 59
lavander 59
lbs 59
lea 59
masking 59
matrix 59
mh 59
mq 59
mumuso 59
mun@@ 59
nam@@ 59
nighties 59
opti@@ 59
peacock 59
pocophone 59
pped 59
purederm 59
racket 59
ray@@ 59
rca 59
rel 59
resi@@ 59
rex 59
shel@@ 59
silver@@ 59
slayer 59
slo@@ 59
softgel 59
stea@@ 59
sugar@@ 59
swatch 59
swi@@ 59
tie@@ 59
tonic 59
wee 59
wt 59
airy 58
baguio 58
basil 58
batteries 58
bees 58
breath 58
buah 58
bubbles 58
buster 58
chewable 58
cian 58
cover@@ 58
cure 58
deals 58
dig@@ 58
dyna@@ 58
emma 58
envy 58
epoxy 58
eucalyptus 58
fade 58
famous 58
fringe 58
fuji 58
germany 58
ginseng 58
glam@@ 58
glamour 58
gn 58
guava 58
hexagon 58
hour 58
im@@ 58
indoplas 58
learn 58
life@@ 58
lighten 58
lowcut 58
lu 58
lucas 58
markers 58
mas 58
merch 58
mont 58
monthly 58
nasa 58
packing 58
peanuts 58
plane 58
pob 58
potion 58
royu 58
selection 58
senza 58
silent 58
singles 58
slee@@ 58
slow 58
snow@@ 58
spatula 58
styler 58
sweety 58
talking 58
terra 58
tk 58
tus 58
ultraboost 58
vani@@ 58
vet 58
whiteboard 58
zel 58
ardeur 57
audrey 57
baptism 57
bea 57
belted 57
blow 57
boro 57
cel 57
chy 57
cln 57
college 57
corrector 57
cos 57
dable 57
dj 57
dock 57
elements 57
every 57
faceshield 57
fantastic 57
figuarts 57
fill 57
fino 57
flat@@ 57
flipflops 57
furry 57
game@@ 57
gel@@ 57
gpp 57
hairbow 57
harem 57
imp@@ 57
import 57
kind 57
kir@@ 57
mars 57
maximum 57
mble 57
merchandise 57
mper 57
muji 57
nautica 57
nescafe 57
od 57
og 57
oilbased 57
ology 57
onal 57
pedigree 57
penta@@ 57
posh 57
resellers 57
rib 57
rou@@ 57
sally 57
scalp 57
shir@@ 57
singapore 57
sophia 57
spirit 57
str@@ 57
stro@@ 57
stufftoys 57
sui 57
sw 57
tassle 57
thin@@ 57
vanguard 57
vitality 57
wacoal 57
weather 57
wy@@ 57
xie 57
A@@ 56
ace@@ 56
activewear 56
arms 56
beautéderm 56
buddy 56
cashmere 56
cebu 56
chicago 56
counter 56
crank 56
diving 56
dreamcatcher 56
durant 56
dustproof 56
earpods 56
emb@@ 56
ence 56
ep@@ 56
era@@ 56
ethnic 56
favor 56
fryer 56
garbage 56
gil@@ 56
glow@@ 56
goodquality 56
grendha 56
hydraulic 56
ip@@ 56
kb 56
kha@@ 56
kno@@ 56
kuku 56
lanvin 56
laurent 56
lined 56
lish 56
lona 56
lun@@ 56
lw 56
mannequin 56
melt 56
mina 56
momoland 56
moss 56
motorcycles 56
nappy 56
nhk 56
notebooks 56
nozzle 56
orly 56
peace 56
ped 56
photography 56
prote@@ 56
rebel 56
recollections 56
reflector 56
ring@@ 56
russian 56
sequined 56
shapers 56
shortsleeves 56
simulation 56
smartphones 56
sph 56
sted 56
sweetheart 56
texture 56
too@@ 56
trifold 56
turmask 56
ungrip 56
unofficial 56
uri@@ 56
voltage 56
warrior 56
winder 56
wisdom 56
I@@ 55
almost 55
amino 55
applicator 55
arizona 55
bayong 55
beam 55
blur 55
bot 55
botton 55
bound 55
caremask 55
clear@@ 55
closed 55
confetti 55
costumes 55
covergirl 55
cranberry 55
crocheted 55
daddy 55
db 55
dge@@ 55
dirty 55
dropper 55
dt 55
ev@@ 55
father 55
fry 55
ganda 55
gauze 55
gers 55
google 55
gowoori 55
graphics 55
grocery 55
guy 55
hazelnut 55
illuminating 55
inspiron 55
interior 55
into 55
ise 55
ite@@ 55
koi 55
lei@@ 55
lette 55
lilac 55
lj 55
lootbags 55
mae 55
mandarin 55
mansi 55
marketing 55
maru@@ 55
mum 55
ori 55
pamp@@ 55
parka 55
pit 55
placemat 55
rda 55
rho@@ 55
rotation 55
scu@@ 55
sdf@@ 55
sides 55
sizzix 55
smo@@ 55
snacks 55
suave 55
theory 55
traveler 55
unbranded 55
vegetables 55
verdon 55
vibrant 55
vivi@@ 55
want 55
yh 55
yoko 55
zippered 55
acb 54
af 54
amp@@ 54
ange@@ 54
annie 54
blackberry 54
bobbi 54
breed 54
budget 54
busha 54
cakes 54
calligraphy 54
caviar 54
chambray 54
chelsea 54
chil@@ 54
cn 54
coins 54
corduroy 54
cuyi 54
desert 54
dragonball 54
dxn 54
edifice 54
ei@@ 54
emily 54
eon 54
erie 54
extensions 54
fast@@ 54
fer 54
frank 54
garfield 54
garland 54
givi 54
gtw 54
history 54
inspire 54
jason 54
kts 54
kutkutin 54
lee@@ 54
melasma 54
mouthwash 54
movies 54
nadine 54
neutral 54
nic 54
pamela 54
peony 54
playpen 54
premier 54
racerback 54
return 54
revitali@@ 54
rfid 54
sagmit 54
sculpting 54
sdhc 54
shaft 54
sman 54
spoiler 54
sso@@ 54
stationary 54
stru@@ 54
tall 54
tel 54
temporary 54
thermo@@ 54
travel@@ 54
welcome 54
wonderland 54
woo 54
work@@ 54
wristwatch 54
yah 54
zigzag 54
zr 54
adorable 53
against 53
alberto 53
angelus 53
apollo 53
ast@@ 53
ava@@ 53
ayesha 53
baao 53
bal 53
ber 53
best@@ 53
blinds 53
brands 53
bys 53
cans 53
cast@@ 53
classi@@ 53
clean@@ 53
compass 53
concept 53
corp 53
cruiser 53
cruz 53
cted 53
debut 53
destiny 53
dietary 53
distributor 53
dolly 53
dom 53
duffel 53
enzo 53
fal@@ 53
float 53
geekvape 53
genie 53
gx 53
gy 53
heat@@ 53
hyper@@ 53
inclusions 53
india 53
insta@@ 53
isa 53
jay 53
jh 53
kal@@ 53
kins 53
lower 53
mac@@ 53
mantra 53
mice 53
minimum 53
mizon 53
mood 53
moving 53
nd 53
nicole 53
oc 53
ornament 53
pax 53
pay@@ 53
peri 53
pixel 53
plier 53
receiving 53
rh@@ 53
ric 53
robert 53
ros 53
sapphire 53
scope 53
sealing 53
shining 53
sili@@ 53
sisley 53
skinpotions 53
smartwatch 53
speedometer 53
statue 53
steri@@ 53
supp@@ 53
suspension 53
taupe 53
technomarine 53
temptation 53
toned 53
tu 53
tumi 53
venom 53
waistline 53
xy@@ 53
zation 53
zia 53
apido 52
au 52
az 52
bad@@ 52
biscuit 52
bj 52
bodysuits 52
bolero 52
boo 52
bowls 52
brain 52
cartoons 52
casserole 52
catherine 52
cl@@ 52
coating 52
coca 52
costumized 52
covered 52
crash 52
crv 52
deal 52
echo 52
eggs 52
ello 52
fair 52
fertilizer 52
fight 52
fitch 52
fixed 52
foo@@ 52
fresh@@ 52
fuschia 52
gagage 52
gala@@ 52
gin 52
gym@@ 52
hologram 52
imperial 52
inserts 52
jd 52
jones 52
jungkook 52
kings 52
loves 52
lunchbox 52
mathematics 52
mee 52
mf 52
mmer 52
munchkin 52
mystic 52
nicholas 52
nissin 52
oes 52
orig@@ 52
ov@@ 52
pale 52
pork 52
reverse 52
rey 52
rhinestones 52
river 52
rol@@ 52
sai@@ 52
sal 52
scrapbook 52
sembo 52
shines 52
sider 52
smi@@ 52
sni@@ 52
solutions 52
spike 52
stocking 52
sus 52
swit@@ 52
teacher 52
trolls 52
uhs 52
unscented 52
wellington 52
yn@@ 52
yss 52
zalora 52
academy 51
accounting 51
ada@@ 51
agatha 51
all@@ 51
andy 51
ature 51
bifold 51
bkk 51
blending 51
bossini 51
brownies 51
candy@@ 51
carburetor 51
cement 51
coats 51
come 51
commercial 51
country 51
dandruff 51
diamonds 51
die@@ 51
dor 51
dura@@ 51
east 51
eden 51
ely 51
enne 51
epsa 51
euro@@ 51
explo@@ 51
fuse 51
gar 51
gee 51
grand@@ 51
handcrafted 51
hardware 51
hasbro 51
hung 51
imitation 51
ipon 51
jacob 51
jeffree 51
kk@@ 51
kle@@ 51
land@@ 51
legging 51
little@@ 51
lly 51
mber 51
mediheal 51
megapro 51
minute 51
nautical 51
neverfull 51
nigh@@ 51
ox@@ 51
pas@@ 51
pasta 51
pat 51
pck 51
polaroid 51
posture 51
practical 51
puri@@ 51
qcy 51
quilt 51
robin 51
rorec 51
rug 51
sandalwood 51
scrap 51
seater 51
sequence 51
shy 51
sive 51
ski 51
sl@@ 51
soluble 51
succulents 51
tee@@ 51
therapeutic 51
tho@@ 51
thunder 51
traditional 51
transmission 51
tuyo 51
utensils 51
uva 51
vibes 51
vine 51
vivid 51
waste 51
web 51
xxxl 51
zumba 51
aloha 50
arturo 50
asahi 50
beatles 50
beauche 50
been 50
blaster 50
boxy 50
bras 50
british 50
ceramics 50
cherokee 50
ciao 50
cool@@ 50
coun@@ 50
cowl 50
ctions 50
dat@@ 50
deca@@ 50
defender 50
disinfecting 50
ef 50
everpower 50
fengshui 50
fever 50
ffe@@ 50
fic 50
finishing 50
fru@@ 50
geo@@ 50
hay@@ 50
heater 50
heating 50
help 50
holly 50
hoo@@ 50
hun@@ 50
imag@@ 50
imm@@ 50
intimate 50
jelly@@ 50
jen 50
kh@@ 50
kkw 50
kra@@ 50
kry@@ 50
lation 50
legs 50
listing 50
lli 50
locket 50
logy 50
lux@@ 50
lysol 50
midwaist 50
minerals 50
mis@@ 50
monsters 50
nights 50
nongshim 50
oc@@ 50
offer 50
old@@ 50
opening 50
os@@ 50
paubos 50
pavilion 50
pon@@ 50
probiotics 50
prom 50
qq 50
qua@@ 50
reju@@ 50
rette 50
reviewer 50
samples 50
saucer 50
sauna 50
section 50
sf@@ 50
skeleton 50
sparks 50
stain@@ 50
stevia 50
taillight 50
tubeless 50
watery 50
weekend 50
wr@@ 50
yen 50
S@@ 49
adhesion 49
altis 49
answer 49
ant@@ 49
atta@@ 49
batt@@ 49
baybayin 49
bestguard 49
bolster 49
bron@@ 49
buffet 49
bv 49
carbon@@ 49
chess 49
chevrolet 49
chew 49
cir@@ 49
civil 49
claus 49
col 49
dea@@ 49
deli 49
dictionary 49
din 49
dissipation 49
dk 49
dose 49
eg@@ 49
ener 49
ening 49
epi@@ 49
est@@ 49
finder 49
flyball 49
gd@@ 49
ggle 49
glaze 49
hansen 49
holo 49
inspi 49
intl 49
ish 49
jagger 49
jay@@ 49
jumping 49
keyholder 49
ladie 49
lator 49
lense 49
lex 49
locking 49
looney 49
lumin@@ 49
madden 49
march 49
mason 49
mei@@ 49
motocross 49
move 49
mutant 49
pact 49
papi 49
peri@@ 49
physi@@ 49
piercing 49
pocketbooks 49
porcelain 49
puppies 49
ream 49
refle@@ 49
scion 49
scra@@ 49
share 49
stencil 49
ston 49
studios 49
suga 49
sum 49
swivel 49
temperament 49
thailook 49
thea 49
there 49
tile 49
tiles 49
tty 49
tunic 49
twill 49
una 49
utensil 49
venice 49
weekly 49
wellness 49
wizard 49
wonder@@ 49
zu 49
acetate 48
aco 48
add@@ 48
amethyste 48
ato@@ 48
atx 48
axis 48
bangs 48
bigger 48
bottled 48
bridge 48
cane 48
chable 48
chicharon 48
chino 48
chris 48
clio 48
coa@@ 48
colours 48
dakki 48
dang@@ 48
dca 48
doc 48
domin@@ 48
droplet 48
du 48
emo@@ 48
empire 48
export 48
gamer 48
gger 48
grapefruit 48
harper 48
haw@@ 48
holders 48
ies 48
iphones 48
iso@@ 48
itch 48
jimin 48
jm 48
lap 48
leafy 48
lifestyle 48
lifter 48
loom 48
lopez 48
lube 48
lyn@@ 48
mates 48
mcneil 48
moment 48
mr@@ 48
myra 48
nos 48
nyc 48
occasions 48
pantulog 48
pas 48
personality 48
popsicle 48
pti@@ 48
quil@@ 48
razer 48
real@@ 48
regatta 48
repack 48
resist 48
revo 48
rizoma 48
roo@@ 48
severus 48
shor@@ 48
sley 48
sliding 48
superfood 48
swanson 48
taste 48
throne 48
timberland 48
tunes 48
ube 48
vader 48
vel 48
vers@@ 48
vg 48
way@@ 48
whale 48
xerox 48
armored 47
ass@@ 47
bor 47
brave 47
cca 47
ccml 47
cco 47
ced 47
celtics 47
cham 47
charlie 47
chie 47
chisel 47
conta@@ 47
cotton@@ 47
cozy 47
definition 47
digi@@ 47
dough 47
dvi 47
education 47
eh 47
embossing 47
enhanced 47
excel 47
fashionista 47
fatigue 47
fg 47
fiesta 47
flash@@ 47
flashing 47
flyman 47
graffiti 47
gw@@ 47
hada 47
holographic 47
instrument 47
irene 47
iv 47
jasper 47
jx 47
kang 47
kitkat 47
kl 47
kpads 47
lamb 47
lands 47
lim 47
liniment 47
liza 47
mandala 47
masturbator 47
meiji 47
mental 47
merrell 47
microsd 47
mn@@ 47
must 47
nursery 47
oats 47
odyssey 47
ols 47
paisley 47
phil 47
poco 47
polishing 47
psy@@ 47
pulse 47
qfashion 47
quinn 47
redragon 47
relaxed 47
res@@ 47
rin 47
rising 47
rocket 47
sci@@ 47
sedan 47
shells 47
shock@@ 47
should 47
shoulderbag 47
skip 47
skmei 47
soaplada 47
sof 47
spar@@ 47
speaks 47
squeezer 47
ssing 47
stark 47
stilton 47
stor@@ 47
strange 47
supremo 47
swe@@ 47
tailored 47
think 47
toxic 47
veronica 47
versatile 47
whey 47
wood@@ 47
C@@ 46
alcatel 46
anton 46
aron 46
bai@@ 46
bezel 46
bic 46
bn@@ 46
bold 46
booldeet 46
bumblebee 46
bushing 46
bw 46
career 46
cashew 46
catch 46
chairs 46
condenser 46
create 46
draw 46
dre 46
embroided 46
emp@@ 46
endgame 46
england 46
eros 46
evolution 46
friendship 46
geforce 46
generic 46
gentleman 46
ggy 46
gibi 46
grater 46
grips 46
hanuman 46
hydr@@ 46
hyperdunk 46
idol 46
inger 46
inkjet 46
invitations 46
kicks 46
kili 46
kim@@ 46
kissproof 46
knits 46
kyb 46
kyla 46
lor@@ 46
macro 46
maganda 46
mamonde 46
management 46
mccormick 46
meizu 46
mis 46
mmi@@ 46
motor@@ 46
mou@@ 46
nets 46
nex@@ 46
novo 46
nutri 46
options 46
paints 46
papel 46
phy@@ 46
pinoy 46
pixi 46
pou@@ 46
pretend 46
rb 46
relax 46
roche 46
roshe 46
scene 46
sele@@ 46
shaping 46
sheep 46
sian 46
silhouette 46
smart@@ 46
sser 46
stepsill 46
stit@@ 46
strea@@ 46
taytay 46
tensioner 46
toaster 46
tooth@@ 46
tro 46
var@@ 46
vguc 46
watch@@ 46
wearable 46
witness 46
working 46
yul 46
aly@@ 45
amanda 45
apieu 45
biore 45
bli@@ 45
blossoms 45
bmw 45
brace 45
carnitine 45
cathy 45
cayler 45
cers 45
cey 45
charming 45
cher@@ 45
cica 45
clog 45
colle@@ 45
corn@@ 45
cosmic 45
crackers 45
creston 45
cruzer 45
darth 45
degrees 45
devices 45
document 45
doorbell 45
doughnut 45
dual@@ 45
duos 45
dv@@ 45
eds 45
elixir 45
elli@@ 45
ems 45
enchanteur 45
fanny 45
farmstay 45
garage 45
grease 45
grinding 45
guards 45
haikyuu 45
hang@@ 45
hobby 45
hou@@ 45
hr 45
htc 45
inflator 45
ipega 45
jacquard 45
jerry 45
julia 45
kel@@ 45
kitchenware 45
ktees 45
lq 45
maga@@ 45
mania 45
melamine 45
menthol 45
microsoft 45
miyake 45
mobiles 45
momo 45
navara 45
nightwear 45
nordic 45
oat 45
omg 45
organza 45
pala@@ 45
pleasure 45
polybag 45
pops 45
pow@@ 45
ppr 45
puppet 45
reaction 45
ros@@ 45
ru 45
saffiano 45
seat@@ 45
sies 45
signage 45
skk 45
sleep@@ 45
smoothing 45
social 45
sr@@ 45
stethoscope 45
stripped 45
styles 45
sup 45
swirl 45
synergy 45
ticket 45
tics 45
times 45
trooper 45
trunks 45
ufw 45
uro 45
variable 45
wen@@ 45
worm 45
worn 45
yi@@ 45
zeus 45
zipped 45
act 44
alert 44
ality 44
anth@@ 44
arabica 44
asian 44
august 44
bac 44
bff 44
bny 44
booty 44
botanical 44
brit@@ 44
bugs 44
burt 44
careline 44
changer 44
chopstick 44
clara 44
clogs 44
cobra 44
connect 44
crest 44
distressed 44
dorothy 44
dualpro 44
eight 44
fair@@ 44
fitting 44
fried 44
gan@@ 44
gardening 44
gospel 44
gun@@ 44
gv 44
handlebar 44
heli@@ 44
hips 44
holi@@ 44
hut 44
indonesia 44
ions 44
itive 44
ives 44
jai@@ 44
jon@@ 44
kotobukiya 44
kultura 44
leatherette 44
liver 44
luckycharm 44
lum 44
lush 44
mach@@ 44
mal 44
maldives 44
martha 44
maxi@@ 44
maxx 44
mea@@ 44
memories 44
meri@@ 44
mike 44
motorbike 44
muffin 44
mule 44
newest 44
ninewest 44
nonwire 44
od@@ 44
oni 44
optic 44
ot@@ 44
pallete 44
palmolive 44
para 44
peak 44
peg 44
prepack 44
radi@@ 44
rebonding 44
ries 44
rmg 44
roy@@ 44
saiyan 44
seasons 44
shrink 44
sleeper 44
spinning 44
spir@@ 44
sport@@ 44
sses 44
ssions 44
stal 44
stapler 44
stor 44
success 44
sulfur 44
surge 44
sweet@@ 44
tala 44
tarpaulin 44
textiles 44
thousand 44
translucent 44
tun@@ 44
ult 44
um@@ 44
unused 44
volts 44
vul@@ 44
wb 44
wears 44
wer@@ 44
wraps 44
wrislet 44
yama@@ 44
zie 44
zon 44
zoro 44
alada 43
also 43
bailey 43
beginners 43
bibdana 43
bihaku 43
border 43
buck@@ 43
burgundy 43
carat 43
cari@@ 43
cassette 43
cbn 43
champ@@ 43
chart 43
christ@@ 43
colic 43
coordinate 43
cottony 43
cry@@ 43
dairy 43
eline 43
endless 43
enemy 43
entertainment 43
espresso 43
eth@@ 43
explorer 43
feelin 43
festival 43
fitbit 43
gbb 43
gels 43
gimbal 43
glycolic 43
goal 43
gothic 43
greek 43
gur@@ 43
haan 43
ham 43
hans 43
hell 43
hoddie 43
icing 43
impulse 43
ind@@ 43
isolation 43
jack@@ 43
jang 43
jlt 43
kinoki 43
kla@@ 43
koala 43
kr 43
kur@@ 43
lake 43
lapel 43
legendary 43
lh 43
license 43
ln 43
maid 43
matchbox 43
metric 43
middle 43
misumi 43
moni@@ 43
muslim 43
nai@@ 43
necktie 43
nipples 43
nitro 43
nurse 43
our@@ 43
peachy 43
personalize 43
petit 43
pli@@ 43
polar 43
ppies 43
queens 43
rado 43
ran 43
ratchet 43
rechargable 43
reference 43
rie 43
rpm 43
samgyupsal 43
see@@ 43
slim@@ 43
soa@@ 43
spectra 43
speedo 43
stator 43
stle 43
stock@@ 43
superior 43
sweetener 43
tek 43
telesin 43
tow 43
trends 43
tting 43
twins 43
upto 43
volu@@ 43
wilson 43
won@@ 43
xpander 43
absorption 42
access 42
ade 42
arch@@ 42
arduino 42
armband 42
automotive 42
awa@@ 42
barefoot 42
bells 42
bie 42
blackbox 42
britney 42
bun 42
cecilia 42
cell@@ 42
cent 42
chevron 42
cj@@ 42
cloudfone 42
df 42
distance 42
divider 42
doo@@ 42
easy@@ 42
ellis 42
ez@@ 42
faceshop 42
farrah 42
fen@@ 42
figma 42
firm 42
fle@@ 42
fp 42
gameboy 42
gems 42
gir@@ 42
gluten 42
harajuku 42
harvest 42
heartbeat 42
hera 42
hf 42
hn 42
holic 42
huawie 42
icy 42
idea 42
imprint 42
inf@@ 42
itech 42
ix 42
jars 42
jjc 42
justees 42
kie@@ 42
knotted 42
lanbena 42
lang@@ 42
lightness 42
lized 42
lle@@ 42
luv 42
mambi 42
marshmallow 42
matchy 42
mink 42
motorola 42
mudguard 42
nami 42
navyblue 42
nes 42
novels 42
olympus 42
origami 42
pambata 42
panic 42
pee 42
penny 42
peso 42
plugs 42
port@@ 42
positive 42
postcards 42
practice 42
qf 42
ram@@ 42
reci@@ 42
relumins 42
rubi@@ 42
sala@@ 42
sander 42
scientific 42
scraper 42
shes 42
shogun 42
sister 42
soak 42
spec 42
splashproof 42
stable 42
staple 42
stat@@ 42
straightening 42
supersale 42
surveillance 42
sweat@@ 42
sweets 42
tation 42
tinkerbell 42
ultrathin 42
vhf 42
victory 42
volkswagen 42
wei@@ 42
western 42
wink 42
with@@ 42
xuping 42
yam@@ 42
zoo@@ 42
allan 41
allo@@ 41
ama 41
arena 41
aria 41
arte@@ 41
assn 41
aven@@ 41
avi@@ 41
aw@@ 41
beauti@@ 41
beli@@ 41
bianca 41
blair 41
boxers 41
bulgari 41
cai@@ 41
cals 41
camilla 41
chain@@ 41
chewy 41
chlo@@ 41
circo 41
closer 41
common 41
compound 41
cond 41
contrast 41
crab 41
creamer 41
cz 41
daban 41
damper 41
davi@@ 41
daylight 41
dazzling 41
dence 41
dh 41
diagonal 41
dicer 41
dm 41
ean 41
equal 41
eria 41
escada 41
espadrilles 41
evvph 41
expiry 41
fairy@@ 41
fie 41
fin 41
flaws 41
floss 41
fluorescent 41
folio 41
georgette 41
glutalipo 41
goblin 41
hannah 41
hg@@ 41
hindi 41
hotdog 41
inclusion 41
index 41
indicator 41
itas 41
jam@@ 41
jewelries 41
jumper@@ 41
jy@@ 41
kka 41
kurtina 41
ladys 41
lampin 41
lgts 41
lili@@ 41
lilo 41
lippies 41
locks 41
logi@@ 41
mati@@ 41
medal 41
mock 41
moda 41
moisturising 41
molded 41
mosaic 41
motowolf 41
mug@@ 41
netbook 41
nn 41
ntsc 41
nur@@ 41
offi@@ 41
oria 41
panoramic 41
pass 41
paula 41
perfumed 41
photos 41
playful 41
playmat 41
pringles 41
pun@@ 41
qq@@ 41
quotes 41
rad 41
religious 41
remove 41
rene 41
reveal 41
rolex 41
rox 41
rubik 41
sei@@ 41
shimmering 41
signed 41
sing@@ 41
skorts 41
skylanders 41
snapshot 41
spr@@ 41
stance 41
stufftoy 41
syn@@ 41
tac 41
tangerine 41
thy 41
tiara 41
tim 41
tong 41
tumblr 41
ual 41
ula 41
was 41
wer 41
writer 41
yarns 41
zar@@ 41
E@@ 40
ado 40
ale 40
ando 40
ath 40
australian 40
beater 40
bed@@ 40
berg 40
bidet 40
bones 40
bonne 40
brand@@ 40
breakfast 40
brigh@@ 40
bubb@@ 40
buildmate 40
burning 40
calling 40
causal 40
centella 40
complexion 40
coords 40
delights 40
diana 40
disp@@ 40
door@@ 40
duvet 40
edible 40
end@@ 40
enfant 40
enlarger 40
epic 40
eureka 40
excess 40
fence 40
ferrero 40
forme 40
freesf 40
gatas 40
ged 40
gle 40
glide 40
glit@@ 40
habits 40
half@@ 40
hangers 40
headrest 40
honey@@ 40
ibo 40
infla@@ 40
iope 40
jet@@ 40
jjt 40
kao 40
kasya 40
katerina 40
kineza 40
kz 40
labels 40
laces 40
laud 40
lint 40
lity 40
lj@@ 40
lola 40
malaysia 40
mamala 40
mark@@ 40
maya 40
mera 40
met 40
mexico 40
moonlight 40
msmhk 40
multivitamin 40
nancy 40
ninjago 40
occasion 40
oh@@ 40
opp 40
originai 40
papaw 40
pegasus 40
pendants 40
pixar 40
playsuit 40
plunger 40
poe 40
poop 40
post@@ 40
preowned 40
presto 40
probiotic 40
psicom 40
puff@@ 40
qualcomm 40
quin@@ 40
raptors 40
reflectorized 40
riders 40
roger 40
semi@@ 40
serial 40
server 40
set@@ 40
shopper 40
simpson 40
sions 40
smoo@@ 40
sna@@ 40
sofitec 40
softener 40
spin@@ 40
sportswear 40
stics 40
still 40
storybook 40
stunning 40
thri@@ 40
tins 40
together 40
tor 40
tracing 40
transmitter 40
ue 40
upgraded 40
valley 40
variants 40
villa 40
weapon 40
wipe 40
wj 40
wonderline 40
wy 40
yaiba 40
zoe 40
zon@@ 40
addidas 39
adventures 39
ander 39
anion 39
aphrodisia 39
app 39
asi@@ 39
ater 39
atomy 39
aya 39
badescu 39
bataan 39
beachwear 39
benton 39
bert 39
bet 39
bian 39
bigbang 39
cala@@ 39
calm 39
cardfight 39
caster 39
catriona 39
clever 39
clouds 39
containers 39
cracker 39
delay 39
delicate 39
dimmable 39
dinnerware 39
drag 39
dru@@ 39
dsn 39
dtc 39
dust@@ 39
emperor 39
escape 39
ets 39
everest 39
fash@@ 39
feli@@ 39
fhd 39
fifty 39
fighting 39
fittings 39
flex@@ 39
flood 39
ft@@ 39
girl@@ 39
graph 39
groo@@ 39
groom 39
grosgrain 39
hau@@ 39
hdtv 39
heal 39
hin 39
hits 39
hue 39
igh@@ 39
illuminator 39
imak 39
immortal 39
interchangeable 39
je 39
jose 39
kjm 39
korean@@ 39
leader 39
leo 39
literide 39
mang@@ 39
mara 39
maze 39
meduim 39
membrane 39
mig 39
mik@@ 39
mobi@@ 39
monopad 39
monsta 39
mus 39
mux 39
ony 39
oo 39
open@@ 39
org@@ 39
pajero 39
peptide 39
plaka 39
pores 39
rapunzel 39
rasta 39
realistic 39
remo@@ 39
rollers 39
rosa 39
rosemary 39
rough 39
rp 39
rusty 39
sandy 39
scho@@ 39
sei 39
seri@@ 39
shave 39
shop@@ 39
sidebag 39
since 39
skinfit 39
snu@@ 39
soles 39
somebymi 39
sou@@ 39
static 39
strada 39
strat@@ 39
sung 39
superstay 39
telescope 39
timing 39
tive 39
tropi@@ 39
tubular 39
tumblers 39
tweezer 39
upgrade 39
vapormax 39
vega 39
vibration 39
wash@@ 39
wife 39
wigs 39
wild@@ 39
wimpy 39
wjf 39
xp 39
yaya 39
yazi 39
zaful 39
adam 38
akg 38
aloevera 38
antiperspirant 38
aquamarine 38
are@@ 38
avenger 38
bangtan 38
bayo 38
beat@@ 38
belts 38
blackheads 38
capacitor 38
carburator 38
carton 38
chainsaw 38
chubby 38
cin 38
claiborne 38
cook 38
cour@@ 38
cradle 38
cyclo@@ 38
dart 38
dio@@ 38
disinfection 38
dium 38
dmc 38
dooney 38
doug 38
ejuice 38
fabulous 38
farrar 38
flesh 38
flowering 38
freeze 38
freezer 38
front@@ 38
garnet 38
gasoline 38
guality 38
gudi 38
happiness 38
has 38
heather 38
immune 38
ining 38
iro 38
ited 38
jennifer 38
jes 38
jimmy 38
joyride 38
kalamansi 38
kenzo 38
ket 38
kimetsu 38
knitting 38
know 38
kris 38
lids 38
mada@@ 38
marcus 38
maxidress 38
memo@@ 38
micky 38
microwavable 38
ml@@ 38
mustache 38
nasal 38
nl 38
oddstickers 38
others 38
pao 38
paracord 38
part@@ 38
physical 38
piglet 38
pldt 38
plex 38
pochette 38
predator 38
qt 38
quiet 38
rash@@ 38
rated 38
respirator 38
retina 38
rev@@ 38
ribb@@ 38
rinse 38
rip 38
rocking 38
rows 38
sanuk 38
saya 38
sega 38
sq 38
ssi 38
starex 38
sunnyware 38
thanos 38
thru 38
thumb 38
tia 38
tictac 38
timewise 38
torani 38
ts@@ 38
vee 38
veg 38
vogue 38
volt 38
voltmeter 38
week 38
whisk 38
wolverine 38
woo@@ 38
yf 38
ñ@@ 38
activ 37
addict 37
ado@@ 37
alaska 37
alkansya 37
ange 37
angela 37
antioxidant 37
arma@@ 37
assassin 37
autograph 37
basi@@ 37
beverage 37
biotin 37
blackout 37
brit 37
cali@@ 37
cameo 37
camshaft 37
canopy 37
cappuccino 37
capshop 37
cherrymobile 37
chu 37
cignus 37
classa 37
clearing 37
coin@@ 37
comes 37
commuter 37
conne@@ 37
coolant 37
cowboy 37
cree 37
cs@@ 37
dahua 37
ddy 37
degreaser 37
delta 37
dle 37
donna 37
dragons 37
electri@@ 37
erry 37
expansion 37
eyebag 37
fem 37
fig 37
fig@@ 37
filling 37
filters 37
fitflops 37
flashdrive 37
flaw 37
flower@@ 37
fra 37
fuji@@ 37
furball 37
gai@@ 37
gain 37
gfriend 37
gia 37
grant 37
graphy 37
guardian 37
hairclips 37
hanes 37
headwear 37
inpods 37
interface 37
ivt 37
jasmin 37
jel@@ 37
jpop 37
july 37
kang@@ 37
kas 37
knuckle 37
lala 37
leather@@ 37
legacy 37
lian 37
lipp@@ 37
logic 37
lolita 37
macaroon 37
maple 37
michelle 37
milo 37
moroccan 37
nate 37
netflix 37
nin@@ 37
offset 37
optimus 37
organ@@ 37
paw@@ 37
payless 37
pineng 37
pisonet 37
plating 37
poker 37
polkadot 37
polo@@ 37
pple 37
prayer 37
prism 37
qc 37
rhy@@ 37
rusi 37
saber 37
sac 37
shaving 37
sierra 37
sill 37
simp@@ 37
skintone 37
space@@ 37
speak 37
spout 37
sq@@ 37
srp 37
stack 37
sul@@ 37
supple 37
swab 37
sx 37
sym@@ 37
target 37
teardrop 37
techni@@ 37
terno@@ 37
toblerone 37
tool@@ 37
totebag 37
tox 37
tren@@ 37
tubes 37
tune 37
updated 37
utp 37
veins 37
volleyball 37
whipped 37
wrapper 37
wwfph 37
yayamanin 37
yoyo 37
yx 37
zer@@ 37
è@@ 37
α@@ 37
acai 36
antiseptic 36
aro 36
artisan 36
ask 36
backs 36
barber 36
bc@@ 36
believe 36
bia 36
billiard 36
block@@ 36
boardwalk 36
bodyworks 36
bot@@ 36
bowtie 36
bradley 36
brea@@ 36
buil@@ 36
camille 36
carri@@ 36
cas 36
cess@@ 36
chelle 36
chemical 36
clavicle 36
comb@@ 36
condom 36
connecting 36
corelle 36
cork 36
creation 36
crushed 36
damaged 36
deni@@ 36
dh@@ 36
discounted 36
divi@@ 36
dreamer 36
drunk 36
dtv 36
electroplated 36
every@@ 36
extractor 36
factor 36
finger@@ 36
fiona 36
friction 36
frnc 36
garment 36
gee@@ 36
gener@@ 36
gig@@ 36
glitz 36
gr 36
greatest 36
guilty 36
happywallph 36
harmony 36
hatchback 36
headed 36
helmets 36
hide 36
hogwarts 36
homemade 36
icons 36
inst@@ 36
instru@@ 36
insu@@ 36
internet 36
ionic 36
ishigaki 36
journey 36
konzert 36
ladder 36
laserjet 36
lique 36
lpg 36
luck@@ 36
macar@@ 36
macbeth 36
madrid 36
mage 36
maxine 36
mbo 36
mme 36
mura 36
myrrh 36
natures 36
neu@@ 36
nick 36
nutella 36
oi@@ 36
ollie 36
olymp@@ 36
pageant 36
pang@@ 36
pans 36
par 36
patterns 36
peculiar 36
pf 36
pickup 36
pid 36
plasma 36
playtex 36
pregnancy 36
produ@@ 36
props 36
put 36
puzzles 36
qnet 36
quadcopter 36
refresh 36
rocher 36
rocks 36
rounds 36
scales 36
sds 36
seafood 36
selected 36
sex@@ 36
shopp 36
simcard 36
simpsons 36
slu@@ 36
something 36
songs 36
spoke 36
spring@@ 36
stal@@ 36
starmobile 36
stin 36
streetwear 36
suspender 36
tagalog 36
temperd 36
tered 36
tft 36
thomson 36
tied 36
tnt 36
toothpick 36
typec 36
uag 36
unlimited 36
uri 36
vco 36
vooc 36
vu@@ 36
warts 36
weigh@@ 36
wika 36
wm 36
zg 36
P@@ 35
acce@@ 35
ail 35
ald 35
ame@@ 35
amu@@ 35
ante@@ 35
asymmetrical 35
backup 35
bago 35
bagonly 35
bedside 35
bee@@ 35
boards 35
btob 35
butane 35
cardholder 35
cas@@ 35
cate 35
cial 35
cindy 35
collectors 35
contouring 35
crossbar 35
crystalline 35
cular 35
dale 35
dee 35
doh 35
down@@ 35
dragon@@ 35
erase 35
ertiga 35
eun@@ 35
events 35
extendable 35
fat@@ 35
fei@@ 35
fg@@ 35
fication 35
fir@@ 35
fleur 35
floor@@ 35
formulas 35
framed 35
geek 35
gela@@ 35
georgia 35
gogh 35
gro 35
gul@@ 35
gunmetal 35
hardtop 35
himalaya 35
hollywood 35
illusion 35
infallible 35
ini@@ 35
inte@@ 35
integrated 35
iridium 35
iris 35
irl 35
jdm 35
jeep 35
jewel@@ 35
joseph 35
jumpskirt 35
kami@@ 35
kara 35
karen 35
keepers 35
krist@@ 35
kumot 35
lif@@ 35
lipton 35
lubri@@ 35
mamypoko 35
marlboro 35
md@@ 35
miku 35
mists 35
mitch 35
movement 35
mtrt 35
mugen 35
murano 35
nhance 35
nicer 35
nouvo 35
novelty 35
olo 35
opal 35
paulo 35
petrol 35
phil@@ 35
pil@@ 35
pills 35
plan 35
pong 35
portrait 35
protec 35
psu 35
quarter 35
rachel 35
rebecca 35
repla@@ 35
sad@@ 35
saf@@ 35
sdxc 35
send 35
senka 35
shan 35
shirt@@ 35
shoot 35
shooter 35
shredder 35
shure 35
snowflake 35
sockets 35
solotica 35
some@@ 35
soo@@ 35
spears 35
spoons 35
submersible 35
tal 35
teething 35
tele@@ 35
textile 35
tique 35
toast 35
tour@@ 35
trouble 35
tweeter 35
twenty 35
ufc 35
vehicles 35
vis@@ 35
viva 35
waistband 35
windbreaker 35
woody 35
woofer 35
xuebami 35
yale 35
yel@@ 35
ying 35
yuri 35
zhi 35
zoey 35
activ@@ 34
adjuster 34
african 34
anya 34
appliances 34
area 34
armrest 34
ass 34
babyg 34
backlight 34
bacon 34
bae 34
bas 34
binlu 34
blast 34
blazers 34
bmx 34
braid 34
brook 34
brownie 34
bucks 34
butterscotch 34
bye 34
caddy 34
chamois 34
checkerd 34
chick 34
christie 34
clasp 34
classical 34
collage 34
course 34
crankcase 34
crisp 34
croc 34
cutters 34
death@@ 34
detective 34
dine 34
direct@@ 34
dog@@ 34
dollhouse 34
dra 34
dry@@ 34
elle@@ 34
ellie 34
enclosure 34
esp@@ 34
feed 34
fish@@ 34
foglight 34
frill 34
graham 34
griffin 34
hanna 34
havainas 34
helicopter 34
hh 34
hours 34
hrv 34
ingredients 34
investment 34
iphonexr 34
iting 34
itzy 34
ix@@ 34
jewellery 34
jig@@ 34
kari 34
kelsey 34
kinds 34
knorr 34
kodak 34
lamborghini 34
lamp@@ 34
lazel 34
less@@ 34
lig@@ 34
loaf 34
lop 34
mad@@ 34
magnolia 34
magnum 34
maii 34
main@@ 34
manufactured 34
marga 34
mary@@ 34
med@@ 34
menstrual 34
mercier 34
miller 34
moose 34
mw 34
nan 34
near 34
nudes 34
oily 34
ola@@ 34
oli 34
omni@@ 34
ones 34
ornaments 34
oro 34
oversea 34
pag@@ 34
pantyliner 34
papemelroti 34
paren@@ 34
patched 34
physicians 34
pipes 34
planer 34
poison 34
pon 34
poppy 34
preparation 34
propeller 34
punny 34
rainy 34
repairing 34
reserve 34
restore 34
rexona 34
rivet 34
rk 34
rubbershoes 34
rxr 34
sace 34
sang@@ 34
secosana 34
shooting 34
show@@ 34
sic 34
silverworks 34
sippy 34
sma 34
smoothie 34
sonia 34
spd 34
sso 34
stains 34
stry 34
sucker 34
sulwhasoo 34
sweatshorts 34
tease 34
teenage 34
thor@@ 34
thou@@ 34
thrift 34
tted 34
tton 34
two@@ 34
ull 34
ux 34
weight@@ 34
westbrook 34
wq@@ 34
wra@@ 34
wre@@ 34
yema 34
yna 34
yours 34
yoyoso 34
zf 34
zzle 34
ach 33
aff@@ 33
anie 33
antibac 33
apo@@ 33
armpit 33
astray 33
ather 33
atmosphere 33
bak@@ 33
bake 33
baruan 33
bble 33
beginner 33
billabong 33
blaze 33
bleu 33
bol@@ 33
cami@@ 33
caseology 33
cassie 33
celeteque 33
chang@@ 33
cheddar 33
chief 33
cko 33
coke 33
coldshoulder 33
colla@@ 33
colleen 33
colo 33
compaq 33
conan 33
conceal 33
contro@@ 33
creamsilk 33
crist@@ 33
crossing 33
cruise 33
ctic 33
cushi@@ 33
denso 33
dil@@ 33
dimension 33
diver 33
donald 33
dumb@@ 33
ejm 33
electroplate 33
embroid 33
enchanted 33
engraved 33
flange 33
fleer 33
footsocks 33
freego 33
frixion 33
fujidenzo 33
gabri@@ 33
gallery 33
gay 33
geni@@ 33
girly 33
gluco@@ 33
glutax 33
gluth@@ 33
guit@@ 33
hara 33
hbd 33
henry 33
hersheys 33
hon 33
hourglass 33
houston 33
hstnn 33
ice@@ 33
icm 33
ids 33
illu@@ 33
indigo 33
insta 33
irregular 33
jaguar 33
jennie 33
jim 33
jun 33
jw 33
kane@@ 33
kiehl 33
kies 33
kle 33
kool 33
ktph 33
kyle 33
kyo@@ 33
lara 33
lds 33
leave 33
lence 33
leonard 33
library 33
lje 33
lounge 33
macy 33
mascot 33
mauve 33
mba 33
mech 33
meg 33
mex 33
mics 33
midoko 33
milli@@ 33
minimal 33
moc@@ 33
mona 33
monarch 33
movable 33
msh 33
much 33
mz 33
nectarine 33
ngk 33
noblekids 33
nov@@ 33
nut@@ 33
octa@@ 33
oid 33
ole 33
omron 33
oriental 33
parking 33
party@@ 33
pcx 33
periwinkle 33
pie@@ 33
poli@@ 33
pom 33
pos 33
putty 33
quart 33
quinoa 33
raffles 33
rail 33
ralliart 33
rayon 33
recovery 33
refills 33
relx 33
repeater 33
rite 33
rohto 33
runs 33
russell 33
rustic 33
scooper 33
seasoned 33
sew 33
shiro 33
sil 33
singing 33
ske@@ 33
skinlab 33
slam 33
sno@@ 33
spea@@ 33
specialty 33
spotlight 33
stefan 33
stila 33
straigh@@ 33
strand 33
stroke 33
sunsilk 33
suv 33
tera 33
then@@ 33
thickening 33
thompson 33
tokidoki 33
toppers 33
toronto 33
tuner 33
turband 33
unity 33
vd 33
veil 33
villa@@ 33
village 33
vina 33
wc 33
weekender 33
wii 33
wr 33
wu@@ 33
yield 33
L@@ 32
airbrush 32
alaric 32
alligator 32
amin@@ 32
angry 32
ank@@ 32
anycast 32
appli@@ 32
archie 32
ariana 32
arri@@ 32
asymmetric 32
atlan@@ 32
baf 32
baker 32
baleno 32
bbie 32
beats 32
bedtime 32
bga 32
bhw 32
blankets 32
bowling 32
broad 32
broo@@ 32
brothers 32
buck 32
campus 32
caribbean 32
carla 32
cassandra 32
chel 32
choco@@ 32
chri@@ 32
clay@@ 32
compress 32
connection 32
conver@@ 32
cooper 32
cor 32
cora@@ 32
cott@@ 32
crate 32
crea@@ 32
creator 32
curvy 32
did 32
dis 32
divine 32
donruss 32
dylan 32
ef@@ 32
ego 32
ely@@ 32
encore 32
ene 32
ener@@ 32
enie 32
enzyme 32
essen@@ 32
eve@@ 32
executive 32
exten@@ 32
eyo@@ 32
fabcon 32
faito 32
fragrant 32
friday 32
gamuza 32
geronimo 32
glucose 32
godzilla 32
going 32
gum@@ 32
hazeshop 32
horizon 32
hydrogel 32
hygiene 32
hyun 32
inang 32
infusion 32
instabright 32
ized 32
jama 32
jf 32
jol@@ 32
jonaxx 32
karat 32
kee@@ 32
kei@@ 32
koso 32
lat 32
lattice 32
leigh 32
lexi 32
longrich 32
lose 32
luckin 32
lunar 32
macrame 32
magnifier 32
mang 32
mans 32
mavic 32
mela 32
mela@@ 32
mmies 32
mochi 32
mortal 32
nath@@ 32
newyork 32
nies 32
ntc 32
omaga 32
origins 32
ort 32
osmo 32
padding 32
pals 32
patterson 32
paws 32
pear@@ 32
pedicure 32
pekas 32
pentel 32
ple 32
pms 32
pregnant 32
pres@@ 32
primark 32
primary 32
private 32
promise 32
pudding 32
quantum 32
quar@@ 32
rage 32
raven 32
recording 32
ress 32
rhi@@ 32
riley 32
ris 32
rollerball 32
rrj 32
rsgw 32
rta 32
sailormoon 32
sala 32
saudigold 32
schoolbag 32
scre@@ 32
september 32
servings 32
sgp 32
shoul@@ 32
sincerity 32
siren 32
sleveless 32
slice 32
sling@@ 32
slip@@ 32
smashbox 32
softband 32
soon 32
spro@@ 32
stacking 32
stan@@ 32
sten@@ 32
sterile 32
terminal 32
theater 32
thief 32
trees 32
triton 32
tuxedo 32
twopiece 32
ut@@ 32
vtech 32
warning 32
waves 32
wei 32
whe@@ 32
write 32
wx 32
xtra 32
yakimoto 32
yet 32
T@@ 31
ahd 31
ako 31
alph@@ 31
aluminium 31
amor 31
arr@@ 31
atten@@ 31
aussie 31
balanced 31
banks 31
bella@@ 31
bing@@ 31
blake 31
blowout 31
booklet 31
bumble 31
butterflies 31
cameron 31
casino 31
cheesecake 31
chimmy 31
chip@@ 31
chole@@ 31
chon 31
chrono 31
cici 31
ckets 31
cles 31
coelho 31
coverup 31
crane 31
cum 31
dandelion 31
ddle 31
density 31
dermacol 31
dha 31
dia@@ 31
diabe@@ 31
diamante 31
digest 31
dipbrow 31
drama 31
drl 31
dsf@@ 31
dul@@ 31
earl 31
elly 31
ene@@ 31
entrance 31
entry 31
ergonomic 31
ess 31
exchange 31
falling 31
fanta@@ 31
fav 31
favorites 31
fearless 31
feeling 31
fel@@ 31
ffle 31
fingers 31
fishnet 31
fleetmax 31
folds 31
furla 31
gamosa 31
gence 31
gerry 31
glutalight 31
gone 31
groot 31
guardians 31
hay 31
hikari 31
icosmetica 31
impro@@ 31
inclusive 31
inn 31
ino@@ 31
iri 31
ith@@ 31
jinju 31
jjs 31
juan 31
justin 31
kage 31
kily 31
kindergarten 31
kiwi 31
komine 31
komodo 31
kore@@ 31
lebelage 31
lie@@ 31
lier 31
louise 31
lulu 31
macadamia 31
madison 31
mander 31
matter 31
melo 31
mented 31
ming@@ 31
mori 31
mping 31
mrc 31
mun 31
nano@@ 31
negotiable 31
nemo 31
nik 31
ob 31
olaf 31
oul@@ 31
ova 31
overwatch 31
packbag 31
pad@@ 31
paperang 31
parallel 31
password 31
pawn@@ 31
percy 31
piso 31
pos@@ 31
prep 31
presen@@ 31
prevent 31
progra@@ 31
puffs 31
py 31
ql 31
qs 31
queen@@ 31
quiksilver 31
ramyun 31
rece@@ 31
ret 31
roblox 31
rockets 31
rol 31
ryzen 31
sad 31
saga 31
sara@@ 31
scoo@@ 31
scrat@@ 31
scrubber 31
secure 31
shadows 31
shrimp 31
sign@@ 31
six@@ 31
skintouch 31
spanish 31
stansmith 31
stealth 31
stick@@ 31
stretch@@ 31
susan 31
tak@@ 31
then 31
thinkpad 31
ths 31
thunder@@ 31
tons 31
totally 31
ud 31
ulzzang 31
underwater 31
unds 31
vanessa 31
vegetarian 31
velo@@ 31
velvetines 31
virginity 31
visi@@ 31
vity 31
wf 31
whisky 31
willow 31
wishes 31
yle 31
abdomen 30
adilette 30
aga@@ 30
agent 30
alco@@ 30
ande@@ 30
andre@@ 30
apruva 30
aquatic 30
aqva 30
attached 30
attra@@ 30
bakeware 30
barcode 30
bare@@ 30
bean@@ 30
benz 30
biztree 30
bos 30
bourke 30
brera 30
bubblegum 30
bumebime 30
bustier 30
busy 30
cabana 30
caged 30
camcorder 30
cie 30
clau@@ 30
coachella 30
continental 30
conversion 30
corned 30
croco 30
decker 30
decool 30
designplus 30
despicable 30
devo@@ 30
dexe 30
disa@@ 30
dna 30
dore 30
dresser 30
drypers 30
dson 30
ech@@ 30
effector 30
enriched 30
envelopes 30
eric 30
esme 30
essie 30
feathers 30
fifi 30
flirt 30
foglamp 30
freshly 30
gatsby 30
gent 30
gies 30
gigi 30
gk 30
godox 30
greeting 30
hairbows 30
hamilton 30
hamper 30
haven 30
holster 30
humi@@ 30
inal 30
individually 30
intra 30
ities 30
ivana 30
jibbitz 30
joggers 30
jojoba 30
jute 30
jvt 30
kan 30
karadium 30
kathryn 30
katrina 30
katsa 30
kimchi 30
lacy 30
ladladlandph 30
lbb 30
lemongrass 30
lev@@ 30
lewis 30
limit@@ 30
lk 30
locker 30
looking 30
loops 30
lumens 30
maca 30
mdr 30
metromanila 30
mille@@ 30
mmy 30
morty 30
mtr 30
mura@@ 30
muscletech 30
muse 30
needles 30
nica 30
nourish 30
nuby 30
oli@@ 30
onlyyouth 30
origin@@ 30
overun 30
oxi@@ 30
oy 30
pai@@ 30
palawan 30
panty@@ 30
pay 30
pba 30
perkins 30
phone@@ 30
pier@@ 30
pili 30
primera 30
printable 30
projection 30
puffed 30
qube 30
regi@@ 30
register 30
rella 30
retinol 30
rh 30
rico@@ 30
roi@@ 30
roof 30
rox@@ 30
ruched 30
rules 30
saki 30
sanitizing 30
shabu 30
shane 30
silica 30
skins 30
smar@@ 30
snor@@ 30
sofi@@ 30
sooper 30
spectrum 30
spyker 30
squareneck 30
strobe 30
stuff@@ 30
stx 30
sulfate 30
summer@@ 30
supplements 30
tab@@ 30
tali 30
tension 30
throat 30
tiesides 30
timex 30
tles 30
tongue 30
tracy 30
tsubaki 30
txt 30
tyre 30
units 30
uring 30
vein 30
vero 30
vinci 30
vn 30
von@@ 30
voucher 30
washcloth 30
woods 30
wp 30
xqt 30
yd 30
yy 30
yy@@ 30
zoya 30
N@@ 29
adap@@ 29
adjust 29
aesop 29
again 29
alchemist 29
aller@@ 29
alli@@ 29
ameri@@ 29
arpege 29
athle@@ 29
atom 29
atv 29
authorized 29
ax@@ 29
azur 29
bagoong 29
barebody 29
bf@@ 29
bigsize 29
biking 29
bonbon 29
bre 29
bulldog 29
buzz 29
cables 29
camry 29
cand@@ 29
carol 29
cavaliers 29
central 29
cerave 29
chapter 29
chilli 29
cio 29
citi@@ 29
citizen 29
cms 29
cocoberry 29
colour@@ 29
colourful 29
corrugated 29
cot 29
counting 29
crimson 29
cudd@@ 29
cuffed 29
cuffs 29
dash@@ 29
dashing 29
deodorizer 29
destash 29
diaries 29
dinosaurs 29
dl@@ 29
drawers 29
duck@@ 29
ead 29
earloop 29
editions 29
elin 29
elo 29
emboss 29
epoch 29
exfoliant 29
exotic 29
exquisite 29
files 29
filipiniana 29
finest 29
finished 29
finn 29
flexi 29
flounce 29
follow 29
fon@@ 29
fpv 29
francesca 29
freak 29
freesia 29
fudge 29
fujitsu 29
fullface 29
furious 29
gand@@ 29
ghi@@ 29
goo 29
gor@@ 29
grit 29
grizzly 29
hello@@ 29
highlighters 29
hinges 29
hua 29
hua@@ 29
hugot 29
hunt 29
hx 29
ight 29
incredible 29
intal 29
ista 29
ites 29
january 29
jar@@ 29
jelt 29
jordana 29
julong 29
jung 29
kad@@ 29
kita 29
kuroko 29
laid 29
laine 29
lamaze 29
lamps 29
latitude 29
lau@@ 29
layout 29
lepin 29
lings 29
liptints 29
livestreaming 29
lock@@ 29
lumi@@ 29
luxcent 29
mai 29
maiden 29
maldita 29
marmont 29
masked 29
mba@@ 29
medicinal 29
meric 29
mess 29
met@@ 29
mf@@ 29
mfsunnies 29
milkca 29
mlb 29
mming 29
modeling 29
moistfull 29
monte 29
mots 29
mummy 29
mutarru 29
narrow 29
nas 29
never@@ 29
nightmare 29
nip 29
nium 29
obi 29
oca@@ 29
oil@@ 29
onic 29
oscar 29
ose 29
osram 29
oud 29
outside 29
paci@@ 29
papers 29
parent 29
patri@@ 29
phat 29
pista@@ 29
pitta 29
pix 29
polisher 29
prreti 29
ptop 29
purchase 29
rays 29
rectifier 29
resealable 29
revi@@ 29
rid 29
rodeo 29
rudu 29
ryxskin 29
safe@@ 29
sai 29
sak@@ 29
salve 29
sanji 29
school@@ 29
secondhand 29
sequ@@ 29
seven@@ 29
shapewear 29
shat@@ 29
sheath 29
shirly 29
shment 29
shuta 29
sks 29
slimfit 29
slogan 29
slr 29
sos 29
squeaky 29
ssen@@ 29
sterili@@ 29
stiletto 29
stro 29
sym 29
tapioca 29
tassels 29
television 29
tempo 29
tes@@ 29
tex@@ 29
textbook 29
thickened 29
thro@@ 29
thumbler 29
tilt 29
tions 29
topps 29
turtles 29
tx 29
ubiquiti 29
underarmour 29
unsweetened 29
uo 29
urine 29
valiant 29
velour 29
ventilation 29
virtual 29
visible 29
vivi 29
watt 29
webcam 29
whitener 29
wire@@ 29
wol@@ 29
xe 29
xinjia 29
xlarge 29
xmax 29
yaris 29
yummy 29
zai 29
zan@@ 29
zers 29
R@@ 28
acc 28
act@@ 28
affor@@ 28
aire 28
aka@@ 28
alyssa 28
analy@@ 28
anas 28
ander@@ 28
ania 28
anker 28
atlas 28
avr 28
barbara 28
barely 28
beach@@ 28
bennett 28
beth 28
birken 28
blisty 28
bnwot 28
bobson 28
bonus 28
bow@@ 28
brushless 28
bz 28
cache 28
cali 28
camou 28
camp 28
canned 28
cere@@ 28
checker 28
chekered 28
chin@@ 28
chinkee 28
chun@@ 28
cious 28
ckers 28
ckles 28
cleanse 28
collins 28
cology 28
commander 28
coupler 28
crafting 28
cting 28
demi 28
dmax 28
dusk 28
ebene 28
ecosport 28
eliminator 28
embo@@ 28
embroider 28
enhance 28
environmental 28
extra@@ 28
fallen 28
fami@@ 28
fashionice 28
faye 28
financial 28
florence 28
flute 28
freshwater 28
frontier 28
ghe@@ 28
ghoul 28
ghz 28
giving 28
gkk 28
glade 28
gles 28
glo 28
gods 28
grandia 28
gsw 28
gw 28
handles 28
hatsune 28
held 28
hh@@ 28
hinge 28
hui 28
hungry 28
ips 28
isabelle 28
iti 28
kandp 28
kanken 28
kawhi 28
kevler 28
kickstand 28
kinder 28
kis@@ 28
kittens 28
kne@@ 28
ktv 28
kuro@@ 28
lac 28
lactation 28
lady@@ 28
lah 28
lai@@ 28
leak 28
leen 28
lesportsac 28
lettes 28
lex@@ 28
loft 28
looks 28
lucy 28
luke 28
lunchbag 28
lys 28
malt 28
maru 28
maxell 28
maxglow 28
mediapad 28
mfjewelry 28
micari 28
might 28
mika@@ 28
mined 28
minimizer 28
moti@@ 28
mounting 28
muddy 28
mx@@ 28
naturacentials 28
nau@@ 28
nib 28
nomad 28
october 28
oper@@ 28
outfits 28
overalls 28
pand@@ 28
papa@@ 28
penelope 28
pic@@ 28
pillowcases 28
pink@@ 28
pld 28
pocketbook 28
poin@@ 28
pranela 28
preser@@ 28
pristine 28
prize 28
psvita 28
reality 28
reese 28
refining 28
reg 28
relaxing 28
renewing 28
resident 28
restocked 28
rier 28
rr@@ 28
rucksack 28
sabina 28
samplers 28
sandugo 28
sani@@ 28
satellite 28
savers 28
scripture 28
seatcover 28
seconds 28
sentra 28
shf 28
shie 28
shoelace 28
sie@@ 28
sim@@ 28
sisters 28
slate 28
splen@@ 28
ssa@@ 28
sson 28
sten 28
strand@@ 28
stripper 28
suki 28
superbklean 28
superheroes 28
symbol 28
tablea 28
tail@@ 28
talc 28
tang 28
teabags 28
teats 28
tery 28
thir@@ 28
thy@@ 28
tom@@ 28
touch@@ 28
track@@ 28
trea@@ 28
triangular 28
ttle 28
tul@@ 28
tulip 28
twisting 28
ucc 28
uhd 28
ukelele 28
une@@ 28
ung@@ 28
valen@@ 28
vise 28
waikiki 28
watsons 28
wearing 28
whiskas 28
wholesaler 28
xc 28
yor@@ 28
ys@@ 28
zaku 28
zza 28
abby 27
aci@@ 27
acidic 27
aircraft 27
aladdin 27
alie 27
along 27
andre 27
anger 27
animated 27
anna@@ 27
anne@@ 27
ario 27
asa@@ 27
astronaut 27
aukey 27
bagshop 27
bd 27
bes 27
bias 27
bija 27
bloody 27
board@@ 27
bonnie 27
bore 27
bratz 27
brite 27
broad@@ 27
bsn 27
bumgenius 27
bury 27
calcu@@ 27
calorie 27
capa@@ 27
cardcaptor 27
cath@@ 27
cellular 27
chafing 27
chat 27
cheeks 27
cherie 27
chers 27
ciss 27
cleveland 27
cloud@@ 27
coast 27
concrete 27
constellation 27
constru@@ 27
contra@@ 27
cry 27
crème 27
ctable 27
cx@@ 27
dana 27
desig@@ 27
dian 27
dip@@ 27
directional 27
doggy 27
doors 27
downlight 27
drift 27
eclipse 27
eleven 27
emer@@ 27
energizer 27
essences 27
eternal 27
eti@@ 27
examination 27
experia 27
fantasies 27
fect 27
fl@@ 27
frequency 27
garanimals 27
geena 27
geo 27
germ 27
ggs 27
gina 27
glas 27
grammar 27
graphite 27
happ@@ 27
hea 27
headsets 27
hemp 27
horror 27
ichiban 27
ilog 27
ils 27
inda 27
infused 27
inje@@ 27
insipio 27
jan 27
jewels 27
jg 27
joyo 27
jto 27
kath@@ 27
kaye 27
kendall 27
kilogram 27
kilos 27
kis 27
kki 27
kx 27
lamin@@ 27
laurel 27
leah 27
lett@@ 27
litchi 27
liv 27
ller 27
locked 27
luncheon 27
machines 27
mallows 27
mamas 27
manufacturer 27
master@@ 27
matte@@ 27
mber@@ 27
mbi 27
meo 27
mers 27
meyer 27
mila 27
miss@@ 27
moist@@ 27
monica 27
monitoring 27
msa 27
muster 27
mxr 27
nac 27
nal@@ 27
naturale 27
neca 27
nirvana 27
nori 27
november 27
occa@@ 27
oned 27
orginal 27
oring 27
oréal 27
paramore 27
parfums 27
path 27
pau@@ 27
pel@@ 27
plo@@ 27
plusize 27
polly 27
polycotton 27
position 27
prewalker 27
prosperity 27
ption 27
racks 27
rah 27
raz@@ 27
rei@@ 27
rel@@ 27
rela@@ 27
rep@@ 27
restor@@ 27
retailer 27
reve 27
riverdale 27
roa@@ 27
robes 27
row@@ 27
rubber@@ 27
ryan 27
sabo 27
sana 27
sar 27
satur@@ 27
sawa 27
sensational 27
similac 27
singer 27
skt 27
slay 27
sleeve@@ 27
smock 27
snickers 27
snowflakes 27
sparco 27
sph@@ 27
sportsbra 27
ssie 27
stant 27
sunvit 27
surround 27
tails 27
tara 27
tch@@ 27
they 27
tional 27
titans 27
tly 27
tn@@ 27
toning 27
treasures 27
trin@@ 27
trinity 27
trip 27
tron 27
trust 27
ttes 27
ufo 27
uma 27
unk 27
ure@@ 27
usborne 27
vb 27
vince 27
violin 27
volcom 27
vu 27
weatherproof 27
web@@ 27
williams 27
wynn 27
yalex 27
ym 27
yon 27
zombie 27
abi@@ 26
absolu 26
abu@@ 26
accen@@ 26
ador 26
alex@@ 26
already 26
ancient 26
ane@@ 26
api 26
assa@@ 26
astro@@ 26
auth@@ 26
aventurine 26
background 26
bakery 26
bali@@ 26
bathtub 26
bber 26
beddings 26
bieber 26
bikers 26
birkin 26
birth@@ 26
blade@@ 26
booth 26
breasted 26
breathe 26
bridesmaid 26
brocade 26
bulbs 26
bull@@ 26
buyer 26
bx 26
camp@@ 26
canmake 26
cardboard 26
cardstock 26
center@@ 26
centrix 26
chains 26
chakra 26
chel@@ 26
chet 26
chio 26
chok 26
chua 26
clin@@ 26
closure 26
cn@@ 26
colorstay 26
coloured 26
cora 26
creams 26
cup@@ 26
custo@@ 26
cv 26
dalandan 26
danielle 26
davao 26
dded 26
decathlon 26
deepcool 26
deoproce 26
developer 26
dex@@ 26
digit 26
dish@@ 26
dive 26
division 26
dont 26
dowell 26
draw@@ 26
dryfit 26
dumbbell 26
eable 26
ebike 26
engrave 26
engraving 26
erol 26
explosive 26
falcon 26
fansite 26
fierce 26
figh@@ 26
fine@@ 26
fir 26
flags 26
flair 26
four@@ 26
gardenia 26
garments 26
gary 26
generator 26
gho@@ 26
girbaud 26
girlfriend 26
glassware 26
graduation 26
grande 26
granules 26
greencross 26
guerisson 26
guns 26
had@@ 26
haze 26
helper 26
highlighting 26
hit@@ 26
houseware 26
hss 26
hum@@ 26
hypo 26
ie@@ 26
illustrated 26
indi@@ 26
indo@@ 26
int@@ 26
inten@@ 26
inti@@ 26
invictus 26
iphonexs 26
ital 26
ive 26
jerseys 26
jk@@ 26
juniors 26
kapote 26
kathy 26
kenko 26
kigurumi 26
kihno 26
kni@@ 26
kst 26
lace@@ 26
leapfrog 26
lg@@ 26
licensed 26
lifetime 26
linda 26
lled 26
lotions 26
lowback 26
ltd 26
madeca 26
manuka 26
maui 26
maver@@ 26
maxwell 26
mcdo 26
melimelo 26
metalic 26
mies 26
mitt 26
mizuno 26
mobile@@ 26
moisturi@@ 26
mond 26
mont@@ 26
monte@@ 26
murang 26
mus@@ 26
nacific 26
nal 26
natu@@ 26
nature@@ 26
naughty 26
nee 26
neem 26
neil 26
northface 26
nothing 26
nutritional 26
obsidian 26
ono 26
otterbox 26
outs 26
overlay 26
oz@@ 26
palo@@ 26
pantyhose 26
pashmina 26
past@@ 26
pc@@ 26
peas 26
pebble 26
perfu@@ 26
perm 26
pey 26
phase 26
pher 26
phonecase 26
pinas 26
pique 26
pito 26
points 26
pompoms 26
prun@@ 26
ral@@ 26
rand@@ 26
rapoo 26
ree@@ 26
rejuven@@ 26
review 26
ridge 26
rison 26
road@@ 26
robo@@ 26
rubi 26
sama 26
sasha 26
sausage 26
scs 26
sho 26
shots 26
simpli@@ 26
skippy 26
small@@ 26
smashing 26
snowman 26
society 26
sole@@ 26
soleil 26
soya 26
spokes 26
squa@@ 26
squee@@ 26
stimulator 26
stitching 26
strapped 26
strengthening 26
stret@@ 26
suke 26
table@@ 26
tain 26
techtrance 26
teena@@ 26
tel@@ 26
thigh 26
third 26
tiered 26
tney 26
topp@@ 26
touchpad 26
touri@@ 26
trafaluc 26
trans 26
trapal 26
trek 26
trend@@ 26
tress 26
trucks 26
true@@ 26
truth 26
tual 26
tuffgear 26
tweed 26
twine 26
ul 26
ultima 26
variation 26
vida 26
wahl 26
waltz 26
wanted 26
wavy 26
west@@ 26
wintermelon 26
within 26
workpro 26
xin 26
xin@@ 26
xing 26
yas 26
yco 26
yea@@ 26
yeast 26
zelle 26
znb 26
zooey 26
zurc 26
aceking 25
activities 25
addi@@ 25
agri 25
amar@@ 25
andriod 25
annual 25
arcade 25
arch 25
aroma@@ 25
asp@@ 25
assy@@ 25
astringent 25
ators 25
authen@@ 25
basa 25
base@@ 25
beachkins 25
becado 25
beeswax 25
beta 25
bikes 25
billie 25
bioline 25
birken@@ 25
blink 25
blooms 25
bly@@ 25
boa 25
bobb@@ 25
botani@@ 25
buffing 25
builder 25
buldak 25
bundled 25
capiz 25
capo 25
cardi@@ 25
carryall 25
carved 25
casi@@ 25
caterpillar 25
cating 25
chargers 25
cheeky 25
chlorine 25
chocola@@ 25
christ 25
cinnamoroll 25
cog@@ 25
columbia 25
convenient 25
cooky 25
corps 25
correcting 25
cosme@@ 25
craft@@ 25
cran@@ 25
cuticle 25
dai 25
daks 25
darci 25
deadly 25
deformation 25
desi@@ 25
devi@@ 25
dew@@ 25
dic 25
direction 25
dito 25
dow@@ 25
eczema 25
edens 25
eee 25
ellen 25
elo@@ 25
embellished 25
engineer 25
eping 25
equ@@ 25
equalizer 25
europe 25
exia 25
expo@@ 25
fal 25
fisher@@ 25
flared 25
flux 25
focallure 25
found@@ 25
fraiche 25
frankincense 25
freshner 25
frogsuits 25
fuku@@ 25
funnel 25
gani@@ 25
gate@@ 25
gene 25
genesis 25
genius 25
geometry 25
gif@@ 25
given 25
goodnight 25
gos 25
graco 25
greentea 25
grin@@ 25
guc 25
gunpla 25
handsoap 25
hear@@ 25
hexagonal 25
highly 25
hobonichi 25
hoy 25
hunger 25
hurley 25
illuminated 25
injection 25
inks 25
insole 25
irs 25
jb 25
jenner 25
jill 25
jing@@ 25
jona 25
jovan 25
jurassic 25
jyun 25
kala@@ 25
kaw 25
kawa 25
kj 25
knapsack 25
known 25
kojie 25
kose 25
lao 25
lasercut 25
lations 25
laughing 25
legion 25
lina 25
lipkit 25
lling 25
loud 25
luxxe@@ 25
margaret 25
masquerade 25
masters 25
mature 25
mau@@ 25
mct 25
melted 25
meme 25
memor@@ 25
meteor 25
miami 25
mica 25
micheal 25
midri@@ 25
milkshake 25
mise 25
mission 25
mium 25
mmed 25
mps 25
ms@@ 25
mustela 25
mv 25
mxi 25
nail@@ 25
napkins 25
narnia 25
naturactor 25
nectar 25
neogen 25
net@@ 25
nex 25
nn@@ 25
oasis 25
ode 25
older 25
onwards 25
opaque 25
orie 25
orocan 25
ost 25
oto@@ 25
oxide 25
papas 25
pasa@@ 25
pasalubong 25
pave 25
pedi@@ 25
pee@@ 25
perfectly 25
person@@ 25
pirates 25
pleats 25
plushies 25
pneumatic 25
pokémon 25
polar@@ 25
preschool 25
prescription 25
prone 25
protectant 25
puller 25
rakk 25
realmex 25
reflex 25
restaurant 25
rockstud 25
role 25
roman@@ 25
roy 25
rugs 25
rule 25
sab@@ 25
sang 25
sardines 25
scand@@ 25
scars 25
scrapbooking 25
sens@@ 25
serena 25
shinee 25
shion 25
shre@@ 25
siopao 25
skybox 25
slingback 25
smacker 25
snakeskin 25
som 25
sorting 25
soybean 25
spld 25
squash 25
ssam@@ 25
ssive 25
starfish 25
stur@@ 25
sulit 25
swag 25
tally 25
tears 25
terminator 25
thrasher 25
tica 25
tical 25
til@@ 25
tis@@ 25
tneck 25
tofu 25
tomat@@ 25
toy@@ 25
transfor@@ 25
ttie 25
turn@@ 25
ume 25
une 25
until 25
urvan 25
uso 25
vac 25
vacation 25
vct 25
vegeta 25
vermi@@ 25
vf 25
vivo@@ 25
weison 25
wg 25
whisk@@ 25
whit 25
wires 25
wok 25
wpf 25
xlr 25
xm 25
yao 25
yin 25
yopokki 25
young@@ 25
ysp 25
yun 25
zest 25
ña 25
ö@@ 25
O@@ 24
abdominal 24
abi 24
accord 24
acupuncture 24
adore 24
aler 24
alia 24
allergenic 24
alluring 24
alone 24
alpha@@ 24
alphaland 24
alta 24
angelica 24
antonio 24
apa@@ 24
assemble 24
atu@@ 24
aways 24
bacteria 24
bark 24
bata 24
bati@@ 24
bbs 24
bei 24
bene@@ 24
binding 24
blush@@ 24
bobble 24
bomb@@ 24
bounty 24
boyz 24
brace@@ 24
breastpump 24
breathing 24
broom 24
bros 24
cancelling 24
cancer 24
card@@ 24
carrie 24
cartridges 24
casu@@ 24
cateye 24
celer@@ 24
celestial 24
cello 24
chandelier 24
child@@ 24
chinos 24
chocker 24
clare 24
class@@ 24
condor 24
confe@@ 24
corsair 24
costu@@ 24
covid 24
cow@@ 24
cracked 24
crypton 24
cta@@ 24
ction@@ 24
cycles 24
dar 24
dare 24
dashiki 24
decor@@ 24
defin@@ 24
dentist 24
deo@@ 24
dered 24
descendants 24
dhendhenshop 24
dilis 24
dir@@ 24
discover 24
discovery 24
dney 24
donal@@ 24
doz 24
dres 24
driven 24
drool 24
earbud 24
enlar@@ 24
eno 24
ents 24
erich 24
especial 24
evapor@@ 24
extras 24
eyebrows 24
fact@@ 24
fasion 24
feline 24
fibisco 24
flavoring 24
forehead 24
fred 24
fren@@ 24
fructis 24
genic 24
gging 24
glut@@ 24
glutagen 24
gma 24
gray@@ 24
gugo 24
hams 24
hei@@ 24
heroine 24
hil@@ 24
hippo 24
holding 24
hou 24
iga 24
impre@@ 24
ined 24
inga 24
intro 24
iphonexsmax 24
iso 24
ist 24
iwhite 24
jackie 24
jagthug 24
jart 24
jenga 24
john@@ 24
julie 24
kev@@ 24
kinis 24
kira 24
kissed 24
klean 24
kn 24
knock 24
kyt 24
language 24
lat@@ 24
lax 24
leap 24
lexing 24
lime@@ 24
lits 24
liv@@ 24
lizer 24
llan@@ 24
lomo@@ 24
loo 24
luci@@ 24
lure 24
lychee 24
made@@ 24
mail@@ 24
manifold 24
marri@@ 24
matthe@@ 24
mcfarlane 24
megalast 24
meisons 24
mendoza 24
metallica 24
mexican 24
microns 24
mine@@ 24
miniatures 24
minidress 24
mirro@@ 24
miso 24
molds 24
momma 24
montessori 24
motif 24
motomo 24
mud@@ 24
mulberry 24
names 24
natal 24
nel@@ 24
nesoberi 24
nickel 24
nido 24
nis 24
numerals 24
nvidia 24
oak 24
oe 24
offwhite 24
oliver 24
onics 24
opi 24
organ 24
organizers 24
orial 24
ories 24
oxidant 24
oyster 24
palazzo 24
pallet 24
percent 24
pere@@ 24
petron 24
phoebe 24
phon 24
phyto 24
pictures 24
pixma 24
planter 24
polvoron 24
poo 24
porsche 24
pout 24
preppy 24
pretty@@ 24
procare 24
proof@@ 24
pss 24
pusheen 24
pussy 24
px 24
quicksilver 24
raptor 24
reel 24
relic 24
rence 24
rene@@ 24
repackage 24
replace 24
resa 24
richard 24
rihanna 24
ringlight 24
rotatable 24
rum 24
russe 24
sago 24
sanchez 24
sas 24
saurus 24
screen@@ 24
script 24
scru@@ 24
sda@@ 24
sensation 24
serpen@@ 24
serpentina 24
serve 24
sharpie 24
shatterproof 24
shinny 24
shippuden 24
shoo@@ 24
shovel 24
shun 24
slipon 24
smoked 24
snowy 24
soo 24
soprano 24
squir@@ 24
ssss@@ 24
starts 24
steel@@ 24
stop@@ 24
straw@@ 24
string@@ 24
struck 24
struct@@ 24
subaru 24
sui@@ 24
suo 24
supergirl 24
tanktop 24
tapered 24
taro 24
tatcha 24
tessa 24
thology 24
threaded 24
tired 24
tnx 24
toasted 24
topic 24
tourmaline 24
tracking 24
trumpet 24
tubbies 24
unique@@ 24
valentus 24
vca 24
vh 24
victor 24
vie@@ 24
vw 24
wade 24
wed 24
whirlpool 24
who@@ 24
wilton 24
wily 24
workbooks 24
xia 24
yk 24
yuan 24
yuki 24
yurry 24
zoeva 24
zx 24
abel 23
adjustment 23
aged 23
agi@@ 23
aichun 23
aka 23
alangan 23
albom 23
ampalaya 23
anastacia 23
angled 23
ank 23
applique 23
appro@@ 23
aq 23
archer 23
aries 23
asse@@ 23
audi 23
avan@@ 23
babyland 23
baekhyun 23
balan@@ 23
barbeque 23
beep 23
beryl 23
bing 23
blanca 23
blea@@ 23
blen@@ 23
bluehouse 23
bnc 23
boardshorts 23
boba 23
bobs 23
bodywash 23
bookshelf 23
boysen 23
branch 23
brazillian 23
brightest 23
broadway 23
brooke 23
buckles 23
calendula 23
calf 23
calyp@@ 23
cana 23
catholic 23
cause 23
cedarwood 23
ceramide 23
champions 23
chron@@ 23
chry@@ 23
cinema 23
circles 23
cite 23
cjve 23
cken 23
clamps 23
cling 23
cloths 23
coffe 23
comp 23
compressed 23
cons 23
conve@@ 23
core@@ 23
cove 23
crafted 23
crewneck 23
crossgrain 23
crossover 23
cv@@ 23
cyber 23
dallas 23
dbz 23
dea 23
december 23
depen@@ 23
detailed 23
detailing 23
dg@@ 23
dianne 23
dif@@ 23
difference 23
dipper 23
dirt 23
dn 23
dore@@ 23
drop@@ 23
dub 23
duct 23
dummy 23
easysoft 23
edc 23
eg 23
ek@@ 23
embelli@@ 23
eries 23
everlasting 23
expe@@ 23
experience 23
expre@@ 23
fading 23
february 23
fia 23
fiberglass 23
fier 23
flashcards 23
flavour 23
fleshlight 23
flowery 23
fluoride 23
fort 23
fortnite 23
frameless 23
franci@@ 23
gao 23
gashapon 23
gdplus 23
gemini 23
gger@@ 23
gillette 23
glutamax 23
glutha 23
gly 23
god@@ 23
gordon 23
granola 23
grs 23
gst 23
hachi 23
halogen 23
handsome 23
hb@@ 23
heartstrings 23
heimish 23
hey 23
hit 23
hub@@ 23
ig 23
ige 23
ile 23
imari 23
improved 23
inno@@ 23
instruments 23
io@@ 23
irdy 23
iron@@ 23
jabra 23
janet 23
jaw 23
jig 23
jomalone 23
jour@@ 23
joyce 23
kapeng 23
karl 23
kidz 23
kine@@ 23
koreanfashion 23
kru@@ 23
labiotte 23
lad@@ 23
lalaloopsy 23
lana 23
latch 23
lavatory 23
lazypod 23
leche 23
ledsign 23
lem 23
lemon@@ 23
lexington 23
licious 23
lington 23
lipz 23
livestream 23
loaded 23
logical 23
loloph 23
lumbar 23
lz 23
maggie 23
mane 23
marsh@@ 23
martens 23
masturbation 23
maybeline 23
mechanism 23
megan 23
mem@@ 23
members 23
merrysun 23
metrosunnies 23
mijia 23
milestone 23
milka 23
milwaukee 23
mitchell 23
miya 23
mna 23
mng 23
modified 23
molly 23
molten 23
monomola 23
mothers 23
moulded 23
mulan 23
multimeter 23
mumu 23
muslin 23
nata 23
naturally 23
negosyo 23
nen@@ 23
niv 23
nord 23
nss 23
nuk 23
nuskin 23
option 23
opulent 23
osaki 23
osh 23
oster 23
pab@@ 23
panla@@ 23
pare@@ 23
parfois 23
pastillas 23
patricia 23
paul@@ 23
pellet 23
pep@@ 23
phonics 23
photopaper 23
plain@@ 23
pleat 23
poo@@ 23
popp@@ 23
porefessional 23
poten@@ 23
powerpuff 23
price@@ 23
proph@@ 23
ptor 23
publi@@ 23
pulls 23
punching 23
puti 23
pyrex 23
quat@@ 23
quote 23
radeon 23
rant 23
raven@@ 23
really 23
rechar@@ 23
research 23
rev 23
ricci 23
rightpack 23
rire 23
roth 23
rubbing 23
sacred 23
saliva 23
sanicare 23
santé 23
say@@ 23
scence 23
schwar@@ 23
scorpio 23
scro@@ 23
sculp@@ 23
seren@@ 23
sette 23
shepherd 23
showa 23
signs 23
sissy 23
site 23
skn 23
skywalker 23
sliver 23
smd 23
snaps 23
snsd 23
spagetti 23
sper 23
sphere 23
spla@@ 23
ssb 23
stitched 23
sue 23
sumsung 23
sweatshirts 23
sweeper 23
swipe 23
tabletop 23
taehyung 23
tain@@ 23
tamar@@ 23
tanya 23
tcg 23
ted@@ 23
template 23
thai@@ 23
theo@@ 23
thongs 23
threads 23
thug 23
tian 23
tightening 23
ting@@ 23
tomorrow 23
toni 23
trekking 23
trident 23
trolly 23
ttl 23
ttle@@ 23
turbans 23
turkey 23
twinings 23
twister 23
ub 23
ultraviolet 23
ultron 23
uts 23
vac@@ 23
vagina 23
valier 23
vamp@@ 23
vanna 23
velvety 23
victorian 23
vis 23
vitali@@ 23
vite 23
voyager 23
wart 23
watchportal 23
whole@@ 23
wing@@ 23
won 23
wreath 23
wyer 23
xunod 23
yaoi 23
zan 23
zealand 23
zhi@@ 23
zipback 23
zl 23
M@@ 22
abra@@ 22
acu@@ 22
ade@@ 22
adul@@ 22
alliance 22
alternative 22
amazonian 22
amelia 22
amo@@ 22
amway 22
anatomy 22
andi 22
anni@@ 22
another 22
aprilskin 22
ateneo 22
aunthentic 22
author 22
availa@@ 22
avery 22
babyboy 22
backlit 22
badia 22
bana 22
bandou@@ 22
bao@@ 22
barba@@ 22
barrier 22
baru 22
basahan 22
bath@@ 22
beth@@ 22
beyouthiful 22
blended 22
blitz 22
blues 22
boned 22
boya 22
brande@@ 22
brazil 22
breath@@ 22
brighten 22
bvq 22
cele@@ 22
centrum 22
certificate 22
chap@@ 22
chargeable 22
cheaper 22
chemica 22
cheska 22
chig@@ 22
choo 22
chord 22
chrome@@ 22
chs 22
cil 22
cka 22
clan@@ 22
clinical 22
colander 22
cole@@ 22
coleen 22
coll@@ 22
colorblock 22
craf@@ 22
current 22
cutt@@ 22
dant 22
daw@@ 22
dbs 22
dddd@@ 22
dedi@@ 22
definer 22
deflector 22
dette 22
development 22
dity 22
dobe 22
dok 22
doo 22
ecotools 22
ein 22
elisse 22
energi@@ 22
eqt 22
erized 22
essensa 22
factorie 22
fairness 22
fashions 22
fern@@ 22
fiers 22
fifth 22
flagship 22
flip@@ 22
fliptop 22
flutter 22
fortified 22
fowl 22
francisco 22
franco 22
freya 22
galactomyces 22
ggies 22
gladking 22
glutapower 22
gsx 22
gth 22
gthening 22
gua 22
guil@@ 22
gutter 22
gwen 22
gyro 22
hairpins 22
headpiece 22
hearing 22
hematite 22
hippie 22
hipseat 22
hiro 22
hjc 22
homes 22
honesty 22
howlite 22
hu 22
huenicorn 22
hurricane 22
hy 22
hygi@@ 22
ics 22
ier 22
iler 22
illustration 22
ilove@@ 22
inas 22
ington 22
isa@@ 22
iv@@ 22
iverson 22
jarrow 22
joan 22
jour 22
jys 22
kaf@@ 22
kaidon 22
kape 22
kappa 22
keroppi 22
kills 22
kjv 22
kneepad 22
kou 22
kristine 22
kuji 22
lable 22
laboratory 22
ladle 22
laila 22
ld@@ 22
lei 22
leng 22
lipliner 22
lng 22
locally 22
lockset 22
log@@ 22
lone 22
longwear 22
lots 22
lumi 22
luxurious 22
maggi 22
magnus 22
mailtank 22
maje@@ 22
makoto 22
manipis 22
marshall 22
mation 22
measurement 22
medit@@ 22
mercedes 22
mercury 22
meron 22
mgs 22
mh@@ 22
microwaveable 22
mil 22
milanos 22
mile 22
milk@@ 22
mirrorless 22
misaki 22
miya@@ 22
mmt 22
monaco 22
mountaineering 22
mulation 22
narciso 22
natura@@ 22
navig@@ 22
nestea 22
nibb@@ 22
nickelodeon 22
noel 22
nou@@ 22
novel@@ 22
nuo 22
nutshell 22
officewear 22
oma 22
opti 22
orico 22
oro@@ 22
ota@@ 22
outfitters 22
oxidi@@ 22
pagoda 22
painless 22
papa 22
pasjel 22
pastels 22
patchwork 22
pebbles 22
perfector 22
pica@@ 22
picanto 22
pina@@ 22
portal 22
powerline 22
pray 22
presi@@ 22
pretzel 22
prime@@ 22
proven 22
pucca 22
pug 22
pulu@@ 22
puree 22
qqq 22
quality@@ 22
quelch 22
quen@@ 22
qy 22
randomly 22
reducer 22
rei 22
rhino 22
rip@@ 22
rivets 22
roe 22
rom@@ 22
roronoa 22
ross 22
ruth 22
rxk 22
sTM 22
sae 22
salicylic 22
sassa 22
savage 22
scalar 22
scrubsuit 22
scrunchie 22
seneck 22
sennheiser 22
sep 22
shad@@ 22
sharing 22
shear 22
shia 22
shit 22
shu 22
sidemirror 22
sigma 22
silk@@ 22
silka 22
sio 22
sketch@@ 22
skye 22
skyline 22
sletic 22
sorry 22
soulty 22
spain 22
spareparts 22
spellbinders 22
sprin@@ 22
sprinkles 22
squares 22
ssor 22
starlight 22
starting 22
stol 22
strontium 22
sugardolls 22
suspen@@ 22
swap 22
sweaters 22
tah@@ 22
tam@@ 22
tamarind 22
tbc 22
teach 22
temper 22
tequila 22
thayers 22
theraphy 22
tobi 22
toha 22
tph 22
transceiver 22
tucson 22
tul 22
turi@@ 22
twe@@ 22
twotone 22
ulta 22
unbreakable 22
vels 22
velve@@ 22
vgod 22
vibr@@ 22
vio@@ 22
volumizing 22
wai@@ 22
walnut 22
weeks 22
wers 22
wet@@ 22
wicked 22
wig@@ 22
william 22
wish@@ 22
worship 22
wrapping 22
ww@@ 22
xenon 22
xf 22
xylophone 22
yama 22
yc 22
yonex 22
ypad 22
yun@@ 22
zip@@ 22
zippy 22
ée 22
abbott 21
absolu@@ 21
abundant 21
ache 21
achi@@ 21
active@@ 21
adri@@ 21
agua 21
airdots 21
almay 21
ample 21
andra 21
anytek 21
aphrodite 21
appetite 21
apri@@ 21
argen@@ 21
arrive 21
aul@@ 21
authenthic 21
avai@@ 21
bab 21
bala@@ 21
bca 21
beauté 21
benefits 21
bergamot 21
bies 21
blos 21
bok 21
boombox 21
bootleg 21
boracay 21
borrowed 21
bosca 21
bourbon 21
break@@ 21
breaking 21
breast@@ 21
bring 21
buy@@ 21
buyers 21
bv@@ 21
captoe 21
carabiner 21
cassi@@ 21
cellowax 21
cfv 21
chao@@ 21
char 21
checked 21
cheer@@ 21
cheetah 21
chest@@ 21
chment 21
clima@@ 21
clit@@ 21
cobalt 21
colon 21
colorfull 21
coma 21
comple@@ 21
concepts 21
continuous 21
controlled 21
correct 21
cosmos 21
craze 21
cricut 21
crinkles 21
ctors 21
cuir 21
cultivera 21
cultured 21
customi@@ 21
customizable 21
defying 21
dennis 21
detoxifying 21
diane 21
dion 21
dir 21
dler 21
doll@@ 21
doms 21
doremi 21
duncan 21
dunge@@ 21
dunhill 21
dusty 21
dwarf 21
dx@@ 21
elena 21
eliquid 21
elise 21
ement 21
enchan@@ 21
ends 21
enhancement 21
enhancing 21
enthusiast 21
epilator 21
erasers 21
essenti@@ 21
evangelion 21
event 21
eves 21
excelsior 21
expander 21
eyelid 21
fabri@@ 21
fahrenheit 21
fajardo 21
feast 21
finds 21
flipcover 21
food@@ 21
frida 21
fying 21
gamusa 21
genevieve 21
gest 21
glazed 21
grommet 21
gypsy 21
hac 21
hailey 21
hall 21
hana 21
hearty 21
hibiscus 21
htt@@ 21
huggable 21
hughes 21
human@@ 21
hundred 21
icecream 21
ik 21
ila@@ 21
illumin@@ 21
includes 21
increase 21
instal@@ 21
intermediate 21
intro@@ 21
ipx 21
itachi 21
jergens 21
jon 21
juvia 21
jz 21
kalimba 21
kar 21
kata 21
katie 21
kinetic 21
kingever 21
kko 21
klay 21
knit@@ 21
know@@ 21
koni@@ 21
kosh 21
kung 21
kwan 21
ladybug 21
landscape 21
languages 21
lanolin 21
launcher 21
lazuli 21
lead@@ 21
lear@@ 21
led@@ 21
lenn 21
leon 21
lete 21
liberty 21
lighted 21
lind@@ 21
lipstain 21
loa@@ 21
loading 21
longsleve 21
lons 21
lows 21
lunar@@ 21
lyla 21
lyra 21
mach 21
mademoiselle 21
mandy 21
margot 21
masonry 21
mattifying 21
maxxis 21
mcdavid 21
mcdodo 21
mcg 21
mercer 21
metrical 21
metry 21
mic@@ 21
micron 21
microtex 21
miguel 21
mika 21
millen@@ 21
mitten 21
moonstone 21
morocco 21
mother@@ 21
moun@@ 21
mtk 21
nah 21
name@@ 21
namu 21
nana@@ 21
nerdy 21
nett 21
newly 21
news 21
ng@@ 21
nightdress 21
nipper 21
nish 21
noble 21
noni 21
nutra@@ 21
oa@@ 21
office@@ 21
ole@@ 21
oled 21
orthodontic 21
outerwear 21
ovo 21
packets 21
panyo 21
parade 21
passi@@ 21
pcie 21
pedi 21
pediasure 21
pepero 21
pera 21
perfect@@ 21
petroleum 21
pinwheel 21
plac 21
plunging 21
polaris 21
pony@@ 21
pooch 21
princesses 21
profession@@ 21
profile 21
promil 21
promod 21
purr 21
purses 21
pyramid 21
pz 21
qiyi 21
qw@@ 21
racy 21
radical 21
raion 21
rais@@ 21
recon 21
reducing 21
reindeer 21
reinfor@@ 21
reliever 21
remember 21
rhea 21
rhian 21
rid@@ 21
rita 21
ritual 21
rodriguez 21
round@@ 21
rz 21
saemmul 21
sasuke 21
scha@@ 21
scoopy 21
screws 21
scrunchies 21
sean@@ 21
seba@@ 21
seedling 21
sekushi 21
sellers 21
semilarge 21
separ@@ 21
setter 21
shallow 21
shiba 21
shirataki 21
shou@@ 21
shs 21
shut 21
shuya 21
sight 21
sins 21
sinu@@ 21
sitting 21
slin@@ 21
smocking 21
snorkeling 21
softbound 21
solemate 21
soul@@ 21
souls 21
soundbar 21
spam 21
sponges 21
spots 21
ssel 21
standees 21
stard 21
stich 21
stv 21
styled 21
suit@@ 21
superb 21
superdry 21
sure@@ 21
surg@@ 21
suyod 21
sv 21
sv@@ 21
sweatpants 21
swoosh 21
taclight 21
takoyaki 21
tam 21
tastic 21
tay@@ 21
tca 21
teen@@ 21
tek@@ 21
tend 21
tested 21
testers 21
tigger 21
tio 21
tle@@ 21
toes 21
tol@@ 21
tolda 21
totu 21
tow@@ 21
travis 21
tsa 21
tum 21
tures 21
tyshop 21
umb@@ 21
uncommon 21
ured 21
urinal 21
uses 21
vaio 21
vali@@ 21
vate 21
vation 21
vert 21
verti@@ 21
vette 21
vl 21
vmi 21
voyage 21
waist@@ 21
wear@@ 21
wee@@ 21
wel 21
windmill 21
wo 21
women@@ 21
wrist@@ 21
xen@@ 21
xipin 21
yar@@ 21
yb 21
yee@@ 21
yj@@ 21
zaine 21
zenutrients 21
è 21
aba 20
abacus 20
abonne 20
absor@@ 20
adven@@ 20
age@@ 20
ageless 20
aio 20
ako@@ 20
alexander 20
alfred 20
ally@@ 20
althea 20
alto 20
alyn 20
angelfashion 20
anko 20
ann@@ 20
anton@@ 20
aozi 20
ape 20
appearance 20
aquari@@ 20
arthur 20
asda@@ 20
aters 20
aud@@ 20
baellerry 20
bart 20
beasts 20
beautika 20
bebeta 20
beginning 20
bela 20
bett@@ 20
bib@@ 20
bills 20
bitter 20
bless@@ 20
blit@@ 20
blkshp 20
blocking 20
bloom@@ 20
bluetooh 20
blv 20
boarding 20
bobby 20
bottega 20
brassi@@ 20
brun@@ 20
buko 20
bur 20
caffeine 20
camelbak 20
candie 20
cani@@ 20
canter 20
caplets 20
cardinal 20
cated 20
cavity 20
chalkboard 20
cham@@ 20
chameleon 20
chanyeol 20
chemistry 20
chen@@ 20
church 20
clai@@ 20
climbing 20
clothesline 20
cockroach 20
colar 20
cold@@ 20
colle 20
colu@@ 20
composition 20
concentr@@ 20
condi@@ 20
condiments 20
confidence 20
convention 20
cotta 20
creat@@ 20
crisps 20
cristina 20
curity 20
cynthia 20
dame 20
daypack 20
dazzle 20
ddie 20
deadbolt 20
dealer 20
dean 20
deco@@ 20
def@@ 20
defining 20
dermal 20
dess 20
dimm 20
dishwasher 20
disney@@ 20
doterra 20
drums 20
earpick 20
earth@@ 20
ec@@ 20
effici@@ 20
eggplant 20
eilish 20
empress 20
enterprise 20
epi 20
erin 20
eta 20
even 20
exam 20
extracts 20
ffe 20
fh 20
filament 20
filtration 20
finding 20
fj@@ 20
fjallraven 20
fjs 20
foe 20
foiled 20
foreign 20
forms 20
fsl 20
fting 20
fty 20
funandsmart 20
functions 20
fundamentals 20
furi@@ 20
ganoderma 20
gem@@ 20
ggie 20
gibson 20
ginebra 20
glamorosa 20
glamorous 20
glorious 20
gmo 20
gms 20
goodbye 20
goya 20
gra 20
graph@@ 20
hairbrush 20
hairdressing 20
haphapph 20
hardness 20
hawaii 20
heal@@ 20
hee 20
hermès 20
heuer 20
hguc 20
highend 20
hiphop 20
hokkaido 20
hol 20
holmes 20
hongli 20
houndstooth 20
hugger 20
ick 20
ido 20
ilo@@ 20
iners 20
infantino 20
infer@@ 20
infin@@ 20
installation 20
invicta 20
ipad@@ 20
ita@@ 20
izumi 20
jae@@ 20
jani@@ 20
jeon@@ 20
jja@@ 20
johnny 20
johnsons 20
jumsuit 20
juniper 20
kam@@ 20
kamen 20
katty 20
kdrama 20
kera@@ 20
kidsafe 20
kitchen@@ 20
kixx 20
kleancolor 20
kneepads 20
kopf 20
korilakkuma 20
kwen@@ 20
kyocera 20
laco@@ 20
lambskin 20
lameila 20
lampshade 20
lant 20
lany 20
lari@@ 20
laugh 20
leboy 20
ler@@ 20
les@@ 20
levithan 20
lineshop 20
listic 20
liter@@ 20
litt@@ 20
lives 20
llo 20
loki 20
lorac 20
lowe@@ 20
lstar 20
luigi 20
lumia 20
majestic 20
mango@@ 20
masque 20
meco 20
meiya 20
ment@@ 20
mentho@@ 20
metis 20
mick@@ 20
mickeymouse 20
milan 20
mimosa 20
ministar 20
missugars 20
mize 20
mized 20
mmi 20
mmmmm 20
moby 20
momoso 20
mongol 20
morgan 20
mot@@ 20
motivational 20
mrg 20
mudmaster 20
murakami 20
mustang 20
naomi 20
nations 20
nec 20
need@@ 20
neocell 20
nhc 20
nike@@ 20
ning@@ 20
noo@@ 20
nora 20
notepads 20
nuit 20
nunbell 20
oakley 20
olite 20
onix 20
opium 20
optics 20
oran 20
ore@@ 20
oregano 20
orient 20
ort@@ 20
orted 20
orth@@ 20
pac 20
packet 20
pacsafe 20
pag 20
pearly 20
pedia 20
peppapig 20
pheno@@ 20
philosophy 20
phshop 20
pinsan 20
planters 20
plunge 20
pompompurin 20
portia 20
ppee 20
pper@@ 20
primadonna 20
protect@@ 20
pull@@ 20
push@@ 20
pw 20
qkz 20
quin 20
quiz 20
raffle 20
rainforest 20
rape 20
rav@@ 20
readers 20
recommen@@ 20
reef 20
reggae 20
reign 20
repelling 20
resto@@ 20
resurfacing 20
revenge 20
rica 20
rig 20
rizal 20
rms 20
roma 20
roots 20
rot@@ 20
rtx 20
rue 20
samgyup 20
sapatos 20
sasimi 20
saugwunder 20
scent@@ 20
schedule 20
sean 20
sef 20
selma 20
seuss 20
sg@@ 20
shana 20
shantahl 20
sharpening 20
sherlock 20
shies 20
shopp@@ 20
shuttlecock 20
sleepsuit 20
sleevess 20
smokey 20
snailwhite 20
snap@@ 20
snea@@ 20
snoe 20
soho 20
spanribs 20
sparkly 20
spearmint 20
spel@@ 20
spiced 20
spirit@@ 20
spurs 20
ssh 20
stamp@@ 20
starch 20
step@@ 20
sthe@@ 20
street@@ 20
stun@@ 20
sunkissed 20
supermarket 20
surpri@@ 20
swadd@@ 20
sx@@ 20
take@@ 20
tape@@ 20
tart 20
taway 20
td@@ 20
teak 20
tec@@ 20
tening 20
tess 20
thalia 20
tinapa 20
tinker 20
tix 20
tokkyo 20
tones 20
tot 20
traffic 20
trailblazer 20
trape@@ 20
trenchcoat 20
trf 20
tribe 20
tumb@@ 20
turner 20
tweezers 20
twice@@ 20
tytiffany 20
ude 20
uer 20
ulti@@ 20
ultragirl 20
ultralight 20
uo@@ 20
upper@@ 20
ute 20
uy 20
valerie 20
valkyrie 20
vap@@ 20
venum 20
videoke 20
visco@@ 20
voltes 20
voltron 20
wares 20
weld 20
wgw 20
wheelchair 20
wonderful 20
xg 20
xhilaration 20
xiao@@ 20
xon 20
yaki 20
ych 20
yonk 20
zee 20
zipp@@ 20
zmi 20
ables 19
activator 19
adv 19
afici@@ 19
airbed 19
allergy 19
alo 19
amara 19
amk 19
amuse 19
angie 19
ansi 19
ante 19
anxi@@ 19
aq@@ 19
architecture 19
aryana 19
asa 19
asy@@ 19
atione 19
auxiliary 19
babygirl 19
babyliss 19
bagtag 19
banig 19
batangas 19
battle@@ 19
battleg@@ 19
bazooka 19
behind 19
bestprice 19
bet@@ 19
bey@@ 19
bijin 19
blotted 19
blur@@ 19
bonet 19
bongbong 19
boosting 19
bott@@ 19
boun@@ 19
bourne 19
brandy 19
brembo 19
brey@@ 19
bright@@ 19
brim 19
bush@@ 19
calibur 19
calo@@ 19
camu 19
cares 19
carizma 19
carnelian 19
cash@@ 19
cass 19
cedar 19
celebration 19
cellophane 19
centellian 19
cera 19
chant 19
chaos 19
chico 19
chime 19
chroma 19
chunks 19
city@@ 19
clat 19
cleo@@ 19
clown 19
coastar 19
coby 19
coleman 19
comouflage 19
companion 19
component 19
concea@@ 19
condu@@ 19
condura 19
consu@@ 19
cost 19
cough 19
cowhide 19
crankshaft 19
crawling 19
crescent 19
cru 19
crun@@ 19
cto@@ 19
cuddle 19
cue 19
cyclone 19
dam 19
danger 19
daphne 19
decorated 19
decors 19
desgin 19
det 19
diff 19
digi 19
dior@@ 19
dollar 19
dolph@@ 19
dreamy 19
dresss 19
dura 19
dyosa 19
earcuff 19
eda 19
egy 19
eigh@@ 19
electro 19
enix 19
enlargement 19
ensure 19
epsom 19
epub 19
erica 19
esti@@ 19
euphoria 19
excellence 19
exerci@@ 19
expanding 19
expect@@ 19
eyed 19
faceted 19
families 19
farm@@ 19
fas 19
feb 19
fiber@@ 19
fisheye 19
fixing 19
flipflop 19
florals 19
foli@@ 19
forks 19
forte 19
freshness 19
fring@@ 19
gba 19
gears 19
gentlemen 19
germicidal 19
gged 19
gioia 19
git@@ 19
goals 19
gochu@@ 19
goji 19
goldfish 19
gori@@ 19
gou@@ 19
gozum 19
grapes 19
gree 19
halal 19
haltered 19
hama 19
hardsole 19
harman 19
hart 19
havana 19
hayabusa 19
headlights 19
heavyduty 19
heidi 19
heiress 19
here@@ 19
hia 19
hob@@ 19
honeysuckle 19
honeywell 19
hoover 19
horse@@ 19
house@@ 19
hr@@ 19
hul@@ 19
hunters 19
hyperx 19
iam 19
ike@@ 19
impress 19
including 19
interactive 19
invit@@ 19
ish@@ 19
isla 19
izer 19
jaclyn 19
jacqu@@ 19
jake 19
jap 19
jayson 19
jeanne 19
ject 19
jedi 19
jetflash 19
jie 19
jil@@ 19
jlh 19
jud@@ 19
juices 19
jumshort 19
kakashi 19
kaku 19
kama@@ 19
kanteen 19
kees 19
kellogg 19
kidd 19
killing 19
kirei 19
kissy 19
kkjjshop 19
kku 19
knights 19
knots 19
koby 19
kojicmansi 19
kombat 19
kp 19
kre@@ 19
kulambo 19
kum 19
labs 19
ladie@@ 19
laga 19
lak@@ 19
lazy@@ 19
ldnio 19
leggins 19
lettering 19
lev 19
lexus 19
lipcolor 19
ln@@ 19
lomvum 19
longsleeved 19
loving 19
lowwaist 19
lucent 19
lucky@@ 19
lug 19
lululun 19
luma 19
lynelefootwear 19
mable 19
mace 19
mack@@ 19
magni@@ 19
magsafe 19
mahogany 19
make@@ 19
maliit 19
mand 19
mani 19
marin@@ 19
marykay 19
maxene 19
mechani@@ 19
melatonin 19
merlot 19
merona 19
mikaylashoppe 19
milano 19
mindful 19
mino 19
mitsu@@ 19
mitsushi 19
model@@ 19
modes 19
mom@@ 19
moo@@ 19
mood@@ 19
movall 19
myth 19
nap 19
nathaniel 19
natrol 19
niacinamide 19
nick@@ 19
nonstick 19
not@@ 19
nuggets 19
nutrilite 19
oblong 19
occitane 19
ocean@@ 19
okay 19
okm 19
online@@ 19
onsale 19
ora@@ 19
orga@@ 19
osp@@ 19
outdoors 19
ove@@ 19
overla@@ 19
paintings 19
pampa@@ 19
pandan 19
partition 19
partner 19
pauline 19
pdf 19
pei 19
personalised 19
phab 19
pick@@ 19
pierre 19
pil 19
plaque 19
plasti@@ 19
pointer 19
poke@@ 19
posse@@ 19
potted 19
pouchie 19
poy 19
preci@@ 19
prise 19
prizes 19
procurement 19
program 19
protectors 19
ps@@ 19
pton 19
pyunkang 19
qb 19
qqjk 19
qual@@ 19
rae 19
rag 19
ragnarok 19
rean 19
reclining 19
reduce 19
reduction 19
regenerist 19
remastered 19
removing 19
resun 19
retur@@ 19
roberts 19
rosewater 19
rot 19
rubbermaid 19
rw 19
savannah 19
sca 19
scal@@ 19
scorpion 19
scrabble 19
scri@@ 19
sday 19
sdsq@@ 19
search 19
selle 19
sensu@@ 19
separate 19
services 19
sexy@@ 19
shen@@ 19
shields 19
shima 19
showcase 19
sity 19
ska 19
skate@@ 19
sketchbook 19
skills 19
skindigm 19
skul@@ 19
skycorp 19
slick 19
smoking 19
smu@@ 19
snorkel 19
soba 19
sock@@ 19
songbook 19
sporti@@ 19
sprea@@ 19
ssle 19
stamped 19
standar@@ 19
steak 19
sting@@ 19
stirrer 19
stone@@ 19
strix 19
stronger 19
stuffedtoy 19
stussy 19
sunshield 19
suspenders 19
sweatshort 19
swingman 19
syringe 19
taco 19
taekwondo 19
tama 19
tama@@ 19
tech@@ 19
tener 19
theobroma 19
thickness 19
thriller 19
tomb 19
tombow 19
topi@@ 19
topping 19
tps 19
trace 19
triang@@ 19
tubing 19
tus@@ 19
umi 19
underpants 19
uniheart 19
upl 19
urs 19
urt 19
using 19
vai@@ 19
valu@@ 19
vden 19
versa@@ 19
vict@@ 19
vio 19
viper 19
visual 19
voopoo 19
vortex 19
wallsticker 19
warehouse 19
wayfarer 19
whim@@ 19
wht 19
widow 19
wie 19
wonderwoman 19
worksheets 19
wrinkles 19
written 19
xz 19
younger 19
yp 19
yufiya 19
zhiyun 19
zin@@ 19
E 18
aal 18
access@@ 18
accu@@ 18
acer@@ 18
adju@@ 18
aeroic 18
affair 18
after@@ 18
agenda 18
aida 18
airwalk 18
alcogel 18
alexandra 18
alfa 18
algae 18
alina 18
alphatoys 18
amarah 18
amaz@@ 18
ambi@@ 18
andrew 18
anson 18
apparatus 18
aring 18
artfx 18
asos 18
athione 18
atomi@@ 18
aus 18
austen 18
authenti@@ 18
aviation 18
baak 18
baku@@ 18
ballon 18
bally 18
banners 18
batt 18
bd@@ 18
being 18
bejeweled 18
bestselling 18
bilog 18
blin@@ 18
bloks 18
blt 18
bluegreen 18
boar@@ 18
bonsai 18
boop 18
bop 18
borax 18
bragg 18
brake@@ 18
brianna 18
brightex 18
brio 18
brtc 18
btm 18
bud 18
buff 18
bush 18
cabbage 18
cabo@@ 18
cai 18
caite 18
canteen 18
carnauba 18
carnival 18
casaya 18
cass@@ 18
cavs 18
cay@@ 18
cch 18
challenger 18
chateau 18
cheer 18
cherry@@ 18
chiller 18
choke 18
choosing 18
chur@@ 18
cils 18
citromint 18
clea@@ 18
clip@@ 18
cmyk 18
colorway 18
compa@@ 18
compli@@ 18
conden@@ 18
condo 18
content 18
cook@@ 18
corales 18
cori@@ 18
corre@@ 18
coupling 18
cpsa 18
crawler 18
croc@@ 18
crossback 18
cumin 18
curls 18
cuties 18
cvi 18
cylindrical 18
dahlia 18
dami@@ 18
daredevil 18
darts 18
dates 18
dating 18
debbie 18
defen@@ 18
denti@@ 18
dere@@ 18
deri@@ 18
dete@@ 18
dewalt 18
dian@@ 18
dickin@@ 18
digits 18
dimensional 18
dinem 18
dini 18
director 18
dista 18
dolphine 18
dong@@ 18
dori@@ 18
dotcom 18
dpi 18
drake 18
drape 18
dupe 18
dutche 18
ecobag 18
ehc 18
electroplating 18
eli 18
emw 18
endurance 18
eneloop 18
energizing 18
enna 18
enti@@ 18
eres 18
ergobaby 18
ety 18
exit 18
ext 18
eyel@@ 18
faces 18
falls 18
felicity 18
fetish 18
fini@@ 18
first@@ 18
foamer 18
folk 18
fondue 18
font 18
formed 18
fortun@@ 18
fourshoppe 18
fourth 18
freestyle 18
fter 18
fucos 18
fujihama 18
funtainer 18
gami 18
garmin 18
gartered 18
gau@@ 18
getti 18
giannis 18
gift@@ 18
gilas 18
gingersnap 18
gis 18
gizeh 18
glitter@@ 18
goldtoe 18
gomez 18
gourd 18
grille 18
gross 18
grove 18
growing 18
gry@@ 18
guerlain 18
gurashi 18
hallmark 18
hana@@ 18
hanford 18
harris 18
hatchimals 18
hauling 18
hbs 18
heatsink 18
heavenly 18
hedgren 18
helix 18
henna 18
hikers 18
hiyang 18
hk@@ 18
hog 18
hsm 18
husband 18
hydroponics 18
ibuy 18
igh 18
iko 18
ingot 18
inse@@ 18
insoles 18
inspiration 18
intelli@@ 18
intensi@@ 18
inverted 18
iqos 18
ito@@ 18
itos 18
jane@@ 18
janylin 18
jeremy 18
jhope 18
jingpin 18
jumperskirt 18
just@@ 18
karate 18
karma 18
kath 18
katsuki 18
keen 18
kemei 18
kimi 18
kind@@ 18
kirin 18
knives 18
koji@@ 18
kolin 18
koyo 18
kus@@ 18
lack 18
lactum 18
laman 18
landing 18
lawn 18
lena 18
leverag 18
links 18
loc 18
lox 18
lust 18
maas 18
mae@@ 18
magne@@ 18
mail 18
malaysian 18
malong 18
mama@@ 18
manhattan 18
manta 18
marula 18
matibay 18
mato@@ 18
maureen 18
mayo 18
mayonnaise 18
maz@@ 18
mazing 18
mbo@@ 18
medallion 18
mentary 18
mery 18
metal@@ 18
meth@@ 18
metro@@ 18
micah 18
micha@@ 18
miche@@ 18
microsdhc 18
microsdxc 18
mikata 18
millie 18
mincer 18
mind@@ 18
mindy 18
minimizing 18
minoxidil 18
missing 18
mister 18
mobius 18
modem 18
moder@@ 18
mohashi 18
moi@@ 18
moisturiser 18
mole@@ 18
monochrome 18
moo 18
mori@@ 18
motorized 18
moul@@ 18
moulding 18
moyou 18
mush@@ 18
naturehike 18
navarros 18
neal 18
neutra@@ 18
nf 18
nfl 18
nial 18
nikki 18
nings 18
nitecore 18
nitrile 18
nj 18
nw 18
nwt 18
nye 18
odorless 18
ofra 18
okinawa 18
omi 18
oppa 18
oracle 18
orignal 18
orize 18
osci@@ 18
otto 18
outlaw 18
oya 18
pain@@ 18
pallette 18
pande@@ 18
parachute 18
pass@@ 18
path@@ 18
pati@@ 18
pechay 18
pevc 18
philip@@ 18
pickled 18
piedras 18
pila@@ 18
pimples 18
pinx 18
pio 18
pis 18
plat@@ 18
plea@@ 18
plin 18
pn@@ 18
pocke@@ 18
pogi 18
poli 18
polished 18
popsocket 18
pore@@ 18
position@@ 18
possi@@ 18
ppa 18
prevention 18
primrose 18
principles 18
problem 18
problems 18
proje@@ 18
psalm 18
pur 18
purchased 18
pyary 18
qoncept 18
quan@@ 18
quarts 18
ques 18
quet 18
qulity 18
rad@@ 18
radial 18
rap 18
rave 18
recharge@@ 18
refined 18
relax@@ 18
renegade 18
repackaged 18
reser@@ 18
reve@@ 18
revive 18
revoltech 18
reward 18
riveter 18
robusta 18
rogue 18
rolled 18
rong 18
rosette 18
rosie 18
roti@@ 18
rus 18
sagada 18
sat 18
scious 18
scouring 18
sculpt 18
seas 18
sedu@@ 18
separator 18
shezi 18
shoebox 18
sienna 18
sion@@ 18
sivanna 18
sixteen 18
skyblue 18
sleepy 18
slits 18
smartheart 18
smatree 18
smell 18
snackers 18
snapdragon 18
soni@@ 18
sophisticated 18
sor 18
sour@@ 18
spect@@ 18
speeds 18
spider@@ 18
spill 18
staples 18
stash 18
stay@@ 18
stephanie 18
stion 18
stormtrooper 18
stretcher 18
stride 18
stron 18
strum 18
styleclub 18
styro 18
sublimated 18
supporter 18
surich 18
swat@@ 18
swee@@ 18
swifty 18
sylvia 18
tablecloth 18
tables 18
tage 18
tainer 18
tambourine 18
tanks 18
tao 18
taper 18
tdd 18
tempe@@ 18
ternos 18
terra@@ 18
than@@ 18
tidy 18
time@@ 18
tion@@ 18
tj 18
toiletries 18
toro 18
tortoise 18
toss 18
town@@ 18
trader 18
tribute 18
tronsmart 18
troy 18
trrrixii 18
tter@@ 18
tung@@ 18
tvi 18
uchiha 18
ui 18
uncharted 18
unde@@ 18
unicor@@ 18
uvc 18
vaping 18
vendetta 18
veneta 18
vernis 18
verus 18
vials 18
vicks 18
vondutch 18
vtow 18
wal 18
waterfall 18
watering 18
weijl 18
weird 18
weng 18
what@@ 18
whead 18
whisper 18
wiz 18
wolf@@ 18
world@@ 18
xd 18
xring 18
xv 18
yuja 18
zelda 18
zeta 18
zevy 18
zic 18
zoids 18
zte 18
B@@ 17
aaaa 17
aang 17
abbey 17
absolute 17
ack 17
adapters 17
adata 17
adobe 17
aer@@ 17
ageing 17
agnes 17
airpod 17
ake 17
alcoplus 17
alle@@ 17
alpa@@ 17
ame 17
anais 17
ances 17
anga 17
ano@@ 17
antiradiation 17
aph@@ 17
appear 17
arkham 17
aromat@@ 17
aromatic 17
arowana 17
arth@@ 17
assi@@ 17
asst 17
asun@@ 17
attraxion 17
aty 17
avatar 17
bagong 17
bait 17
bap 17
bari@@ 17
baro@@ 17
batter 17
bbc 17
beauplus 17
beautic 17
belgian 17
bers 17
beta@@ 17
bey 17
bibli@@ 17
bil@@ 17
billion 17
biodegradable 17
birch 17
blind@@ 17
blinking 17
blood@@ 17
bloomer 17
blushed 17
bobber 17
bondage 17
bouncing 17
bouncy 17
boundaries 17
brad@@ 17
brai@@ 17
bread@@ 17
bren@@ 17
brv 17
bubbly 17
budd@@ 17
buffalo 17
bukid 17
bula@@ 17
caa 17
cafele 17
calci@@ 17
campana 17
candice 17
capture 17
carl 17
carle 17
carlo 17
caroline 17
carpen@@ 17
carto@@ 17
carving 17
celeste 17
cellulite 17
cgm 17
chai 17
charmed 17
cheron 17
choc 17
christo@@ 17
chugoku 17
ciara 17
cine 17
cit 17
citron 17
clicker 17
clipboard 17
cluster 17
cogs 17
cola@@ 17
colla 17
collo@@ 17
colouring 17
comprehen@@ 17
concep@@ 17
conti@@ 17
cony 17
cookbook 17
creeper 17
cuis@@ 17
cule 17
cules 17
culo@@ 17
curious 17
cute@@ 17
daze 17
dead@@ 17
deet 17
dela 17
deliver 17
demolition 17
denture 17
deodorizing 17
designing 17
dess@@ 17
destroy@@ 17
dextro@@ 17
dige@@ 17
discs 17
diswashing 17
dized 17
dkc 17
dockers 17
doreamon 17
dork 17
dormitory 17
eating 17
economy 17
edit 17
egg@@ 17
eled 17
elementary 17
elitebook 17
ella@@ 17
elli 17
emporio 17
eper 17
equi@@ 17
etr@@ 17
eucerin 17
eunice 17
evi@@ 17
exfoliator 17
exhi@@ 17
exo@@ 17
exos 17
expiration 17
extraordinary 17
eyemask 17
fame 17
fang 17
feder@@ 17
ferti@@ 17
ffff@@ 17
ffin 17
fifa 17
finity 17
flaps 17
flatware 17
fleek 17
fling 17
fn 17
freeshipping@@ 17
freesocks 17
fume 17
funky 17
gender 17
georgina 17
getz 17
ghts 17
gic 17
giga 17
gingerbread 17
gleam 17
goodies 17
gowns 17
goyard 17
gripo 17
grisham 17
guaran@@ 17
gulong 17
gutterless 17
gyp@@ 17
hai 17
haier 17
haruki 17
harvey 17
havi@@ 17
haw 17
hazard 17
hbk 17
hdr 17
hed@@ 17
hen 17
hillary 17
howard 17
huayu 17
huda@@ 17
hudson 17
hydra@@ 17
hypno@@ 17
hypo@@ 17
icks 17
ijoy 17
iness 17
ingware 17
innovative 17
inpired 17
instan@@ 17
instinct 17
intake 17
isabel 17
isabella 17
islander 17
itali@@ 17
iwata 17
izone 17
jakarta 17
jamie 17
jardin 17
jas 17
jeansame 17
jeep@@ 17
jeff@@ 17
jegging 17
jima 17
jinghao 17
job 17
jou@@ 17
joyfeel 17
juana 17
juiced 17
kable 17
kali 17
kashi 17
katherine 17
kaya 17
keeping 17
kewpie 17
kite 17
kiyo@@ 17
kopiko 17
kracie 17
kulay 17
kylo 17
laar@@ 17
lage 17
lance 17
lando 17
lating 17
laying 17
lazer 17
leaders 17
leds 17
legged 17
lent 17
lenticular 17
leon@@ 17
leslie 17
ley@@ 17
lick 17
licorice 17
linkin 17
lipo@@ 17
listerine 17
liven 17
llers 17
llian 17
lomo 17
lootbag@@ 17
lv@@ 17
magneto 17
major 17
malibu 17
mallow 17
maltesers 17
mamamoo 17
marcelo 17
margarita 17
mariel 17
marley 17
mask@@ 17
mater@@ 17
maxim 17
mcdonald 17
mecha 17
mefapo 17
meguiar 17
melting 17
messy 17
meta@@ 17
meur 17
michelin 17
microblading 17
midea 17
miles 17
mimo 17
miranda 17
misb 17
mistique 17
mmmm@@ 17
mobilio 17
monday 17
mons 17
mor 17
motorcyle 17
motorstar 17
multiway 17
murayta 17
musi@@ 17
mwash 17
nam 17
neigh@@ 17
nerds 17
nexus 17
nico@@ 17
nipp@@ 17
nrb 17
oids 17
oki 17
oline 17
oner 17
oooo@@ 17
opened 17
panels 17
parfume 17
paro@@ 17
patchouli 17
pci 17
pedals 17
pegs 17
peli@@ 17
pellets 17
percussion 17
perfor@@ 17
perpe@@ 17
philipp@@ 17
pine@@ 17
pinstripe 17
pir@@ 17
places 17
placing 17
planting 17
plas 17
pleasures 17
plextone 17
politan 17
posite 17
posket 17
potions 17
preservation 17
prices 17
prima@@ 17
prive 17
profe@@ 17
puni@@ 17
puppets 17
purity 17
puto 17
pwede 17
qposket 17
quadcore 17
raffled 17
ragusa 17
ramgo 17
redemption 17
reduced 17
reen 17
ref@@ 17
refresher 17
refurbi@@ 17
rem 17
reme@@ 17
rent 17
repti@@ 17
rever@@ 17
revitalisor 17
revol@@ 17
reyes 17
rooster 17
rosal@@ 17
royal@@ 17
royalè 17
rrrr@@ 17
rrx 17
russia 17
sandra 17
saniti@@ 17
sasa 17
scan 17
scy@@ 17
seachem 17
seasonal 17
sehun 17
sexyback 17
shank 17
sharpshooter 17
shawill 17
shee 17
sheila 17
simon 17
siz@@ 17
skill 17
smoke@@ 17
smoky 17
smpac 17
smt 17
smudge 17
snackeez 17
sne@@ 17
snoo@@ 17
solder 17
soother 17
sorter 17
south@@ 17
sparkplug 17
speciali@@ 17
spect 17
sphygmo@@ 17
spray@@ 17
spritz 17
squire 17
sricam 17
stabi@@ 17
stallion 17
stas 17
status 17
stickerless 17
stile 17
stling 17
stren@@ 17
sues 17
suite 17
suka 17
sul 17
sumikko 17
sung@@ 17
sunshade 17
sunsonic 17
supper 17
supre@@ 17
surf@@ 17
surfer 17
surfing 17
surprezza 17
sweetened 17
swer@@ 17
sws 17
sya 17
syl@@ 17
syon 17
tactics 17
tanga 17
tanjun 17
tank@@ 17
taped 17
taro@@ 17
tasty 17
tayo 17
tcl 17
tcm 17
tear@@ 17
teaser 17
techno 17
teflon 17
tet 17
tgph 17
tha 17
thenorthface 17
these 17
thetic 17
thicken 17
thm 17
thumb@@ 17
tigernu 17
topia 17
tote@@ 17
transi@@ 17
traps 17
trave@@ 17
tresor 17
tretta 17
trials 17
trick 17
tropic 17
tsumtsum 17
tte@@ 17
tulips 17
tunnel 17
tv@@ 17
tyk 17
tyl 17
ukayukay 17
ulike 17
ultraman 17
ultrasound 17
unda 17
unik 17
urban@@ 17
use@@ 17
useful 17
user 17
uti@@ 17
variations 17
vator 17
vcd 17
venti@@ 17
veroni@@ 17
vey 17
vey@@ 17
vheauty 17
vibroaction 17
video@@ 17
vigor@@ 17
vla@@ 17
vocal 17
wait 17
wanderlust 17
warfare 17
webber 17
weed 17
weide 17
went 17
whiten@@ 17
worksheet 17
wristlets 17
xxx 17
yin@@ 17
yj 17
yong 17
your@@ 17
yuyu 17
zero@@ 17
zn 17
zom@@ 17
zoomer 17
zs 17
ä@@ 17
F@@ 16
abo@@ 16
absorbing 16
acacia 16
accordion 16
adamantine 16
adi 16
advan 16
agri@@ 16
airconditioner 16
aleg@@ 16
aling 16
alisgp 16
allison 16
almera 16
alternat@@ 16
aly 16
amerilock 16
anch@@ 16
angan 16
angelo 16
ape@@ 16
apple@@ 16
applicable 16
ark 16
aroo 16
arrived 16
arya 16
ashitaba 16
aspirator 16
assault 16
assistant 16
atelier 16
atsu 16
aum 16
aun@@ 16
auxis 16
axel 16
bagsak 16
balck 16
bald@@ 16
banna 16
bareminerals 16
barn 16
barre@@ 16
battlefield 16
begins 16
belle@@ 16
beloved 16
bent 16
bestsellers 16
bikinis 16
bilyaran 16
biogenic 16
bishi 16
blackboard 16
bloo@@ 16
blutooth 16
bly 16
boardbook 16
boat@@ 16
boi@@ 16
bonakid 16
bowler 16
boye 16
bral@@ 16
brallette 16
brey 16
briefcase 16
bt@@ 16
bubi 16
buffer 16
bulgarian 16
burnt 16
butt@@ 16
cab 16
cab@@ 16
caliburn 16
cally 16
camelback 16
cancel@@ 16
cardam 16
cardamom 16
carol@@ 16
cary 16
casey 16
cavendish 16
ccc 16
cci@@ 16
ccl 16
ceci@@ 16
celyn 16
centric 16
cervi@@ 16
chained 16
chalis 16
charged 16
charis@@ 16
chenille 16
chestnut 16
chew@@ 16
chocovron 16
chon@@ 16
cies 16
cigarettes 16
ckie 16
classification 16
clone 16
club@@ 16
clyde 16
cmos 16
colli@@ 16
compartments 16
compu@@ 16
coni@@ 16
contemporary 16
coolwater 16
coon 16
cosy 16
counter@@ 16
creamery 16
crimping 16
crocker 16
croptops 16
crosswind 16
cture 16
cupcakes 16
cursive 16
cut@@ 16
cyber@@ 16
daier 16
dakimakura 16
daytime 16
dden 16
deci@@ 16
deep@@ 16
deer@@ 16
dela@@ 16
demin 16
deraille@@ 16
deskjet 16
develo@@ 16
dfc 16
difier 16
diluted 16
displayport 16
divergent 16
dne@@ 16
doggie 16
doily 16
dood@@ 16
dope 16
double@@ 16
dres@@ 16
drinker 16
drives 16
drug 16
duction 16
duke 16
dup@@ 16
earpiece 16
easter 16
egyptian 16
elantra 16
elasti@@ 16
elba 16
eleanor 16
electronics 16
eleg@@ 16
elizavecca 16
ense@@ 16
envelop 16
erboard 16
erical 16
erika 16
ert 16
evel@@ 16
ewa 16
exodus 16
exq 16
extention 16
fah 16
fairies 16
fannyfashion 16
fashioned 16
fau@@ 16
fd@@ 16
features 16
feel@@ 16
fex 16
fibers 16
figlia 16
finery 16
fizz 16
flameless 16
flan 16
flavou@@ 16
flaw@@ 16
flax 16
flies 16
flood@@ 16
flor@@ 16
florsheim 16
flou@@ 16
flox 16
footmask 16
forces 16
fore 16
forged 16
format 16
frosting 16
fuck 16
fw 16
gage 16
gaiman 16
gangster 16
gano 16
gauntlet 16
gaux 16
gawa 16
geisha 16
ghouse 16
ginal 16
gion 16
glamou@@ 16
gle@@ 16
glutafit 16
gogo 16
goldzan 16
goosebumps 16
goth 16
gravy 16
greens 16
greg@@ 16
grids 16
guine@@ 16
gusto 16
gz 16
habit 16
hack@@ 16
hairtie 16
hamburger 16
handicraft 16
handpainted 16
hasp 16
hate 16
health@@ 16
heated 16
hennesy 16
herbench 16
hers 16
hex@@ 16
hey@@ 16
hori@@ 16
hosp@@ 16
humble 16
hummingbird 16
hurry 16
husk 16
hype 16
iam@@ 16
ichi@@ 16
ilike 16
ima@@ 16
impressions 16
inclined 16
include 16
ingu@@ 16
iridescent 16
irt 16
itake 16
ixpand 16
jdi 16
jessy 16
jkysd 16
jockey 16
joel 16
jou 16
jouer 16
jsn@@ 16
jzsale 16
kapa@@ 16
karimadon 16
kathleen 16
keep@@ 16
kei 16
kenpa@@ 16
ketchup 16
kick@@ 16
kiera 16
kilay 16
koff 16
konektopshop 16
kono@@ 16
kproof 16
ktor 16
kuma 16
kun@@ 16
kure@@ 16
kurstenshop 16
label@@ 16
lancets 16
lander 16
lannister 16
lansinoh 16
lapis 16
lc@@ 16
ledge 16
legal 16
lga 16
liere 16
lifestyles 16
literary 16
literature 16
lium 16
loe 16
longdress 16
loy@@ 16
lrw 16
luminarc 16
lun 16
mabuhay 16
madeline 16
magnifying 16
mah@@ 16
maka@@ 16
mali@@ 16
manometer 16
manu@@ 16
martin@@ 16
mastermind 16
mbus 16
meeting 16
meike 16
mercy 16
metrocity 16
microfibre 16
midori 16
mikaela 16
mille 16
minator 16
minor 16
mirrors 16
miu@@ 16
mizu@@ 16
mk@@ 16
mlt 16
moc 16
moleskine 16
mosqu@@ 16
moyes 16
mpers 16
muk@@ 16
nado 16
naling 16
nels 16
neroli 16
niacin 16
nie@@ 16
nier 16
nor 16
nowitzki 16
nurture 16
nutriliteTM 16
nutritious 16
nvme 16
nvr 16
oct 16
octa 16
oflex 16
ogx 16
ohm 16
oi 16
oleum 16
oll 16
omo 16
onado 16
ond 16
onda 16
onia 16
onlinestore 16
ontz 16
optipro 16
organiser 16
organization 16
ously 16
pak@@ 16
paki@@ 16
palmer 16
paperdolls 16
parklight 16
parti@@ 16
passionate 16
patra 16
pawnable@@ 16
paz 16
peek 16
pei@@ 16
peice 16
perforated 16
petit@@ 16
petti@@ 16
pey@@ 16
phobic 16
pik 16
pitch 16
pix@@ 16
pla 16
playground 16
pment 16
pocket@@ 16
polycarbonate 16
pororo 16
powerplus 16
pra 16
preloved@@ 16
premi@@ 16
premuim 16
presyo 16
proto@@ 16
proud 16
purely 16
qou@@ 16
quad@@ 16
rab@@ 16
rainproof 16
rangers 16
rap@@ 16
ratings 16
realfire 16
reaper 16
recei@@ 16
reed 16
reflect@@ 16
reishi 16
replenishing 16
result 16
retailmnl 16
reu@@ 16
rian 16
rivers 16
rmk 16
rondoletti 16
roun@@ 16
rudy 16
ryj 16
sag@@ 16
sake 16
sakura@@ 16
salomon 16
salsa 16
saltnic 16
sash 16
saucony 16
savings 16
scarves 16
sch 16
seg@@ 16
sele 16
self@@ 16
sell@@ 16
senda 16
separately 16
shabby 16
shakespeare 16
shang 16
shawn 16
shea@@ 16
shir 16
shirley 16
shoes@@ 16
shops 16
shouder 16
sinan@@ 16
singlepuff 16
sipper 16
skir@@ 16
skittles 16
skylinker 16
slam@@ 16
sliced 16
sliders 16
slv 16
smoothness 16
softex 16
somjin 16
sooth@@ 16
sophi@@ 16
sorella 16
souvin@@ 16
spanner 16
spices 16
spon@@ 16
spy@@ 16
stages 16
stat 16
steamboat 16
steelseries 16
stel@@ 16
sti 16
stil@@ 16
stille@@ 16
stique 16
stoys 16
stuffs 16
style@@ 16
sulley 16
surance 16
survivor 16
suzanne 16
swal@@ 16
swissgear 16
sylvanian 16
tae@@ 16
tappet 16
tarteist 16
tazanna 16
teaching 16
teapot 16
technic 16
tekken 16
tely 16
tenga 16
thank@@ 16
thinking 16
tials 16
tite@@ 16
toecap 16
toki 16
toki@@ 16
tol 16
tongs 16
toothgel 16
tors 16
trafalgar 16
tranexamic 16
trendsetter 16
tric 16
trophy 16
tuf 16
tura 16
tural 16
ture@@ 16
tweety 16
twix 16
tyr 16
ulifeshop 16
uncanny 16
undere@@ 16
uns 16
uter 16
vape@@ 16
vapor@@ 16
vector 16
vely 16
vement 16
veria 16
victorinox 16
vincent 16
viola 16
virtu@@ 16
wafers 16
wallpapers 16
wands 16
waway 16
wax@@ 16
whitegold 16
whitelight 16
winged 16
winning 16
wizar@@ 16
wmns 16
woodworking 16
wunder 16
ww 16
xen 16
xial 16
xxs 16
yag 16
yard@@ 16
ylang 16
yong@@ 16
yoo@@ 16
youtube 16
zashoppe 16
zel@@ 16
zion 16
acs 15
aikas 15
alisa 15
alt 15
amen@@ 15
analyn 15
anpan@@ 15
apartment 15
apo 15
appare@@ 15
arit@@ 15
arna 15
arrow@@ 15
ascen@@ 15
assemb@@ 15
atc 15
ather@@ 15
ati 15
ativity 15
attitude 15
atty 15
aver@@ 15
bac@@ 15
bache@@ 15
bacolo@@ 15
balms 15
balo@@ 15
bamb@@ 15
baskets 15
baso 15
bass@@ 15
bba@@ 15
bbi@@ 15
bejewelled 15
beren@@ 15
beret 15
bial 15
bladder 15
bled 15
bli 15
bosi 15
bottons 15
bour@@ 15
bran 15
brilli@@ 15
bty 15
burp 15
callie 15
camb@@ 15
canola 15
carmat 15
carou@@ 15
catrice 15
caul@@ 15
celand 15
celebr@@ 15
celerio 15
cellet 15
cerin 15
cerine 15
cet 15
ceu@@ 15
ceuti@@ 15
chang 15
chat@@ 15
chek 15
cheri@@ 15
choices 15
christine 15
cia@@ 15
cid 15
cino 15
cion 15
clan 15
clash 15
cleats 15
cleo 15
cloak 15
coasters 15
cofee 15
coffee@@ 15
colonia 15
colum@@ 15
compet@@ 15
cordy@@ 15
corona 15
cosmo 15
cost@@ 15
cote 15
cpp 15
cra 15
culate 15
culti@@ 15
cupid 15
cuts 15
cyl 15
czy 15
cô@@ 15
daug@@ 15
dbj 15
denise 15
depila@@ 15
dest 15
detai@@ 15
detang@@ 15
dez 15
dhe@@ 15
diab@@ 15
diffe@@ 15
dim 15
disci@@ 15
dishes 15
dison 15
distor@@ 15
distribu@@ 15
dmill 15
dodo 15
dow 15
drive@@ 15
dude 15
durian 15
during 15
dyse 15
edges 15
edro@@ 15
edu@@ 15
eki 15
elife 15
ellana 15
elmer 15
elvive 15
ember 15
embroi@@ 15
ened 15
ente 15
esi 15
eving 15
fashio 15
fen 15
fibre 15
fibre@@ 15
flasher 15
floure@@ 15
flouri@@ 15
formation 15
formen 15
fou@@ 15
foxy 15
fran 15
frea@@ 15
frey 15
fton 15
fts 15
galore 15
gamo 15
gano@@ 15
gari 15
gery 15
gfo@@ 15
ghan 15
giga@@ 15
glacial 15
glass@@ 15
gong 15
grains 15
gran 15
grea@@ 15
grim 15
gtr 15
guan 15
guia 15
handbook 15
hao 15
headwrap 15
helena 15
hella 15
hest 15
hie 15
hls 15
hoco 15
how@@ 15
hru 15
hummer 15
ians 15
icure 15
igold 15
iled 15
illes 15
infe@@ 15
infuser 15
inking 15
ior 15
ipl 15
isopro@@ 15
itama 15
jessa 15
joo 15
jp@@ 15
js@@ 15
juven@@ 15
kad 15
kalas 15
kale 15
kap 15
kart 15
kau@@ 15
kawa@@ 15
kening 15
keyhole 15
khm 15
kiki 15
kiko 15
kilo@@ 15
kimb@@ 15
kimmy 15
kindle 15
kity 15
kling 15
kov 15
koya 15
lacta@@ 15
lacto@@ 15
lahat 15
lap@@ 15
leav 15
lf 15
lica 15
lific 15
lillard 15
lis@@ 15
listen 15
lm@@ 15
lob@@ 15
logan 15
lore 15
lovcat 15
loween 15
lozen@@ 15
lustre 15
lustrous 15
lyte 15
madonna 15
makecua 15
makeover 15
mall@@ 15
manic 15
maped 15
marina 15
marte 15
marvelous 15
mascul@@ 15
mbox 15
mco 15
melo@@ 15
mimi@@ 15
miner@@ 15
minu@@ 15
mir 15
mmy@@ 15
mock@@ 15
modu@@ 15
momo@@ 15
money@@ 15
monge 15
mper@@ 15
multifun@@ 15
mur 15
mute 15
nad@@ 15
neg@@ 15
nezuko 15
nfc 15
nh 15
nit 15
nlt 15
note@@ 15
nozzles 15
nsw 15
nwb 15
nxt 15
oin 15
ono@@ 15
opp@@ 15
ops 15
ote 15
ouch 15
oxy@@ 15
palace 15
pam@@ 15
pandor 15
park@@ 15
pbb 15
pebb@@ 15
pel 15
peo@@ 15
perming 15
peroxide 15
phony 15
phox 15
pico 15
pilots 15
pint 15
piper 15
pits 15
plast 15
porcel@@ 15
pot@@ 15
potting 15
powders 15
premix 15
priming 15
primo 15
process 15
prop 15
prostate 15
provi@@ 15
pta@@ 15
pv@@ 15
quali@@ 15
quir@@ 15
raz 15
rc@@ 15
rein@@ 15
rell 15
repel@@ 15
rha@@ 15
rich@@ 15
rims 15
rit 15
ritz 15
rix 15
robin@@ 15
rowell 15
rtec 15
rubberize 15
sanah 15
sap 15
saucers 15
scal 15
screw@@ 15
scrip@@ 15
seawe@@ 15
secon@@ 15
secre@@ 15
sedi@@ 15
servo 15
sett@@ 15
sheena 15
shiel@@ 15
shiela 15
shiro@@ 15
shiwn 15
shments 15
sier 15
sili 15
simm@@ 15
sip 15
size@@ 15
sleeveles 15
sless 15
slight 15
sny@@ 15
soar 15
soled 15
sot 15
spawn 15
spee@@ 15
splice 15
spoo@@ 15
spun 15
ssen 15
ssss 15
stamper 15
state@@ 15
stem@@ 15
sticated 15
str 15
stry@@ 15
stuart 15
suc@@ 15
summ@@ 15
surpli@@ 15
syma 15
taba@@ 15
taking 15
tammy 15
tanako 15
tax@@ 15
teer 15
teme@@ 15
tenda 15
tens 15
terre 15
tg@@ 15
thebalm 15
theon 15
thern 15
threa@@ 15
thu@@ 15
toko@@ 15
traco 15
trailer 15
triu@@ 15
tru 15
trun@@ 15
try@@ 15
tyjewelry 15
uchi@@ 15
uf 15
ugly 15
ule 15
underseat 15
unic 15
urinary 15
usa@@ 15
usha@@ 15
ust 15
uta 15
uwell 15
vagi@@ 15
vas 15
verses 15
vines 15
wander 15
wasabi 15
wcf 15
week@@ 15
westin@@ 15
wh 15
winker 15
winter@@ 15
witcher 15
wome 15
workers 15
wri@@ 15
xion 15
xpost 15
xps 15
yaki@@ 15
yam 15
yokai 15
zman 15
D@@ 14
G@@ 14
U@@ 14
aca@@ 14
aliba@@ 14
allu@@ 14
alty 14
arabi@@ 14
baru@@ 14
bohemi@@ 14
borne 14
bos@@ 14
bund@@ 14
camo@@ 14
chies 14
ciaga 14
cine@@ 14
ckable 14
clou@@ 14
comfor@@ 14
conce@@ 14
corpor@@ 14
cyc@@ 14
daugh@@ 14
dazz@@ 14
dding 14
des@@ 14
design@@ 14
deta@@ 14
diag@@ 14
dometer 14
drin@@ 14
econ@@ 14
econo@@ 14
eez 14
eld 14
enter@@ 14
ergo@@ 14
etu@@ 14
flav@@ 14
fted 14
gradu@@ 14
herba@@ 14
hhhh@@ 14
ii@@ 14
increa@@ 14
iph@@ 14
jean@@ 14
jit@@ 14
kali@@ 14
keima@@ 14
koto 14
leath@@ 14
lele 14
lett 14
llll@@ 14
loun@@ 14
marke@@ 14
mbing 14
meli@@ 14
mizer 14
mpy 14
munch@@ 14
nis@@ 14
nouri@@ 14
olin 14
orchi@@ 14
ow 14
pers 14
pez 14
pilip@@ 14
plus@@ 14
poko 14
potat@@ 14
rally 14
rena 14
rex@@ 14
scul@@ 14
sdasda@@ 14
shine@@ 14
sleve@@ 14
soci@@ 14
sper@@ 14
sri@@ 14
stered 14
studi@@ 14
sue@@ 14
symbo@@ 14
tice 14
trad@@ 14
urus 14
vable 14
valentin@@ 14
vege@@ 14
vil 14
vings 14
virgin@@ 14
voya@@ 14
writ@@ 14
wwww@@ 14
yon@@ 14
zine 14
ç@@ 14
W@@ 13
aby@@ 13
adhe@@ 13
afri@@ 13
ampli@@ 13
anten@@ 13
ase 13
asha 13
assi 13
bask@@ 13
berto 13
bran@@ 13
calli@@ 13
carbonate 13
ccino 13
ceta@@ 13
chal@@ 13
chard 13
chewa@@ 13
choo@@ 13
cleans@@ 13
continu@@ 13
cose 13
cqu@@ 13
dary 13
dget 13
doi@@ 13
elect@@ 13
eno@@ 13
environ@@ 13
erd 13
gabb@@ 13
gang@@ 13
garter@@ 13
ggles 13
gins 13
guar@@ 13
hawai@@ 13
hazel@@ 13
hip@@ 13
ido@@ 13
incredi@@ 13
ird 13
ity@@ 13
joh@@ 13
jul@@ 13
kabu@@ 13
kish 13
lita 13
lulu@@ 13
lution 13
mak@@ 13
massa@@ 13
mathemati@@ 13
mbal 13
mirr@@ 13
monde 13
mosa 13
moufla@@ 13
ord 13
ortho@@ 13
otto@@ 13
oul 13
place@@ 13
pokki 13
proce@@ 13
pullo@@ 13
pus 13
rec 13
refe@@ 13
refriger@@ 13
resur@@ 13
rive@@ 13
ruff@@ 13
ryn 13
sac@@ 13
samgy@@ 13
saur 13
scape 13
seed@@ 13
sene@@ 13
sep@@ 13
seph@@ 13
sheen 13
sible 13
steph@@ 13
stron@@ 13
sumi 13
swing@@ 13
tains 13
tay 13
tbag 13
tium 13
tok 13
trou@@ 13
tube@@ 13
type@@ 13
uss 13
vat@@ 13
vv@@ 13
yana 13
zig@@ 13
zuki 13
ü@@ 13
H@@ 12
S 12
acti@@ 12
appear@@ 12
austra@@ 12
ave 12
ave@@ 12
beca@@ 12
beg@@ 12
beri 12
beyou@@ 12
bian@@ 12
biz@@ 12
branding 12
bree@@ 12
caly@@ 12
captor 12
cess 12
cier 12
clari@@ 12
clothes@@ 12
cock@@ 12
cond@@ 12
cta 12
ctional 12
ddings 12
dece@@ 12
diam@@ 12
ece 12
edo 12
eleph@@ 12
emm@@ 12
enga@@ 12
fah@@ 12
ferre@@ 12
fing@@ 12
flamin@@ 12
fum 12
gath@@ 12
geor@@ 12
ggay 12
gour@@ 12
granu@@ 12
hound@@ 12
hur@@ 12
ila 12
insp@@ 12
integr@@ 12
iri@@ 12
itional 12
jeweled 12
kini 12
lever@@ 12
lite@@ 12
lolli@@ 12
mana@@ 12
medu@@ 12
metri@@ 12
mony 12
mouth@@ 12
mpo@@ 12
naru@@ 12
nt@@ 12
numer@@ 12
obse@@ 12
ool 12
penci@@ 12
pero 12
phy 12
poi@@ 12
powe@@ 12
public 12
rina 12
rine 12
rubb@@ 12
sak 12
sical 12
span@@ 12
sticker@@ 12
strip@@ 12
swear 12
tari@@ 12
temper@@ 12
teng 12
thic 12
tware 12
univers@@ 12
voo@@ 12
vou@@ 12
weather@@ 12
xu@@ 12
zard 12
zma 12
L 11
ampo@@ 11
apr@@ 11
archite@@ 11
athers 11
bangko@@ 11
bie@@ 11
billi@@ 11
bisco 11
blox 11
bry@@ 11
carda@@ 11
chea@@ 11
chine@@ 11
cig@@ 11
coor@@ 11
cord@@ 11
cream@@ 11
derella 11
docu@@ 11
dox 11
dred 11
eeeeeeee@@ 11
erial 11
exa@@ 11
exp@@ 11
feed@@ 11
fessi@@ 11
fici@@ 11
fie@@ 11
filip@@ 11
foam@@ 11
fragr@@ 11
geant 11
gggg@@ 11
gob@@ 11
guer@@ 11
hersh@@ 11
hong@@ 11
ide@@ 11
ign 11
ild 11
itz 11
ize 11
jag@@ 11
jamas 11
jia 11
jic 11
jog@@ 11
kig@@ 11
kom@@ 11
kul@@ 11
kyo 11
lav@@ 11
lega@@ 11
line@@ 11
lio 11
maca@@ 11
manufact@@ 11
measu@@ 11
mide 11
minum 11
miz@@ 11
mous 11
nine@@ 11
noble@@ 11
onate 11
orts 11
oxo 11
pac@@ 11
parfu@@ 11
pert 11
pict@@ 11
pillar 11
polit@@ 11
professi@@ 11
purit@@ 11
refin@@ 11
resso 11
rist@@ 11
ror 11
salt@@ 11
sap@@ 11
sby 11
scend 11
scou@@ 11
shguard 11
solu@@ 11
spaghe@@ 11
spark@@ 11
ssey 11
stepsi@@ 11
stery 11
syner@@ 11
tah 11
tau@@ 11
techno@@ 11
termin@@ 11
tero 11
text@@ 11
thers 11
thia 11
tino 11
treat@@ 11
uch 11
vage 11
vana 11
vies 11
vitamin@@ 11
wata 11
wid@@ 11
wns 11
yer 11
à@@ 11
á@@ 11
K@@ 10
T 10
Y 10
abund@@ 10
acry@@ 10
aki 10
alk@@ 10
alter@@ 10
ament 10
anium 10
atar 10
atmo@@ 10
aug@@ 10
awe@@ 10
bak 10
barbar@@ 10
beaute@@ 10
belgi@@ 10
boot@@ 10
brush@@ 10
cambo@@ 10
capsu@@ 10
cator 10
cello@@ 10
chay 10
chichar@@ 10
ckey 10
clini@@ 10
condition@@ 10
confi@@ 10
conia 10
contin@@ 10
conveni@@ 10
cp@@ 10
cua 10
dashi@@ 10
dem 10
desk@@ 10
deto@@ 10
dick@@ 10
dk@@ 10
enzy@@ 10
essa 10
evangeli@@ 10
even@@ 10
exfoli@@ 10
fice 10
flexi@@ 10
flora@@ 10
foun@@ 10
fron@@ 10
gator 10
gene@@ 10
ght@@ 10
gthen@@ 10
hala@@ 10
haru@@ 10
hing@@ 10
hyalur@@ 10
izu@@ 10
jac@@ 10
jef@@ 10
jum@@ 10
kon 10
lacqu@@ 10
laun@@ 10
lery 10
lipse 10
ller@@ 10
mano 10
marga@@ 10
maybel@@ 10
megui@@ 10
mod@@ 10
modi@@ 10
mph 10
muff@@ 10
myun 10
nap@@ 10
oa 10
omic 10
osa 10
pepper@@ 10
phe 10
phop 10
pran@@ 10
prince@@ 10
pump@@ 10
rear@@ 10
reclin@@ 10
rect@@ 10
reo 10
repli@@ 10
rera 10
retin@@ 10
rober@@ 10
rs@@ 10
samu@@ 10
sanit@@ 10
sche@@ 10
scopic 10
scor@@ 10
scription 10
shka 10
singa@@ 10
sio@@ 10
snake@@ 10
spen@@ 10
square@@ 10
sual 10
taga@@ 10
thick@@ 10
todd@@ 10
toi@@ 10
trit@@ 10
turb@@ 10
uary 10
uler 10
ures 10
ury 10
vention 10
vor@@ 10
vron 10
waii 10
wards 10
wha@@ 10
wren@@ 10
zilla 10
á 10
ᅠ 10
A 9
OR@@ 9
V@@ 9
absorb@@ 9
aiba 9
amin 9
apa 9
aphy 9
ational 9
augu@@ 9
autu@@ 9
bake@@ 9
basket@@ 9
begin@@ 9
bena 9
bever@@ 9
boss@@ 9
brat@@ 9
bridesma@@ 9
cact@@ 9
chell 9
chop@@ 9
cocon@@ 9
combin@@ 9
ctis 9
destin@@ 9
dimen@@ 9
due 9
dula 9
dwar@@ 9
dyo@@ 9
erina 9
erio 9
esca@@ 9
ester 9
excel@@ 9
exclu@@ 9
fab@@ 9
fee@@ 9
flake 9
flow@@ 9
fog@@ 9
fone 9
gement 9
given@@ 9
glad@@ 9
gurt 9
handi@@ 9
hdhd@@ 9
hilar@@ 9
immor@@ 9
ind 9
industri@@ 9
initi@@ 9
ione 9
iq@@ 9
kati@@ 9
kayu@@ 9
kel 9
lamb@@ 9
lance@@ 9
laser@@ 9
liber@@ 9
lunch@@ 9
mals 9
mile@@ 9
milton 9
mmable 9
mot 9
mulator 9
onesi@@ 9
onne 9
ordin@@ 9
ornam@@ 9
pari@@ 9
pastil@@ 9
pepti@@ 9
personali@@ 9
prelov@@ 9
pri 9
priced 9
promi@@ 9
pub 9
puncture 9
pwe@@ 9
recor@@ 9
rone 9
sche 9
sket@@ 9
smal 9
soldi@@ 9
soy@@ 9
spadri@@ 9
sps 9
stern 9
sthetic 9
stin@@ 9
stir@@ 9
tacti@@ 9
thentic 9
think@@ 9
tigh@@ 9
tik@@ 9
til 9
tulog 9
vacu@@ 9
vals 9
vance 9
viet@@ 9
vy@@ 9
walt 9
warri@@ 9
zir@@ 9
ø 9
스@@ 9
Y@@ 8
acou@@ 8
adium 8
alog 8
ams 8
aromather@@ 8
atures 8
bact@@ 8
bai 8
baja@@ 8
bani@@ 8
blon@@ 8
blow@@ 8
brazi@@ 8
bus@@ 8
caca@@ 8
cade 8
camel@@ 8
camer@@ 8
cant 8
cellu@@ 8
cf@@ 8
charact@@ 8
cheese@@ 8
chette 8
chopp@@ 8
chun 8
copi@@ 8
craw@@ 8
cryst@@ 8
cuto@@ 8
dder 8
delai 8
dents 8
deon 8
detoxi@@ 8
dino@@ 8
dix 8
drag@@ 8
eart 8
eeee@@ 8
ental 8
euph@@ 8
fav@@ 8
flan@@ 8
flix 8
fused 8
fuser 8
geable 8
gian@@ 8
ginger@@ 8
gings 8
gladi@@ 8
gol 8
gorg@@ 8
grape@@ 8
haiky@@ 8
handle@@ 8
hemi@@ 8
henne@@ 8
hero@@ 8
hija@@ 8
hill@@ 8
ichi 8
imit@@ 8
inary 8
insi@@ 8
ipa@@ 8
jel 8
jitsu 8
jui@@ 8
kari@@ 8
kina 8
kojic@@ 8
lact@@ 8
laure@@ 8
lepuff 8
liar 8
lightly 8
liss 8
load@@ 8
logg 8
lous 8
mes@@ 8
mets 8
micel@@ 8
minima@@ 8
muscle@@ 8
nir@@ 8
nister 8
nity 8
oat@@ 8
ood 8
oon 8
osh@@ 8
packaged 8
pana@@ 8
pape@@ 8
perfe@@ 8
phan@@ 8
philo@@ 8
pillow@@ 8
pired 8
piz 8
plun@@ 8
pok@@ 8
psy 8
pter 8
qua 8
rac 8
rement 8
repe@@ 8
riz@@ 8
roid 8
ryx@@ 8
seam@@ 8
shampo@@ 8
shaw 8
simi@@ 8
sional 8
smat@@ 8
snack@@ 8
ssin 8
story@@ 8
stuffed@@ 8
sturi@@ 8
sunny@@ 8
surve@@ 8
survi@@ 8
swar@@ 8
syru@@ 8
tarte@@ 8
tene 8
tensi@@ 8
ticle 8
tified 8
tings 8
toe@@ 8
trese@@ 8
vuit@@ 8
whide 8
wth 8
xii 8
xis 8
ō@@ 8
N 7
acade@@ 7
acle 7
alche@@ 7
antha 7
api@@ 7
ascor@@ 7
atin 7
basa@@ 7
beaut@@ 7
bom 7
capacit@@ 7
centr@@ 7
cera@@ 7
christi@@ 7
chroni@@ 7
circu@@ 7
coal 7
collap@@ 7
collecti@@ 7
compati@@ 7
compre@@ 7
cove@@ 7
crank@@ 7
cro 7
cullo@@ 7
dants 7
dery 7
deter@@ 7
digit@@ 7
disinfe@@ 7
dus 7
dut@@ 7
educat@@ 7
egy@@ 7
ell@@ 7
emul@@ 7
enri@@ 7
este@@ 7
eter@@ 7
exhau@@ 7
experi@@ 7
fare 7
festi@@ 7
flon 7
fluore@@ 7
fph 7
friend@@ 7
fry@@ 7
funda@@ 7
gable 7
genu@@ 7
gets 7
gio@@ 7
graphi@@ 7
gren@@ 7
grizz@@ 7
gry 7
haku 7
hyun@@ 7
ign@@ 7
inci@@ 7
indivi@@ 7
indu@@ 7
infan@@ 7
innov@@ 7
inox 7
inser@@ 7
inve@@ 7
iry 7
ishig@@ 7
ition@@ 7
kook 7
labor@@ 7
lane@@ 7
llete 7
lyne@@ 7
mainten@@ 7
mandar@@ 7
margar@@ 7
meless 7
membr@@ 7
mickey@@ 7
micron@@ 7
narci@@ 7
nv@@ 7
opu@@ 7
portra@@ 7
ppu@@ 7
prepa@@ 7
pret@@ 7
rede@@ 7
regu@@ 7
reven@@ 7
river@@ 7
runk 7
sali@@ 7
samson@@ 7
savan@@ 7
shal@@ 7
shipp@@ 7
sly 7
smooth@@ 7
sop 7
splay 7
sports@@ 7
squea@@ 7
steen 7
subli@@ 7
sures 7
sut@@ 7
sweeth@@ 7
tasse@@ 7
taz@@ 7
tened 7
tern 7
timber@@ 7
titude 7
toa@@ 7
trail@@ 7
veni@@ 7
wardro@@ 7
wheel@@ 7
zanne 7
zul@@ 7
â@@ 7
ø@@ 7
า@@ 7
NE@@ 6
angeli@@ 6
atory 6
aur@@ 6
auxi@@ 6
banne 6
bano 6
bate 6
bluetoo@@ 6
bonding 6
bong@@ 6
brook@@ 6
buhay 6
bum@@ 6
button@@ 6
bvl@@ 6
cad@@ 6
ccitane 6
celesti@@ 6
centa 6
citro@@ 6
coach@@ 6
coffe@@ 6
compon@@ 6
constel@@ 6
crop@@ 6
crystal@@ 6
dand@@ 6
deodor@@ 6
dering 6
descen@@ 6
deur 6
distri@@ 6
doki 6
edi@@ 6
eliza@@ 6
enser 6
evera 6
expan@@ 6
expand@@ 6
favor@@ 6
ferra@@ 6
fing 6
fiya 6
form@@ 6
france@@ 6
gior@@ 6
handker@@ 6
hoyo@@ 6
icon@@ 6
idea@@ 6
igen 6
ill@@ 6
inclu@@ 6
indonesi@@ 6
instin@@ 6
iser 6
jojo@@ 6
jor 6
jung@@ 6
kami 6
kate@@ 6
kenne@@ 6
kets 6
kinder@@ 6
kland 6
knee@@ 6
ksh@@ 6
kura@@ 6
lain 6
lebr@@ 6
licen@@ 6
lles 6
mare 6
mated 6
mech@@ 6
merchan@@ 6
mica@@ 6
migh@@ 6
mour 6
mple 6
musli@@ 6
musta@@ 6
nage 6
ninja@@ 6
nishing 6
odd@@ 6
oper 6
oroll 6
ouse 6
oy@@ 6
pamba@@ 6
pap@@ 6
perspir@@ 6
pika@@ 6
postale 6
pound 6
prest@@ 6
propel@@ 6
pyra@@ 6
quart@@ 6
quo@@ 6
raff@@ 6
rai 6
reple@@ 6
resu@@ 6
retra@@ 6
rfi@@ 6
ribs 6
roller@@ 6
rri@@ 6
salo@@ 6
salvat@@ 6
sant@@ 6
saudi@@ 6
scienti@@ 6
seal@@ 6
seni@@ 6
shimm@@ 6
shr@@ 6
sleve 6
song@@ 6
sories 6
souven@@ 6
spat@@ 6
stre 6
sum@@ 6
swarov@@ 6
swiss@@ 6
tant 6
tifying 6
tok@@ 6
touring 6
towel@@ 6
toyo@@ 6
tral 6
tured 6
tux@@ 6
ubi@@ 6
ugh 6
uniq@@ 6
uu 6
victori@@ 6
vid 6
vities 6
vor 6
wand@@ 6
willi@@ 6
wis@@ 6
xk 6
ylin 6
å@@ 6
ê@@ 6
ì 6
ó@@ 6
ú@@ 6
ஐ@@ 6
소@@ 6
C 5
D 5
H 5
TM@@ 5
ais 5
alcat@@ 5
almon@@ 5
anci@@ 5
andri@@ 5
annivers@@ 5
april@@ 5
artifi@@ 5
atic 5
bade@@ 5
bime 5
booking 5
bray 5
brie@@ 5
carne@@ 5
cei@@ 5
challen@@ 5
chback 5
chee 5
chev@@ 5
chrono@@ 5
cophone 5
copter 5
cyn@@ 5
dest@@ 5
dient 5
dows 5
duroy 5
eba@@ 5
edition@@ 5
empori@@ 5
engra@@ 5
enhan@@ 5
eous 5
erra 5
eys 5
fear@@ 5
figer 5
furnit@@ 5
fus@@ 5
geek@@ 5
georg@@ 5
gga@@ 5
hava@@ 5
heavy@@ 5
hik@@ 5
hun 5
hyp@@ 5
ices 5
igi 5
infalli@@ 5
inspir@@ 5
jaco@@ 5
jai 5
jano@@ 5
jas@@ 5
juni@@ 5
kand@@ 5
kathle@@ 5
knu@@ 5
kut@@ 5
kutku@@ 5
lade@@ 5
laugh@@ 5
legen@@ 5
lents 5
levit@@ 5
liteTM 5
lum@@ 5
malun@@ 5
mirror@@ 5
mouse@@ 5
mula 5
musc@@ 5
mv@@ 5
neopre@@ 5
nesca@@ 5
neso@@ 5
ney@@ 5
nutr@@ 5
occasi@@ 5
ongs 5
only@@ 5
orter 5
paradi@@ 5
partment 5
pavi@@ 5
ped@@ 5
pengu@@ 5
polis 5
polka@@ 5
popu@@ 5
posable 5
pupp@@ 5
pv 5
quant@@ 5
quel@@ 5
redu@@ 5
reless 5
renew@@ 5
repa@@ 5
replac@@ 5
revie@@ 5
rhine@@ 5
rodri@@ 5
rones 5
rug@@ 5
russe@@ 5
saugw@@ 5
schino 5
scrap@@ 5
season@@ 5
seline 5
sharpen@@ 5
shoulder@@ 5
som@@ 5
spear@@ 5
spired 5
spot@@ 5
squish@@ 5
ssil 5
stradi@@ 5
tac@@ 5
tailo@@ 5
teque 5
teur 5
thol 5
tines 5
tinker@@ 5
tox@@ 5
tpad 5
trance 5
trek@@ 5
tron@@ 5
tupper@@ 5
twen@@ 5
twing 5
ulzz@@ 5
unce 5
urer 5
vive 5
volcan@@ 5
well@@ 5
yaman@@ 5
yesha 5
youn@@ 5
zable 5
zur@@ 5
ö 5
ā@@ 5
ღ@@ 5
년@@ 5
단 5
방@@ 5
이@@ 5
탄@@ 5
G 4
P 4
abyte 4
accor@@ 4
agr@@ 4
aju@@ 4
alls 4
alumini@@ 4
ameli@@ 4
angers 4
angler 4
aphrodi@@ 4
arine 4
atus 4
bale@@ 4
bapti@@ 4
brid 4
bride@@ 4
bulgar@@ 4
cafe@@ 4
canto 4
cari 4
cashe@@ 4
cea@@ 4
centri@@ 4
cert 4
certi@@ 4
cheon 4
chica@@ 4
cians 4
cockroa@@ 4
cylic 4
dges 4
discoun@@ 4
diver@@ 4
dori 4
effe@@ 4
engine@@ 4
erize 4
euni@@ 4
examin@@ 4
fabu@@ 4
fact 4
fans@@ 4
fant 4
farer 4
femin@@ 4
ffel 4
flesh@@ 4
frog@@ 4
gade 4
gena 4
gency 4
ggi@@ 4
gham 4
gne 4
hexa@@ 4
hike 4
hok@@ 4
hour@@ 4
hyg@@ 4
inger@@ 4
ingre@@ 4
inkle 4
iride@@ 4
irts 4
jenni@@ 4
jessi@@ 4
jose@@ 4
kaido 4
kend@@ 4
kori@@ 4
kra 4
lease 4
libr@@ 4
lico@@ 4
literi@@ 4
llard 4
lugga@@ 4
mald@@ 4
maline 4
masturba@@ 4
mathe@@ 4
mediate 4
meleon 4
merce@@ 4
merry@@ 4
mete@@ 4
mez 4
mick 4
mish 4
mns 4
motorcy@@ 4
mson 4
must@@ 4
nation@@ 4
nebu@@ 4
negoti@@ 4
ninten@@ 4
oce@@ 4
onit@@ 4
opa@@ 4
outer@@ 4
papig 4
pean@@ 4
peel@@ 4
piko 4
ples 4
pling 4
ppuccino 4
practi@@ 4
psal 4
purpo@@ 4
refil@@ 4
rema@@ 4
remy 4
resta@@ 4
robu@@ 4
ror@@ 4
rotat@@ 4
sabr@@ 4
salu@@ 4
samp@@ 4
sandal@@ 4
scrun@@ 4
sealable 4
sensat@@ 4
seta 4
shap@@ 4
shape@@ 4
shim 4
simi 4
skit@@ 4
smash@@ 4
souveni@@ 4
spell@@ 4
ssimo 4
storm@@ 4
suckle 4
terran@@ 4
tez 4
tiger@@ 4
tomor@@ 4
transmit@@ 4
trol@@ 4
turtle@@ 4
twee@@ 4
uce 4
ulic 4
upd@@ 4
urumi 4
veable 4
vegetari@@ 4
volution 4
vph 4
weeken@@ 4
whirl@@ 4
wich 4
wot 4
xir 4
yod 4
à 4
í@@ 4
î@@ 4
ï@@ 4
ò@@ 4
ē@@ 4
늘 4
미@@ 4
I 3
M 3
R 3
TE@@ 3
agen@@ 3
alur@@ 3
anasta@@ 3
angular 3
aniel 3
aphro@@ 3
arbu@@ 3
armo@@ 3
ately 3
atex 3
bage 3
baki 3
balen@@ 3
bander@@ 3
bata@@ 3
batan@@ 3
bathro@@ 3
beet@@ 3
bene 3
binders 3
bool@@ 3
bound@@ 3
bson 3
bto@@ 3
buff@@ 3
busti@@ 3
canadi@@ 3
carni@@ 3
carry@@ 3
casse@@ 3
cater@@ 3
catri@@ 3
cct@@ 3
cent@@ 3
cept 3
champa@@ 3
changeable 3
chem 3
chemi@@ 3
chets 3
chiff@@ 3
cidal 3
cly@@ 3
coordin@@ 3
correct@@ 3
crew@@ 3
croche@@ 3
cron 3
dah@@ 3
dak 3
damag@@ 3
dano 3
daph@@ 3
deodori@@ 3
derai@@ 3
dire@@ 3
dise 3
dite 3
dorae@@ 3
dras 3
ecu@@ 3
electron@@ 3
elite@@ 3
elu@@ 3
epo@@ 3
ergon@@ 3
eror 3
facing 3
fcase 3
ferr@@ 3
fessional 3
fiano 3
figu@@ 3
fila@@ 3
fills 3
flag@@ 3
formu@@ 3
frai@@ 3
gashap@@ 3
gens 3
gentle@@ 3
ghao 3
givea@@ 3
glan 3
gyu@@ 3
hashi 3
havai@@ 3
herit@@ 3
holly@@ 3
holo@@ 3
hone@@ 3
hus@@ 3
illustr@@ 3
innis@@ 3
ional 3
irl@@ 3
jibb@@ 3
jz@@ 3
kih@@ 3
klean@@ 3
lambo 3
landers 3
leathe@@ 3
lebee 3
lenti@@ 3
lolo@@ 3
loot@@ 3
luxx@@ 3
macra@@ 3
madel@@ 3
manne@@ 3
mano@@ 3
marcel@@ 3
maure@@ 3
mbers 3
mboo 3
medal@@ 3
media@@ 3
meet@@ 3
mendo@@ 3
mere 3
mexi@@ 3
microwa@@ 3
migu@@ 3
mikay@@ 3
mily 3
mith 3
mizing 3
mmar 3
moiselle 3
momol@@ 3
monit@@ 3
month@@ 3
mountaine@@ 3
mpet 3
mples 3
muna@@ 3
nav@@ 3
nicho@@ 3
nite@@ 3
nong@@ 3
nun@@ 3
oak@@ 3
oca 3
oint@@ 3
oney 3
onto 3
ood@@ 3
ooth 3
opy 3
orized 3
pane@@ 3
pback 3
pecu@@ 3
pega@@ 3
pless 3
pock@@ 3
pomegran@@ 3
porce@@ 3
preg@@ 3
princi@@ 3
pring@@ 3
psi@@ 3
purcha@@ 3
random@@ 3
refri@@ 3
refur@@ 3
retail@@ 3
right@@ 3
rimm@@ 3
roh@@ 3
ruck@@ 3
rying 3
saga@@ 3
scrub@@ 3
septic 3
sfree 3
shipping@@ 3
shri@@ 3
shuttle@@ 3
sicle 3
skele@@ 3
slet 3
snail@@ 3
solo@@ 3
spare@@ 3
sponge@@ 3
stea 3
stice 3
stressed 3
succu@@ 3
tambo@@ 3
tane 3
tapp@@ 3
tate 3
tiff@@ 3
tish 3
tit 3
toge@@ 3
tony@@ 3
tribu@@ 3
trt 3
tty@@ 3
tub@@ 3
ureka 3
urin 3
uty 3
vea 3
vehi@@ 3
vices 3
victor@@ 3
volk@@ 3
volt@@ 3
whi 3
yur@@ 3
zki 3
zzo 3
æ 3
ì@@ 3
í 3
ò 3
ü 3
ć@@ 3
ē 3
ō 3
в@@ 3
ด@@ 3
ส 3
เ@@ 3
ᴀ@@ 3
ᴛ@@ 3
一@@ 3
回 3
承 3
ꪝ 3
ꫀ@@ 3
ꫛ@@ 3
니@@ 3
스 3
양@@ 3
연@@ 3
오 3
유 3
화 3
화@@ 3
J@@ 2
O 2
Q@@ 2
W 2
X 2
X@@ 2
Z@@ 2
abdo@@ 2
aber@@ 2
ador@@ 2
aland 2
alga@@ 2
amel 2
anical 2
anor 2
ansya 2
anteed 2
apol@@ 2
armb@@ 2
asym@@ 2
augh@@ 2
ballo@@ 2
bayin 2
beauté@@ 2
belage 2
beyouthi@@ 2
bily@@ 2
bis@@ 2
blosso@@ 2
buki@@ 2
bumb@@ 2
bume@@ 2
bure@@ 2
bymi 2
canva@@ 2
cavi@@ 2
centials 2
chandeli@@ 2
chbox 2
ched@@ 2
childre@@ 2
chlor@@ 2
cinia 2
citron@@ 2
codi@@ 2
commen@@ 2
corder 2
cray@@ 2
credi@@ 2
cuff@@ 2
cussion 2
daki@@ 2
dare@@ 2
ddin 2
deser@@ 2
despi@@ 2
diac 2
diap@@ 2
dients 2
diet@@ 2
disinfect@@ 2
display@@ 2
disru@@ 2
dmate 2
dmi 2
dot@@ 2
drey 2
echers 2
elan@@ 2
enicorn 2
enta 2
enthu@@ 2
erade 2
erci@@ 2
erine 2
espadri@@ 2
fanny@@ 2
filtr@@ 2
formers 2
fornia 2
frontro@@ 2
gical 2
glossi@@ 2
gradable 2
graff@@ 2
gren 2
gular 2
gura@@ 2
haraju@@ 2
has@@ 2
hemat@@ 2
hersch@@ 2
hexag@@ 2
hog@@ 2
holli@@ 2
huara@@ 2
hugga@@ 2
hyung 2
imar@@ 2
inhal@@ 2
ipe@@ 2
iphon@@ 2
isu@@ 2
itaba 2
ivers@@ 2
kapen@@ 2
karao@@ 2
kboard 2
kham 2
kina@@ 2
kushi 2
ladesh 2
ladlad@@ 2
lagun@@ 2
langu@@ 2
lare 2
lesli@@ 2
letto 2
libee 2
logen 2
luxuri@@ 2
madon 2
maga 2
magn@@ 2
malaya 2
materi@@ 2
mbie 2
mentals 2
milit@@ 2
motive 2
mouflage 2
naugh@@ 2
navar@@ 2
navy@@ 2
nect@@ 2
nego@@ 2
nickelo@@ 2
nutriti@@ 2
nvi@@ 2
ody@@ 2
ofer 2
oise 2
oly@@ 2
onex 2
pand 2
paralle@@ 2
pation 2
patter@@ 2
paulin 2
peni@@ 2
philoso@@ 2
phire 2
phoe@@ 2
pinea@@ 2
pler 2
plex@@ 2
posta@@ 2
pote 2
priz@@ 2
quik@@ 2
rasp@@ 2
rasta@@ 2
rejuvin@@ 2
renheit 2
rescu@@ 2
retai@@ 2
ruff 2
sabi 2
sailor@@ 2
saler 2
sardin@@ 2
sebu@@ 2
second@@ 2
seng 2
shake@@ 2
sham 2
sia@@ 2
sium 2
sopr@@ 2
spande@@ 2
spani@@ 2
splash@@ 2
ssors 2
station@@ 2
submer@@ 2
sune 2
sylvani@@ 2
syo 2
terproof 2
thra@@ 2
tible 2
tobler@@ 2
treme 2
trench@@ 2
tries 2
tuc@@ 2
uling 2
uman 2
unt@@ 2
urant 2
uza 2
veland 2
velous 2
verine 2
versati@@ 2
voron 2
wana 2
wander@@ 2
ware@@ 2
washa@@ 2
xun@@ 2
yeol 2
yoso 2
zema 2
zzles 2
ã 2
ès 2
ë 2
ë@@ 2
ô@@ 2
õ@@ 2
ù@@ 2
ĺ 2
ń@@ 2
ǝ 2
ɢ 2
ɴ@@ 2
ʀ@@ 2
π 2
π@@ 2
ก 2
ง@@ 2
ม@@ 2
อ@@ 2
ไ@@ 2
ᴇ@@ 2
ᴏ@@ 2
キ@@ 2
シ@@ 2
ス@@ 2
ン 2
ー@@ 2
一 2
卐 2
片 2
生 2
기 2
드 2
라 2
비@@ 2
상 2
샤 2
엑@@ 2
오@@ 2
츠@@ 2
코@@ 2
크@@ 2
킨 2
킨@@ 2
푸@@ 2
헤@@ 2
B 1
K 1
U 1
abet 1
advan@@ 1
alar@@ 1
albu@@ 1
alizer 1
alora 1
alphabo@@ 1
alth 1
aluc 1
amarine 1
amethy@@ 1
amide 1
andan 1
annu@@ 1
appar@@ 1
aran 1
ardu@@ 1
armp@@ 1
arpe@@ 1
astron@@ 1
atherine 1
atoys 1
aut 1
baek@@ 1
balt 1
bedro@@ 1
billa@@ 1
bler@@ 1
bona@@ 1
boraca@@ 1
breakable 1
caffe@@ 1
calyptus 1
carab@@ 1
carbure@@ 1
cardig@@ 1
carnau@@ 1
carnit@@ 1
caus@@ 1
ccit@@ 1
cedar@@ 1
ceiver 1
cense 1
cerity 1
chamo@@ 1
chez 1
cific 1
cinnam@@ 1
cmy@@ 1
codile 1
coloure@@ 1
comm 1
commer@@ 1
cormick 1
coro@@ 1
cosmetica 1
crete 1
criss@@ 1
ctical 1
cylin@@ 1
cylindri@@ 1
dator 1
dava@@ 1
decath@@ 1
degre@@ 1
denia 1
dhend@@ 1
diamon@@ 1
dians 1
diction@@ 1
dilu@@ 1
dinner@@ 1
dives 1
doff 1
dough@@ 1
drest 1
ega 1
ellite 1
eneo 1
enthusia@@ 1
envelo@@ 1
eras@@ 1
erole 1
erox 1
execu@@ 1
farlane 1
farra@@ 1
feng@@ 1
fier@@ 1
filipini@@ 1
flector 1
fooda@@ 1
fth 1
fuch@@ 1
gamot 1
gard@@ 1
garten 1
gei@@ 1
gine@@ 1
giraff@@ 1
giv@@ 1
glamp 1
goong 1
gosp@@ 1
gros@@ 1
guar 1
gudeta@@ 1
gueri@@ 1
guez 1
guio 1
gutter@@ 1
hall@@ 1
hatchi@@ 1
heaven@@ 1
heiser 1
highlight@@ 1
hipp@@ 1
hobon@@ 1
hydropon@@ 1
igue 1
inclin@@ 1
infra@@ 1
inge 1
inkles 1
inst 1
inty 1
inver@@ 1
japane@@ 1
jerse@@ 1
jewelled 1
juju@@ 1
juste@@ 1
kaline 1
kelele 1
keling 1
kered 1
ketch@@ 1
kew@@ 1
kinawa 1
kincense 1
knap@@ 1
knor@@ 1
komo@@ 1
kone@@ 1
koto@@ 1
kulele 1
laund@@ 1
laven@@ 1
leap@@ 1
leop@@ 1
letti 1
liary 1
lini@@ 1
lophone 1
madri@@ 1
malay@@ 1
mantine 1
mason@@ 1
mastur@@ 1
mboree 1
mefa@@ 1
meila 1
melroti 1
menstru@@ 1
metsu 1
micidal 1
mido@@ 1
montess@@ 1
mosa@@ 1
mov@@ 1
mption 1
muray@@ 1
mutar@@ 1
nill@@ 1
nio 1
nove@@ 1
obsi@@ 1
ocado 1
octo@@ 1
odor@@ 1
omola 1
oneer 1
onnai@@ 1
opi@@ 1
oppi 1
orary 1
oride 1
otter@@ 1
ouli 1
outfit@@ 1
pago@@ 1
pajer@@ 1
pander 1
panema 1
patch@@ 1
pedia@@ 1
perform@@ 1
perman@@ 1
petro@@ 1
phane 1
plada 1
platin@@ 1
pneu@@ 1
poc@@ 1
poké@@ 1
pome@@ 1
pompo@@ 1
premu@@ 1
prepar@@ 1
probio@@ 1
proble@@ 1
procu@@ 1
prosper@@ 1
pub@@ 1
pyl 1
pyun@@ 1
quency 1
quoise 1
ragnaro@@ 1
rapun@@ 1
recti@@ 1
regat@@ 1
regen@@ 1
religi@@ 1
ricane 1
rile 1
rizo@@ 1
rolet 1
russ 1
russi@@ 1
samgyu@@ 1
sapat@@ 1
saurs 1
scu 1
sery 1
shakespear@@ 1
shanta@@ 1
shirat@@ 1
shisei@@ 1
silhou@@ 1
sior 1
sket 1
smarth@@ 1
socc@@ 1
sofit@@ 1
sportsac 1
ssic 1
ssis 1
stooth 1
stract 1
strous 1
sugars 1
supple@@ 1
swagen 1
swoo@@ 1
tainment 1
tako@@ 1
ternal 1
thay@@ 1
tiga 1
toile@@ 1
tonite 1
tortoi@@ 1
trest 1
trogena 1
trous@@ 1
trum 1
tsum@@ 1
turine 1
turo 1
ubiqu@@ 1
urance 1
utensi@@ 1
varius 1
vational 1
vatory 1
vecca 1
vieve 1
volley@@ 1
vored 1
voy@@ 1
waf@@ 1
wau@@ 1
waukee 1
winkle 1
woori 1
xund@@ 1
yabano 1
yabu@@ 1
zeh 1
zigza@@ 1
zil 1
zix 1
zona 1
zuko 1
zumb@@ 1
ß 1
â 1
æ@@ 1
ème 1
ñ 1
û@@ 1
þ@@ 1
ÿ 1
ć 1
đ@@ 1
ģ 1
ī 1
ī@@ 1
ĸ@@ 1
ĺ@@ 1
ľ@@ 1
ł@@ 1
ń 1
ŏ@@ 1
ŕ 1
ś 1
ş 1
ū@@ 1
ů@@ 1
ź@@ 1
ž@@ 1
ə@@ 1
ɪ@@ 1
ʙ@@ 1
ʜ@@ 1
α 1
β 1
δ@@ 1
ι@@ 1
κ@@ 1
λ 1
μ@@ 1
ξ@@ 1
ψ 1
ψ@@ 1
ω 1
а@@ 1
м 1
н@@ 1
т 1
т@@ 1
ข@@ 1
ค@@ 1
ง 1
จ@@ 1
ช 1
ช@@ 1
ต 1
ต@@ 1
ท@@ 1
น 1
น@@ 1
ป@@ 1
ผ 1
พ 1
ม 1
ย@@ 1
ร@@ 1
ล 1
ล@@ 1
ว 1
ส@@ 1
ห 1
ห@@ 1
อ 1
ะ@@ 1
แ@@ 1
ใ@@ 1
ᄉ@@ 1
ᄋ 1
ᄋ@@ 1
ᅠ@@ 1
ᅳ 1
ᴄ 1
ᴅ@@ 1
ᴋ 1
ᴘ@@ 1
ᴛ 1
ᴜ@@ 1
ủ 1
あ@@ 1
い 1
い@@ 1
ご 1
し@@ 1
す 1
た@@ 1
で@@ 1
に@@ 1
の@@ 1
ほ@@ 1
り@@ 1
ん@@ 1
ク@@ 1
ショ@@ 1
ット 1
ツ 1
ピ@@ 1
ポ 1
ム 1
メ@@ 1
ュ@@ 1
ラ@@ 1
リ@@ 1
レ@@ 1
ン@@ 1
ー 1
丁 1
七@@ 1
丫 1
中@@ 1
他@@ 1
休闲@@ 1
信@@ 1
健@@ 1
出@@ 1
前@@ 1
剪刀 1
医@@ 1
原味@@ 1
吃@@ 1
味 1
品牌 1
嗨@@ 1
图 1
圆 1
圆@@ 1
场@@ 1
坊 1
塩@@ 1
天@@ 1
头@@ 1
奶 1
始@@ 1
子 1
孔 1
定 1
家 1
寳 1
幕 1
广@@ 1
开@@ 1
弥 1
御@@ 1
悲@@ 1
手机@@ 1
抗衰@@ 1
无@@ 1
日@@ 1
日本語 1
旧@@ 1
有@@ 1
木@@ 1
枕@@ 1
果@@ 1
株式会社 1
楼@@ 1
気@@ 1
氣炸鍋 1
池@@ 1
油@@ 1
泫 1
泰@@ 1
浆@@ 1
漫@@ 1
珍珠粉@@ 1
珠@@ 1
甘@@ 1
电@@ 1
画 1
白花@@ 1
笔 1
米@@ 1
糖@@ 1
結 1
维@@ 1
美肌 1
老@@ 1
脾@@ 1
花 1
花樣年華 1
英@@ 1
英文字@@ 1
蘭@@ 1
语@@ 1
買一送一 1
货 1
运动鞋 1
降@@ 1
雅 1
露 1
青春@@ 1
韩国@@ 1
頑@@ 1
预@@ 1
风 1
香草@@ 1
駄@@ 1
黑@@ 1
깨@@ 1
난@@ 1
네@@ 1
녀 1
니 1
다 1
달@@ 1
도@@ 1
들 1
뚜@@ 1
라@@ 1
루 1
루@@ 1
리@@ 1
마@@ 1
만 1
박@@ 1
보@@ 1
븐@@ 1
비 1
뽕 1
서@@ 1
세@@ 1
송@@ 1
쌈@@ 1
아@@ 1
알@@ 1
와@@ 1
웃 1
의 1
인@@ 1
일@@ 1
장 1
준 1
중@@ 1
즈 1
진 1
짬@@ 1
찬@@ 1
타@@ 1
트 1
트@@ 1
틴 1
팩 1
프@@ 1
피@@ 1
하@@ 1
해@@ 1
