for 48938
with 21365
dress 20049
bag 19692
and 19548
set 17888
case 17224
cod 15842
women 13825
black 12455
new 12365
shirt 11962
men 11547
top 11519
in 10872
size 10867
korean 10715
fashion 9985
shoes 9790
kids 9401
authentic 9121
white 9027
original 8914
baby 8859
plus 8691
the 8562
preloved 8483
of 7256
by 7180
mini 7172
sale 7165
high 6532
blue 6459
gold 6225
cotton 6188
quality 6140
free 5913
watch 5759
to 5747
sling 5554
shorts 5540
design 5413
ladies 5380
terno 5373
pants 5305
samsung 5233
long 5224
on 5211
iphone 5185
short 4923
cream 4865
pink 4766
red 4746
pro 4729
box 4724
floral 4664
body 4611
blouse 4538
shoulder 4536
cover 4527
mask 4474
soap 4436
light 4400
hard 4183
silver 4165
color 4106
unisex 4082
glass 4056
leather 4005
nike 3970
hand 3841
usb 3782
small 3762
hair 3732
backpack 3695
one 3692
face 3681
oil 3649
pack 3564
green 3519
denim 3399
casual 3358
skin 3352
led 3286
phone 3271
car 3249
up 3230
brand 3229
piece 3212
live 3179
wallet 3164
necklace 3162
stainless 3091
skirt 3055
matte 3048
hello 3039
polo 2994
kitty 2990
ring 2981
sandals 2960
pcs 2954
soft 2945
tempered 2928
lip 2913
holder 2909
back 2895
plain 2863
girl 2847
printed 2847
all 2842
cute 2834
style 2816
large 2773
bracelet 2706
bluetooth 2702
off 2691
sexy 2686
girls 2684
socks 2676
perfume 2674
water 2672
oppo 2668
jacket 2664
air 2656
only 2637
earrings 2590
anti 2585
battery 2551
cable 2519
gel 2508
huawei 2503
old 2486
mobile 2467
waterproof 2466
charger 2461
medium 2459
powder 2451
kit 2443
sleeve 2412
super 2407
full 2395
pre 2376
pouch 2363
no 2354
rubber 2354
steel 2352
summer 2338
portable 2336
toy 2321
jeans 2319
power 2313
lace 2290
big 2269
out 2268
neck 2256
lotion 2253
bottle 2238
card 2234
premium 2232
wireless 2218
bags 2186
whitening 2163
from 2156
travel 2153
beauty 2131
book 2130
sports 2119
tshirt 2119
max 2109
magic 2106
series 2098
couple 2072
assorted 2064
bundle 2063
motorcycle 2062
brush 2045
us 2045
strap 2037
tops 2033
good 2032
bath 2020
love 2005
fit 1995
print 1995
secret 1993
selling 1964
per 1961
vivo 1960
cap 1921
heart 1906
inspired 1895
sticker 1884
adidas 1880
belt 1847
mens 1831
double 1821
stand 1817
mouse 1810
rose 1792
hot 1781
sleeveless 1765
japan 1762
two 1755
bra 1752
universal 1750
waist 1735
home 1734
type 1730
or 1727
galaxy 1726
care 1725
flower 1725
character 1720
star 1719
round 1710
brown 1709
ultra 1708
onhand 1707
toys 1707
fan 1701
made 1698
plastic 1694
speaker 1686
clear 1684
sleeves 1681
de 1673
organizer 1670
flat 1663
coach 1661
pen 1647
lipstick 1644
crop 1637
camera 1628
my 1625
adult 1623
apple 1623
swimsuit 1618
edition 1614
tote 1614
loved 1612
pocket 1603
tea 1596
classic 1591
tee 1591
lite 1581
milk 1568
natural 1561
ml 1559
best 1553
liquid 1547
candy 1546
spray 1543
organic 1533
yellow 1533
dark 1525
dual 1519
note 1519
boys 1517
tpu 1515
take 1513
collection 1508
accessories 1506
stripe 1497
cut 1481
romper 1481
gray 1479
coffee 1478
boy 1477
victoria 1474
wall 1474
metal 1472
paper 1472
storage 1452
electric 1446
branded 1438
slim 1426
pure 1424
mist 1420
shampoo 1418
trendy 1418
headset 1413
game 1408
chain 1398
tint 1396
eye 1395
pad 1391
cartoon 1386
bar 1385
xl 1381
party 1379
doll 1376
cat 1375
clothes 1374
sando 1374
multi 1372
arrival 1370
pop 1370
shirts 1370
facial 1361
side 1358
dog 1340
skinny 1338
check 1337
makeup 1337
buy 1334
colors 1327
food 1324
prime 1320
jewelry 1317
clip 1292
hoodie 1290
panty 1286
vintage 1286
wash 1284
navy 1282
pc 1282
pillow 1282
shock 1277
gift 1276
protector 1276
silicone 1271
mickey 1268
cup 1261
costume 1257
pendant 1250
charm 1249
laptop 1248
maxi 1248
school 1247
little 1244
knitted 1242
smart 1239
xiaomi 1235
korea 1233
unicorn 1233
checkout 1229
stripes 1225
wear 1223
casio 1221
xs 1221
swimwear 1219
pencil 1214
tees 1211
bts 1204
disney 1204
towel 1204
low 1203
me 1202
handbag 1201
bear 1200
italy 1200
glow 1192
lv 1190
way 1189
digital 1181
slip 1181
works 1177
head 1175
shipping 1172
serum 1168
mirror 1166
bikini 1164
screen 1156
michael 1155
lens 1145
nature 1142
stick 1140
non 1139
single 1138
man 1134
orange 1129
square 1127
basketball 1125
fast 1124
sport 1122
elegant 1120
oem 1117
keychain 1116
sneakers 1116
inches 1111
shockproof 1109
happy 1107
handle 1090
vitamin 1090
kitchen 1084
mk 1080
overruns 1080
tie 1071
lacoste 1069
shop 1067
gucci 1065
nba 1063
genuine 1055
foam 1053
kors 1051
collagen 1049
cherry 1043
ball 1040
button 1040
formal 1040
pet 1040
fashionable 1039
pajama 1030
frame 1029
fresh 1029
tape 1029
chocolate 1028
apparel 1024
crystal 1022
you 1021
womens 1015
nova 1012
jordan 1011
toner 1011
front 1002
mio 1001
zipper 999
jumpsuit 996
sold 995
figure 991
lamp 991
nail 991
tube 991
slippers 989
adapter 980
order 977
eau 975
ink 975
redmi 975
sun 972
cross 971
saudi 971
running 969
canvas 965
forever 964
board 960
wooden 959
charging 955
kid 955
leggings 951
children 948
asus 945
statement 933
bangkok 931
limited 923
earphone 922
washable 920
coin 919
micro 915
shoe 913
velvet 913
pearl 910
make 908
ear 907
purse 907
go 903
christmas 896
essential 892
semi 892
jelly 886
filter 885
funko 882
lucky 881
diamond 880
ribbon 879
adjustable 878
ms 878
ph 878
heels 877
table 874
personalized 871
sony 868
it 863
night 862
fabric 861
bavin 859
fragrance 856
inch 856
palette 851
price 851
available 850
album 849
special 847
thailand 846
office 844
powerbank 844
blush 838
tool 838
stretchable 837
door 833
jersey 833
tester 832
balloon 829
princess 829
jogger 827
outdoor 827
android 826
conditioner 825
e@@ 825
as 824
beach 823
cloth 822
can 821
hd 821
mat 821
birthday 819
switch 815
touch 814
day 812
version 812
rechargeable 810
stone 810
art 809
band 808
years 806
house 805
grey 802
her 801
juice 800
mix 800
diy 798
eyebrow 797
machine 797
purple 796
perfect 794
wrap 794
seller 791
guard 784
re@@ 784
time 782
aloe 780
tv 780
i@@ 779
zara 779
class 776
lock 775
ice 774
headband 773
pair 773
blazer 770
gaming 770
tank 769
chanel 768
key 768
flip 767
marvel 767
toyota 767
string 765
bed 764
grams 764
lego 761
proof 760
stickers 760
cleansing 759
foil 759
oz 759
dry 757
foundation 756
bike 754
king 754
brandnew 753
basic 751
colored 750
books 748
honda 748
used 748
kate 747
bank 744
cheek 743
logo 743
protection 743
scrub 743
longsleeve 742
zenfone 741
lady 740
official 740
jumper 739
curtain 738
k@@ 737
play 737
ukay 737
armor 735
suit 731
foldable 728
overrun 727
mi 725
pieces 724
plated 724
a@@ 723
iron 722
hat 721
your 720
rack 719
diaper 717
sweater 717
woman 717
pull 716
avon 715
plate 715
code 714
wedge 714
toddler 713
customized 710
halter 710
polka 710
chiffon 709
months 707
bb 706
pump 705
guess 702
cleanser 700
clay 698
flash 698
sweet 695
drive 694
ipad 693
se 693
spade 688
xr 688
gluta 685
mesh 685
bodycon 683
keyboard 683
s@@ 682
animal 681
eyeshadow 679
underwear 673
earring 671
complete 670
living 670
be 669
half 667
real 667
wood 665
hp 664
co 661
coat 660
flats 660
usa 660
magnetic 659
tumbler 659
wire 659
colourpop 658
louis 656
brake 654
la 654
line 653
notebook 652
acrylic 651
life 651
human 650
foot 648
disposable 647
professional 646
package 645
striped 645
transparent 643
cold 642
mall 642
photo 640
balm 639
butterfly 639
rejuvenating 638
data 637
personal 637
vuitton 637
cutter 634
decor 633
infant 632
wedding 632
control 631
bow 630
female 630
is 630
o@@ 630
essence 629
fruit 627
cm 625
cellphone 622
pawnable 620
adhesive 619
at 619
edge 618
layer 617
tone 617
vinyl 617
cool 616
cushion 616
capsules 615
queen 614
tag 614
cake 613
core 613
dream 612
stud 612
mic 611
stock 611
mac 610
gathering 609
stereo 608
dc 607
minnie 607
wallpaper 605
cleaner 604
cosmetics 604
pan 604
items 603
seeds 602
hk 600
paint 600
automatic 599
babies 598
extra 598
frozen 598
pads 598
remover 598
self 597
heavy 594
lcd 593
plush 593
replica 593
down 592
quick 591
clutch 590
pandora 589
wholesale 589
microphone 588
longsleeves 587
first 586
pvc 586
converse 583
not 583
onesie 583
imported 582
offshoulder 580
ready 580
safety 580
sheet 580
simple 580
g@@ 579
thick 578
block 576
gundam 576
rainbow 576
world 576
d@@ 574
folding 574
rear 574
uv 574
fits 573
glutathione 573
honey 573
action 571
mug 571
health 570
sugar 570
urban 569
crochet 568
loose 568
checkered 567
shape 567
tree 566
y@@ 565
seat 564
paris 563
tools 563
we 563
link 561
maroon 561
slingbag 561
model 560
newborn 560
roll 559
nylon 557
speed 557
sunglasses 557
wifi 557
hanging 556
motor 556
wild 556
deep 555
dresses 555
carter 552
vera 550
rice 549
spring 549
aluminum 547
moisturizing 547
n@@ 547
ma@@ 546
planner 546
random 546
dr 545
display 544
colorful 543
peach 543
o 542
cards 540
drink 539
glitter 538
acid 537
cardigan 537
embroidered 537
legends 537
turban 537
barbie 536
marikina 536
money 536
nursing 536
grade 535
graphic 534
silicon 534
de@@ 533
bangle 532
vans 532
bedsheet 529
highwaist 528
mate 528
crossbody 527
helmet 526
mango 526
i 525
mascara 525
silk 525
t@@ 525
thin 524
bowl 523
cosmetic 523
family 523
duty 522
roller 522
fila 521
solar 521
lemon 519
racing 519
city 518
port 518
a 517
ceramic 517
bracket 516
spaghetti 516
net 515
sd 515
grip 513
sis 513
kojic 512
remote 510
shower 510
u@@ 510
gap 509
neoprene 509
ootd 509
classy 508
in@@ 508
b@@ 507
lights 507
longchamp 507
snail 507
spoon 506
gown 504
panda 504
snap 504
music 503
shield 503
slimming 503
daily 501
la@@ 501
maong 501
sealed 501
freesize 500
luxury 499
m@@ 499
retro 498
jansport 497
japanese 496
boots 495
pony 495
anime 494
pattern 494
clean 493
croptop 492
stitch 491
knee 490
like 488
pin 488
ankle 487
flare 487
j@@ 487
slipper 487
brow 485
le 485
kylie 484
h@@ 483
how 483
protective 483
le@@ 482
sizes 482
tutu 482
gloves 481
luxxe 481
realme 481
angel 480
c@@ 479
sleepwear 478
souvenir 478
umbrella 478
acne 477
gear 477
pesos 476
purpose 476
beads 475
carbon 475
contact 475
hero 475
push 475
visor 475
ac 474
magnet 474
z@@ 474
cars 473
lg 472
alloy 471
cord 471
dragon 471
plug 471
blanket 470
each 470
f@@ 470
pig 469
pot 469
st 468
clothing 467
l@@ 467
open 467
charcoal 466
hi 466
letter 466
scent 466
polish 465
mint 464
auto 463
batman 463
mg 463
moon 462
stuffed 462
zip 462
ca@@ 461
teens 461
x@@ 461
prints 459
violet 459
bagpack 456
now 455
onesies 455
quartz 454
collar 453
so 453
rashguard 452
earphones 451
jade 451
treatment 451
candle 450
ii 450
mount 450
repair 450
shine 450
based 449
chair 449
beige 448
yamaha 448
aqua 447
breathable 447
socket 447
cd 445
innisfree 445
mermaid 445
replacement 445
ba@@ 444
games 444
infinity 444
rain 444
egg 443
facemask 443
tablet 441
use 441
film 439
patch 439
lunch 438
golden 437
royal 437
bamboo 436
sm 436
caps 435
neo 435
sponge 435
support 435
avengers 434
miracle 434
nintendo 434
sa@@ 433
crown 432
orig 432
pastel 432
baseball 431
fiber 431
metallic 431
mother 431
uniqlo 431
analog 430
butter 430
parfum 430
easy 429
master 429
p@@ 429
solid 429
etude 428
ka@@ 428
drawstring 427
kpop 427
se@@ 427
brief 426
lenovo 425
window 425
r@@ 424
ver 424
wars 424
iconic 423
street 423
baking 422
charge 422
plant 422
male 421
padded 421
pore 421
rare 421
crocs 419
signature 418
washi 418
glossy 417
base 416
e 416
mosquito 416
ro@@ 416
slit 416
year 416
balloons 415
wheel 415
carrier 412
designs 412
tommy 412
delivery 411
mtg 411
sf 411
blade 410
jumpshort 410
sim 410
boss 409
dust 408
es 408
ma 408
romoss 408
under 408
nmax 406
al 405
nude 405
regular 405
republic 405
spandex 405
an 404
bare 404
boho 404
k 404
herbal 402
strawberry 402
dispenser 400
lauren 400
mi@@ 399
salt 399
wax 399
yrs 399
fairy 398
vape 398
avent 397
maybelline 397
wave 397
alcohol 396
li@@ 395
pokemon 395
satin 395
anello 394
fish 394
handmade 394
su@@ 394
alibaba 393
guitar 393
gun 393
starbucks 393
lee 392
poster 392
sets 392
spf 392
lightning 391
moisture 391
promo 391
supreme 391
get 389
vest 389
dolphin 388
id 388
marc 388
sandal 388
sex 388
ta@@ 388
di@@ 387
glue 387
instant 387
s 387
stuff 387
therapy 386
pullover 385
sneaker 385
midi 384
vacuum 384
sa 383
stretch 383
winter 383
edt 382
garden 382
memory 382
over 382
american 381
bsco 381
bulb 380
pa 380
vs 380
arm 379
luggage 379
mo@@ 379
cash 378
chrome 378
scale 378
boxer 377
liner 377
seamless 377
tassel 377
toilette 377
v@@ 377
zoom 376
clearance 375
hook 375
item 375
wide 374
combo 373
do 373
hood 373
knit 373
puff 373
an@@ 371
straw 371
tattered 371
duo 370
flavor 370
puzzle 369
creative 368
fine 368
swimming 368
army 367
cycling 367
finger 367
suede 367
computer 366
end 366
ar@@ 365
audio 365
liptint 365
pa@@ 365
tail 365
heat 364
snow 364
capsule 363
co@@ 363
coconut 363
exo 363
standard 363
tablets 363
un@@ 363
bucket 362
ra@@ 362
products 361
tripod 361
affordable 360
electronic 360
function 360
legit 360
massage 360
awei 359
headphones 359
pairs 359
reusable 359
sea 359
toe 359
z 359
bicycle 358
headphone 358
gas 357
jack 357
vita 357
auth 356
blossom 356
extension 356
al@@ 355
cc 355
na 355
three 355
wet 355
wonder 355
woven 355
disc 354
melissa 354
ss 354
t 354
canon 353
elite 353
drop 352
jo 352
lasting 352
ralph 352
soothing 352
ang 351
bright 351
concealer 351
kiss 351
shell 351
bible 350
system 350
comfortable 349
container 349
eyeliner 349
hub 349
just 349
outfit 349
burberry 348
bears 347
clock 347
da@@ 347
starter 347
tray 347
vanilla 347
w@@ 347
young 347
captain 345
choco 345
packaging 345
bubble 344
daughter 344
drill 344
ed 344
selfie 344
to@@ 344
toothpaste 344
camouflage 343
cartridge 343
en@@ 343
solution 343
bottles 342
laser 342
papaya 342
refill 342
stylish 342
supplies 342
trend 342
manual 341
pipe 341
plaid 341
am 340
dri 340
factory 340
scarf 340
tamiya 340
leaf 339
msm 339
flashlight 338
radio 338
yoga 338
makapal 337
flowers 336
blocks 335
lo@@ 335
pretty 335
toothbrush 335
ds 334
jar 334
keratin 334
ripped 334
basket 333
dvd 333
grand 333
incipio 333
mitsubishi 333
product 333
turtle 333
mr 332
xundd 332
bottom 331
more 331
tribal 331
hdmi 330
bnew 329
mid 329
ti@@ 329
x 329
gloss 328
knife 328
sporty 328
twice 328
america 327
coco 327
mary 327
me@@ 327
approx 326
bvlgari 326
charms 326
chinese 326
spiderman 326
tire 326
active 325
bass 325
grill 325
gym 325
ply 325
ra 325
be@@ 324
htp 324
klein 324
overlap 324
po@@ 324
straight 324
blend 323
decoration 323
havaianas 323
missha 323
shadow 323
si@@ 323
tiger 323
cargo 322
cleaning 322
er 322
sweat 322
floor 321
harry 321
primer 321
ryx 321
xsmax 321
hellokitty 320
brilliant 319
formula 319
lavender 319
peeling 319
tomato 319
banana 318
force 318
ref 318
sleeping 318
stationery 318
aha 317
cropped 317
inflatable 317
glasses 316
him 316
peel 316
l 315
rope 315
sauce 315
stain 315
ford 314
dial 313
muscle 313
bathroom 312
cologne 312
controller 312
die 312
li 312
miss 312
u 312
anne 310
wrist 310
bench 309
cs 309
kobe 309
rock 309
sheets 309
triple 309
desk 308
essentials 308
leaves 308
ls 308
m 308
nice 308
elastic 307
hooded 307
mm 307
na@@ 307
number 307
raincoat 307
ram 307
otg 306
ri@@ 306
space 306
watches 306
drifit 305
fire 305
potter 305
pro@@ 305
shopee 305
dove 304
feeding 304
gen 304
hanger 304
lebron 304
olive 304
decal 303
fork 303
meter 303
mom 303
soul 303
spa 303
wired 303
bleaching 302
choker 302
name 302
stamp 302
jacobs 301
jbl 301
massager 301
microfiber 301
protect 301
rush 301
smooth 301
swim 301
balance 300
en 300
part 300
prada 300
rosegold 300
days 299
inner 299
less 299
ne@@ 299
sky 299
aerox 298
are 298
ion 298
cases 297
fi 297
laneige 297
privacy 297
cabinet 296
highlighter 296
pool 296
sound 296
n 295
neon 295
sakura 295
wrench 295
banner 294
ing 294
mar@@ 294
eco 293
gshock 293
ps 293
rabbit 293
tory 293
deluxe 292
video 292
y 292
ios 291
maternity 291
satchel 291
fragrances 290
aztec 289
bi@@ 289
comb 289
headlight 289
volume 289
coordinates 288
malone 288
multifunctional 288
sachet 288
age 287
cupcake 287
cups 287
deodorant 287
ga@@ 287
puma 287
da 286
dish 286
magical 286
sterling 286
kipling 285
nyx 285
superman 285
desktop 284
dots 284
invitation 284
mold 284
nose 283
ga 282
rash 282
xxl 282
eyelash 281
modern 281
monster 281
ship 281
backless 280
masks 280
sample 280
pambahay 279
photocard 279
curler 278
joy 278
ki@@ 278
kyrie 278
xa 278
dior 277
eyeglasses 277
ha@@ 277
very 277
cam 276
d 276
extract 276
fitness 276
humidifier 276
thermal 276
wheels 276
burch 275
cooler 275
custom 275
do@@ 275
educational 275
maker 275
panel 275
wipes 275
bohemian 274
ins 274
pu 274
resistant 274
room 274
underarm 274
click 273
comics 273
dot 273
friends 273
james 273
sandisk 273
vi@@ 273
c 272
ca 272
ch@@ 272
english 272
pleated 272
son 272
sunscreen 272
supplement 272
cooling 271
edp 271
giveaways 271
rattan 271
so@@ 271
surgical 271
ultimate 271
ar 270
ck 270
hermes 270
ni@@ 270
painting 270
sunflower 270
swarovski 270
acer 269
blender 269
fm 269
lovely 269
p 269
r 269
bell 268
bumper 268
ch 268
deo 268
garlic 268
liter 268
adults 267
bo@@ 267
chest 267
dye 267
fantasy 267
ka 267
monitor 267
smiggle 267
spider 267
true 267
hilfiger 266
nails 266
player 266
removal 266
ashley 265
champion 265
dogs 265
er@@ 265
b 264
booster 264
bralette 264
car@@ 264
faux 264
handheld 264
length 264
see 264
story 264
breast 263
lu@@ 263
training 263
bodysuit 262
compact 262
g 262
paperback 262
pockets 262
te@@ 262
bib 261
chicken 261
messenger 261
studio 261
boost 260
bu@@ 260
monkey 260
ko@@ 259
mixed 259
tan 259
building 258
clips 258
cube 258
el@@ 258
ko 258
pi@@ 258
playstation 257
shades 257
berry 256
h 256
hose 256
rc 256
trimmer 256
valve 255
beautiful 254
christian 254
dangling 254
leopard 254
meters 254
passport 254
seed 254
shaped 254
sock 254
tech 254
fake 253
garterized 253
pressed 253
sheer 253
bento 252
hybrid 252
pressure 252
shade 252
sign 252
tissue 252
ballpen 251
rings 251
el 250
hydrating 250
lips 250
step 250
ts 250
ace 249
armour 249
cami 249
camping 249
f 249
fitted 249
nokia 249
reversible 249
zero 249
charles 248
comfort 248
kiddie 248
organics 248
re 248
ta 248
theft 248
xrm 248
dash 247
leg 247
raider 247
scented 247
tokong 247
diffuser 246
fa@@ 246
marble 246
pod 246
theme 246
twin 246
vneck 246
knot 245
ly 245
perfumes 245
php 245
rhinestone 245
sticky 244
sunnies 244
tab 244
tin 244
bestseller 243
chic 243
detergent 243
lc 243
mineral 243
multicolor 243
press 243
french 242
fur 242
geneva 242
hyundai 242
included 242
indoor 242
london 242
mine 242
sided 242
te 242
bunny 241
comfy 241
four 241
legend 241
moisturizer 241
oversized 241
san 241
seal 241
slide 241
sofa 241
stars 241
strip 241
actual 240
cocktail 240
mustard 240
ordinary 240
philips 240
tela 240
vol 240
coloring 239
po 239
sh@@ 239
business 238
cooker 238
cutting 238
faucet 238
fl 238
learning 238
lining 238
lol 238
relief 238
safe 238
sleeved 238
stroller 238
blackpink 237
club 237
exclusive 237
parts 237
screw 237
wine 237
wristlet 237
alarm 236
bee 235
circle 235
fun 235
ng 235
slime 235
supply 235
beat 234
ex 234
flamingo 234
lever 234
tshirts 234
ballet 233
decals 233
halloween 233
lingerie 233
macbook 233
suzuki 233
tri 233
cctv 232
laundry 232
pens 232
ruffled 232
cookie 231
cu@@ 231
garter 231
gentle 231
heel 231
peplum 231
sweatshirt 231
yo 231
extreme 230
herschel 230
merry 230
sleep 230
snapback 230
adventure 229
hole 229
pe@@ 229
season 229
seventeen 229
stay 229
sublimation 229
bosch 228
ks 228
manila 228
mixer 228
monopod 228
natasha 228
nissan 228
angle 227
eyes 227
horse 227
plains 227
tupperware 227
york 227
around 226
brightening 226
doctor 226
liliw 226
pointed 226
skater 226
cod@@ 225
kimono 225
ribbed 225
rx 225
chips 224
flexible 224
pre@@ 224
printer 224
sensor 224
alpha 223
anastasia 223
energy 223
hs 223
karaoke 223
belle 222
cell 222
marker 222
no@@ 222
photocards 222
sk 222
sparkle 222
straightener 222
almond 221
center 221
or@@ 221
ringer 221
born 220
ke@@ 220
mos 220
robot 220
sense 220
spicy 220
at@@ 219
child 219
combination 219
ers 219
horn 219
intense 219
lot 219
surprise 219
taylor 219
tent 219
buckle 218
chili 218
con@@ 218
contour 218
focus 218
mark 218
puppy 218
tattoo 218
tip 218
cactus 217
fossil 217
hardcover 217
kg 217
resin 217
ruffle 217
skirts 217
sofia 217
spot 217
blood 216
fs 216
healing 216
lightweight 216
read 216
spongebob 216
sun@@ 216
TM 215
buttons 215
carters 215
coral 215
eraser 215
loot 215
matting 215
may 215
batch 214
hg 214
honor 214
linen 214
versace 214
amazing 213
engine 213
it@@ 213
mega 213
tom 213
cheese 212
prelove 212
syrup 212
underwire 212
birkenstock 211
clinique 211
cooking 211
ja@@ 211
peppa 211
right 211
sanitizer 211
toilet 211
tony 211
bandai 210
bershka 210
calamansi 210
emblem 210
penshoppe 210
st@@ 210
stylus 210
feminine 209
heroes 209
lte 209
pooh 209
console 208
embroidery 208
envelope 208
ge 208
hearts 208
mu@@ 208
nine 208
paw 208
th@@ 208
track 208
xperia 208
adaptor 207
bella 207
ft 207
insert 207
moly 207
on@@ 207
student 207
blouses 206
cats 206
chopper 206
ella 206
ku@@ 206
rich 206
wa@@ 206
west 206
av 205
healthy 205
keith 205
loop 205
souvenirs 205
too 205
tri@@ 205
trolley 205
cosrx 204
grinder 204
jag 204
kilo 204
packs 204
panties 204
sole 204
vegetable 204
verse 204
aging 203
elf 203
jo@@ 203
js 203
mario 203
multifunction 203
peanut 203
q@@ 203
ya 203
assembly 202
flex 202
ru@@ 202
sophie 202
tinted 202
bleach 201
cetaphil 201
colour 201
cookies 201
corner 201
jujube 201
material 201
naturals 201
saw 201
slot 201
soda 201
sy 201
w 201
without 201
animals 200
ce@@ 200
con 200
dvr 200
naked 200
restock 200
rgb 200
sticks 200
store 200
any 199
dome 199
flawless 199
fog 199
kay 199
ocean 199
panini 199
spigen 199
total 199
cp 198
crib 198
fi@@ 198
frosted 198
luna 198
omni 198
security 198
combi 197
connector 197
gopro 197
mah 197
mam 197
walker 197
armani 196
barley 196
cacao 196
detox 196
di 196
fold 196
go@@ 196
last 196
ty 196
v 196
am@@ 195
bloom 195
bolt 195
printing 195
eyeglass 194
synthetic 194
war 194
warranty 194
ana 193
dishwashing 193
drawer 193
let 193
warm 193
wool 193
yugioh 193
capacity 192
ever 192
ikea 192
lash 192
nano 192
ba 191
finish 191
fitflop 191
for@@ 191
stove 191
thai 191
tsum 191
view 191
advanced 190
chi@@ 190
clipper 190
daisy 190
jogging 190
look 190
pour 190
run 190
tower 190
washing 190
ya@@ 190
backcase 189
etc 189
label 189
sniper 189
tiny 189
owl 188
ride 188
shaper 188
this 188
airpods 187
junior 187
point 187
super@@ 187
team 187
teddy 187
glitters 186
ho@@ 186
lily 186
mo 186
smartphone 186
tws 186
condition 185
flap 185
fox 185
sunblock 185
tmx 185
amplifier 184
beaded 184
boutique 184
creamy 184
gamepad 184
min@@ 184
monogram 184
nlighten 184
opener 184
scents 184
benefit 183
dryer 183
eagle 183
globe 183
gu@@ 183
insulated 183
invisible 183
john 183
league 183
aid 182
aquarium 182
argan 182
chia 182
gi@@ 182
luminous 182
nut 182
precious 182
sewing 182
shark 182
topper 182
bl 181
coil 181
great 181
lazy 181
dell 180
hi@@ 180
park 180
per@@ 180
picture 180
skincerity 180
toddlers 180
triangle 180
wind 180
activity 179
et 179
eyewear 179
intensive 179
journal 179
nipple 179
ny 179
patches 179
played 179
sh 179
twist 179
valentino 179
airmax 178
comforter 178
copy 178
ex@@ 178
guide 178
layered 178
man@@ 178
platinum 178
plussize 178
sb 178
wings 178
aa 177
craft 177
ginger 177
kirkland 177
ve 177
whole 177
aeropostale 176
bricks 176
cordless 176
driver 176
milky 176
miner 176
oven 176
pan@@ 176
sp@@ 176
alphabet 175
bearing 175
built 175
clamp 175
elephant 175
feather 175
flops 175
sanrio 175
clinic 174
cloud 174
cosplay 174
god 174
gt 174
hammer 174
jeju 174
multipurpose 174
naruto 174
rosary 174
shelf 174
wig 174
anna 173
bangles 173
channel 173
compatible 173
deck 173
pu@@ 173
revolution 173
trial 173
weight 173
ys 173
ci@@ 172
different 172
five 172
ip 172
luxe 172
pm 172
tawas 172
ve@@ 172
bakuna 171
creme 171
hoodies 171
ju@@ 171
pajamas 171
sand 171
shi@@ 171
stones 171
truck 171
bt 170
hip 170
homme 170
kawaii 170
snack 170
work 170
ws 170
amber 169
bio 169
champ 169
don 169
freebies 169
morning 169
paste 169
pride 169
radiation 169
tropical 169
bbq 168
daiso 168
drawing 168
lid 168
movie 168
op 168
santa 168
slides 168
streaming 168
thrones 168
bronze 167
bullet 167
fall 167
fu@@ 167
hugo 167
jumbo 167
notes 167
oval 167
transfer 167
vehicle 167
bs 166
cucumber 166
cylinder 166
os 166
overall 166
pineapple 166
smith 166
spark 166
through 166
away 165
bird 165
curry 165
description 165
dolls 165
dried 165
gallon 165
handy 165
soup 165
teal 165
tf 165
watts 165
ampoule 164
earbuds 164
fat 164
mechanical 164
royale 164
teeth 164
degree 163
diapers 163
emergency 163
file 163
ina 163
jv 163
khaki 163
medical 163
output 163
pacifier 163
purifier 163
straps 163
drying 162
elizabeth 162
ine 162
left 162
med 162
military 162
noodles 162
post 162
ruffles 162
trending 162
tu@@ 162
but 161
glam 161
killer 161
melody 161
mon@@ 161
ombre 161
spiral 161
spy 161
titanium 161
comic 160
hu@@ 160
pedal 160
pillowcase 160
things 160
bone 159
ce 159
curtains 159
functional 159
hobbies 159
intel 159
midnight 159
nm 159
stocks 159
unlocked 159
yourself 159
boxes 158
maam 158
patrol 158
replaceable 158
reseller 158
retractable 158
shopping 158
simply 158
spl 158
ter@@ 158
ad@@ 157
brassiere 157
briefs 157
calculator 157
dolce 157
exercise 157
feet 157
level 157
mild 157
philippines 157
strechable 157
trainer 157
virgin 157
vision 157
autumn 156
boyleg 156
characters 156
collectible 156
diary 156
effect 156
everyday 156
jasmine 156
lo 156
mp 156
sha@@ 156
sp 156
speedy 156
vit 156
watermelon 156
za 156
ai@@ 155
choice 155
compression 155
designer 155
direct 155
drinking 155
durable 155
goggles 155
hiking 155
nivea 155
oatmeal 155
omega 155
pilot 155
place 155
uni 155
air@@ 154
christening 154
disk 154
dozen 154
earings 154
generation 154
lanyard 154
napkin 154
playboy 154
pomade 154
rs 154
sprocket 154
tactical 154
teen 154
uni@@ 154
walking 154
bo 153
gs 153
never 153
novel 153
numbers 153
prince 153
road 153
skechers 153
swing 153
taiwan 153
tough 153
we@@ 153
advance 152
bonnet 152
calvin 152
george 152
layers 152
lion 152
mossimo 152
pets 152
powered 152
shiseido 152
thermometer 152
vga 152
blackhead 151
cole 151
kingdom 151
les 151
peppermint 151
prestige 151
sesame 151
unique 151
bead 150
beans 150
che@@ 150
doraemon 150
false 150
frontrow 150
land 150
lighting 150
lime 150
piyao 150
rectangular 150
remax 150
shea 150
youth 150
burner 149
converter 149
eu 149
fendi 149
ge@@ 149
hardbound 149
ing@@ 149
luffy 149
mommy 149
mop 149
motors 149
paul 149
rom 149
romantic 149
spinner 149
trousers 149
yu@@ 149
changing 148
disinfectant 148
gingham 148
household 148
keto 148
latest 148
optical 148
pepper 148
collections 147
doctors 147
drops 147
farm 147
giant 147
ingco 147
jet 147
raw 147
scissors 147
sec 147
strong 147
twisted 147
va@@ 147
aromatherapy 146
bit 146
copper 146
figures 146
gra@@ 146
je@@ 146
pins 146
reserved 146
roundneck 146
shimmer 146
shot 146
strength 146
wiper 146
xbox 146
boat 145
braided 145
har@@ 145
holiday 145
inverter 145
liters 145
lowest 145
native 145
nendoroid 145
anchor 144
april 144
balls 144
bean 144
bling 144
drum 144
heng 144
kill 144
madre 144
ni 144
onepiece 144
pain 144
shake 144
ver@@ 144
wallets 144
well 144
attire 143
baptismal 143
calendar 143
crew 143
ct 143
du@@ 143
elsa 143
hypoallergenic 143
ler 143
morphe 143
musical 143
saver 143
tata 143
waisted 143
ac@@ 142
gingersnaps 142
grid 142
impact 142
international 142
lab 142
mj 142
rod 142
rotating 142
rubberized 142
scratch 142
snake 142
baby@@ 141
beachkin 141
dear 141
derma 141
fix 141
foaming 141
he@@ 141
here 141
lbc 141
mouth 141
nourishing 141
peripera 141
rm 141
th 141
thor 141
tp 141
unit 141
via 141
vios 141
wing 141
writing 141
assy 140
beverly 140
char@@ 140
fuel 140
harness 140
hills 140
kettle 140
knight 140
ong 140
performance 140
piston 140
quaff 140
sachets 140
seiko 140
stan 140
trio 140
ty@@ 140
witch 140
yarn 140
ali 139
antibacterial 139
beef 139
bra@@ 139
call 139
candles 139
catcher 139
fly 139
gh@@ 139
lift 139
ling 139
munafie 139
our 139
projector 139
repacked 139
scooter 139
smile 139
turmeric 139
vibrator 139
epson 138
men@@ 138
pg 138
pick 138
ports 138
repriced 138
win 138
accent 137
bar@@ 137
binder 137
coated 137
dickies 137
fancy 137
friendly 137
ic 137
italian 137
module 137
rise 137
trading 137
train 137
uniform 137
wardrobe 137
xt 137
boyfriend 136
cage 136
chance 136
dy 136
grower 136
hollow 136
j 136
lan 136
memo 136
pilaten 136
shiny 136
silky 136
sta@@ 136
triumph 136
vanity 136
activated 135
der 135
evening 135
fisher 135
geometric 135
leisure 135
manga 135
miniature 135
mules 135
mushroom 135
my@@ 135
myphone 135
nmd 135
ph@@ 135
reno 135
si 135
six 135
strapless 135
accessory 134
ad 134
bad 134
bioaqua 134
carpet 134
dead 134
glutamansi 134
hoop 134
instax 134
lin 134
ly@@ 134
minifigure 134
nu@@ 134
online 134
outlet 134
skincare 134
ter 134
thread 134
ton 134
toshiba 134
amour 133
before 133
can@@ 133
cast 133
corn 133
empty 133
fantech 133
frogsuit 133
global 133
hobo 133
hq 133
jackets 133
mx 133
parisian 133
project 133
razor 133
rl 133
signal 133
ti 133
fortuner 132
hunter 132
lipo 132
magazine 132
minimalist 132
moist 132
ons 132
pe 132
penguin 132
ponytail 132
reader 132
sl 132
test 132
um 132
ze@@ 132
artificial 131
cl 131
close 131
ethyl 131
eyelashes 131
fab 131
ha 131
hand@@ 131
isuzu 131
ke 131
map 131
oh 131
oshkosh 131
pigment 131
unsealed 131
bali 130
ceiling 130
cha@@ 130
civic 130
closet 130
donut 130
earth 130
elbow 130
era 130
folded 130
han@@ 130
hanabishi 130
hold 130
hw 130
keds 130
lightstick 130
luck 130
makita 130
mountain 130
ninja 130
once 130
palm 130
punch 130
spin 130
tra@@ 130
uno 130
ation 129
bedroom 129
brass 129
chronograph 129
cutie 129
date 129
ground 129
iphonex 129
lantern 129
latex 129
mat@@ 129
mtb 129
ne 129
oils 129
padlock 129
platform 129
scoop 129
splash 129
superstar 129
thermos 129
tour 129
ant 128
carb 128
ed@@ 128
express 128
giveaway 128
gradient 128
grass 128
lip@@ 128
mc 128
minions 128
ointment 128
sam 128
screwdriver 128
shawl 128
snoopy 128
solo 128
split 128
ways 128
zebra 128
aircon 127
au@@ 127
cor@@ 127
dinosaur 127
flow 127
fx 127
himalayan 127
ki 127
melon 127
steamer 127
sy@@ 127
ted 127
throw 127
treats 127
van 127
watercolor 127
wi@@ 127
ariel 126
bi 126
eva 126
fleece 126
fusion 126
han 126
mt 126
renew 126
router 126
salon 126
swift 126
tiffany 126
banpresto 125
blower 125
breastfeeding 125
canvass 125
charlotte 125
cuff 125
external 125
fo@@ 125
footwear 125
hush 125
inside 125
jc 125
johnson 125
lettuce 125
ll 125
multimedia 125
other 125
painted 125
star@@ 125
bomb 124
boston 124
couture 124
exfoliating 124
highquality 124
island 124
ite 124
justice 124
mono 124
sink 124
swiss 124
zircon 124
zodiac 124
castor 123
convertible 123
detachable 123
fe@@ 123
fondant 123
innova 123
kai 123
levi 123
people 123
phones 123
rub 123
softgels 123
ten 123
ag 122
aldo 122
badge 122
black@@ 122
chunky 122
duck 122
elle 122
faith 122
intex 122
marine 122
pampers 122
radiator 122
rick 122
sailor 122
specs 122
ssd 122
station 122
the@@ 122
ah 121
arts 121
blooming 121
cart 121
insect 121
kia 121
match 121
meat 121
permanent 121
shift 121
skull 121
titan 121
warmer 121
ate 120
baofeng 120
foods 120
hyaluronic 120
initial 120
jam 120
jin 120
jump 120
kim 120
olay 120
powdered 120
ray 120
receiver 120
saint 120
spread 120
steering 120
takal 120
beatle 119
bestway 119
blk 119
cartier 119
cath 119
enhancer 119
fern 119
flavored 119
letters 119
los 119
miners 119
needs 119
perry 119
sc 119
sized 119
skin@@ 119
state 119
vr 119
wyi 119
anniversary 118
better 118
daniel 118
freshener 118
pots 118
ryxskincerity 118
scar 118
science 118
second 118
skort 118
smoke 118
teether 118
transformers 118
turtleneck 118
venus 118
aurora 117
carry 117
cat@@ 117
chi 117
ck@@ 117
complex 117
david 117
emoji 117
fc 117
ferrari 117
fluid 117
fruits 117
gar@@ 117
montero 117
nikon 117
nillkin 117
pat@@ 117
pin@@ 117
plates 117
police 117
ro 117
sampler 117
sensual 117
smocked 117
ss@@ 117
studded 117
tier 117
ua 117
wanna 117
wrangler 117
wrinkle 117
ber@@ 116
brother 116
dollshoes 116
flowy 116
gildan 116
gourmet 116
ley 116
motion 116
piano 116
plushie 116
poloshirt 116
pullout 116
sho@@ 116
sparkling 116
spice 116
sprayer 116
tags 116
topshop 116
what 116
winnie 116
zi@@ 116
bf 115
bracelets 115
break 115
chef 115
davis 115
fe 115
jazz 115
joni 115
juicer 115
kidston 115
kraft 115
mama 115
mor@@ 115
nestle 115
power@@ 115
preorder 115
reading 115
squishy 115
strappy 115
tennis 115
trouser 115
vp 115
wa 115
antenna 114
autolight 114
dangle 114
embossed 114
feng 114
gabbana 114
hidden 114
ig@@ 114
iii 114
kw 114
mcm 114
mer@@ 114
nct 114
north 114
nuts 114
ok 114
placenta 114
pp 114
some 114
suction 114
toms 114
twinkle 114
wattpad 114
ze 114
absorbent 113
barako 113
bouquet 113
caramel 113
hb 113
herb 113
ir@@ 113
lotus 113
mc@@ 113
mousse 113
racer 113
ramen 113
rejuvinating 113
sensitive 113
sodium 113
tarte 113
that 113
uk 113
ysl 113
ab 112
and@@ 112
aroma 112
artwork 112
baymax 112
beautederm 112
bob 112
bomber 112
fujifilm 112
ir 112
jr 112
lp 112
ltb 112
maria 112
noir 112
rider 112
skinfood 112
ste@@ 112
themed 112
valentine 112
ab@@ 111
abs 111
bars 111
beltbag 111
bio@@ 111
bread 111
breaker 111
chibi 111
decorative 111
device 111
equipment 111
faced 111
guaranteed 111
huggies 111
ignition 111
jeggings 111
kd 111
loreal 111
molder 111
mud 111
onyx 111
retail 111
stamps 111
stop 111
styling 111
transformer 111
acoustic 110
add 110
aux 110
brushes 110
cj 110
dw 110
fu 110
future 110
gi 110
hy@@ 110
ironman 110
lakers 110
mari@@ 110
polyester 110
q 110
race 110
release 110
rescue 110
rust 110
sunny 110
ur@@ 110
wolf 110
za@@ 110
beer 109
bn 109
dessert 109
dynamic 109
ea@@ 109
flakes 109
gb 109
gifts 109
hollister 109
industrial 109
jesus 109
joystick 109
maintenance 109
making 109
milktea 109
miniso 109
refrigerator 109
saving 109
smash 109
tub 109
vertical 109
von 109
arbutin 108
balenciaga 108
ban@@ 108
bay 108
bombshell 108
buds 108
customize 108
diesel 108
eb 108
euc 108
her@@ 108
ji@@ 108
panasonic 108
pen@@ 108
qu@@ 108
sharpener 108
shopkins 108
strips 108
surf 108
terranova 108
tires 108
upper 108
wheat 108
yard 108
yunteng 108
arrow 107
bale 107
bridal 107
designed 107
diecast 107
floater 107
huda 107
loafers 107
mags 107
own 107
piggy 107
plum 107
potato 107
ting 107
warriors 107
welding 107
bbw 106
blusher 106
bp 106
celebrity 106
chip 106
citrus 106
deer 106
dkny 106
doormat 106
drone 106
ear@@ 106
femme 106
garnish 106
head@@ 106
jane 106
juicy 106
kisses 106
lan@@ 106
oreal 106
plants 106
regulator 106
setting 106
thrifted 106
wo@@ 106
as@@ 105
bangladesh 105
bat 105
cha 105
curl 105
defense 105
forest 105
indian 105
ken 105
lost 105
menow 105
min 105
mto 105
operated 105
please 105
pulley 105
roasted 105
rompers 105
sk@@ 105
soaps 105
sunshine 105
tide 105
tt 105
varsity 105
bond 104
bri@@ 104
bryant 104
buttoned 104
cinderella 104
crazy 104
dental 104
euro 104
ff 104
girdle 104
grab 104
hawk 104
hazel 104
hotel 104
hulk 104
icon 104
keimav 104
kidswear 104
loss 104
marie 104
playing 104
quad 104
repellent 104
rouge 104
rushguard 104
seduction 104
shaver 104
tints 104
tokyo 104
tonymoly 104
trim 104
washer 104
yo@@ 104
ang@@ 103
ani@@ 103
bolts 103
br@@ 103
crepe 103
des 103
driving 103
fighter 103
funny 103
lil 103
manicure 103
measuring 103
omnia 103
petite 103
pie 103
shimano 103
trench 103
universe 103
wand 103
wd 103
about 102
ascorbate 102
aveeno 102
blank 102
bug 102
cdi 102
choose 102
cla@@ 102
cow 102
decay 102
ep 102
flag 102
kelly 102
leash 102
market 102
marks 102
matt 102
pant 102
par@@ 102
ruby 102
scato 102
seven 102
stem 102
swan 102
tor@@ 102
calming 101
collapsible 101
corset 101
covers 101
cutlery 101
dildo 101
discount 101
drain 101
eye@@ 101
folder 101
grow 101
micro@@ 101
new@@ 101
pinky 101
pizza 101
quilted 101
red@@ 101
san@@ 101
sata 101
shui 101
starry 101
tg 101
trash 101
va 101
yi 101
abstract 100
after 100
athletic 100
bc 100
canadian 100
cocoa 100
cpu 100
cy 100
dance 100
divided 100
extender 100
france 100
ger 100
gps 100
kevin 100
ky 100
month 100
oxford 100
pillows 100
pimple 100
pla@@ 100
pls 100
rectangle 100
rejuv 100
slicer 100
south 100
steam 100
stephen 100
superhero 100
thong 100
tm 100
transcend 100
vent 100
vinegar 100
zinc 100
ai 99
aspire 99
ben@@ 99
ble 99
brooch 99
castle 99
chloe 99
cho@@ 99
chuck 99
concentrate 99
detail 99
details 99
fidget 99
flask 99
flyknit 99
gang 99
grape 99
ipaky 99
kawasaki 99
klairs 99
lin@@ 99
lipsticks 99
max@@ 99
mode 99
mugs 99
pj 99
rj 99
sanitary 99
seasoning 99
sjcam 99
united 99
vo@@ 99
walk 99
bha 98
california 98
cookware 98
evil 98
felt 98
fender 98
firefly 98
holika 98
hooks 98
levis 98
md 98
medicine 98
mini@@ 98
nu 98
pl 98
prepaid 98
reflective 98
removable 98
res 98
sharp 98
slacks 98
squarepants 98
stanley 98
value 98
win@@ 98
yeezy 98
abc 97
absorber 97
ash 97
bandana 97
bk 97
brick 97
cafe 97
capri 97
crafts 97
espadrille 97
excellent 97
freeship 97
hands 97
hotwheels 97
ker 97
lashes 97
ll@@ 97
longback 97
ns 97
popular 97
precision 97
protein 97
puritan 97
tiktok 97
touchscreen 97
trunk 97
vitamins 97
windproof 97
aaa 96
amethyst 96
bag@@ 96
clover 96
cy@@ 96
decorations 96
fully 96
gem 96
hair@@ 96
heeled 96
infrared 96
kat@@ 96
loafer 96
mass 96
ou@@ 96
pole 96
stream 96
ten@@ 96
tips 96
top@@ 96
tulle 96
turbo 96
un 96
vial 96
bal@@ 95
bandage 95
bite 95
brazilian 95
bur@@ 95
citronella 95
combined 95
compartment 95
diet 95
dip 95
european 95
final 95
glittery 95
hem 95
jigsaw 95
kingston 95
kt 95
local 95
mazda 95
postcard 95
rat 95
ren@@ 95
skid 95
stent 95
tingi 95
zoo 95
avail 94
belly 94
beyblade 94
calcium 94
cameras 94
colourette 94
dashboard 94
effective 94
giordano 94
grace 94
hop 94
kat 94
keep 94
keeper 94
kin@@ 94
laguna 94
lipcream 94
lippie 94
lyn 94
mattress 94
minion 94
nb 94
network 94
olivia 94
pearls 94
pi 94
recorder 94
safari 94
sc@@ 94
shi 94
stage 94
takara 94
tin@@ 94
volcanic 94
zone 94
allen 93
approved 93
damage 93
delight 93
fiction 93
flour 93
handkerchief 93
huarache 93
hyper 93
ity 93
ivory 93
lenses 93
lux 93
materials 93
mia 93
mod 93
modular 93
mp@@ 93
oxygen 93
panther 93
pencils 93
revlon 93
smok 93
speakers 93
sti@@ 93
surface 93
water@@ 93
abaca 92
ages 92
alice 92
alma 92
ance 92
back@@ 92
booties 92
bride 92
china 92
correction 92
coverage 92
crayon 92
dad 92
dp 92
dy@@ 92
esprit 92
evo 92
feeder 92
herbs 92
ie 92
incense 92
joe 92
joker 92
lang 92
pikachu 92
samyang 92
she 92
show 92
sol 92
sonic 92
tl 92
vapor 92
vary 92
whip 92
xi@@ 92
ara 91
bang 91
dota 91
feel 91
gasket 91
goddess 91
ky@@ 91
mirage 91
pb 91
peeler 91
pr@@ 91
secrets 91
sha 91
stress 91
sushi 91
sword 91
sync 91
tomy 91
tracker 91
xy 91
aesthetic 90
ann 90
arden 90
backpacks 90
bands 90
bnwt 90
bookmark 90
buttondown 90
cadbury 90
champagne 90
engineering 90
et@@ 90
filler 90
firming 90
fishing 90
flight 90
gg 90
gum 90
hipster 90
intelligent 90
isopropyl 90
jojo 90
jy 90
long@@ 90
martin 90
multi@@ 90
oral 90
polymer 90
pumps 90
sing 90
sz 90
tomica 90
torch 90
tre@@ 90
tro@@ 90
unlock 90
amulet 89
anti@@ 89
australia 89
bathing 89
beast 89
cb 89
collared 89
derm 89
expert 89
gd 89
giorgio 89
groceries 89
growth 89
hats 89
have 89
hdd 89
hydro 89
jean 89
keys 89
lightening 89
macaron 89
many 89
mothercare 89
ol@@ 89
pang 89
por@@ 89
runner 89
save 89
sequins 89
shaker 89
soy 89
subwoofer 89
thomas 89
wi 89
will 89
aura 88
basics 88
bin 88
casing 88
chocolates 88
cnc 88
cortez 88
crocodile 88
eyelet 88
hex 88
ipanema 88
its 88
jenna 88
ju 88
lover 88
mb 88
nutrition 88
passion 88
penis 88
sg 88
spencer 88
sto@@ 88
turquoise 88
whistle 88
apron 87
bel@@ 87
cannon 87
cereal 87
deco 87
dustbag 87
fluffy 87
form 87
freeshipping 87
friend 87
fury 87
gp 87
headbands 87
kar@@ 87
kyowa 87
laced 87
lie 87
mocha 87
mystery 87
ranger 87
rea@@ 87
sen@@ 87
starwars 87
ware 87
width 87
yt 87
agate 86
aidelai 86
alex 86
anklet 86
criss 86
curved 86
dining 86
emulsion 86
fountain 86
gen@@ 86
gladiator 86
glittered 86
hairpin 86
hifi 86
mag@@ 86
msi 86
petal 86
piping 86
poly 86
pt 86
rocker 86
romance 86
sam@@ 86
stories 86
storm 86
strike 86
suitcase 86
trap 86
twinning 86
ultrasonic 86
utility 86
workout 86
airplane 85
amy 85
artist 85
birth 85
bundles 85
caliper 85
circular 85
dainty 85
dubai 85
flo@@ 85
gauge 85
got 85
grain 85
gummy 85
hershey 85
irving 85
koko 85
laminated 85
lootbag 85
mamba 85
matcha 85
mer 85
micromatic 85
mighty 85
mousepad 85
multiple 85
neutrogena 85
philippine 85
picks 85
pond 85
roses 85
ry@@ 85
sarah 85
ser@@ 85
squeeze 85
sunset 85
tales 85
talkie 85
temperature 85
tic 85
voice 85
walkie 85
weighing 85
academia 84
ben 84
bre@@ 84
change 84
couples 84
credit 84
cubic 84
dashcam 84
effects 84
faded 84
free@@ 84
goku 84
hawaiian 84
holes 84
hope 84
hydration 84
invoice 84
lacey 84
lia 84
mattel 84
mb@@ 84
need 84
pic 84
pliers 84
raglan 84
recipe 84
reebok 84
ren 84
sage 84
samurai 84
sd@@ 84
topsider 84
vip 84
alkaline 83
atomizer 83
av@@ 83
babe 83
blue@@ 83
bon@@ 83
burst 83
butt 83
crush 83
earing 83
em@@ 83
fashion@@ 83
give 83
gorgeous 83
grooming 83
heist 83
hongkong 83
hoody 83
ken@@ 83
kenneth 83
kong 83
lipbalm 83
lt 83
lubricant 83
mounted 83
pages 83
persona 83
psp 83
record 83
rim 83
sephora 83
standee 83
stray 83
studs 83
study 83
vault 83
who 83
wish 83
ye@@ 83
ag@@ 82
beanie 82
beetle 82
birthstone 82
boo@@ 82
bought 82
cheap 82
cre@@ 82
crissa 82
curling 82
den@@ 82
disruptor 82
diva 82
flora 82
ghost 82
gtx 82
handbags 82
hilux 82
his 82
ho 82
ikon 82
jumpshorts 82
message 82
mimi 82
moringa 82
moto 82
next 82
organix 82
patent 82
pp@@ 82
premiere 82
purposes 82
quicksand 82
ry 82
seen 82
sin@@ 82
stabilizer 82
swaddle 82
techniques 82
toiletry 82
ans 81
asstd 81
bremod 81
coinpurse 81
company 81
crayola 81
ct@@ 81
der@@ 81
emerald 81
freebie 81
furniture 81
il 81
il@@ 81
induction 81
lancer 81
mcqueen 81
mga 81
mse 81
muffler 81
noise 81
onion 81
onitsuka 81
over@@ 81
pioneer 81
rastaclat 81
saem 81
samsonite 81
skydrive 81
sleek 81
slightly 81
splitter 81
stix 81
succulent 81
tapes 81
vegan 81
workbook 81
abercrombie 80
amore 80
bb@@ 80
bla@@ 80
canister 80
cola 80
count 80
cra@@ 80
dancing 80
davidoff 80
eos 80
ferragamo 80
fr 80
fridge 80
fries 80
frog 80
garcinia 80
givenchy 80
greetings 80
lacquer 80
lancome 80
lipgloss 80
logitech 80
magenta 80
pk 80
poncho 80
rotary 80
sand@@ 80
sch@@ 80
seaweed 80
sil@@ 80
sunday 80
sunglass 80
tankini 80
wow 80
xi 80
xo 80
andrea 79
arc 79
buddha 79
clarifying 79
colgate 79
concentrated 79
creations 79
demon 79
dotted 79
downy 79
fre@@ 79
frying 79
heads 79
if 79
lithium 79
love@@ 79
meet 79
multivitamins 79
rest 79
rio 79
shortsleeve 79
sn 79
sr 79
sub 79
surplus 79
tan@@ 79
tc 79
tick 79
tolsen 79
tooth 79
tummy 79
vaseline 79
ven@@ 79
xtreme 79
able 78
amd 78
animation 78
ao@@ 78
axle 78
badminton 78
cider 78
crisscross 78
dan 78
dia 78
engagement 78
expandable 78
find 78
fun@@ 78
infinix 78
katespade 78
math 78
monokini 78
nars 78
one@@ 78
oreo 78
pal 78
ppe 78
propolis 78
rd 78
robe 78
runway 78
salmon 78
salted 78
shoulders 78
trd 78
war@@ 78
wealth 78
wh@@ 78
airbag 77
ari@@ 77
ax 77
bentonite 77
beyond 77
bosny 77
brilliance 77
bulk 77
candies 77
chamomile 77
chassis 77
chopping 77
concert 77
duster 77
eli@@ 77
elmo 77
fubu 77
hight 77
jj 77
jmaxx 77
keychains 77
lines 77
list 77
load 77
mel@@ 77
metro 77
op@@ 77
phoenix 77
puregold 77
purifying 77
sales 77
scissor 77
senior 77
sour 77
stu@@ 77
tap 77
textured 77
than 77
tuff 77
tylex 77
vampire 77
vibe 77
wang 77
wick 77
yes 77
yl 77
aero 76
alive 76
avocado 76
bargain 76
beard 76
bedding 76
blueberry 76
bronzer 76
brushed 76
build 76
chalk 76
corporate 76
crayons 76
dd 76
dra@@ 76
ears 76
extended 76
ey 76
gemstone 76
gmate 76
ideal 76
incanto 76
ji 76
kasoy 76
lar@@ 76
meal 76
microwave 76
minis 76
mittens 76
mtp 76
ness 76
nest 76
noodle 76
poreless 76
prepacked 76
pumpkin 76
range 76
relay 76
roxy 76
sol@@ 76
spell 76
sta 76
stranger 76
ties 76
ur 76
van@@ 76
yogurt 76
yu 76
ala 75
apex 75
arctic 75
arrivals 75
bh 75
blanc 75
blind 75
bows 75
certified 75
collectibles 75
collector 75
cone 75
dji 75
early 75
fruity 75
garnier 75
group 75
gsm 75
hbw 75
highcut 75
hm 75
housing 75
is@@ 75
joint 75
kikay 75
liz 75
minifigures 75
moana 75
mylar 75
negative 75
odor 75
pear 75
pomegranate 75
rebranding 75
riding 75
rugged 75
sealer 75
shutter 75
spacer 75
stabilo 75
tell 75
tommee 75
victorias 75
vin@@ 75
wigo 75
word 75
yn 75
yoobao 75
zen@@ 75
angels 74
astro 74
batik 74
battle 74
benetton 74
bradshaw 74
che 74
dies 74
ding 74
duffle 74
fd 74
fee 74
ff@@ 74
filipino 74
football 74
ful 74
fy 74
gadget 74
hamster 74
ita 74
ito 74
ja 74
jan@@ 74
liveselling 74
ment 74
mnl 74
nerf 74
octopus 74
packed 74
picnic 74
pigeon 74
planet 74
pn 74
punk 74
raspberry 74
rilakkuma 74
ruler 74
service 74
she@@ 74
sli@@ 74
slots 74
stool 74
tippee 74
traveling 74
trilogy 74
vibrating 74
vietnam 74
artifact 73
barbecue 73
blessed 73
boom 73
cal@@ 73
del 73
dis@@ 73
dr@@ 73
dreams 73
droplets 73
electrical 73
fla@@ 73
flavors 73
fortune 73
fuchsia 73
gre@@ 73
gummies 73
hijab 73
ia 73
ine@@ 73
ings 73
injoy 73
keypad 73
kick 73
ku 73
lauder 73
lifting 73
malunggay 73
musk 73
ning 73
ol 73
paco 73
pliage 73
puncher 73
reborn 73
rg 73
ser 73
slider 73
smiley 73
soil 73
strainer 73
stretchy 73
text 73
tights 73
uc 73
various 73
yan 73
yasen 73
zen 73
alvin 72
always 72
ap@@ 72
bacterial 72
bibs 72
blonde 72
breeze 72
cape 72
cee 72
cro@@ 72
den 72
fingerprint 72
flop 72
giraffe 72
glossier 72
golf 72
halo 72
height 72
hikvision 72
hotpot 72
infinite 72
june 72
key@@ 72
keyring 72
lava 72
len@@ 72
measure 72
mixes 72
mixing 72
obsession 72
paperbag 72
paradise 72
pirate 72
polarized 72
processor 72
rapid 72
rolling 72
rouser 72
scallop 72
shifter 72
spyder 72
sterilizer 72
stockings 72
thank 72
towels 72
tt@@ 72
variant 72
wafer 72
above 71
alexa 71
bg 71
bites 71
ble@@ 71
com@@ 71
corolla 71
creed 71
crispy 71
cu 71
curly 71
element 71
em 71
gan 71
glare 71
gm 71
griller 71
he 71
hiace 71
im 71
issue 71
jackson 71
kabuki 71
kit@@ 71
laminating 71
lla 71
lululemon 71
mind 71
patrick 71
perfecting 71
playset 71
pubg 71
radiant 71
rcb 71
rotate 71
ssa 71
steps 71
suitable 71
superbreak 71
supplier 71
terry 71
timer 71
today 71
tr 71
travelling 71
variety 71
wal@@ 71
zing 71
ap 70
bilena 70
celine 70
cob 70
combat 70
construction 70
dai@@ 70
death 70
eat 70
eternity 70
glo@@ 70
goods 70
hoops 70
jollibee 70
jug 70
laura 70
litter 70
matching 70
play@@ 70
pouches 70
radiance 70
receipt 70
refreshing 70
salvatore 70
same 70
sassy 70
scarlet 70
sketch 70
son@@ 70
tuna 70
ultra@@ 70
ups 70
windows 70
aj 69
baked 69
banila 69
benedict 69
bliss 69
bong 69
brows 69
cambogia 69
chill 69
compressor 69
daster 69
dv 69
gc 69
glowing 69
hardcase 69
ideas 69
imd 69
inhaler 69
inter@@ 69
latte 69
lead 69
nat@@ 69
orders 69
originals 69
pri@@ 69
rattle 69
spare 69
std 69
uhf 69
under@@ 69
unisilver 69
vie 69
wwe 69
xoxo 69
alphabounce 68
ano 68
ballerina 68
bebe 68
chan 68
conditioning 68
decant 68
delicious 68
elegance 68
enamel 68
est 68
exp 68
fda 68
fillers 68
footrest 68
gr@@ 68
gu 68
harden 68
harley 68
honeycomb 68
hong 68
hoyoma 68
infants 68
magnesium 68
marian 68
missy 68
needle 68
nia 68
pill 68
pocketbac 68
powdery 68
powerful 68
que 68
rolls 68
saddle 68
ses 68
shapes 68
sounds 68
ster 68
throttle 68
tn 68
tz 68
val@@ 68
washed 68
wk 68
worth 68
ard 67
ator 67
auto@@ 67
avanza 67
babydoll 67
balancing 67
bandeau 67
belo 67
birds 67
blemish 67
boot 67
bounce 67
bpa 67
burn 67
by@@ 67
camo 67
carolina 67
celina 67
chicco 67
chronicles 67
cigarette 67
cr 67
detector 67
don@@ 67
dong 67
duyan 67
ele@@ 67
explosion 67
fa 67
fate 67
fer@@ 67
flannel 67
flea 67
frames 67
gravity 67
issey 67
jumpsuits 67
jungle 67
lord 67
lovers 67
mad 67
media 67
mu 67
multicolored 67
petals 67
posters 67
sale@@ 67
scott 67
skool 67
spag 67
steve 67
stopper 67
students 67
tar@@ 67
tex 67
torque 67
tr@@ 67
trigger 67
ttgr 67
velcro 67
zer 67
zh 67
accesories 66
ali@@ 66
amazon 66
anal 66
atm 66
axe 66
barrel 66
becca 66
betty 66
bits 66
bulls 66
cubes 66
dd@@ 66
deadpool 66
dressing 66
gal@@ 66
glove 66
goat 66
gymboree 66
hammock 66
howru 66
ht 66
imarflex 66
jewel 66
kid@@ 66
lon 66
medicated 66
mrs 66
optimum 66
photobook 66
pia 66
pitcher 66
pr 66
rearview 66
riordan 66
rosehip 66
safeguard 66
scoopback 66
sequin 66
tear 66
technology 66
tru@@ 66
tur@@ 66
ukulele 66
zaxy 66
albums 65
aoa 65
beaute 65
bedsheets 65
bull 65
bus 65
canada 65
chin 65
cinnamon 65
cks 65
color@@ 65
dinner 65
ebook 65
ee 65
ekel 65
field 65
floating 65
fra@@ 65
ger@@ 65
gerber 65
grapeseed 65
high@@ 65
individual 65
iz 65
kes 65
km 65
mei 65
micellar 65
moments 65
motherboard 65
navarro 65
np 65
ous 65
pancake 65
pastry 65
photo@@ 65
pinkish 65
popcorn 65
rabanne 65
rookie 65
rr 65
sal@@ 65
scanner 65
soccer 65
song 65
stirring 65
telescopic 65
tes 65
treat 65
types 65
vase 65
vice 65
whipp 65
windshield 65
als 64
anthony 64
asia 64
aw 64
bathrobe 64
below 64
biscuits 64
blades 64
blu@@ 64
bon 64
bun@@ 64
cabin 64
carrot 64
casa 64
cer 64
court 64
crystals 64
damier 64
disco 64
dongle 64
eclat 64
erasable 64
estee 64
far 64
filled 64
gifo 64
gla@@ 64
graded 64
hilton 64
hnj 64
image 64
jin@@ 64
kits 64
lollipop 64
madam 64
main 64
mangosteen 64
milani 64
oneplus 64
ori@@ 64
ottogi 64
outer 64
pak 64
parker 64
pea 64
perfection 64
ponds 64
potty 64
prima 64
react 64
renewal 64
roman 64
scarlett 64
scotch 64
sealant 64
sperry 64
sunrise 64
swimsuits 64
totoro 64
twilly 64
ul@@ 64
wedges 64
wonders 64
wristband 64
xmas 64
yang 64
advantage 63
ava 63
aviator 63
baseus 63
benassi 63
bowknot 63
bro@@ 63
burger 63
cal 63
classics 63
colourtint 63
cri@@ 63
culottes 63
curve 63
dar@@ 63
dawn 63
digitizer 63
domino 63
drip 63
ec 63
figurine 63
general 63
guyabano 63
highlight 63
horizontal 63
inspirational 63
lemonade 63
mart 63
mill 63
million 63
mm@@ 63
normal 63
ot 63
patterned 63
peep 63
person 63
polkadots 63
powerhouse 63
rain@@ 63
revitalizing 63
roast 63
rosy 63
sack 63
sell 63
skateboard 63
slique 63
soldering 63
temp 63
town 63
treasure 63
undies 63
ves 63
wat@@ 63
why 63
yr 63
yves 63
aegis 62
alien 62
both 62
canin 62
claire 62
cle@@ 62
cock 62
desire 62
dhc 62
dslr 62
ethernet 62
everything 62
favorite 62
fenty 62
flush 62
freedom 62
good@@ 62
gorilla 62
hal@@ 62
hill 62
iced 62
inc 62
input 62
insulation 62
jenny 62
ker@@ 62
laptops 62
late 62
lay 62
lisa 62
lx 62
merah 62
mvp 62
national 62
nationwide 62
notepad 62
palda 62
passenger 62
philip 62
poly@@ 62
salad 62
samantha 62
sel@@ 62
sons 62
spirulina 62
tender 62
turn 62
tw 62
valentines 62
vit@@ 62
when 62
words 62
zirconia 62
acqua 61
allure 61
apricot 61
berries 61
bum 61
cf 61
ches 61
coaster 61
couch 61
crunch 61
dri@@ 61
dz 61
eiffel 61
elujai 61
favors 61
fb 61
gigabyte 61
gio 61
hairband 61
headlamp 61
highwaisted 61
internal 61
jolly 61
kitten 61
knob 61
liners 61
lit@@ 61
mag 61
monopoly 61
mould 61
ner 61
nina 61
orchid 61
ounce 61
owned 61
paddle 61
present 61
qui@@ 61
rate 61
refillable 61
rotor 61
sabrina 61
sea@@ 61
select 61
seoul 61
start 61
stella 61
survival 61
sutla 61
tableware 61
tat@@ 61
tec 61
veggie 61
virus 61
winner 61
ana@@ 60
ani 60
ated 60
attack 60
awesome 60
barong 60
big@@ 60
blends 60
breastmilk 60
chopsticks 60
citrine 60
cur@@ 60
del@@ 60
dew 60
doom 60
eq 60
ery 60
exhaust 60
flame 60
gf 60
gigabit 60
gudetama 60
handsfree 60
heritage 60
ipod 60
kamiseta 60
kan@@ 60
kri@@ 60
labo 60
lets 60
lotte 60
ltp 60
magnets 60
mil@@ 60
moschino 60
nebulizer 60
necklaces 60
origin 60
overnight 60
pantene 60
perspirant 60
peter 60
phantom 60
phr 60
pods 60
prizm 60
rtw 60
sebum 60
selena 60
serving 60
shin 60
source 60
spi@@ 60
suits 60
tabs 60
talk 60
tarnish 60
ton@@ 60
varicose 60
zo@@ 60
almonds 59
avenue 59
banderitas 59
bendix 59
boxed 59
boxing 59
brooklyn 59
camel 59
camisole 59
challenge 59
childrens 59
claw 59
copier 59
crusher 59
cullotes 59
decorating 59
diameter 59
doodle 59
dora 59
drainer 59
dress@@ 59
dx 59
fear 59
frost 59
gelpen 59
hairclip 59
headdress 59
hel@@ 59
holy 59
ideapad 59
imports 59
iu 59
jk 59
lean 59
lighter 59
lle 59
lovecorner 59
medela 59
meow 59
minecraft 59
nan@@ 59
nworld 59
pd 59
pine 59
poccophone 59
pollution 59
repellant 59
ribbons 59
rimmel 59
sandwich 59
sante 59
scout 59
shelves 59
siwa 59
sss 59
stradivarius 59
tilbury 59
trade 59
tricolor 59
trucker 59
twilight 59
vic 59
wn 59
ziplock 59
ae 58
ah@@ 58
aim 58
airforce 58
ane 58
antiskid 58
asics 58
ban 58
basin 58
batwing 58
beau 58
blu 58
bose 58
carrying 58
century 58
cer@@ 58
challis 58
chase 58
cheapest 58
clippers 58
cure 58
cyan 58
cycle 58
darling 58
dawning 58
deals 58
dino 58
eve 58
ez 58
fade 58
herrera 58
home@@ 58
hug 58
ire 58
irish 58
janoski 58
lm 58
masking 58
michaela 58
mit@@ 58
models 58
monthly 58
neckline 58
openline 58
oversize 58
overuns 58
pieu 58
pixie 58
purederm 58
qi 58
ringke 58
say 58
sir 58
slayer 58
soen 58
spatula 58
squad 58
stackable 58
telephone 58
terra 58
timeless 58
tresemme 58
university 58
up@@ 58
uratex 58
waffle 58
alva 57
angeles 57
ascorbic 57
athena 57
az@@ 57
baller 57
ballpoint 57
bottoms 57
brew 57
bust 57
corrector 57
cutout 57
cx 57
devil 57
dutch 57
ek 57
eu@@ 57
fans 57
flying 57
foodaholic 57
fro@@ 57
garterize 57
gg@@ 57
gin@@ 57
glamour 57
hexagon 57
indoplas 57
jessica 57
katy 57
kaws 57
kentucky 57
lowcut 57
lucas 57
markers 57
mats 57
mon 57
natura 57
nautica 57
nel 57
pacific 57
pest 57
pob 57
pocophone 57
resistance 57
seagate 57
sed 57
selection 57
silent 57
slow 57
softgel 57
sse 57
tale 57
talking 57
tonic 57
vanguard 57
yards 57
zi 57
zy 57
airy 56
ardeur 56
audrey 56
autofocus 56
ay 56
batteries 56
bees 56
bodybag 56
bookmarks 56
bubbles 56
cara 56
cardigans 56
ces 56
chen 56
chewable 56
cli@@ 56
clo@@ 56
col@@ 56
com 56
computers 56
crunchy 56
day@@ 56
ded 56
dj 56
dock 56
dre@@ 56
epoxy 56
ey@@ 56
famous 56
gadgets 56
gate 56
german 56
germany 56
goodquality 56
green@@ 56
harem 56
heaven 56
herbalife 56
hour 56
hydro@@ 56
igprints 56
import 56
jp 56
king@@ 56
lavander 56
lb 56
lbs 56
lene 56
lic 56
lov@@ 56
lu 56
mars 56
member 56
mpo 56
nation 56
nescafe 56
nighties 56
notebooks 56
packing 56
peace 56
peacock 56
peanuts 56
pedigree 56
plane 56
posted 56
pure@@ 56
rebel 56
reflector 56
rog 56
ron@@ 56
root 56
royu 56
skate 56
soldier 56
ssy 56
stamping 56
strings 56
stufftoys 56
weave 56
wee 56
zed 56
zo 56
activewear 55
antique 55
baptism 55
basil 55
belted 55
brallete 55
buah 55
castell 55
chu@@ 55
ci 55
circuit 55
counter 55
culture 55
dan@@ 55
dor@@ 55
durant 55
dustproof 55
ela 55
elements 55
enjoy 55
envy 55
eri@@ 55
eucalyptus 55
ever@@ 55
every 55
ew 55
faber 55
flu@@ 55
fringe 55
fry 55
ging 55
ginseng 55
goody 55
grendha 55
ivy 55
kc 55
lanvin 55
las 55
learn 55
len 55
maximum 55
mega@@ 55
merch 55
merchandise 55
mq 55
muji 55
mumuso 55
nasa 55
ny@@ 55
oilbased 55
om 55
orly 55
out@@ 55
page 55
pha 55
pompom 55
rf 55
ron 55
rotation 55
russian 55
sara 55
sequined 55
shapers 55
sin 55
sizzix 55
smartphones 55
snacks 55
sophia 55
spirit 55
stein 55
straws 55
stre@@ 55
suave 55
sw 55
sweety 55
tb 55
trail 55
trifold 55
turmask 55
unofficial 55
vi 55
vitality 55
warrior 55
whiteboard 55
wisdom 55
adi@@ 54
ak 54
ating 54
ay@@ 54
baguio 54
bea 54
beautéderm 54
blow 54
boro 54
budget 54
cashmere 54
chicago 54
closed 54
college 54
costumes 54
cuyi 54
dirty 54
dreamcatcher 54
emily 54
emma 54
eng 54
eo 54
favor 54
fin@@ 54
flipflops 54
fryer 54
furry 54
glory 54
gluta@@ 54
gpp 54
gro@@ 54
guava 54
hairbow 54
hang 54
hydraulic 54
inspiron 54
into 54
jason 54
jl 54
kts 54
lootbags 54
mae 54
mandarin 54
mannequin 54
nhk 54
nic 54
nozzle 54
nutri@@ 54
pamela 54
photography 54
potion 54
pul@@ 54
racket 54
resellers 54
sally 54
scalp 54
shaft 54
shortsleeves 54
simulation 54
singles 54
sky@@ 54
soft@@ 54
su 54
sweetheart 54
union 54
vital 54
weather 54
winder 54
wrapped 54
acb 53
applicator 53
ash@@ 53
ayesha 53
bal 53
blackberry 53
bor@@ 53
botton 53
boy@@ 53
calligraphy 53
caviar 53
cebu 53
cln 53
coins 53
corduroy 53
covergirl 53
crime 53
crocheted 53
diving 53
dropper 53
earpods 53
eco@@ 53
ei@@ 53
extensions 53
faceshield 53
fuji 53
garland 53
google 53
gowoori 53
graphics 53
gx 53
gy 53
hor@@ 53
inspire 53
interior 53
iring 53
lane 53
lilac 53
lined 53
mansi 53
marketing 53
melt 53
mizon 53
momoland 53
nadine 53
nor@@ 53
og 53
oo@@ 53
parka 53
placemat 53
racerback 53
rca 53
receiving 53
ri 53
rt 53
sagmit 53
sia 53
sj 53
spa@@ 53
stationary 53
sur@@ 53
sw@@ 53
tassle 53
tight 53
traveler 53
tta 53
tumi 53
unbranded 53
us@@ 53
vel@@ 53
venom 53
wacoal 53
wu 53
yoko 53
zigzag 53
zu@@ 53
adorable 52
ae@@ 52
almost 52
apollo 52
arizona 52
bayong 52
biker 52
blinds 52
br 52
brain 52
breath 52
breed 52
chambray 52
chelsea 52
coating 52
cr@@ 52
dolly 52
fan@@ 52
fantastic 52
fit@@ 52
fitch 52
fixed 52
fr@@ 52
frank 52
garbage 52
gauze 52
grocery 52
gtw 52
hazelnut 52
hen@@ 52
history 52
kk 52
koi 52
laurent 52
lw 52
maine 52
mantra 52
melasma 52
mont 52
nappy 52
neutral 52
nicole 52
oc 52
ornament 52
playpen 52
recollections 52
return 52
reverse 52
rhinestones 52
shining 52
sides 52
singapore 52
speedometer 52
stri@@ 52
sts 52
suspension 52
ultraboost 52
ungrip 52
vegetables 52
verdon 52
want 52
wellington 52
wristwatch 52
zippered 52
zr 52
blo@@ 51
blur 51
body@@ 51
book@@ 51
busha 51
caremask 51
cn 51
confetti 51
corp 51
covered 51
crank 51
crash 51
daddy 51
desert 51
destiny 51
dg 51
ea 51
echo 51
edifice 51
ethnic 51
fo 51
gh 51
givi 51
gl 51
gri@@ 51
hydra 51
inclusions 51
jh 51
kai@@ 51
kb 51
lar 51
lou@@ 51
lunchbox 51
megapro 51
ming 51
mood 51
motorcycles 51
mouthwash 51
nicholas 51
oni@@ 51
pax 51
peony 51
pilipinas 51
pork 51
robin 51
row 51
sapphire 51
scrap 51
sdhc 51
shoppe 51
sisley 51
skinpotions 51
solutions 51
spike 51
standing 51
stocking 51
styler 51
sure 51
taupe 51
teacher 51
temporary 51
temptation 51
toned 51
transmission 51
trolls 51
tte 51
utensils 51
voltage 51
waistline 51
wt 51
zalora 51
é 51
alberto 50
angelus 50
asahi 50
baao 50
ber 50
blending 50
bolero 50
bowls 50
broken 50
casserole 50
catherine 50
coca 50
commercial 50
compass 50
country 50
cowl 50
cranberry 50
cruz 50
crv 50
db 50
deal 50
dge 50
dragonball 50
drinks 50
ee@@ 50
eggs 50
enzo 50
epsa 50
float 50
garfield 50
hasbro 50
hologram 50
illuminating 50
imperial 50
india 50
inserts 50
jacob 50
jungkook 50
kuku 50
legging 50
lower 50
matrix 50
mel 50
minimum 50
minute 50
mma 50
monsters 50
moss 50
movies 50
nissin 50
pal@@ 50
plier 50
premier 50
quilt 50
rda 50
rfid 50
rib 50
river 50
rose@@ 50
sco@@ 50
sculpting 50
sealing 50
sembo 50
shines 50
sider 50
smartwatch 50
spoiler 50
succulents 50
tall 50
tion 50
uhs 50
unscented 50
vibrant 50
welcome 50
wonderland 50
accounting 49
against 49
ala@@ 49
alo@@ 49
aloha 49
apido 49
ary 49
ata 49
beatles 49
beauche 49
biscuit 49
bit@@ 49
bkk 49
bobbi 49
bodysuits 49
brands 49
cartoons 49
cel@@ 49
chy 49
cia 49
cker 49
concept 49
cw 49
dandruff 49
debut 49
defender 49
dice 49
dictionary 49
dietary 49
dissipation 49
dou@@ 49
dxn 49
east 49
eden 49
fair 49
fertilizer 49
fire@@ 49
fol@@ 49
fri@@ 49
fuse 49
gagage 49
genie 49
handcrafted 49
heater 49
imitation 49
ini 49
intl 49
jen 49
jones 49
kind 49
kutkutin 49
lea@@ 49
leg@@ 49
lice 49
listing 49
lon@@ 49
mas 49
may@@ 49
mid@@ 49
motocross 49
moving 49
mystic 49
neverfull 49
offer 49
opening 49
ora 49
polaroid 49
posture 49
puppies 49
qcy 49
rug 49
samples 49
sequence 49
skeleton 49
swatch 49
technomarine 49
ters 49
texture 49
there 49
thunder 49
toxic 49
waste 49
web 49
weekend 49
xxxl 49
academy 48
adhesion 48
agatha 48
ale@@ 48
ao 48
art@@ 48
arturo 48
atx 48
axis 48
been 48
blaster 48
bossini 48
bottled 48
boxy 48
bras 48
brow@@ 48
brownies 48
carburetor 48
chew 48
chino 48
colo@@ 48
diamonds 48
distributor 48
dro@@ 48
duffel 48
dunk 48
fer 48
fever 48
fg 48
figuarts 48
fill 48
fuschia 48
gamer 48
geekvape 48
hai@@ 48
hardware 48
heating 48
hung 48
intimate 48
ipon 48
jeffree 48
light@@ 48
lr 48
lysol 48
mar 48
mh 48
midwaist 48
minerals 48
miu 48
most 48
nights 48
ors 48
pasta 48
paubos 48
pavilion 48
peri 48
plu@@ 48
posh 48
practical 48
prom 48
rai@@ 48
robert 48
saucer 48
scrapbook 48
sn@@ 48
sparks 48
statue 48
stevia 48
sui 48
superfood 48
swivel 48
temperament 48
thea 48
tile 48
traditional 48
tuyo 48
ung 48
ut 48
utensil 48
vibes 48
vivid 48
watery 48
weekly 48
zumba 48
zz@@ 48
é@@ 48
altis 47
amino 47
answer 47
armored 47
baybayin 47
bel 47
bestguard 47
bigger 47
boo 47
british 47
buffet 47
cakes 47
celtics 47
cement 47
chevrolet 47
chicharon 47
ciao 47
cin@@ 47
claus 47
coats 47
colours 47
costumized 47
dakki 47
das 47
dk 47
ela@@ 47
enhanced 47
es@@ 47
everpower 47
export 47
father 47
fiesta 47
ganda 47
glaze 47
help 47
holders 47
holly 47
hot@@ 47
inspi 47
int 47
itch 47
joy@@ 47
kkw 47
kon@@ 47
legs 47
lifter 47
liniment 47
locket 47
lopez 47
mason 47
mathematics 47
munchkin 47
nautical 47
nongshim 47
pact 47
pale 47
pantulog 47
piercing 47
popsicle 47
qq 47
que@@ 47
quest 47
razer 47
rizoma 47
rn 47
sandalwood 47
sauna 47
scion 47
seater 47
sen 47
severus 47
sliding 47
swanson 47
taillight 47
tailored 47
taste 47
td 47
thailook 47
therapeutic 47
throne 47
tiles 47
tunic 47
ube 47
uva 47
venice 47
where 47
white@@ 47
wizard 47
yss 47
zel 47
af@@ 46
alcatel 46
amethyste 46
bajaj 46
beam 46
bifold 46
bill 46
bolster 46
bound 46
brave 46
cans 46
ccml 46
cen@@ 46
ceramics 46
cherokee 46
clio 46
din@@ 46
dvi 46
evolution 46
fengshui 46
fino 46
flashing 46
fur@@ 46
gosh 46
hada 46
hansen 46
harper 46
hd@@ 46
holographic 46
jagger 46
jasper 46
jen@@ 46
jimin 46
keyholder 46
knits 46
leafy 46
lense 46
life@@ 46
lighten 46
lona 46
looney 46
lun@@ 46
masturbator 46
mcneil 46
mediheal 46
mir@@ 46
moment 46
myra 46
nt 46
nursery 46
oats 46
pat 46
pinoy 46
pit 46
polishing 46
pop@@ 46
regatta 46
resist 46
revo 46
rorec 46
sar@@ 46
section 46
share 46
shed 46
shoulderbag 46
soluble 46
speaks 46
squeezer 46
stencil 46
stilton 46
studios 46
thing 46
timberland 46
tubeless 46
twill 46
ure 46
veronica 46
vg 46
vt 46
wan 46
wearable 46
wellness 46
whale 46
xerox 46
xx 46
aco 45
ami 45
arms 45
ati@@ 45
bangs 45
bao 45
bea@@ 45
bm 45
bold 45
bot 45
brace 45
buddy 45
bumblebee 45
bv 45
cap@@ 45
chairs 45
charlie 45
chisel 45
chris 45
cru@@ 45
ction 45
dca 45
definition 45
degrees 45
df@@ 45
disinfecting 45
dl 45
doc 45
dough 45
draw 45
ds@@ 45
embroided 45
excel 45
far@@ 45
finishing 45
friendship 45
ful@@ 45
generic 45
gibi 45
glu@@ 45
graffiti 45
hc 45
holo 45
inflator 45
instrument 45
invitations 45
ip@@ 45
jay 45
jm 45
jumping 45
kin 45
kitkat 45
kl 45
ladie 45
lamb 45
ld 45
lj 45
macro 45
madden 45
management 45
mccormick 45
microsd 45
microsoft 45
mono@@ 45
must 45
neo@@ 45
nightwear 45
nk 45
novo 45
nyc 45
occasions 45
odyssey 45
omg 45
paisley 45
papi 45
pck 45
pixi 45
pocketbooks 45
probiotics 45
py@@ 45
qfashion 45
roche 45
rocket 45
senza 45
shaping 45
sheep 45
shin@@ 45
silhouette 45
soaplada 45
sof 45
sty@@ 45
suga 45
swim@@ 45
synergy 45
tal@@ 45
think 45
trooper 45
trunks 45
tunes 45
tw@@ 45
vader 45
variable 45
versatile 45
vet 45
vguc 45
whey 45
witness 45
worn 45
ye 45
zipped 45
acetate 44
alert 44
amanda 44
annie 44
anton 44
apieu 44
ara@@ 44
arabica 44
band@@ 44
booldeet 44
booty 44
bridge 44
bul@@ 44
bw 44
case@@ 44
cayler 44
cc@@ 44
changer 44
civil 44
clog 44
condenser 44
connect 44
cozy 44
duos 44
education 44
els 44
embossing 44
enchanteur 44
endgame 44
england 44
eros 44
fashionista 44
fatigue 44
flyball 44
flyman 44
geforce 44
gentleman 44
gospel 44
grapefruit 44
grater 44
grinding 44
hanuman 44
hol@@ 44
hon@@ 44
idol 44
inkjet 44
iphones 44
iv 44
jd 44
jel@@ 44
jump@@ 44
jun@@ 44
kings 44
kissproof 44
kitchenware 44
kpads 44
ktees 44
kyb 44
law 44
maganda 44
merrell 44
mike 44
mobiles 44
momo 44
mutant 44
nit@@ 44
nonwire 44
nos 44
nutri 44
ob@@ 44
organza 44
paints 44
papel 44
personality 44
pet@@ 44
poco 44
polybag 44
porcelain 44
pretend 44
prin@@ 44
pulse 44
quinn 44
redragon 44
relax 44
repack 44
reviewer 44
rising 44
saiyan 44
sca@@ 44
sey 44
signage 44
skip 44
skk 44
skmei 44
smoothing 44
ssi@@ 44
stark 44
stepsill 44
stethoscope 44
stripped 44
swirl 44
tarpaulin 44
tensioner 44
ticket 44
ufw 44
vol@@ 44
volts 44
wil@@ 44
wise 44
wraps 44
yumi 44
zeus 44
zoro 44
ada 43
ally 43
amp 43
august 43
az 43
bezel 43
blossoms 43
bushing 43
cane 43
catch 43
cathy 43
cbn 43
cham 43
charming 43
cho 43
chopstick 43
clogs 43
cottony 43
crackers 43
crest 43
creston 43
deli 43
document 43
doughnut 43
dualpro 43
empire 43
explorer 43
fanny 43
farmstay 43
fran@@ 43
garage 43
gardening 43
gold@@ 43
gothic 43
grease 43
hobby 43
impulse 43
irene 43
jacquard 43
jay@@ 43
jerry 43
kie 43
leatherette 43
license 43
lifestyle 43
lit 43
liver 43
low@@ 43
mai@@ 43
mamonde 43
mani@@ 43
meiji 43
melamine 43
miyake 43
motor@@ 43
motorbike 43
nordic 43
pallete 43
pleasure 43
ppr 43
rb 43
reaction 43
relaxed 43
rer 43
rex 43
rmg 43
roshe 43
rpm 43
sat@@ 43
scene 43
seasons 43
shrink 43
social 43
stapler 43
sting 43
strange 43
sulfur 43
taytay 43
textiles 43
toaster 43
twins 43
vo 43
wit@@ 43
wrislet 43
zia 43
alada 42
also 42
bailey 42
bibdana 42
bihaku 42
bmw 42
bny 42
botanical 42
burt 42
cashew 42
ching 42
cle 42
cobra 42
comp@@ 42
coordinate 42
cosmic 42
darth 42
doorbell 42
dorothy 42
easy@@ 42
eight 42
ellis 42
enemy 42
entertainment 42
ette 42
fight 42
fitbit 42
fitting 42
fried 42
gbb 42
gimbal 42
goal 42
gon 42
gv 42
harvest 42
hr 42
hut 42
icing 42
ino 42
ira 42
jlt 42
jt 42
julia 42
kotobukiya 42
kyla 42
lh 42
lq 42
luckycharm 42
maldives 42
martha 42
matchy 42
misumi 42
mn 42
mol@@ 42
mudguard 42
muffin 42
mule 42
muslim 42
navara 42
necktie 42
newest 42
ninewest 42
nitro 42
off@@ 42
options 42
pixel 42
prepack 42
puppet 42
queens 42
rebonding 42
ree 42
relumins 42
samgyupsal 42
sedan 42
shogun 42
sig@@ 42
soak 42
sor@@ 42
spectra 42
spinning 42
styles 42
sub@@ 42
supremo 42
surge 42
tea@@ 42
telesin 42
thousand 42
trends 42
ultrathin 42
vhf 42
victory 42
wilson 42
with@@ 42
xpander 42
xuping 42
absorption 41
aqu@@ 41
arduino 41
arena 41
armband 41
ats 41
automotive 41
barefoot 41
beginners 41
bff 41
bianca 41
blair 41
boxers 41
britney 41
camilla 41
careline 41
chan@@ 41
chart 41
colic 41
common 41
cruiser 41
cruzer 41
ders 41
devices 41
distance 41
dm 41
droplet 41
elixir 41
ell 41
ena 41
espadrilles 41
evvph 41
figma 41
flaws 41
gal 41
gels 41
gin 41
glycolic 41
guy 41
haan 41
haikyuu 41
heart@@ 41
heartbeat 41
hell 41
hera 41
hoo@@ 41
htc 41
huawie 41
hyperdunk 41
indonesia 41
ipega 41
isolation 41
jars 41
kinoki 41
kultura 41
lanbena 41
legendary 41
lightness 41
lippies 41
lis 41
march 41
marshmallow 41
matic 41
maxx 41
medi@@ 41
meizu 41
mes 41
middle 41
mie 41
mink 41
motorola 41
nipples 41
non@@ 41
oat 41
olympus 41
pambata 41
panic 41
peachy 41
perfumed 41
petit 41
playful 41
playmat 41
polar 41
qi@@ 41
rechargable 41
rubik 41
saffiano 41
sau@@ 41
sco 41
scraper 41
sla@@ 41
sleeper 41
sm@@ 41
snapshot 41
spec 41
speedo 41
ste 41
sweetener 41
sweets 41
ther@@ 41
tim 41
tow 41
translucent 41
tu 41
una 41
vc 41
volkswagen 41
western 41
wink 41
access 40
allan 40
ama@@ 40
ans@@ 40
arm@@ 40
asian 40
biore 40
bl@@ 40
bugs 40
bun 40
burning 40
carat 40
care@@ 40
carnitine 40
cassette 40
cecilia 40
ched 40
chevron 40
clara 40
compound 40
cou@@ 40
dairy 40
divider 40
dose 40
duvet 40
ens 40
expiry 40
feelin 40
festival 40
fil@@ 40
fp 40
gameboy 40
gems 40
gie 40
glow@@ 40
gluten 40
gram 40
hans 40
hf 40
hoddie 40
icy 40
idea 40
indicator 40
ion@@ 40
ives 40
jjc 40
justees 40
ked 40
koala 40
labels 40
lampin 40
lapel 40
lgts 40
lilo 40
loo@@ 40
luv 40
mala@@ 40
mambi 40
mandala 40
matchbox 40
menthol 40
mexico 40
mock 40
moda 40
moon@@ 40
moonlight 40
mun@@ 40
nami 40
netbook 40
nurse 40
ola 40
palmolive 40
peg 40
pendants 40
personalize 40
photos 40
postcards 40
probiotic 40
psicom 40
ratchet 40
reference 40
religious 40
remove 40
rolex 40
scientific 40
shimmering 40
shopper 40
side@@ 40
simpson 40
sing@@ 40
sister 40
ski 40
sse@@ 40
staple 40
stator 40
straightening 40
success 40
superior 40
tala 40
tiara 40
tine 40
tle 40
trans@@ 40
transmitter 40
tumblr 40
unused 40
upto 40
ville 40
ving 40
working 40
ami@@ 39
australian 39
bidet 39
bigbang 39
blackbox 39
bones 39
burgundy 39
buster 39
bys 39
cala@@ 39
cardfight 39
career 39
caster 39
catriona 39
chewy 39
circo 39
closer 39
cloudfone 39
crab 39
creamer 39
cti@@ 39
delay 39
delicate 39
delights 39
derma@@ 39
diagonal 39
dio 39
dol@@ 39
dor 39
drag 39
dtc 39
endless 39
enfant 39
enlarger 39
escada 39
espresso 39
excess 39
farrah 39
ferrero 39
fighting 39
finder 39
firm 39
foot@@ 39
goblin 39
groom 39
handlebar 39
hangers 39
hannah 39
harajuku 39
hdtv 39
hits 39
hotdog 39
imak 39
jam@@ 39
knotted 39
kurtina 39
laces 39
ladys 39
lea 39
ligh@@ 39
literide 39
lube 39
medal 39
memories 39
mina 39
moisturising 39
mosaic 39
motowolf 39
msmhk 39
mux 39
navyblue 39
occasion 39
of@@ 39
optic 39
ox 39
papaw 39
paula 39
penny 39
peso 39
playsuit 39
plunger 39
practice 39
presto 39
qf 39
reveal 39
rock@@ 39
roger 39
serial 39
server 39
should 39
sma@@ 39
sof@@ 39
sofitec 39
softener 39
spo@@ 39
storybook 39
stra@@ 39
stufftoy 39
surveillance 39
tai@@ 39
tangerine 39
theory 39
tinkerbell 39
tins 39
together 39
tracing 39
tweezer 39
upgraded 39
vibration 39
wimpy 39
wipe 39
wjf 39
wonderline 39
yaiba 39
yaya 39
yazi 39
yh 39
yi@@ 39
aero@@ 38
app 38
assn 38
ates 38
ations 38
atomy 38
au 38
badescu 38
bataan 38
benton 38
bin@@ 38
bj 38
border 38
breakfast 38
buildmate 38
calling 38
capacitor 38
causal 38
cg 38
clouds 38
complexion 38
cond 38
containers 38
contrast 38
coords 38
ctor 38
dazzling 38
dent 38
diana 38
dinnerware 38
disinfection 38
distressed 38
dos 38
dream@@ 38
dsn 38
edible 38
eh 38
equal 38
escape 38
fal@@ 38
fin 38
freeze 38
freezer 38
gasoline 38
georgette 38
gol@@ 38
grips 38
grosgrain 38
guality 38
habits 38
has 38
heal 38
heather 38
hl 38
hyper@@ 38
illuminator 38
immune 38
iope 38
je 38
jennifer 38
jes 38
jewelries 38
jose 38
kang 38
katerina 38
kicks 38
kz 38
liza 38
malaysia 38
marcus 38
maya 38
maze 38
meduim 38
mera 38
molded 38
move 38
multivitamin 38
ninjago 38
ntsc 38
opp 38
origami 38
others 38
pegasus 38
physical 38
piglet 38
pixar 38
pores 38
positive 38
pping 38
pringles 38
pur@@ 38
qualcomm 38
quiet 38
quotes 38
raptors 38
rated 38
reflectorized 38
riders 38
ring@@ 38
rocking 38
rollers 38
rosa 38
rusty 38
sai@@ 38
sandy 38
semi@@ 38
shave 38
sidebag 38
signed 38
sit 38
skorts 38
starex 38
still 38
supersale 38
torani 38
tsu@@ 38
tumblers 38
twin@@ 38
vapormax 38
ved 38
vega 38
vin 38
vogue 38
volt 38
xp 38
yarns 38
zz 38
S@@ 37
activ 37
aloevera 37
angela 37
antioxidant 37
aphrodisia 37
aquamarine 37
ath@@ 37
bang@@ 37
bangtan 37
bayo 37
beachwear 37
beater 37
belts 37
bir@@ 37
blackout 37
bonne 37
bulgari 37
calm 37
camille 37
cel 37
centella 37
chainsaw 37
chess 37
clever 37
coo@@ 37
coolant 37
daban 37
damper 37
daylight 37
delta 37
dicer 37
dmc 37
ejuice 37
emperor 37
eureka 37
farrar 37
fhd 37
flaw 37
flesh 37
floss 37
fluorescent 37
freesf 37
furball 37
gat@@ 37
gatas 37
glutalipo 37
gn 37
gudi 37
hairclips 37
headrest 37
headwear 37
im@@ 37
immortal 37
imprint 37
inclusion 37
isa 37
jpop 37
kalamansi 37
kasya 37
kenzo 37
kimetsu 37
kineza 37
kjm 37
kk@@ 37
knuckle 37
kor@@ 37
kris 37
laud 37
logic 37
mal@@ 37
mara 37
mas@@ 37
maxidress 37
mf 37
micky 37
microwavable 37
milo 37
mustache 37
nasal 37
novels 37
panoramic 37
ping 37
pl@@ 37
plaka 37
pldt 37
poe 37
polkadot 37
pon@@ 37
ppy 37
ran@@ 37
realistic 37
respirator 37
retina 37
rip 37
rough 37
sac 37
sander 37
shel@@ 37
shells 37
sill 37
since 37
skinfit 37
skylanders 37
somebymi 37
splashproof 37
squ@@ 37
stunning 37
target 37
tek 37
telescope 37
thanos 37
timewise 37
toblerone 37
tubular 37
upgrade 37
variants 37
week 37
wigs 37
worm 37
xx@@ 37
zaful 37
acai 36
act 36
adam 36
addidas 36
adventures 36
af 36
alaska 36
alkansya 36
all@@ 36
andy 36
anion 36
antiperspirant 36
assassin 36
autograph 36
avenger 36
believe 36
biotin 36
bu 36
chubby 36
cica 36
cky 36
claiborne 36
classa 36
clavicle 36
clean@@ 36
commuter 36
condom 36
cook 36
corelle 36
cos@@ 36
cradle 36
crushed 36
dahua 36
dart 36
dea@@ 36
degreaser 36
doug 36
dragons 36
epic 36
everest 36
expansion 36
eyebag 36
fabulous 36
fem 36
filling 36
fitflops 36
fittings 36
flashdrive 36
flowering 36
full@@ 36
gel@@ 36
hang@@ 36
helmets 36
hindi 36
hogwarts 36
homemade 36
ian 36
icons 36
index 36
interchangeable 36
interface 36
jasmin 36
jimmy 36
jjt 36
joyride 36
kili 36
knitting 36
lake 36
laserjet 36
leo 36
locking 36
lola 36
lolita 36
lush 36
madrid 36
mamala 36
mand@@ 36
maple 36
mei@@ 36
membrane 36
ments 36
monopad 36
monsta 36
nick 36
nutella 36
oddstickers 36
offset 36
om@@ 36
originai 36
para@@ 36
payless 36
peak 36
peculiar 36
peptide 36
phi@@ 36
pineng 36
plan@@ 36
plasma 36
plating 36
playtex 36
pochette 36
poop 36
pops 36
pper 36
prayer 36
predator 36
preowned 36
rapunzel 36
refresh 36
rocher 36
rocks 36
ros 36
sanuk 36
scar@@ 36
seafood 36
shaving 36
shu@@ 36
sili@@ 36
sph 36
stack 36
strada 36
sunnyware 36
superstay 36
suspender 36
teardrop 36
temp@@ 36
thru 36
thumb 36
timing 36
tos 36
tubes 36
uag 36
updated 36
utp 36
valley 36
vooc 36
wei@@ 36
whipped 36
wife 36
wolverine 36
wrapper 36
wwfph 36
yayamanin 36
yf 36
zoe 36
akg 35
artisan 35
ative 35
beauty@@ 35
bou@@ 35
bowtie 35
cameo 35
camshaft 35
canopy 35
capshop 35
carburator 35
cardholder 35
cas 35
cherrymobile 35
cl@@ 35
contouring 35
cork 35
cowboy 35
create 35
crossbar 35
dee 35
discounted 35
dooney 35
electroplated 35
erase 35
ered 35
ertiga 35
events 35
fifty 35
fig 35
filters 35
fleur 35
fli@@ 35
flood 35
formulas 35
friction 35
gain 35
gfriend 35
glitz 35
greatest 35
guardian 35
guilty 35
ham@@ 35
happiness 35
harmony 35
hide 35
illusion 35
internet 35
iridium 35
ishigaki 35
ith 35
ivt 35
jumpskirt 35
keepers 35
kel@@ 35
kha@@ 35
lai 35
lish 35
lumin@@ 35
macaroon 35
mage 35
mal 35
mamypoko 35
marlboro 35
maxine 35
mit 35
mitch 35
mix@@ 35
moroccan 35
moto@@ 35
myrrh 35
nancy 35
pajero 35
pans 35
paracord 35
patterns 35
pea@@ 35
pickup 35
pisonet 35
poker 35
portrait 35
puzzles 35
rasta 35
rene 35
ria 35
rin@@ 35
rosemary 35
scales 35
sds 35
short@@ 35
shredder 35
sierra 35
simcard 35
simpsons 35
sit@@ 35
sj@@ 35
sna@@ 35
solotica 35
something 35
songs 35
spout 35
starmobile 35
ster@@ 35
streetwear 35
sugar@@ 35
swab 35
tai 35
tft 35
tictac 35
times 35
totebag 35
tty 35
tweeter 35
typec 35
unlimited 35
veg 35
volleyball 35
voltmeter 35
warts 35
was 35
weapon 35
whisk 35
wika 35
woody 35
xy@@ 35
yale 35
yoyo 35
aro@@ 34
aron 34
bacon 34
bagonly 34
binlu 34
blackheads 34
bodyworks 34
brit 34
bro 34
bye 34
cam@@ 34
checkerd 34
chemical 34
clearing 34
col 34
collectors 34
cover@@ 34
cree 34
cs@@ 34
cz 34
dh 34
dimmable 34
dreamer 34
dtv 34
du 34
extendable 34
ez@@ 34
forme 34
gan@@ 34
garnet 34
geek 34
georgia 34
glide 34
gogh 34
graham 34
grant 34
gunmetal 34
gy@@ 34
happywallph 34
hatchback 34
havainas 34
headed 34
helicopter 34
hue 34
ink@@ 34
inpods 34
investment 34
iris 34
jdm 34
jj@@ 34
joseph 34
july 34
karen 34
kelsey 34
konzert 34
kr 34
legacy 34
lipton 34
loom 34
mann 34
mary@@ 34
mercier 34
michelle 34
miku 34
miller 34
mis 34
mugen 34
mura 34
murano 34
ner@@ 34
nouvo 34
ollie 34
opal 34
ori 34
pageant 34
papemelroti 34
par 34
petrol 34
poison 34
pol@@ 34
pregnancy 34
props 34
punny 34
quadcopter 34
quarter 34
rachel 34
rivet 34
rk 34
run@@ 34
rusi 34
sdxc 34
sega 34
shan 34
shing 34
shoe@@ 34
shooter 34
shopp 34
shure 34
skintone 34
smoothie 34
snowflake 34
spears 34
sportswear 34
sq 34
static 34
sty 34
supple 34
tagalog 34
teething 34
temperd 34
textile 34
thomson 34
tina 34
trouble 34
und@@ 34
val 34
wel@@ 34
wonder@@ 34
wood@@ 34
woofer 34
yuri 34
zf 34
zg 34
zoey 34
zzy 34
P@@ 33
addict 33
adjuster 33
antiseptic 33
app@@ 33
appliances 33
ask 33
ass 33
astray 33
asymmetrical 33
backup 33
barber 33
beginner 33
beverage 33
billabong 33
billiard 33
blaze 33
bleu 33
boardwalk 33
box@@ 33
bradley 33
btob 33
bucks 33
butane 33
cappuccino 33
carton 33
cheddar 33
cignus 33
cindy 33
classical 33
collage 33
conan 33
connecting 33
course 33
creamsilk 33
croc 33
crossing 33
cutters 33
dark@@ 33
detective 33
dv@@ 33
ellie 33
ems 33
enchanted 33
enclosure 33
engraved 33
eon 33
ere 33
fiona 33
fly@@ 33
foglight 33
footsocks 33
framed 33
frill 33
frixion 33
gr 33
griffin 33
hanes 33
hardtop 33
henry 33
hersheys 33
himalaya 33
hollywood 33
integrated 33
ise 33
journey 33
jw 33
knorr 33
kumot 33
kyle 33
lamborghini 33
leonard 33
lli@@ 33
logi@@ 33
met 33
mists 33
monarch 33
moose 33
movement 33
nar@@ 33
nhance 33
novelty 33
nudes 33
oc@@ 33
omron 33
optimus 33
pass 33
patched 33
paulo 33
pcx 33
pho@@ 33
plugs 33
pom 33
pped 33
psu 33
pun@@ 33
rail 33
rainy 33
ralliart 33
ray@@ 33
rayon 33
reserve 33
restore 33
rexona 33
rh 33
rh@@ 33
rustic 33
sace 33
secosana 33
selected 33
send 33
spe@@ 33
srp 33
submersible 33
sucker 33
tease 33
thi@@ 33
thompson 33
thrift 33
tied 33
tk 33
toast 33
tong 33
toothpick 33
twenty 33
ufc 33
vco 33
vehicles 33
viva 33
waistband 33
windbreaker 33
wl 33
xuebami 33
C@@ 32
african 32
ak@@ 32
angry 32
antibac 32
anycast 32
area 32
armrest 32
atmosphere 32
avi@@ 32
babyg 32
bake 32
baker 32
bay@@ 32
bear@@ 32
bhw 32
bie 32
blast 32
blazers 32
bles 32
bmx 32
bowling 32
brownie 32
bru@@ 32
caddy 32
cassandra 32
cci 32
chamois 32
clasp 32
compaq 32
conceal 32
connection 32
cooper 32
crankcase 32
creator 32
crisp 32
curvy 32
denso 32
dimension 32
donald 32
drunk 32
electroplate 32
emp@@ 32
encore 32
eng@@ 32
epi@@ 32
eur 32
ev@@ 32
executive 32
extractor 32
face@@ 32
faito 32
feed 32
fence 32
fir@@ 32
flange 32
flo 32
fragrant 32
fresh@@ 32
frnc 32
fujidenzo 32
gam@@ 32
gamuza 32
geronimo 32
glutax 32
godzilla 32
gw@@ 32
hbd 32
holic 32
hourglass 32
hours 32
houston 32
hrv 32
hstnn 32
hydrogel 32
ines 32
ingredients 32
insta 32
iphonexr 32
iso@@ 32
itzy 32
jaguar 32
jeep 32
jennie 32
jewellery 32
jim 32
kee 32
kiehl 32
kinds 32
kodak 32
ladder 32
lex 32
lexi 32
library 32
loaf 32
lounge 32
lpg 32
lunar 32
macbeth 32
magnifier 32
magnolia 32
magnum 32
maii 32
mauve 32
mech 32
minimal 32
nan 32
near 32
ngk 32
nn 32
oily 32
ona 32
org@@ 32
ornaments 32
os@@ 32
oversea 32
padding 32
parking 32
pas 32
periwinkle 32
pf 32
physicians 32
pie@@ 32
pills 32
pit@@ 32
plan 32
planer 32
poppy 32
pos 32
primary 32
prism 32
propeller 32
put 32
qnet 32
rebecca 32
recording 32
repairing 32
rie 32
rollerball 32
runs 32
rxr 32
sailormoon 32
scooper 32
scra@@ 32
senka 32
september 32
sew 32
shan@@ 32
shar@@ 32
shy 32
silverworks 32
skinlab 32
slam 32
slice 32
sonia 32
sound@@ 32
spd 32
speak 32
specialty 32
spoons 32
spotlight 32
sses 32
stacking 32
stefan 32
stic 32
sto 32
strand 32
sulwhasoo 32
sup 32
suv 32
sweatshorts 32
terminal 32
thickening 32
tor 32
trees 32
triton 32
tti 32
var@@ 32
veil 32
weekender 32
westbrook 32
writer 32
wx 32
yield 32
yours 32
yoyoso 32
α@@ 32
ako 31
alligator 31
armpit 31
asymmetric 31
aussie 31
backlight 31
baf 31
bby 31
bedside 31
bells 31
butterscotch 31
campus 31
carla 31
cassie 31
celeteque 31
cheesecake 31
cher 31
choco@@ 31
christie 31
coco@@ 31
coldshoulder 31
colleen 31
comes 31
coming 31
crane 31
crate 31
cruise 31
cts 31
damaged 31
dandelion 31
df 31
dh@@ 31
diamante 31
digest 31
diver 31
divine 31
dollhouse 31
donna 31
drl 31
dt 31
dylan 31
ejm 31
ello 31
embroid 31
ergonomic 31
fabcon 31
falling 31
fel@@ 31
fg@@ 31
fied 31
fleer 31
fleetmax 31
freego 31
friday 31
furla 31
gallery 31
gamosa 31
gerry 31
ght 31
girly 31
glucose 31
goo@@ 31
gue@@ 31
happy@@ 31
hazeshop 31
ibo 31
icosmetica 31
inang 31
indigo 31
infusion 31
irregular 31
jer@@ 31
jf 31
jinju 31
jjs 31
jonaxx 31
kal@@ 31
know 31
komodo 31
korean@@ 31
ktph 31
lala 31
lay@@ 31
lazel 31
lebelage 31
lee@@ 31
leigh 31
lette 31
lids 31
longrich 31
macadamia 31
mascot 31
midoko 31
mochi 31
movable 31
msh 31
much 31
nd 31
nectarine 31
nicer 31
night@@ 31
noblekids 31
ntc 31
ob 31
origins 31
overwatch 31
pack@@ 31
pantyliner 31
paperang 31
pekas 31
pipes 31
ple@@ 31
pra@@ 31
pregnant 31
preparation 31
primark 31
protec 31
putty 31
queen@@ 31
rad 31
rinse 31
roblox 31
rockets 31
rp 31
rta 31
ru 31
rubbershoes 31
russell 31
ryzen 31
saber 31
saga 31
saudigold 31
scrubber 31
servings 31
set@@ 31
shooting 31
sle@@ 31
sleveless 31
soon 31
spanish 31
stand@@ 31
stansmith 31
sunsilk 31
tac 31
ther 31
thief 31
tnt 31
tokidoki 31
toronto 31
totally 31
tuner 31
veins 31
velvetines 31
ven 31
village 31
vita@@ 31
vy 31
wall@@ 31
waves 31
whi@@ 31
whit@@ 31
wii 31
wind@@ 31
woo 31
wor@@ 31
wr@@ 31
write 31
xtra 31
T@@ 30
abdomen 30
airbrush 30
anda 30
angel@@ 30
ants 30
aquatic 30
archie 30
are@@ 30
ariana 30
barcode 30
bedtime 30
bga 30
blake 30
blowout 30
booklet 30
braid 30
brera 30
brothers 30
bumebime 30
caribbean 30
caseology 30
chrono 30
cici 30
coke 30
come 30
compress 30
cos 30
coverup 30
ctive 30
density 30
dermacol 30
designplus 30
despicable 30
dexe 30
din 30
drama 30
earl 30
ef 30
effector 30
entrance 30
entry 30
eric 30
esme 30
exchange 30
fav 30
favorites 30
fd@@ 30
feathers 30
feeling 30
fishnet 30
freshly 30
gatsby 30
glutalight 30
godox 30
groot 30
ham 30
haven 30
hh 30
hn 30
horizon 30
instabright 30
ite@@ 30
jojoba 30
justin 30
kara 30
kir@@ 30
komine 30
kra@@ 30
lacy 30
lara 30
lbb 30
leader 30
leave 30
lers 30
lk 30
locks 30
looking 30
lor 30
lose 30
louise 30
loves 30
luckin 30
macrame 30
maid 30
menstrual 30
mis@@ 30
mmy 30
mortal 30
mtr 30
mtrt 30
nc 30
nemo 30
netflix 30
nets 30
nourish 30
nuby 30
oriental 30
osmo 30
pals 30
pang@@ 30
para 30
paws 30
pedicure 30
pentel 30
percy 30
piso 30
pms 30
prevent 30
private 30
pudding 30
puffs 30
py 30
quantum 30
quart 30
raffles 30
raven 30
ream 30
recovery 30
refills 30
register 30
relx 30
retinol 30
riley 30
rit@@ 30
sala 30
schoolbag 30
seasoned 30
shabu 30
shiro 30
shop@@ 30
shrimp 30
sie 30
sincerity 30
singing 30
sippy 30
ski@@ 30
skintouch 30
sl@@ 30
softband 30
speed@@ 30
stains 30
strobe 30
sulfate 30
tali 30
teenage 30
tel 30
tension 30
theater 30
then 30
thinkpad 30
tia 30
toppers 30
tou@@ 30
tran@@ 30
try 30
turband 30
tuxedo 30
underwater 30
vanessa 30
vel 30
warning 30
wf 30
yakimoto 30
yema 30
yet 30
yy 30
ace@@ 29
adilette 29
again 29
arri@@ 29
arti@@ 29
ast@@ 29
azur 29
barebody 29
bigsize 29
biztree 29
blankets 29
bn@@ 29
bubblegum 29
bustier 29
busy 29
buzz 29
camry 29
candy@@ 29
carol 29
casino 29
central 29
cerave 29
chekered 29
chu 29
cir@@ 29
citizen 29
cms 29
coelho 29
conversion 29
corned 29
corrugated 29
counting 29
creation 29
cross@@ 29
decker 29
decool 29
deli@@ 29
deodorizer 29
dex 29
dinosaurs 29
dipbrow 29
doh 29
donruss 29
drawers 29
dyna@@ 29
editions 29
eg@@ 29
emb@@ 29
ering 29
ero 29
faceshop 29
factor 29
fifi 29
filipiniana 29
finished 29
foglamp 29
follow 29
fpv 29
fullface 29
garment 29
gigi 29
going 29
gor@@ 29
greeting 29
grizzly 29
guardians 29
hamilton 29
hamper 29
hikari 29
holster 29
hunt 29
hx 29
icm 29
individually 29
infallible 29
inn 29
intal 29
io 29
ivana 29
jh@@ 29
joggers 29
juan 29
jvt 29
kan 29
karadium 29
katsa 29
kily 29
kindergarten 29
kiwi 29
koso 29
kuroko 29
lala@@ 29
leather@@ 29
lewis 29
lje 29
ln 29
locker 29
loops 29
lumens 29
maca 29
marga 29
matter 29
maxi@@ 29
mess 29
metromanila 29
mf@@ 29
mice 29
milkca 29
mira@@ 29
modeling 29
morty 29
mun 29
muse 29
nano@@ 29
nas 29
ned 29
needles 29
negotiable 29
newyork 29
ney 29
omaga 29
onlyyouth 29
ony 29
packbag 29
papers 29
password 29
perkins 29
phat 29
prep 29
primera 29
puffed 29
quinoa 29
ramyun 29
resealable 29
ric 29
rodeo 29
rohto 29
roof 29
rrj 29
rsgw 29
sable 29
salve 29
sanji 29
saya 29
secondhand 29
secure 29
shir@@ 29
silica 29
sion 29
siren 29
skins 29
slimfit 29
sos 29
spyker 29
squareneck 29
stealth 29
sterile 29
sters 29
stila 29
stx 29
sum 29
sx 29
tar 29
television 29
tiesides 29
tis 29
topps 29
tra 29
tracy 29
ts@@ 29
ud 29
vegetarian 29
vein 29
vero 29
vinci 29
virginity 29
visible 29
voucher 29
vtech 29
washcloth 29
watch@@ 29
whitener 29
willow 29
wishes 29
work@@ 29
wp 29
zon 29
A@@ 28
acc 28
agent 28
ahd 28
alaric 28
anker 28
ant@@ 28
apruva 28
aqva 28
arpege 28
atlas 28
atom 28
atv 28
bakeware 28
baleno 28
barbara 28
barely 28
bennett 28
benz 28
birken 28
boards 28
bobson 28
bonbon 28
cables 28
cali 28
camcorder 28
cameron 28
camp 28
chilli 28
chimmy 28
chinkee 28
chro@@ 28
cing 28
cket 28
cleanse 28
coachella 28
continental 28
crimson 28
croco 28
crystalline 28
cuffed 28
destash 28
dha 28
drypers 28
earloop 28
embroider 28
environmental 28
essie 28
est@@ 28
exfoliant 28
exotic 28
fashionice 28
financial 28
fingers 28
flexi 28
flirt 28
flounce 28
folds 28
freesia 28
frontier 28
fudge 28
gkk 28
glade 28
greek 28
guards 28
gun@@ 28
hairbows 28
handles 28
hat@@ 28
hatsune 28
held 28
hig@@ 28
highlighters 28
hinges 28
hungry 28
hygiene 28
id@@ 28
ies 28
inclusive 28
intra 28
ips 28
ition 28
jack@@ 28
january 28
jor@@ 28
jung 28
jute 28
kanken 28
karat 28
kathryn 28
katrina 28
kawhi 28
kevler 28
kry@@ 28
kur@@ 28
ladladlandph 28
lamaze 28
lamps 28
lation 28
latitude 28
layout 28
lei@@ 28
lian 28
lies 28
log 28
looks 28
lux@@ 28
luxcent 28
madison 28
maiden 28
maldita 28
mania 28
marmont 28
mavic 28
maxell 28
mdr 28
mfsunnies 28
minimizer 28
ml@@ 28
mlb 28
monte 28
mots 28
mrc 28
muscletech 28
narrow 28
nightmare 28
oi@@ 28
ole 28
ology 28
osram 28
oud 28
outside 28
overun 28
parallel 28
patterson 28
pba 28
pes 28
pili 28
pink@@ 28
ple 28
polisher 28
pong 28
projection 28
promise 28
prreti 28
purchase 28
qc 28
qube 28
quiksilver 28
rado 28
ral 28
rat@@ 28
repeater 28
resident 28
restocked 28
rin 28
rules 28
ryxskin 28
sabina 28
sandugo 28
savers 28
sel 28
sgp 28
sher 28
shuta 28
sil 28
sim@@ 28
slogan 28
sooper 28
spectrum 28
spoke 28
stor@@ 28
superheroes 28
supplements 28
sus 28
susan 28
tablea 28
talc 28
tassels 28
teabags 28
teats 28
thermo@@ 28
thickened 28
thumbler 28
tilt 28
tongue 28
tsubaki 28
twi@@ 28
twopiece 28
tyre 28
ulzzang 28
units 28
unsweetened 28
ura 28
valiant 28
ventilation 28
vers 28
vine 28
vir@@ 28
virtual 28
vivi 28
whisky 28
wj 28
woods 28
xlarge 28
xmax 28
yaris 28
zoya 28
aesop 27
alchemist 27
alu@@ 27
aluminium 27
animated 27
anya 27
ater 27
aukey 27
authorized 27
avr 27
batt@@ 27
beats 27
bee@@ 27
beth 27
bija 27
biking 27
blisty 27
bourke 27
bow@@ 27
brite 27
brook 27
brushless 27
bulldog 27
bumble 27
bumgenius 27
cabana 27
cache 27
camou 27
cardcaptor 27
cavaliers 27
chapter 27
cheeks 27
chin@@ 27
ciss 27
ckers 27
cloth@@ 27
clu@@ 27
cocoberry 27
colour@@ 27
commander 27
cot 27
dal@@ 27
dale 27
dashing 27
diaries 27
dna 27
doggy 27
drift 27
eclipse 27
emboss 27
enriched 27
ent 27
envelopes 27
epoch 27
eth@@ 27
exquisite 27
fast@@ 27
files 27
finest 27
finn 27
florence 27
francesca 27
freak 27
frequency 27
fujitsu 27
garanimals 27
ghz 27
gig@@ 27
giving 27
glas 27
gli@@ 27
gods 27
gone 27
goo 27
grandia 27
gsw 27
hinge 27
hips 27
horror 27
hugot 27
ilog 27
ionic 27
iti@@ 27
jar@@ 27
jibbitz 27
jordana 27
julong 27
jun 27
kandp 27
kers 27
kilogram 27
kilos 27
kimchi 27
kittens 27
ktv 27
lactation 27
land@@ 27
lattice 27
lemongrass 27
lepin 27
lesportsac 27
ling@@ 27
liv 27
lucy 27
luke 27
lunchbag 27
luncheon 27
malt 27
medicinal 27
meyer 27
micari 27
might 27
mined 27
moistfull 27
mona 27
mounting 27
mutarru 27
mxr 27
naturacentials 27
natures 27
neca 27
nomad 27
november 27
october 27
ones 27
organi@@ 27
orginal 27
oro 27
oscar 27
overalls 27
palawan 27
pand@@ 27
path 27
pay@@ 27
pillowcases 27
pitta 27
plex 27
plusize 27
pocketbook 27
polly 27
pranela 27
printable 27
pristine 27
prize 27
prosperity 27
psvita 27
reality 27
rectifier 27
reese 27
refining 27
relaxing 27
renewing 27
retailer 27
rey 27
robes 27
rou@@ 27
rows 27
ruched 27
sad 27
sana 27
sanitizing 27
satellite 27
seatcover 27
shane 27
sheath 27
shirly 27
slate 27
slr 27
smart@@ 27
smashbox 27
smock 27
squeaky 27
sted 27
stiletto 27
stine 27
str@@ 27
stripper 27
suki 27
superbklean 27
surround 27
sym 27
tang 27
tapioca 27
throat 27
touch@@ 27
tto 27
tulip 27
txt 27
ubiquiti 27
uhd 27
ukelele 27
underarmour 27
velour 27
vise 27
watsons 27
wb 27
wearing 27
webcam 27
wei 27
wholesaler 27
wild@@ 27
xinjia 27
xqt 27
yalex 27
yn@@ 27
I@@ 26
acidic 26
adjust 26
aladdin 26
already 26
amor 26
ancient 26
ania 26
aqua@@ 26
astro@@ 26
astronaut 26
ato@@ 26
bad@@ 26
bble 26
beau@@ 26
bias 26
birkin 26
blan@@ 26
bloody 26
bnwot 26
bonnie 26
breathe 26
bron@@ 26
bsn 26
butterflies 26
cali@@ 26
canned 26
cardboard 26
cellular 26
cey 26
checker 26
cherie 26
chick 26
chok 26
cide 26
cio 26
cking 26
collins 26
colorstay 26
coloured 26
colourful 26
coupler 26
cracker 26
crist@@ 26
crème 26
dalandan 26
dana 26
decathlon 26
deepcool 26
deoproce 26
dia@@ 26
division 26
dont 26
doors 26
dowell 26
downlight 26
dryfit 26
dura@@ 26
dusk 26
ebene 26
ebike 26
eleven 26
energizer 26
enhance 26
essences 26
eternal 26
experia 26
falcon 26
fantasies 26
fat@@ 26
fearless 26
fierce 26
flash@@ 26
flute 26
fra 26
furious 26
geena 26
geo 26
ges 26
ghoul 26
glassware 26
gly@@ 26
grammar 26
grit 26
hard@@ 26
hay@@ 26
hemp 26
honey@@ 26
houseware 26
hss 26
hypo 26
ichiban 26
illustrated 26
imp@@ 26
infused 26
ions 26
isabelle 26
ish 26
jan 26
jelt 26
jerseys 26
jewels 26
jk@@ 26
jon@@ 26
joyo 26
jto 26
kh@@ 26
kickstand 26
kigurumi 26
kinder 26
kuro@@ 26
lap 26
laurel 26
licensed 26
lig@@ 26
lim 26
liptints 26
live@@ 26
lized 26
lotions 26
macy 26
mamas 26
mang 26
manufactured 26
manufacturer 26
manuka 26
maxwell 26
mcdo 26
mediapad 26
mitt 26
mme 26
monica 26
monitoring 26
mou@@ 26
msa 26
muddy 26
mur@@ 26
murang 26
mus 26
muster 26
neck@@ 26
neem 26
nie 26
nirvana 26
nothing 26
olaf 26
ono 26
oo 26
opti@@ 26
ory 26
otterbox 26
outfits 26
paramore 26
parent 26
parfums 26
pas@@ 26
pashmina 26
ped 26
pel@@ 26
perm 26
pld 26
points 26
polycotton 26
position 26
pou@@ 26
pti@@ 26
qt 26
racks 26
rapoo 26
reve 26
rho@@ 26
rite 26
ryan 26
sabo 26
samplers 26
sasha 26
scripture 26
seconds 26
sensational 26
sentra 26
shapewear 26
shf 26
shoelace 26
shoot 26
singer 26
sisters 26
slay 26
snowflakes 26
sockets 26
soleil 26
sou@@ 26
sportsbra 26
ston 26
strengthening 26
swi@@ 26
symbol 26
syn@@ 26
textbook 26
thigh 26
timex 26
tons 26
trafaluc 26
trans 26
trapal 26
treasures 26
triangular 26
trinity 26
truth 26
turtles 26
tweed 26
ucc 26
ue 26
ultima 26
und 26
uo 26
usborne 26
vd 26
violin 26
volcom 26
vu@@ 26
wahl 26
waikiki 26
watt 26
weatherproof 26
wen@@ 26
whiskas 26
wr 26
wy@@ 26
yeast 26
ym 26
yul 26
yummy 26
znb 26
zy@@ 26
absolu 25
aceking 25
ada@@ 25
ale 25
along 25
alyssa 25
ama 25
anna@@ 25
api 25
arcade 25
authen@@ 25
aventurine 25
bagshop 25
bai@@ 25
bakery 25
bathtub 25
becado 25
beddings 25
bella@@ 25
bieber 25
bikers 25
billie 25
bioline 25
blink 25
bonus 25
brocade 25
buffing 25
builder 25
buyer 25
calorie 25
canmake 25
capo 25
centrix 25
chafing 25
chains 25
chakra 25
check@@ 25
chil@@ 25
clar@@ 25
cleveland 25
closure 25
coast 25
constellation 25
convenient 25
cooky 25
crafting 25
creams 25
davao 25
deformation 25
demi 25
digit 25
direction 25
dive 25
dmax 25
dumbbell 25
ecosport 25
eliminator 25
ely 25
ener 25
eni@@ 25
euro@@ 25
examination 25
fallen 25
fl@@ 25
flags 25
flared 25
focallure 25
freshner 25
freshwater 25
funnel 25
gala@@ 25
gardenia 25
genesis 25
genius 25
girl@@ 25
girlfriend 25
gn@@ 25
goodnight 25
graduation 25
grande 25
graphite 25
guc 25
guerisson 25
gui@@ 25
guns 25
handsoap 25
hanna 25
haze 25
hea 25
hea@@ 25
headsets 25
highlighting 25
hobonichi 25
hun@@ 25
hunger 25
illuminated 25
incredible 25
injection 25
insipio 25
int@@ 25
iphonexs 25
jb 25
jona 25
jovan 25
kapote 25
kari 25
kathy 25
kaye 25
kendall 25
kle@@ 25
knapsack 25
kojie 25
kst 25
kx 25
lac 25
laine 25
leak 25
leapfrog 25
lett@@ 25
lie@@ 25
lina 25
linda 25
lipkit 25
litchi 25
loft 25
logy 25
lou 25
lowback 25
lyn@@ 25
madeca 25
main@@ 25
masters 25
maui 25
maxglow 25
melimelo 25
mfjewelry 25
micheal 25
mizuno 25
mn@@ 25
moi@@ 25
mum 25
nacific 25
naturale 25
naughty 25
nectar 25
neil 25
nori 25
northface 25
obsidian 25
od 25
od@@ 25
ode 25
ols 25
oréal 25
ox@@ 25
pad@@ 25
pag@@ 25
pantyhose 25
paper@@ 25
pebble 25
penelope 25
phase 25
phonecase 25
pinas 25
prescription 25
protectant 25
rakk 25
real@@ 25
resi@@ 25
review 25
rockstud 25
rucksack 25
rudu 25
sausage 25
scen@@ 25
scs 25
serena 25
sher@@ 25
shes 25
shinee 25
shots 25
similac 25
skippy 25
skt 25
slingback 25
slo@@ 25
snickers 25
society 25
soya 25
sparco 25
spld 25
spokes 25
spor@@ 25
squash 25
ssion 25
stance 25
stitching 25
strapped 25
tang@@ 25
tara 25
thrasher 25
tiered 25
titans 25
toning 25
tox 25
trucks 25
trust 25
tun@@ 25
ufo 25
ula 25
uma 25
ume 25
urvan 25
vacation 25
vegeta 25
villa 25
weison 25
wer 25
whit 25
williams 25
wintermelon 25
wires 25
within 25
won@@ 25
workpro 25
wynn 25
xin 25
xlr 25
yao 25
you@@ 25
zombie 25
zoo@@ 25
zooey 25
zurc 25
accord 24
agri 24
aircraft 24
allergenic 24
alphaland 24
alta 24
aly@@ 24
andre 24
andriod 24
ath 24
ato 24
bacteria 24
bagoong 24
bak@@ 24
banks 24
bare@@ 24
bark 24
bata 24
beachkins 24
beeswax 24
best@@ 24
bikes 24
blooms 24
boa 24
bratz 24
breasted 24
breastpump 24
bridesmaid 24
bros 24
buldak 24
bundled 24
cancelling 24
cancer 24
cartridges 24
carved 24
caterpillar 24
ced 24
cheeky 24
cher@@ 24
chinos 24
cinnamoroll 24
clare 24
columbia 24
condor 24
corps 24
crypton 24
cuticle 24
dai 24
danielle 24
darci 24
deadly 24
developer 24
dhendhenshop 24
digi@@ 24
discover 24
doz 24
dust@@ 24
earbud 24
eee 24
ellen 24
ence 24
ene 24
engrave 24
engraving 24
ep@@ 24
essen@@ 24
exia 24
eyebrows 24
faye 24
feline 24
fibisco 24
fie 24
fir 24
flux 24
forehead 24
fraiche 24
game@@ 24
generator 24
geometry 24
girbaud 24
given 24
graco 24
granules 24
greencross 24
gunpla 24
hexagonal 24
hippo 24
holding 24
inal 24
inks 24
insole 24
intro 24
invictus 24
iwhite 24
jagthug 24
jenga 24
juniors 24
kay@@ 24
kenko 24
kn 24
knock 24
kyt 24
lands 24
language 24
lifetime 24
livestreaming 24
lla@@ 24
lulu 24
lure 24
mac@@ 24
machines 24
magi@@ 24
masquerade 24
mcfarlane 24
mct 24
megalast 24
meisons 24
meme 24
mendoza 24
meteor 24
mexican 24
miami 24
mica 24
mig 24
miniatures 24
minidress 24
molds 24
momma 24
motif 24
ms@@ 24
mul@@ 24
mulberry 24
mummy 24
names 24
naturactor 24
nee 24
neogen 24
nesoberi 24
nex 24
nickel 24
nido 24
nin@@ 24
numerals 24
nvidia 24
oasis 24
offwhite 24
onic 24
onwards 24
opi 24
organ 24
oto@@ 24
outs 24
pala@@ 24
palazzo 24
pallet 24
papas 24
pasalubong 24
pau@@ 24
peas 24
phoebe 24
pito 24
pixma 24
planter 24
pneumatic 24
pompoms 24
pout 24
preppy 24
preschool 24
prewalker 24
rah 24
raptor 24
reflex 24
role 24
roy 24
rubi 24
rule 24
sardines 24
sdf@@ 24
sele@@ 24
sian 24
silver@@ 24
siopao 24
skybox 24
slim@@ 24
smacker 24
smashing 24
snakeskin 24
snowman 24
sorting 24
sq@@ 24
stable 24
starfish 24
stick@@ 24
stimulator 24
stroke 24
sul@@ 24
sulit 24
sung 24
sunvit 24
swag 24
tab@@ 24
tally 24
tanktop 24
tapered 24
tears 24
techtrance 24
tele@@ 24
they 24
third 24
tneck 24
tnx 24
touchpad 24
tourmaline 24
tron 24
tter 24
tune 24
ture 24
twisting 24
tx 24
until 24
valentus 24
vct 24
vh 24
victor 24
vida 24
vw 24
waltz 24
wanted 24
wavy 24
whirlpool 24
wok 24
woo@@ 24
wpf 24
xm 24
yah 24
yin 24
yna 24
yopokki 24
ysp 24
yuki 24
yx 24
zest 24
E@@ 23
L@@ 23
abby 23
activities 23
acupuncture 23
ade 23
adjustment 23
alangan 23
albom 23
ality 23
alluring 23
alone 23
alph@@ 23
anastacia 23
angled 23
annual 23
antonio 23
applique 23
aq 23
arch 23
archer 23
aria 23
assemble 23
astringent 23
attached 23
audi 23
background 23
baekhyun 23
barbeque 23
berg 23
beta 23
binding 23
boardshorts 23
bobs 23
bodywash 23
bol@@ 23
boyz 23
breathing 23
brightest 23
broom 23
buckles 23
bulbs 23
cai@@ 23
calf 23
capiz 23
cardstock 23
carrie 23
carryall 23
cateye 23
cation 23
cause 23
cca 23
celestial 23
ceramide 23
chain@@ 23
chandelier 23
chargers 23
chocker 23
christ 23
chun@@ 23
cie 23
concrete 23
cool@@ 23
correcting 23
cracked 23
crewneck 23
crossover 23
cuffs 23
cyber 23
daks 23
dare 23
dbz 23
december 23
dentist 23
deo@@ 23
descendants 23
detailed 23
dianne 23
difference 23
dilis 23
dipper 23
dres 23
drool 23
easysoft 23
eczema 23
edens 23
embellished 23
era@@ 23
experience 23
extras 23
fading 23
fansite 23
february 23
ffy 23
fiberglass 23
fier 23
flavour 23
fleshlight 23
fortnite 23
fructis 23
gary 23
gashapon 23
germ 23
gk 23
glutamax 23
gma 23
granola 23
grs 23
gst 23
gue 23
gugo 23
gus 23
halogen 23
hear@@ 23
heroine 23
hey 23
hit 23
hurley 23
hy 23
ice@@ 23
improved 23
iner 23
ini@@ 23
iphonexsmax 23
irdy 23
jackie 23
janet 23
jig 23
jill 23
jomalone 23
jurassic 23
kapeng 23
karl 23
kihno 23
kissed 23
kno@@ 23
koreanfashion 23
kose 23
lalaloopsy 23
lated 23
laughing 23
lazypod 23
leap 23
leche 23
ledsign 23
legion 23
lexing 23
licious 23
lint 23
llo 23
lls 23
lus 23
lz 23
margaret 23
masked 23
mati@@ 23
mble 23
mechanism 23
melted 23
metallica 23
metric 23
metrosunnies 23
microns 23
mijia 23
milestone 23
milkshake 23
milwaukee 23
mise 23
mitchell 23
monomola 23
montessori 23
moulded 23
mper 23
mumu 23
mustela 23
mw 23
mxi 23
mz 23
napkins 23
nes 23
nib 23
nik 23
nis 23
nutritional 23
oh@@ 23
ok@@ 23
ola@@ 23
older 23
oliver 23
ong@@ 23
opaque 23
oria 23
orig@@ 23
osaki 23
ost 23
oster 23
overlay 23
oxidant 23
oyster 23
pastillas 23
percent 23
phil 23
photopaper 23
pictures 23
pique 23
pirates 23
plushies 23
porsche 23
ppers 23
procare 23
prone 23
pss 23
puller 23
quicksilver 23
radeon 23
radi@@ 23
really 23
realmex 23
reel 23
repackage 23
replace 23
ress 23
richard 23
rightpack 23
rire 23
rotatable 23
rum 23
sad@@ 23
sala@@ 23
saliva 23
sanchez 23
sas 23
school@@ 23
scope 23
scorpio 23
scrapbooking 23
script 23
sensation 23
serve 23
sf@@ 23
sharpie 23
shatterproof 23
shepherd 23
shippuden 23
shovel 23
sio 23
sleep@@ 23
sma 23
sman 23
smd 23
smoked 23
snowy 23
snsd 23
spagetti 23
sphere 23
sport@@ 23
stan@@ 23
stro@@ 23
struck 23
sue 23
sumsung 23
supergirl 23
taro 23
tay@@ 23
ted@@ 23
terminator 23
thongs 23
threaded 23
tofu 23
trek 23
trident 23
trumpet 23
tubbies 23
twine 23
twinings 23
ultraviolet 23
ultron 23
variation 23
vca 23
victorian 23
vince 23
wade 23
wg 23
wilton 23
wily 23
workbooks 23
xia 23
yk 23
yurry 23
zar@@ 23
zealand 23
zie 23
zipback 23
zx 23
abdominal 22
alliance 22
amelia 22
ampalaya 22
andi 22
angelica 22
anne@@ 22
ari 22
ate@@ 22
aunthentic 22
aways 22
babyboy 22
babyland 22
bac 22
backlit 22
badia 22
bae 22
balanced 22
bana 22
barrier 22
baru 22
bat@@ 22
beep 22
beryl 22
bet 22
beyouthiful 22
bic 22
blitz 22
bnc 22
bobble 22
bookshelf 22
bounty 22
boya 22
boysen 22
branch 22
brit@@ 22
broad 22
broadway 22
brooke 22
bvq 22
caged 22
calendula 22
catholic 22
certificate 22
chargeable 22
chel@@ 22
cheska 22
chlorine 22
choo 22
cinema 22
cious 22
circles 22
clamps 22
clinical 22
cloths 22
cn@@ 22
coa@@ 22
colander 22
colorblock 22
compressed 22
corsair 22
cove 22
crafted 22
cry 22
cry@@ 22
current 22
cv 22
dallas 22
detailing 22
development 22
dig@@ 22
dirt 22
discovery 22
dn 22
dobe 22
dom 22
doo 22
driven 22
dry@@ 22
dummy 22
dun@@ 22
ecotools 22
edc 22
eg 22
ek@@ 22
emo@@ 22
engineer 22
especial 22
ess 22
europe 22
everlasting 22
explosive 22
fashions 22
fasion 22
fei@@ 22
flavoring 22
flowery 22
fluoride 22
flutter 22
folio 22
foo@@ 22
fortified 22
frameless 22
francisco 22
franco 22
frankincense 22
ft@@ 22
galactomyces 22
gdplus 22
gee 22
gemini 22
gillette 22
glam@@ 22
glit@@ 22
glutagen 22
glutha 22
gran@@ 22
gutter 22
gyro 22
hachi 22
half@@ 22
handsome 22
hearing 22
highly 22
hua 22
hurricane 22
imari 22
ined 22
instruments 22
io@@ 22
isa@@ 22
iverson 22
jabra 22
jarrow 22
jenner 22
jewel@@ 22
jg 22
joyce 22
julie 22
kaidon 22
kas 22
kidz 22
kneepad 22
kuji 22
labiotte 22
lable 22
laboratory 22
ladle 22
laila 22
lasercut 22
latch 22
leen 22
lipliner 22
lipp@@ 22
livestream 22
lng 22
loloph 22
lots 22
loud 22
lumi 22
luxurious 22
magnus 22
manifold 22
marshall 22
masturbation 22
med@@ 22
members 22
mental 22
meri@@ 22
merrysun 22
milka 22
ming@@ 22
mirrorless 22
mna 22
mng 22
modified 22
molten 22
monaco 22
mothers 22
mr@@ 22
narciso 22
naturally 22
negosyo 22
ners 22
niv 22
nss 22
nuk 22
nuskin 22
nutshell 22
opti 22
option 22
organizers 22
orico 22
oro@@ 22
orocan 22
osh 22
painless 22
pasjel 22
perfector 22
petron 22
phonics 22
picanto 22
pil@@ 22
pleat 22
pokémon 22
polvoron 22
powerpuff 22
proven 22
pusheen 22
pussy 22
pyrex 22
qs 22
quality@@ 22
ran 22
randomly 22
rei 22
research 22
rhea 22
rihanna 22
ringlight 22
riverdale 22
roronoa 22
rounds 22
rugs 22
russe 22
ruth 22
rxk 22
sacred 22
salicylic 22
sanicare 22
santé 22
scrunchie 22
serpentina 22
sharing 22
shit 22
shor@@ 22
skn 22
slipon 22
snow@@ 22
sorry 22
soybean 22
sprinkles 22
starts 22
stitched 22
strontium 22
sweeper 22
taehyung 22
tal 22
tamarind 22
tatcha 22
tcg 22
tee@@ 22
tequila 22
thai@@ 22
thayers 22
theraphy 22
threads 22
ths 22
tions 22
toasted 22
tobi 22
toha 22
tomorrow 22
topic 22
tracking 22
transceiver 22
trip 22
trolly 22
ttl 22
tucson 22
tuffgear 22
turkey 22
twotone 22
ulta 22
unbreakable 22
uro 22
volumizing 22
wan@@ 22
wea@@ 22
weeks 22
wet@@ 22
wicked 22
wm 22
wq@@ 22
xe 22
yan@@ 22
yaoi 22
yc 22
aba@@ 21
aci@@ 21
adore 21
aichun 21
ail 21
airdots 21
aka@@ 21
almay 21
alternative 21
ample 21
amway 21
anatomy 21
ane@@ 21
ange@@ 21
anytek 21
aphrodite 21
apo@@ 21
aries 21
arrive 21
ateneo 21
author 21
avery 21
bago 21
baruan 21
bed@@ 21
bility 21
blanca 21
blended 21
blos 21
bluehouse 21
boba 21
bok 21
boombox 21
boracay 21
borrowed 21
bosca 21
bourbon 21
brand@@ 21
brazil 21
bre 21
brighten 21
buyers 21
bv@@ 21
cedarwood 21
cellowax 21
cfv 21
chable 21
champions 21
chat 21
cheaper 21
checked 21
chee@@ 21
chemica 21
chri@@ 21
cjve 21
cobalt 21
coffe 21
coleen 21
colle@@ 21
colon 21
comp 21
contra@@ 21
controlled 21
cora@@ 21
correct 21
cotton@@ 21
covid 21
crinkles 21
crossgrain 21
ctions 21
cus 21
dashiki 21
dbs 21
ddy 21
definer 21
dir 21
disp@@ 21
dok 21
doo@@ 21
door@@ 21
dra 21
dunhill 21
dusty 21
ego 21
eliquid 21
elise 21
ends 21
enthusiast 21
epilator 21
eqt 21
equalizer 21
erie 21
erry 21
essensa 21
expander 21
factorie 21
feast 21
finds 21
flat@@ 21
flip@@ 21
flipcover 21
fliptop 21
food@@ 21
fred 21
frida 21
frogsuits 21
garments 21
gay 21
genevieve 21
gir@@ 21
gladking 21
glutapower 21
graph 21
greentea 21
heartstrings 21
hearty 21
heat@@ 21
heimish 21
hematite 21
hh@@ 21
hibiscus 21
hin@@ 21
hippie 21
hipseat 21
hjc 21
honesty 21
howlite 21
hu 21
huenicorn 21
insta@@ 21
iso 21
jart 21
juvia 21
jx 21
jz 21
kao 21
kappa 21
katie 21
kills 21
kins 21
kita 21
klay 21
klean 21
kristine 21
kung 21
lah 21
lana 21
landscape 21
languages 21
lei 21
lexington 21
lipstain 21
lipz 21
loading 21
locally 21
longsleve 21
lumbar 21
lychee 21
lyla 21
maggi 21
maggie 21
makoto 21
mane 21
maru 21
masonry 21
mattifying 21
maybeline 21
mcdavid 21
mcg 21
meg 21
mercedes 21
metalic 21
mgs 21
microtex 21
miguel 21
mika 21
mila 21
milanos 21
mile 21
misaki 21
mitten 21
mmt 21
molly 21
morocco 21
mountaineering 21
mulan 21
multimeter 21
muslin 21
nah 21
nai@@ 21
narnia 21
natura@@ 21
nestea 21
neu@@ 21
news 21
nickelodeon 21
nipper 21
noel 21
nord 21
oled 21
olo 21
open@@ 21
opulent 21
ore 21
orthodontic 21
ot@@ 21
ov@@ 21
ow@@ 21
oy 21
pagoda 21
panyo 21
parade 21
parfois 21
pastels 21
patricia 21
pave 21
pcie 21
pebbles 21
pellet 21
perfectly 21
petroleum 21
phyto 21
pinwheel 21
pleats 21
porefessional 21
powerline 21
promod 21
prote@@ 21
pug 21
puree 21
purses 21
px 21
qiyi 21
ql 21
qqq 21
quote 21
reindeer 21
relic 21
reliever 21
restaurant 21
ret 21
rev 21
ricci 21
ritual 21
rodriguez 21
ross 21
roth 21
rubber@@ 21
sae 21
sasuke 21
scalar 21
scoopy 21
screws 21
scrunchies 21
sda@@ 21
sei@@ 21
sellers 21
seri@@ 21
shadows 21
shiba 21
shinny 21
shirataki 21
shs 21
shu 21
sigma 21
signs 21
sissy 21
skyline 21
skywalker 21
sletic 21
sliver 21
snorkeling 21
softbound 21
soles 21
soo@@ 21
soprano 21
soulty 21
spain 21
spar@@ 21
spareparts 21
spellbinders 21
squares 21
ssed 21
ssi 21
starlight 21
starting 21
sugardolls 21
superb 21
sure@@ 21
suyod 21
sv 21
sweatpants 21
sweatshirts 21
sweet@@ 21
swipe 21
tabletop 21
tanya 21
tca 21
teach 21
template 21
tera 21
terno@@ 21
testers 21
tightening 21
tique 21
toes 21
tolda 21
toni 21
trekking 21
tus 21
twister 21
ul 21
urine 21
vagina 21
vaio 21
vert 21
vey 21
vgod 21
voyager 21
vu 21
wai@@ 21
watchportal 21
wears 21
william 21
windmill 21
women@@ 21
wrapping 21
wreath 21
xen@@ 21
xenon 21
xipin 21
xunod 21
xylophone 21
yb 21
yel@@ 21
yen 21
ypad 21
zaine 21
zenutrients 21
zippy 21
zza 21
è 21
O@@ 20
aa@@ 20
abacus 20
ado 20
ageless 20
agua 20
allo@@ 20
alto 20
amazonian 20
ame@@ 20
aozi 20
appetite 20
aprilskin 20
asda@@ 20
atta@@ 20
authenthic 20
aya 20
ball@@ 20
bart 20
basahan 20
beautika 20
beauté 20
bebeta 20
beginning 20
benefits 20
bergamot 20
bills 20
blkshp 20
blues 20
bobby 20
bootleg 20
bore 20
breaking 20
breath@@ 20
bring 20
buko 20
butter@@ 20
bx 20
caffeine 20
candie 20
canter 20
carabiner 20
cari@@ 20
cell@@ 20
centrum 20
chalkboard 20
chang@@ 20
char 20
cheetah 20
chemistry 20
christ@@ 20
cit@@ 20
cling 20
cockroach 20
composition 20
continuous 20
convention 20
cosmos 20
craze 20
crisps 20
cuir 20
cul@@ 20
cultivera 20
curity 20
cx@@ 20
dame 20
dant 20
dennis 20
detoxifying 20
die@@ 20
dion 20
directional 20
dle 20
doremi 20
dragon@@ 20
duct 20
duncan 20
dura 20
eggplant 20
eilish 20
electro@@ 20
elena 20
elisse 20
end@@ 20
enhancement 20
enhancing 20
ening 20
enzyme 20
erasers 20
eta 20
ets 20
eve@@ 20
even 20
excelsior 20
fahrenheit 20
fash@@ 20
fen@@ 20
fifth 20
filament 20
filtration 20
finding 20
fjallraven 20
fjs 20
flagship 20
flashcards 20
flower@@ 20
foiled 20
fore@@ 20
foreign 20
freya 20
fru@@ 20
fuji@@ 20
funandsmart 20
gamusa 20
gard 20
ged 20
gent 20
gger 20
gibson 20
ginebra 20
glamorous 20
glazed 20
glorious 20
gms 20
gordon 20
grommet 20
gwen 20
hairdressing 20
hall 20
hana 20
hawaii 20
headpiece 20
heli@@ 20
hello@@ 20
helper 20
hermès 20
highend 20
houndstooth 20
hugger 20
hughes 20
hundred 20
icecream 20
ight 20
illu@@ 20
illustration 20
increase 20
invicta 20
ipx 20
izumi 20
jaw 20
jergens 20
johnny 20
johnsons 20
jol@@ 20
jumsuit 20
jy@@ 20
jys 20
kalimba 20
kape 20
katty 20
kinetic 20
kle 20
kleancolor 20
kool 20
kosh 20
lady@@ 20
lai@@ 20
lameila 20
lator 20
lau@@ 20
laugh 20
launcher 20
lavatory 20
lazuli 20
leboy 20
ler@@ 20
liberty 20
lighted 20
lives 20
lle@@ 20
lockset 20
loki 20
longwear 20
lorac 20
ltd 20
luigi 20
lumia 20
lyra 20
mai 20
mailtank 20
mandy 20
manipis 20
martens 20
matte@@ 20
mcdodo 20
measurement 20
meco 20
meiya 20
mercer 20
microwaveable 20
mimosa 20
miss@@ 20
mission 20
missugars 20
mongol 20
mother@@ 20
motivational 20
mrg 20
mtk 20
mudmaster 20
nam@@ 20
nerdy 20
newly 20
nies 20
nl 20
nora 20
oakley 20
obi 20
omo 20
onal 20
optics 20
orient 20
outfitters 20
pac 20
packets 20
pare@@ 20
pedi 20
pediasure 20
planters 20
pli@@ 20
portal 20
portia 20
promil 20
pucca 20
pulls 20
purr 20
qkz 20
quelch 20
quiz 20
raffle 20
raion 20
rape 20
rays 20
recon 20
reducer 20
reducing 20
reg 20
rei@@ 20
reign 20
remember 20
repelling 20
revenge 20
rhi@@ 20
rhino 20
rita 20
rivets 20
rtx 20
sTM 20
saemmul 20
sai 20
saki 20
sassa 20
savage 20
scrubsuit 20
seedling 20
sei 20
sekushi 20
selma 20
semilarge 20
sharpening 20
shear 20
sho 20
showa 20
shuttlecock 20
shuya 20
sic 20
sidemirror 20
silka 20
sitting 20
skye 20
slee@@ 20
sleepsuit 20
sley 20
slu@@ 20
smi@@ 20
smo@@ 20
smocking 20
snaps 20
souls 20
soundbar 20
spam 20
spanribs 20
sponges 20
spots 20
spurs 20
stain@@ 20
stich 20
stv 20
subaru 20
sunkissed 20
superdry 20
teak 20
temper 20
thin@@ 20
tho@@ 20
thug 20
thunder@@ 20
tigger 20
ting@@ 20
tinker 20
tive 20
tokkyo 20
trailblazer 20
travis 20
trenchcoat 20
trf 20
tsa 20
turbans 20
turner 20
ultragirl 20
um@@ 20
valkyrie 20
venum 20
vers@@ 20
videoke 20
vmi 20
voltron 20
walnut 20
wgw 20
xc 20
xf 20
xhilaration 20
xie 20
yar@@ 20
yon 20
yonex 20
yonk 20
zaku 20
zoeva 20
M@@ 19
abbott 19
abonne 19
abundant 19
aio 19
airbed 19
alexander 19
amara 19
amin@@ 19
another 19
appearance 19
aq@@ 19
aro 19
asi@@ 19
ass@@ 19
babygirl 19
babyliss 19
banig 19
bd 19
beat@@ 19
bela 19
bene@@ 19
bert 19
bitter 19
bluetooh 19
blv 19
bongbong 19
bottega 19
bourne 19
brandy 19
brazillian 19
breast@@ 19
brembo 19
buck@@ 19
camelbak 19
caplets 19
carizma 19
cavity 19
celebration 19
cellophane 19
chameleon 19
chanyeol 19
chaos 19
chen@@ 19
chime 19
chord 19
chroma 19
chunks 19
church 19
cial 19
city@@ 19
climbing 19
coastar 19
colar 19
comouflage 19
companion 19
condiments 19
conver@@ 19
coun@@ 19
cour@@ 19
cowhide 19
crea@@ 19
cristina 19
cting 19
cup@@ 19
customizable 19
cynthia 19
dam 19
daypack 19
dazzle 19
deadbolt 19
dealer 19
dean 19
decorated 19
defining 19
deflector 19
defying 19
diane 19
diff 19
dish@@ 19
dishwasher 19
dog@@ 19
doterra 19
dre 19
dresss 19
dru@@ 19
drums 19
dul@@ 19
dwarf 19
earcuff 19
ef@@ 19
electro 19
elo 19
empress 19
enlargement 19
epi 19
epsom 19
erich 19
erin 19
euphoria 19
evangelion 19
excellence 19
expanding 19
eyed 19
eyelid 19
fair@@ 19
fairness 19
families 19
feb 19
feli@@ 19
fixing 19
flair 19
flipflop 19
fon@@ 19
forte 19
fsl 19
functions 19
gba 19
gears 19
germicidal 19
gioia 19
git@@ 19
glamorosa 19
goals 19
goji 19
goldfish 19
goodbye 19
gozum 19
gra 19
grapes 19
gsx 19
gypsy 19
gz 19
hac 19
hailey 19
hairpins 19
haltered 19
haphapph 19
hardsole 19
hayabusa 19
heidi 19
heiress 19
heuer 19
hguc 19
hokkaido 19
honeywell 19
hongli 19
huggable 19
hunters 19
hyperx 19
includes 19
inf@@ 19
infin@@ 19
ining 19
installation 19
intermediate 19
isla 19
ited 19
ix 19
jaclyn 19
jake 19
jetflash 19
joan 19
kakashi 19
kath@@ 19
kawa 19
kdrama 19
kidd 19
kidsafe 19
killing 19
kingever 19
kixx 19
kneepads 19
knights 19
knots 19
koby 19
korilakkuma 19
kyocera 19
lambskin 19
lampshade 19
lang@@ 19
lanolin 19
lany 19
lds 19
lev 19
levithan 19
lexus 19
locked 19
lop 19
lstar 19
lum 19
luma 19
lynelefootwear 19
mach@@ 19
mademoiselle 19
magni@@ 19
majestic 19
maliit 19
mallows 19
mani 19
maru@@ 19
mau@@ 19
maxene 19
maxxis 19
megan 19
mela@@ 19
melatonin 19
mercury 19
merona 19
mic@@ 19
mickeymouse 19
micron 19
mikaylashoppe 19
mil 19
milan 19
milano 19
mindful 19
mmmmm 19
moby 19
momoso 19
mond 19
moonstone 19
morgan 19
motomo 19
movall 19
naomi 19
nap 19
nations 19
nec 19
neocell 19
nhc 19
niacinamide 19
nica 19
nick@@ 19
nightdress 19
nike@@ 19
noble 19
noni 19
nonstick 19
noo@@ 19
notepads 19
nuggets 19
nuit 19
nunbell 19
nutrilite 19
oak 19
oblong 19
officewear 19
okm 19
opium 19
ora@@ 19
oran 19
oregano 19
outerwear 19
packet 19
pag 19
pandan 19
pao 19
papa 19
partition 19
patchwork 19
pay 19
pdf 19
pearly 19
pee 19
pee@@ 19
pepero 19
personalised 19
phab 19
philosophy 19
phone@@ 19
phshop 19
pierre 19
pil 19
pinsan 19
plac 19
plaque 19
plunge 19
plunging 19
pointer 19
polaris 19
pooch 19
potted 19
pray 19
pretzel 19
princesses 19
program 19
protectors 19
punching 19
pyramid 19
rag 19
rainforest 19
ram@@ 19
readers 19
reclining 19
ree@@ 19
reggae 19
rel 19
remastered 19
resun 19
rms 19
roberts 19
rosewater 19
rr@@ 19
rue 19
rz 19
saf@@ 19
sasimi 19
saugwunder 19
savannah 19
scars 19
schedule 19
sci@@ 19
search 19
see@@ 19
sef 19
services 19
sexy@@ 19
shallow 19
shana 19
shantahl 19
showcase 19
sight 19
sins 19
sive 19
skills 19
sleeve@@ 19
sling@@ 19
small@@ 19
smoking 19
smu@@ 19
snailwhite 19
soa@@ 19
soho 19
solemate 19
songbook 19
sparkly 19
spearmint 19
speci@@ 19
spiced 19
ssh 19
steak 19
stirrer 19
stronger 19
sweaters 19
swingman 19
taclight 19
tart 19
tbc 19
tempo 19
tested 19
thalia 19
theobroma 19
thri@@ 19
tinapa 19
tit@@ 19
tomb 19
tones 19
too@@ 19
toy@@ 19
tweezers 19
tyshop 19
tytiffany 19
ultralight 19
uncommon 19
upl 19
urinal 19
uy 19
vf 19
vina 19
viper 19
visual 19
voltes 19
voopoo 19
voyage 19
wallsticker 19
warehouse 19
way@@ 19
wc 19
wear@@ 19
wire@@ 19
wo 19
worksheets 19
worship 19
written 19
wu@@ 19
xing 19
xz 19
ych 19
younger 19
yp 19
yufiya 19
zee 19
zer@@ 19
zhi 19
zhiyun 19
ö@@ 19
E 18
aal 18
ables 18
act@@ 18
activator 18
adap@@ 18
adju@@ 18
alco@@ 18
alfa 18
alfred 18
algae 18
allergy 18
amk 18
ando 18
angelfashion 18
anie 18
ante 18
ape 18
architecture 18
arte@@ 18
artfx 18
arthur 18
ators 18
aus 18
austen 18
auxiliary 18
baak 18
baellerry 18
bagtag 18
batangas 18
batt 18
bazooka 18
bbs 18
beasts 18
behind 18
being 18
beli@@ 18
bes 18
bestprice 18
bilog 18
blocking 18
blotted 18
bluegreen 18
bonet 18
bonsai 18
borax 18
brianna 18
brim 18
brtc 18
buff 18
buy@@ 18
captoe 18
cardinal 18
cares 18
carnauba 18
carnelian 18
carnival 18
cau@@ 18
cch 18
cedar 18
centellian 18
cera 18
challenger 18
cheer 18
chico 18
chie 18
chiller 18
choosing 18
citromint 18
clothesline 18
clown 18
colorway 18
component 18
concepts 18
condo 18
content 18
cook@@ 18
cosme@@ 18
cough 18
coupling 18
cpsa 18
cran@@ 18
crankshaft 18
crawler 18
cricut 18
crossback 18
cuddle 18
cue 18
cuties 18
cyclone 18
cylindrical 18
dahlia 18
dal 18
dani@@ 18
daphne 18
darts 18
dash@@ 18
debbie 18
decors 18
defen@@ 18
desgin 18
desi@@ 18
dewalt 18
digits 18
director 18
dong@@ 18
dpi 18
drake 18
dreamy 18
dutche 18
dyosa 18
earpick 18
earth@@ 18
ecobag 18
eda 18
ehc 18
emw 18
endurance 18
eneloop 18
ener@@ 18
enne 18
ensure 18
enterprise 18
eun@@ 18
event 18
exit 18
extra@@ 18
faceted 18
fajardo 18
felicity 18
fetish 18
fh 18
fic 18
fig@@ 18
fish@@ 18
fisheye 18
florals 18
foe 18
four@@ 18
fourshoppe 18
fourth 18
freshness 18
fundamentals 18
ganoderma 18
gao 18
garmin 18
gd@@ 18
gil@@ 18
gizeh 18
gmo 18
gomez 18
gourd 18
gree 18
gross 18
growing 18
gw 18
hairbrush 18
halal 18
hardness 18
harman 18
havana 18
hbs 18
headlights 18
hedgren 18
hei@@ 18
henna 18
hg@@ 18
hikers 18
hin 18
holi@@ 18
holmes 18
hon 18
honeysuckle 18
hou@@ 18
house@@ 18
hr@@ 18
iam 18
ibuy 18
ig 18
iko 18
including 18
infantino 18
ingot 18
interactive 18
ito@@ 18
itos 18
ized 18
jeanne 18
jie 18
jingpin 18
jlh 18
john@@ 18
jumperskirt 18
jumshort 18
juniper 18
kamen 18
karma 18
kath 18
keen 18
kellogg 18
kim@@ 18
kirin 18
kissy 18
kkjjshop 18
kojicmansi 18
kolin 18
kombat 18
kulambo 18
labs 18
lactum 18
ladybug 18
lak@@ 18
ld@@ 18
ldnio 18
leah 18
leggins 18
lena 18
lettering 18
ln@@ 18
lomvum 18
longsleeved 18
lowwaist 18
lug 18
maas 18
magsafe 18
mahogany 18
malong 18
manhattan 18
marula 18
marykay 18
masque 18
mates 18
md@@ 18
metis 18
mikata 18
ministar 18
minoxidil 18
modem 18
moder@@ 18
mohashi 18
moulding 18
mps 18
murakami 18
namu 18
nata 18
nate 18
natrol 18
navarros 18
nfl 18
nitecore 18
nitrile 18
nwt 18
nye 18
odorless 18
okay 18
oni 18
ore@@ 18
orignal 18
pai@@ 18
parachute 18
pauline 18
pechay 18
peppapig 18
pevc 18
piedras 18
pimples 18
pogi 18
pompompurin 18
pouchie 18
primadonna 18
problem 18
problems 18
profile 18
pur 18
purchased 18
pyary 18
pz 18
qb 18
qqjk 18
qua@@ 18
quarts 18
ques 18
qulity 18
rad@@ 18
radical 18
rand@@ 18
rave 18
reduction 18
reef 18
regenerist 18
resurfacing 18
rette 18
revive 18
rhian 18
rica 18
robusta 18
rolled 18
roma 18
rw 18
safe@@ 18
sagada 18
sal 18
sapatos 18
sat 18
saurus 18
scorpion 18
scu@@ 18
sennheiser 18
seuss 18
shields 18
shima 18
shirt@@ 18
shock@@ 18
shut 18
sions 18
sixteen 18
ske@@ 18
sketchbook 18
skindigm 18
skycorp 18
smokey 18
sni@@ 18
snoe 18
speeds 18
spin@@ 18
sso 18
stamped 18
staples 18
stash 18
stride 18
stussy 18
styleclub 18
sublimated 18
swap 18
swifty 18
swoosh 18
sylvia 18
takoyaki 18
tch 18
tdd 18
tech@@ 18
thickness 18
thriller 18
thy 18
tial 18
tics 18
tidy 18
tn@@ 18
tom@@ 18
tombow 18
topping 18
tortoise 18
totu 18
trace 18
tribe 18
tronsmart 18
true@@ 18
tubing 18
uncharted 18
underpants 18
uniheart 18
uri 18
using 18
uvc 18
ux 18
vac 18
valerie 18
vari@@ 18
vee 18
vendetta 18
vernis 18
verus 18
vials 18
vicks 18
vondutch 18
vortex 18
vul@@ 18
ward 18
watering 18
wayfarer 18
weijl 18
wheelchair 18
whisper 18
wht 18
widow 18
wie 18
wrinkles 18
wy 18
yama@@ 18
zai 18
zan 18
zan@@ 18
zation 18
zelda 18
zeta 18
zevy 18
abbey 17
absolute 17
adv 17
aeroic 17
affair 17
agenda 17
agnes 17
aida 17
airpod 17
alcogel 17
alexandra 17
alli@@ 17
althea 17
alyn 17
amuse 17
anais 17
andrew 17
anger 17
arkham 17
aromatic 17
arowana 17
asos 17
ax@@ 17
bagong 17
ballon 17
banners 17
bejeweled 17
belgian 17
bestselling 17
biodegradable 17
birch 17
blinking 17
bloks 17
bobber 17
boop 17
boosting 17
bot@@ 17
bouncing 17
bouncy 17
boundaries 17
brightex 17
brio 17
btm 17
bubbly 17
bud 17
bukid 17
cafele 17
cai 17
caite 17
camp@@ 17
camu 17
candice 17
canteen 17
capture 17
carle 17
caroline 17
cass 17
cavs 17
cellulite 17
cent 17
cgm 17
chai 17
champ@@ 17
charmed 17
chateau 17
chet 17
choc 17
cian 17
ciara 17
citron 17
cked 17
ckle 17
clay@@ 17
clear@@ 17
clicker 17
clip@@ 17
clipboard 17
cloud@@ 17
cmyk 17
coleman 17
colorfull 17
compa@@ 17
condura 17
cora 17
corales 17
corn@@ 17
crawling 17
crescent 17
ction@@ 17
cute@@ 17
danger 17
dates 17
daze 17
dead@@ 17
deet 17
deliver 17
denture 17
deodorizing 17
designing 17
det 17
dimensional 17
dis 17
discs 17
dkc 17
dockers 17
dollar 17
dolphine 17
domin@@ 17
dormitory 17
dupe 17
edit 17
eli 17
emporio 17
ergobaby 17
esp@@ 17
eti@@ 17
eucerin 17
exam 17
exfoliator 17
exos 17
extracts 17
eyemask 17
faces 17
falls 17
fame 17
fanta@@ 17
fas 17
fifa 17
flatware 17
fle@@ 17
folk 17
fondue 17
formed 17
freesocks 17
fucos 17
fujihama 17
gai@@ 17
geo@@ 17
georgina 17
getz 17
giannis 17
gif@@ 17
giga 17
gilas 17
gingerbread 17
gingersnap 17
gleam 17
glo 17
goodies 17
grisham 17
grove 17
gulong 17
gutterless 17
hai 17
hana@@ 17
hatchimals 17
hay 17
hbk 17
heatsink 17
helix 17
hillary 17
hiphop 17
hiyang 17
hk@@ 17
hoover 17
howard 17
hsm 17
huayu 17
husband 17
hydroponics 17
hyun 17
igh@@ 17
impress 17
iness 17
inpired 17
insoles 17
inspiration 17
inverted 17
iqos 17
iro 17
isabella 17
islander 17
ist 17
itech 17
iwata 17
jamie 17
janylin 17
jap 17
jas 17
jayson 17
jedi 17
jegging 17
jeremy 17
jhope 17
joyfeel 17
juiced 17
juices 17
katherine 17
kemei 17
kewpie 17
kimi 17
kira 17
kirei 17
kla@@ 17
kracie 17
kum 17
lance 17
landing 17
leaders 17
legged 17
leverag 17
linkin 17
links 17
lipcolor 17
listerine 17
lli 17
lomo 17
loving 17
lucent 17
lululun 17
magneto 17
mama@@ 17
mamamoo 17
mans 17
margarita 17
mariel 17
maureen 17
maxim 17
mayo 17
medallion 17
mefapo 17
melting 17
merlot 17
michelin 17
microblading 17
mik@@ 17
miles 17
millie 17
mincer 17
mine@@ 17
missing 17
mister 17
mitsu@@ 17
mitsushi 17
modes 17
monday 17
monochrome 17
mori 17
motorized 17
mug@@ 17
nac 17
nam 17
naturehike 17
nerds 17
nexus 17
nikki 17
nw 17
occitane 17
ofra 17
okinawa 17
omi 17
oppa 17
otto 17
outlaw 17
oxide 17
oya 17
pacsafe 17
paintings 17
pallette 17
panels 17
parfume 17
pegs 17
pellets 17
pickled 17
pik 17
pio 17
places 17
placing 17
pleasures 17
plextone 17
poli 17
pon 17
popsocket 17
potions 17
poy 17
preservation 17
prevention 17
prices 17
primrose 17
principles 17
prizes 17
procurement 17
produ@@ 17
pyunkang 17
qoncept 17
qposket 17
quick@@ 17
radial 17
rae 17
ragnarok 17
ragusa 17
rap 17
reduced 17
refined 17
remo@@ 17
removing 17
renegade 17
repackaged 17
revoltech 17
reward 17
reyes 17
ris 17
rizal 17
rogue 17
rol@@ 17
rooster 17
rosette 17
rosie 17
royalè 17
rubbermaid 17
russia 17
sama 17
samgyup 17
sasa 17
say@@ 17
sca 17
scouring 17
scrabble 17
sculpt 17
seachem 17
seasonal 17
separate 17
separator 17
sharpshooter 17
sherlock 17
sie@@ 17
sienna 17
simon 17
site 17
sivanna 17
sks 17
skyblue 17
sleepy 17
smar@@ 17
smartheart 17
smell 17
smoky 17
smudge 17
soother 17
sophisticated 17
sor 17
sour@@ 17
spea@@ 17
spill 17
spray@@ 17
spritz 17
sser 17
sso@@ 17
standees 17
stay@@ 17
stephanie 17
stickerless 17
stion 17
stretcher 17
strix 17
stru@@ 17
stuff@@ 17
stuffedtoy 17
styro 17
suite 17
sunshield 17
supermarket 17
supporter 17
surprezza 17
suspenders 17
sweatshort 17
sweetened 17
sws 17
sya 17
syl@@ 17
syringe 17
tables 17
tain 17
tanjun 17
tanks 17
tayo 17
tcl 17
tcm 17
techno 17
teflon 17
ternos 17
then@@ 17
these 17
thro@@ 17
tigernu 17
time@@ 17
toiletries 17
tot 17
tps 17
trader 17
traffic 17
traps 17
tresor 17
trials 17
trick 17
tropic 17
troy 17
trrrixii 17
tsumtsum 17
tulips 17
tyk 17
ulike 17
urban@@ 17
uri@@ 17
useful 17
ut@@ 17
vamp@@ 17
vcd 17
vden 17
velvety 17
vibroaction 17
vio@@ 17
vis 17
vn 17
vocal 17
vtow 17
wait 17
waterfall 17
webber 17
weird 17
won 17
wonderwoman 17
wra@@ 17
wristlets 17
xring 17
xv 17
yong 17
yun 17
yun@@ 17
zhi@@ 17
zoids 17
zte 17
zzle 17
ä@@ 17
B@@ 16
F@@ 16
R@@ 16
aaaa 16
abo@@ 16
absorbing 16
ack 16
adata 16
adi 16
ado@@ 16
after@@ 16
ageing 16
airwalk 16
aka 16
alcoplus 16
aling 16
alisgp 16
allison 16
alphatoys 16
ame 16
ank@@ 16
ano@@ 16
antiradiation 16
any@@ 16
apparatus 16
appear 16
arrived 16
assault 16
asst 16
atelier 16
attraxion 16
axel 16
bagsak 16
bait 16
bally 16
batter 16
battlefield 16
bbc 16
bei 16
bia 16
bikinis 16
billion 16
bing 16
biogenic 16
bloo@@ 16
bloomer 16
blt 16
blushed 16
bonakid 16
bondage 16
bowler 16
boye 16
bragg 16
brea@@ 16
bt@@ 16
buffalo 16
cab 16
cabbage 16
cami@@ 16
campana 16
cardamom 16
carl 16
carlo 16
carving 16
cast@@ 16
ccl 16
celeste 16
cello 16
charged 16
chua 16
chugoku 16
classification 16
cluster 16
cogs 16
colla 16
colla@@ 16
colouring 16
confidence 16
contemporary 16
cookbook 16
cost 16
creamery 16
creeper 16
crocker 16
croptops 16
crosswind 16
cultured 16
cupcakes 16
curls 16
cv@@ 16
dable 16
dakimakura 16
daredevil 16
dating 16
death@@ 16
dela 16
demin 16
demolition 16
dfc 16
dinem 16
displayport 16
dium 16
doggie 16
doily 16
doreamon 16
double@@ 16
drape 16
dresser 16
drinker 16
drop@@ 16
dub 16
dur@@ 16
earpiece 16
easter 16
eating 16
ec@@ 16
economy 16
egyptian 16
elba 16
electronics 16
electroplating 16
elementary 16
elitebook 16
elizavecca 16
elli 16
elli@@ 16
envelop 16
epub 16
eunice 16
ewa 16
expiration 16
extraordinary 16
fashioned 16
fau@@ 16
features 16
figlia 16
fine@@ 16
fix@@ 16
flan 16
fleek 16
flies 16
florsheim 16
flox 16
foamer 16
font 16
footmask 16
forces 16
forks 16
gaiman 16
gano 16
gartered 16
gauntlet 16
geisha 16
geni@@ 16
gentlemen 16
gina 16
gle 16
glutafit 16
gogo 16
goldtoe 16
gon@@ 16
gowns 16
goyard 16
grand@@ 16
grids 16
grille 16
gripo 16
gro 16
guerlain 16
gurashi 16
habit 16
haier 16
hairtie 16
hallmark 16
handpainted 16
hanford 16
happ@@ 16
harris 16
harvey 16
hdr 16
heavenly 16
heavyduty 16
hen 16
hers 16
hua@@ 16
hudson 16
hummingbird 16
hype 16
ijoy 16
ilike 16
inas 16
include 16
innovative 16
intake 16
iridescent 16
isabel 16
jakarta 16
jardin 16
jeansame 16
jing@@ 16
jkysd 16
job 16
joel 16
jou 16
jouer 16
juana 16
just@@ 16
kala@@ 16
kami@@ 16
kang@@ 16
kanteen 16
karate 16
kata 16
kathleen 16
kaya 16
keeping 16
ketchup 16
knives 16
kre@@ 16
kru@@ 16
kun@@ 16
kurstenshop 16
kylo 16
laga 16
lancets 16
lannister 16
lansinoh 16
lao 16
lapis 16
lat 16
lawn 16
laying 16
lazer 16
leds 16
legal 16
lenticular 16
ley@@ 16
lga 16
licorice 16
lili@@ 16
literary 16
little@@ 16
lizer 16
lm@@ 16
loaded 16
longdress 16
lubri@@ 16
luci@@ 16
luminarc 16
mabuhay 16
made@@ 16
madeline 16
major 16
mali@@ 16
mallow 16
manta 16
margot 16
marley 16
matibay 16
mayonnaise 16
mcdonald 16
meguiar 16
meike 16
mercy 16
meron 16
metal@@ 16
microsdhc 16
microsdxc 16
midea 16
mikaela 16
mindy 16
minimizing 16
minor 16
miranda 16
mirrors 16
misb 16
mistique 16
miya@@ 16
mlt 16
mobius 16
moc 16
moisturiser 16
motorstar 16
moyes 16
moyou 16
multiway 16
murayta 16
musi@@ 16
mustang 16
mv 16
nathaniel 16
neal 16
neroli 16
net@@ 16
never@@ 16
nf 16
ng@@ 16
nurture 16
nutra@@ 16
nutritious 16
oct 16
offi@@ 16
ohm 16
onia 16
onsale 16
optipro 16
oracle 16
organiser 16
palmer 16
party@@ 16
passionate 16
patchouli 16
paw@@ 16
pci 16
peek 16
peice 16
perforated 16
peri@@ 16
person@@ 16
phar@@ 16
pinx 16
pla 16
planting 16
pocket@@ 16
polished 16
poo 16
poo@@ 16
pororo 16
posket 16
powerplus 16
pple 16
premi@@ 16
premuim 16
presyo 16
prive 16
proud 16
psalm 16
psy@@ 16
puppets 16
purely 16
purity 16
puto 16
quadcore 16
qw@@ 16
raffled 16
rainproof 16
rangers 16
realfire 16
redemption 16
refresher 16
rejuven@@ 16
replenishing 16
result 16
retailmnl 16
revitalisor 16
rhy@@ 16
rivers 16
rmk 16
rudy 16
ryj 16
salsa 16
saltnic 16
sandra 16
sash 16
saucony 16
scan 16
scho@@ 16
sehun 16
sep 16
separately 16
shabby 16
shakespeare 16
shawn 16
sheila 16
shir 16
shirley 16
shoebox 16
simp@@ 16
siz@@ 16
skill 16
skylinker 16
sliced 16
smatree 16
smpac 16
smt 16
snackeez 16
snackers 16
snapdragon 16
sne@@ 16
snorkel 16
sole@@ 16
som 16
sophi@@ 16
sorter 16
space@@ 16
spanner 16
sparkplug 16
sricam 16
ssb 16
stallion 16
steamboat 16
steelseries 16
sten 16
stock@@ 16
stormtrooper 16
stuffs 16
style@@ 16
styled 16
sulley 16
sung@@ 16
sunshade 16
sunsonic 16
supre@@ 16
surfer 16
surfing 16
surich 16
suzanne 16
sylvanian 16
tactics 16
taekwondo 16
tail@@ 16
tambourine 16
tanga 16
taped 16
tappet 16
tas 16
tastic 16
tasty 16
teaching 16
teaser 16
tekken 16
tel@@ 16
tenga 16
tessa 16
tgph 16
thenorthface 16
thicken 16
tica 16
til@@ 16
tired 16
toecap 16
toki 16
toothgel 16
toro 16
tranexamic 16
tribute 16
tro 16
tter@@ 16
ttes 16
uchiha 16
ult 16
ultraman 16
ultrasound 16
uncanny 16
une@@ 16
vaping 16
variations 16
vation 16
velo@@ 16
veneta 16
victorinox 16
vie@@ 16
wafers 16
wanderlust 16
weed 16
wer@@ 16
whitelight 16
winning 16
wonderful 16
woodworking 16
worksheet 16
wunder 16
xd 16
xxs 16
xxx 16
yco 16
ying 16
yj 16
yuja 16
zashoppe 16
zel@@ 16
zero@@ 16
zoomer 16
zu 16
abaya 15
abi@@ 15
aca@@ 15
accordion 15
adobe 15
advan 15
aer@@ 15
agv 15
alia 15
almera 15
alternator 15
aly 15
ameri@@ 15
amerilock 15
ange 15
angelo 15
apa@@ 15
apartment 15
ape@@ 15
apo 15
aquaman 15
aquarius 15
ark 15
armak 15
artistry 15
artsy 15
aryana 15
aspirator 15
assistant 15
atc 15
attachment 15
avatar 15
barn 15
baso 15
batgirl 15
bath@@ 15
beauplus 15
beauti@@ 15
beautic 15
begins 15
beloved 15
bent 15
bilyaran 15
blackboard 15
bladder 15
blessings 15
blood@@ 15
boned 15
booth 15
bor 15
bosi 15
brallette 15
bran 15
brv 15
bty 15
buffer 15
buil@@ 15
bulgarian 15
bullets 15
burnt 15
burp 15
butt@@ 15
caliburn 15
callie 15
canola 15
cardam 15
carmat 15
catrice 15
celeron 15
cellet 15
center@@ 15
ceuticals 15
chalis 15
chang 15
chek 15
chenille 15
chestnut 15
christine 15
cin 15
clash 15
cleats 15
clin@@ 15
cloak 15
clone 15
clyde 15
cmos 15
cofee 15
coffee@@ 15
coinbank 15
colonia 15
column 15
concealed 15
coolmax 15
coolwater 15
cor 15
core@@ 15
coriander 15
corona 15
cosy 15
craftlab 15
crimping 15
cursive 15
cut@@ 15
cyl 15
czy 15
dani 15
darkblue 15
davidson 15
dbj 15
dela@@ 15
denise 15
derailleur 15
deskjet 15
detailer 15
dex@@ 15
disneyland 15
diswashing 15
divergent 15
dodo 15
dorco 15
dork 15
dotcom 15
dres@@ 15
drives 15
dude 15
duke 15
dunlop 15
durian 15
during 15
ech@@ 15
edges 15
edu@@ 15
elantra 15
eleanor 15
embosser 15
eria 15
ero@@ 15
everbilena 15
exerciser 15
exo@@ 15
explore 15
exq 15
exten@@ 15
extention 15
ffe@@ 15
fibers 15
finery 15
finger@@ 15
finity 15
fizz 15
flameless 15
flasher 15
fling 15
floodlight 15
fn 15
forged 15
fou@@ 15
francis 15
freeshippingshopee 15
freestyle 15
frosting 15
frp 15
fty 15
fuck 15
fume 15
funky 15
funtainer 15
galore 15
gelato 15
gender 15
gfoxx 15
ghe@@ 15
ghi@@ 15
gia 15
glamskin 15
glycerin 15
goldzan 15
goosebumps 15
gooseneck 15
gos 15
goth 15
grains 15
grim 15
groove 15
grown 15
gtr 15
guitars 15
gum@@ 15
gusto 15
gym@@ 15
hacksaw 15
had@@ 15
hamburger 15
handicraft 15
hao 15
haruki 15
heal@@ 15
health@@ 15
heated 15
helena 15
hella 15
hennesy 15
hex@@ 15
hoco 15
hru 15
hudabeauty 15
hummer 15
hurry 15
husk 15
hydr@@ 15
hydra@@ 15
iam@@ 15
icure 15
imag@@ 15
inclined 15
indi@@ 15
inking 15
instinct 15
ipl 15
irt 15
ities 15
jerhigh 15
jessa 15
jessy 15
jig@@ 15
jinghao 15
jockey 15
joo 15
juliet 15
jzsale 15
kalas 15
kalinga 15
kangaroo 15
karimadon 15
karla 15
kart 15
kei 15
kenwood 15
keyhole 15
khm 15
kick@@ 15
kiki 15
kite 15
koya 15
kulay 15
kuma 15
lahat 15
lariat 15
lc@@ 15
lear@@ 15
leav 15
led@@ 15
leon@@ 15
leslie 15
lifestyles 15
lillard 15
limitless 15
listen 15
liven 15
log@@ 15
lone 15
lore 15
lrw 15
luxxewhite 15
lyte 15
mach 15
mad@@ 15
mae@@ 15
magician 15
magnifying 15
majesty 15
maka@@ 15
makeover 15
malaysian 15
malibu 15
maltesers 15
manic 15
marina 15
marte 15
mask@@ 15
master@@ 15
mastermind 15
mavericks 15
mecha 15
messy 15
meta@@ 15
metrocity 15
microfibre 15
mimo 15
miso 15
miumiu 15
mmed 15
mobile@@ 15
mobilio 15
modelling 15
momo@@ 15
monte@@ 15
motard 15
motorcyle 15
multifun@@ 15
mute 15
mx@@ 15
nad@@ 15
nen@@ 15
nh 15
nigh@@ 15
note@@ 15
nozzles 15
nrb 15
nur@@ 15
nutriliteTM 15
nvme 15
nvr 15
nwb 15
oa@@ 15
octa 15
oi 15
oli 15
oli@@ 15
onda 15
onlinestore 15
opp@@ 15
ops 15
organization 15
outdoors 15
ovleng 15
oxidizing 15
oxy@@ 15
pacifiers 15
pak@@ 15
pam@@ 15
pamp@@ 15
pandor 15
partner 15
patriot 15
pawnble 15
pawpatrol 15
pbb 15
pedals 15
peotraco 15
percussion 15
perfect@@ 15
perfor@@ 15
perming 15
peroxide 15
pharma 15
pico 15
pier@@ 15
piper 15
pistachio 15
pitch 15
pits 15
polo@@ 15
ponytails 15
pot@@ 15
premix 15
priming 15
primo 15
process 15
professor 15
prop 15
prostate 15
pulp 15
puti 15
pwede 15
quad@@ 15
radish 15
raiders 15
ramgo 15
ratings 15
reaper 15
receptacle 15
reci@@ 15
reen 15
rela@@ 15
revitalize 15
rims 15
ritz 15
riveter 15
roman@@ 15
rondoletti 15
rox 15
rtec 15
salomon 15
sara@@ 15
saucers 15
savings 15
scarves 15
screenprotector 15
scrubs 15
scuba 15
senda 15
setter 15
sexyback 15
shank 15
shawill 15
sheena 15
shiela 15
shiro@@ 15
shoes@@ 15
sign@@ 15
silk@@ 15
sip 15
sipper 15
size@@ 15
skir@@ 15
sliders 15
slight 15
slits 15
smoother 15
softcover 15
softex 15
solder 15
sorella 15
spawn 15
spices 15
splice 15
springfield 15
sprint 15
squared 15
stamper 15
status 15
stea@@ 15
sterilization 15
sti 15
stoys 15
stuart 15
sumikko 15
supper 15
surplice 15
swa@@ 15
swe@@ 15
swissgear 15
syma 15
table@@ 15
tablecloth 15
tak@@ 15
tanako 15
tarts 15
tazanna 15
teapot 15
tear@@ 15
tens 15
terre 15
tery 15
tess 15
tg@@ 15
thinking 15
thinning 15
thu@@ 15
tourister 15
tretta 15
trophy 15
try@@ 15
tted 15
tuf 15
tunnel 15
tures 15
tyjewelry 15
tyr 15
uf 15
ukayukay 15
ulifeshop 15
underseat 15
une 15
unic 15
upon 15
usa@@ 15
valencia 15
vanna 15
vector 15
verses 15
vheauty 15
vincent 15
vivi@@ 15
wallpapers 15
wands 15
warfare 15
wasabi 15
wash@@ 15
weaved 15
wee@@ 15
weide 15
weld 15
wendy 15
whitegold 15
whole@@ 15
winged 15
witcher 15
wol@@ 15
workers 15
ww@@ 15
xpost 15
yakisoba 15
yam 15
yjnl 15
yokai 15
yoo@@ 15
youtheory 15
yuyu 15
zip@@ 15
G@@ 14
U@@ 14
abrasive 14
acacia 14
acerola 14
acs 14
acv 14
adamantine 14
adapters 14
ael 14
aerosol 14
aff@@ 14
ahoy 14
aikas 14
airconditioner 14
akh 14
alam 14
alba 14
alicia 14
amp@@ 14
andra 14
ann@@ 14
anth@@ 14
apink 14
apple@@ 14
arabian 14
arch@@ 14
aromacology 14
ars 14
arya 14
ashitaba 14
assymetrical 14
ather 14
atlanta 14
atomic 14
attendance 14
attitude 14
auth@@ 14
auxis 14
ava@@ 14
availability 14
avante 14
aven@@ 14
aver@@ 14
aviation 14
bacolod 14
bahay 14
balck 14
balcony 14
ballpens 14
balms 14
barbatos 14
barbell 14
bareminerals 14
barrette 14
bas 14
batmobile 14
bbi@@ 14
bcbg 14
beauskin 14
bejewelled 14
belkin 14
bell@@ 14
benen 14
beret 14
berger 14
berlin 14
bery 14
bestsellers 14
bgonlineshop 14
bingo 14
birthdays 14
bladeless 14
bleached 14
bluewater 14
blutooth 14
boku 14
botanicals 14
bottons 14
boxin 14
brad 14
brad@@ 14
break@@ 14
briefcase 14
brighter 14
bronzing 14
brooks 14
bruce 14
bss 14
bst 14
bugatti 14
bump 14
bunting 14
bur 14
cabochon 14
cally 14
camelback 14
camo@@ 14
cand@@ 14
card@@ 14
carded 14
carica 14
casey 14
cath@@ 14
cavendish 14
cdo 14
cele@@ 14
celerio 14
cers 14
cervical 14
chained 14
cheri@@ 14
chica 14
chicc 14
chief 14
choices 14
chr 14
chucks 14
cion 14
circus 14
cita 14
cities 14
clai@@ 14
clan 14
cleo 14
cleopatra 14
clothe 14
coasters 14
coby 14
comb@@ 14
combos 14
compartments 14
comple@@ 14
connectors 14
cons 14
contigo 14
corded 14
cosmo 14
courier 14
cpp 14
cupid 14
curious 14
dalfour 14
dapper 14
daytime 14
dedication 14
dehumidifier 14
destroyer 14
dg@@ 14
dim 14
dirk 14
dishes 14
distress 14
dona 14
dono 14
doogee 14
dope 14
dorbz 14
dow@@ 14
drakkar 14
dremel 14
dropping 14
drug 14
dxf 14
dyse 14
ean 14
eds 14
elasticity 14
ellana 14
elle@@ 14
ellese 14
elmer 14
ember 14
encyclopedia 14
ended 14
energizing 14
ergo 14
eri 14
ert 14
esi 14
evx 14
excl 14
exodus 14
fairies 14
fairy@@ 14
fanmade 14
fannyfashion 14
fashio 14
federal 14
fen 14
flavoured 14
flytrap 14
folic 14
format 14
foxy 14
fran 14
francine 14
fukusawa 14
furikake 14
fz 14
gabanna 14
gamefowl 14
gand@@ 14
garcia 14
gateway 14
gayle 14
gazelle 14
gers 14
gery 14
gj@@ 14
glass@@ 14
glowbar 14
god@@ 14
goose 14
gran 14
gravy 14
grind 14
gryffindor 14
guest 14
gul@@ 14
haha 14
hairfall 14
handwash 14
handwoven 14
hara 14
hario 14
hasp 14
hate 14
havit 14
headwrap 14
highchair 14
highest 14
hoola 14
hopia 14
hoya 14
hugs 14
humble 14
hydrophobic 14
hyk 14
hyyh 14
ibm 14
ifern 14
ii@@ 14
ik@@ 14
ilahui 14
impressions 14
inferno 14
injector 14
install 14
instamug 14
ipen 14
italia 14
itas 14
ites 14
ixpand 14
izod 14
izone 14
jacqueline 14
jai@@ 14
jc@@ 14
jdi 14
jean@@ 14
josh 14
kad 14
kale 14
kali@@ 14
kapaver 14
keri 14
kero 14
ket 14
kids@@ 14
kiehls 14
kiko 14
kilay 14
kimbel 14
kimmy 14
kis@@ 14
kissable 14
kitchenaid 14
kksky 14
kne@@ 14
knit@@ 14
konektopshop 14
kopiko 14
kusu 14
kwentas 14
laarnie 14
lad 14
lancôme 14
lata 14
lem 14
lence 14
lenght 14
lex@@ 14
lexar 14
lf 14
lide 14
lightblue 14
ligth 14
lings 14
lippy 14
liqu@@ 14
liquor 14
littmann 14
lity 14
lj@@ 14
ller 14
lobster 14
logical 14
lor@@ 14
lubricating 14
lumen 14
lumiere 14
lumina 14
lumix 14
lustrous 14
madonna 14
maillot 14
mak@@ 14
makecua 14
makinis 14
mamon 14
mang@@ 14
mangoes 14
manizer 14
maped 14
markdown 14
marvelous 14
masflex 14
mation 14
mature 14
mba 14
mber 14
mbo 14
mdzz 14
mea@@ 14
megabass 14
mela 14
meli@@ 14
melville 14
mercerized 14
meridian 14
mers 14
mick@@ 14
midori 14
mika@@ 14
mikasa 14
minie 14
minty 14
minx 14
miya 14
mobi@@ 14
modess 14
moi 14
moleskine 14
molle 14
monge 14
monique 14
mor 14
nary 14
nature@@ 14
nbody 14
nezuko 14
nfc 14
niacin 14
nighty 14
nowitzki 14
nr 14
nxt 14
octagon 14
oe 14
ogx 14
ole@@ 14
ooak 14
oolong 14
organ@@ 14
organized 14
origin@@ 14
orihiro 14
orion 14
oscillating 14
our@@ 14
owls 14
pabder 14
pakistan 14
palermo 14
panlabas 14
parklight 14
patri@@ 14
patron 14
patty 14
peaches 14
peat 14
pebbled 14
pentagon 14
pentair 14
pez 14
phox 14
physician 14
pigmented 14
pilots 14
pinstripe 14
pint 14
pis 14
playground 14
plotter 14
pn@@ 14
polycarbonate 14
porcelana 14
powders 14
powe 14
preloved@@ 14
presario 14
price@@ 14
prime@@ 14
promag 14
promotion 14
puff@@ 14
puffy 14
pumice 14
purito 14
qoute 14
quaker 14
qual@@ 14
quin@@ 14
rally 14
rean 14
recommended 14
redness 14
reed 14
reflection 14
rein@@ 14
reina 14
rem 14
rena 14
rence 14
renee 14
reu@@ 14
rhythm 14
richoco 14
ricoh 14
rig 14
rit 14
robby 14
robinson 14
rosehips 14
rowell 14
rrx 14
rubberize 14
rubbing 14
rubics 14
sak@@ 14
sambong 14
samco 14
samra 14
sanah 14
sang@@ 14
santo 14
santos 14
sap 14
sarong 14
saturday 14
scentio 14
scooby 14
sculpture 14
sdf 14
seatpost 14
seaweeds 14
secre@@ 14
sept 14
sette 14
sg@@ 14
sgt 14
shelim 14
shen@@ 14
shiwn 14
shocked 14
shou@@ 14
shredded 14
shuttle 14
siamese 14
signpen 14
silence 14
sili 14
singlepuff 14
skittles 14
slave 14
sleeveles 14
slick 14
slv 14
smoothness 14
snap@@ 14
soap@@ 14
softcase 14
soled 14
somjin 14
sore 14
soul@@ 14
sparrow 14
specific 14
sper@@ 14
sphygmomanometer 14
spiritual 14
spoof 14
spun 14
squee@@ 14
ssa@@ 14
ssamjang 14
ssie 14
ssing 14
ssions 14
ssss 14
stages 14
stal@@ 14
step@@ 14
stepper 14
stics 14
stor 14
strea@@ 14
street@@ 14
submarine 14
suit@@ 14
summer@@ 14
supp@@ 14
surgitech 14
survivor 14
sutton 14
swagger 14
swat 14
symmetry 14
tain@@ 14
tam 14
tammy 14
tarot 14
tarteist 14
tation 14
tatting 14
technic 14
tenda 14
tex@@ 14
thebalm 14
thir@@ 14
thorn 14
tie@@ 14
tocoma 14
tongs 14
tornado 14
tpb 14
tradition 14
trafalgar 14
trailer 14
transistor 14
transit 14
trapeze 14
tree@@ 14
trendsetter 14
tres 14
triskelion 14
tropicana 14
tum 14
tweety 14
twix 14
two@@ 14
ugly 14
ulti@@ 14
unds 14
uniqueka 14
uta 14
uwell 14
vape@@ 14
vas 14
vb 14
vicky 14
vienna 14
villa@@ 14
vitaplus 14
von@@ 14
vv 14
wallflower 14
wander 14
wasp 14
waway 14
wcf 14
westinghouse 14
wh 14
who@@ 14
windy 14
winker 14
winter@@ 14
wiring 14
wmns 14
wn@@ 14
writ@@ 14
ww 14
xh 14
xiao@@ 14
xps 14
yankee 14
yankees 14
yee@@ 14
ykk 14
ylang 14
yoda 14
yor@@ 14
yosi 14
youtube 14
yuan 14
zine 14
zonrox 14
D@@ 13
W@@ 13
aape 13
aba 13
absor@@ 13
acce@@ 13
aco@@ 13
adarna 13
ade@@ 13
adora 13
aga@@ 13
aged 13
airfit 13
airtight 13
aiwa 13
aliyah 13
allstar 13
ally@@ 13
alt 13
ampere 13
analyn 13
analysis 13
angeiweng 13
angie 13
anko 13
anpanman 13
ansi 13
anten@@ 13
anthurium 13
anxiety 13
aritaum 13
arte 13
asa@@ 13
ase 13
astron 13
ature 13
aubrey 13
auditing 13
austin 13
aventus 13
aw@@ 13
awakening 13
azure 13
babygap 13
backbag 13
backrest 13
baggage 13
baile 13
bales 13
bam 13
bandouliere 13
basi@@ 13
baskets 13
battle@@ 13
bber 13
beach@@ 13
belif 13
belmeur 13
benguet 13
bermuda 13
betta 13
bettina 13
beware 13
bicol 13
biggest 13
bili 13
billy 13
binaural 13
bis 13
blanche 13
bli@@ 13
blister 13
blit@@ 13
blush@@ 13
boardbook 13
boatneck 13
bobbie 13
boon 13
bop 13
botique 13
bouncer 13
bph 13
braces 13
brandon 13
brassier 13
braun 13
bravo 13
breather 13
brigh@@ 13
broke 13
bse 13
bubble@@ 13
bubblyskin 13
buckled 13
bulky 13
bury 13
but@@ 13
buttercup 13
bwc 13
bytes 13
calcu@@ 13
calculus 13
calypso 13
camino 13
capt 13
carbon@@ 13
cardioid 13
carnation 13
cash@@ 13
casi@@ 13
cass@@ 13
cassava 13
casting 13
castrol 13
cate 13
cathkidston 13
celebr@@ 13
celphone 13
cereals 13
cet 13
chal@@ 13
chap@@ 13
charisma 13
chasing 13
cheesy 13
cherries 13
chewables 13
chlo@@ 13
chocovron 13
choo@@ 13
christha 13
christopher 13
ckk 13
cla 13
clam 13
classico 13
classique 13
claudia 13
cleavage 13
cles 13
clove 13
codpawnable 13
coils 13
come@@ 13
comfor@@ 13
composite 13
conair 13
conceptual 13
condiment 13
continu@@ 13
contoured 13
cooked 13
cop 13
cose 13
cosmix 13
cottage 13
cow@@ 13
crawl 13
crazy@@ 13
creature 13
crisper 13
cruelty 13
currant 13
curtis 13
cuts 13
cyc@@ 13
cymbal 13
daniella 13
darker 13
darkness 13
darna 13
daw@@ 13
dding 13
decadence 13
deco@@ 13
deni@@ 13
deore 13
depilatory 13
dered 13
deri@@ 13
dermo 13
derrick 13
dest 13
detick 13
devotional 13
directsupplier 13
distortion 13
dodge 13
doll@@ 13
dragonfly 13
drew 13
dualshock 13
dummies 13
dyed 13
dyseone 13
eable 13
earwax 13
easel 13
eigh@@ 13
elastics 13
elect@@ 13
elvive 13
ely@@ 13
embrace 13
ene@@ 13
enie 13
eno@@ 13
enter@@ 13
erika 13
esquire 13
exposed 13
eyeline 13
facemasks 13
fantasia 13
farm@@ 13
fashionistas 13
fastener 13
faster 13
fedora 13
fera 13
ffi@@ 13
ffle 13
fighters 13
figurines 13
fill@@ 13
finisher 13
fireworks 13
flappy 13
flax 13
flexstick 13
floam 13
flourescent 13
flourish 13
formen 13
fosh 13
found 13
fro 13
frontline 13
frontliners 13
frosty 13
fts 13
fying 13
gabriel 13
gabrielle 13
gaga 13
gamma 13
gang@@ 13
gangster 13
gat 13
gato 13
gau@@ 13
gemstones 13
geographic 13
getaway 13
ghibli 13
ginkgo 13
gintama 13
glacial 13
glad 13
glider 13
glutamilk 13
glycerine 13
goes 13
gokujyun 13
goochie 13
grahams 13
granite 13
grey@@ 13
guadalupe 13
guarantee 13
gypsum 13
hak@@ 13
handbook 13
hardback 13
hart 13
haw@@ 13
hawks 13
hedgehog 13
helios 13
herbench 13
hitman 13
holdlive 13
holtz 13
homu 13
hooray 13
houshopping 13
huang 13
hubcentric 13
humidity 13
husky 13
hustle 13
hwa@@ 13
hydrate 13
icase 13
ido 13
igbt 13
ili@@ 13
illumitox 13
ilovepilipinas 13
ils 13
ima@@ 13
images 13
immunity 13
inte@@ 13
intensity 13
intimates 13
irwin 13
ish@@ 13
isolate 13
ith@@ 13
itlay 13
ix@@ 13
iza 13
janice 13
jerky 13
jet@@ 13
jing 13
jnk 13
joh@@ 13
joshua 13
journaling 13
joyful 13
jr@@ 13
kam 13
kam@@ 13
kap 13
kee@@ 13
kei@@ 13
kendra 13
kera@@ 13
keystone 13
kiera 13
kindle 13
kj 13
kn@@ 13
kush 13
kwan 13
laco@@ 13
lactacyd 13
lalaki 13
lash@@ 13
layering 13
lele 13
lengthening 13
leotard 13
lessons 13
leten 13
lett 13
levin 13
lgbt 13
liam 13
liana 13
lifeline 13
lighthouse 13
lita 13
literature 13
lites 13
lithops 13
littles 13
littlest 13
livecheckout 13
llanera 13
loam 13
logan 13
loo 13
loofah 13
loptop 13
lovcat 13
lowering 13
lozenges 13
luk 13
lulu@@ 13
lust 13
luster 13
lustre 13
luvable 13
lv@@ 13
lynx 13
mack 13
madame 13
madness 13
magazines 13
maimi 13
maison 13
makes 13
mari 13
marigold 13
mark@@ 13
married 13
masculine 13
mata 13
maybe 13
menu 13
mex 13
microusb 13
mideer 13
milk@@ 13
mira 13
mischief 13
misty 13
mized 13
mizuya 13
mks 13
mlc 13
mocc 13
moni@@ 13
moo 13
moodtape 13
moomin 13
moulder 13
msense 13
muay 13
muradito 13
murder 13
mush@@ 13
nal 13
nau@@ 13
nchant 13
neko 13
neoguri 13
nino 13
nismo 13
nlt 13
nsk 13
nsw 13
num 13
nutcracker 13
occassion 13
officejet 13
omber 13
ono@@ 13
oper@@ 13
orbit 13
ord 13
orie 13
oring 13
ort 13
osprey 13
ottoman 13
oul@@ 13
overhauling 13
owwsic 13
oximeter 13
packages 13
pai 13
paige 13
palamig 13
pam 13
pancit 13
pant@@ 13
pantone 13
pantylet 13
papa@@ 13
paperdolls 13
paprika 13
paraffin 13
pcbs 13
pertua 13
pete 13
peter@@ 13
petticoat 13
peyton 13
phil@@ 13
philipp 13
phon 13
physiology 13
pick@@ 13
pig@@ 13
pigments 13
pinkelegance 13
pinkie 13
pistol 13
pitsbike 13
platter 13
playhouse 13
plein 13
poplin 13
pore@@ 13
portgas 13
possessive 13
post@@ 13
posy 13
potting 13
powerband 13
professionals 13
projects 13
ptop 13
quen@@ 13
questions 13
quil@@ 13
rabeanco 13
rattles 13
reach 13
rebrand 13
reflectorize 13
remix 13
res@@ 13
restor@@ 13
returns 13
ribb@@ 13
ries 13
rios 13
rolly 13
rome 13
romix 13
roo@@ 13
ros@@ 13
rot@@ 13
roundie 13
runaway 13
ryn 13
sac@@ 13
sadie 13
sago 13
sahara 13
saina 13
scape 13
scent@@ 13
schades 13
schwarzkopf 13
scri@@ 13
scythe 13
sebago 13
seethrough 13
selle 13
servo 13
shading 13
sharks 13
sharon 13
shatter 13
shen 13
shia 13
shie 13
shine@@ 13
shipment 13
ships 13
shirred 13
shoelaces 13
shoemate 13
shoerack 13
shouler 13
sible 13
sig 13
sjcc 13
slant 13
sleepsack 13
slotted 13
smilee 13
smokeless 13
smyth 13
snody 13
snowdrop 13
solenn 13
soli@@ 13
span 13
speck 13
spinach 13
sportivo 13
sprinkle 13
spro@@ 13
ssc 13
stant 13
starch 13
stardust 13
stat@@ 13
steady 13
stencils 13
stewart 13
stimulation 13
straykids 13
stretchmark 13
stringbag 13
stron@@ 13
sturdy 13
sumi 13
sunray 13
suspense 13
sven 13
svt 13
swallow 13
swapp 13
symphony 13
taffy 13
tahi 13
taking 13
tam@@ 13
teacup 13
teclast 13
teenager 13
tefal 13
tek@@ 13
temperedglass 13
thrill 13
thy@@ 13
tickle 13
tiedye 13
tieknot 13
tieside 13
tissot 13
tita 13
tok 13
topaz 13
topokki 13
toss 13
tour@@ 13
tournament 13
tractor 13
transdermal 13
trend@@ 13
trou@@ 13
tru 13
tthongli 13
ttle 13
tulco 13
tumble 13
tungsten 13
underwired 13
unica 13
unicorns 13
univer@@ 13
unknown 13
urinary 13
user 13
uses 13
ushas 13
ust 13
valor 13
vamp 13
vat@@ 13
veg@@ 13
velocity 13
verde 13
veronikka 13
versa@@ 13
versus 13
vesa 13
vgp 13
vig@@ 13
viktor 13
vis@@ 13
visage 13
viscose 13
vitara 13
vivobook 13
vocaloid 13
vr@@ 13
vx 13
waiting 13
wares 13
waterdrop 13
weaving 13
webster 13
wen 13
west@@ 13
wishing 13
wiz 13
wizards 13
wln 13
womans 13
wome 13
workshop 13
wound 13
wrist@@ 13
xiao 13
xiii 13
yaki 13
yam@@ 13
yama 13
yamang 13
yana 13
yellow@@ 13
yg 13
young@@ 13
yum 13
yumicah 13
zaki 13
zam@@ 13
zaya 13
zers 13
zig@@ 13
zipp@@ 13
zl 13
zlack 13
zon@@ 13
zor@@ 13
zuki 13
ç@@ 13
è@@ 13
ü@@ 13
S 12
aang 12
aaron 12
accents 12
account 12
adams 12
additional 12
adobo 12
adul@@ 12
aes 12
affleck 12
agu@@ 12
ahc 12
aire 12
alcobac 12
ald 12
alienware 12
aline 12
ander 12
angelwull 12
angpao 12
anni@@ 12
antepara 12
antetokounmpo 12
antman 12
anywhere 12
aob 12
aoer 12
applicable 12
appprox 12
aprica 12
argentina 12
argyle 12
ario 12
arlene 12
asd@@ 12
asrock 12
attach 12
atty 12
authenti@@ 12
authetic 12
ave 12
avene 12
awa@@ 12
awra 12
bab 12
babolat 12
babys 12
backs 12
bala 12
balancer 12
baldwin 12
bali@@ 12
banatero 12
bandiritas 12
banshee 12
bape 12
barista 12
barrow 12
barubaruan 12
basix 12
baterry 12
bau@@ 12
bazaar 12
beautifully 12
beautyblender 12
belle@@ 12
bendable 12
bentoy 12
berenstain 12
berry@@ 12
beu@@ 12
bey@@ 12
biblical 12
bigz 12
biloba 12
biometric 12
birks 12
blanja 12
blessing 12
blinker 12
block@@ 12
blushing 12
blythe 12
boar 12
boarder 12
boardshort 12
bodyfit 12
bohemia 12
boi 12
boiler 12
boob 12
botox 12
bott@@ 12
breylee 12
brightness 12
brittle 12
broadband 12
brunette 12
bruno 12
bubi 12
buck 12
bull@@ 12
bunch 12
bush 12
byredo 12
cabinets 12
caffe 12
callus 12
came 12
canton 12
capacci 12
carbonated 12
cardi@@ 12
caring 12
carpenter 12
carriage 12
cassi@@ 12
cated 12
catering 12
catnip 12
caulking 12
cavalier 12
cay@@ 12
cco 12
cdg 12
cdp 12
cellphones 12
cells 12
cess 12
chacha 12
cham@@ 12
champs 12
chand@@ 12
charmander 12
charmee 12
chester 12
chews 12
chick@@ 12
chlorella 12
chocola@@ 12
choke 12
cholecalciferol 12
chrysanthemum 12
ciel 12
cif 12
cj@@ 12
clari@@ 12
clarins 12
classi@@ 12
cleef 12
climber 12
clitoral 12
clr 12
cny 12
coaxial 12
coll@@ 12
collision 12
colorado 12
comm@@ 12
comme 12
conce@@ 12
condensed 12
constant 12
corvette 12
cosmopolitan 12
costumize 12
counts 12
coupe 12
courage 12
cpe 12
creatine 12
creativity 12
crimper 12
crocband 12
crossed 12
crucifix 12
crying 12
culotte 12
customer 12
cycles 12
cyclops 12
dah 12
daisies 12
dancer 12
dang@@ 12
dangerous 12
danie 12
darkening 12
dat@@ 12
datsun 12
daugther 12
dea 12
defend 12
defin@@ 12
define 12
definitive 12
dermaroller 12
derwent 12
des@@ 12
deuter 12
dfb 12
diabetic 12
diablo 12
dian 12
dickinson 12
did 12
diego 12
differential 12
digestive 12
dings 12
disaar 12
dispen@@ 12
dit@@ 12
dj@@ 12
dolphins 12
donaldson 12
donation 12
done 12
doreme 12
dori@@ 12
dread@@ 12
dsc 12
dudu 12
duhan 12
duplo 12
duralite 12
dustpan 12
ease 12
edifier 12
elastin 12
electrolux 12
else 12
elvira 12
embo@@ 12
enga@@ 12
enlarged 12
ensemble 12
erc 12
esv 12
ett 12
evelyn 12
everyone 12
excalibur 12
exploding 12
expression 12
fabrics 12
fanart 12
fanclub 12
feature 12
feels 12
feiyutech 12
fern@@ 12
ferna 12
fibre 12
fibre@@ 12
fineliner 12
fins 12
fixst 12
flasks 12
floaters 12
flocked 12
flooring 12
floorlength 12
floppy 12
fluo 12
forget 12
fort 12
fortress 12
fragile 12
frayed 12
freesoar 12
froza 12
galvanized 12
gela@@ 12
get@@ 12
gift@@ 12
glamglow 12
glen 12
glomed 12
glucometer 12
gluthatione 12
gnc 12
goggle 12
gpc 12
gpu 12
grapix 12
gsb 12
gta 12
guage 12
guan 12
guar@@ 12
gucci@@ 12
guinea 12
gulaman 12
gummi 12
gumpaste 12
hada@@ 12
hadid 12
hairdresser 12
hairties 12
haplas 12
happyday 12
hardwood 12
hardy 12
harlequin 12
harrison 12
haru 12
hawaian 12
hawkins 12
hdcvi 12
hdy 12
hear 12
heatpress 12
hentai 12
hercules 12
hive 12
hjx 12
hokka 12
holistic 12
horizons 12
hou 12
https 12
hugging 12
hui 12
human@@ 12
huxley 12
hv 12
hydrogen 12
ico 12
idrinks 12
iga 12
ikaku 12
ila 12
impro@@ 12
indophil 12
infuser 12
inger 12
inten@@ 12
intensifive 12
inu 12
invites 12
ipadmini 12
iri 12
iri@@ 12
isoprophyl 12
ity@@ 12
jada 12
jama 12
java 12
jessie 12
jho@@ 12
jian 12
jisoo 12
jodi 12
joie 12
jou@@ 12
jovanni 12
jsy 12
jul@@ 12
jyun 12
kabu@@ 12
kamado 12
kane 12
kanebo 12
karco 12
kayla 12
keroppi 12
keto@@ 12
keyless 12
kf 12
kiel 12
kine@@ 12
kjv 12
knowledge 12
kogen 12
konica 12
koo@@ 12
kou 12
krist@@ 12
kryon 12
kuto 12
lac@@ 12
ladie@@ 12
lampein 12
lawyer 12
lax 12
let@@ 12
lete 12
lev@@ 12
lexie 12
lg@@ 12
lightyear 12
lilian 12
limecrime 12
lipi@@ 12
ljxship 12
llama 12
lock@@ 12
lolli@@ 12
longbo 12
lootbagfiller 12
lori 12
loudspeaker 12
lovetoy 12
lows 12
ltc 12
luck@@ 12
lucky@@ 12
macaroni 12
mace 12
maestro 12
mafex 12
magne@@ 12
maise 12
mala 12
mariarosy 12
marilyn 12
marissa 12
mathematical 12
mck 12
mead 12
mechanics 12
mee 12
megaphone 12
membership 12
memogro 12
meow@@ 12
metals 12
michelis 12
midsize 12
mikana 12
mikey 12
mille 12
milli@@ 12
milliliters 12
mills 12
mind@@ 12
minolta 12
miraculous 12
mirrored 12
moira 12
mol 12
monde 12
monogatari 12
monroe 12
mont@@ 12
moonwalk 12
mori@@ 12
mosa 12
moti@@ 12
motul 12
mrjc 12
mstr 12
mugler 12
multilayer 12
multitester 12
mural 12
mxq 12
myanmar 12
nacho 12
nag 12
naguia 12
nalgene 12
name@@ 12
nana 12
naru@@ 12
natalie 12
nathalie 12
natu@@ 12
navigation 12
need@@ 12
neodymium 12
neptune 12
nerdz 12
neri 12
nero 12
nett 12
next@@ 12
nibs 12
nightgown 12
nite 12
nn@@ 12
nonwoven 12
nou@@ 12
novelties 12
novy 12
nt@@ 12
nurser 12
nutmeg 12
nv 12
nx 12
obey 12
occassions 12
ocean@@ 12
oe@@ 12
ohms 12
oid 12
oilbase 12
oka@@ 12
okra 12
oldskool 12
oline 12
olympic 12
opc 12
orchids 12
orgasm 12
ories 12
ortholite 12
osa 12
otaku 12
otter 12
ou 12
outline 12
ow 12
palace 12
palettes 12
pampering 12
pantree 12
pantry 12
paperbacks 12
paras@@ 12
parties 12
partyneeds 12
past 12
pbs 12
pc@@ 12
pedestal 12
pedometer 12
pedro 12
pensonic 12
pera 12
perler 12
phy 12
phy@@ 12
pierce 12
pinafore 12
pitted 12
playskool 12
plea@@ 12
plushy 12
pogo 12
pointy 12
poko 12
polar@@ 12
pomelo 12
posay 12
preci@@ 12
prejudice 12
prem 12
presenter 12
preserved 12
president 12
presser 12
pretty@@ 12
printers 12
production 12
proman 12
proof@@ 12
protable 12
pt@@ 12
publishing 12
puluz 12
puri@@ 12
pusit 12
pvrn 12
pw 12
pyjama 12
qaulity 12
qr 12
quielle 12
quik 12
qy 12
radar 12
raisins 12
ral@@ 12
ranch 12
rashguards 12
rav 12
raven@@ 12
razorback 12
recharge 12
redgirl 12
reduce 12
refmagnet 12
rella 12
reminder 12
resort 12
retainer 12
revitali@@ 12
revitalizer 12
revoflex 12
rhimarose 12
rina 12
rine 12
riri 12
roa@@ 12
rob 12
rocky 12
roots 12
rtr 12
rubiks 12
ruled 12
ruyi 12
ryo 12
safaribca 12
sag@@ 12
saitama 12
sak 12
samgyeopsal 12
sandos 12
sauvignon 12
scarminator 12
sciences 12
scoo@@ 12
scottie 12
sdcc 12
seansean 12
seatbelt 12
secondary 12
seductive 12
sensei 12
seo 12
serpent 12
settlement 12
sex@@ 12
shackle 12
shader 12
shears 12
sheen 12
shezi 12
shies 12
shoestring 12
shoo@@ 12
shoppers 12
shore 12
shou 12
shoul@@ 12
sixers 12
siya 12
ska 12
skipping 12
slamdunk 12
slip@@ 12
smaller 12
smiling 12
sms 12
snip 12
sock@@ 12
solgar 12
sonoma 12
soothe 12
sora 12
sou 12
spage@@ 12
spider@@ 12
spir@@ 12
spirited 12
splen@@ 12
squeegee 12
squidward 12
stands 12
sten@@ 12
stingray 12
straigh@@ 12
strappies 12
strat@@ 12
straw@@ 12
strawberries 12
strech 12
stret@@ 12
struggle 12
stylistic 12
suicide 12
summit 12
superfoods 12
supertravel 12
sur 12
surfgear 12
sweat@@ 12
sweatproof 12
switching 12
sx@@ 12
sydney 12
symbols 12
taba 12
tails 12
takeall 12
tari@@ 12
teen@@ 12
teenagers 12
tendre 12
teng 12
tening 12
tetoron 12
thanks 12
them 12
theodore 12
thinlits 12
tickles 12
tig 12
tinta 12
tion@@ 12
titles 12
tj 12
toni@@ 12
tonka 12
topical 12
tpc 12
track@@ 12
transfor@@ 12
transforming 12
traveller 12
travelmate 12
treadmill 12
trenz 12
tricycle 12
trina 12
trinket 12
tuck 12
tumbled 12
turntable 12
typo 12
uae 12
ulife 12
unboxed 12
understanding 12
unfortunate 12
upright 12
upside 12
utmost 12
uw 12
vaccum 12
vaginal 12
valance 12
var 12
vebajaj 12
vegas 12
vege@@ 12
veggies 12
venti@@ 12
vera@@ 12
vermi@@ 12
vermicast 12
vibr@@ 12
vigan 12
vii 12
vivienne 12
vl 12
voile 12
volu@@ 12
voo@@ 12
voyageur 12
waist@@ 12
walnuts 12
wannaone 12
warming 12
waterbased 12
watercolour 12
wbb@@ 12
wed 12
weights 12
were 12
westwood 12
whe@@ 12
whimsical 12
wikacharms 12
wing@@ 12
wins 12
wyeth 12
xin@@ 12
xsmall 12
xu@@ 12
xxxg 12
xyx 12
yongnuo 12
ys@@ 12
zac 12
zane 12
zelle 12
zic 12
zivine 12
zole 12
zynergia 12
abel 11
abi 11
abigail 11
absolutely 11
accented 11
access@@ 11
ache 11
acroball 11
adenium 11
adsorption 11
aira 11
aizzy 11
akk 11
albert 11
alexis 11
alfort 11
alle@@ 11
altar 11
amar@@ 11
ambient 11
aminos 11
amoy 11
ampli@@ 11
ampo@@ 11
ampule 11
amsoil 11
amusement 11
anas 11
anew 11
angelic 11
anylady 11
appears 11
application 11
aquafresh 11
aquaspeed 11
archi@@ 11
arginine 11
armada 11
armando 11
armature 11
aroma@@ 11
artemis 11
artline 11
aru@@ 11
asakashi 11
asher 11
aspen 11
assi@@ 11
aston 11
astrid 11
asylum 11
athletics 11
attraction 11
audio@@ 11
avc 11
awakens 11
aztrid 11
bable 11
backing 11
backseat 11
bagcharm 11
baguette 11
bala@@ 11
balan@@ 11
bambi 11
bane 11
bango 11
barilla 11
barnes 11
baroque 11
barry 11
basa 11
base@@ 11
battlegrounds 11
bearberry 11
bearista 11
beatrice 11
bedford 11
beeyotch 11
beg@@ 11
begonia 11
belt@@ 11
bender 11
bernardo 11
besavilla 11
bet@@ 11
between 11
bgosh 11
bicycles 11
bie@@ 11
bies 11
billi@@ 11
biowoman 11
birth@@ 11
blind@@ 11
blocker 11
blotting 11
bluelans 11
bluetooth@@ 11
boarding 11
bonjour 11
bq 11
brake@@ 11
brewed 11
broth 11
bry@@ 11
bubee 11
bulgogi 11
buri 11
butler 11
bz 11
cacharel 11
caimei 11
cake@@ 11
calla 11
called 11
calli@@ 11
calls 11
camaro 11
captor 11
carbonara 11
carbonate 11
caress 11
carmela 11
carpe 11
carwash 11
cautery 11
caution 11
cave 11
ccs 11
cecile 11
chalice 11
changes 11
chara 11
chari@@ 11
charm@@ 11
checkbook 11
checkerboard 11
cheng 11
cheongsam 11
cherry@@ 11
chers 11
childhood 11
chine@@ 11
chron@@ 11
chronos 11
chs 11
chuckie 11
chupa 11
chups 11
clayblush 11
clementine 11
clifton 11
climalite 11
clubmaster 11
cock@@ 11
cococandies 11
codsale 11
cog@@ 11
coin@@ 11
cole@@ 11
collectable 11
concorde 11
cones 11
corals 11
corgi 11
corrective 11
cosbaby 11
costa 11
costu@@ 11
cot@@ 11
cott@@ 11
cowhead 11
crease 11
crescendo 11
crisan 11
critters 11
croft 11
cron@@ 11
crow 11
crun@@ 11
ctional 11
cto 11
cular 11
cushions 11
cyber@@ 11
cyri@@ 11
dahl 11
damask 11
dang 11
danica 11
dannon 11
dar 11
daring 11
daytona 11
db@@ 11
ddk 11
decaf 11
dengue 11
dentastix 11
destroy 11
detangling 11
devo@@ 11
dewy 11
dfg@@ 11
diabetes 11
diagnostic 11
dic 11
dics 11
diecut 11
dilmah 11
dina 11
dine 11
ding@@ 11
diode 11
dit 11
dito 11
divers 11
divina 11
dl@@ 11
donkey 11
dou 11
downhill 11
dox 11
draining 11
drawstrings 11
dred 11
dsf@@ 11
ducati 11
duchess 11
dumbbells 11
dumbell 11
dumbo 11
duo@@ 11
duplex 11
durex 11
dutti 11
dying 11
dynasty 11
ecopwet 11
ecru 11
ecu 11
eevee 11
ej 11
eldraine 11
electromagnetic 11
elyn 11
elyxion 11
emer@@ 11
emm@@ 11
enlarge 11
equation 11
ergodynamic 11
essentielle 11
esti@@ 11
euroherbal 11
ev 11
evi@@ 11
excite 11
explo@@ 11
exterior 11
eyedrops 11
fanlight 11
fashionated 11
fax 11
feed@@ 11
festa 11
fetch 11
fhp 11
fidelity 11
filing 11
fina 11
fingertip 11
fisherman 11
fisherprice 11
fishtail 11
fiskars 11
fj@@ 11
fk 11
floormat 11
forbidden 11
forward 11
fps 11
frank@@ 11
frappe 11
freaky 11
freckles 11
freebox 11
freeway 11
front@@ 11
fsix 11
ftc 11
fujima 11
fullmetal 11
fullprint 11
fw 11
galax 11
gata 11
gct 11
gdlite 11
gene 11
generations 11
gged 11
ggle 11
ggy 11
gho@@ 11
gianna 11
giants 11
gic 11
gigaware 11
ginto 11
gixxer 11
glacier 11
gliters 11
glm 11
gls 11
goat@@ 11
goreng 11
goya 11
grabyourootd 11
grandista 11
graphy 11
grayson 11
greens 11
grounds 11
guys 11
hairspray 11
hancock 11
hank 11
hanscp 11
hau@@ 11
haw 11
hazard 11
hb@@ 11
headgear 11
heartless 11
hed@@ 11
hel 11
hell@@ 11
helps 11
hershel 11
hf@@ 11
hgbf 11
hid 11
highlights 11
hija 11
hinata 11
hit@@ 11
hitachi 11
hks 11
hobbit 11
hol 11
hola 11
homer 11
homes 11
hospital 11
houses 11
hpc 11
hubby 11
huez 11
hur@@ 11
hygienix 11
hypo@@ 11
hyssop 11
ibloom 11
ide@@ 11
idh 11
ille 11
illy 11
imagin@@ 11
impression 11
inabel 11
inchs 11
income 11
indiana 11
inflate 11
inflation 11
instantly 11
intelligence 11
interlocking 11
iron@@ 11
ironing 11
irs 11
islamic 11
ita@@ 11
iv@@ 11
ive 11
ize 11
izer 11
jac 11
jailbroken 11
jane@@ 11
jang 11
jeepney 11
jellys 11
jeweled 11
jhtc 11
jia 11
jihoon 11
jja@@ 11
jla 11
jms 11
jon 11
jonathan 11
joyshoppe 11
jsnh 11
juantoni 11
juli@@ 11
julius 11
kaftan 11
kanzashi 11
karina 11
keihin 11
keimavgear 11
kernel 11
kevlo 11
keyed 11
kiddos 11
kissing 11
kiyumi 11
kni@@ 11
knotaclat 11
kong@@ 11
koyo 11
kul@@ 11
kun 11
kutis 11
labor 11
labyrinth 11
lad@@ 11
lama 11
lamp@@ 11
larry 11
lasenza 11
lav@@ 11
lazypad 11
lce 11
leadership 11
leakproof 11
lega@@ 11
leia 11
leng@@ 11
lent 11
les@@ 11
lifeproof 11
ligh 11
likenew 11
line@@ 11
linshun 11
lio 11
lipscrub 11
litre 11
lits 11
livesell 11
lkj 11
logue 11
lois 11
longer 11
longevity 11
lons 11
lowepro 11
loyal 11
lps 11
lr@@ 11
lrs 11
ltwoo 11
lucia 11
luckinmall 11
luckyever 11
lugnuts 11
lumee 11
lunarlon 11
lution 11
lying 11
lyka 11
mable 11
macqueen 11
mada@@ 11
makute 11
malia 11
manfrotto 11
manu@@ 11
marco 11
margaux 11
mariz 11
marmalade 11
masha 11
matthew 11
matthews 11
mbler 11
mdc 11
medicinals 11
melo 11
mem 11
memopad 11
mengtai 11
mentholated 11
mesa 11
mettalic 11
mew 11
mff 11
miband 11
mich 11
miley 11
mille@@ 11
millennium 11
minifan 11
miracast 11
mistine 11
miyu 11
miz@@ 11
mking 11
mms 11
mob 11
mocute 11
molding 11
moms 11
monk 11
monocular 11
mony 11
moo@@ 11
mous 11
moyu 11
mpo@@ 11
mua 11
mucin 11
mud@@ 11
muesli 11
mura@@ 11
ndl 11
neckband 11
nette 11
nexgard 11
nibbler 11
nig@@ 11
nighter 11
nixon 11
nov 11
nubuck 11
nutrient 11
nx@@ 11
obagi 11
oblique 11
oil@@ 11
okc 11
okimura 11
okmt 11
ombré 11
onemore 11
oops 11
opened 11
optima 11
optional 11
org 11
organize 11
orlando 11
ouchless 11
ova 11
oxi 11
pail 11
palit 11
pampanga 11
pampered 11
parenting 11
parody 11
partners 11
pass@@ 11
pcb 11
peeping 11
peiyen 11
pek@@ 11
pentagram 11
pero 11
perpetual 11
persian 11
phenomenal 11
phi 11
photobooth 11
piccolo 11
pickle 11
picolo 11
pics 11
pilipino 11
pir 11
pirelli 11
pistachios 11
pitter 11
placemats 11
plainshirt 11
plat 11
playpets 11
pluz 11
poems 11
poi@@ 11
poppin 11
popshop 11
portland 11
pose 11
posie 11
postpartum 11
potatoes 11
ppa 11
prettyboy 11
prima@@ 11
probe 11
probook 11
profusion 11
promate 11
promax 11
protected 11
proverbs 11
ps@@ 11
pudaier 11
puritans 11
qu 11
quake 11
qwe@@ 11
rab@@ 11
racini 11
raf 11
raise 11
raiser 11
rampage 11
ranbu 11
rank 11
rea 11
reasons 11
rebar 11
rechar@@ 11
rechargeble 11
refiner 11
refle@@ 11
regal 11
regimen 11
reinforced 11
relieve 11
reliv 11
removes 11
rep 11
replacer 11
resolution 11
retro@@ 11
rev@@ 11
rever@@ 11
revi@@ 11
revised 11
revitalife 11
rewind 11
riche 11
ricoa 11
rid 11
riddex 11
rie@@ 11
rist@@ 11
rival 11
rivera 11
roadbike 11
roald 11
rochelle 11
roland 11
ropes 11
roseau 11
rosetti 11
rosé 11
row@@ 11
rox@@ 11
rys 11
safeprotect 11
saka 11
salabat 11
salecod 11
saleee 11
sanda 11
sang 11
sangria 11
sani 11
sansung 11
sap@@ 11
sbc 11
sby 11
scandal 11
scrat@@ 11
seas 11
sediment 11
seek 11
seeker 11
sensu@@ 11
seok 11
serendipity 11
serpen@@ 11
shad 11
shielded 11
shohoku 11
shooky 11
shortcake 11
shy@@ 11
siling 11
simmons 11
siphon 11
sistema 11
six@@ 11
sketchers 11
skinmagical 11
slap 11
slices 11
slingbags 11
slinky 11
smallest 11
snorlax 11
snuggle 11
software 11
softy 11
soothie 11
sox 11
spacegray 11
spalding 11
species 11
speedlite 11
splatter 11
sprout 11
spy@@ 11
squid 11
ssel 11
ssive 11
ssler 11
sson 11
stacey 11
stacker 11
stacy 11
stadium 11
staff 11
standardized 11
stemcell 11
steri@@ 11
stin 11
stipe 11
stockable 11
stone@@ 11
stranded 11
strategy 11
structured 11
substitute 11
suho 11
sundress 11
superga 11
sv@@ 11
swamp 11
swatter 11
swear 11
swimmies 11
tacker 11
tahiti 11
tailee 11
takata 11
taken 11
tango 11
tanktops 11
tapestry 11
taxi 11
tct 11
technique 11
techno@@ 11
temperglass 11
tener 11
teresa 11
tfs 11
tha 11
thermostat 11
thhn 11
thistle 11
thor@@ 11
tibetan 11
ticarto 11
tino 11
title 11
titus 11
tix 11
tless 11
told 11
tolkien 11
tool@@ 11
toon 11
toppings 11
tori 11
totes 11
touken 11
toyo 11
tph 11
traction 11
trade@@ 11
transform 11
transport 11
tren@@ 11
tricia 11
triump 11
trix 11
turismo 11
tussle 11
tutti 11
twinnies 11
tzu 11
uemura 11
ultralite 11
umb@@ 11
unc 11
ung@@ 11
unibest 11
univers@@ 11
unwrapped 11
ustar 11
uvb 11
valen@@ 11
valentina 11
valix 11
vand@@ 11
varnish 11
veco 11
velve@@ 11
venceway 11
vene@@ 11
verite 11
versal 11
vigo 11
vines 11
visibility 11
vixen 11
vladimir 11
volum 11
vspl 11
wakanda 11
wallmark 11
warcraft 11
wat 11
waters 11
wdr 11
weathering 11
weightless 11
welch 11
welcoming 11
whatever 11
whiteheads 11
wid@@ 11
windstorm 11
wish@@ 11
wit 11
wolf@@ 11
wrappers 11
wre@@ 11
wreck 11
wunderbrow 11
xb 11
xel 11
xtend 11
xton 11
yardley 11
yd 11
yoona 11
yoshi@@ 11
ysabelle 11
yumbox 11
yzmi 11
zahia 11
zar 11
zgmf 11
zinger 11
zoelife 11
zwj 11
ée 11
K@@ 10
N@@ 10
RE@@ 10
T 10
Y 10
abundance 10
abuse 10
abused 10
accept 10
accu@@ 10
acdc 10
ach 10
acorn 10
acry@@ 10
acti@@ 10
activate 10
adc 10
addicted 10
additive 10
advisory 10
aer 10
aficio 10
afternoon 10
aga 10
agave 10
agility 10
ahamazing 10
aidy 10
airplay 10
airpot 10
aki 10
alis 10
alley 10
alpinestar 10
alter 10
amazfit 10
ambro@@ 10
amira 10
amo@@ 10
amperes 10
anadigi 10
angan 10
annyeong 10
ansa 10
antivirus 10
anus 10
anything 10
appearances 10
applied 10
applies 10
aquaphor 10
aranha 10
arla 10
armitron 10
aromat@@ 10
arrangement 10
arrows 10
arrvial 10
artisanika 10
ashi 10
assembled 10
assor@@ 10
asuna 10
ateez 10
ati 10
attractive 10
automobile 10
avai@@ 10
avision 10
ayend 10
ayurvedic 10
baboy 10
backdrop 10
bagset 10
bak 10
balaclava 10
bangus 10
bap 10
barbers 10
barbershop 10
baron 10
bash 10
batiste 10
battalion 10
bcw 10
bd@@ 10
beaute@@ 10
beautint 10
because 10
behringer 10
bendy 10
benro 10
bessy 10
besta 10
bf@@ 10
bib@@ 10
bigsale 10
bil@@ 10
birken@@ 10
biscocho 10
blacknet 10
blackshoes 10
blade@@ 10
blanco 10
blown 10
blp 10
bluebell 10
bluebird 10
bluish 10
blushberry 10
bobblehead 10
boduo 10
bola 10
bonita 10
boom@@ 10
bord 10
bordeaux 10
bos 10
bour@@ 10
brakes 10
brallet 10
brandedoverrun 10
branding 10
bravia 10
bred 10
broccoli 10
broly 10
brooches 10
brut 10
bsec 10
buckwheat 10
burry 10
buttermilk 10
cabernet 10
cadena 10
cals 10
capes 10
carbide 10
cardi 10
cardin 10
carecard 10
careleaf 10
carey 10
carli 10
carlos 10
carmina 10
carousel 10
carrots 10
carseat 10
carto@@ 10
caruso 10
casaya 10
cassy 10
casual@@ 10
catalina 10
ccc 10
ccgc 10
celli 10
centerpiece 10
chamber 10
chaser 10
chay 10
cheetos 10
chevy 10
chic@@ 10
chig@@ 10
chika 10
choetech 10
chokers 10
chry@@ 10
chum 10
chung 10
chunk 10
cig@@ 10
cigarettes 10
cite 10
cjb 10
ckets 10
clancy 10
classroom 10
climacool 10
clockwork 10
clorox 10
clothingph 10
cloudfoam 10
clutz 10
cmg 10
cocos 10
coded 10
codg 10
codkorean 10
coenzyme 10
coisini 10
coleto 10
colo 10
combine 10
communication 10
como 10
complimentary 10
compost 10
comprehensive 10
condu@@ 10
confessions 10
congratulations 10
conspiracy 10
consumables 10
contenders 10
convenience 10
convex 10
cooled 10
corer 10
cougar 10
crack 10
crashguard 10
created 10
cribset 10
crisis 10
crossfit 10
cst 10
cta@@ 10
ctable 10
cted 10
cter 10
ctic 10
ctr 10
cua 10
cumin 10
cushioning 10
customi@@ 10
customised 10
cwa 10
cylaid 10
cypress 10
dae@@ 10
dalmatian 10
dam@@ 10
damian 10
dante 10
das@@ 10
dashner 10
dddddddd@@ 10
ddle 10
deci@@ 10
deisgn 10
delish 10
dem 10
denim@@ 10
depot 10
dessini 10
devi@@ 10
devo 10
dexflex 10
dextrose 10
dge@@ 10
dialer 10
diam@@ 10
dian@@ 10
dick 10
diem 10
digger 10
digi 10
dilaw 10
dini 10
dior@@ 10
disk@@ 10
divi@@ 10
dividers 10
diwata 10
dk@@ 10
dla 10
dlna 10
dmumt 10
dnj 10
doct@@ 10
dollies 10
doormats 10
dory 10
down@@ 10
dressed 10
dressroom 10
drs 10
dsl 10
dtg 10
duck@@ 10
duel 10
dulce 10
dump 10
dungeon 10
dupont 10
eau@@ 10
ebony 10
echeveria 10
eddie 10
edgar 10
edr 10
eeyore 10
efficiency 10
egg@@ 10
electrician 10
electrode 10
eleg@@ 10
eline 10
elliot 10
elo@@ 10
embellishments 10
embroi@@ 10
enduro 10
enfagrow 10
engines 10
enlarging 10
enlighten 10
eom 10
epc 10
erd 10
ere@@ 10
erica 10
erl 10
erman 10
estate 10
evaporative 10
exhibition 10
exp@@ 10
ext 10
eyeshadows 10
facts 10
fahion 10
fairyskin 10
fairytale 10
fam 10
fang 10
farlin 10
fave 10
fawl 10
fenugreek 10
fernando 10
fertility 10
fiber@@ 10
fication 10
figh@@ 10
fioni 10
fitzpatrick 10
fixer 10
flashcard 10
flatform 10
flaxseed 10
fleas 10
flexi@@ 10
flexoffice 10
flights 10
flirty 10
flor@@ 10
floria 10
flouride 10
foam@@ 10
foliar 10
fordable 10
forever@@ 10
forge 10
forman 10
forwomen 10
found@@ 10
fox@@ 10
freshlady 10
fron@@ 10
fruit@@ 10
fuego 10
furbaby 10
furmagic 10
furyu 10
fuzzy 10
gaia 10
gail 10
gainer 10
galant 10
gallons 10
gari 10
gator 10
gawa 10
gcc 10
gear@@ 10
geeky 10
gene@@ 10
geography 10
germs 10
ghana 10
ghia 10
giambattista 10
gimme 10
ging@@ 10
girlboss 10
giyo 10
gles 10
glittering 10
gloomy 10
glowy 10
glucosamine 10
goodness 10
googles 10
gotham 10
grandline 10
gregory 10
grimm 10
gripper 10
grn 10
groovy 10
grunge 10
gs@@ 10
guer@@ 10
guidebook 10
gur@@ 10
had 10
halfshoes 10
handler 10
handy@@ 10
haus 10
havianas 10
hayden 10
hch 10
headscarf 10
heartbreaker 10
hellow 10
highneck 10
hil@@ 10
himawari 10
hiyas 10
hoe 10
holloween 10
hori 10
horse@@ 10
horses 10
hoteche 10
hottest 10
hound 10
hub@@ 10
huge 10
hup 10
hyalur@@ 10
hydrocortisone 10
hygrometer 10
hyuk 10
iceberg 10
ichiran 10
ick 10
idle 10
ige 10
igh 10
igloo 10
ilocos 10
imagine 10
imice 10
immun@@ 10
impor@@ 10
ingram 10
ington 10
inlaid 10
insp@@ 10
installer 10
instrumental 10
insu@@ 10
insulin 10
interesting 10
iro@@ 10
islands 10
itlog 10
itz 10
iunik 10
iwatch 10
iwatchyou 10
jac@@ 10
janina 10
janine 10
japan@@ 10
jellyfish 10
jersy 10
jess 10
jeunesse 10
jewerly 10
jinky 10
jml 10
jnc 10
jolie 10
jour 10
joylinshop 10
joymarcelo 10
js@@ 10
judith 10
jughead 10
jumpers 10
junction 10
kaisa 10
kakao 10
kamisa 10
kancolle 10
kaolin 10
karan 10
kardashian 10
kashieca 10
kawa@@ 10
keeps 10
keira 10
kerokeroppi 10
khj 10
kidney 10
kil@@ 10
kilikili 10
kimio 10
kinect 10
kini 10
kinis 10
kirby 10
kis 10
kiyosaki 10
klo@@ 10
kls 10
kmc 10
known 10
koa 10
kokuyo 10
konbat 10
koten 10
kp 10
kre 10
krs 10
kuretake 10
kv 10
kyo 10
kyo@@ 10
label@@ 10
laird 10
lam@@ 10
lapu 10
largo 10
later 10
laun@@ 10
laxative 10
legato 10
legbag 10
lelo 10
lemon@@ 10
lick 10
lico 10
lier 10
lif@@ 10
lillian 10
lily@@ 10
lilys 10
limit 10
lipo@@ 10
liqueur 10
lis@@ 10
liver@@ 10
liwanag 10
lix 10
lly 10
lly@@ 10
loe 10
lonely 10
longlasting 10
loose@@ 10
lora 10
lowry 10
luka 10
lumi@@ 10
luxuries 10
luxxe@@ 10
macarons 10
macg 10
mache 10
mack@@ 10
mafi 10
maga@@ 10
magazi 10
magi 10
maja 10
makers 10
mallpullout 10
mange 10
mano 10
marbled 10
marga@@ 10
marion 10
marjorie 10
marking 10
marksman 10
marquee 10
marshmello 10
martini 10
masala 10
mass@@ 10
massimo 10
maths 10
mattes 10
mayari 10
maybel@@ 10
mcd 10
mcgrath 10
mcstuffins 10
meeting 10
megaglo 10
meguiars 10
mellow 10
merphil 10
merzci 10
met@@ 10
method 10
mey 10
mico 10
mikrotik 10
milea 10
millenial 10
minkoff 10
mints 10
minutes 10
misa 10
misha 10
mjo 10
mjx 10
mlp 10
mmc 10
mmer 10
mmi@@ 10
mming 10
mobilephone 10
mobiz 10
mons 10
montego 10
moonshot 10
movistar 10
moya 10
mph 10
mpt 10
msc 10
mudd 10
mumi 10
mur 10
murray 10
myo@@ 10
mysterious 10
mystique 10
myun 10
nanaysbest 10
nap@@ 10
ncy 10
neclace 10
neighbor 10
nel@@ 10
nerd 10
nesting 10
neverland 10
newspaper 10
newt 10
newton 10
nicotine 10
nightlight 10
nile 10
nimbus 10
nimh 10
nine@@ 10
ning@@ 10
nings 10
nippon 10
nito 10
nix 10
nks 10
noe 10
noi@@ 10
noms 10
noritake 10
nostalgia 10
nourishment 10
novel@@ 10
nuo 10
nutrifab 10
ocampo 10
occ 10
octa@@ 10
officer 10
offroad 10
ogw 10
old@@ 10
oldrose 10
omnifit 10
onesize 10
onsies 10
openwork 10
ordered 10
organi 10
otap 10
outlast 10
ove@@ 10
owlette 10
oxo 10
ozone 10
pace 10
packable 10
padilla 10
pamaypay 10
paragis 10
paragraph 10
parfait 10
park@@ 10
parsley 10
partial 10
past@@ 10
payment 10
pedi@@ 10
pei 10
pendrive 10
pennywise 10
pepper@@ 10
pepsi 10
pere@@ 10
perfumery 10
phe 10
phen@@ 10
pher 10
philipp@@ 10
phlox 10
piaa 10
picaclothing 10
picket 10
pillar 10
pina@@ 10
ping@@ 10
pita 10
pittacus 10
pix@@ 10
pkg 10
plain@@ 10
planetes 10
plantable 10
plaster 10
plasti@@ 10
platforms 10
players 10
pocketed 10
poetry 10
pokeball 10
polyethylene 10
popp@@ 10
porous 10
portfolio 10
portofino 10
poseidon 10
potency 10
powder@@ 10
press@@ 10
prince@@ 10
prison 10
prodigy 10
programmer 10
proofing 10
protaper 10
protro 10
pruning 10
psyllium 10
public 10
pulis 10
pull@@ 10
pullovers 10
punisher 10
purification 10
purina 10
qq@@ 10
quarantine 10
quechua 10
quer 10
race@@ 10
rage 10
rainboots 10
rand 10
rapi@@ 10
rascal 10
rash@@ 10
ratio 10
ravenclaw 10
ravnica 10
raytheon 10
rcma 10
realm 10
recessed 10
recipes 10
reconstructor 10
rect@@ 10
redline 10
regina 10
reishi 10
rejuvenation 10
religion 10
relo 10
reo 10
repli@@ 10
reprice 10
reptile 10
reser@@ 10
rest@@ 10
restocks 10
restorer 10
resveratrol 10
reva 10
reve@@ 10
reworked 10
richelle 10
rifle 10
riot 10
roar 10
robust 10
rockstar 10
rockstorm 10
rolf 10
romeo 10
ronin 10
rossy 10
round@@ 10
rounded 10
route 10
rowling 10
royce 10
rs@@ 10
rui 10
running@@ 10
sab@@ 10
said 10
sake 10
sanding 10
saniti@@ 10
satis@@ 10
saturn 10
saw@@ 10
sawyer 10
sax 10
scarletboutique 10
scholastic 10
scor@@ 10
scre@@ 10
sct 10
scuffplate 10
sdsd@@ 10
sdsquns 10
seam 10
seashell 10
seats 10
sebamed 10
seg@@ 10
senna 10
sensi@@ 10
sent 10
separ@@ 10
sera 10
seriously 10
seven@@ 10
shado@@ 10
shaggy 10
sham@@ 10
shannon 10
shment 10
shortsleeved 10
shouder 10
showdown 10
shre@@ 10
sidney 10
sier 10
sik@@ 10
silverhan 10
simplicity 10
simply@@ 10
sinanju 10
sinsay 10
skinderella 10
skindom 10
skinmate 10
sla 10
slicing 10
slicker 10
slipcover 10
smoo@@ 10
snake@@ 10
snare 10
snea@@ 10
snitch 10
sob 10
socone 10
sodimm 10
sonata 10
south@@ 10
spacegrey 10
spark@@ 10
speedmeter 10
spel@@ 10
sper 10
spine 10
spirits 10
splendida 10
spoofs 10
sportage 10
spreads 10
springs 10
sprite 10
squalane 10
square@@ 10
sque 10
squirtle 10
sriracha 10
ssss@@ 10
stabi@@ 10
stacked 10
stained 10
stampede 10
stater 10
steamed 10
steered 10
stertchable 10
stir 10
ston@@ 10
stoned 10
stren@@ 10
stretchtable 10
string@@ 10
strip@@ 10
stro 10
stupid 10
sual 10
summ@@ 10
summerfloral 10
sunmum 10
sup@@ 10
superfly 10
supernova 10
superstars 10
supports 10
supramatte 10
suprise 10
swak 10
sweep 10
sweeping 10
sweetbaby 10
swell 10
swift@@ 10
tagheuer 10
tahereh 10
tailed 10
tako 10
talcum 10
tama@@ 10
tangan 10
targaryen 10
taslan 10
tattoos 10
taxation 10
tbar 10
tecware 10
teer 10
telephoto 10
tend 10
term 10
ternate 10
terracotta 10
tesla 10
tet 10
thead 10
thefaceshop 10
their 10
thick@@ 10
thicker 10
thou@@ 10
thre@@ 10
thunderbolt 10
tickets 10
tides 10
till 10
tillandsia 10
timothy 10
tite 10
tlc 10
tobacco 10
toi@@ 10
tol@@ 10
tomatoes 10
toolbox 10
tooth@@ 10
tortilla 10
tote@@ 10
totolink 10
touche 10
tough@@ 10
tow@@ 10
towns 10
tpe 10
trainers 10
tramontina 10
travelers 10
travels 10
trays 10
tretinoin 10
tribu 10
tricks 10
tricut 10
trimming 10
trisha 10
trit@@ 10
trolli 10
tsinelas 10
tters 10
tton 10
tubs 10
tukong 10
tv@@ 10
tvi 10
twinset 10
twirl 10
twistable 10
tyler 10
tzuyu 10
uaap 10
ugreen 10
ui 10
umbrellas 10
undereye 10
unflavored 10
uniq 10
unk 10
uocci 10
ured 10
urs 10
usb@@ 10
use@@ 10
uso 10
utah 10
vac@@ 10
vadi@@ 10
vagicare 10
vali@@ 10
vani@@ 10
vant 10
vely 10
vendo 10
vention 10
vernier 10
versa 10
versele 10
vet@@ 10
vian 10
vict@@ 10
vigor 10
viii 10
villain 10
virgo 10
virtue 10
visors 10
vitalizing 10
vivibag 10
vivier 10
vixx 10
vlog 10
vor@@ 10
vv@@ 10
wag 10
wagon 10
wake 10
walang 10
wards 10
washington 10
wbb 10
weddings 10
wednesday 10
weightlifting 10
wha@@ 10
whiskey 10
whisks 10
whitehead 10
wifey 10
wildflower 10
wiwu 10
wl@@ 10
wonwoo 10
worldwide 10
wrong 10
xiumin 10
yamato 10
yang@@ 10
yasmin 10
yasuo 10
yen@@ 10
ynwa 10
your@@ 10
yqy 10
yuma 10
yy@@ 10
zd 10
zealo 10
zenith 10
zes 10
zilla 10
zinnia 10
zion 10
zippers 10
zk 10
zm 10
zn 10
zs 10
zuixua 10
zuma 10
zumi 10
á 10
á@@ 10
ñ@@ 10
ᅠ 10
IN@@ 9
V@@ 9
abakada 9
acetyl 9
acne@@ 9
activating 9
activation 9
active@@ 9
acu@@ 9
adaptive 9
addario 9
added 9
addiction 9
advertising 9
aficionado 9
ahead 9
aidin 9
airlift 9
akatsuki 9
ake 9
alan 9
aleah 9
aler 9
alibata 9
alo 9
alpha@@ 9
alter@@ 9
amarah 9
amazonite 9
amg 9
amigurumi 9
amin 9
among 9
amu@@ 9
andalou 9
andie 9
andis 9
andres 9
aneroid 9
anj 9
anniv 9
answers 9
ante@@ 9
anthology 9
aofly 9
arah 9
archery 9
argb 9
arie 9
aring 9
arkom 9
army@@ 9
arnold 9
aromagicare 9
array 9
artists 9
aru 9
asa 9
ashimori 9
assassins 9
asse@@ 9
assoted 9
athlon 9
atibay 9
atomization 9
aty 9
augu@@ 9
australis 9
avalon 9
award 9
ayuan 9
baba 9
bachelorette 9
backpack@@ 9
bahama 9
bake@@ 9
baking@@ 9
bakugo 9
baldacci 9
bangkok@@ 9
basic@@ 9
bastard 9
bautista 9
baya 9
bcaa 9
bday 9
bebe@@ 9
beer@@ 9
beet 9
belinda 9
bemy 9
bend 9
beta@@ 9
bgp 9
bian 9
bid 9
bien 9
biggie 9
bigkis 9
bijin 9
biography 9
bioré 9
birkenstocks 9
bitch 9
blackhoundz 9
blaire 9
blen@@ 9
blox 9
bls 9
blueberi 9
bluelight 9
bluray 9
blurring 9
blyton 9
bmc 9
bnw 9
bobb@@ 9
bod@@ 9
boil 9
bolsters 9
bootie 9
bos@@ 9
boshi 9
bots 9
bottoming 9
brace@@ 9
bralet 9
breadboard 9
bree 9
bren@@ 9
brian 9
bridesmaids 9
bridget 9
brush@@ 9
bry 9
bula 9
bulletproof 9
burlap 9
burners 9
bushiroad 9
butcheron 9
buzzer 9
byloz 9
cTM 9
cabaña 9
café 9
cambodia 9
cambridge 9
cancellation 9
canson 9
capdase 9
caption 9
capuccino 9
carbo 9
carbonized 9
caricature 9
carol@@ 9
cary 9
castile 9
casu@@ 9
cations 9
cattleya 9
catwoman 9
caudalie 9
cavalli 9
ceelin 9
cellin 9
cfu 9
chael 9
championship 9
chantaco 9
chaps 9
charieku 9
chasis 9
cheek@@ 9
chewbacca 9
chichar@@ 9
chies 9
chilled 9
chima 9
chio 9
chipsi 9
chix 9
cholesterol 9
chondroitin 9
chop@@ 9
chosch 9
chrismas 9
christina 9
cid 9
cielo 9
cincher 9
cinematic 9
cjxshop 9
ckey 9
clair 9
clark 9
clary 9
classica 9
cleansers 9
clini@@ 9
coastal 9
coat@@ 9
coc@@ 9
cocoon 9
coinslot 9
cok 9
colle 9
colorless 9
comix 9
computing 9
concentr@@ 9
condoms 9
conference 9
conic 9
connie 9
constance 9
contacts 9
contains 9
coolpix 9
cordya 9
corporation 9
corsets 9
cost@@ 9
cosé 9
cotta 9
cottonytail 9
covering 9
cre 9
crema 9
cris 9
crossbag 9
crotch 9
crow@@ 9
crows 9
crust 9
ctdl 9
ctn 9
cudd@@ 9
cuddles 9
cuk 9
cultivate 9
curves 9
cushioned 9
custard 9
cvc 9
dahon 9
dahyun 9
dakku 9
daniels 9
dantsuran 9
darcy 9
darice 9
darkest 9
davi@@ 9
davies 9
debenhams 9
decor@@ 9
deja 9
deku 9
deliver@@ 9
demi@@ 9
deped 9
derm@@ 9
dermato@@ 9
dero 9
desig@@ 9
desigh 9
design@@ 9
desk@@ 9
destin@@ 9
develo@@ 9
dew@@ 9
dewdrops 9
dewormer 9
dewytree 9
dez 9
dgs 9
dido 9
dig 9
diluted 9
dimm 9
diorama 9
dipping 9
divide 9
dmw 9
does 9
dogfood 9
dol 9
dolman 9
domingo 9
doncic 9
donuts 9
doodles 9
dore 9
download 9
doyle 9
draped 9
drei 9
dresd 9
dressy 9
dripping 9
drizzle 9
dsfds 9
duffy 9
dula 9
dungeons 9
duology 9
dwl 9
dyna 9
easonshop 9
economics 9
eding 9
edmark 9
edward 9
ei 9
electricfan 9
electricity 9
electrothermal 9
elevated 9
eliza 9
eller 9
email 9
ement 9
emi 9
emo 9
ending 9
energized 9
enti@@ 9
ents 9
environment 9
episode 9
equi@@ 9
equinox 9
eries 9
erina 9
ernie 9
erotic 9
erto 9
esca@@ 9
ese 9
esp 9
especially 9
essager 9
ete 9
evan@@ 9
evans 9
evergreen 9
everywhere 9
evo@@ 9
exaggerated 9
excavator 9
exce@@ 9
exclu@@ 9
exfoli@@ 9
expectations 9
expedition 9
extremely 9
eyemarie 9
factors 9
faerie 9
falsies 9
fashionme 9
fathers 9
fault 9
fdt 9
fee@@ 9
fennel 9
fiba 9
fingerboard 9
first@@ 9
firstmark 9
fist 9
fj 9
flake 9
flamingos 9
flawed 9
fleurs 9
flim 9
flin@@ 9
flora@@ 9
floral@@ 9
florida 9
flow@@ 9
folders 9
fone 9
footwears 9
forms 9
forza 9
foun@@ 9
frankie 9
franky 9
freddie 9
fridge@@ 9
fringed 9
ftb 9
fukuda 9
fulton 9
fungal 9
fushia 9
gale 9
gambling 9
gamestop 9
gar 9
garcons 9
garuda 9
gathered 9
gea@@ 9
geller 9
genova 9
germania 9
ghts 9
gil 9
gillesania 9
given@@ 9
glad@@ 9
glamou@@ 9
glassy 9
gle@@ 9
glen@@ 9
glimmer 9
gloria 9
gluco@@ 9
gluth@@ 9
gluthathione 9
glutinous 9
gna@@ 9
goblet 9
gochugaru 9
gohan 9
goketo 9
goldtone 9
gong@@ 9
goodal 9
gourmand 9
gprs 9
gq 9
grandma 9
grandprime 9
granger 9
graph@@ 9
graviola 9
graze 9
greeni@@ 9
grilled 9
gripesack 9
grolier 9
groomer 9
gru@@ 9
guasha 9
guit@@ 9
gullie 9
gurt 9
guru 9
gx@@ 9
gymshark 9
hades 9
hairspa 9
hale 9
hampton 9
handcuff 9
handi@@ 9
handwriting 9
hanyul 9
hapee 9
harbor 9
hardcore 9
hardshell 9
hari 9
haru@@ 9
haul 9
hazelnuts 9
hbq 9
heattech 9
heir 9
helen 9
helium 9
herchel 9
hermione 9
hes 9
heusen 9
hines 9
hinged 9
hints 9
hiwaist 9
hkc 9
hob 9
hobobe 9
homeschool 9
hone 9
honest 9
hong@@ 9
hopper 9
hornet 9
horseshoe 9
hoshi 9
hotcake 9
hotkiss 9
htt@@ 9
humans 9
hunting 9
hyacinth 9
hydrocor 9
hydrox 9
ica 9
icare 9
icc 9
ics 9
ide 9
idolish 9
ids 9
ie@@ 9
ier 9
immuno 9
improvement 9
increased 9
incredibles 9
ind@@ 9
inda 9
indo 9
indulgence 9
information 9
inga 9
ingrid 9
initials 9
injustice 9
inkey 9
inkpiu 9
inno 9
insects 9
instagram 9
instawhite 9
insulator 9
ints 9
inv 9
ione 9
ipacky 9
ipower 9
ipuda 9
iq 9
irl 9
ist@@ 9
itachi 9
itel 9
iter 9
iti 9
itie 9
itis 9
itive 9
itouch 9
itx 9
jadore 9
jbj 9
jeff 9
jeffrey 9
jellybag 9
jeonghan 9
jetblack 9
jiang 9
jibang 9
jiggly 9
jihyo 9
jinyoung 9
jiu@@ 9
jocelyn 9
jocket 9
joe@@ 9
joey 9
joong 9
josie 9
joyroom 9
jpdy 9
jrock 9
juana@@ 9
jukaykay 9
jumpershort 9
juventa 9
jyjt 9
kadenang 9
kaf@@ 9
kaneki 9
kati@@ 9
kaw 9
kerasys 9
kgs 9
kies 9
kindness 9
kingpin 9
kingsph 9
kinsella 9
kka 9
kld 9
kleen 9
kmk 9
knees 9
koji 9
kojiesan 9
kola 9
kolies 9
kombi 9
kon 9
kona 9
kono@@ 9
kore@@ 9
koren 9
kori 9
kosa 9
krave 9
krisman 9
krizia 9
krx 9
ktm 9
kurba 9
kurt 9
kymco 9
kyojin 9
lace@@ 9
lacing 9
lactic 9
lamin@@ 9
laminate 9
lanalon 9
lander 9
landline 9
langley 9
larger 9
laser@@ 9
lating 9
laver 9
layla 9
lays 9
leads 9
leakage 9
lechon 9
lees 9
lengua 9
leona 9
leur 9
leverage 9
levres 9
leys 9
lica 9
licca 9
liger 9
lila 9
lili 9
lillebaby 9
lindsay 9
lingzhi 9
linking 9
lista 9
lizing 9
llh 9
loader 9
location 9
loco 9
lodge 9
lodi 9
longslee@@ 9
longsleevess 9
loona 9
lour@@ 9
lsvtr 9
lunch@@ 9
luscious 9
luyang 9
lycopene 9
lysine 9
macho 9
mackerel 9
macross 9
madagascar 9
madecassoside 9
mafia 9
magna 9
mail 9
mail@@ 9
malaki 9
mals 9
mammillaria 9
mamy 9
manage 9
mandevilla 9
mango@@ 9
mansion 9
mantis 9
mariah 9
marin@@ 9
marinade 9
mariposa 9
maris 9
marked 9
marriage 9
marvels 9
masher 9
masterpiece 9
matters 9
matx 9
maverick 9
maycreate 9
maz@@ 9
mazinger 9
mbo@@ 9
mbps 9
mcdonalds 9
mcgrady 9
mdf 9
meadow 9
mean 9
meatball 9
mediterranean 9
meets 9
melange 9
melo@@ 9
memor@@ 9
memorial 9
mena 9
metro@@ 9
mhz 9
miao 9
mich@@ 9
micha@@ 9
mics 9
midrib 9
mig@@ 9
mile@@ 9
milkberry 9
millenium 9
millet 9
millionaire 9
mination 9
minimates 9
miniskirt 9
mins 9
mintgreen 9
miracles 9
mirco 9
miroh 9
mite 9
mitts 9
mj@@ 9
mky 9
mle 9
mlgb 9
mmmm 9
moblie 9
moccasin 9
moccasins 9
moisturing 9
moisturize 9
moldavite 9
mole 9
molecule 9
monchichi 9
money@@ 9
moniegold 9
monkeys 9
monobo 9
mortar 9
mos@@ 9
mot 9
motoworld 9
mper@@ 9
mpers 9
mpy 9
msg 9
mt@@ 9
mucus 9
mus@@ 9
muscovado 9
museum 9
nagoya 9
nail@@ 9
nanay 9
nappies 9
nashi 9
natalia 9
naya 9
neckalce 9
necked 9
negativitee 9
nelson 9
neutra@@ 9
nex@@ 9
nexen 9
nico 9
nie@@ 9
nightie 9
nip 9
nips 9
nish 9
noix 9
northern 9
not@@ 9
nouveau 9
numeric 9
nutra 9
nutre@@ 9
nutty 9
nwo@@ 9
odette 9
ofix 9
oldnavy 9
olds 9
olens 9
oleum 9
oma 9
omen 9
omni@@ 9
omoto 9
ond 9
onne 9
opera 9
opo 9
orang@@ 9
orbital 9
organica 9
origani 9
origina 9
originally 9
ostrich 9
ota@@ 9
ote 9
overhead 9
overlapped 9
overload 9
oxi@@ 9
paa 9
pablo 9
padayon 9
padd@@ 9
paladin 9
papaine 9
paraiba 9
paran@@ 9
parents 9
pari@@ 9
parrot 9
pasa@@ 9
pasti@@ 9
pastilles 9
pastle 9
pastries 9
pau 9
paul@@ 9
payong 9
pcg 9
pear@@ 9
pearlescent 9
pediatric 9
penetrating 9
penne 9
penta@@ 9
pep@@ 9
perfum 9
peridot 9
perlynax 9
personali@@ 9
perspective 9
petit@@ 9
pha@@ 9
phie 9
phillips 9
phine 9
phyto@@ 9
pic@@ 9
pigs 9
pinch 9
pinion 9
pippen 9
pivot 9
pk@@ 9
planes 9
planted 9
plantronics 9
plax 9
plumbing 9
poke@@ 9
pol 9
pola 9
polca 9
poli@@ 9
polident 9
pollen 9
popsockets 9
postnatal 9
powerpoint 9
pran@@ 9
prenatal 9
presentation 9
prevail 9
priced 9
prickly 9
primeo 9
pritech 9
profession 9
programming 9
protecting 9
prototype 9
provi@@ 9
ption 9
pto@@ 9
puffer 9
puffsleeves 9
pulled 9
pully 9
pulubi 9
puncture 9
pursuit 9
pushup 9
qian@@ 9
qin 9
quali@@ 9
queenie 9
quezon 9
qui 9
quickcharge 9
quickflex 9
quilling 9
quit 9
rainex 9
raisin 9
rake 9
ralli 9
rarity 9
ravpower 9
rba 9
rdl 9
rear@@ 9
rebond 9
rebuildable 9
reciprocating 9
reco@@ 9
refurbished 9
regenerating 9
reggie 9
registered 9
reju@@ 9
rejuv@@ 9
rel@@ 9
relaxation 9
rell 9
remedy 9
remo 9
rene@@ 9
request 9
rero 9
reset 9
resistor 9
reth 9
rhombic 9
ridge 9
ringstand 9
rip@@ 9
ripple 9
riser 9
roberta 9
roberto 9
robo 9
romances 9
romand 9
rone 9
rosewood 9
rosherun 9
rosin 9
rover 9
roxanne 9
royal@@ 9
royalty 9
rrr 9
rsp 9
sah 9
sail 9
sako 9
sakto 9
saltwater 9
sampaguita 9
samuel 9
sanctuary 9
sar 9
sarap 9
sari 9
saves 9
scal@@ 9
scalloped 9
scence 9
scholl 9
scratcher 9
scratches 9
screw@@ 9
scrolls 9
seahorse 9
seals 9
searchlight 9
seaside 9
seattle 9
sebastian 9
seemless 9
sell@@ 9
sengoku 9
sensing 9
senso 9
sequinned 9
serenity 9
sergeant 9
setph 9
seung@@ 9
sgi 9
shd 9
shea@@ 9
sheeran 9
sheldon 9
shhors 9
shinchan 9
shingeki 9
shka 9
shopp@@ 9
shoppies 9
shops 9
show@@ 9
shrinkable 9
silverfresh 9
simon@@ 9
sinigang 9
sino 9
sinulog 9
sion@@ 9
sirt 9
skateboarding 9
skyworth 9
sleevess 9
slender 9
slytherin 9
smacking 9
smal 9
sme@@ 9
smelly 9
smr 9
sno@@ 9
snowball 9
snowhite 9
sodalite 9
sofi@@ 9
sofiesticated 9
sofisticada 9
softsoap 9
softymo 9
soldiers 9
solf 9
solvent 9
soy@@ 9
span@@ 9
specialized 9
spect 9
spect@@ 9
spectre 9
spee@@ 9
spelling 9
spen@@ 9
spla@@ 9
splicing 9
splint 9
sprea@@ 9
spring@@ 9
sprinkler 9
squalene 9
ssamzie 9
ssk 9
stacko 9
starburst 9
starr 9
statements 9
steel@@ 9
steelbook 9
stellar 9
stents 9
steria 9
sterilized 9
stering 9
sthetic 9
stilettos 9
stilleto 9
stin@@ 9
stir@@ 9
stitches 9
stm 9
stream@@ 9
streamer 9
structural 9
studex 9
stunt 9
sui@@ 9
suka 9
sunburst 9
sunflowers 9
supre 9
surprised 9
sutra 9
svc 9
swabs 9
swaddleme 9
sweetie 9
sym@@ 9
syn 9
sys 9
szl 9
tableya 9
taco 9
tad 9
taillamp 9
taito 9
tajima 9
taker 9
tamagotchi 9
tamanu 9
tamaraw 9
tana 9
tangle 9
tangram 9
tanjiro 9
tape@@ 9
tari 9
tarmac 9
tatak 9
tati 9
tatoo 9
tawa 9
tback 9
teachers 9
team@@ 9
teat 9
techni@@ 9
teh 9
tem@@ 9
teme@@ 9
terrarium 9
tesco 9
tessuto 9
testament 9
tetris 9
texas 9
thb 9
thentic 9
thermaltake 9
thermo 9
thieves 9
think@@ 9
thins 9
thumb@@ 9
tice 9
tigh@@ 9
tikes 9
tional 9
titled 9
tock 9
token 9
tokipops 9
tomatox 9
tomford 9
toons 9
tors 9
torx 9
tots 9
touching 9
townshop 9
tracksuit 9
trae 9
travelus 9
trax 9
trendy@@ 9
triangl 9
tricianachen 9
trixie 9
troll 9
trs 9
trun@@ 9
tshirt@@ 9
tuned 9
tuning 9
ture@@ 9
turret 9
tutudress 9
twelve 9
twiceland 9
twicetagram 9
twinkies 9
tyrolit 9
ub 9
udon 9
uk@@ 9
ull 9
ultrabook 9
ultramatte 9
umbra 9
umbro 9
unan 9
uncle 9
unda 9
undefeated 9
underpads 9
unity 9
update 9
upsize 9
uptempo 9
ure@@ 9
ures 9
usage 9
usams 9
valet 9
valves 9
vanda 9
vanderbilt 9
vanishing 9
varied 9
vases 9
vcaps 9
vell 9
verbatim 9
veri@@ 9
vey@@ 9
vgf 9
videocard 9
vil@@ 9
villains 9
virbac 9
virginia 9
vitamin@@ 9
vite 9
vk 9
vmv 9
vostro 9
vpower 9
vron 9
vy@@ 9
wallmount 9
walt 9
wanda 9
wang@@ 9
wdc 9
weapons 9
webbing 9
weigela 9
whamisa 9
wheeled 9
whipping 9
whistling 9
whiten 9
whiten@@ 9
wicker 9
wil 9
wingtip 9
wishtrend 9
wokali 9
wonderbra 9
wook 9
worker 9
worlds 9
worms 9
wort 9
worthy 9
worx 9
wri@@ 9
wright 9
xa@@ 9
xilong 9
xmen 9
xpe 9
xpel 9
xtar 9
xxxiv 9
yag 9
yasuy 9
yay 9
yaya@@ 9
yeah 9
yer 9
yl@@ 9
yogi 9
yon@@ 9
yuasa 9
yvon 9
yvonne 9
zb 9
zenbook 9
zenfone@@ 9
zeppelin 9
zhk 9
zig 9
zir@@ 9
zombies 9
zqs 9
zzz 9
à@@ 9
ø 9
스@@ 9
Y@@ 8
aTM 8
aamarah 8
abaka 8
acana 8
accuracy 8
achi@@ 8
achieve 8
ack@@ 8
adas 8
address 8
adela 8
adele 8
adhe@@ 8
ador 8
adri@@ 8
adrienne 8
africa 8
age@@ 8
agimat 8
agri@@ 8
agricultural 8
ahern 8
ahglow 8
aiko 8
ainspired 8
aircooler 8
airsoft 8
akari 8
aksun 8
aktive 8
aleg@@ 8
alegria 8
alignment 8
alloves 8
alpa@@ 8
alpaca 8
alpine 8
alwaysphil 8
ambassador 8
amenities 8
ameriman 8
amie 8
ammo 8
amo 8
ams 8
andre@@ 8
andro 8
andro@@ 8
angh@@ 8
aning 8
anklets 8
anova 8
anta 8
aorus 8
apacer 8
apc 8
apologies 8
approach 8
approximately 8
apri@@ 8
aquaponics 8
argen@@ 8
arielle 8
arine 8
armed 8
arra 8
arrowzoom 8
artistic 8
artistryTM 8
ary@@ 8
ascen@@ 8
ascend 8
asd 8
asin 8
assurance 8
astra@@ 8
astrum 8
asuka 8
asy 8
asy@@ 8
atable 8
atec 8
ateco 8
aters 8
atmos 8
atomi@@ 8
atsu 8
att 8
atten@@ 8
attention 8
attipas 8
aug 8
auntentic 8
authomatic 8
autooff 8
avah 8
availa@@ 8
availble 8
aval 8
avia 8
awg 8
ayanami 8
ayo 8
azalea 8
azelaic 8
babes 8
babybabs 8
babyflo 8
bacpack 8
badyet 8
bai 8
baja 8
balletflats 8
baloon 8
balun 8
bambam 8
baobab 8
bara 8
barba@@ 8
barquillos 8
barre@@ 8
barrettes 8
bassinet 8
basuke 8
bather 8
bauer 8
baum 8
bayongmanila 8
bba@@ 8
bca 8
bdsm 8
beagle 8
bearbrand 8
beautifying 8
beck 8
bedframe 8
beds 8
beeper 8
bei@@ 8
belli@@ 8
berent 8
besh 8
bestfriend 8
betadine 8
beth@@ 8
betsey 8
bever@@ 8
bfad 8
bfcod 8
bgs 8
bibigo 8
biblia 8
bigelow 8
bighero 8
bigtokyo 8
bigup 8
binggrae 8
biology 8
biotic 8
birdseye 8
bishop 8
bistro 8
bittersweet 8
biv 8
bizhub 8
bizzaro 8
blab 8
blackwater 8
blea@@ 8
blendz 8
blet 8
bling@@ 8
blockbuster 8
blockheels 8
blockout 8
blon@@ 8
bloom@@ 8
blow@@ 8
blowing 8
blows 8
bly 8
boardgame 8
bodega 8
bohol 8
boli@@ 8
bolic 8
bombs 8
bombshells 8
bonder 8
bonito 8
borne 8
botanica 8
bouffant 8
boulevard 8
brack@@ 8
bracken 8
branches 8
brande@@ 8
brave@@ 8
brazi@@ 8
bread@@ 8
brecelet 8
brecken 8
brick@@ 8
brielle 8
brightener 8
brilli@@ 8
bristle 8
bristles 8
broiler 8
bronte 8
brun@@ 8
bsa 8
buddies 8
buggy 8
bujo 8
bulacan 8
bullcap 8
buns 8
bureau 8
burrp 8
bus@@ 8
butas 8
bwfc 8
cain 8
cambio 8
camila 8
camisoles 8
campbell 8
camuto 8
canal 8
cano 8
cant 8
capa@@ 8
carbo@@ 8
carenel 8
carl@@ 8
carmen 8
carpets 8
carri@@ 8
cas@@ 8
casematic 8
castorseed 8
catching 8
catz 8
cauliflower 8
cavitation 8
cdma 8
cds 8
cecil 8
celery 8
cen 8
cep 8
cerberus 8
cere@@ 8
cerelac 8
ceres 8
ceri@@ 8
cess@@ 8
cfm 8
channels 8
chapman 8
charact@@ 8
charon 8
chat@@ 8
checklist 8
cheerleader 8
cheese@@ 8
chestbag 8
chette 8
child@@ 8
chilly 8
chna 8
choleduz 8
chop 8
chopp@@ 8
chosen 8
chromebook 8
chy@@ 8
cies 8
cil 8
cinnabar 8
cis 8
citas 8
citi@@ 8
cka 8
cko 8
clamping 8
clap 8
clapton 8
clarity 8
clat 8
claws 8
clearfile 8
clerical 8
cli 8
clotheslines 8
clothespin 8
clothings 8
cloudy 8
clusters 8
clé 8
coarse 8
coc 8
cocon@@ 8
cocose 8
colisi 8
collab 8
collin 8
collo@@ 8
colloidal 8
colognes 8
cology 8
colorant 8
coloricon 8
colossal 8
colostrum 8
comfast 8
community 8
comportable 8
confe@@ 8
conne@@ 8
connor 8
consoles 8
construx 8
consu@@ 8
controllers 8
corningware 8
cort 8
coste 8
cote 8
could 8
countertop 8
couple@@ 8
coverall 8
cp@@ 8
cpl 8
cq 8
craw@@ 8
creatures 8
creepers 8
crossbodybag 8
cruel 8
crumpled 8
crusa@@ 8
cth 8
cto@@ 8
cture 8
cuisinart 8
cum 8
curren 8
currency 8
cush 8
cusion 8
cuto@@ 8
cuttings 8
cymbals 8
dac 8
dami@@ 8
danskin 8
dau@@ 8
davidsyonline 8
dazzler 8
dc@@ 8
dcp 8
dder 8
deathly 8
deathstroke 8
dec 8
decorate 8
ded@@ 8
deergirl 8
defe@@ 8
defect 8
delirium 8
della 8
delta@@ 8
delux 8
dence 8
denims 8
denona 8
dential 8
dents 8
dermapen 8
desitin 8
detacheable 8
detoxi@@ 8
detroit 8
deus 8
dfg 8
dhk 8
dillo 8
dimensions 8
dimmer 8
dino@@ 8
dip@@ 8
dipped 8
dir@@ 8
distancing 8
distribution 8
dix 8
diya 8
dlp 8
dly 8
doble 8
documents 8
dokie 8
dominaria 8
domo 8
dracula 8
drag@@ 8
drainage 8
draw@@ 8
drawn 8
dreamworks 8
drum@@ 8
dsa@@ 8
dsi 8
dsk 8
dtk 8
dual@@ 8
dumpling 8
dune 8
duramo 8
dyer 8
dymax 8
dzen 8
earrigns 8
earsaver 8
ecko 8
ecolum 8
economic 8
edge@@ 8
eeee@@ 8
efficient 8
ein 8
eis 8
elaine 8
elan 8
elder 8
eleaf 8
eled 8
elemental 8
elephants 8
elie 8
elit 8
ella@@ 8
ellegant 8
ellipse 8
elliptical 8
elora 8
embellishment 8
embiid 8
embro 8
emilia 8
emoj 8
emoticon 8
emu 8
enchantress 8
enesco 8
eness 8
enfamil 8
enice 8
enid 8
eno 8
enough 8
enrich 8
enth@@ 8
entourage 8
enza 8
equ@@ 8
equestria 8
ericsson 8
erio 8
erized 8
esfolio 8
essenti@@ 8
estée 8
etcetera 8
etudehouse 8
eunyul 8
eux 8
evaporator 8
evenflo 8
evermore 8
ewing 8
exact 8
expressions 8
extend 8
eyebags 8
eyeshade 8
fab@@ 8
facebook 8
facetowel 8
fairpricesupplies 8
fantaisie 8
farms 8
fashi@@ 8
fashon 8
fasionable 8
fatal 8
fatima 8
fav@@ 8
fawn 8
fce 8
featuring 8
fed 8
feeds 8
feel@@ 8
felix 8
fell 8
femwash 8
ferris 8
fett 8
ffing 8
fiberfill 8
fice 8
fil 8
fili@@ 8
filt 8
finale 8
fineti 8
finis 8
fjql 8
flage 8
flan@@ 8
flapper 8
flaps 8
flex@@ 8
flowerbomb 8
flynit 8
flynn 8
fonn 8
footed 8
footprints 8
formulation 8
foster 8
fowl 8
fpa 8
fracora 8
freckle 8
freddy 8
freebra 8
frieza 8
frit@@ 8
frm 8
frutti 8
fshang 8
fskin 8
fsm 8
fting 8
fuente 8
fuku 8
fullo 8
fungus 8
funsize 8
funzone 8
furbabies 8
furr 8
fus 8
fuser 8
fuso 8
futura 8
fvp 8
fy@@ 8
gac 8
gaining 8
galactic 8
galing 8
gals 8
gambit 8
gamers 8
gami 8
ganocelium 8
gap@@ 8
garden@@ 8
garnett 8
gart 8
garter@@ 8
gbm 8
geable 8
geeks 8
gelpens 8
gener@@ 8
genic 8
gently 8
geranium 8
gest 8
geta 8
getting 8
ggies 8
ggs 8
ghostbusters 8
gies 8
gilbert 8
gilded 8
gimi 8
gine 8
ginger@@ 8
gings 8
gis 8
gj 8
glace 8
gladi@@ 8
glamsanity 8
glico 8
glutathion 8
gnp 8
gol 8
goli@@ 8
gonal 8
gorillapod 8
gou@@ 8
gouache 8
gover@@ 8
graceful 8
grandeur 8
grape@@ 8
grateful 8
greasy 8
greece 8
griddle 8
gril 8
gth 8
gui 8
guided 8
guides 8
guil@@ 8
guild@@ 8
gunting 8
gusion 8
gusset 8
guzman 8
gwa@@ 8
haidilao 8
haikyu 8
hallows 8
hammerhead 8
hamsa 8
hanadul@@ 8
handle@@ 8
handphone 8
handtowel 8
hani 8
hanky 8
hansol 8
haoan 8
happybaby 8
hati 8
havoc 8
hayes 8
haylou 8
hcs 8
heartgard 8
heatguard 8
heavily 8
heinz 8
helene 8
helo 8
hemi@@ 8
hepburn 8
here@@ 8
hgbd 8
hicut 8
higgins 8
higher 8
hikaw 8
hilar@@ 8
hill@@ 8
hime 8
hipon 8
hir@@ 8
hiro 8
hisense 8
hnm 8
holds 8
hollow@@ 8
holy@@ 8
homeaid 8
homecoming 8
homie 8
hoo 8
hopeless 8
hoph 8
horec 8
hornets 8
hover 8
how@@ 8
hufflepuff 8
huga 8
hul@@ 8
hula 8
hulkbuster 8
humi@@ 8
humidi@@ 8
huntkey 8
hw@@ 8
hxt 8
hydrated 8
hydroquinone 8
hygienic 8
hypebeast 8
hypercurl 8
hypnosis 8
ibig 8
ichi 8
iconia 8
identification 8
iketo 8
ili 8
illumin@@ 8
iloveyou 8
imagic 8
improve 8
industries 8
iners 8
infe@@ 8
inflam@@ 8
ingu@@ 8
inked 8
inko 8
instaglow 8
instal@@ 8
insurgent 8
integra 8
interlude 8
inti@@ 8
invigorating 8
ionizer 8
ipa@@ 8
iph@@ 8
irvins 8
iton 8
itor 8
its@@ 8
itu 8
jacklyn 8
jacks 8
jaden 8
jaime 8
janella 8
janna 8
ject 8
jel 8
jelai 8
jem 8
jemi@@ 8
jeni@@ 8
jester 8
jha@@ 8
jhe@@ 8
jiestine 8
jil@@ 8
jima 8
jitsu 8
jl@@ 8
jolex 8
jordache 8
jour@@ 8
jovi 8
jpn 8
juliana 8
jumiso 8
jumperoo 8
jumperpants 8
jumpershorts 8
justine 8
jyb 8
kadita 8
kahan 8
kal 8
kalabasa 8
kamp@@ 8
kana@@ 8
kanji 8
kantai 8
katakana 8
katana 8
katsuki 8
keeka 8
kekao 8
kel 8
kendal 8
kenpakubijin 8
kesx 8
kettlebell 8
khc 8
kiara 8
kie@@ 8
kieth 8
kina 8
kindly 8
kintab 8
kiss@@ 8
kity 8
kling 8
koean 8
koiking 8
kojic@@ 8
kok 8
koontz 8
kore 8
korrs 8
kourtney 8
kout 8
koy 8
kreg 8
ktk 8
kump@@ 8
kuzma 8
kyra 8
lacost 8
lacto@@ 8
lal 8
lalamove 8
lalique 8
lamb@@ 8
laminator 8
lanelle 8
lansing 8
lap@@ 8
laroche 8
lasika 8
laso 8
lazy@@ 8
lbn 8
leath@@ 8
lemax 8
leneo 8
leo@@ 8
lesbian 8
less@@ 8
leyasu 8
liance 8
liant 8
liar 8
liber@@ 8
liezel 8
lil@@ 8
lincoln 8
linear 8
lingeries 8
lion@@ 8
lippiestix 8
lique 8
liqui@@ 8
liquids 8
listic 8
liz@@ 8
lization 8
ljc 8
lled 8
llis 8
lloyd 8
logg 8
logist 8
loisa 8
lolo 8
longblouse 8
lonzo 8
loren@@ 8
louie 8
loulou 8
lous 8
lowe@@ 8
lsc 8
luca 8
ludovica 8
lufra 8
luis 8
lump@@ 8
lun 8
lupin 8
lycra 8
lyric 8
lyrics 8
macau 8
madeleine 8
mahal 8
majorette 8
mandalorian 8
mandals 8
manok 8
mao 8
maoxin 8
marathon 8
margie 8
martial 8
martian 8
marubishi 8
marumiya 8
maruyama 8
mash 8
mata@@ 8
matador 8
matched 8
matebook 8
matilda 8
mating 8
mative 8
maxzone 8
mayu 8
mba@@ 8
mcc@@ 8
mdl 8
medit@@ 8
mee@@ 8
megaman 8
megaph 8
megapixel 8
memo@@ 8
memorabilia 8
memphis 8
mentality 8
mentholatum 8
meo 8
merba 8
mermaids 8
mes@@ 8
mexx 8
mhie 8
microscope 8
midas 8
midriff 8
mie@@ 8
mier 8
miko 8
mildew 8
milling 8
milton 8
mimax 8
minds 8
minima@@ 8
minne 8
minnions 8
mirrodin 8
mixers 8
mixtape 8
mixture 8
mkay 8
mmi 8
mmy@@ 8
modu@@ 8
moisturi@@ 8
moisturizers 8
mok 8
moko 8
mommies 8
monalisa 8
monoshock 8
moore 8
mora 8
more@@ 8
morui 8
mosqu@@ 8
motobox 8
mountainpeak 8
mountains 8
mucho 8
muk@@ 8
mukna 8
munchkins 8
mylene 8
myo 8
mypro 8
mythic 8
mythology 8
nable 8
nal@@ 8
nand 8
naraya 8
narcos 8
nath@@ 8
nativity 8
nato 8
navigator 8
nay 8
nayeon 8
neco 8
nels 8
nema 8
nesse 8
neutralizer 8
nial 8
nichido 8
nik@@ 8
nir@@ 8
nits 8
nity 8
nj 8
nobita 8
noblesse 8
noire 8
noli 8
norelco 8
nov@@ 8
novus 8
noz 8
nudestix 8
numeral 8
nuovo 8
nursy 8
oa 8
oah 8
octacore 8
offshie 8
ofrf 8
ohayo 8
oki 8
olymp@@ 8
olympians 8
ome@@ 8
omnifresh 8
omv 8
onesi@@ 8
onestopbuy 8
onlineshop 8
ony@@ 8
ood 8
oon 8
oontz 8
ootd@@ 8
operating 8
ophidia 8
opposites 8
optix 8
orag@@ 8
orchard 8
orchestra 8
origi@@ 8
ornamental 8
orthotic 8
orwell 8
osh@@ 8
osmanthus 8
ounces 8
ov 8
ovi@@ 8
ovo 8
ozsalegrabber 8
pacers 8
paches 8
paint@@ 8
paired 8
palmetto 8
palmrest 8
palo@@ 8
paloma 8
paminta 8
panla@@ 8
parcel 8
pard 8
parks 8
parol 8
pasabahce 8
passet 8
passive 8
patahian 8
pathfinder 8
pavé 8
pbandai 8
pdt 8
peau 8
pecan 8
pencilcase 8
peperomia 8
peregrine 8
perfu@@ 8
peristaltic 8
perks 8
persons 8
pesto 8
petmalu 8
peva 8
phas@@ 8
philadelphia 8
philo@@ 8
photofocus 8
physics 8
piaya 8
pilates 8
pile 8
pino 8
pir@@ 8
piringubu 8
pisowifi 8
pixi@@ 8
planets 8
planning 8
plast 8
playard 8
plp 8
plumeria 8
plun@@ 8
plus@@ 8
pocahontas 8
poche 8
pocky 8
poe@@ 8
poh 8
pok@@ 8
polio 8
popper 8
porridge 8
porter 8
possible 8
poten@@ 8
pounding 8
pow 8
powell 8
powercat 8
powermax 8
ppt 8
ppx 8
pra 8
prado 8
praia 8
pram 8
prayers 8
prel 8
prelov@@ 8
presents 8
pressing 8
preven@@ 8
pri 8
primetime 8
princes 8
priv 8
proce@@ 8
property 8
prostar 8
protecto 8
proto 8
pruner 8
psb 8
psv 8
psy 8
pter 8
publi@@ 8
pul 8
punda 8
purifie 8
pusher 8
pyjamas 8
qj 8
qqs 8
quan@@ 8
quar@@ 8
quat@@ 8
quatorze 8
quigle 8
quirky 8
rac 8
raccoon 8
racers 8
rachelle 8
rachet 8
rackmount 8
racquet 8
rags 8
raising 8
randy 8
ransom 8
rant 8
rating 8
rawhide 8
realmext 8
rebirth 8
recliner 8
recycled 8
reflections 8
refractor 8
refresh@@ 8
regi@@ 8
rejoice 8
rejuve 8
relax@@ 8
reli@@ 8
reload 8
remedios 8
rement 8
remington 8
renaissance 8
repe@@ 8
repeller 8
reservoir 8
resins 8
respect 8
respir@@ 8
resto@@ 8
reti@@ 8
rial 8
rian 8
rice@@ 8
rich@@ 8
riggs 8
rio@@ 8
ripe 8
ripened 8
rituals 8
rix 8
rmz 8
roaster 8
rockman 8
rodman 8
roe 8
rollon 8
rong 8
rosalinda 8
rositas 8
rossi 8
rosso 8
rotisserie 8
royalé 8
royqueen 8
rpp 8
rsk 8
rtwoem 8
rubie 8
rye 8
ryobi 8
ryxskin@@ 8
sabbat 8
sabon 8
sacks 8
sah@@ 8
sakura@@ 8
sakuragi 8
salts 8
samll 8
sandrock 8
sands 8
sano 8
sanyo 8
sation 8
sato 8
saudigoldpawnablecod 8
sauvage 8
savanna 8
sb@@ 8
sce 8
sce@@ 8
scha@@ 8
sche 8
schneider 8
sci 8
scoyco 8
scraping 8
scream 8
screen@@ 8
screening 8
scroll 8
scul@@ 8
sculp@@ 8
sdasda@@ 8
sdjewelry 8
sdsq@@ 8
selfridge 8
sempio 8
senepa 8
sensory 8
sensuelle 8
sentai 8
senti@@ 8
sentry 8
sep@@ 8
settings 8
setup 8
seulgi 8
seventh 8
sfashion 8
shadow@@ 8
shaking 8
shampo@@ 8
shang@@ 8
shanghai 8
shanna 8
shazam 8
shengfa 8
sherbet 8
sherman 8
shiatsu 8
shinning 8
shopely 8
shoppee 8
siam 8
sick 8
sifter 8
signatures 8
signorina 8
sik 8
silvera 8
silvertone 8
sime 8
simplified 8
simulated 8
simulator 8
sinakos 8
sinulid 8
siomai 8
sjw 8
skagen 8
skat@@ 8
sketchpad 8
skies 8
skimmer 8
skiphop 8
sku 8
skylar 8
sleve@@ 8
slin@@ 8
slipons 8
slub 8
snack@@ 8
snu@@ 8
sobo 8
soci@@ 8
softening 8
softfabric 8
soi 8
sorbet 8
sorento 8
soriano 8
sot 8
soundcore 8
soundpeats 8
soundtrack 8
souviner 8
spacers 8
speaking 8
spence 8
sphagetti 8
spork 8
sprouts 8
sps 8
squirrel 8
sr@@ 8
srr 8
srs 8
ssen@@ 8
ssin 8
stal 8
stamp@@ 8
standout 8
stank 8
stario 8
states 8
stavol 8
steph 8
stephenie 8
stepsil 8
sterilizing 8
stern 8
steven 8
stie 8
stik 8
stil@@ 8
stille 8
stina 8
stipes 8
stoneware 8
storejet 8
stratocaster 8
stretched 8
strictly 8
structure 8
stuffedtoys 8
stur@@ 8
subli 8
successful 8
sukang 8
sul 8
sula 8
sunbright 8
sundance 8
sungla@@ 8
sunprise 8
suns 8
superboy 8
superhuman 8
supported 8
supra 8
surcha 8
surfy 8
swee@@ 8
swerte 8
swish 8
switcher 8
switches 8
switzerland 8
sxn 8
syndicate 8
tailor 8
takasago 8
take@@ 8
tali@@ 8
tamashii 8
tamron 8
tao 8
taper 8
task@@ 8
tations 8
taurus 8
tbag 8
tch@@ 8
tds 8
teas 8
tec@@ 8
technica 8
teeny 8
tei 8
tempere 8
templates 8
tempura 8
tender@@ 8
tents 8
terminals 8
terrain 8
tetra 8
tf@@ 8
theodores 8
there@@ 8
thermodynamics 8
thierry 8
thinline 8
thinner 8
thirst 8
those 8
thoughts 8
thumbs 8
tian@@ 8
tiana 8
ticks 8
tiful 8
tik 8
tik@@ 8
tiki 8
til 8
tilting 8
timber 8
timi 8
tinting 8
tiny@@ 8
tipid 8
tipping 8
tire@@ 8
tissues 8
tly 8
tnc 8
tnirp 8
tny 8
todoroki 8
toe@@ 8
tongkat 8
toodler 8
toothbrushes 8
toothpicks 8
topgrade 8
topia 8
torini 8
torrid 8
tou 8
transmit 8
trash@@ 8
treasury 8
treatments 8
tria 8
trike 8
trin@@ 8
triple@@ 8
tronix 8
tropiko 8
tso@@ 8
tsu 8
tsuki@@ 8
tteokbokki 8
ttery 8
ttie 8
tting 8
tul@@ 8
tumb@@ 8
tums 8
tura 8
turbine 8
turn@@ 8
turned 8
twe@@ 8
twicecoaster 8
twist@@ 8
tyl 8
uchiwa 8
ug 8
uit 8
ulanzi 8
uly@@ 8
uma@@ 8
umd 8
umi 8
unakite 8
unb 8
undated 8
underarms 8
underware 8
underwears 8
undi 8
unisex@@ 8
unpadded 8
uppercase 8
utech 8
uu@@ 8
vacay 8
vacu@@ 8
vai@@ 8
valerian 8
vance 8
vapey 8
vati@@ 8
vesmach 8
vessel 8
vette 8
vgl 8
victoire 8
video@@ 8
vigil 8
vino 8
vish 8
vision@@ 8
vista 8
vitals 8
vittadini 8
viz 8
vle 8
vodka 8
voortman 8
voss 8
vous 8
voy 8
vrm 8
vst 8
vti 8
vuit@@ 8
waistbag 8
wallet@@ 8
wanfish 8
wanli 8
wants 8
wara 8
warren 8
wart 8
watercolors 8
waterpro@@ 8
waxed 8
wblj 8
wea 8
weatherman 8
week@@ 8
welove 8
wers 8
weslsy 8
whoo 8
wicking 8
wideneck 8
wig@@ 8
wiggle 8
wight 8
windscreen 8
winona 8
wintas 8
wir@@ 8
witches 8
woodland 8
world@@ 8
wristbands 8
wst 8
wth 8
wulou 8
wurth 8
xanth@@ 8
xinh 8
xj 8
xprinter 8
xtr 8
xxi 8
yak 8
yakult 8
yamakoto 8
yanhee 8
yassi 8
yezzy 8
ygp 8
yinyang 8
yle 8
yls 8
yne 8
yolk 8
youthful 8
yui 8
yume 8
yuu 8
yuu@@ 8
zach 8
zazu 8
zeevo 8
zin@@ 8
zoomable 8
zwb 8
zzi@@ 8
ño 8
ō@@ 8
abalone 7
abh 7
ability 7
abnormal 7
aby@@ 7
acca 7
achilles 7
actu@@ 7
acy 7
addition 7
addlife 7
adel@@ 7
adlai 7
admiral 7
adoptor 7
adre@@ 7
adventurer 7
aerobic 7
aerotwin 7
afforda@@ 7
affordabox 7
affortable 7
afro 7
agan 7
agar 7
ageloc 7
agg 7
aids 7
aig 7
aigner 7
ain 7
aircool 7
airflow 7
airplant 7
airplus 7
aisha 7
akira 7
akosiibarra 7
alamat 7
alco 7
alex@@ 7
alichoi 7
alike 7
alisa 7
alivio 7
allergies 7
allinmall 7
allover 7
alluminum 7
alphabets 7
altec 7
altus 7
alyloony 7
amadeo 7
amaranth 7
ambi 7
ambi@@ 7
amfit 7
amiel 7
amiibo 7
amitraz 7
ampao 7
ances 7
anderson 7
andez 7
androids 7
angi@@ 7
angin 7
anika 7
animezing 7
antha 7
antitheft 7
anvil 7
anyin 7
anytime 7
apcee 7
aph@@ 7
appare@@ 7
apparels 7
appeal 7
appliance 7
apt 7
aquaring 7
arbo@@ 7
ards 7
aromatheraphy 7
arpenaz 7
articulated 7
ascension 7
asgard 7
asia@@ 7
assam 7
asseenontv 7
assessment 7
assrtd 7
asthma 7
astig 7
atang@@ 7
ation@@ 7
atra@@ 7
atta 7
aus@@ 7
autobot 7
avalanche 7
avantree 7
ave@@ 7
axxis 7
bab@@ 7
babysuit 7
bac@@ 7
backstage 7
bado 7
bagcasaya 7
bagua 7
bahamas 7
baka 7
banda 7
bandoulier 7
bangel 7
bani@@ 7
bank@@ 7
baobao 7
barcelona 7
bardot 7
bardugo 7
barney 7
baroness 7
barr 7
barracuda 7
basa@@ 7
baseballcap 7
basmati 7
battary 7
bayan 7
bayopet 7
bbg 7
bc@@ 7
bcdation 7
beachborn 7
beachwalk 7
beanpole 7
bearings 7
beatrix 7
become 7
belgium 7
bello 7
benq 7
benzen 7
bergamo 7
berri@@ 7
bethlehem 7
bian@@ 7
bifi@@ 7
biguerlai 7
bilingual 7
bind 7
bing@@ 7
binibining 7
binoculars 7
bioderma 7
biof@@ 7
biofresh 7
biokips 7
biological 7
biometrics 7
bizarre 7
bj@@ 7
bjd 7
bkp 7
blahnik 7
blazing 7
bleed 7
bless 7
bleue 7
blizzard 7
blocked 7
blued 7
blueocean 7
bog@@ 7
boiling 7
bokoma 7
bom 7
bomb@@ 7
bonitas 7
bonnets 7
boquet 7
borderlands 7
bracelete 7
brai@@ 7
breakers 7
breaks 7
breeds 7
breezy 7
bri 7
bright@@ 7
brill@@ 7
brilyo 7
brine 7
bristol 7
broad@@ 7
broo@@ 7
brotherhood 7
brulee 7
bryan 7
buding 7
bug@@ 7
builders 7
bulilit 7
bund@@ 7
bungo 7
buoy 7
burg 7
burke 7
[...]
