for 51850
with 22533
dress 21146
bag 20901
and 20550
set 19224
case 18762
cod 16646
in 16302
ml 15045
women 14560
black 13096
new 13014
shirt 12609
men 12270
top 12175
pcs 12050
size 11681
plus 11341
korean 11314
fashion 10574
shoes 10362
kids 9965
authentic 9604
white 9558
original 9434
baby 9411
the 9061
preloved 8917
mini 7689
of 7671
by 7649
sale 7579
pro 7326
high 6859
blue 6796
gold 6656
cotton 6521
to 6503
quality 6419
free 6229
iphone 6178
watch 6123
on 5910
samsung 5884
sling 5836
shorts 5809
design 5720
ladies 5656
terno 5632
pants 5582
long 5524
short 5196
cream 5182
box 5181
red 5130
pink 5014
floral 4899
body 4892
cover 4802
shoulder 4790
mask 4784
blouse 4775
soap 4705
light 4703
glass 4637
color 4483
silver 4481
hard 4400
unisex 4270
leather 4253
usb 4195
nike 4169
one 4065
hand 4028
hair 3968
pack 3966
backpack 3948
small 3942
face 3923
oil 3891
mm 3781
led 3771
green 3729
skin 3637
denim 3579
casual 3533
phone 3514
up 3487
piece 3470
cm 3445
brand 3427
tempered 3422
car 3418
live 3388
necklace 3351
wallet 3339
stainless 3300
gb 3234
matte 3233
hello 3219
ring 3197
skirt 3190
kitty 3166
polo 3146
back 3130
sandals 3115
soft 3113
all 3077
lip 3077
holder 3064
pc 3051
girl 3018
printed 3004
style 3001
plain 2999
cute 2978
large 2933
oppo 2914
water 2882
bracelet 2864
air 2859
bluetooth 2856
battery 2847
perfume 2841
sexy 2830
girls 2827
socks 2822
off 2820
only 2809
huawei 2802
jacket 2797
earrings 2748
gel 2712
charger 2706
anti 2696
cable 2678
kit 2655
no 2646
old 2632
mobile 2618
full 2610
powder 2609
waterproof 2605
us 2597
medium 2572
sleeve 2534
super 2527
pre 2516
steel 2504
power 2491
rubber 2489
toy 2477
pouch 2472
summer 2470
portable 2460
jeans 2453
card 2417
lotion 2414
lace 2409
neck 2400
out 2395
bottle 2393
prime 2385
big 2383
premium 2357
wireless 2355
max 2351
book 2347
bags 2335
lite 2314
xl 2305
travel 2278
whitening 2274
from 2263
beauty 2252
magic 2243
sports 2242
tshirt 2239
series 2232
couple 2204
assorted 2187
brush 2184
motorcycle 2171
bundle 2170
nova 2168
fit 2161
tops 2158
love 2152
note 2149
bath 2148
print 2148
strap 2148
vivo 2147
per 2131
good 2127
secret 2127
selling 2093
cap 2033
sticker 2012
or 2010
heart 1998
inspired 1990
adidas 1981
de 1958
mens 1958
belt 1953
stand 1950
inches 1926
my 1922
star 1919
mouse 1914
double 1910
rose 1896
bra 1889
flower 1871
type 1870
oz 1869
hot 1864
universal 1859
japan 1851
sleeveless 1851
home 1849
waist 1848
galaxy 1845
two 1842
toys 1835
made 1822
care 1820
fan 1810
round 1810
ultra 1809
brown 1800
speaker 1800
take 1800
plastic 1793
character 1783
pen 1783
sleeves 1783
onhand 1781
clear 1780
coach 1759
lipstick 1747
organizer 1743
flat 1742
camera 1733
adult 1723
apple 1720
crop 1719
swimsuit 1711
loved 1707
tea 1703
pocket 1697
tote 1696
edition 1695
tee 1677
milk 1675
classic 1666
candy 1659
buy 1651
natural 1650
e@@ 1645
best 1642
spray 1641
liquid 1640
re@@ 1628
dark 1625
tpu 1613
organic 1611
cut 1600
k@@ 1596
yellow 1593
collection 1589
dual 1589
wall 1589
accessories 1587
boys 1587
victoria 1582
boy 1576
colors 1570
gray 1568
paper 1563
metal 1557
romper 1554
coffee 1553
stripe 1552
cat 1535
electric 1531
storage 1528
trendy 1525
way 1525
shampoo 1520
pad 1516
branded 1514
mist 1513
pure 1509
bar 1503
game 1499
slim 1499
grams 1498
headset 1488
doll 1482
tint 1482
eye 1472
side 1472
inch 1471
shirts 1464
clothes 1458
multi 1455
mah 1449
chain 1448
cartoon 1442
pop 1442
facial 1441
sando 1441
jewelry 1434
party 1434
check 1430
arrival 1429
makeup 1426
me 1426
dog 1415
food 1414
man 1411
kg 1409
o@@ 1408
g@@ 1399
wash 1398
laptop 1397
skinny 1397
shock 1394
clip 1387
mk 1374
protector 1373
casio 1370
i@@ 1367
vintage 1366
pillow 1356
cup 1354
gift 1351
panty 1351
hoodie 1349
navy 1347
shop 1342
checkout 1339
s@@ 1339
silicone 1339
pendant 1336
low 1324
mickey 1324
wear 1324
charm 1321
costume 1316
korea 1315
smart 1314
maxi 1311
xiaomi 1311
little 1310
school 1309
unicorn 1307
glow 1303
knitted 1301
swimwear 1301
ps 1296
italy 1292
xs 1290
stripes 1288
a 1286
head 1283
towel 1282
lv 1276
pencil 1273
as 1271
tees 1271
bear 1270
d@@ 1269
i 1266
disney 1264
forever 1264
bts 1261
handbag 1260
serum 1256
slip 1256
works 1254
nature 1247
bikini 1245
mirror 1240
screen 1239
digital 1238
shipping 1238
sport 1228
non 1226
shockproof 1226
stick 1219
lens 1218
michael 1200
tie 1197
fast 1194
single 1193
happy 1191
st 1186
orange 1185
ms 1182
basketball 1181
oem 1179
square 1178
sneakers 1177
keychain 1171
ph 1167
go 1165
elegant 1164
ball 1162
t@@ 1159
y@@ 1156
m@@ 1154
h@@ 1149
kitchen 1147
fresh 1145
vitamin 1145
mg 1142
handle 1140
lacoste 1139
gucci 1136
foam 1135
genuine 1132
overruns 1131
nba 1127
frame 1120
collagen 1119
mio 1113
button 1112
tape 1110
cherry 1109
pet 1107
o 1104
se 1102
toner 1101
u@@ 1101
chocolate 1096
kors 1094
you 1089
adapter 1088
crystal 1088
n@@ 1088
apparel 1086
board 1086
de@@ 1086
fashionable 1085
formal 1084
in@@ 1081
pajama 1078
womens 1076
asus 1070
an 1069
redmi 1069
zipper 1069
j@@ 1066
jordan 1066
saudi 1057
front 1056
lamp 1054
figure 1053
sun 1052
it 1050
ink 1048
nail 1046
sold 1046
jumpsuit 1044
l@@ 1044
z@@ 1042
slippers 1039
tube 1035
order 1033
pair 1033
canvas 1031
eau 1031
c@@ 1027
cross 1022
kid 1021
es 1018
leggings 1015
months 1014
running 1014
wooden 1013
bangkok 1009
table 1004
hd 1002
mi 999
charging 995
years 993
le@@ 988
shoe 988
children 984
a@@ 983
ing 979
ear 978
yrs 975
limited 972
r@@ 971
washable 970
statement 969
micro 967
earphone 965
make 962
pearl 962
velvet 962
coin 960
christmas 956
essential 954
bavin 952
powerbank 950
e 949
f@@ 948
purse 948
v@@ 948
king 947
li@@ 946
jelly 945
p@@ 943
semi 943
diamond 940
lucky 938
co 934
band 933
hp 932
x 932
day 931
ed 930
filter 929
is 929
heels 927
funko 925
house 924
la 920
personalized 919
ribbon 919
adjustable 917
sony 917
co@@ 915
fabric 912
night 911
al@@ 909
mat 909
fragrance 906
price 906
mix 900
palette 900
b@@ 899
balloon 899
s 899
album 898
stone 897
blush 893
can 891
office 891
pieces 891
available 888
thailand 886
time 886
er 885
ice 885
tool 885
conditioner 882
jogger 882
door 881
special 880
outdoor 879
proof 878
stretchable 878
jersey 877
tester 874
an@@ 873
al 872
art 872
princess 871
y 871
cloth 869
android 867
ar@@ 866
birthday 866
t 866
se@@ 863
beach 860
tv 858
perfect 857
wrap 857
core 856
switch 856
touch 856
rechargeable 854
zenfone 854
grey 853
ro@@ 853
version 853
guard 852
key 852
mo@@ 851
lock 848
bb 847
spf 847
juice 845
diy 841
machine 841
class 840
eyebrow 836
le 834
th 834
bank 833
her 833
di@@ 831
aloe 828
zara 827
cleansing 826
purple 826
bt 822
chanel 821
mate 820
seller 819
flip 818
foil 818
at 815
bike 812
string 812
x@@ 810
blazer 809
dry 809
ukay 809
toyota 808
as@@ 807
lego 807
lady 806
marvel 806
tank 805
bed 804
gaming 804
headband 803
stickers 801
w@@ 801
kate 800
books 799
me@@ 799
brandnew 797
foundation 797
line 797
scrub 797
basic 796
curtain 796
armor 794
ds 793
used 793
ti@@ 791
play 790
suit 788
cheek 786
keyboard 786
logo 786
longsleeve 785
protection 785
code 784
honda 784
z 784
realme 782
colored 781
hat 780
plate 778
official 777
be 776
ipad 776
jumper 774
overrun 774
woman 772
drive 771
k 763
ri@@ 763
iron 760
xr 760
pump 759
life 758
avon 757
your 757
flash 756
plated 756
foldable 754
diaper 753
cleanser 752
wedge 752
pull 749
chiffon 748
customized 748
polka 748
toddler 748
un@@ 748
halter 747
clay 746
sweater 744
guess 743
spade 738
sweet 738
layer 737
tone 736
wood 735
edge 734
gluta 734
rack 734
human 733
dc 723
en@@ 723
eyeshadow 723
usa 723
bodycon 722
real 722
u 721
half 719
mall 719
ii 718
lo@@ 717
mesh 717
animal 716
magnetic 713
ac 710
coat 710
earring 710
living 710
ma 709
to@@ 708
wire 708
underwear 707
complete 706
ba@@ 704
pro@@ 703
tumbler 702
p 700
d 697
louis 697
mic 697
st@@ 696
striped 696
capsules 695
brake 694
car@@ 693
photo 693
acrylic 692
flats 692
hk 692
ts 692
foot 690
colourpop 689
disposable 687
adhesive 685
be@@ 685
data 684
notebook 683
ma@@ 682
sa 682
essence 680
uv 679
professional 678
cold 676
package 676
rejuvenating 675
vuitton 675
balm 674
cutter 674
mp 674
am@@ 673
ers 672
g 671
transparent 671
pads 670
si@@ 670
infant 669
fruit 668
action 667
decor 667
down 667
mac 667
cake 666
wedding 666
female 665
mar@@ 665
stock 664
queen 663
pawnable 662
personal 662
control 661
wallpaper 660
butterfly 658
mi@@ 658
bow 657
cool 656
m 655
vinyl 654
pesos 653
cellphone 652
self 651
cosmetics 650
dream 650
pan 649
stud 649
items 645
babies 644
cushion 644
tag 644
am 641
automatic 641
dr 641
stereo 640
su@@ 640
cleaner 639
frozen 639
gathering 639
minnie 638
lcd 637
sd 637
seeds 635
pairs 634
seat 634
b 632
n 632
clutch 631
pvc 630
remover 630
first 628
el 627
plush 626
paint 625
replica 625
c 623
extra 623
heavy 623
tree 623
speed 622
php 621
block 619
microphone 619
cc 617
longsleeves 617
vera 617
we 617
onesie 616
quick 616
pandora 615
link 614
wholesale 614
glutathione 613
sheet 612
honey 611
sugar 611
ac@@ 610
safety 610
converse 609
not 609
offshoulder 609
ready 609
world 609
rice 608
folding 607
imported 607
neo 607
rainbow 607
gundam 606
bedsheet 605
fits 605
ply 605
simple 605
model 603
pin 603
tools 601
ine 600
newborn 600
rear 600
sh@@ 600
wifi 600
thick 599
urban 599
crochet 597
mug 597
roll 597
it@@ 596
paris 596
at@@ 595
loose 595
health 594
carter 593
ga 593
shape 593
slingbag 593
wave 593
deep 591
sunglasses 591
checkered 590
port 590
grade 589
sm 589
motor 588
nylon 588
er@@ 586
sis 586
hanging 585
wild 585
colorful 584
dresses 584
glitter 584
ss 583
cards 582
l 582
la@@ 582
spring 582
net 581
acid 579
barbie 579
city 579
maroon 578
moisturizing 577
po@@ 574
aluminum 573
peach 572
random 571
marikina 570
planner 570
drink 568
mascara 568
turban 568
display 566
lu@@ 566
vans 566
ver 566
silicon 565
ho@@ 564
thin 564
lights 563
bo@@ 562
bangle 560
each 560
el@@ 560
embroidered 560
legends 560
ls 560
nursing 560
cardigan 558
ko@@ 558
so@@ 558
ch@@ 557
mango 557
money 557
graphic 556
pa 555
crossbody 554
helmet 554
snail 554
sp@@ 553
bowl 552
ceramic 552
gear 552
hero 552
racing 551
so 551
bi@@ 550
family 550
highwaist 550
grip 549
lemon 549
silk 549
duty 548
ft 548
cosmetic 547
solar 546
fila 545
mos 544
shield 544
ar 542
do@@ 542
roller 542
like 541
ne@@ 541
shower 541
bracket 540
pot 540
spaghetti 540
gown 537
kojic 537
ootd 537
ly 536
scent 535
ang 534
classy 534
h 534
spoon 534
panda 533
pony 533
te@@ 533
slimming 532
daily 531
luxury 531
remote 531
sealed 531
freesize 529
snap 529
boots 528
longchamp 528
neoprene 528
anime 527
brow 524
cd 524
clean 524
gap 524
maong 523
music 523
sf 522
caps 521
slipper 521
croptop 520
do 520
flare 520
hi 520
na 519
retro 519
jansport 518
sizes 518
ki@@ 517
kylie 517
en 516
luxxe 515
ch 514
japanese 513
pattern 512
ankle 510
carbon 510
lg 509
yo 509
ation 508
how 508
on@@ 508
gloves 507
stitch 507
visor 507
innisfree 506
magnet 506
tutu 506
angel 505
plug 505
protective 505
beads 504
charge 504
knee 503
polish 502
acne 501
umbrella 501
souvenir 500
push 499
sleepwear 499
pi@@ 498
purpose 498
charcoal 497
open 497
zip 497
blanket 496
contact 496
cord 496
dragon 495
alloy 494
bagpack 494
pig 494
use 493
based 492
letter 492
prints 491
moon 490
f 489
less 489
cars 488
chair 488
clothing 487
id 487
quartz 487
shine 487
ad@@ 486
bu@@ 486
onesies 486
stuffed 486
teens 486
mint 485
auto 484
replacement 483
or@@ 482
aqua 481
mount 481
treatment 480
earphones 479
now 479
rashguard 479
film 478
candle 477
gr 477
master 477
lee 476
violet 476
th@@ 475
batman 474
games 474
jade 474
lenovo 474
facemask 472
mermaid 472
romoss 472
tri@@ 472
egg 471
etude 471
beige 470
golden 470
infinity 470
repair 470
breathable 469
collar 469
rain 469
age 468
pore 468
yamaha 468
bamboo 467
royal 467
tablet 467
fiber 466
meter 466
street 466
ta 466
vs 466
da 465
sa@@ 465
socket 465
ta@@ 465
no@@ 464
ab@@ 463
analog 463
year 463
miracle 462
ka 461
pe@@ 461
base 460
patch 459
sponge 459
brief 458
metallic 458
baking 457
balloons 457
pastel 457
solid 457
ai@@ 455
baseball 454
crown 454
ks 454
li 454
lunch 454
window 454
ra 453
mother 452
support 452
sets 451
wars 450
avengers 449
cs 449
kpop 449
nintendo 449
uniqlo 449
padded 448
parfum 448
boss 447
easy 447
orig 447
butter 446
wax 446
get 445
xa 445
republic 444
drawstring 443
mosquito 442
nmax 442
plant 442
rare 442
alcohol 441
glossy 441
jumpshort 441
ve 441
designs 440
iconic 440
ke@@ 440
signature 440
sim 440
carrier 439
slit 439
ni@@ 438
ra@@ 438
wheel 438
blade 437
con@@ 437
crocs 437
male 437
ca 436
gu@@ 436
mtg 436
washi 436
tommy 434
da@@ 433
herbal 433
ion 433
r 433
delivery 432
regular 432
fish 431
he@@ 430
over 430
pre@@ 430
raider 430
anello 429
ce 429
dust 429
drop 427
under 426
bare 425
dispenser 425
spandex 425
strawberry 425
te 425
jo@@ 424
nude 424
alibaba 423
fairy 423
moisture 422
meters 421
poster 421
gen 420
gun 420
ck 419
liter 419
satin 419
avent 418
boho 418
maybelline 418
lauren 416
pokemon 416
re 416
salt 416
supreme 416
v 416
fine 415
sheets 415
vape 415
vest 415
glue 414
kl 413
duo 412
sandal 412
guitar 411
min@@ 411
sex 411
starbucks 411
handmade 410
instant 410
luggage 409
ver@@ 409
edt 408
ty 408
end 407
liner 407
therapy 407
winter 407
ya 407
bulb 406
capsule 406
lightning 406
stuff 406
item 405
jo 405
marc 405
promo 405
wide 405
ka@@ 404
pullover 404
dolphin 403
hood 403
sneaker 403
vacuum 403
memory 402
zoom 402
boxer 401
finger 401
ins 401
midi 401
shell 401
american 400
sun@@ 400
arm 399
son 399
chrome 398
elite 398
puff 398
seamless 398
tail 398
garden 397
hub 397
flavor 396
per@@ 396
scale 396
stretch 396
tablets 396
woven 396
bl 395
go@@ 395
xrm 395
ana 394
clearance 394
combo 394
bsco 393
days 393
hook 393
standard 393
tassel 393
cash 392
fi@@ 392
audio 391
tattered 391
tech 391
awei 390
coconut 390
more 390
straw 390
ter 390
vi@@ 390
knit 389
swimming 389
cartridge 388
gas 388
toilette 388
bucket 387
computer 387
creative 387
ip 387
tu@@ 387
wet 387
puzzle 386
suede 386
kiss 385
msm 385
solution 385
toe 385
acer 384
liptint 384
massage 384
sy 384
army 383
blossom 383
cycling 383
function 383
incipio 383
reusable 383
heat 382
legit 382
bicycle 381
exo 381
sea 381
canon 380
soothing 380
cu@@ 379
extension 379
melissa 379
ko 378
snow 378
wonder 378
affordable 377
tripod 377
burberry 376
hi@@ 376
mr 376
young 376
disc 375
headphone 375
leaf 375
tray 375
die 374
for@@ 374
vita 374
choco 373
headphones 373
ia 373
starter 373
three 373
bright 372
drill 372
jack 372
products 372
clock 371
ct 371
um 371
electronic 370
eyeliner 370
outfit 370
privacy 370
system 370
w 370
ap@@ 369
auth 369
bible 369
concealer 369
container 369
trend 369
comfortable 368
ralph 368
active 367
are 367
bears 367
lc 367
bubble 366
ex@@ 366
daughter 365
factory 365
force 365
scarf 365
supplies 365
papaya 364
selfie 364
bottles 363
camouflage 363
manual 363
toothpaste 363
bar@@ 362
fm 362
keratin 362
lasting 362
packaging 362
refill 362
captain 361
sense 361
yoga 361
bvlgari 360
just 360
ripped 360
vanilla 360
flowers 359
laser 359
mu@@ 359
q@@ 359
bottom 358
fe@@ 358
flashlight 358
pipe 358
pretty 358
ce@@ 357
ter@@ 357
shopee 356
stylish 356
tamiya 356
ba 355
dvd 355
grand 355
makapal 355
rs 355
dri 353
gym 353
ler 353
plaid 353
ship 353
bnew 352
ge 352
toothbrush 352
tribal 352
ate 351
gs 351
hdmi 351
ic 351
bs 350
pan@@ 350
product 350
turtle 350
ve@@ 350
blend 349
peeling 349
sporty 349
tb 349
twice 349
air@@ 348
coco 348
mon@@ 348
tire 348
bass 347
blocks 347
decoration 347
der 347
mat@@ 347
ryx 347
sleeping 347
xundd 347
basket 346
du@@ 346
ford 346
jar 346
fi 345
floor 345
missha 345
mitsubishi 345
nice 345
os 345
radio 345
ted 345
ah 344
fire 344
htp 344
knife 344
mary 344
pu 344
straight 344
america 343
chinese 343
xsmax 343
rock 342
stain 342
bench 341
aha 340
anne 340
primer 340
ram 340
spiderman 340
cargo 339
charms 339
hellokitty 339
klein 339
mid 339
shadow 339
tiger 339
we@@ 339
gloss 338
les 338
spa 338
sweat 338
tomato 338
mom 337
overlap 337
pa@@ 337
approx 336
man@@ 336
peel 336
aerox 335
inflatable 335
lavender 335
formula 334
him 334
ina 334
part 334
sauce 334
banana 333
cleaning 333
cologne 333
grill 333
protect 333
brilliant 332
controller 332
cropped 332
dish 332
fl 332
glasses 332
ref 332
harry 331
let 331
number 331
rope 331
bathroom 330
cam 330
miss 330
otg 330
space 330
wired 330
cor@@ 329
essentials 329
havaianas 329
ku@@ 329
sky 329
decal 328
drifit 328
kobe 328
laneige 328
sk 328
wrist 328
cod@@ 327
ig@@ 327
inner 327
stationery 327
ws 327
dial 326
mo 326
room 326
ace 325
lebron 325
dove 324
feeding 324
prada 324
triple 324
ys 324
eco 323
jbl 323
leaves 323
muscle 323
super@@ 323
tory 323
fork 322
ons 322
ios 321
my@@ 321
rosegold 321
soul 321
stamp 321
bleaching 320
desk 320
hooded 320
nd 320
po 320
pool 320
choker 319
massager 319
ong 319
sakura 319
watches 319
elastic 318
olive 318
sachet 318
sh 318
ton 318
hanger 317
raincoat 317
headlight 316
microfiber 316
rc 316
swim 316
hu@@ 315
cases 314
dot 314
fs 314
je@@ 314
potter 314
rush 314
TM 313
gshock 313
ity 313
jacobs 313
kyrie 313
highlighter 312
name 312
sandisk 312
smooth 312
sound 312
hs 311
tab 311
berry 310
cabinet 310
ju@@ 310
ph@@ 310
banner 309
cas@@ 309
deodorant 309
balance 308
cups 308
deluxe 308
ge@@ 308
magical 308
qu@@ 308
volume 308
humidifier 307
masks 307
ru@@ 307
eyeglasses 306
gi@@ 306
lo 306
malone 306
maternity 306
rabbit 306
sterling 306
wrench 306
comb 305
coordinates 305
xxl 305
fragrances 304
joy 304
neon 304
satchel 304
ur@@ 304
gt 303
nose 303
video 303
j 302
ting 302
ze 302
cupcake 301
nyx 301
photocard 301
wipes 301
aztec 300
click 300
invitation 300
modern 300
multifunctional 300
dots 299
ne 299
puma 299
surgical 299
thermal 299
als 298
ated 298
san@@ 298
desktop 297
nokia 297
superman 297
deo 296
ic@@ 296
kipling 296
mold 296
wheels 296
eyelash 295
length 295
wd 295
et 294
fitness 294
pockets 294
pu@@ 294
ashley 293
extract 293
hg 293
monster 293
pambahay 293
rash 293
sample 293
tan 293
bell 292
cooler 292
ly@@ 292
ant 291
au@@ 291
curler 291
friends 291
gh@@ 291
seed 291
underarm 291
maker 290
press 290
watts 290
backless 289
hand@@ 289
hermes 289
rx 289
sunflower 289
very 289
che@@ 288
dior 288
james 288
lips 288
able 287
cal@@ 287
comics 287
ling 287
lot 287
panel 287
resistant 287
blender 286
bohemian 286
custom 286
dy 286
educational 286
ella 286
english 286
giveaways 286
mark 286
painting 286
pleated 286
ultimate 286
adults 285
ag@@ 285
burch 285
clips 285
dogs 285
booster 284
kilo 284
rattan 284
sunscreen 284
tmx 284
aa 283
ed@@ 283
monitor 283
sp 283
supplement 283
ul@@ 283
bumper 282
player 282
playstation 282
sc@@ 282
cooling 281
dye 281
edp 281
lovely 281
sign 281
training 281
faux 280
garlic 280
removal 280
ite 279
sb 279
smiggle 279
studio 279
chest 278
compact 278
hilfiger 278
hose 278
sniper 278
swarovski 278
bodysuit 277
bralette 277
ca@@ 277
can@@ 277
ex 277
ing@@ 277
pod 277
bal@@ 276
breast 276
building 276
fantasy 276
har@@ 276
paperback 276
valve 276
champion 275
fu@@ 275
handheld 275
knot 275
shades 275
tin 275
boost 274
nails 274
par@@ 274
spider 274
story 274
four 273
see 273
bee 272
bib 272
chi@@ 272
christian 272
cube 272
der@@ 272
flex 272
pe 272
pressure 272
sock 272
true 272
chicken 271
messenger 271
ns 271
ballpen 270
ci@@ 270
club 270
mixed 270
monkey 270
nu@@ 270
pressed 270
rings 270
zero 270
gra@@ 269
hydrating 269
perfumes 269
twin 269
anna 268
cb 268
ga@@ 268
ke 268
shade 268
shaped 268
beautiful 267
cat@@ 267
hole 267
mineral 267
passport 267
cp 266
dangling 266
leopard 266
ordinary 266
pens 266
sheer 266
trimmer 266
av 265
av@@ 265
dash 265
fake 265
ak@@ 264
ie 264
il@@ 264
kiddie 264
naked 264
sleeved 264
cami 263
charles 263
fitted 263
honor 263
marble 263
step 263
yo@@ 263
comfort 262
leg 262
lining 262
moisturizer 262
packs 262
reversible 262
slide 262
tokong 262
vol 262
armour 261
seal 261
theft 261
bestseller 260
rhinestone 260
sc 260
scented 260
stars 260
tic 260
tissue 260
ad 259
safe 259
vneck 259
bento 258
bo 258
camping 258
comfy 258
era 258
garterized 258
hybrid 258
mx 258
theme 258
coloring 257
detergent 257
fo@@ 257
fun 257
ha@@ 257
legend 257
london 257
organics 257
ker 256
relief 256
sen@@ 256
cooker 255
fur 255
ny 255
screw 255
sunnies 255
tela 255
diffuser 254
exclusive 254
kay 254
multicolor 254
oversized 254
sofa 254
stroller 254
tip 254
bunny 253
ff 253
han@@ 253
hyundai 253
learning 253
sided 253
strip 253
supply 253
angle 252
ber@@ 252
ky 252
mustard 252
parts 252
actual 251
blackpink 251
buttons 251
cocktail 251
decals 251
french 251
ings 251
philips 251
ste@@ 251
sticky 251
alarm 250
ap 250
chic 250
horse 250
indoor 250
lever 250
batch 249
di 249
ff@@ 249
ment 249
ng 249
printer 249
shi@@ 249
slime 249
tg 249
ab 248
colour 248
geneva 248
io 248
wristlet 248
za 248
business 247
cctv 247
cutting 247
garter 247
gsm 247
included 247
peplum 247
sleep 247
ali@@ 246
last 246
manila 246
tor@@ 246
beat 245
ben@@ 245
circle 245
con 245
fold 245
gentle 245
lol 245
macbook 245
store 245
sweatshirt 245
faucet 244
heel 244
lingerie 244
spongebob 244
sublimation 244
tupperware 244
wa@@ 244
ang@@ 243
bri@@ 243
extreme 243
flamingo 243
stay 243
suzuki 243
tri 243
wine 243
br@@ 242
ruffled 242
season 242
sensor 242
seventeen 242
ti 242
tshirts 242
york 242
alpha 241
anastasia 241
ballet 241
herschel 241
marker 241
merry 241
bosch 240
cell 240
halloween 240
kimono 240
laundry 240
pm 240
sho@@ 240
around 239
focus 239
mine 239
monopod 239
nissan 239
sn@@ 239
snapback 239
adventure 238
brightening 238
cookie 238
eyes 238
got 238
med 238
mega 238
ringer 238
stylus 238
elle 237
hy@@ 237
land 237
matting 237
mixer 237
natasha 237
robot 237
doctor 236
engine 236
is@@ 236
js 236
liliw 236
lte 236
photocards 236
pointed 236
ribbed 236
skater 236
center 235
contour 235
flexible 235
ha 235
karaoke 235
chips 234
plains 234
cre@@ 233
resin 233
sam@@ 233
wa 233
yu@@ 233
almond 232
feminine 232
ir@@ 232
mb 232
ol@@ 232
san 232
saw 232
tom 232
tr@@ 232
born 231
bur@@ 231
craft 231
energy 231
men@@ 231
pen@@ 231
pin@@ 231
sanitizer 231
sofia 231
ss@@ 231
straightener 231
blood 230
clinique 230
combination 230
horn 230
lightweight 230
spot 230
surprise 230
tattoo 230
ty@@ 230
amazing 229
bandai 229
chili 229
cy@@ 229
fossil 229
loot 229
res 229
rich 229
sparkle 229
spicy 229
taylor 229
versace 229
carters 228
cosrx 228
dy@@ 228
mc 228
rd 228
ruffle 228
skirts 228
child 227
coral 227
healing 227
intense 227
linen 227
may 227
uni@@ 227
buckle 226
cetaphil 226
hardcover 226
kw 226
mer@@ 226
moly 226
puppy 226
read 226
ry 226
tent 226
toilet 226
belle 225
cactus 225
hair@@ 225
lin 225
tony 225
track 225
aid 224
ator 224
char@@ 224
syrup 224
xperia 224
cooking 223
corner 223
eraser 223
flo@@ 223
hearts 223
penshoppe 223
verse 223
west 222
calamansi 221
cheese 221
insert 221
keith 221
kn 221
na@@ 221
peppa 221
right 221
ves 221
heroes 220
prelove 220
sk@@ 220
wind 220
pooh 219
sticks 219
too 219
trolley 219
underwire 219
birkenstock 218
cats 218
ear@@ 218
emblem 218
jag 218
well 218
assembly 217
envelope 217
ever 217
loop 217
paw 217
soda 217
adaptor 216
blouses 216
bolt 216
chopper 216
healthy 216
nine 216
ocean 216
skin@@ 216
sl 216
sole 216
spigen 216
ze@@ 216
aging 215
bloom 215
console 215
cookies 215
embroidery 215
grinder 215
ken 215
ki 215
naturals 215
power@@ 215
printing 215
slot 215
souvenirs 215
xt 215
bershka 214
bre@@ 214
gar@@ 214
nut 214
reno 214
run 214
student 214
vegetable 214
animals 213
bleach 213
boutique 213
cho@@ 213
don 213
gr@@ 213
op 213
view 213
youth 213
any 212
elf 212
gp 212
ja@@ 212
rgb 212
ance 211
her@@ 211
mario 211
material 211
mor@@ 211
panties 211
post 211
barley 210
bc 210
dvr 210
tinted 210
tws 210
without 210
cacao 209
connector 209
crib 209
flawless 209
frosted 209
lin@@ 209
multifunction 209
omni 209
panini 209
peanut 209
total 209
gopro 208
mas@@ 208
restock 208
security 208
combi 207
dozen 207
liters 207
scents 207
star@@ 207
tra@@ 207
dome 206
finish 206
fr@@ 206
look 206
luna 206
ser@@ 206
walker 206
war 206
warm 206
work 206
advanced 205
armani 205
bio@@ 205
bird 205
daisy 205
jujube 205
ll 205
sophie 205
water@@ 205
fog 204
glitters 204
luminous 204
mam 204
point 204
airpods 203
ating 203
cl 203
coil 203
detox 203
drawer 203
eyeglass 203
ku 203
team 203
this 203
dell 202
label 202
nano 202
nm 202
synthetic 202
tf 202
va 202
warranty 202
yugioh 202
ard 201
bag@@ 201
ban@@ 201
bas@@ 201
bella 201
capacity 201
fitflop 201
lip@@ 201
pp@@ 201
teddy 201
tiny 201
airmax 200
away 200
dishwashing 200
ikea 200
ji@@ 200
sunblock 200
tre@@ 200
vision 200
invisible 199
junior 199
pour 199
smartphone 199
stove 199
thai 199
tp 199
tsum 199
wool 199
black@@ 198
etc 198
hb 198
lash 198
the@@ 198
vo@@ 198
ble 197
clipper 197
ddr 197
fox 197
gamepad 197
ir 197
tower 197
copy 196
flap 196
jogging 196
mal@@ 196
skincerity 196
and@@ 195
beaded 195
bon@@ 195
creamy 195
cy 195
five 195
globe 195
john 195
miner 195
pas@@ 195
ride 195
ven@@ 195
washing 195
bit 194
bl@@ 194
cam@@ 194
den@@ 194
fa@@ 194
ful 194
insulated 194
monogram 194
np 194
owl 194
precious 194
stones 194
ways 194
wo@@ 194
chia 193
cur@@ 193
dolls 193
elephant 193
il 193
layered 193
league 193
lily 193
park 193
picture 193
ware 193
amplifier 192
backcase 192
bio 192
jeju 192
mt 192
nlighten 192
patches 192
shaper 192
shark 192
sm@@ 192
topper 192
aquarium 191
argan 191
bricks 191
comforter 191
condition 191
eagle 191
lan@@ 191
ou@@ 191
pg 191
win@@ 191
ye@@ 191
bat@@ 190
benefit 190
ghz 190
nipple 190
opener 190
sewing 190
channel 189
cordless 189
deck 189
driver 189
dw 189
great 189
hammer 189
ken@@ 189
milky 189
mj 189
mp@@ 189
rm 189
trial 189
baby@@ 188
dryer 188
eyewear 188
gi 188
ginger 188
intensive 188
mari@@ 188
naruto 188
ous 188
pr@@ 188
ren@@ 188
triangle 188
us@@ 188
valentino 188
activity 187
back@@ 187
ck@@ 187
cro@@ 187
cylinder 187
fall 187
gallon 187
platinum 187
toddlers 187
tt 187
weight 187
cri@@ 186
guide 186
lazy 186
oven 186
pillowcase 186
played 186
shelf 186
truck 186
é 186
aeropostale 185
bearing 185
clinic 185
cloud 185
journal 185
long@@ 185
plussize 185
tawas 185
vit 185
bangles 184
boxes 184
lid 184
ro 184
road 184
rosary 184
stocks 184
twist 184
wing 184
bone 183
clamp 183
compatible 183
different 183
god 183
jet 183
spl 183
tw@@ 183
champ 182
dan@@ 182
drawing 182
kirkland 182
ol 182
paste 182
play@@ 182
sanrio 182
spark 182
whole 182
wig 182
wings 182
alphabet 181
built 181
bullet 181
cosplay 181
cucumber 181
flops 181
homme 181
luxe 181
multipurpose 181
notes 181
pajamas 181
shopping 181
wi@@ 181
curry 180
kawaii 180
ley 180
she@@ 180
streaming 180
sy@@ 180
vehicle 180
ag 179
bakuna 179
bel@@ 179
boat 179
feather 179
hoodies 179
jv 179
morning 179
sand@@ 179
bronze 178
creme 178
eu 178
hugo 178
ky@@ 178
lion 178
patrol 178
revolution 178
si 178
ster 178
teeth 178
transfer 178
bbq 177
bi 177
degree 177
dre@@ 177
feet 177
file 177
generation 177
lab 177
mc@@ 177
movie 177
oval 177
santa 177
slides 177
snack 177
spy 177
thrones 177
amber 176
big@@ 176
daiso 176
freebies 176
ica 176
jumbo 176
mil@@ 176
mini@@ 176
ua 176
db 175
fix 175
fly 175
fx 175
ies 175
layers 175
ni 175
ombre 175
pets 175
pride 175
radiation 175
smith 175
ash 174
bra@@ 174
emergency 174
han 174
mechanical 174
micro@@ 174
op@@ 174
overall 174
sand 174
straps 174
tin@@ 174
tropical 174
unlocked 174
col@@ 173
dried 173
earbuds 173
elizabeth 173
ger 173
gri@@ 173
handy 173
hip 173
pk 173
pri@@ 173
simply 173
ten 173
through 173
tr 173
ampoule 172
dolce 172
pineapple 172
teen 172
wal@@ 172
ash@@ 171
description 171
dri@@ 171
drops 171
jc 171
khaki 171
noodles 171
purifier 171
rj 171
rl 171
sachets 171
soup 171
speedy 171
ten@@ 171
zi@@ 171
assy 170
collectible 170
compression 170
corn 170
df 170
ele@@ 170
em@@ 170
ito 170
left 170
medical 170
mild 170
military 170
pacifier 170
pedal 170
royale 170
ry@@ 170
shot 170
teal 170
things 170
under@@ 170
autumn 169
bat 169
drying 169
earings 169
fat 169
hiking 169
keto 169
killer 169
output 169
red@@ 169
virgin 169
yourself 169
ay 168
characters 168
head@@ 168
intel 168
melody 168
pins 168
piston 168
reseller 168
ruffles 168
ters 168
trainer 168
vit@@ 168
walking 168
zc 168
calculator 167
curtains 167
fre@@ 167
glam 167
gm 167
kar@@ 167
midnight 167
nivea 167
one@@ 167
replaceable 167
trending 167
ans 166
diapers 166
exercise 166
functional 166
hobbies 166
kd 166
level 166
omega 166
q 166
seiko 166
sprocket 166
titanium 166
bling 165
but 165
chi 165
disk 165
lanyard 165
mb@@ 165
numbers 165
ray 165
spiral 165
watermelon 165
bn 164
briefs 164
choice 164
comic 164
ino 164
jin 164
maam 164
new@@ 164
oatmeal 164
philippines 164
retractable 164
rom 164
stan 164
strechable 164
tactical 164
advance 163
beans 163
blackhead 163
boyleg 163
christening 163
durable 163
effect 163
fab 163
ingco 163
test 163
zer 163
blue@@ 162
cle@@ 162
diary 162
drinking 162
everyday 162
giant 162
lbs 162
lift 162
nb 162
pilot 162
playboy 162
prince 162
rectangular 162
swing 162
uno 162
bonnet 161
bp 161
cap@@ 161
cole 161
fc 161
jasmine 161
lighting 161
mossimo 161
pb 161
sal@@ 161
shea 161
unique 161
via 161
war@@ 161
yn 161
bead 160
bean 160
brassiere 160
calvin 160
collections 160
free@@ 160
gal@@ 160
goggles 160
high@@ 160
ker@@ 160
len@@ 160
myphone 160
napkin 160
never 160
place 160
por@@ 160
tl 160
tough 160
wh@@ 160
ani@@ 159
ata 159
converter 159
cr 159
dar@@ 159
designer 159
george 159
gre@@ 159
jan@@ 159
kingdom 159
mommy 159
novel 159
pomade 159
quaff 159
tan@@ 159
thermometer 159
uni 159
vr 159
writing 159
burner 158
direct 158
doraemon 158
hardbound 158
here 158
lime 158
multi@@ 158
pat@@ 158
pl 158
powered 158
saver 158
sec 158
skechers 158
spinner 158
taiwan 158
twisted 158
zen@@ 158
by@@ 157
fer@@ 157
grid 157
lie 157
mer 157
mop 157
peppermint 157
scissors 157
sesame 157
shiseido 157
six 157
sl@@ 157
strong 157
ai 156
beachkin 156
cr@@ 156
eva 156
false 156
inverter 156
lp 156
optical 156
painted 156
paul 156
pepper 156
toshiba 156
xbox 156
zing 156
aromatherapy 155
color@@ 155
fuel 155
gen@@ 155
ine@@ 155
madre 155
nendoroid 155
nuts 155
ports 155
prestige 155
pt 155
romantic 155
shimmer 155
waisted 155
ak 154
ara 154
cast 154
copper 154
fendi 154
figures 154
foods 154
holiday 154
household 154
luffy 154
mag@@ 154
native 154
piyao 154
pp 154
remax 154
sli@@ 154
tm 154
van 154
april 153
balls 153
changing 153
fe 153
frontrow 153
heng 153
lan 153
latest 153
lowest 153
md 153
morphe 153
motors 153
ok 153
raw 153
reserved 153
sam 153
scratch 153
trousers 153
win 153
ao@@ 152
beverly 152
doctors 152
drum 152
eye@@ 152
farm 152
foaming 152
gingham 152
ground 152
hydro@@ 152
ja 152
knight 152
lar@@ 152
mac@@ 152
onepiece 152
pain 152
strength 152
vibrator 152
aux 151
az@@ 151
call 151
closet 151
elsa 151
impact 151
mouth 151
our 151
rotating 151
shake 151
shi 151
sr 151
uk 151
vios 151
wallets 151
wiper 151
activated 150
anchor 150
baptismal 150
ded 150
hills 150
hq 150
ian 150
peripera 150
snake 150
unit 150
ut 150
witch 150
bb@@ 149
braided 149
disinfectant 149
dra@@ 149
global 149
glutamansi 149
gx 149
min 149
month 149
musical 149
phones 149
roundneck 149
sti@@ 149
tata 149
vga 149
aspire 148
beef 148
dear 148
derma 148
dv 148
ela 148
flow 148
grower 148
lbc 148
pick 148
rubberized 148
sg 148
sin@@ 148
thor 148
top@@ 148
turmeric 148
accent 147
accessory 147
ali 147
coated 147
crew 147
date 147
eb 147
ep 147
ger@@ 147
harness 147
im 147
international 147
ita 147
its 147
kettle 147
kill 147
nat@@ 147
repacked 147
triumph 147
antibacterial 146
attire 146
bf 146
epson 146
es@@ 146
fan@@ 146
gingersnaps 146
kai 146
online 146
performance 146
rise 146
ay@@ 145
bro@@ 145
calendar 145
empty 145
friendly 145
italian 145
marine 145
pilaten 145
projector 145
repriced 145
rod 145
skincare 145
softgels 145
splus 145
sw@@ 145
yarn 145
ach@@ 144
binder 144
candles 144
cuff 144
ding 144
evening 144
fancy 144
hold 144
hollow 144
leisure 144
minifigure 144
mules 144
ning 144
nmd 144
pal@@ 144
pl@@ 144
reader 144
smile 144
trio 144
wardrobe 144
carpet 143
ct@@ 143
dickies 143
ds@@ 143
hanabishi 143
hunter 143
hypoallergenic 143
makita 143
munafie 143
nourishing 143
scooter 143
shiny 143
silky 143
sj 143
splash 143
thermos 143
tz 143
uniform 143
van@@ 143
ack 142
ari@@ 142
bg 142
bk 142
cage 142
catcher 142
cf 142
chance 142
des 142
hobo 142
lon 142
module 142
ness 142
ninja 142
vanity 142
wn 142
wor@@ 142
aqu@@ 141
bad 141
bedroom 141
boyfriend 141
cg 141
dead 141
ea@@ 141
fern 141
fortuner 141
fu 141
fusion 141
grass 141
hw 141
instax 141
keds 141
los 141
max@@ 141
memo 141
ren 141
sil@@ 141
solo 141
zone 141
dor@@ 140
em 140
ent 140
folded 140
geometric 140
justice 140
luck 140
miniature 140
once 140
over@@ 140
pam@@ 140
project 140
tat@@ 140
topshop 140
train 140
tt@@ 140
vp 140
ae 139
amour 139
brass 139
castor 139
fashion@@ 139
fla@@ 139
flavored 139
hoop 139
ini 139
johnson 139
lantern 139
manga 139
melon 139
moist 139
motion 139
padlock 139
parisian 139
punch 139
signal 139
spin 139
strapless 139
trading 139
ur 139
abs 138
bali 138
bioaqua 138
bomb 138
carb 138
chronograph 138
fantech 138
fisher 138
frogsuit 138
jackets 138
latex 138
lipo 138
lit@@ 138
mountain 138
needs 138
oils 138
oshkosh 138
pr 138
renew 138
tar@@ 138
aircon 137
ano 137
before 137
com@@ 137
ethyl 137
fun@@ 137
lightstick 137
mushroom 137
oh 137
penguin 137
pigment 137
ponytail 137
router 137
screwdriver 137
shawl 137
anti@@ 136
blk 136
cj 136
close 136
elbow 136
eyelashes 136
himalayan 136
iphonex 136
magazine 136
minimalist 136
mtb 136
oo@@ 136
plu@@ 136
razor 136
sd@@ 136
ses 136
snoopy 136
stri@@ 136
superstar 136
yu 136
brushes 135
ceiling 135
cutie 135
donut 135
earth 135
ht 135
isuzu 135
mia 135
palm 135
scoop 135
sel@@ 135
shift 135
tes 135
tour 135
unsealed 135
artificial 134
bul@@ 134
civic 134
dinosaur 134
dis@@ 134
duck 134
faith 134
footwear 134
giveaway 134
gradient 134
intex 134
lb 134
map 134
outlet 134
skull 134
split 134
sto@@ 134
tc 134
thread 134
tier 134
walk 134
zebra 134
canvass 133
clo@@ 133
highquality 133
kidston 133
spread 133
state 133
sw 133
tags 133
throw 133
ties 133
watercolor 133
ariel 132
detachable 132
dp 132
express 132
fleece 132
gifts 132
pampers 132
platform 132
sol@@ 132
swiss 132
tion 132
zb 132
zodiac 132
amp 131
badge 131
banpresto 131
bay 131
bor@@ 131
cer@@ 131
charlotte 131
ci 131
exfoliating 131
jr 131
lm 131
other 131
salon 131
second 131
sha@@ 131
ssd 131
treats 131
xi@@ 131
arts 130
blooming 130
cel@@ 130
cli@@ 130
convertible 130
ders 130
external 130
gd 130
inside 130
lettuce 130
levi 130
match 130
mono 130
multimedia 130
nct 130
ointment 130
sur@@ 130
tiffany 130
val@@ 130
vin@@ 130
von 130
anniversary 129
boston 129
couture 129
ction 129
don@@ 129
ea 129
flowy 129
innova 129
insect 129
lotus 129
minions 129
olay 129
ors 129
perry 129
pper 129
pping 129
pullout 129
radiator 129
rub 129
sink 129
smash 129
son@@ 129
specs 129
steamer 129
swift 129
ane 128
blower 128
blu@@ 128
breastfeeding 128
chunky 128
dota 128
fy 128
gabbana 128
gro@@ 128
hush 128
jam 128
kie 128
letters 128
lt 128
saint 128
sunny 128
warmer 128
yl 128
breaker 127
cart 127
cartier 127
cha@@ 127
che 127
ches 127
dr@@ 127
fondant 127
initial 127
island 127
jump 127
las@@ 127
mcm 127
miners 127
montero 127
ore 127
permanent 127
plates 127
pots 127
powdered 127
ryxskincerity 127
zircon 127
ages 126
aldo 126
brother 126
curl 126
dance 126
fluid 126
gg 126
ji 126
pic@@ 126
poloshirt 126
reading 126
receiver 126
sailor 126
station 126
takal 126
tennis 126
transformers 126
tro@@ 126
wolf 126
beatle 125
bestway 125
better 125
boo@@ 125
cath 125
ey@@ 125
fin@@ 125
freshener 125
fro@@ 125
gang 125
ju 125
kia 125
meat 125
people 125
police 125
rai@@ 125
ram@@ 125
rider 125
sized 125
that 125
titan 125
winnie 125
wrangler 125
yi 125
ats 124
ax 124
baofeng 124
barako 124
blo@@ 124
carry 124
chef 124
complex 124
dollshoes 124
eli@@ 124
enhancer 124
fl@@ 124
fruits 124
jt 124
juicer 124
kim 124
kraft 124
lia 124
lon@@ 124
loreal 124
loss 124
pie 124
scar 124
sprayer 124
strappy 124
turtleneck 124
what 124
wyi 124
ail 123
antenna 123
ate@@ 123
aurora 123
gourmet 123
hawk 123
herb 123
joy@@ 123
nikon 123
sky@@ 123
smocked 123
some 123
stop 123
strips 123
sz 123
tarte 123
tec 123
up@@ 123
va@@ 123
wheat 123
bars 122
ben 122
bread 122
break 122
crazy 122
daniel 122
dd 122
den 122
dynamic 122
ears 122
emoji 122
ez 122
ferrari 122
gy 122
iii 122
mm@@ 122
mud 122
noir 122
panasonic 122
piano 122
preorder 122
rick 122
sampler 122
science 122
skort 122
sparkling 122
studded 122
teether 122
transformer 122
valentine 122
venus 122
yard 122
ama 121
bouquet 121
david 121
embossed 121
gildan 121
hyaluronic 121
icon 121
king@@ 121
kt 121
lam@@ 121
north 121
plum 121
plushie 121
sch@@ 121
steering 121
aj 120
aroma 120
autolight 120
aw 120
davis 120
del@@ 120
device 120
form 120
fujifilm 120
hidden 120
ments 120
mousse 120
nillkin 120
pur@@ 120
sensual 120
sharpener 120
sodium 120
tas@@ 120
toms 120
ts@@ 120
vertical 120
wanna 120
zed 120
absorbent 119
add 119
arrow 119
beautederm 119
bond 119
dz 119
joni 119
joystick 119
loafers 119
marie 119
nestle 119
ona 119
ramen 119
rejuvinating 119
spice 119
squishy 119
trouser 119
ure 119
wrinkle 119
ala 118
caramel 118
comp@@ 118
fd 118
ignition 118
jesus 118
kin@@ 118
nutri@@ 118
onyx 118
pn 118
retail 118
smoke 118
trim 118
tub 118
un 118
wattpad 118
ysl 118
acoustic 117
arbutin 117
ations 117
bombshell 117
bracelets 117
defense 117
ee 117
et@@ 117
fa 117
faced 117
future 117
gc 117
jazz 117
jeggings 117
lakers 117
mama 117
maria 117
photo@@ 117
race 117
racer 117
sensitive 117
sol 117
suction 117
surf 117
themed 117
tokyo 117
ado 116
artwork 116
bm 116
bob 116
bomber 116
bug 116
equipment 116
feng 116
fury 116
huggies 116
klairs 116
milktea 116
pd 116
placenta 116
skinfood 116
soft@@ 116
styling 116
tints 116
uc 116
upper 116
ya@@ 116
yes 116
zen 116
ah@@ 115
ale 115
auto@@ 115
beer 115
beltbag 115
cdi 115
chu@@ 115
cl@@ 115
decorative 115
diesel 115
flakes 115
kb 115
key@@ 115
ltb 115
mono@@ 115
ola 115
pole 115
polyester 115
rescue 115
rest 115
shopkins 115
tal@@ 115
transcend 115
twinkle 115
baymax 114
bridal 114
bryant 114
chibi 114
cla@@ 114
fb 114
guaranteed 114
hol@@ 114
holes 114
hollister 114
hor@@ 114
kat@@ 114
maintenance 114
making 114
mbps 114
molder 114
off@@ 114
sata 114
shaver 114
stamps 114
str@@ 114
tires 114
welding 114
zz@@ 114
blusher 113
cha 113
cks 113
covers 113
dangle 113
designed 113
euc 113
euro 113
hem 113
ho 113
huda 113
industrial 113
ironman 113
jane 113
juicy 113
jy 113
own 113
pinky 113
potato 113
regulator 113
rompers 113
rust 113
scato 113
setting 113
stre@@ 113
stress 113
thrifted 113
vent 113
warriors 113
yr 113
yunteng 113
af 112
bbw 112
bun@@ 112
burst 112
calming 112
celebrity 112
deer 112
dessert 112
diecast 112
drone 112
hal@@ 112
indian 112
kat 112
kisses 112
lac@@ 112
mags 112
ming 112
refrigerator 112
roasted 112
ruby 112
rushguard 112
sn 112
storm 112
ye 112
abc 111
ach 111
alex 111
ami 111
ass@@ 111
ati@@ 111
bands 111
buds 111
customize 111
dl 111
doormat 111
ery 111
forest 111
funny 111
grow 111
hd@@ 111
hr 111
lene 111
lost 111
lx 111
marks 111
miniso 111
mit@@ 111
mode 111
operated 111
pi 111
piggy 111
plants 111
please 111
quad 111
reflective 111
release 111
saving 111
seduction 111
soaps 111
sta 111
stu@@ 111
sunshine 111
terranova 111
tide 111
tur@@ 111
vial 111
xy 111
zinc 111
zu@@ 111
ada 110
aveeno 110
balenciaga 110
bha 110
chip 110
choose 110
citrus 110
crepe 110
divided 110
dkny 110
floater 110
fully 110
garnish 110
gtx 110
hazel 110
kan@@ 110
kes 110
keys 110
low@@ 110
omnia 110
pj 110
playing 110
quilted 110
rain@@ 110
repellent 110
ser 110
ssa 110
stage 110
toycastle 110
trash 110
volcanic 110
buttoned 109
cou@@ 109
dental 109
drain 109
femme 109
fighter 109
he 109
hulk 109
kal@@ 109
kelly 109
kid@@ 109
leash 109
rouge 109
stephen 109
stream 109
varsity 109
vo 109
zy 109
ascorbate 108
ban 108
cow 108
ever@@ 108
feel 108
filler 108
france 108
gl 108
glo@@ 108
hel@@ 108
ip@@ 108
ipaky 108
kevin 108
manicure 108
measuring 108
menow 108
mtp 108
ok@@ 108
oreal 108
pizza 108
pulley 108
que 108
rpm 108
sage 108
sale@@ 108
sed 108
sha 108
south 108
tonymoly 108
wand 108
after 107
ani 107
bangladesh 107
blank 107
bolts 107
brooch 107
cinderella 107
concentrate 107
details 107
driving 107
flyknit 107
folder 107
gam@@ 107
girdle 107
goddess 107
kawasaki 107
keimav 107
kidswear 107
kingston 107
lipcream 107
market 107
matt 107
mel@@ 107
mto 107
om 107
seven 107
sonic 107
squarepants 107
ton@@ 107
yan 107
abstract 106
ami@@ 106
bale 106
bang 106
ces 106
colo@@ 106
cutlery 106
dia 106
dildo 106
eat 106
gg@@ 106
grab 106
hot@@ 106
hotel 106
ins@@ 106
jigsaw 106
kri@@ 106
load 106
lyn 106
may@@ 106
oral 106
pls 106
poly@@ 106
rectangle 106
sjcam 106
slacks 106
steam 106
stem 106
swan 106
tam@@ 106
thong 106
universe 106
aaa 105
about 105
california 105
compartment 105
decay 105
diet 105
discount 105
evil 105
evo 105
extender 105
fidget 105
gps 105
hm 105
kc 105
kh@@ 105
lashes 105
lay 105
oxford 105
pant 105
sanitary 105
shimano 105
trench 105
vinegar 105
washer 105
yeezy 105
zo@@ 105
zoo 105
ann 104
ary 104
br 104
collapsible 104
dm 104
dx 104
fender 104
firefly 104
flag 104
fr 104
gem 104
green@@ 104
heads 104
lic 104
lil 104
mol@@ 104
ot 104
petite 104
pop@@ 104
popular 104
protein 104
qc 104
seasoning 104
sing 104
sion 104
slicer 104
stent 104
tai@@ 104
absorber 103
bit@@ 103
bw 103
canadian 103
chuck 103
cocoa 103
count 103
detail 103
european 103
final 103
flask 103
grape 103
hooks 103
inter@@ 103
joe 103
levis 103
love@@ 103
lux 103
mazda 103
network 103
pimple 103
precision 103
prepaid 103
starry 103
surface 103
tips 103
tu 103
united 103
yang 103
ates 102
castle 102
chloe 102
corset 102
cpu 102
crafts 102
dai@@ 102
dd@@ 102
ering 102
ey 102
fil@@ 102
fur@@ 102
gn 102
isopropyl 102
lipsticks 102
longback 102
mugs 102
nia 102
nu 102
oxygen 102
rejuv 102
removable 102
sen 102
shui 102
td 102
touchscreen 102
trunk 102
turbo 102
tw 102
value 102
vitamins 102
windproof 102
amethyst 101
athletic 101
bandage 101
booties 101
capri 101
citronella 101
cookware 101
cru@@ 101
dam@@ 101
espadrille 101
excellent 101
freeship 101
friend 101
gf 101
growth 101
hands 101
herbs 101
hotwheels 101
infrared 101
medicine 101
mic@@ 101
pillows 101
postcard 101
rg 101
rr 101
sar@@ 101
sharp 101
show 101
stanley 101
superhero 101
xi 101
beast 100
cafe 100
care@@ 100
cer 100
clover 100
combined 100
correction 100
coverage 100
decorations 100
derm 100
felt 100
flu@@ 100
foot@@ 100
fri@@ 100
goo@@ 100
jj 100
loafer 100
mass 100
plan@@ 100
puritan 100
py@@ 100
safari 100
sync 100
tex 100
tingi 100
ved 100
whip 100
white@@ 100
yt 100
belly 99
beyblade 99
brazilian 99
cx 99
delight 99
dip 99
flour 99
heeled 99
ics 99
ix 99
keep 99
kon@@ 99
pearls 99
runner 99
samyang 99
shing 99
tick 99
try 99
tulle 99
width 99
xo 99
alice 98
amulet 98
arden 98
aura 98
calcium 98
ec 98
effective 98
gasket 98
glittery 98
grace 98
gram 98
holika 98
hop 98
huarache 98
hyper 98
kong 98
lenses 98
local 98
lover 98
mod 98
nor@@ 98
olivia 98
pencils 98
revlon 98
rouser 98
she 98
skid 98
squ@@ 98
tiktok 98
tooth 98
tru@@ 98
und 98
wat@@ 98
wi 98
aidelai 97
bandana 97
cameras 97
cannon 97
colourette 97
crayon 97
cu 97
cul@@ 97
feeder 97
giordano 97
glu@@ 97
handkerchief 97
home@@ 97
ines 97
jin@@ 97
keeper 97
macaron 97
mattress 97
mn 97
mu 97
nutrition 97
picks 97
polymer 97
rat 97
rock@@ 97
ron 97
sav@@ 97
sty@@ 97
takara 97
thomas 97
tti 97
vy 97
adi@@ 96
allen 96
avail 96
backpacks 96
birth 96
bite 96
brick 96
bride 96
dad 96
day@@ 96
ell 96
esprit 96
firming 96
give 96
gladiator 96
goku 96
have 96
ivory 96
joker 96
laguna 96
len 96
lightening 96
lippie 96
lootbag 96
mai@@ 96
minion 96
mothercare 96
mystery 96
pho@@ 96
pit@@ 96
promax 96
rac@@ 96
secrets 96
smok 96
sushi 96
tn 96
unlock 96
vapor 96
vary 96
abaca 95
alma 95
amy 95
bookmark 95
clu@@ 95
curved 95
damage 95
dashboard 95
expert 95
fishing 95
grain 95
incense 95
iu 95
lines 95
ll@@ 95
materials 95
mh 95
ner@@ 95
out@@ 95
pikachu 95
skydrive 95
speakers 95
stories 95
ther@@ 95
tracker 95
trap 95
tte 95
wan 95
ale@@ 94
approved 94
bilena 94
ble@@ 94
buttondown 94
cee 94
china 94
ching 94
cker 94
crocodile 94
earing 94
engineering 94
eos 94
eyelet 94
fiction 94
gold@@ 94
gum 94
hen@@ 94
km 94
laced 94
many 94
martin 94
mirage 94
modular 94
nel 94
panther 94
peeler 94
ppe 94
pure@@ 94
que@@ 94
recorder 94
rim 94
squeeze 94
sword 94
tomy 94
xx 94
aesthetic 93
ao 93
atomizer 93
bil@@ 93
champagne 93
cmx 93
cnc 93
cone 93
emulsion 93
fran@@ 93
glittered 93
groceries 93
hdd 93
hifi 93
ie@@ 93
intelligent 93
jojo 93
jp 93
kin 93
nan@@ 93
ner 93
next 93
pages 93
pumps 93
ranger 93
rio 93
save 93
sig@@ 93
sub@@ 93
trans@@ 93
whistle 93
will 93
alkaline 92
apron 92
australia 92
bnwt 92
body@@ 92
cadbury 92
caliper 92
chocolates 92
collared 92
cortez 92
criss 92
deco 92
diva 92
flight 92
fluffy 92
giorgio 92
gummy 92
headbands 92
hershey 92
hipster 92
ipanema 92
irving 92
jk 92
laminated 92
las 92
life@@ 92
mf 92
msi 92
ong@@ 92
petal 92
pic 92
psp 92
recipe 92
starwars 92
subwoofer 92
tap 92
tomica 92
topsider 92
ura 92
vic@@ 92
anklet 91
artist 91
bathing 91
burn 91
candies 91
casing 91
circular 91
credit 91
deli@@ 91
dustbag 91
faded 91
flor@@ 91
hats 91
heist 91
hydro 91
jean 91
jenna 91
jl 91
ltp 91
matcha 91
mocha 91
multivitamins 91
quicksand 91
rn 91
rocker 91
rose@@ 91
shaker 91
soy 91
spencer 91
suitcase 91
torch 91
turquoise 91
utility 91
wel@@ 91
wl 91
airplane 90
ally 90
basics 90
birthstone 90
cereal 90
del 90
dt 90
emerald 90
ena 90
fee 90
fountain 90
gauge 90
hawaiian 90
ink@@ 90
koko 90
kor@@ 90
kyowa 90
laminating 90
mamba 90
micromatic 90
mighty 90
mnl 90
penis 90
philippine 90
pioneer 90
rb 90
rer 90
sequins 90
stix 90
study 90
talkie 90
tle 90
ultrasonic 90
weighing 90
wk 90
ade 89
agate 89
ala@@ 89
ane@@ 89
ari 89
bundles 89
crush 89
dining 89
eu@@ 89
field 89
fp 89
fridge 89
frog 89
hc 89
hon@@ 89
ical 89
ino@@ 89
invoice 89
jumpshorts 89
kenneth 89
lifting 89
list 89
magenta 89
metro 89
mhz 89
mir@@ 89
moringa 89
need 89
nk 89
ori@@ 89
passion 89
patent 89
poly 89
pond 89
romance 89
ron@@ 89
shoppe 89
tales 89
techniques 89
temp@@ 89
vault 89
voice 89
wang 89
who 89
zh 89
beard 88
bh 88
change 88
cheap 88
colgate 88
couples 88
dainty 88
dashcam 88
dies 88
dro@@ 88
dubai 88
freeshipping 88
gorgeous 88
hairpin 88
hex 88
hilux 88
lubricant 88
mes 88
nc 88
neutrogena 88
piping 88
raglan 88
reebok 88
roses 88
rotary 88
sarah 88
shoulders 88
sie 88
stabilizer 88
standee 88
studs 88
sunglass 88
surplus 88
vel@@ 88
workout 88
academia 87
ama@@ 87
bin 87
bought 87
boy@@ 87
bremod 87
butt 87
curling 87
cw 87
early 87
effects 87
grooming 87
handbags 87
hongkong 87
hope 87
isa 87
kai@@ 87
lang 87
lov@@ 87
message 87
mimi 87
mse 87
muffler 87
multiple 87
ora 87
organix 87
persona 87
pet@@ 87
record 87
ri 87
sab@@ 87
saem 87
samurai 87
slots 87
strike 87
sub 87
succulent 87
temperature 87
twin@@ 87
twinning 87
vers 87
vie 87
walkie 87
ace@@ 86
amore 86
asstd 86
babe 86
beanie 86
beetle 86
buddha 86
company 86
cubic 86
davidoff 86
disruptor 86
ere 86
gu 86
infinix 86
io@@ 86
kick 86
liners 86
lipbalm 86
logitech 86
loo@@ 86
mam@@ 86
matic 86
mon 86
moto 86
mousepad 86
nars 86
nest 86
nic 86
om@@ 86
pap@@ 86
patrick 86
pear 86
pliers 86
premiere 86
pul@@ 86
purposes 86
rastaclat 86
realmec 86
robe 86
same 86
scen@@ 86
sephora 86
soil 86
toiletry 86
tuff 86
vi 86
vip 86
wish 86
arti@@ 85
bac@@ 85
bu 85
cit@@ 85
clarifying 85
coinpurse 85
crayola 85
crissa 85
dji 85
far@@ 85
flora 85
ghost 85
hoody 85
ikon 85
induction 85
lacquer 85
lies 85
lithium 85
mounted 85
onitsuka 85
pang 85
pliage 85
propolis 85
scar@@ 85
sco@@ 85
stray 85
sunset 85
tabs 85
tapes 85
tina 85
tommee 85
trd 85
tummy 85
vaseline 85
workbook 85
wow 85
andrea 84
arc 84
art@@ 84
ative 84
axle 84
corporate 84
dancing 84
dotted 84
ew 84
ferragamo 84
fol@@ 84
furniture 84
ght 84
gin@@ 84
givenchy 84
greetings 84
hard@@ 84
his 84
hydration 84
inst@@ 84
kit@@ 84
lacey 84
mattel 84
mcqueen 84
meal 84
monokini 84
noise 84
nt 84
onion 84
page 84
paper@@ 84
pia 84
rk 84
salmon 84
salted 84
samsonite 84
shortsleeve 84
skool 84
slightly 84
spe@@ 84
splitter 84
supplier 84
tai 84
tankini 84
tippee 84
tolsen 84
ung 84
vampire 84
ander 83
astro 83
avocado 83
chan@@ 83
chen 83
cola 83
concentrated 83
cq 83
df@@ 83
fries 83
hbw 83
joint 83
keychains 83
lancer 83
lancome 83
lava 83
lipgloss 83
math 83
mga 83
neo@@ 83
ny@@ 83
oreo 83
ple@@ 83
poncho 83
rel@@ 83
rolls 83
rt 83
seen 83
sleek 83
sor@@ 83
ssy 83
sunday 83
swaddle 83
tx 83
vegan 83
wit@@ 83
xtreme 83
xx@@ 83
yards 83
alexa 82
alive 82
amd 82
animation 82
bentonite 82
bosny 82
brilliance 82
chassis 82
cia 82
concert 82
creations 82
dan 82
demon 82
downy 82
eng@@ 82
expandable 82
find 82
freebie 82
gil@@ 82
gummies 82
if 82
kasoy 82
ld 82
mittens 82
ox 82
phoenix 82
planet 82
seaweed 82
spell 82
ster@@ 82
today 82
tou@@ 82
town 82
tran@@ 82
vt 82
bargain 81
bows 81
bulk 81
chalk 81
chamomile 81
chopping 81
cock 81
crayons 81
dal@@ 81
dress@@ 81
elmo 81
els 81
engagement 81
exp 81
extended 81
fire@@ 81
fit@@ 81
fra@@ 81
garcinia 81
group 81
int 81
jer@@ 81
kikay 81
liz 81
lou@@ 81
meet 81
microwave 81
noodle 81
range 81
relay 81
riding 81
runway 81
service 81
spacer 81
tights 81
wealth 81
worth 81
yoobao 81
abercrombie 80
aki 80
apex 80
aro@@ 80
arrivals 80
badminton 80
blessed 80
blind 80
canister 80
celine 80
certified 80
cider 80
collectibles 80
collector 80
cycle 80
fjs 80
fortune 80
fruity 80
frying 80
fubu 80
gemstone 80
gmate 80
hl 80
illa 80
jmaxx 80
lar 80
mart 80
mats 80
mei 80
mill 80
minis 80
octopus 80
odor 80
ov@@ 80
packed 80
paco 80
purifying 80
rugged 80
run@@ 80
scissor 80
sealer 80
senior 80
sle@@ 80
slider 80
std 80
stranger 80
tell 80
tos 80
vibrating 80
victorias 80
ving 80
wick 80
angels 79
app@@ 79
arctic 79
artifact 79
battle 79
beyond 79
blueberry 79
bradshaw 79
bronzer 79
cher 79
chic@@ 79
com 79
crisscross 79
dent 79
dew 79
duster 79
ft@@ 79
garnier 79
hamster 79
height 79
hight 79
housing 79
iz 79
katespade 79
kp 79
liveselling 79
lotte 79
minifigures 79
moana 79
negative 79
pc@@ 79
poreless 79
punk 79
puregold 79
ran@@ 79
raspberry 79
reborn 79
row 79
sales 79
say 79
shutter 79
sour 79
textured 79
than 79
traveling 79
vc 79
vibe 79
ath@@ 78
bedding 78
blanc 78
boom 78
breeze 78
brushed 78
build 78
chan 78
cob 78
ens 78
ideal 78
inc 78
june 78
kk 78
night@@ 78
paperbag 78
picnic 78
pigeon 78
processor 78
radiance 78
rapid 78
rebranding 78
rep@@ 78
rolling 78
sj@@ 78
smiley 78
strainer 78
terry 78
thank 78
tylex 78
wall@@ 78
yogurt 78
airbag 77
asia 77
banila 77
benetton 77
bong 77
bull 77
cab@@ 77
cape 77
cen@@ 77
cher@@ 77
corolla 77
ctor 77
dreams 77
duffle 77
electrical 77
fas@@ 77
fo 77
gadget 77
gms 77
heart@@ 77
highcut 77
hotpot 77
ideapad 77
ik@@ 77
incanto 77
kabuki 77
lette 77
lululemon 77
malunggay 77
measure 77
mind 77
mylar 77
orders 77
prepacked 77
pumpkin 77
rca 77
ruler 77
scallop 77
stabilo 77
su 77
trilogy 77
ups 77
word 77
above 76
ae@@ 76
aero 76
alo@@ 76
ashi 76
au 76
balancing 76
batik 76
berries 76
bj 76
brows 76
bust 76
chicco 76
claw 76
construction 76
creed 76
dol@@ 76
element 76
ero 76
ev@@ 76
fab@@ 76
fg 76
filipino 76
flavors 76
fuchsia 76
gie 76
glossier 76
golf 76
good@@ 76
hardcase 76
hijab 76
hikvision 76
infinite 76
injoy 76
jz 76
lauder 76
lean 76
liqu@@ 76
matching 76
nerf 76
paradise 76
playset 76
pomegranate 76
puncher 76
rcb 76
refreshing 76
rilakkuma 76
rotate 76
roxy 76
sell 76
steps 76
stra@@ 76
stretchy 76
suitable 76
tit@@ 76
tk 76
vietnam 76
volts 76
wigo 76
zo 76
alvin 75
anda 75
ato@@ 75
ava 75
barbecue 75
bibs 75
bon 75
cin@@ 75
dg@@ 75
fac@@ 75
fingerprint 75
flat@@ 75
football 75
full@@ 75
gh 75
gli@@ 75
inhaler 75
ion@@ 75
issue 75
keypad 75
kur@@ 75
lr 75
mixing 75
mur@@ 75
musk 75
pad@@ 75
person 75
pubg 75
receipt 75
rf 75
spyder 75
stein 75
sterilizer 75
superbreak 75
tac@@ 75
throttle 75
towels 75
yasen 75
alphabounce 74
ast 74
bga 74
bites 74
blonde 74
boot 74
camo 74
chill 74
combat 74
court 74
crispy 74
das 74
decant 74
droplets 74
ence 74
eve 74
gas@@ 74
griller 74
halo 74
hiace 74
honeycomb 74
hoops 74
kits 74
media 74
mn@@ 74
nar@@ 74
ney 74
normal 74
obsession 74
originals 74
pirate 74
polarized 74
pouches 74
ppy 74
radiant 74
rp 74
saddle 74
salvatore 74
sel 74
shifter 74
sin 74
sting 74
stockings 74
stool 74
text 74
ther 74
tis 74
travelling 74
union 74
variant 74
virus 74
wafer 74
wt 74
xoxo 74
zzy 74
always 73
ase 73
bacterial 73
canada 73
carolina 73
cn 73
cra@@ 73
deadpool 73
death 73
dex 73
dg 73
dge 73
ebook 73
fillers 73
footrest 73
glove 73
ham@@ 73
hill 73
jackson 73
jump@@ 73
keyring 73
mas 73
mixes 73
multicolored 73
oc 73
pack@@ 73
perfecting 73
powdery 73
rattle 73
roast 73
scarlet 73
shapes 73
sketch 73
sof@@ 73
song 73
spare 73
sta@@ 73
timer 73
trigger 73
various 73
wil@@ 73
act 72
avanza 72
az 72
bandeau 72
birds 72
blemish 72
bliss 72
chronicles 72
conditioning 72
cross@@ 72
curly 72
dora 72
dw@@ 72
ei@@ 72
ely 72
enamel 72
eq 72
est 72
eternity 72
fal@@ 72
flop 72
frames 72
giraffe 72
glare 72
glowing 72
goat 72
gon 72
goods 72
jen@@ 72
jewel 72
kers 72
lane 72
lord 72
mag 72
magnesium 72
missy 72
mpo 72
needle 72
pck 72
pill 72
pol@@ 72
powerful 72
rate 72
rosehip 72
scoopback 72
spag 72
sq 72
swim@@ 72
sx 72
tuna 72
vase 72
velcro 72
wp 72
wu 72
wwe 72
yam@@ 72
airforce 71
amazon 71
amo@@ 71
aoa 71
aya 71
baked 71
band@@ 71
bea@@ 71
bebe 71
best@@ 71
biscuits 71
boxed 71
bulls 71
bus 71
ched 71
daster 71
delicious 71
dk 71
duyan 71
ekel 71
eng 71
flannel 71
flush 71
gel@@ 71
grapeseed 71
gravity 71
gymboree 71
hai@@ 71
hammock 71
id@@ 71
imd 71
issey 71
jd 71
jm 71
jollibee 71
jug 71
latte 71
laura 71
live@@ 71
nation 71
pig@@ 71
pocketbac 71
safeguard 71
sassy 71
standing 71
steve 71
stopper 71
students 71
sutla 71
tale 71
tender 71
tor 71
tra 71
ukulele 71
unisilver 71
variety 71
washed 71
wh 71
zaxy 71
zz 71
aero@@ 70
anal 70
anthony 70
atm 70
babydoll 70
barrel 70
bathrobe 70
becca 70
belo 70
benedict 70
bla@@ 70
bounce 70
cigarette 70
coaster 70
compressor 70
ctive 70
cubes 70
dark@@ 70
din 70
disco 70
eclat 70
elegance 70
everything 70
filled 70
gab@@ 70
gelpen 70
gerber 70
harley 70
hoyoma 70
ideas 70
iring 70
jungle 70
kn@@ 70
knob 70
lai 70
lay@@ 70
lead 70
lers 70
lets 70
mar 70
md@@ 70
mid@@ 70
moon@@ 70
mq 70
mvp 70
navarro 70
ottogi 70
outer 70
pitcher 70
ppers 70
prote@@ 70
ree 70
rit@@ 70
rookie 70
sequin 70
shin 70
shir@@ 70
ski@@ 70
swimsuits 70
tine 70
torque 70
wan@@ 70
when 70
where 70
whipp 70
windows 70
words 70
zi 70
advantage 69
ant@@ 69
ballerina 69
bay@@ 69
bby 69
beaute 69
betty 69
bie 69
blades 69
bpa 69
cambogia 69
canin 69
cc@@ 69
celina 69
dongle 69
dressing 69
ee@@ 69
ek 69
erasable 69
fate 69
fda 69
flea 69
floating 69
gifo 69
hnj 69
hong 69
infants 69
ipod 69
jumpsuits 69
kay@@ 69
leg@@ 69
litter 69
lovers 69
mangosteen 69
mel 69
micellar 69
million 69
motherboard 69
nina 69
ob@@ 69
optimum 69
paddle 69
popcorn 69
rat@@ 69
source 69
strings 69
sunrise 69
tch 69
tight 69
totoro 69
ttgr 69
twilly 69
uhf 69
wr 69
xmas 69
accesories 68
alien 68
arms 68
axe 68
bao 68
bear@@ 68
bedsheets 68
below 68
book@@ 68
bv 68
carrot 68
clar@@ 68
coco@@ 68
damier 68
das@@ 68
detector 68
explosion 68
fied 68
gl@@ 68
glam@@ 68
happy@@ 68
harden 68
ial 68
individual 68
ket 68
kr 68
laptops 68
lemonade 68
light@@ 68
mad 68
marian 68
medicated 68
oneplus 68
pal 68
pancake 68
perfection 68
petals 68
photobook 68
polkadots 68
posters 68
rabanne 68
react 68
rearview 68
rtw 68
sack 68
sante 68
scott 68
sealant 68
shelves 68
skateboard 68
sounds 68
stamping 68
tear 68
technology 68
tile 68
types 68
vol@@ 68
wb 68
windshield 68
wise 68
wonders 68
wrapped 68
yumi 68
benassi 67
bin@@ 67
bir@@ 67
bits 67
cabin 67
chin 67
cho 67
chro@@ 67
classics 67
coun@@ 67
crystals 67
curve 67
dawn 67
digitizer 67
eo 67
ep@@ 67
estee 67
far 67
fenty 67
figurine 67
glory 67
graded 67
gy@@ 67
howru 67
iced 67
image 67
imarflex 67
jf 67
karat 67
law 67
madam 67
main 67
medi@@ 67
milani 67
moments 67
national 67
passenger 67
pastry 67
pea 67
pha 67
pilipinas 67
pinkish 67
pods 67
ponds 67
pra@@ 67
renewal 67
sau@@ 67
sperry 67
spirulina 67
ssi@@ 67
telescopic 67
treat 67
whit@@ 67
why 67
wristband 67
yves 67
zr 67
aegis 66
albums 66
alu@@ 66
alva 66
are@@ 66
bodybag 66
cinnamon 66
claire 66
cos@@ 66
crime 66
gal 66
gan 66
general 66
gigabyte 66
gudetama 66
heritage 66
highlight 66
highwaisted 66
hilton 66
input 66
insulation 66
ira 66
ist 66
ix@@ 66
jh 66
kam@@ 66
katy 66
ligh@@ 66
lollipop 66
lus 66
meow 66
notepad 66
og 66
orchid 66
origin 66
pantene 66
parker 66
philip 66
potty 66
qi 66
revitalizing 66
ribbons 66
riordan 66
roman 66
rosy 66
scanner 66
scarlett 66
scotch 66
sebum 66
soccer 66
soldering 66
stirring 66
sts 66
tang@@ 66
tas 66
treasure 66
tta 66
vice 66
wedges 66
wind@@ 66
yh 66
ack@@ 65
af@@ 65
aim 65
allure 65
ber 65
blu 65
bro 65
broken 65
burger 65
butter@@ 65
colourtint 65
couch 65
culottes 65
desire 65
dinner 65
dj 65
domino 65
dong 65
doom 65
dslr 65
eiffel 65
elujai 65
est@@ 65
ethernet 65
fans 65
ful@@ 65
guyabano 65
inspirational 65
ith 65
kitten 65
kk@@ 65
lit 65
lj 65
merah 65
moschino 65
mrs 65
necklaces 65
openline 65
ounce 65
patterned 65
peep 65
pil@@ 65
ping 65
prin@@ 65
qui@@ 65
refillable 65
select 65
sey 65
shoe@@ 65
slique 65
sse 65
tableware 65
til@@ 65
too@@ 65
tricolor 65
tus 65
ultra@@ 65
undies 65
valentines 65
whi@@ 65
winner 65
acqua 64
ater 64
ato 64
bajaj 64
baseus 64
bowknot 64
brac@@ 64
breastmilk 64
camel 64
case@@ 64
challis 64
clas@@ 64
cos 64
crunch 64
decorating 64
drainer 64
drip 64
ec@@ 64
exhaust 64
favors 64
flash@@ 64
freedom 64
gigabit 64
handsfree 64
herrera 64
horizontal 64
hx 64
ire 64
ln 64
lw 64
magnets 64
mul@@ 64
nationwide 64
neck@@ 64
ow@@ 64
pacific 64
palda 64
plat@@ 64
prima 64
reli@@ 64
resistance 64
samantha 64
sco 64
sound@@ 64
stackable 64
sty 64
tial 64
turn 64
ven 64
zirconia 64
antique 63
apricot 63
ascorbic 63
athena 63
aviator 63
aw@@ 63
baller 63
batwing 63
bill 63
blends 63
both 63
boxing 63
brooklyn 63
camisole 63
casa 63
childrens 63
chopsticks 63
crusher 63
dawning 63
dio 63
drinks 63
dur@@ 63
dutch 63
electro@@ 63
favorite 63
fli@@ 63
gat@@ 63
gio 63
gorilla 63
hairband 63
hig@@ 63
ille 63
imports 63
inf@@ 63
internal 63
jenny 63
kle@@ 63
let@@ 63
mould 63
non@@ 63
pak 63
peter 63
phantom 63
pine 63
pollution 63
powerhouse 63
present 63
pti@@ 63
rin 63
salad 63
sea@@ 63
sher@@ 63
silver@@ 63
sing@@ 63
sons 63
spo@@ 63
squad 63
straws 63
talk 63
telephone 63
temp 63
thing 63
tooth@@ 63
trade 63
waffle 63
wood@@ 63
é@@ 63
almonds 62
antiskid 62
awesome 62
beau 62
bendix 62
bum 62
cara 62
challenge 62
cheapest 62
chee@@ 62
citrine 62
computers 62
cullotes 62
cyan 62
dal 62
diameter 62
eco@@ 62
flame 62
gard 62
gate 62
gosh 62
headdress 62
headlamp 62
holy 62
ila 62
irish 62
jj@@ 62
kaws 62
lighter 62
lovecorner 62
mann 62
medela 62
michaela 62
mix@@ 62
ml@@ 62
monopoly 62
nebulizer 62
ners 62
nworld 62
overnight 62
perspirant 62
phr 62
pieu 62
plas@@ 62
prizm 62
real@@ 62
repellant 62
ringke 62
rotor 62
sabrina 62
seoul 62
short@@ 62
side@@ 62
sir 62
siwa 62
soen 62
softgel 62
speed@@ 62
start 62
styles 62
suits 62
tarnish 62
tilbury 62
trail 62
uratex 62
varicose 62
veggie 62
vet 62
weave 62
airy 61
andy 61
asa 61
attack 61
avenue 61
bac 61
bose 61
bot 61
bottoms 61
carrying 61
chase 61
clippers 61
cm@@ 61
crunchy 61
cuyi 61
devil 61
ef 61
fear 61
fix@@ 61
foodaholic 61
frost 61
garterize 61
german 61
gly@@ 61
hat@@ 61
heaven 61
hz 61
into 61
janoski 61
jessica 61
jolly 61
kamiseta 61
minecraft 61
mma 61
most 61
mya 61
natura 61
neckline 61
oversize 61
owned 61
pavilion 61
pest 61
pixie 61
poccophone 61
pow@@ 61
qi@@ 61
quick@@ 61
sai@@ 61
scout 61
seagate 61
selena 61
serving 61
sia 61
sit@@ 61
soldier 61
spor@@ 61
stic@@ 61
stradivarius 61
tap@@ 61
timeless 61
tresemme 61
trucker 61
tsu@@ 61
una 61
university 61
vic 61
waistline 61
xb 61
xy@@ 61
ziplock 61
angeles 60
app 60
ardeur 60
asics 60
ass 60
ature 60
ballpoint 60
banderitas 60
bang@@ 60
barong 60
basin 60
brew 60
cardigans 60
century 60
chewable 60
circuit 60
copier 60
darling 60
dhc 60
dice 60
dino 60
dv@@ 60
epoxy 60
face@@ 60
goody 60
gpp 60
gue 60
hang 60
herbalife 60
hour 60
igprints 60
ivy 60
kas@@ 60
kentucky 60
lavander 60
lh 60
lim 60
maine 60
maximum 60
member 60
mik@@ 60
models 60
opti@@ 60
overuns 60
pompom 60
posted 60
quest 60
rimmel 60
rog 60
sandwich 60
shin@@ 60
shu@@ 60
skate 60
sleev@@ 60
speci@@ 60
stand@@ 60
survival 60
tel 60
trac@@ 60
twilight 60
ul 60
ux 60
vil@@ 60
whiteboard 60
working 60
ants 59
arm@@ 59
autofocus 59
biker 59
bookmarks 59
brallete 59
buah 59
cal 59
coming 59
cti@@ 59
culture 59
cutout 59
doodle 59
dtv 59
emb@@ 59
emma 59
eucalyptus 59
faber 59
fash@@ 59
fer 59
fly@@ 59
flying 59
fringe 59
fuji 59
gadgets 59
gan@@ 59
ginseng 59
gol@@ 59
gus 59
hairclip 59
hn 59
hug 59
hydra 59
ition 59
jun@@ 59
kind 59
kno@@ 59
lis 59
mani@@ 59
masking 59
matrix 59
moto@@ 59
mumuso 59
nighties 59
peacock 59
peanuts 59
pedigree 59
pocophone 59
purederm 59
racket 59
rel 59
root 59
ru 59
slayer 59
sph 59
ssed 59
sss 59
stella 59
sugar@@ 59
tonic 59
tter 59
ula 59
uri@@ 59
wee 59
wm 59
zel 59
aff@@ 58
ain 58
audrey 58
baguio 58
basil 58
batteries 58
bees 58
blackberry 58
brace 58
breath 58
bubbles 58
buster 58
castell 58
cln 58
coo@@ 58
cover@@ 58
deals 58
dos 58
dream@@ 58
dunk 58
enjoy 58
envy 58
fade 58
flo 58
foo@@ 58
furry 58
germany 58
glamour 58
glit@@ 58
goodquality 58
guava 58
hazelnut 58
hexagon 58
imm@@ 58
indoplas 58
ized 58
jb 58
jen 58
kap@@ 58
lanvin 58
learn 58
lice 58
lighten 58
lined 58
lisa 58
log 58
lor@@ 58
lowcut 58
lucas 58
mand@@ 58
mansi 58
mars 58
mera 58
merch 58
monthly 58
mr@@ 58
nasa 58
organ@@ 58
oro@@ 58
pax 58
pla@@ 58
plane 58
pob 58
potion 58
rib 58
ric 58
royu 58
sara 58
selection 58
singapore 58
singles 58
slow 58
snow@@ 58
sophia 58
spatula 58
styler 58
sweety 58
talking 58
tea@@ 58
terra 58
ultraboost 58
vers@@ 58
wea@@ 58
you@@ 58
ail@@ 57
amino 57
anth@@ 57
ars 57
baptism 57
belted 57
blow 57
boro 57
botton 57
cau@@ 57
cebu 57
college 57
corrector 57
derma@@ 57
dock 57
dou@@ 57
ette 57
every 57
faceshield 57
fantastic 57
figuarts 57
fill 57
fino 57
flipflops 57
fryer 57
gee 57
gowoori 57
gran@@ 57
grendha 57
hairbow 57
harem 57
htc 57
illuminating 57
import 57
itch 57
jam@@ 57
labo 57
lat 57
markers 57
merchandise 57
mont 57
motorcycles 57
muji 57
mus@@ 57
nautica 57
nescafe 57
nozzle 57
oilbased 57
organi@@ 57
packing 57
pamela 57
ped 57
photography 57
posh 57
rebel 57
resellers 57
resist 57
rin@@ 57
sally 57
scalp 57
sides 57
silent 57
sions 57
sit 57
slo@@ 57
spirit 57
stufftoys 57
tassle 57
temptation 57
thin@@ 57
tie@@ 57
ture 57
unbranded 57
und@@ 57
ungrip 57
vanguard 57
verdon 57
vitality 57
wacoal 57
weather 57
wisdom 57
xie 57
xp 57
zd 57
zg 57
A@@ 56
angel@@ 56
ann@@ 56
any@@ 56
bea 56
beam 56
beautéderm 56
bic 56
blur 56
buddy 56
cakes 56
caremask 56
cashmere 56
chicago 56
cing 56
counter 56
crank 56
cts 56
dest@@ 56
diving 56
dreamcatcher 56
durant 56
dustproof 56
earpods 56
elements 56
ethnic 56
eur 56
favor 56
fig@@ 56
game@@ 56
garbage 56
gauze 56
hay@@ 56
hf 56
hin@@ 56
inspiron 56
interior 56
ise 56
jx 56
laurent 56
lona 56
lootbags 56
lower 56
mannequin 56
march 56
melt 56
mizon 56
momoland 56
moss 56
nappy 56
nhk 56
notebooks 56
orly 56
ory 56
peace 56
rda 56
recollections 56
reflector 56
roo@@ 56
rotation 56
russian 56
seater 56
sequined 56
shapers 56
shortsleeves 56
simulation 56
smartphones 56
speedometer 56
sweetheart 56
tar 56
texture 56
traveler 56
trifold 56
turmask 56
unofficial 56
vital 56
voltage 56
warrior 56
winder 56
yss 56
I@@ 55
activewear 55
almost 55
ania 55
applicator 55
arizona 55
bayong 55
bel 55
bou@@ 55
bound 55
bys 55
caviar 55
clear@@ 55
coins 55
col 55
colle@@ 55
come 55
comm@@ 55
confetti 55
costumes 55
covergirl 55
cranberry 55
crocheted 55
cure 55
daddy 55
dca 55
dirty 55
dropper 55
dxn 55
eh 55
ero@@ 55
extensions 55
father 55
fw 55
gar 55
glow@@ 55
gn@@ 55
google 55
graphics 55
grocery 55
gur@@ 55
guy 55
hydraulic 55
ily 55
koi 55
kts 55
lilac 55
lou 55
mandarin 55
marketing 55
minute 55
nie 55
parka 55
pit 55
placemat 55
premier 55
racerback 55
rho@@ 55
sagmit 55
sdhc 55
set@@ 55
shel@@ 55
sizzix 55
stationary 55
suave 55
sui 55
suspension 55
tall 55
theory 55
toned 55
ub 55
var@@ 55
vegetables 55
vg 55
vibrant 55
want 55
welcome 55
wonderland 55
woo 55
wristwatch 55
yas@@ 55
yoko 55
zar@@ 55
zippered 55
acb 54
aco 54
annie 54
bf@@ 54
bobbi 54
breed 54
budget 54
busha 54
calligraphy 54
carburetor 54
chambray 54
check@@ 54
chelsea 54
corduroy 54
crv 54
dani@@ 54
desert 54
din@@ 54
dragonball 54
duffel 54
edifice 54
emily 54
famous 54
fle@@ 54
frank 54
garfield 54
garland 54
ging 54
gtw 54
history 54
inspire 54
jason 54
jay 54
kutkutin 54
lal@@ 54
melasma 54
miu 54
mouthwash 54
movies 54
mum 54
nadine 54
nam@@ 54
ned 54
neutral 54
nit@@ 54
peony 54
pf 54
playpen 54
pork 54
reg@@ 54
return 54
revitali@@ 54
rfid 54
rol@@ 54
rug 54
sapphire 54
sculpting 54
sealing 54
shaft 54
shooter 54
sisley 54
sive 54
snacks 54
solutions 54
spoiler 54
stru@@ 54
temporary 54
tto 54
unk 54
vir@@ 54
wf 54
wr@@ 54
wy@@ 54
zigzag 54
adorable 53
against 53
ako 53
alberto 53
amp@@ 53
angelus 53
ans@@ 53
apollo 53
baao 53
bility 53
blinds 53
bodysuits 53
bolero 53
brownies 53
bx 53
candy@@ 53
catherine 53
cav@@ 53
closed 53
coca 53
compass 53
concept 53
cour@@ 53
cruiser 53
cz 53
dable 53
debut 53
destiny 53
dietary 53
distributor 53
dolly 53
dom 53
eas@@ 53
enzo 53
fertilizer 53
float 53
flyball 53
fresh@@ 53
fry 53
gagage 53
geekvape 53
genie 53
givi 53
heat@@ 53
hyper@@ 53
imitation 53
imperial 53
inclusions 53
india 53
iv 53
ked 53
kilos 53
kins 53
kyb 53
lex 53
lv@@ 53
mantra 53
mie 53
minimum 53
mood 53
moving 53
nicole 53
onic 53
ornament 53
pai@@ 53
peri 53
plier 53
puri@@ 53
receiving 53
reju@@ 53
reverse 53
ring@@ 53
river 53
robert 53
ros 53
ros@@ 53
sembo 53
shan@@ 53
shining 53
shop@@ 53
skinpotions 53
skk 53
smartwatch 53
statue 53
stocking 53
swatch 53
swe@@ 53
taupe 53
technomarine 53
thunder 53
trolls 53
tumi 53
uhs 53
unscented 53
val 53
venom 53
way@@ 53
wellington 53
work@@ 53
yd 53
aire 52
aka 52
apido 52
aq 52
ayesha 52
bowls 52
brain 52
carbon@@ 52
cartoons 52
casserole 52
chino 52
cloth@@ 52
coating 52
corp 52
costumized 52
covered 52
crash 52
deal 52
dh 52
diamonds 52
dig@@ 52
dun@@ 52
eggs 52
elas@@ 52
epsa 52
fight 52
fitch 52
fixed 52
fuschia 52
hannah 52
hologram 52
inserts 52
jewel@@ 52
jh@@ 52
jones 52
jungkook 52
kee 52
kets 52
lli@@ 52
loves 52
lunchbox 52
mach@@ 52
mathematics 52
met 52
mun@@ 52
munchkin 52
mystic 52
neverfull 52
nicholas 52
nissin 52
oc@@ 52
onal 52
pale 52
pay@@ 52
pes 52
qcy 52
qt 52
rhinestones 52
ria 52
rough 52
sad@@ 52
scope 52
scrap 52
scrapbook 52
shines 52
shogun 52
sider 52
ski 52
spike 52
ssion 52
stain@@ 52
swi@@ 52
teacher 52
therapeutic 52
thermo@@ 52
transmission 52
ube 52
ust 52
uva 52
vari@@ 52
watery 52
wj 52
xxxl 52
yy 52
zalora 52
academy 51
accounting 51
agatha 51
ame@@ 51
bd 51
bifold 51
biscuit 51
bkk 51
blending 51
bossini 51
brands 51
brow@@ 51
cans 51
choco@@ 51
coats 51
commercial 51
country 51
cowl 51
dandruff 51
defender 51
domin@@ 51
echo 51
eden 51
euro@@ 51
fication 51
fuse 51
gent 51
gin 51
handcrafted 51
hardware 51
hasbro 51
hung 51
intimate 51
ipon 51
ize 51
jacob 51
jeffree 51
jelly@@ 51
kuku 51
land@@ 51
laserjet 51
lea 51
lee@@ 51
legging 51
legs 51
lu 51
mble 51
mediheal 51
mee 51
megapro 51
mina 51
nautical 51
ony 51
opp 51
ori 51
pab@@ 51
papi 51
pasta 51
polaroid 51
posture 51
practical 51
probiotics 51
prom 51
qf 51
qq 51
quilt 51
rh 51
rh@@ 51
robin 51
rorec 51
rou@@ 51
rusi 51
sequence 51
sno@@ 51
soluble 51
spi@@ 51
sto 51
succulents 51
tal 51
teen@@ 51
tiles 51
times 51
traditional 51
tubeless 51
tuyo 51
utensil 51
utensils 51
vibes 51
vin 51
vivid 51
waste 51
web 51
weekend 51
zia 51
zumba 51
zy@@ 51
ache 50
aloha 50
altis 50
amethyste 50
arturo 50
asahi 50
bangs 50
beatles 50
beauche 50
bee@@ 50
been 50
blaster 50
boxy 50
bras 50
british 50
ceramics 50
cherokee 50
classi@@ 50
colours 50
disinfecting 50
dissipation 50
eds 50
everpower 50
exten@@ 50
ez@@ 50
fengshui 50
fever 50
finder 50
finishing 50
fru@@ 50
heater 50
heating 50
help 50
holly 50
ig 50
itive 50
jay@@ 50
kings 50
kkw 50
ladie 50
lifter 50
ling@@ 50
listing 50
little@@ 50
locket 50
loom 50
lysol 50
mei@@ 50
midwaist 50
minerals 50
monsters 50
mutant 50
nigh@@ 50
nights 50
nos 50
offer 50
opening 50
ord@@ 50
paubos 50
phi@@ 50
piercing 50
post@@ 50
press@@ 50
pt@@ 50
ray@@ 50
reviewer 50
rex 50
samples 50
sandalwood 50
saucer 50
sauna 50
scion 50
section 50
sgp 50
shar@@ 50
skeleton 50
sou@@ 50
sparks 50
stevia 50
stic 50
surge 50
tab@@ 50
taillight 50
thailook 50
there 50
toxic 50
was@@ 50
wash@@ 50
whale 50
wonder@@ 50
yen 50
yi@@ 50
zs 50
S@@ 49
acetate 49
add@@ 49
adhesion 49
alcatel 49
answer 49
atx 49
baybayin 49
bestguard 49
bolster 49
boo 49
bottled 49
bron@@ 49
buffet 49
chess 49
chevrolet 49
chew 49
chicharon 49
chy 49
civil 49
claus 49
clean@@ 49
cruz 49
cruzer 49
deli 49
dictionary 49
die@@ 49
du 49
east 49
eless 49
enhanced 49
gging 49
glaze 49
grapefruit 49
gv 49
hang@@ 49
hansen 49
holders 49
holo 49
hoo@@ 49
hyperdunk 49
inpods 49
inspi 49
intl 49
jagger 49
je 49
jumping 49
keyholder 49
lense 49
lf 49
lifestyle 49
looney 49
lopez 49
lq 49
madden 49
make@@ 49
mason 49
moment 49
motocross 49
nes 49
nongshim 49
pac@@ 49
pixi 49
pocketbooks 49
porcelain 49
pos@@ 49
pped 49
puppies 49
sher 49
smd 49
smo@@ 49
stencil 49
sters 49
studios 49
suga 49
swivel 49
taste 49
temperament 49
tered 49
tles 49
tunic 49
twill 49
venice 49
weekly 49
wellness 49
witness 49
wizard 49
xc 49
xe 49
yul 49
ame 48
arri@@ 48
ask 48
ath 48
axis 48
beauty@@ 48
bigger 48
bridge 48
cai@@ 48
cane 48
caster 48
cd@@ 48
cement 48
chil@@ 48
chisel 48
chris 48
ciao 48
clio 48
cozy 48
cular 48
dakki 48
degrees 48
doc 48
dose 48
dpi 48
droplet 48
empire 48
export 48
fair 48
fiesta 48
fifty 48
gamer 48
geforce 48
harper 48
hea@@ 48
hours 48
invitations 48
iphones 48
iti@@ 48
jimin 48
kgs 48
kitkat 48
knits 48
kore@@ 48
lap 48
leafy 48
liniment 48
mae 48
maru@@ 48
mates 48
mcneil 48
meiji 48
microsd 48
myra 48
nas@@ 48
nl 48
oats 48
occasions 48
od 48
ols 48
ones 48
oni 48
pact 48
pantulog 48
pat 48
personality 48
polo@@ 48
popsicle 48
razer 48
regatta 48
repack 48
revo 48
rizoma 48
sak@@ 48
saudigold 48
severus 48
share 48
shoulderbag 48
sili@@ 48
skmei 48
sliding 48
slu@@ 48
soaplada 48
sof 48
squeezer 48
srp 48
superfood 48
swanson 48
swit@@ 48
tak@@ 48
taytay 48
throne 48
timberland 48
tty 48
tunes 48
ue 48
whey 48
xerox 48
acy 47
ams 47
armored 47
ather 47
bn@@ 47
brave 47
bushing 47
carnitine 47
catch 47
ccml 47
celtics 47
chairs 47
charlie 47
create 47
definition 47
dough 47
dvi 47
education 47
embossing 47
ets 47
excel 47
fashionista 47
fatigue 47
fic 47
flashing 47
flyman 47
folds 47
fra 47
graffiti 47
grater 47
gul@@ 47
gw 47
holographic 47
hou@@ 47
hy 47
idol 47
imag@@ 47
ining 47
instrument 47
irene 47
ite@@ 47
jasper 47
kissproof 47
kpads 47
lamb 47
lands 47
mamonde 47
mandala 47
mark@@ 47
masturbator 47
med@@ 47
merrell 47
mmx 47
must 47
nap@@ 47
nets 47
nightwear 47
nursery 47
odyssey 47
paisley 47
peso 47
phil 47
pli@@ 47
poco 47
polishing 47
pulse 47
qfashion 47
quinn 47
redragon 47
relaxed 47
rella 47
rising 47
rocket 47
rows 47
sal 47
scene 47
sedan 47
sele@@ 47
shock@@ 47
should 47
ske@@ 47
sma 47
speaks 47
sport@@ 47
stark 47
stilton 47
stor@@ 47
strange 47
suki 47
sum 47
supremo 47
sus 47
tac 47
tailored 47
think 47
tho@@ 47
veronica 47
versatile 47
C@@ 46
acks 46
alada 46
all@@ 46
allan 46
anton 46
arte@@ 46
asha 46
authen@@ 46
bal 46
bezel 46
bihaku 46
biore 46
blan@@ 46
bles 46
bmw 46
bold 46
booldeet 46
box@@ 46
bq 46
bumblebee 46
cac@@ 46
career 46
cashew 46
chopstick 46
cir@@ 46
condenser 46
doorbell 46
draw 46
duos 46
dust@@ 46
embroided 46
enchanteur 46
endgame 46
enemy 46
england 46
evolution 46
farmstay 46
fen@@ 46
friendship 46
gameboy 46
generic 46
gentleman 46
ggy 46
gibi 46
glas@@ 46
glut@@ 46
glycolic 46
grips 46
gun@@ 46
hanuman 46
ice@@ 46
igo 46
iner 46
insta@@ 46
ipega 46
ities 46
jon@@ 46
kicks 46
kili 46
kra@@ 46
kyla 46
lev 46
liza 46
macro 46
maganda 46
management 46
mania 46
mccormick 46
meizu 46
ming@@ 46
miyake 46
motorola 46
nitro 46
nn 46
novo 46
nutri 46
nyc 46
oo 46
options 46
paints 46
palmolive 46
papel 46
para 46
petit 46
pinoy 46
ppr 46
pretend 46
pun@@ 46
puppet 46
quil@@ 46
radi@@ 46
reaction 46
relax 46
roche 46
roshe 46
sat@@ 46
senza 46
shaping 46
sheep 46
shy 46
sies 46
silhouette 46
skip 46
smoothing 46
social 46
stepsill 46
success 46
sup 46
supp@@ 46
tensioner 46
thea 46
toaster 46
tro 46
uf 46
ult 46
vader 46
vguc 46
wx 46
absor@@ 45
acker 45
ality 45
amanda 45
apieu 45
arabica 45
arena 45
asian 45
beau@@ 45
blossoms 45
board@@ 45
bow@@ 45
but@@ 45
carat 45
careline 45
cathy 45
cayler 45
cham 45
charming 45
clog 45
connect 45
cosmic 45
crackers 45
creston 45
darth 45
dash@@ 45
dn 45
document 45
doughnut 45
eg@@ 45
elixir 45
emp@@ 45
ening 45
eros 45
fanny 45
fast@@ 45
feelin 45
fried 45
garage 45
gluta@@ 45
grinding 45
guards 45
hada 45
haikyuu 45
hera 45
hobby 45
icing 45
ick 45
impulse 45
inflator 45
inkjet 45
ives 45
jacquard 45
jerry 45
julia 45
ktees 45
lish 45
lk 45
lle 45
lor 45
menthol 45
microsoft 45
mis@@ 45
mobiles 45
momo 45
motor@@ 45
navara 45
ninewest 45
nordic 45
oat 45
ology 45
omg 45
organza 45
pallete 45
pixel 45
pleasure 45
polybag 45
pops 45
queens 45
rash@@ 45
rebonding 45
saffiano 45
seat@@ 45
signage 45
smart@@ 45
sni@@ 45
sr@@ 45
stator 45
stethoscope 45
stripped 45
sure 45
swirl 45
synergy 45
tee@@ 45
textiles 45
thi@@ 45
thousand 45
ticket 45
tics 45
tron 45
trooper 45
trunks 45
ufw 45
variable 45
worn 45
wraps 45
wy 45
yah 45
zeus 45
zie 45
zipped 45
zoro 45
ables 44
alert 44
alli@@ 44
aming 44
assi@@ 44
august 44
bff 44
bibdana 44
bny 44
booty 44
botanical 44
bugs 44
burt 44
carburator 44
cell@@ 44
centella 44
changer 44
clara 44
clogs 44
cobra 44
crest 44
devices 44
distressed 44
dorothy 44
dualpro 44
eight 44
equ@@ 44
fitting 44
gardening 44
girl@@ 44
gospel 44
grease 44
handlebar 44
heli@@ 44
hips 44
huawie 44
ids 44
im@@ 44
indonesia 44
ious 44
iso@@ 44
jlt 44
jw 44
kitchenware 44
kle 44
kotobukiya 44
kultura 44
kumot 44
leatherette 44
liver 44
luckycharm 44
maldives 44
martha 44
melamine 44
memories 44
mike 44
motorbike 44
muffin 44
mule 44
newest 44
nipples 44
nonwire 44
optic 44
org@@ 44
peachy 44
peak 44
peg 44
personalize 44
prepack 44
ratchet 44
rie 44
rmg 44
rubber@@ 44
saiyan 44
samgyupsal 44
seasons 44
shed 44
shrink 44
sian 44
sleeper 44
soak 44
speedo 44
spinning 44
stapler 44
stit@@ 44
stx 44
sulfur 44
superior 44
tala 44
tarpaulin 44
translucent 44
ultr@@ 44
unused 44
upto 44
vig@@ 44
volt 44
ward 44
wearable 44
wer@@ 44
wink 44
won@@ 44
wrislet 44
xm 44
yf 44
alie 43
also 43
ange@@ 43
bailey 43
ball@@ 43
beginners 43
benton 43
border 43
burgundy 43
cassette 43
cbn 43
cel 43
chart 43
chie 43
colic 43
coordinate 43
cottony 43
dairy 43
elli@@ 43
endless 43
entertainment 43
espresso 43
explorer 43
festival 43
ffe@@ 43
fie 43
fin 43
fitbit 43
folio 43
gbb 43
gimbal 43
goal 43
gothic 43
greek 43
gue@@ 43
haan 43
ham 43
hans 43
hell 43
hoddie 43
holic 43
hut 43
icare 43
icy 43
igh@@ 43
ions 43
isolation 43
jang 43
jumper@@ 43
justees 43
kang 43
kasya 43
kinoki 43
koala 43
lake 43
lapel 43
led@@ 43
legendary 43
ler@@ 43
license 43
lie@@ 43
locks 43
maid 43
mal 43
matchbox 43
mcg 43
middle 43
mink 43
mirac@@ 43
misumi 43
muslim 43
necktie 43
nic@@ 43
novels 43
nr 43
nurse 43
ob 43
od@@ 43
olympus 43
panoramic 43
penny 43
polar 43
pringles 43
pw 43
rechargable 43
reference 43
rei@@ 43
religious 43
ret 43
shells 43
sister 43
slee@@ 43
sley 43
spectra 43
staple 43
ste 43
sted 43
stle 43
surveillance 43
sweet@@ 43
sweetener 43
tech@@ 43
tek 43
telesin 43
tong 43
tow 43
travel@@ 43
trends 43
ttes 43
twins 43
user 43
ut@@ 43
vac 43
vd 43
vee 43
volu@@ 43
western 43
wilson 43
xpander 43
yan@@ 43
zx 43
absorption 42
access 42
achi 42
adventures 42
arduino 42
armband 42
ast@@ 42
automotive 42
barefoot 42
blackbox 42
brit@@ 42
britney 42
bun 42
cecilia 42
cele@@ 42
chal@@ 42
chap@@ 42
chevron 42
cloudfone 42
complexion 42
compound 42
ctions 42
daban 42
distance 42
divider 42
eg 42
ellis 42
ello 42
espadrilles 42
faceshop 42
fair@@ 42
farrah 42
feli@@ 42
fhd 42
figma 42
firm 42
floss 42
gels 42
gems 42
glutalipo 42
gluten 42
gor@@ 42
hap@@ 42
harajuku 42
harvest 42
has@@ 42
heartbeat 42
hun@@ 42
hur@@ 42
idea 42
ight 42
imprint 42
itech 42
jars 42
jg 42
jjc 42
kel@@ 42
knotted 42
kry@@ 42
labels 42
lanbena 42
lightness 42
luv 42
mambi 42
marshmallow 42
matchy 42
maxi@@ 42
maxx 42
microwavable 42
mig@@ 42
mudguard 42
mura 42
navyblue 42
nur@@ 42
origami 42
os@@ 42
pambata 42
panic 42
peptide 42
perfumed 42
plugs 42
positive 42
postcards 42
practice 42
qq@@ 42
rette 42
rolex 42
rox 42
sac 42
sander 42
scientific 42
scraper 42
sdf@@ 42
shimmering 42
sman 42
smi@@ 42
spd 42
splashproof 42
stock@@ 42
straightening 42
sul@@ 42
supersale 42
sweets 42
tation 42
tiara 42
tic@@ 42
tim 42
tinkerbell 42
ultrathin 42
um@@ 42
vhf 42
victory 42
vine 42
volkswagen 42
worm 42
xuping 42
yn@@ 42
zation 42
zf 42
ando 41
asher 41
assn 41
badescu 41
beauti@@ 41
bers 41
bianca 41
blair 41
boxers 41
bulgari 41
calling 41
camilla 41
cation 41
ced 41
chewy 41
christ@@ 41
circo 41
closer 41
common 41
cond 41
contrast 41
crab 41
creamer 41
cry@@ 41
damper 41
dat@@ 41
daylight 41
dazzling 41
delights 41
diagonal 41
dicer 41
digi@@ 41
dish@@ 41
dmc 41
easy@@ 41
ejuice 41
emer@@ 41
eon 41
equal 41
ered 41
escada 41
evvph 41
expiry 41
fairy@@ 41
ferrero 41
fish@@ 41
flaws 41
flex@@ 41
fluorescent 41
ganda 41
georgette 41
ges 41
goblin 41
grand@@ 41
habits 41
hindi 41
honey@@ 41
hotdog 41
ico 41
ik 41
illuminator 41
inclusion 41
index 41
indicator 41
interchangeable 41
ipx 41
jac@@ 41
jet@@ 41
jewelries 41
kiss@@ 41
kurtina 41
kz 41
laces 41
ladys 41
lampin 41
lgts 41
lilo 41
lippies 41
lube 41
mamala 41
medal 41
mk@@ 41
mmer 41
mock 41
moda 41
molded 41
mosaic 41
motowolf 41
msmhk 41
mug@@ 41
nancy 41
netbook 41
nies 41
ntsc 41
nv 41
pass 41
pegasus 41
phil@@ 41
photos 41
playful 41
playmat 41
poe 41
port@@ 41
presto 41
ql 41
qualcomm 41
quotes 41
relumins 41
remove 41
reveal 41
rubik 41
server 41
shor@@ 41
signed 41
since 41
skorts 41
skylanders 41
snapshot 41
sos 41
spec 41
still 41
stufftoy 41
supple 41
syn@@ 41
tangerine 41
thy 41
trend@@ 41
tting 41
tumblr 41
wer 41
wonderline 41
writer 41
yarns 41
E@@ 40
abi 40
activ 40
alaska 40
alia 40
australian 40
avdf 40
beater 40
bidet 40
bigbang 40
blin@@ 40
bones 40
bonne 40
brand@@ 40
breakfast 40
buildmate 40
burning 40
capacitor 40
causal 40
cham@@ 40
chas@@ 40
chubby 40
containers 40
cool@@ 40
coords 40
cradle 40
cyclo@@ 40
dea@@ 40
delicate 40
diana 40
dsn 40
duvet 40
edible 40
enfant 40
enlarger 40
epic 40
eureka 40
excess 40
fence 40
fg@@ 40
fittings 40
flood 40
forme 40
freesf 40
freeze 40
gai@@ 40
gatas 40
grosgrain 40
hangers 40
hdtv 40
headrest 40
hil@@ 40
hydr@@ 40
imak 40
iope 40
ive 40
jjt 40
jose 40
jy@@ 40
kas 40
katerina 40
kineza 40
kjm 40
lac 40
lana 40
lang@@ 40
laud 40
lea@@ 40
leo 40
lola 40
lum 40
malaysia 40
mber 40
mental 40
mexico 40
moisturising 40
moonlight 40
multivitamin 40
ninjago 40
occasion 40
orig@@ 40
originai 40
oring 40
oxide 40
pao 40
papaw 40
paula 40
pawnablesplcodgenuine 40
pendants 40
pixar 40
playsuit 40
plunger 40
poop 40
preowned 40
prism 40
probiotic 40
psicom 40
puff@@ 40
qs 40
raptors 40
ras@@ 40
ream 40
reflectorized 40
remo@@ 40
riders 40
rip 40
roger 40
rosemary 40
ross 40
serial 40
shopper 40
simpson 40
skinfit 40
smoo@@ 40
sofitec 40
softener 40
sportswear 40
storybook 40
stunning 40
timing 40
tins 40
together 40
tracing 40
transmitter 40
uo 40
upgrade 40
upgraded 40
uv@@ 40
valley 40
variants 40
vega 40
vibration 40
vul@@ 40
weapon 40
week 40
wigs 40
wipe 40
za@@ 40
zoe 40
zoo@@ 40
addidas 39
akk 39
anion 39
aphrodisia 39
aron 39
atomy 39
avenger 39
bad@@ 39
beachwear 39
bet 39
bli@@ 39
brit 39
cardfight 39
catriona 39
celer@@ 39
cica 39
clearing 39
cotton@@ 39
cracker 39
dahua 39
delay 39
dil@@ 39
dimmable 39
dinnerware 39
door@@ 39
down@@ 39
drag 39
dtc 39
escape 39
esp@@ 39
ess 39
eth@@ 39
everest 39
factor 39
fem 39
ffy 39
fighting 39
fore@@ 39
front@@ 39
gk 39
gla@@ 39
grms 39
gro 39
groom 39
heal 39
hits 39
hue 39
ide@@ 39
immortal 39
inger 39
ited 39
jasmin 39
kenzo 39
kim@@ 39
know 39
leader 39
leather@@ 39
literide 39
lux@@ 39
maze 39
meduim 39
membrane 39
metric 39
mice 39
mis 39
monopad 39
monsta 39
mux 39
mz 39
nex@@ 39
ngk 39
nin@@ 39
open@@ 39
ox@@ 39
pag@@ 39
pajero 39
paracord 39
paw@@ 39
phy@@ 39
pineng 39
plaka 39
plating 39
pon@@ 39
pores 39
rapunzel 39
rasta 39
realistic 39
retina 39
rocking 39
rollers 39
rusty 39
sandy 39
scra@@ 39
shave 39
sidebag 39
slim@@ 39
somebymi 39
spoke 39
strada 39
telescope 39
tia 39
timewise 39
toblerone 39
tour@@ 39
tubular 39
tumblers 39
tweezer 39
ud 39
use@@ 39
vac@@ 39
vapormax 39
wc 39
wears 39
wen@@ 39
wife 39
wimpy 39
wing@@ 39
wjf 39
wn@@ 39
woo@@ 39
xf 39
yaiba 39
yaya 39
yazi 39
zaful 39
zon 39
α@@ 39
acti@@ 38
adam 38
akg 38
alite 38
aloevera 38
antiperspirant 38
aquamarine 38
arma@@ 38
asi@@ 38
aster 38
bangtan 38
bataan 38
bau@@ 38
bayo 38
beat@@ 38
belts 38
berg 38
billie 38
blackheads 38
blackout 38
bru@@ 38
cameo 38
camshaft 38
canopy 38
carton 38
chainsaw 38
cherrymobile 38
claiborne 38
cle 38
cles 38
clouds 38
cook 38
dart 38
degreaser 38
delta 38
det@@ 38
dge@@ 38
disinfection 38
dooney 38
doug 38
electroplated 38
ell@@ 38
emperor 38
fabulous 38
farrar 38
filling 38
filters 38
flashdrive 38
flesh 38
flowering 38
freezer 38
garnet 38
gasoline 38
guality 38
gudi 38
happiness 38
has 38
heather 38
hh 38
immune 38
ind@@ 38
jennifer 38
jes 38
jimmy 38
joyride 38
kalamansi 38
kang@@ 38
kf 38
kilogram 38
kimetsu 38
knitting 38
knuckle 38
korean@@ 38
lat@@ 38
lau@@ 38
lil@@ 38
locking 38
logy 38
lumin@@ 38
mamypoko 38
mans 38
maxidress 38
maya 38
mega@@ 38
micky 38
milo 38
moroccan 38
mper 38
mustache 38
mw 38
nami 38
nasal 38
nutella 38
oddstickers 38
origin@@ 38
ot@@ 38
others 38
pang@@ 38
physical 38
piglet 38
pldt 38
pochette 38
pou@@ 38
predator 38
ps@@ 38
quiet 38
qw@@ 38
rated 38
reci@@ 38
refresh 38
rene 38
respirator 38
rey 38
ris 38
rite 38
rosa 38
saber 38
sanuk 38
sds 38
sega 38
sei 38
sellers 38
sex@@ 38
sf@@ 38
space@@ 38
spin@@ 38
stan@@ 38
starex 38
static 38
sterili@@ 38
strai@@ 38
sung 38
superstay 38
sv 38
target 38
tft 38
thanos 38
thru 38
thumb 38
tian 38
tictac 38
torani 38
tox 38
tus@@ 38
twi@@ 38
vel 38
ville 38
vis@@ 38
vogue 38
voltmeter 38
warts 38
whisk 38
wild@@ 38
wolverine 38
ñ@@ 38
R@@ 37
adap@@ 37
addict 37
age@@ 37
aj@@ 37
ald 37
alkansya 37
amu@@ 37
angela 37
antioxidant 37
appli@@ 37
aries 37
assassin 37
autograph 37
battle@@ 37
bed@@ 37
beverage 37
bing 37
biotin 37
bot@@ 37
bub@@ 37
bv@@ 37
calm 37
cappuccino 37
capshop 37
cci 37
cignus 37
cin 37
ckle 37
classa 37
clever 37
comes 37
commuter 37
conne@@ 37
coolant 37
corn@@ 37
cowboy 37
creation 37
cree 37
donna 37
dragons 37
dreamer 37
dru@@ 37
drunk 37
electri@@ 37
elena 37
expansion 37
eyebag 37
fig 37
fitflops 37
flaw 37
flower@@ 37
furball 37
fying 37
gee@@ 37
gfriend 37
gia 37
gies 37
grant 37
guardian 37
had@@ 37
hairclips 37
hanes 37
hav@@ 37
headwear 37
interface 37
internet 37
ivt 37
jpop 37
july 37
kha@@ 37
kies 37
kinds 37
kris 37
kx 37
ladder 37
legacy 37
lipp@@ 37
logic 37
lolita 37
lots 37
lush 37
macaroon 37
maple 37
marcus 37
memor@@ 37
mex 37
move 37
myrrh 37
netflix 37
neu@@ 37
nov@@ 37
oes 37
offset 37
oil@@ 37
old@@ 37
optimus 37
payless 37
pers 37
pickup 37
pid 37
pisonet 37
playtex 37
poker 37
polkadot 37
prayer 37
quar@@ 37
rad 37
rece@@ 37
refle@@ 37
ribb@@ 37
separ@@ 37
shaving 37
sierra 37
sil 37
sill 37
skintone 37
songs 37
speak 37
spl@@ 37
spout 37
sq@@ 37
stack 37
sten@@ 37
sunnyware 37
swab 37
sweat@@ 37
teardrop 37
temperd 37
ths 37
tnt 37
totebag 37
tren@@ 37
trouble 37
tubes 37
tune 37
uag 37
updated 37
utp 37
vco 37
veg 37
veins 37
vf 37
volleyball 37
was 37
whipped 37
with@@ 37
wrapper 37
wwfph 37
yar@@ 37
yayamanin 37
yoyo 37
abi@@ 36
acai 36
activ@@ 36
aly@@ 36
antiseptic 36
artisan 36
backs 36
backup 36
barber 36
believe 36
billiard 36
boardwalk 36
bodyworks 36
bowtie 36
cad@@ 36
camille 36
chain@@ 36
chang@@ 36
chemical 36
chen@@ 36
chers 36
cky 36
clavicle 36
clin@@ 36
comb@@ 36
compaq 36
condom 36
connecting 36
contouring 36
corelle 36
cork 36
crushed 36
crystalline 36
cted 36
damaged 36
discounted 36
divi@@ 36
dog@@ 36
dragon@@ 36
eable 36
elle@@ 36
ene 36
every@@ 36
extractor 36
feline 36
fic@@ 36
finger@@ 36
fiona 36
framed 36
friction 36
frnc 36
garment 36
gd@@ 36
glitz 36
glutax 36
greatest 36
guilty 36
happywallph 36
harmony 36
hatchback 36
haw@@ 36
headed 36
helmets 36
hide 36
himalaya 36
hogwarts 36
homemade 36
ich 36
icons 36
insta 36
instru@@ 36
ionic 36
ishigaki 36
jeep 36
jig@@ 36
journey 36
jumpskirt 36
just@@ 36
kara 36
karen 36
konzert 36
less@@ 36
lipton 36
lj@@ 36
lpg 36
macbeth 36
madrid 36
magnum 36
maxine 36
michelle 36
mtrt 36
murano 36
nal@@ 36
nate 36
natures 36
nhance 36
ollie 36
opal 36
pageant 36
patterns 36
peculiar 36
pee 36
phone@@ 36
pipes 36
plasma 36
pregnancy 36
preparation 36
props 36
put 36
puzzles 36
pv@@ 36
px 36
qnet 36
quadcopter 36
rinse 36
rocher 36
rocks 36
roy 36
roy@@ 36
scales 36
seafood 36
sei@@ 36
selected 36
senka 36
setter 36
shopp 36
sign@@ 36
simcard 36
simpsons 36
some@@ 36
something 36
spar@@ 36
spring@@ 36
starmobile 36
streetwear 36
suspender 36
tagalog 36
tel@@ 36
thomson 36
tied 36
tique 36
tool@@ 36
toothpick 36
twenty 36
typec 36
ull 36
unlimited 36
ure@@ 36
vap@@ 36
vooc 36
weigh@@ 36
whe@@ 36
wika 36
wre@@ 36
yb 36
yna 36
yun 36
yy@@ 36
zer@@ 36
N@@ 35
P@@ 35
aku 35
alyn 35
anie 35
ape 35
asu@@ 35
asymmetrical 35
babyg 35
bagonly 35
bak@@ 35
beats 35
bedside 35
bly 35
bmx 35
btob 35
butane 35
butterscotch 35
bz 35
cardholder 35
cindy 35
cket 35
collectors 35
crossbar 35
cuffed 35
cus 35
dam 35
ddy 35
dee 35
doh 35
erase 35
ertiga 35
eun@@ 35
events 35
extendable 35
fleur 35
floor@@ 35
formulas 35
gb@@ 35
geek 35
georgia 35
gger 35
gogh 35
graphy 35
gunmetal 35
hanna 35
hardtop 35
hollywood 35
hstnn 35
illusion 35
infallible 35
integrated 35
iridium 35
iris 35
ish 35
ith@@ 35
jdm 35
joseph 35
keepers 35
knorr 35
ladi@@ 35
late 35
lazel 35
lga 35
lina 35
lun@@ 35
magni@@ 35
mai 35
marlboro 35
mela 35
miku 35
mists 35
mit 35
mitch 35
mme 35
monarch 35
movement 35
ms@@ 35
mugen 35
nai@@ 35
nel@@ 35
nicer 35
nick 35
nouvo 35
novelty 35
omni@@ 35
oni@@ 35
pans 35
pas 35
paulo 35
pcx 35
petrol 35
pills 35
planer 35
pong 35
portrait 35
prime@@ 35
propeller 35
protec 35
psu 35
psy@@ 35
quart 35
quarter 35
rachel 35
rebecca 35
recovery 35
resi@@ 35
restore 35
rohto 35
satellite 35
sdxc 35
secosana 35
send 35
servings 35
sew 35
shan 35
shredder 35
shure 35
snowflake 35
sockets 35
solotica 35
soon 35
spears 35
spir@@ 35
spoons 35
stro@@ 35
stroke 35
submersible 35
sucker 35
sulwhasoo 35
teabags 35
teething 35
tele@@ 35
textile 35
toast 35
tun@@ 35
tweeter 35
two@@ 35
ufc 35
ush 35
vehicles 35
viva 35
waistband 35
windbreaker 35
woody 35
woofer 35
wu@@ 35
xuebami 35
yale 35
yel@@ 35
yield 35
yuri 35
zhi 35
zoey 35
abel 34
acce@@ 34
acle 34
adjuster 34
african 34
alex@@ 34
alle@@ 34
alph@@ 34
appliances 34
area 34
armrest 34
backlight 34
bacon 34
bae 34
bath@@ 34
bhw 34
bian 34
binlu 34
blazers 34
bleu 34
bol@@ 34
bor 34
braid 34
brook 34
brownie 34
bucks 34
bye 34
caddy 34
carri@@ 34
cause 34
chamois 34
checkerd 34
cheddar 34
christie 34
chrono 34
clasp 34
classical 34
clau@@ 34
coldshoulder 34
collage 34
cont@@ 34
cop@@ 34
course 34
crankcase 34
creamsilk 34
crisp 34
crist@@ 34
croc 34
cutters 34
death@@ 34
detective 34
dollhouse 34
drl 34
eline 34
enchanted 34
enclosure 34
ener@@ 34
epi@@ 34
fat@@ 34
feed 34
fei@@ 34
fn 34
foglight 34
frill 34
gallery 34
gig@@ 34
gluth@@ 34
graham 34
griffin 34
havainas 34
hbd 34
helicopter 34
henry 34
hrv 34
ide 34
ier 34
ingredients 34
inn 34
int@@ 34
inte@@ 34
investment 34
ipadmini 34
iphonexr 34
iro 34
iting 34
itzy 34
jewellery 34
jun 34
kee@@ 34
kelsey 34
kiehl 34
kodak 34
krist@@ 34
kyle 34
lamborghini 34
leigh 34
lids 34
lint 34
loaf 34
lose 34
magnolia 34
maii 34
manufactured 34
marga 34
mech 34
menstrual 34
mercier 34
metro@@ 34
miller 34
near 34
nectarine 34
nudes 34
nw 34
of@@ 34
oid 34
oily 34
ornaments 34
oversea 34
pantyliner 34
papemelroti 34
party@@ 34
patched 34
pawnable@@ 34
physicians 34
ple 34
plex 34
poison 34
poppy 34
punny 34
pz 34
rainy 34
repairing 34
repeater 34
reserve 34
rexona 34
rivet 34
rubbershoes 34
rxr 34
ryzen 34
shoot 34
shooting 34
show@@ 34
silverworks 34
sins 34
sippy 34
smoothie 34
sonia 34
soo@@ 34
stains 34
stretch@@ 34
sunsilk 34
suv 34
sweatshorts 34
tali 34
tease 34
teenage 34
thrift 34
tive 34
tn@@ 34
tons 34
uy 34
watch@@ 34
weight@@ 34
westbrook 34
wra@@ 34
yema 34
yours 34
yoyoso 34
zan 34
zzle 34
O@@ 33
abe 33
ador 33
adore 33
adri@@ 33
ahd 33
alligator 33
allo@@ 33
antibac 33
apo@@ 33
aria 33
ariana 33
armpit 33
astray 33
atin 33
atmosphere 33
bake 33
baruan 33
beginner 33
billabong 33
blankets 33
blast 33
blowout 33
bradley 33
bral@@ 33
buil@@ 33
caseology 33
cassie 33
celeteque 33
cers 33
chief 33
chin@@ 33
cide 33
clay@@ 33
coke 33
colleen 33
conan 33
conceal 33
cooper 33
crossing 33
cruise 33
dang@@ 33
denso 33
dh@@ 33
dimension 33
diver 33
dle 33
donald 33
doz 33
dry@@ 33
earl 33
ejm 33
electroplate 33
ellie 33
embroid 33
ems 33
engraved 33
enne 33
enzyme 33
fir@@ 33
flange 33
fleer 33
footsocks 33
freego 33
freshly 33
frixion 33
fujidenzo 33
gain 33
geo@@ 33
girly 33
glide 33
glucose 33
guit@@ 33
gw@@ 33
hara 33
hourglass 33
houston 33
ibo 33
icm 33
indigo 33
ique 33
irl 33
irregular 33
ist@@ 33
jack@@ 33
jaguar 33
jennie 33
jim 33
ket@@ 33
kool 33
kout 33
ktph 33
kyo@@ 33
lara 33
lattice 33
lds 33
leave 33
leonard 33
les@@ 33
lexi 33
library 33
lier 33
lje 33
lounge 33
luck@@ 33
made@@ 33
main@@ 33
mang@@ 33
mary@@ 33
mascot 33
mauve 33
mber@@ 33
meg 33
memo@@ 33
midoko 33
minimal 33
miz@@ 33
moose 33
movable 33
mrc 33
msh 33
much 33
nav@@ 33
nik 33
noblekids 33
oli 33
omron 33
oriental 33
park@@ 33
parking 33
pear@@ 33
pentel 33
periwinkle 33
pis 33
poli@@ 33
pom 33
pulls 33
putty 33
quinoa 33
raffles 33
ralliart 33
rayon 33
raz@@ 33
refills 33
relx 33
res@@ 33
rsgw 33
runs 33
russell 33
rustic 33
scooper 33
seasoned 33
semi@@ 33
sg@@ 33
shou@@ 33
singing 33
skinlab 33
slam 33
slice 33
specialty 33
spotlight 33
stance 33
stefan 33
stila 33
stine 33
strand 33
table@@ 33
tera 33
thickening 33
thompson 33
thunder@@ 33
tokidoki 33
toppers 33
toronto 33
tuner 33
turband 33
units 33
unity 33
vct 33
veil 33
village 33
weekender 33
wg 33
wii 33
wishes 33
wl@@ 33
write 33
xh 33
yakimoto 33
L@@ 32
aba 32
acu@@ 32
adf 32
airbrush 32
ake 32
alaric 32
aler 32
ameri@@ 32
angry 32
anya 32
anycast 32
aqva 32
archie 32
arr@@ 32
asymmetric 32
avi@@ 32
baf 32
baker 32
baleno 32
bble 32
beach@@ 32
bedtime 32
bells 32
blisty 32
bowling 32
brothers 32
buck@@ 32
campus 32
caribbean 32
carla 32
casino 32
cassandra 32
chable 32
chel@@ 32
compress 32
connection 32
creator 32
cum 32
curvy 32
density 32
dev@@ 32
dha 32
divine 32
dl@@ 32
donruss 32
dual@@ 32
dylan 32
ead 32
ego 32
encore 32
erie 32
executive 32
fabcon 32
faito 32
fel@@ 32
fh 32
fragrant 32
freesia 32
fuji@@ 32
gamuza 32
gence 32
geronimo 32
gerry 32
godzilla 32
going 32
gplus 32
gra 32
hazeshop 32
hersheys 32
holi@@ 32
horizon 32
hydrogel 32
hygiene 32
hyun 32
illu@@ 32
imp@@ 32
inal 32
inang 32
infusion 32
instabright 32
jama 32
jinju 32
jol@@ 32
jonaxx 32
koso 32
lla 32
longrich 32
luckin 32
lumens 32
lunar 32
macrame 32
mage 32
magnifier 32
mara 32
mavic 32
mmies 32
mochi 32
mortal 32
mtr 32
mxi 32
nano@@ 32
nath@@ 32
newyork 32
ntc 32
nut@@ 32
occas@@ 32
oh@@ 32
ole 32
omaga 32
origins 32
oro 32
osmo 32
oy 32
padding 32
pals 32
patterson 32
paws 32
pedicure 32
pekas 32
piso 32
pix 32
plan 32
pore@@ 32
pos 32
pregnant 32
prevent 32
primark 32
primary 32
private 32
promise 32
psi 32
pudding 32
puffs 32
quantum 32
rail 32
raven 32
recording 32
rei 32
rhi@@ 32
rid 32
riley 32
rollerball 32
rrj 32
rta 32
sac@@ 32
sace 32
saf@@ 32
sailormoon 32
school@@ 32
schoolbag 32
seas@@ 32
secure 32
september 32
shoul@@ 32
siren 32
sleveless 32
slip@@ 32
slr 32
smashbox 32
softband 32
soles 32
sse@@ 32
stacking 32
sterile 32
terminal 32
theater 32
then 32
then@@ 32
thief 32
thinkpad 32
trees 32
triton 32
tuxedo 32
twopiece 32
uro 32
vivi 32
vk 32
vtech 32
warning 32
watt 32
waves 32
wei 32
wei@@ 32
xion 32
xtra 32
xz 32
yet 32
T@@ 31
aa@@ 31
abo@@ 31
ade@@ 31
aller@@ 31
aluminium 31
aman 31
amor 31
arpege 31
atten@@ 31
aur@@ 31
aussie 31
balanced 31
banks 31
bas 31
bata 31
biking 31
blake 31
blaze 31
booklet 31
bos 31
bumble 31
butterflies 31
cameron 31
cheesecake 31
chimmy 31
chole@@ 31
chon 31
cici 31
coelho 31
colour@@ 31
conce@@ 31
conver@@ 31
conversion 31
cor 31
core@@ 31
coverup 31
crane 31
crate 31
dandelion 31
ddle 31
dermacol 31
devo@@ 31
dexe 31
diamante 31
digest 31
dipbrow 31
dor 31
drama 31
drypers 31
eee 31
eff@@ 31
effector 31
ely@@ 31
eno 31
entrance 31
entry 31
ergonomic 31
essen@@ 31
exchange 31
fai@@ 31
falling 31
fav 31
favorites 31
fearless 31
feeling 31
ffle 31
fibre 31
fingers 31
fishnet 31
fleetmax 31
freshner 31
furious 31
furla 31
gamosa 31
gir@@ 31
gluco@@ 31
gone 31
groot 31
guardians 31
gui@@ 31
half@@ 31
hikari 31
icosmetica 31
impro@@ 31
inch@@ 31
inclusive 31
intra 31
itas 31
jjs 31
juan 31
juli@@ 31
justin 31
kie@@ 31
kily 31
kindergarten 31
kir@@ 31
kiwi 31
komine 31
komodo 31
lbb 31
lebelage 31
lence 31
lig@@ 31
loops 31
louise 31
macadamia 31
madison 31
master@@ 31
matter 31
mented 31
moistfull 31
mots 31
mun 31
muscletech 31
nak@@ 31
natur@@ 31
negotiable 31
nemo 31
nf 31
nourish 31
olaf 31
oli@@ 31
ono@@ 31
oud 31
overwatch 31
panty@@ 31
paperang 31
parallel 31
password 31
pawn@@ 31
percy 31
pie@@ 31
pink@@ 31
poe@@ 31
prep 31
presen@@ 31
queen@@ 31
quiksilver 31
ramyun 31
roblox 31
rockets 31
roof 31
ryxskin 31
sad 31
saga 31
sala 31
sanitizing 31
scrat@@ 31
scrubber 31
scu@@ 31
shadows 31
shf 31
shrimp 31
six@@ 31
skintouch 31
sling@@ 31
smar@@ 31
spa@@ 31
spanish 31
spokes 31
stansmith 31
stant 31
stealth 31
step@@ 31
susan 31
sym 31
tapioca 31
tg@@ 31
tiesides 31
totally 31
ttle@@ 31
txt 31
ulzzang 31
uma 31
underwater 31
vanessa 31
vegetarian 31
virginity 31
vitam@@ 31
vn 31
vu@@ 31
whisky 31
willow 31
xin 31
yon 31
zl 31
zu 31
abdomen 30
acc 30
adilette 30
agent 30
aline 30
ande@@ 30
andre@@ 30
apruva 30
aquatic 30
att@@ 30
attached 30
atv 30
ax@@ 30
bakeware 30
barcode 30
benz 30
bigsize 30
bija 30
biztree 30
bourke 30
bubblegum 30
bumebime 30
bustier 30
busy 30
cabana 30
cali@@ 30
camcorder 30
cent 30
chapter 30
checker 30
chew@@ 30
cking 30
cms 30
coachella 30
continental 30
cost@@ 30
covid 30
croco 30
dale 30
decker 30
decool 30
defen@@ 30
designplus 30
despicable 30
diab@@ 30
dine 30
dna 30
drawers 30
dre 30
dresser 30
editions 30
enriched 30
envelopes 30
epoch 30
eric 30
erry 30
esme 30
essie 30
fam@@ 30
feathers 30
flirt 30
foglamp 30
fon@@ 30
gang@@ 30
gatsby 30
ged 30
gigi 30
godox 30
goo 30
greeting 30
gsw 30
guil@@ 30
hairbows 30
hamilton 30
hamper 30
haven 30
hk@@ 30
holster 30
icks 30
ida 30
individually 30
infl@@ 30
iri@@ 30
ivana 30
january 30
jetflash 30
jibbitz 30
joggers 30
julong 30
jung 30
jute 30
jvt 30
kad@@ 30
kao 30
karadium 30
kathryn 30
katrina 30
kimchi 30
kj 30
kne@@ 30
lacy 30
ladladlandph 30
lady@@ 30
lamaze 30
lemongrass 30
lev@@ 30
lewis 30
lings 30
locker 30
log@@ 30
looking 30
ls@@ 30
lulu 30
lz 30
maca 30
maxglow 30
mdr 30
medicinal 30
meric 30
metromanila 30
mfsunnies 30
micron 30
mlb 30
mona 30
mons 30
mori 30
morty 30
muse 30
nan 30
needles 30
nuby 30
nx 30
onlyyouth 30
overun 30
palawan 30
papers 30
pay 30
pba 30
perkins 30
phen@@ 30
pier@@ 30
pms 30
points 30
primera 30
printable 30
produ@@ 30
program@@ 30
projection 30
puffed 30
purchase 30
py 30
qube 30
qy 30
ral@@ 30
regi@@ 30
register 30
resealable 30
retinol 30
robes 30
rox@@ 30
ruched 30
rules 30
sai 30
shabu 30
shane 30
shapewear 30
shiro 30
shopp@@ 30
silica 30
skins 30
sooper 30
spectrum 30
spyker 30
squareneck 30
sri@@ 30
sses 30
strobe 30
stuff@@ 30
sulfate 30
summer@@ 30
supplements 30
television 30
tension 30
throat 30
timex 30
tix 30
tongue 30
touch@@ 30
tracy 30
tsubaki 30
tted 30
tual 30
tyre 30
ubiquiti 30
unsweetened 30
urs 30
vag@@ 30
vein 30
velvetines 30
ventilation 30
vero 30
vinci 30
vity 30
voucher 30
washcloth 30
webcam 30
west@@ 30
woods 30
xd 30
xlarge 30
xmax 30
xqt 30
yaris 30
yle 30
zoya 30
è@@ 30
aape 29
adjust 29
aesop 29
again 29
alchemist 29
alizer 29
aller 29
alyssa 29
amar@@ 29
anas 29
anker 29
api 29
arab@@ 29
arch@@ 29
atom 29
aukey 29
authorized 29
azur 29
bagoong 29
barebody 29
barely 29
bet@@ 29
birken 29
boards 29
bonbon 29
break@@ 29
bulldog 29
buy@@ 29
cables 29
camry 29
carol 29
cas 29
cavaliers 29
central 29
chest@@ 29
chilli 29
cial 29
citizen 29
cocoberry 29
colourful 29
coq 29
corned 29
corrugated 29
cot 29
counting 29
crimson 29
cs@@ 29
cudd@@ 29
cuffs 29
dashing 29
deodorizer 29
desig@@ 29
destash 29
diaries 29
dic@@ 29
dinosaurs 29
earloop 29
emboss 29
exfoliant 29
exotic 29
exquisite 29
fect 29
fifi 29
files 29
filipiniana 29
finest 29
finished 29
finn 29
flexi 29
flounce 29
follow 29
fpv 29
francesca 29
freak 29
friday 29
fudge 29
fujitsu 29
fullface 29
glutalight 29
grit 29
grizzly 29
gst 29
hak@@ 29
hea 29
highlighters 29
hinges 29
hugot 29
hunt 29
ill@@ 29
incredible 29
intal 29
ites 29
jan 29
jar@@ 29
jelt 29
jojoba 29
jordana 29
kanken 29
katsa 29
kinder 29
kita 29
kl@@ 29
kt@@ 29
kuroko 29
lamps 29
lans@@ 29
latitude 29
lav@@ 29
layout 29
lepin 29
lian 29
lili@@ 29
linda 29
liptints 29
livestreaming 29
lls 29
lucy 29
lumi@@ 29
lunchbag 29
luxcent 29
magic@@ 29
maiden 29
maldita 29
mango@@ 29
marmont 29
masked 29
mature 29
mediapad 29
mess 29
microns 29
milkca 29
minimizer 29
miss@@ 29
mj@@ 29
mobile@@ 29
modeling 29
monte 29
mping 29
mummy 29
mus 29
mutarru 29
nacific 29
narrow 29
naturacentials 29
never@@ 29
nex 29
ning@@ 29
nip 29
november 29
octa@@ 29
olo 29
onia 29
oria 29
oscar 29
osram 29
outside 29
ow 29
packbag 29
part@@ 29
peri@@ 29
phase 29
phat 29
pillowcases 29
pitta 29
poin@@ 29
polisher 29
premi@@ 29
prreti 29
rectifier 29
ree@@ 29
reg 29
rich@@ 29
rier 29
rodeo 29
rub@@ 29
rudu 29
safe@@ 29
salve 29
sanji 29
sausage 29
say@@ 29
secondhand 29
seconds 29
serve 29
shad@@ 29
shat@@ 29
sheath 29
shirly 29
shment 29
shuta 29
similac 29
sincerity 29
sla@@ 29
slimfit 29
slogan 29
squeaky 29
sticker@@ 29
stiletto 29
ston 29
swa@@ 29
tassels 29
teach@@ 29
ted@@ 29
textbook 29
tf@@ 29
thickened 29
thir@@ 29
thumbler 29
thy@@ 29
tilt 29
tle@@ 29
topps 29
track@@ 29
tress 29
tul@@ 29
turtles 29
twice@@ 29
uhd 29
underarmour 29
valiant 29
vas@@ 29
velour 29
vina 29
virtual 29
visible 29
watchportal 29
watsons 29
whitener 29
wol@@ 29
xlr 29
yj 29
yk 29
ym 29
yummy 29
yx 29
zai 29
aba@@ 28
abby 28
agi 28
aircraft 28
alco@@ 28
along 28
alt 28
anger 28
antine 28
asse@@ 28
atlas 28
attr@@ 28
avr 28
barbara 28
bca 28
beddings 28
bennett 28
bert 28
beth 28
bia 28
birkin 28
blush@@ 28
bm@@ 28
bnwot 28
bobson 28
bonus 28
broad@@ 28
brushless 28
bsn 28
buzz 28
cache 28
cali 28
camou 28
canned 28
cath@@ 28
cellular 28
cerave 28
cere@@ 28
chekered 28
chinkee 28
ciss 28
cleanse 28
coas@@ 28
collins 28
commander 28
constellation 28
coupler 28
crafting 28
cv 28
demi 28
developer 28
dic 28
digit 28
dio@@ 28
dmax 28
dra 28
dul@@ 28
dusk 28
ebene 28
ecosport 28
eliminator 28
elo 28
embo@@ 28
embroider 28
ended 28
energizer 28
enhance 28
ents 28
environmental 28
fallen 28
fashionice 28
fds@@ 28
financial 28
flags 28
flam@@ 28
florence 28
flute 28
freshwater 28
frontier 28
gala@@ 28
gand@@ 28
geo 28
gers 28
ggs 28
ghoul 28
giving 28
gkk 28
glade 28
glas 28
grandia 28
graph 28
guerisson 28
hab@@ 28
hac 28
handles 28
hatsune 28
hau@@ 28
hear@@ 28
held 28
hello@@ 28
hemp 28
hg@@ 28
hinge 28
hui 28
hungry 28
ips 28
isabelle 28
isol@@ 28
ital 28
ito@@ 28
izer 28
kandp 28
kath@@ 28
kawhi 28
kevler 28
kickstand 28
kis 28
kittens 28
ktv 28
kuro@@ 28
lactation 28
lai@@ 28
leak 28
lesportsac 28
lettes 28
lex@@ 28
liv 28
locked 28
loft 28
looks 28
luke 28
luncheon 28
mak@@ 28
maxell 28
mfjewelry 28
micari 28
mined 28
mise 28
moist@@ 28
mounting 28
muddy 28
nal 28
nas 28
naturale 28
nau@@ 28
naughty 28
nd@@ 28
neca 28
nib 28
nomad 28
nori 28
october 28
ono 28
option 28
outfits 28
overalls 28
pand@@ 28
paren@@ 28
parent 28
penelope 28
pili 28
pito 28
pld 28
pocketbook 28
popp@@ 28
pple 28
pranela 28
pristine 28
prize 28
promag 28
psvita 28
rays 28
read@@ 28
reality 28
realmex 28
reese 28
relaxing 28
renewing 28
resident 28
restaurant 28
restocked 28
rucksack 28
sabina 28
samplers 28
sandugo 28
savers 28
saya 28
scre@@ 28
scripture 28
seatcover 28
see@@ 28
sentra 28
sequ@@ 28
shoelace 28
simpli@@ 28
sisters 28
skt 28
slate 28
slay 28
sleep@@ 28
snickers 28
sofi@@ 28
spea@@ 28
splen@@ 28
ssam@@ 28
sten 28
strand@@ 28
strengthening 28
stripper 28
sunvit 28
superbklean 28
superheroes 28
symbol 28
tablea 28
tain 28
talc 28
tard 28
teats 28
tica 28
toning 28
topp@@ 28
triangular 28
trinity 28
true@@ 28
tulip 28
twisting 28
ucc 28
ukelele 28
une 28
urine 28
uring 28
uso 28
vince 28
vise 28
vivi@@ 28
vu 28
waikiki 28
wearing 28
wers 28
whiskas 28
wholesaler 28
wic@@ 28
xin@@ 28
xinjia 28
zaku 28
absolu 27
acidic 27
aged 27
akes 27
aladdin 27
amin@@ 27
ange 27
animated 27
ano@@ 27
ante 27
aqua@@ 27
astronaut 27
aves 27
bagshop 27
bare@@ 27
bias 27
bib@@ 27
bler 27
block@@ 27
bloody 27
blp 27
bonnie 27
bore 27
bratz 27
brite 27
brocade 27
bulbs 27
bumgenius 27
bury 27
bus@@ 27
calorie 27
camp 27
cardcaptor 27
chafing 27
chains 27
chakra 27
cheeks 27
cherie 27
chick 27
chun@@ 27
cleveland 27
coast 27
coin@@ 27
colla@@ 27
concrete 27
confe@@ 27
constru@@ 27
cora 27
cosme@@ 27
cry 27
crème 27
cv@@ 27
dana 27
decor@@ 27
direct@@ 27
directional 27
disp@@ 27
doggy 27
doo@@ 27
doors 27
downlight 27
draw@@ 27
drift 27
dura 27
eclipse 27
eleven 27
elin 27
emi@@ 27
essences 27
eternal 27
eve@@ 27
examination 27
experia 27
fantasies 27
faye 27
fir 27
flair 27
flav@@ 27
found@@ 27
four@@ 27
frequency 27
garanimals 27
geena 27
germ 27
gle 27
gma 27
gods 27
gon@@ 27
grammar 27
granules 27
graphite 27
greentea 27
gsx 27
headsets 27
horror 27
ichiban 27
ille@@ 27
ilog 27
ils 27
ined 27
infused 27
inje@@ 27
insipio 27
inten@@ 27
iso 27
jel@@ 27
jenner 27
jewels 27
joyo 27
jto 27
kan 27
kendall 27
lala 27
laurel 27
leen 27
litchi 27
lits 27
loud 27
mable 27
machines 27
mad@@ 27
malt 27
mamas 27
manufacturer 27
metalic 27
meyer 27
milliliters 27
monitoring 27
mou@@ 27
muster 27
mxr 27
nac 27
nirvana 27
northface 27
nutritional 27
onlineshop 27
oper@@ 27
orginal 27
oréal 27
ou 27
ova 27
oxi@@ 27
paramore 27
parfums 27
pashmina 27
paul@@ 27
perfu@@ 27
pinas 27
pistach@@ 27
plusize 27
polly 27
polycotton 27
position 27
prewalker 27
prosperity 27
ptop 27
qual@@ 27
quet 27
racks 27
refining 27
ress 27
retailer 27
reve 27
rian 27
ries 27
rire 27
riverdale 27
royal@@ 27
rue 27
ryan 27
sabo 27
salt@@ 27
sang@@ 27
sensational 27
shie 27
shots 27
singer 27
smashing 27
smock 27
snowflakes 27
soul@@ 27
sparco 27
sportsbra 27
spr@@ 27
ssions 27
stack@@ 27
surround 27
tails 27
tara 27
tek@@ 27
terno@@ 27
tery 27
tes@@ 27
tex@@ 27
they 27
thigh 27
titans 27
tom@@ 27
toy@@ 27
trans 27
treasures 27
trip 27
trust 27
ufo 27
unde@@ 27
usborne 27
vh 27
violin 27
volcom 27
wavy 27
weatherproof 27
williams 27
wires 27
ww 27
wynn 27
xia 27
xing 27
yalex 27
zombie 27
zon@@ 27
accen@@ 26
active@@ 26
aira 26
alized 26
already 26
ancient 26
andre 26
ascen@@ 26
astringent 26
astro@@ 26
asy 26
ators 26
aventurine 26
awa@@ 26
background 26
bakery 26
bathtub 26
bbs 26
beachkins 26
beta 26
bieber 26
bikers 26
birth@@ 26
blade@@ 26
booth 26
bras@@ 26
bre 26
breasted 26
breathe 26
brera 26
bridesmaid 26
broad 26
btm 26
buck 26
bull@@ 26
buyer 26
canmake 26
capac@@ 26
carbonate 26
cardboard 26
cardstock 26
cate 26
center@@ 26
centrix 26
chat 26
chocol@@ 26
chok 26
chr 26
chu 26
cj@@ 26
ckles 26
closure 26
colorstay 26
coloured 26
colu@@ 26
cp@@ 26
craf@@ 26
creams 26
cting 26
cup@@ 26
custo@@ 26
dalandan 26
danielle 26
davao 26
dded 26
decathlon 26
deepcool 26
deoproce 26
desi@@ 26
dew@@ 26
dick@@ 26
diff@@ 26
direction 26
dive 26
division 26
dont 26
dowell 26
dryfit 26
duck@@ 26
duct 26
dumbbell 26
ebike 26
engrave 26
engraving 26
enlar@@ 26
explosive 26
falcon 26
fansite 26
fierce 26
fraiche 26
frankincense 26
gardenia 26
garments 26
girbaud 26
girlfriend 26
glassware 26
gles 26
glutam@@ 26
graduation 26
grande 26
greencross 26
grs 26
gth 26
guns 26
hana 26
haze 26
helper 26
highlighting 26
highly 26
houseware 26
hss 26
hypo 26
ich@@ 26
iko 26
illustrated 26
indo@@ 26
invictus 26
iphonexs 26
jean@@ 26
jerseys 26
john@@ 26
jour@@ 26
juniors 26
jurassic 26
kak@@ 26
kapote 26
kari 26
kathy 26
kaye 26
kenko 26
kigurumi 26
kihno 26
kst 26
laid 26
lamin@@ 26
lance@@ 26
leapfrog 26
lexing 26
licensed 26
lifetime 26
lime@@ 26
lock@@ 26
lotions 26
lowback 26
ltd 26
luxxe@@ 26
madeca 26
manuka 26
maru 26
matte@@ 26
maui 26
maver@@ 26
maxwell 26
mcdo 26
mct 26
megap@@ 26
melimelo 26
mendoza 26
micheal 26
milk@@ 26
miso 26
mission 26
mitt 26
mizuno 26
moisturi@@ 26
monica 26
monte@@ 26
msa 26
murang 26
mustela 26
napkins 26
nectar 26
nee 26
neem 26
neil 26
nido 26
nightmare 26
nike@@ 26
nothing 26
obsidian 26
older 26
otterbox 26
overlay 26
oz@@ 26
paci@@ 26
pantyhose 26
pebble 26
percent 26
perm 26
phab 26
phonecase 26
phyto 26
pique 26
pir@@ 26
pixma 26
plo@@ 26
pneumatic 26
polit@@ 26
pompoms 26
pper@@ 26
profe@@ 26
proo@@ 26
prun@@ 26
ption 26
pwe@@ 26
quin@@ 26
rapoo 26
reflex 26
rejuven@@ 26
restor@@ 26
revi@@ 26
rics 26
rison 26
road@@ 26
robo@@ 26
role 26
rounds 26
row@@ 26
rubi 26
rule 26
sable 26
sana 26
sasha 26
screen@@ 26
scs 26
sette 26
sie@@ 26
sio 26
siopao 26
snap@@ 26
snowman 26
soap@@ 26
society 26
soleil 26
soya 26
squee@@ 26
stimulator 26
stitching 26
strapped 26
swag 26
tang 26
techtrance 26
third 26
tiered 26
tional 26
tnx 26
tofu 26
touchpad 26
trafaluc 26
trapal 26
trek 26
trucks 26
truth 26
tuffgear 26
tweed 26
ual 26
ultima 26
variation 26
vron 26
vx 26
wahl 26
waltz 26
wanted 26
wintermelon 26
within 26
workpro 26
xiao@@ 26
yeast 26
ying 26
znb 26
zooey 26
zurc 26
zza 26
aceking 25
activities 25
acupuncture 25
agri 25
alis 25
andriod 25
angelica 25
annual 25
aph@@ 25
arcade 25
arch 25
aro 25
assemble 25
assy@@ 25
bab 25
bark 25
bber 25
becado 25
beeswax 25
bikes 25
bioline 25
birken@@ 25
blink 25
blooms 25
bly@@ 25
boa 25
bobs 25
bomb@@ 25
buffing 25
builder 25
buldak 25
bundled 25
calendula 25
capiz 25
capo 25
carryall 25
carved 25
caterpillar 25
chargers 25
cheeky 25
chlorine 25
christ 25
chua 25
cinnamoroll 25
cology 25
columbia 25
convenient 25
cooky 25
corps 25
correcting 25
crypton 25
ction@@ 25
ctors 25
cuticle 25
daks 25
darci 25
davi@@ 25
deadly 25
deformation 25
dex@@ 25
dore@@ 25
eczema 25
edens 25
ellen 25
elli 25
embellished 25
ene@@ 25
engineer 25
eping 25
equalizer 25
europe 25
exia 25
farm@@ 25
february 25
fine@@ 25
fisher@@ 25
fj 25
flared 25
flux 25
focallure 25
frogsuits 25
fructis 25
funnel 25
gary 25
gate@@ 25
gener@@ 25
generator 25
genesis 25
genius 25
geometry 25
gif@@ 25
given 25
goodnight 25
graco 25
grat@@ 25
guc 25
gunpla 25
handi@@ 25
handsoap 25
hexagonal 25
hey 25
hobonichi 25
hoy 25
hum@@ 25
hunger 25
hurley 25
illuminated 25
ilo 25
impor@@ 25
injection 25
inks 25
iwhite 25
jak@@ 25
jill 25
jing@@ 25
jk@@ 25
jona 25
jovan 25
jyun 25
kawa 25
knapsack 25
known 25
kojie 25
kose 25
ksaudigold@@ 25
kus@@ 25
lao 25
lasercut 25
laughing 25
lax 25
legion 25
lem 25
lipkit 25
liter@@ 25
litre 25
lyn@@ 25
mach 25
macy 25
mallows 25
margaret 25
masquerade 25
masters 25
melted 25
meme 25
ment@@ 25
meteor 25
miami 25
midri@@ 25
might 25
mika@@ 25
milkshake 25
mod@@ 25
moti@@ 25
motomo 25
mv 25
nail@@ 25
narnia 25
natal 25
naturactor 25
neogen 25
ng@@ 25
oasis 25
ola@@ 25
ole@@ 25
olymp@@ 25
onwards 25
opaque 25
ord 25
orocan 25
ost 25
oxidant 25
pac 25
papa 25
papas 25
par 25
pasalubong 25
passion@@ 25
path 25
pave 25
perfectly 25
person@@ 25
pirates 25
pleats 25
plushies 25
pokémon 25
polar@@ 25
polvoron 25
preschool 25
prescription 25
pretty@@ 25
prone 25
protectant 25
pss 25
puller 25
rado 25
rakk 25
rence 25
rev@@ 25
review 25
ringlight 25
rockstud 25
roi@@ 25
roman@@ 25
rugs 25
sae 25
sak 25
sardines 25
scand@@ 25
scars 25
scho@@ 25
scrapbooking 25
seren@@ 25
serena 25
seven@@ 25
shinee 25
shirt@@ 25
shre@@ 25
sic 25
skippy 25
skybox 25
slingback 25
smacker 25
snakeskin 25
sorting 25
soybean 25
spld 25
spoo@@ 25
squash 25
ssive 25
starfish 25
stea@@ 25
straw@@ 25
stret@@ 25
tail@@ 25
tally 25
tears 25
terminator 25
thayers 25
thrasher 25
thri@@ 25
thro@@ 25
tical 25
tig 25
tightening 25
toasted 25
tomat@@ 25
tors 25
tracking 25
transfor@@ 25
tric 25
trin@@ 25
turn@@ 25
twine 25
until 25
urvan 25
using 25
vacation 25
vani@@ 25
vegeta 25
vida 25
villa 25
vl 25
vn@@ 25
vv 25
weison 25
whit 25
wok 25
wpf 25
xu 25
xw 25
yao 25
yco 25
yeon 25
yin 25
yopokki 25
ysp 25
zers 25
zest 25
ña 25
ö@@ 25
abdominal 24
accord 24
acey 24
adjustment 24
aer@@ 24
aichun 24
allergenic 24
alluring 24
alone 24
alphaland 24
alta 24
anne@@ 24
antonio 24
appro@@ 24
ashi@@ 24
asy@@ 24
athle@@ 24
atures 24
auth@@ 24
aven@@ 24
aways 24
bacteria 24
bei 24
beryl 24
bes 24
binding 24
blen@@ 24
bnc 24
bobb@@ 24
bobble 24
bounty 24
boyz 24
bread@@ 24
breastpump 24
breathing 24
broom 24
bros 24
bw@@ 24
cancelling 24
cancer 24
carrie 24
cartridges 24
cateye 24
celestial 24
cello 24
ceramide 24
certificate 24
chandelier 24
charm@@ 24
cheer@@ 24
child@@ 24
chinos 24
chocker 24
cinema 24
circles 24
cked 24
clare 24
cn@@ 24
comp 24
compressed 24
condor 24
corsair 24
costu@@ 24
cow@@ 24
cracked 24
cto 24
cua 24
dai 24
dare 24
dashiki 24
dau@@ 24
deco@@ 24
defin@@ 24
dentist 24
dered 24
descendants 24
dhendhenshop 24
dian 24
dilis 24
discover 24
discovery 24
dney 24
donal@@ 24
dres 24
driven 24
drool 24
earbud 24
edc 24
especial 24
evapor@@ 24
extras 24
eyebrows 24
fasion 24
fiber@@ 24
fibisco 24
flavoring 24
forehead 24
fortified 24
francisco 24
fred 24
fz 24
galactomyces 24
genic 24
ggle 24
glutagen 24
graph@@ 24
grounds 24
gugo 24
gym@@ 24
hams 24
heimish 24
henne@@ 24
heroine 24
hippo 24
hjc 24
holding 24
hu 24
ices 24
ico@@ 24
iler 24
inary 24
inda 24
inga 24
ini@@ 24
inno@@ 24
innov@@ 24
insole 24
intro 24
iphonexsmax 24
ista 24
jackie 24
jagthug 24
jap@@ 24
jart 24
jenga 24
jomalone 24
jord@@ 24
julie 24
kev@@ 24
kil@@ 24
kinis 24
kissed 24
klean 24
knock 24
kyt 24
lace@@ 24
laine 24
language 24
leap 24
leds 24
lepuff 24
ley@@ 24
lomo@@ 24
lucky@@ 24
lure 24
lychee 24
macar@@ 24
magi@@ 24
mah@@ 24
manifold 24
marri@@ 24
matthe@@ 24
maybeline 24
mbs 24
mcfarlane 24
megalast 24
meisons 24
meri@@ 24
metallica 24
mexican 24
mgs 24
mies 24
mile 24
milleni@@ 24
miniatures 24
minidress 24
mirro@@ 24
mna 24
molds 24
molten 24
momma 24
mond 24
montessori 24
motif 24
mtk 24
mulberry 24
muslin 24
nag@@ 24
names 24
nesoberi 24
nickel 24
nis 24
nister 24
nss 24
numerals 24
nvidia 24
oak 24
offwhite 24
ohm 24
oliver 24
opi 24
organ 24
organizers 24
osaki 24
osh 24
oyster 24
packet 24
packets 24
palazzo 24
pallet 24
parti@@ 24
peas 24
petron 24
phoebe 24
phon 24
photopaper 24
pictures 24
planter 24
poo 24
porsche 24
pout 24
prai@@ 24
preppy 24
procare 24
pusheen 24
pussy 24
quality@@ 24
quelch 24
quicksilver 24
rach@@ 24
rag@@ 24
reel 24
relic 24
repackage 24
replace 24
richard 24
rihanna 24
rotatable 24
roth 24
rubbing 24
russe 24
sanchez 24
saurus 24
script 24
sdcz 24
sensation 24
serpentina 24
sharpie 24
shatterproof 24
shinny 24
shippuden 24
shovel 24
shun 24
sle 24
slipon 24
smoked 24
snowy 24
sole@@ 24
som 24
soo 24
soprano 24
squir@@ 24
ssb 24
ssc 24
ssss@@ 24
stable 24
starts 24
stimul@@ 24
stor 24
string@@ 24
struck 24
stur@@ 24
subaru 24
sue 24
sulit 24
sumsung 24
supergirl 24
tanktop 24
tapered 24
taro 24
tarte@@ 24
tatcha 24
tay@@ 24
temper 24
tener 24
tessa 24
thology 24
thongs 24
thr@@ 24
threaded 24
tired 24
tneck 24
toe@@ 24
topic 24
tot 24
tourmaline 24
trekking 24
trolly 24
trumpet 24
tsu 24
tubbies 24
unique@@ 24
unt 24
ute 24
valentus 24
victor 24
vio@@ 24
vw 24
wade 24
wed 24
whirlpool 24
wilton 24
wily 24
workbooks 24
yaki 24
yc 24
young@@ 24
yuan 24
yurry 24
zm 24
zn 24
zoeva 24
abbott 23
abonne 23
aces 23
actor 23
ais 23
alangan 23
albom 23
ampalaya 23
anastacia 23
angled 23
aplus 23
applique 23
archer 23
aso@@ 23
ator@@ 23
atos 23
audi 23
avery 23
babyland 23
baekhyun 23
bai@@ 23
bandi@@ 23
barbeque 23
barrier 23
beep 23
beli@@ 23
bene@@ 23
blt 23
bluehouse 23
blur@@ 23
boardshorts 23
boba 23
bodywash 23
boned 23
bookshelf 23
boysen 23
branch 23
brazillian 23
brightest 23
broadway 23
brooke 23
brun@@ 23
buckles 23
caged 23
calf 23
caplets 23
card@@ 23
catholic 23
cedarwood 23
chel 23
chry@@ 23
cjve 23
clamps 23
cling 23
cloths 23
coffe 23
cove 23
crafted 23
crewneck 23
crossgrain 23
crossover 23
cyber 23
dac@@ 23
dallas 23
dant 23
dbs 23
dbz 23
dea 23
december 23
dence 23
detailed 23
detailing 23
dianne 23
difference 23
dip@@ 23
dipper 23
dirt 23
dis 23
dummy 23
easysoft 23
egy@@ 23
embelli@@ 23
enti@@ 23
eqt 23
essensa 23
everlasting 23
expe@@ 23
experience 23
eyo@@ 23
fading 23
fern@@ 23
fiberglass 23
fier 23
fk 23
flashcards 23
flavour 23
fleshlight 23
flowery 23
fort 23
fortnite 23
frameless 23
fren@@ 23
gashapon 23
gba 23
gddr 23
gdplus 23
gemini 23
gger@@ 23
ghter 23
gillette 23
glutamax 23
glutapower 23
glutha 23
god@@ 23
granola 23
gutter 23
hachi 23
halogen 23
handsome 23
heal@@ 23
heartstrings 23
hh@@ 23
hip@@ 23
hit 23
hou 23
hua 23
hub@@ 23
human@@ 23
ili 23
ilove@@ 23
imari 23
improved 23
indi@@ 23
instruments 23
irdy 23
iron@@ 23
jabra 23
janet 23
jaw 23
jig 23
jor@@ 23
joyce 23
kapeng 23
kari@@ 23
karl 23
kidz 23
koreanfashion 23
kou 23
kristine 23
labiotte 23
laila 23
lak@@ 23
lalaloopsy 23
lash@@ 23
lavatory 23
lazypod 23
leak@@ 23
leche 23
ledsign 23
lemon@@ 23
leng 23
lexington 23
lica 23
lington 23
lipz 23
livestream 23
loaded 23
logi@@ 23
logical 23
loloph 23
loo 23
luc@@ 23
lumbar 23
magaz@@ 23
maggie 23
mang 23
martens 23
masturbation 23
mba 23
mbled 23
mechanism 23
megan 23
mela@@ 23
melan@@ 23
meless 23
merrysun 23
metrosunnies 23
mijia 23
milestone 23
milka 23
milwaukee 23
mine@@ 23
mirrorless 23
mitchell 23
mium 23
mng 23
modified 23
molly 23
monaco 23
monomola 23
mont@@ 23
moo@@ 23
mothers 23
msc 23
mulan 23
multimeter 23
mumu 23
nata 23
naturally 23
negosyo 23
nh 23
niv 23
nord 23
nuk 23
nuskin 23
oled 23
opulent 23
ore@@ 23
oster 23
parfois 23
pasjel 23
pastillas 23
patricia 23
pellet 23
pepero 23
pere@@ 23
pered 23
perfector 23
philipp@@ 23
phonics 23
plain@@ 23
pleat 23
porefessional 23
poten@@ 23
powerline 23
powerpuff 23
pulu@@ 23
punching 23
pyrex 23
quen@@ 23
quote 23
radeon 23
rant 23
raptor 23
rav 23
raven@@ 23
really 23
research 23
ricci 23
rid@@ 23
rightpack 23
rip@@ 23
rubi@@ 23
rz 23
sacred 23
salicylic 23
saliva 23
sanicare 23
santé 23
scal@@ 23
scorpio 23
scru@@ 23
self@@ 23
shepherd 23
sho 23
showa 23
shs 23
sigma 23
signs 23
sim@@ 23
sissy 23
skn 23
skywalker 23
slam@@ 23
sliver 23
snaps 23
sne@@ 23
snsd 23
som@@ 23
soulty 23
spagetti 23
sprin@@ 23
sser 23
sso@@ 23
stal@@ 23
steel@@ 23
stitched 23
stro 23
stv 23
sugardolls 23
sweatshirts 23
sweeper 23
swipe 23
tabletop 23
taehyung 23
tain@@ 23
tanya 23
tbc 23
tcg 23
template 23
tess 23
thai@@ 23
than@@ 23
theo@@ 23
threads 23
thug 23
tik 23
tions 23
tis@@ 23
tomorrow 23
trident 23
tsa 23
ttl 23
turbans 23
turkey 23
twinings 23
twister 23
ultraso@@ 23
ultraviolet 23
ultron 23
ume 23
ural 23
vagina 23
vca 23
velvety 23
victorian 23
vis 23
voyager 23
wear@@ 23
weeks 23
wel 23
whole@@ 23
wicked 23
wire@@ 23
wish@@ 23
wreath 23
wyer 23
xunod 23
xv 23
yaoi 23
yun@@ 23
zealand 23
zipback 23
M@@ 22
aches 22
adam@@ 22
adul@@ 22
ager 22
airs 22
aking 22
ako@@ 22
alliance 22
alternative 22
amazonian 22
amelia 22
ample 22
amway 22
ana@@ 22
anatomy 22
ander@@ 22
another 22
aprilskin 22
aroma@@ 22
arrive 22
arthur 22
ateneo 22
aunthentic 22
author 22
avai@@ 22
availa@@ 22
babyboy 22
backlit 22
badia 22
bago 22
baru 22
basahan 22
bbc 22
beyouthiful 22
blended 22
blitz 22
blues 22
boya 22
brande@@ 22
brazil 22
breath@@ 22
brey@@ 22
brighten 22
bvq 22
cavity 22
cbr 22
cellowax 22
centrum 22
champions 22
cheaper 22
chemica 22
cheska 22
choo 22
chrome@@ 22
cit 22
clinical 22
colander 22
cole@@ 22
coleen 22
colorblock 22
conve@@ 22
cott@@ 22
crop@@ 22
ctable 22
current 22
daypack 22
dddd@@ 22
dedic@@ 22
definer 22
deflector 22
deo@@ 22
des@@ 22
dette 22
development 22
digits 22
dion 22
dobe 22
dok 22
doo 22
drin@@ 22
ecotools 22
elisse 22
ells 22
emoti@@ 22
enchan@@ 22
eras@@ 22
explo@@ 22
eyel@@ 22
factorie 22
fairness 22
fashions 22
fds 22
feast 22
fiers 22
fifth 22
finds 22
flagship 22
flip@@ 22
flipcover 22
fliptop 22
float@@ 22
fluoride 22
flutter 22
fowl 22
franco 22
freya 22
gao 22
ghts 22
gladking 22
gordon 22
gthening 22
gwen 22
gyro 22
hairpins 22
hall 22
headpiece 22
hearing 22
hematite 22
hin 22
hippie 22
hipseat 22
homes 22
honesty 22
howlite 22
huenicorn 22
huggable 22
hurricane 22
hv 22
hygi@@ 22
icecream 22
ii@@ 22
illustration 22
iverson 22
jarrow 22
joan 22
jon 22
jys 22
kaidon 22
kane@@ 22
kape 22
kappa 22
kaw 22
keroppi 22
kills 22
kinetic 22
kjv 22
kka 22
kki 22
kneepad 22
kuji 22
lab@@ 22
laboratory 22
lactum 22
ladle 22
latch 22
lear@@ 22
leon 22
leur 22
licious 22
lighten@@ 22
lipliner 22
loading 22
locally 22
lockset 22
lol@@ 22
lone 22
longwear 22
lumi 22
lumia 22
luxurious 22
lyra 22
maggi 22
magnus 22
magsafe 22
mailtank 22
makoto 22
mane 22
manipis 22
maro@@ 22
marshall 22
mation 22
maxxis 22
measurement 22
medit@@ 22
mercedes 22
mercury 22
mica 22
microwaveable 22
milanos 22
mioi 22
misaki 22
miya 22
mmt 22
moccas@@ 22
mor 22
moulded 22
mountaineering 22
narciso 22
navig@@ 22
nestea 22
news 22
niacinamide 22
nickelodeon 22
nipper 22
nish 22
noel 22
novel@@ 22
nuo 22
nutshell 22
officewear 22
ond 22
opti 22
orico 22
ort@@ 22
orth@@ 22
outfitters 22
ovo 22
oxidi@@ 22
pai 22
painless 22
panla@@ 22
para@@ 22
paras@@ 22
pass@@ 22
pastels 22
patchwork 22
pebbles 22
ped@@ 22
petroleum 22
phar@@ 22
picanto 22
planters 22
plus@@ 22
pooch 22
portal 22
posed 22
pray 22
presi@@ 22
pretzel 22
price@@ 22
proven 22
pucca 22
pug 22
puree 22
purr 22
push@@ 22
qb 22
qqq 22
ques 22
rad@@ 22
rah 22
randomly 22
recon 22
reducer 22
reliever 22
retur@@ 22
rhino 22
rivets 22
roronoa 22
ruth 22
rw 22
rxk 22
saemmul 22
sas@@ 22
sassa 22
savage 22
scalar 22
scro@@ 22
scrubsuit 22
scrunchie 22
seneck 22
sennheiser 22
sep 22
sharing 22
shear 22
shion 22
shirataki 22
shit 22
shu 22
sidemirror 22
silk@@ 22
silka 22
skyline 22
sleepsuit 22
sletic 22
sorry 22
spain 22
spam 22
spareparts 22
spellbinders 22
sphere 22
spray@@ 22
sprinkles 22
spro@@ 22
squares 22
starlight 22
starting 22
steri@@ 22
stol 22
strontium 22
suit@@ 22
sunshield 22
superb 22
suspen@@ 22
swad@@ 22
swap 22
sweaters 22
swiss@@ 22
tamarind 22
taz@@ 22
tca 22
teach 22
tequila 22
testers 22
theraphy 22
tobi 22
toes 22
toha 22
tol@@ 22
toni 22
transceiver 22
tucson 22
tures 22
twist@@ 22
twor@@ 22
twotone 22
ulta 22
umb@@ 22
unbreakable 22
ung@@ 22
uses 22
vdc 22
vels 22
velve@@ 22
vert 22
vgod 22
vibr@@ 22
visi@@ 22
volumizing 22
wai@@ 22
waist@@ 22
walnut 22
wand@@ 22
web@@ 22
william 22
windmill 22
women@@ 22
won 22
worship 22
wrapping 22
xenon 22
xs@@ 22
xylophone 22
yonex 22
your@@ 22
yp 22
yuki 22
zan@@ 22
zip@@ 22
zippy 22
zte 22
abacus 21
able@@ 21
absolu@@ 21
abundant 21
acs 21
ads 21
adv 21
ageless 21
ago 21
agua 21
airdots 21
almay 21
alo 21
alto 21
amic 21
andi 21
andra 21
anytek 21
aphrodite 21
appetite 21
aur 21
authenthic 21
base@@ 21
beauté 21
benefits 21
bergamot 21
blv 21
bok 21
boombox 21
bootleg 21
boracay 21
borrowed 21
bosca 21
bottega 21
bourbon 21
breaking 21
brie@@ 21
bring 21
bst 21
buhay 21
buyers 21
captoe 21
carabiner 21
cardi@@ 21
cca 21
centellian 21
ceu@@ 21
cfv 21
chao@@ 21
char 21
checked 21
cheetah 21
chime 21
chord 21
clit@@ 21
cobalt 21
colon 21
colorfull 21
comple@@ 21
concentr@@ 21
concepts 21
condura 21
content 21
continuous 21
controlled 21
correct 21
cosmos 21
craze 21
cricut 21
crinkles 21
crisps 21
cuir 21
cultivera 21
cultured 21
customi@@ 21
customizable 21
dasdas@@ 21
defying 21
dennis 21
dermal 21
detoxifying 21
diane 21
doll@@ 21
doms 21
doremi 21
dub 21
duncan 21
dunge@@ 21
dunhill 21
dusty 21
dwarf 21
eda 21
eled 21
elev@@ 21
eliquid 21
elise 21
enhancement 21
enhancing 21
enthusiast 21
enza 21
epilator 21
erasers 21
eri@@ 21
eric@@ 21
esi 21
ev 21
evangelion 21
event 21
exam 21
excelsior 21
expander 21
eyelid 21
fahrenheit 21
fajardo 21
filtration 21
fing 21
fjallraven 21
food@@ 21
frida 21
fro 21
gamusa 21
genevieve 21
gery 21
gest 21
ghten@@ 21
glazed 21
goals 21
grommet 21
gt@@ 21
gypsy 21
hailey 21
hate 21
hauling 21
hayabusa 21
hearty 21
here@@ 21
hibiscus 21
hir@@ 21
hokkaido 21
hol 21
hr@@ 21
hughes 21
hundred 21
ido 21
ih@@ 21
illumin@@ 21
ilo@@ 21
ilyn 21
inas 21
inclu@@ 21
includes 21
increase 21
intermediate 21
iqos 21
ism 21
jane@@ 21
jergens 21
juvia 21
kalimba 21
kathle@@ 21
katie 21
kingever 21
klay 21
kneepads 21
kosh 21
kung 21
ladybug 21
landscape 21
languages 21
lanolin 21
launcher 21
lazuli 21
lete 21
liberty 21
lico@@ 21
lighted 21
lind@@ 21
lipstain 21
liteTM 21
litt@@ 21
lng 21
loc 21
longsleve 21
lons 21
lows 21
lubric@@ 21
lyla 21
mademoiselle 21
mala@@ 21
mandy 21
margot 21
masonry 21
masque 21
mattifying 21
mcdavid 21
mcdodo 21
members 21
mercer 21
metal@@ 21
microtex 21
miguel 21
mika 21
millen@@ 21
mirr@@ 21
mmmmm 21
modes 21
moonstone 21
morocco 21
mother@@ 21
moun@@ 21
mrg 21
nac@@ 21
name@@ 21
namu 21
nen@@ 21
neocell 21
nerdy 21
nett 21
newly 21
nhc 21
nightdress 21
nj 21
nn@@ 21
noble 21
noni 21
nora 21
ode 21
oma 21
oph 21
ort 21
orthodontic 21
outerwear 21
pagoda 21
panyo 21
parade 21
pcie 21
peach@@ 21
pedi 21
pediasure 21
pee@@ 21
pel@@ 21
peppapig 21
pico@@ 21
pinwheel 21
plac 21
plunging 21
polaris 21
pony@@ 21
princesses 21
profession@@ 21
profile 21
promil 21
promod 21
pull@@ 21
purses 21
pyramid 21
pyunkang 21
qiyi 21
radical 21
raion 21
rand@@ 21
redminote 21
reducing 21
reindeer 21
remember 21
repleni@@ 21
resist@@ 21
rev 21
revo@@ 21
reyes 21
rhea 21
rhian 21
rita 21
ritual 21
rizal 21
rms 21
rodriguez 21
rtx 21
rum 21
saki 21
sas 21
sasuke 21
scan 21
screws 21
scrunchies 21
sddd 21
sds@@ 21
sean@@ 21
seedling 21
sef 21
sekushi 21
semilarge 21
serpen@@ 21
shallow 21
shantahl 21
shen@@ 21
shia 21
shiba 21
shut 21
shuya 21
sight 21
sine 21
sitting 21
skit@@ 21
skye 21
sma@@ 21
smocking 21
snorkeling 21
softbound 21
soho 21
solemate 21
souls 21
soundbar 21
sponges 21
spots 21
spurs 21
standees 21
starch 21
stich 21
ston@@ 21
store@@ 21
styled 21
superdry 21
suyod 21
sweatpants 21
swoosh 21
taclight 21
take@@ 21
takoyaki 21
tastic 21
tax@@ 21
tch@@ 21
tend 21
tering 21
tested 21
tigger 21
tista 21
tolda 21
tones 21
totu 21
travis 21
trical 21
tured 21
turner 21
twe@@ 21
tyshop 21
uncommon 21
urinal 21
ury 21
uts 21
vaio 21
vate 21
vermic@@ 21
vette 21
vita@@ 21
vmi 21
voyage 21
wbb 21
wgw 21
wns 21
wq@@ 21
wrist@@ 21
xen@@ 21
xipin 21
xps 21
yama@@ 21
yg 21
ypad 21
zaine 21
zenutrients 21
è 21
abeauty 20
acer@@ 20
achi@@ 20
activator 20
ades 20
adium 20
ado@@ 20
adven@@ 20
affor@@ 20
aio 20
aky 20
alexander 20
alfred 20
alic@@ 20
allergy 20
ally@@ 20
althea 20
amara 20
amatte 20
amig 20
ances 20
angelfashion 20
ank 20
anko 20
aozi 20
api@@ 20
apo 20
appearance 20
aq@@ 20
aquari@@ 20
argen@@ 20
aste 20
ately 20
athered 20
aud@@ 20
aus 20
baellerry 20
bana 20
banig 20
bap 20
bart 20
beasts 20
beautika 20
bebeta 20
beg@@ 20
beginning 20
bg@@ 20
bikin@@ 20
bills 20
bitter 20
bleach@@ 20
bless@@ 20
blkshp 20
blocking 20
bloom@@ 20
blos 20
bluetooh 20
boarding 20
bobby 20
bonet 20
boun@@ 20
brassi@@ 20
buko 20
bulgar@@ 20
caffeine 20
came@@ 20
camel@@ 20
camelbak 20
cand@@ 20
candie 20
canter 20
cardinal 20
cares 20
chalkboard 20
chameleon 20
chanyeol 20
chargeable 20
chari@@ 20
chemistry 20
chico 20
chl@@ 20
chri@@ 20
church 20
cian 20
city@@ 20
clai@@ 20
climbing 20
clothesline 20
cockroach 20
colar 20
cold@@ 20
colle 20
composition 20
condiments 20
confidence 20
contro@@ 20
convention 20
cotta 20
craft@@ 20
cristina 20
crun@@ 20
curity 20
cushion@@ 20
cynthia 20
dame 20
daw@@ 20
dazzle 20
deadbolt 20
dealer 20
dean 20
defining 20
desgin 20
dess 20
det 20
digi 20
dimm 20
dir 20
dishwasher 20
dium 20
diver@@ 20
dope 20
doreamon 20
doterra 20
dreamy 20
drop@@ 20
drums 20
dwin 20
earpick 20
earth@@ 20
effici@@ 20
eggplant 20
eilish 20
elly 20
empress 20
energi@@ 20
ensure 20
enterprise 20
epi 20
epsom 20
erin 20
esse 20
essenti@@ 20
even 20
expre@@ 20
extracts 20
fang 20
ffe 20
filament 20
finding 20
flares 20
foe 20
foiled 20
foreign 20
forms 20
forte 20
fsl 20
fting 20
fty 20
fucos 20
funandsmart 20
functions 20
fundamentals 20
gabri@@ 20
ganoderma 20
ggies 20
gibson 20
ginebra 20
gixxer 20
glamorosa 20
glamorous 20
glorious 20
gly 20
gmo 20
goji 20
goodbye 20
gou@@ 20
goya 20
hairbrush 20
hairdressing 20
haphapph 20
hardness 20
hardsole 20
hawaii 20
hay 20
hee 20
hermès 20
heuer 20
hex@@ 20
hguc 20
highend 20
hiphop 20
holmes 20
hon 20
hongli 20
horse@@ 20
houndstooth 20
hugger 20
hul@@ 20
ick@@ 20
iga 20
infantino 20
infer@@ 20
installation 20
invicta 20
iri 20
iser 20
isha 20
iv@@ 20
izumi 20
jai@@ 20
johnny 20
johnsons 20
juiced 20
jumsuit 20
juniper 20
kamen 20
katty 20
kdrama 20
kick@@ 20
kidsafe 20
kilo@@ 20
kirei 20
kixx 20
kleancolor 20
knit@@ 20
know@@ 20
korilakkuma 20
kre@@ 20
kwen@@ 20
kyocera 20
lah 20
lambskin 20
lameila 20
lampshade 20
lany 20
laugh 20
lazy@@ 20
lenti@@ 20
levithan 20
lives 20
lled 20
lly 20
ln@@ 20
loki 20
lorac 20
lstar 20
luci@@ 20
luigi 20
majestic 20
mater@@ 20
mba@@ 20
meco 20
meiya 20
melatonin 20
menthol@@ 20
metis 20
mickeymouse 20
milan 20
ministar 20
missugars 20
mize 20
mized 20
mmi@@ 20
mming 20
mobi@@ 20
moby 20
moi@@ 20
mom@@ 20
momoso 20
mongol 20
morgan 20
motivational 20
mt@@ 20
mudmaster 20
murakami 20
mustang 20
naomi 20
nations 20
nec 20
need@@ 20
nica 20
nium 20
notepads 20
nuit 20
nunbell 20
oakley 20
oct 20
oe 20
ohms 20
opium 20
optics 20
oran 20
oregano 20
orient 20
outs 20
pacsafe 20
pag 20
palo@@ 20
partition 20
pau@@ 20
pearly 20
pedi@@ 20
pedia 20
philosophy 20
phshop 20
pinsan 20
pio 20
plunge 20
pompompurin 20
portia 20
ppee 20
ppies 20
preci@@ 20
preserv@@ 20
primadonna 20
qkz 20
qr 20
quarts 20
quin 20
quiz 20
raffle 20
rag 20
rainforest 20
rape 20
readers 20
recomm@@ 20
reef 20
refur@@ 20
reggae 20
reign 20
reinfor@@ 20
removing 20
repelling 20
resto@@ 20
resun 20
resurfacing 20
revenge 20
revit@@ 20
rica 20
rit 20
roma 20
roots 20
rosewater 20
rot 20
round@@ 20
samgyup 20
sap@@ 20
sapatos 20
sasimi 20
saudigold@@ 20
saugwunder 20
schedule 20
scoopy 20
scri@@ 20
sdsq@@ 20
seeth@@ 20
selma 20
seuss 20
shana 20
sharpening 20
sherlock 20
shuttlecock 20
simul@@ 20
sinu@@ 20
sket@@ 20
sleevess 20
slin@@ 20
smokey 20
snailwhite 20
snoe 20
snugg@@ 20
soba 20
spanribs 20
sparkly 20
spearmint 20
sper 20
spiced 20
spirit@@ 20
sporti@@ 20
ssa@@ 20
ssh 20
standar@@ 20
stone@@ 20
stop@@ 20
street@@ 20
stun@@ 20
sunkissed 20
sup@@ 20
supermarket 20
sure@@ 20
surpri@@ 20
tables 20
taco 20
tart 20
tct 20
tdd 20
teak 20
thalia 20
ticity 20
time@@ 20
tinapa 20
tinker 20
tio 20
tion@@ 20
tokkyo 20
traffic 20
trailblazer 20
trenchcoat 20
trf 20
tribe 20
tropic@@ 20
tton 20
tv@@ 20
tweezers 20
tytiffany 20
ug@@ 20
ultragirl 20
ultralight 20
upper@@ 20
valerie 20
valkyrie 20
vapor@@ 20
venum 20
vials 20
videoke 20
visco@@ 20
vive 20
voltes 20
voltron 20
vwc 20
wal 20
warfare 20
weld 20
wheelchair 20
wo 20
wonderful 20
wq 20
ww@@ 20
xhilaration 20
xl@@ 20
xn 20
yama 20
ych 20
yee@@ 20
yj@@ 20
yonk 20
zbad 20
zee 20
zevy 20
zhi@@ 20
zmi 20
aal 19
ackle 19
afic@@ 19
aga 19
airbed 19
alcogel 19
alcoplus 19
amk 19
amuse 19
angie 19
anxi@@ 19
apartment 19
aper 19
apple@@ 19
architecture 19
aring 19
ark 19
aryana 19
asd@@ 19
athione 19
atione 19
atra 19
attach@@ 19
auxiliary 19
babygirl 19
babyliss 19
bagtag 19
batangas 19
bazooka 19
bbi@@ 19
behind 19
bestprice 19
bestselling 19
bey@@ 19
blotted 19
bluegreen 19
bohe@@ 19
bongbong 19
boosting 19
bott@@ 19
bottons 19
bound@@ 19
bourne 19
bragg 19
brandy 19
brembo 19
bright@@ 19
brim 19
brtc 19
bush@@ 19
cab 19
camou@@ 19
camu 19
cani@@ 19
carizma 19
carnelian 19
cass 19
casu@@ 19
cavs 19
cedar 19
celebration 19
cellophane 19
cey 19
chant 19
chaos 19
chelle 19
chroma 19
chron@@ 19
chunks 19
cic@@ 19
cie 19
cko 19
clown 19
cmh 19
coastar 19
coby 19
coleman 19
colo 19
colorway 19
comouflage 19
companion 19
component 19
condi@@ 19
condu@@ 19
cough 19
coupling 19
cowhide 19
crankshaft 19
crawling 19
crescent 19
cru 19
crump@@ 19
cst 19
cuddle 19
cumin 19
cyclone 19
danger 19
daphne 19
dder 19
decorated 19
decors 19
deet 19
dewalt 19
did 19
diff 19
dollar 19
dolph@@ 19
dresss 19
dynam@@ 19
dyosa 19
earcuff 19
ehc 19
eigh@@ 19
electro 19
electroplating 19
elitebook 19
emo@@ 19
end@@ 19
enlargement 19
epub 19
erich 19
eta 19
euphoria 19
evi@@ 19
excellence 19
exerci@@ 19
expanding 19
expect@@ 19
eyed 19
faces 19
faceted 19
families 19
fcase 19
fd@@ 19
feb 19
fifa 19
fisheye 19
fixing 19
fj@@ 19
flare@@ 19
flas@@ 19
flipflop 19
florals 19
foamer 19
foli@@ 19
fondue 19
font 19
forks 19
fring@@ 19
fts 19
furi@@ 19
gau@@ 19
gay 19
gem@@ 19
gentlemen 19
germicidal 19
gged 19
gift@@ 19
gina 19
gioia 19
gochu@@ 19
goldfish 19
gozum 19
grapes 19
gras@@ 19
gree 19
gross 19
halal 19
haltered 19
happ@@ 19
harman 19
hart 19
havana 19
headlights 19
heavyduty 19
heidi 19
heiress 19
helix 19
honeysuckle 19
honeywell 19
hoover 19
house@@ 19
hud@@ 19
hui@@ 19
hunters 19
hyperx 19
iam@@ 19
ike@@ 19
ilk 19
ill 19
impress 19
including 19
ind 19
ington 19
inno 19
inoh 19
inson 19
insul@@ 19
intake 19
interactive 19
inti@@ 19
invit@@ 19
ipen 19
isla 19
jaclyn 19
jake 19
jap 19
jas@@ 19
jayson 19
jc@@ 19
jeanne 19
ject 19
jedi 19
jie 19
jlh 19
joyfeel 19
jud@@ 19
juices 19
jumshort 19
kakashi 19
kanteen 19
kellogg 19
kidd 19
kids@@ 19
kill@@ 19
killing 19
kish 19
kissy 19
kkjjshop 19
knights 19
knots 19
koby 19
kojicmansi 19
kolin 19
kombat 19
kulambo 19
labs 19
lari@@ 19
lc@@ 19
ldnio 19
leah 19
leboy 19
leggins 19
lei 19
lettering 19
lexus 19
lick 19
lifan 19
line@@ 19
lipcolor 19
llan@@ 19
lomvum 19
longe@@ 19
longsleeved 19
lop 19
loving 19
lowwaist 19
ltr 19
lucent 19
lug 19
lululun 19
lynelefootwear 19
mace 19
magne@@ 19
mahogany 19
mail@@ 19
maliit 19
mand 19
mano@@ 19
marykay 19
matibay 19
mau@@ 19
maxene 19
mayonnaise 19
maz@@ 19
mefapo 19
megam@@ 19
merlot 19
merona 19
meth@@ 19
microsdhc 19
mig 19
mikaylashoppe 19
mila 19
milano 19
mimosa 19
mindful 19
miner@@ 19
minoxidil 19
mitsushi 19
model@@ 19
moder@@ 19
motorstar 19
moul@@ 19
movall 19
moyou 19
mush@@ 19
nathaniel 19
natrol 19
nature@@ 19
nie@@ 19
nik@@ 19
nonstick 19
nuggets 19
nutra@@ 19
nutrilite 19
nvr 19
oblong 19
occitane 19
ocean@@ 19
okm 19
oline 19
ome@@ 19
omo 19
onsale 19
oooo@@ 19
outdoors 19
overla@@ 19
paintings 19
pallette 19
pandan 19
partner 19
pauline 19
pdf 19
pea@@ 19
personalised 19
piedras 19
pierre 19
pil 19
pinx 19
pla 19
plaque 19
plex@@ 19
pn@@ 19
pointer 19
potted 19
pouchie 19
preser@@ 19
prise 19
prizes 19
procurement 19
program 19
proph@@ 19
protectors 19
publi@@ 19
qqjk 19
ragnarok 19
reclining 19
reduce 19
reduction 19
refined 19
regenerist 19
remastered 19
reme@@ 19
rent 19
reser@@ 19
rix 19
roberts 19
rol 19
rubbermaid 19
sala@@ 19
savannah 19
scorpion 19
scrabble 19
sean 19
search 19
secret@@ 19
selle 19
sensu@@ 19
separate 19
services 19
shezi 19
shields 19
shoebox 19
shoes@@ 19
showcase 19
simp@@ 19
sion@@ 19
sketchbook 19
skills 19
skindigm 19
skycorp 19
slick 19
smoking 19
smt 19
smu@@ 19
snorkel 19
songbook 19
sory 19
ssen@@ 19
sso 19
stal 19
stamped 19
staples 19
stay@@ 19
steak 19
steam@@ 19
sting@@ 19
stirrer 19
str 19
strate@@ 19
strix 19
stronger 19
stuffedtoy 19
stussy 19
surf@@ 19
suspenders 19
sweatshort 19
swee@@ 19
swingman 19
syringe 19
taekwondo 19
tals 19
tcl 19
tcm 19
tear@@ 19
tec@@ 19
tempo 19
thenorthface 19
theobroma 19
thickness 19
thriller 19
tney 19
tomb 19
tombow 19
topping 19
town@@ 19
tps 19
trace 19
trader 19
triang@@ 19
tter@@ 19
tubing 19
ui 19
underpants 19
unds 19
uniheart 19
unik 19
unt@@ 19
upl 19
urban@@ 19
uri 19
uty 19
valu@@ 19
vden 19
veneta 19
vio 19
viper 19
visual 19
von@@ 19
voopoo 19
vortex 19
vr@@ 19
wallsticker 19
warehouse 19
wares 19
wayfarer 19
wet@@ 19
wht 19
widow 19
wie 19
wonderwoman 19
worksheets 19
wrinkles 19
written 19
wunder 19
xq 19
yak@@ 19
yin@@ 19
younger 19
yufiya 19
zashoppe 19
zero@@ 19
zhiyun 19
zin@@ 19
zki 19
E 18
abella 18
abu@@ 18
adata 18
aeroic 18
affair 18
after@@ 18
agenda 18
airconditioner 18
airwalk 18
alan 18
alexandra 18
algae 18
alina 18
aling 18
alist 18
alor 18
alphatoys 18
amarah 18
amay 18
ambi@@ 18
amer 18
amer@@ 18
andrew 18
anika 18
antetoko@@ 18
appa@@ 18
apparatus 18
appear 18
artfx 18
asos 18
atlan@@ 18
austen 18
aver 18
aviation 18
baak 18
baku@@ 18
balan@@ 18
ballon 18
bally 18
banners 18
batt 18
bdf 18
being 18
bejeweled 18
beth@@ 18
bett@@ 18
bies 18
bijin 18
billion 18
bilog 18
blanca 18
bls 18
bonsai 18
boop 18
bop 18
borax 18
brai@@ 18
brake@@ 18
bram 18
bran@@ 18
brianna 18
brightex 18
broo@@ 18
bud 18
buff 18
bukid 18
bund@@ 18
bush 18
cabbage 18
cabo@@ 18
caite 18
candice 18
canteen 18
cardam@@ 18
carnauba 18
carnival 18
casaya 18
cera 18
challenger 18
chateau 18
cherry@@ 18
chiller 18
chip@@ 18
choke 18
choosing 18
chur@@ 18
citromint 18
clan@@ 18
clip@@ 18
cmyk 18
colla 18
concea@@ 18
conden@@ 18
condo 18
consu@@ 18
cook@@ 18
corales 18
cori@@ 18
cost 18
cpsa 18
crawler 18
croc@@ 18
crossback 18
cue 18
curls 18
cute@@ 18
cuties 18
cvi 18
cylindrical 18
dahlia 18
dap@@ 18
daredevil 18
darts 18
dates 18
debbie 18
demolition 18
deni@@ 18
denti@@ 18
deodorizing 18
dere@@ 18
detai@@ 18
dete@@ 18
dian@@ 18
dilu@@ 18
dimensional 18
dinem 18
director 18
diswashing 18
dler 18
dolphine 18
dotcom 18
drac@@ 18
drake 18
drape 18
dupe 18
dutche 18
ecobag 18
edu@@ 18
ek@@ 18
eli 18
elizavecca 18
ellar 18
emw 18
ends 18
endurance 18
eneloop 18
energizing 18
eni@@ 18
ergobaby 18
ety 18
exfoliator 18
exit 18
ext 18
falls 18
fanny@@ 18
fb@@ 18
felicity 18
fetish 18
finity 18
first@@ 18
flarej 18
folk 18
formed 18
fortun@@ 18
fourshoppe 18
fourth 18
freestyle 18
freshness 18
fujihama 18
funtainer 18
gag@@ 18
garmin 18
gartered 18
gears 18
geni@@ 18
ght@@ 18
giannis 18
gilas 18
gingersnap 18
gis 18
git@@ 18
gizeh 18
goldtoe 18
gomez 18
goose@@ 18
gourd 18
grids 18
grille 18
grove 18
growing 18
gual 18
guerlain 18
gurashi 18
gutter@@ 18
gyp@@ 18
gz 18
hai 18
hallmark 18
hama 18
hanford 18
hao@@ 18
harris 18
hatchimals 18
hbs 18
hdr 18
heatsink 18
heavenly 18
hedgren 18
henna 18
hikers 18
hillary 18
hiyang 18
hog 18
hsm 18
hua@@ 18
husband 18
hydroponics 18
ibuy 18
igh 18
ika 18
ila@@ 18
iness 18
ingot 18
inse@@ 18
insoles 18
inspiration 18
intelli@@ 18
intensi@@ 18
inverted 18
isabel 18
itaba 18
itation 18
itos 18
janylin 18
jeremy 18
jhope 18
jingpin 18
jumperskirt 18
karma 18
kata 18
kath 18
keen 18
kel 18
kemei 18
kimi 18
kind@@ 18
kirin 18
knives 18
kopiko 18
koyo 18
kr@@ 18
kulay 18
lage 18
landing 18
lap@@ 18
lawn 18
ledge 18
lent 18
leverag 18
links 18
living@@ 18
liz@@ 18
lox 18
lust 18
lust@@ 18
maas 18
madon 18
mae@@ 18
magneto 18
malaysian 18
malong 18
maltesers 18
manhattan 18
mani 18
manta 18
margarita 18
mariel 18
marin@@ 18
marula 18
mash@@ 18
maureen 18
medallion 18
megas@@ 18
melo 18
mery 18
mf@@ 18
micah 18
miche@@ 18
microsdxc 18
mikata 18
millie 18
mincer 18
mindy 18
minimizing 18
missing 18
mistique 18
mitten 18
mlt 18
modem 18
mohashi 18
moisturiser 18
mole@@ 18
monochrome 18
motorized 18
moulding 18
mps 18
mud@@ 18
mwash 18
myt 18
nam 18
nap 18
naturehike 18
navarros 18
neal 18
nerds 18
neutr@@ 18
nfl 18
niacin 18
nikki 18
nings 18
nitecore 18
nitrile 18
nutriti@@ 18
nwt 18
nxt 18
nye 18
odorless 18
ofra 18
okay 18
okinawa 18
oleum 18
ool 18
oppa 18
optipro 18
oracle 18
orignal 18
osc@@ 18
otto 18
outlaw 18
ove@@ 18
pain@@ 18
pala@@ 18
parachute 18
path@@ 18
pechay 18
peotraco 18
perfect@@ 18
pevc 18
pey 18
pickled 18
pimples 18
pocke@@ 18
poke@@ 18
poli 18
polished 18
poo@@ 18
popsocket 18
position@@ 18
possi@@ 18
poy 18
pren@@ 18
prevention 18
primrose 18
principles 18
problem 18
problems 18
psalm 18
pur 18
purchased 18
purity 18
pus 18
pyary 18
qa 18
qoncept 18
quan@@ 18
qulity 18
radial 18
rae 18
rap 18
rap@@ 18
ratings 18
rave 18
reas@@ 18
ref@@ 18
renegade 18
repackaged 18
retail@@ 18
revive 18
revoltech 18
reward 18
rif@@ 18
rival 18
riveter 18
rmk 18
robusta 18
rogue 18
rolled 18
rosette 18
rosie 18
rr@@ 18
rrx 18
rus 18
rush@@ 18
rv 18
sagada 18
sans@@ 18
scence 18
scf 18
scious 18
scouring 18
sculpt 18
seas 18
separator 18
sexy@@ 18
shawn 18
sienna 18
sivanna 18
sixteen 18
size@@ 18
skyblue 18
sleepy 18
sli 18
slits 18
small@@ 18
smartheart 18
smatree 18
smell 18
smp@@ 18
snackers 18
snapdragon 18
sophisticated 18
speeds 18
spices 18
spider@@ 18
spill 18
splcodgenuine 18
stam@@ 18
stash 18
stephanie 18
stormtrooper 18
stra 18
stretcher 18
stuffs 18
styleclub 18
styro 18
sublimated 18
supporter 18
surich 18
swat@@ 18
swifty 18
sylvia 18
symme@@ 18
syo 18
tablecloth 18
tage 18
tainer 18
tair 18
tambourine 18
tanks 18
taper 18
tempe@@ 18
tening 18
ternos 18
terra@@ 18
tha 18
thetic 18
tidy 18
ting@@ 18
tly 18
toco@@ 18
toiletries 18
toro 18
tortoise 18
toss 18
travelmate 18
tretta 18
tribute 18
trick 18
tronsmart 18
troy 18
trrrixii 18
tulips 18
tum 18
tung@@ 18
tvi 18
tyl 18
uchiha 18
uda 18
uel 18
ulike 18
uncharted 18
unicor@@ 18
uns 18
uta 18
uto 18
uvc 18
vaping 18
vendetta 18
vernis 18
verus 18
vicks 18
vie@@ 18
vite 18
vm 18
vondutch 18
vpower 18
vtow 18
waterfall 18
watering 18
weijl 18
weird 18
weng 18
wga 18
whead 18
whim@@ 18
whisper 18
wolf@@ 18
world@@ 18
xp@@ 18
xring 18
xxx 18
yor@@ 18
yuja 18
zap@@ 18
zelda 18
zeta 18
zic 18
zoids 18
B@@ 17
abbey 17
abe@@ 17
ability 17
absolute 17
acan 17
act@@ 17
adapters 17
adi 17
adjust@@ 17
adobe 17
aga@@ 17
ageing 17
agnes 17
agv 17
aida 17
aids 17
airpod 17
alfa 17
alisa 17
alize 17
amper@@ 17
ampli@@ 17
anais 17
ance@@ 17
ante@@ 17
antiradiation 17
arkham 17
aromat@@ 17
aromatic 17
aroo 17
arowana 17
arta 17
aspir@@ 17
asst 17
astic 17
astr@@ 17
ather@@ 17
ation@@ 17
attra@@ 17
avatar 17
awg 17
bagong 17
bait 17
bao@@ 17
batter 17
bc@@ 17
beauplus 17
beautic 17
belgian 17
bella@@ 17
bibli@@ 17
bing@@ 17
biodegradable 17
biogenic 17
birch 17
blet 17
blinking 17
bloks 17
bloo@@ 17
bloomer 17
blushed 17
bobber 17
bona@@ 17
bondage 17
bouncing 17
bouncy 17
boxin 17
bps 17
brad@@ 17
breast@@ 17
brv 17
bs@@ 17
budd@@ 17
buffalo 17
bumps 17
cafele 17
calci@@ 17
campana 17
capture 17
carle 17
carlo 17
caroline 17
carpen@@ 17
carving 17
celeste 17
cellulite 17
centric 17
cgm 17
chai 17
chand@@ 17
charmed 17
chec@@ 17
cheer 17
cheron 17
chet 17
choc 17
chugoku 17
ciara 17
cils 17
citron 17
clicker 17
clipboard 17
cloud@@ 17
cluster 17
cogs 17
colouring 17
compli@@ 17
comprehen@@ 17
cony 17
cookbook 17
corre@@ 17
cpp 17
creamer@@ 17
creeper 17
crit@@ 17
ctu@@ 17
curi@@ 17
cus@@ 17
cut@@ 17
cx@@ 17
dami@@ 17
dating 17
daze 17
dead@@ 17
dec@@ 17
deca@@ 17
deliver 17
denture 17
designing 17
deskjet 17
dextro@@ 17
dfc 17
diabe@@ 17
dige@@ 17
discs 17
dized 17
dj@@ 17
dkc 17
dockers 17
dorco 17
dore 17
dork 17
dormitory 17
duke 17
dumb@@ 17
during 17
eating 17
economy 17
edit 17
edro@@ 17
egg@@ 17
ei 17
ela@@ 17
elba 17
elementary 17
eles 17
emporio 17
eucerin 17
eunice 17
ewa 17
exhi@@ 17
exos 17
expiration 17
extraordinary 17
eyemask 17
fame 17
fami@@ 17
fas 17
fau@@ 17
feder@@ 17
fen 17
ffff@@ 17
flaps 17
flatware 17
fleek 17
fling 17
freeshipping@@ 17
freesocks 17
fter 17
fume 17
funky 17
gad@@ 17
gap@@ 17
gender 17
georgina 17
get@@ 17
getz 17
ggage 17
gic 17
giga 17
gingerbread 17
glac@@ 17
gle@@ 17
gleam 17
glo 17
goodies 17
gowns 17
goyard 17
grains 17
gripo 17
grisham 17
gry@@ 17
gulong 17
gus@@ 17
hack@@ 17
haier 17
haruki 17
haw 17
hazard 17
hbk 17
hit@@ 17
hiti 17
hold@@ 17
howard 17
huayu 17
hudson 17
humid@@ 17
hypno@@ 17
hypo@@ 17
ians 17
icase 17
ici@@ 17
idolish 17
ijoy 17
ile 17
iled 17
illes 17
impressions 17
inclin@@ 17
infin@@ 17
inox 17
inpired 17
instinct 17
insu@@ 17
integr@@ 17
isabella 17
islander 17
itan 17
iwata 17
ixpand 17
izone 17
jal@@ 17
jamie 17
jardin 17
jeff@@ 17
jegging 17
jima 17
jinghao 17
jky@@ 17
job 17
jockey 17
juana 17
juven@@ 17
jz@@ 17
karate 17
katherine 17
keeping 17
kewpie 17
kite 17
kiyo@@ 17
kok@@ 17
kone@@ 17
kracie 17
kum 17
kylo 17
laar@@ 17
label@@ 17
lable 17
laga 17
laying 17
lazer 17
leaders 17
legged 17
lena 17
lencia 17
leon@@ 17
leslie 17
letti 17
linkin 17
lion@@ 17
lister@@ 17
lium 17
liven 17
lized 17
ljy 17
lling 17
loc@@ 17
lomo 17
lootbag@@ 17
lps 17
lrw 17
lug@@ 17
major 17
malibu 17
mallow 17
mamamoo 17
marcelo 17
marley 17
mato@@ 17
maxim 17
mcdonald 17
mecha 17
meguiar 17
melo@@ 17
melting 17
mers 17
messy 17
meur 17
michelin 17
microblading 17
midea 17
mil 17
miles 17
mimi@@ 17
mimo 17
miranda 17
misb 17
mister 17
mitsu@@ 17
mme@@ 17
mmi 17
mmmm@@ 17
mms 17
mmy 17
mobilio 17
moc 17
monday 17
moo 17
motorcyle 17
multiway 17
munch@@ 17
murayta 17
nad@@ 17
nah 17
natu@@ 17
nels 17
nexus 17
nico@@ 17
nipp@@ 17
nov 17
nrb 17
num 17
obi 17
olite 17
omber 17
omen@@ 17
opened 17
opp@@ 17
ota@@ 17
pak@@ 17
panels 17
parfume 17
patchouli 17
pci 17
pegs 17
peice 17
pein 17
pellets 17
percussion 17
perfor@@ 17
perpe@@ 17
petit@@ 17
pey@@ 17
pharm@@ 17
pico 17
pik 17
pinstripe 17
pix@@ 17
places 17
placing 17
planting 17
pleasures 17
pocket@@ 17
pogi 17
posite 17
posket 17
potions 17
potting 17
preloved@@ 17
premu@@ 17
prest@@ 17
prices 17
prive 17
prs 17
pton 17
ptor 17
puni@@ 17
puppets 17
puto 17
qposket 17
quadcore 17
rabb@@ 17
raffled 17
ramgo 17
recharge@@ 17
redemption 17
reduced 17
reen 17
refresher 17
rein@@ 17
relax@@ 17
rena 17
revitalisor 17
revol@@ 17
rhy@@ 17
rn@@ 17
rooster 17
rosal@@ 17
royalè 17
rrrr@@ 17
russia 17
sadi@@ 17
sandra 17
sca 17
scor@@ 17
seachem 17
seasonal 17
sedu@@ 17
sehun 17
sexyback 17
shab@@ 17
shank 17
sharp@@ 17
shawill 17
shee 17
sheila 17
shiel@@ 17
shir 17
simon 17
sity 17
skill 17
skir@@ 17
sliced 17
smoke@@ 17
smoky 17
smoothness 17
smudge 17
snacke@@ 17
snor@@ 17
solder 17
soother 17
sorter 17
sour@@ 17
spanner 17
sparkplug 17
spc 17
spee@@ 17
sphyg@@ 17
spritz 17
squire 17
ssing 17
ssor 17
ssor@@ 17
stages 17
stallion 17
status 17
stling 17
stren@@ 17
stride 17
suite 17
sumikko 17
sunshade 17
sunsonic 17
supper 17
surfer 17
surfing 17
surprezza 17
sweetened 17
sws 17
syma 17
tactics 17
tanga 17
tanjun 17
tank@@ 17
taped 17
tart@@ 17
tasty 17
tayo 17
teaser 17
techni@@ 17
techno 17
teflon 17
tet 17
these 17
thic@@ 17
thicken 17
thrill 17
thumb@@ 17
tigernu 17
tol 17
tote@@ 17
transi@@ 17
traps 17
trave@@ 17
tresor 17
trials 17
tropic 17
tsumtsum 17
tunnel 17
tyk 17
ukayu@@ 17
ultraman 17
unic@@ 17
uskin 17
usly 17
vam@@ 17
variations 17
vcd 17
velous 17
vhea@@ 17
vibro@@ 17
video@@ 17
vienna 17
vigor@@ 17
villa@@ 17
vocal 17
waf@@ 17
wait 17
wanderlust 17
weed 17
weide 17
went 17
whitelight 17
whiten@@ 17
widen@@ 17
worksheet 17
wristlets 17
xis 17
yong 17
ys@@ 17
yuyu 17
zipp@@ 17
zom@@ 17
zoomer 17
zzles 17
ä@@ 17
F@@ 16
abelle 16
acacia 16
accordion 16
achable 16
acro@@ 16
adel@@ 16
adr 16
agen 16
agri@@ 16
alternat@@ 16
americ@@ 16
amy@@ 16
angelo 16
ank@@ 16
arte 16
arya 16
asd 16
aser 16
assault 16
atelier 16
atsu 16
axel 16
axial 16
balck 16
bam 16
bareminerals 16
barn 16
baro@@ 16
barre@@ 16
basa 16
battlefield 16
bean@@ 16
begins 16
beloved 16
bent 16
bishi 16
blood@@ 16
boar@@ 16
boat@@ 16
bob@@ 16
bran 16
brio 16
brs 16
bss 16
bt@@ 16
bubi 16
buffer 16
burnt 16
cai 16
caliburn 16
carl 16
casey 16
ccino 16
ccl 16
ccs 16
chained 16
charged 16
chlo@@ 16
chol@@ 16
class@@ 16
clone 16
club@@ 16
clyde 16
cmos 16
cog@@ 16
compu@@ 16
contemporary 16
coolwater 16
coon 16
cosy 16
crack@@ 16
crazy@@ 16
cruci@@ 16
cture 16
cyber@@ 16
daier 16
davidson 16
dc@@ 16
dden 16
deer@@ 16
dess@@ 16
develo@@ 16
displayport 16
dition 16
dix 16
doggie 16
double@@ 16
drive@@ 16
drug 16
dson 16
easter 16
edo 16
elantra 16
ele 16
eleanor 16
electronics 16
ense@@ 16
envelop 16
erika 16
eti@@ 16
exo@@ 16
exodus 16
exq 16
fairies 16
fashioned 16
fex 16
fini@@ 16
fizz 16
flaw@@ 16
flax 16
flies 16
flood@@ 16
forces 16
fore 16
forged 16
frame@@ 16
franc@@ 16
fton 16
fuck 16
gari 16
ghe@@ 16
gj@@ 16
glen@@ 16
gogo 16
goth 16
grace@@ 16
gray@@ 16
gtr 16
gusto 16
habit 16
hamburger 16
harden@@ 16
harvey 16
havi@@ 16
hella 16
hers 16
hf@@ 16
hic@@ 16
hosp@@ 16
hpc 16
hru 16
humble 16
husk 16
hype 16
iam 16
icure 16
ign@@ 16
illy 16
impre@@ 16
iph@@ 16
iran 16
iridescent 16
iro@@ 16
ish@@ 16
isse 16
ium 16
jas 16
jav@@ 16
jdi 16
jeep@@ 16
jenny@@ 16
jessa 16
jessy 16
joel 16
jou 16
jouer 16
jp@@ 16
jul@@ 16
kab@@ 16
karla 16
kei 16
ketchup 16
kindle 16
kru@@ 16
kusa@@ 16
lad 16
lain 16
lala@@ 16
legal 16
lei@@ 16
lele 16
liber@@ 16
listic 16
literary 16
literature 16
loe 16
lt@@ 16
luminarc 16
lvs 16
madeline 16
mastermind 16
mbo 16
meeting 16
meike 16
midori 16
milli@@ 16
minator 16
minor 16
mizu@@ 16
mks 16
mobius 16
moleskine 16
mosqu@@ 16
mur 16
musi@@ 16
nado 16
neg@@ 16
neroli 16
nier 16
nor 16
nowit@@ 16
nurture 16
nvme 16
och@@ 16
officejet 16
onda 16
onlinestore 16
ony@@ 16
ops 16
organization 16
ouch 16
paki@@ 16
palm@@ 16
palmer 16
pandor 16
peek 16
penta@@ 16
perforated 16
perio@@ 16
pilat@@ 16
pitch 16
poko 16
pororo 16
posse@@ 16
pot@@ 16
priming 16
proto@@ 16
proud 16
pump@@ 16
pv 16
qou@@ 16
quad@@ 16
quer@@ 16
qw 16
ran 16
rangers 16
rea 16
reed 16
rem 16
result 16
rico@@ 16
ridge 16
rio@@ 16
ritz 16
rot@@ 16
rudy 16
ryo@@ 16
sago 16
sake 16
salomon 16
salsa 16
sama 16
sasa 16
saucony 16
sch 16
sci@@ 16
screw@@ 16
seash@@ 16
seawe@@ 16
seg@@ 16
sens@@ 16
shakespeare 16
shang 16
shima 16
shine@@ 16
shino@@ 16
shire 16
shirley 16
shops 16
shr@@ 16
sinan@@ 16
sleepsack 16
sliders 16
slv 16
sooth@@ 16
south@@ 16
spac@@ 16
spen@@ 16
spun 16
spy@@ 16
stamper 16
state@@ 16
steelseries 16
strous 16
sue@@ 16
sues 16
suke 16
sulley 16
survivor 16
swal@@ 16
sylvanian 16
tama@@ 16
technic 16
tenda 16
tenga 16
thank@@ 16
theon 16
thinking 16
thouse 16
ticals 16
tite@@ 16
tm@@ 16
toki 16
toki@@ 16
trophy 16
tuf 16
tural 16
tweety 16
tyr 16
umi 16
unda 16
urance 16
ush@@ 16
vali@@ 16
vector 16
veg@@ 16
velo@@ 16
vely 16
vement 16
vene@@ 16
veria 16
vey 16
victorinox 16
vincent 16
viola 16
vivo@@ 16
vix@@ 16
wak@@ 16
wallpapers 16
wax@@ 16
webber 16
wed@@ 16
wee@@ 16
wendy 16
wizar@@ 16
wmns 16
xg 16
xj 16
xxs 16
yam 16
yard@@ 16
ylang 16
yong@@ 16
yoo@@ 16
youtube 16
zanne 16
zion 16
zk 16
zl@@ 16
zuko 16
G@@ 15
aaaa 15
abaya 15
adhe@@ 15
adora 15
adver@@ 15
aiba 15
amas 15
amen@@ 15
analy@@ 15
anni@@ 15
anpanman 15
anton@@ 15
apa 15
aph 15
apink 15
aquaman 15
aritaum 15
arrow@@ 15
artistry 15
artsy 15
assi 15
asso@@ 15
atc 15
ativity 15
attitude 15
atty 15
atum 15
avante 15
baso 15
batgirl 15
batmobile 15
belle@@ 15
beren@@ 15
berlin 15
bingo 15
biotic 15
botanic@@ 15
brilli@@ 15
brooks 15
bruce 15
bty 15
carol@@ 15
carou@@ 15
cash@@ 15
catrice 15
caven@@ 15
celebr@@ 15
cerin 15
chang 15
chard 15
christine 15
cine@@ 15
circus 15
cloak 15
coach@@ 15
coffee@@ 15
colli@@ 15
colonia 15
const@@ 15
coolmax 15
cop 15
corona 15
cosmo 15
cra 15
cream@@ 15
creatine 15
cta 15
culti@@ 15
cupid 15
cuts 15
cyl 15
decad@@ 15
deci@@ 15
dee@@ 15
denise 15
design@@ 15
diag@@ 15
diam@@ 15
diffe@@ 15
disneyland 15
distribu@@ 15
dodo 15
dong@@ 15
dt@@ 15
dude 15
dumbb@@ 15
dunlop 15
dxf 15
dynamics 15
econo@@ 15
edges 15
eh@@ 15
ej 15
eki 15
embroi@@ 15
ener 15
enie 15
ental 15
ente 15
erboard 15
esti@@ 15
excite 15
expl@@ 15
explore 15
extr@@ 15
fad@@ 15
fone@@ 15
formation 15
foxy 15
fps 15
fran 15
francis 15
garcia 15
gav@@ 15
gelato 15
ghost@@ 15
gink@@ 15
gintama 15
goose 15
gran 15
grind 15
groove 15
grown 15
gum@@ 15
haha 15
handbook 15
hao 15
health@@ 15
hei@@ 15
hen 15
hoco 15
hori@@ 15
hummer 15
hydrate 15
ido@@ 15
if@@ 15
illa@@ 15
infe@@ 15
ior 15
iq 15
irt 15
italia 15
itor 15
jacqueline 15
josh@@ 15
jou@@ 15
juliet 15
kad 15
kart 15
kash@@ 15
kaya 15
kens 15
kenwood 15
kiki 15
kiko 15
kimmy 15
koya 15
kun@@ 15
kv 15
lett@@ 15
lide 15
lillard 15
limit@@ 15
limitless 15
lipo@@ 15
lique 15
listen 15
lite@@ 15
llll@@ 15
loader 15
lobster 15
logan 15
loween 15
lubri@@ 15
lyte 15
madame 15
madonna 15
majesty 15
maped 15
marina 15
mbox 15
mcc@@ 15
megabass 15
mem@@ 15
mentary 15
mercy 15
mermai@@ 15
mh@@ 15
minu@@ 15
miumiu 15
mlx 15
mock@@ 15
momo@@ 15
money@@ 15
monge 15
net@@ 15
nfc 15
nit 15
nlt 15
note@@ 15
nouri@@ 15
nsw 15
nwb 15
nz 15
oki 15
oll 15
omi 15
oppoa 15
orgasm 15
orted 15
our@@ 15
oxy@@ 15
palace 15
pati@@ 15
patriot 15
pbb 15
pbs 15
pebbled 15
pei@@ 15
pentagon 15
pharma 15
porcel@@ 15
potat@@ 15
presario 15
prima@@ 15
primo 15
proc@@ 15
process 15
prostate 15
provi@@ 15
pulp 15
pumice 15
pus@@ 15
puti 15
quaker 15
quat@@ 15
reaper 15
rela@@ 15
relle 15
repel@@ 15
replace@@ 15
rera 15
retro@@ 15
rhythm 15
rig 15
rina 15
rist@@ 15
rome 15
route 15
rty 15
samg@@ 15
saniti@@ 15
sap 15
sb@@ 15
scuba 15
sculpture 15
scythe 15
sday 15
secon@@ 15
senti@@ 15
sept 15
shuttle 15
simm@@ 15
sip 15
siz@@ 15
sme@@ 15
smer@@ 15
smy@@ 15
soar 15
sock@@ 15
span 15
spawn 15
spec@@ 15
specific 15
splat@@ 15
sprint 15
squared 15
squi@@ 15
sson 15
stem@@ 15
stics 15
stique 15
stoys 15
stuart 15
style@@ 15
swagger 15
swat 15
symph@@ 15
taba 15
taking 15
tali@@ 15
talon 15
tam 15
tammy 15
tarts 15
teac@@ 15
teme@@ 15
terre 15
thebalm 15
there@@ 15
thern 15
thor@@ 15
thorn 15
titan@@ 15
tk@@ 15
tourister 15
tpc 15
trailer 15
transit 15
triu@@ 15
trol@@ 15
tru 15
tte@@ 15
tube@@ 15
ture@@ 15
uchi@@ 15
ugly 15
uh 15
unic 15
upon 15
vanni 15
vines 15
vira 15
vivobook 15
wasabi 15
wcf 15
whisk@@ 15
who@@ 15
winter@@ 15
witcher 15
wri@@ 15
yab@@ 15
yaki@@ 15
yankees 15
yeah 15
yol@@ 15
zah@@ 15
zam@@ 15
zod 15
zor@@ 15
D@@ 14
U@@ 14
accessor@@ 14
aci@@ 14
adams 14
aime 14
alba 14
alber@@ 14
alk@@ 14
allu@@ 14
amazon@@ 14
amo 14
amon@@ 14
angan 14
ansi 14
ara@@ 14
assass@@ 14
athan 14
ational 14
atlanta 14
atomic 14
aton 14
azure 14
babo@@ 14
bahay 14
baile 14
bandouli@@ 14
barbell 14
barrow 14
bcbg 14
belkin 14
berger 14
bh@@ 14
bicy@@ 14
bition 14
blanche 14
blocked 14
borne 14
bour@@ 14
bravo 14
bren@@ 14
broc@@ 14
bubble@@ 14
bud@@ 14
bugat@@ 14
bur 14
bushi@@ 14
butler 14
cadi@@ 14
calli@@ 14
cari@@ 14
carl@@ 14
castrol 14
cess@@ 14
champion@@ 14
chat@@ 14
christopher 14
cis 14
cities 14
cla 14
clan 14
classique 14
cleo 14
cler@@ 14
clou@@ 14
clr 14
clt 14
comfor@@ 14
cons 14
conta@@ 14
contigo 14
contr@@ 14
cooked 14
corpor@@ 14
cort 14
cosmo@@ 14
cottage 14
coul@@ 14
cran@@ 14
dah 14
darkness 14
daugh@@ 14
dazz@@ 14
destroyer 14
distortion 14
dit@@ 14
dodge 14
dometer 14
dona 14
dono 14
dremel 14
drew 14
dro 14
dsc 14
dualshock 14
dump@@ 14
efs 14
electrolux 14
eliner 14
eller 14
elo@@ 14
ense 14
enter@@ 14
erc 14
erd 14
ergo 14
ergo@@ 14
erson 14
evol@@ 14
extra@@ 14
fang@@ 14
fantas@@ 14
feel@@ 14
fia 14
fiel@@ 14
fighters 14
flourish 14
flytrap 14
fted 14
fus@@ 14
fv 14
gamma 14
gazelle 14
gbps 14
getaway 14
ghibli 14
gho@@ 14
ghtener 14
ginal 14
gk@@ 14
gogg@@ 14
grac@@ 14
gradu@@ 14
grandista 14
grim 14
gsb 14
gta 14
guan 14
guarantee 14
guet 14
hamp@@ 14
hario 14
havit 14
hear 14
hed@@ 14
heu@@ 14
hhhh@@ 14
hone@@ 14
hoola 14
how@@ 14
hoya 14
https 14
ibm 14
iceland 14
ider 14
ima@@ 14
incre@@ 14
ingo 14
ity@@ 14
jbj 14
jian 14
jit@@ 14
joh@@ 14
josh 14
jr@@ 14
jsy 14
julius 14
kawa@@ 14
kazu@@ 14
keima@@ 14
keystone 14
kg@@ 14
kh 14
kiehls 14
kili@@ 14
kirby 14
kitchenaid 14
kko 14
kol@@ 14
koo@@ 14
koto 14
lacto@@ 14
lancôme 14
leader@@ 14
leten 14
lett 14
lgbt 14
lic@@ 14
lippy 14
lites 14
lm@@ 14
loren@@ 14
lovey@@ 14
ltc 14
lude 14
lumina 14
lumix 14
mack 14
madness 14
maki 14
male@@ 14
mall@@ 14
manizer 14
marque@@ 14
mayo 14
mbing 14
mck 14
mee@@ 14
meli@@ 14
melville 14
menu 14
mercer@@ 14
mich@@ 14
microusb 14
mideer 14
mio@@ 14
mir 14
mizer 14
mlp 14
mmy@@ 14
molle 14
moodtape 14
moomin 14
mori@@ 14
mph 14
muay 14
muda 14
murder 14
next@@ 14
nichi@@ 14
oce@@ 14
olds@@ 14
oray 14
orbit 14
orchi@@ 14
orihiro 14
orion 14
orlando 14
ose 14
osprey 14
oto@@ 14
paler@@ 14
pam 14
pantone 14
papa@@ 14
patri@@ 14
patty 14
pencil@@ 14
pepsi 14
pera 14
physi@@ 14
physici@@ 14
pilip@@ 14
pts 14
puffy 14
rabeanco 14
rack@@ 14
rally 14
ranch 14
rebel@@ 14
rec 14
reflection 14
reflector@@ 14
remix 14
renee 14
replac@@ 14
rex@@ 14
ricoh 14
robinson 14
ruff@@ 14
sach@@ 14
sass@@ 14
saturday 14
scooby 14
scp 14
scul@@ 14
sharon 14
ships 14
simo 14
sio@@ 14
ska 14
soci@@ 14
solen@@ 14
soli@@ 14
spect@@ 14
sper@@ 14
ssi 14
ssss 14
steady 14
sthe@@ 14
summ@@ 14
sunray 14
sutton 14
symbo@@ 14
tad@@ 14
tamar@@ 14
tarot 14
tay 14
teas@@ 14
tein 14
tender@@ 14
tendre 14
tice 14
tini 14
tong@@ 14
topa@@ 14
trad@@ 14
trapeze 14
tree@@ 14
tron@@ 14
trun@@ 14
tyle 14
ug 14
ulo 14
ulti@@ 14
urus 14
valentin@@ 14
vege@@ 14
velocity 14
verse@@ 14
vicky 14
vil 14
vixx 14
wik@@ 14
wit 14
writ@@ 14
ws@@ 14
wwww@@ 14
yak 14
yal 14
yankee 14
yen@@ 14
ykk 14
yoda 14
yon@@ 14
yum 14
zar 14
ç@@ 14
ée 14
W@@ 13
aaron 13
aco@@ 13
ader@@ 13
adid 13
afri@@ 13
ahc 13
aiwa 13
akb 13
alien@@ 13
alli 13
allstar 13
alpac@@ 13
alpha@@ 13
alpine@@ 13
amatic 13
analysis 13
anten@@ 13
ape@@ 13
arlene 13
asm 13
aspeed 13
athering 13
austin 13
ave 13
awakening 13
bab@@ 13
babygap 13
bamb@@ 13
barista 13
bbit 13
belif 13
betta 13
billy 13
blac@@ 13
blythe 13
boar 13
border@@ 13
braun 13
brea@@ 13
bruno 13
bubb@@ 13
cade 13
calculus 13
calypso 13
camo@@ 13
cara@@ 13
cavali@@ 13
cdg 13
cess 13
cg@@ 13
chara 13
charac@@ 13
choo@@ 13
chy@@ 13
ciaga 13
cio 13
clothing@@ 13
cock@@ 13
come@@ 13
compre@@ 13
continu@@ 13
control@@ 13
cosbaby 13
cote 13
coupe 13
ctor@@ 13
cushi@@ 13
darker 13
dary 13
dding 13
dece@@ 13
depen@@ 13
derrick 13
deuter 13
dget 13
dior@@ 13
dispen@@ 13
dread@@ 13
drs 13
dudu 13
dyn@@ 13
eas 13
edifier 13
edr 13
elastics 13
enix 13
environ@@ 13
eri 13
ert 13
esp 13
eta@@ 13
excalibur 13
fantasia 13
flouri@@ 13
fou@@ 13
frank@@ 13
fund@@ 13
fy@@ 13
gabrielle 13
garter@@ 13
geographic 13
ggay 13
gile 13
goes 13
golden@@ 13
groo@@ 13
guar@@ 13
guc@@ 13
guer@@ 13
guys 13
hammer@@ 13
hardy 13
hawai@@ 13
hawks 13
hazel@@ 13
hitman 13
hks 13
huang 13
husky 13
icer 13
icon@@ 13
idol@@ 13
incredi@@ 13
inner@@ 13
intro@@ 13
irwin 13
iste 13
itek 13
iya 13
jada 13
jays 13
keyless 13
kine@@ 13
kira 13
kojic@@ 13
kon 13
kuma 13
kure@@ 13
lada 13
laro@@ 13
ld@@ 13
leath@@ 13
lionaire 13
logue 13
loz 13
lr@@ 13
lulu@@ 13
luster 13
lution 13
luxuri@@ 13
lynx 13
maison 13
manu@@ 13
mata 13
mathemat@@ 13
mbal 13
medicin@@ 13
mess@@ 13
mira 13
miro@@ 13
mistine 13
mlc 13
mmc 13
moi 13
mosa 13
mper@@ 13
mpy 13
nalgene 13
nec@@ 13
neko 13
nero 13
nest@@ 13
nino 13
nismo 13
nite 13
nostal@@ 13
nsk 13
numer@@ 13
obey 13
oppo@@ 13
ortho@@ 13
otto@@ 13
ough 13
paj@@ 13
pamp@@ 13
pete 13
peter@@ 13
pez 13
philipp 13
physiology 13
place@@ 13
planet@@ 13
plein 13
pment 13
pokki 13
pomelo 13
pon 13
prem 13
preven@@ 13
projects 13
psycho@@ 13
public 13
pullo@@ 13
qd 13
questions 13
rane@@ 13
rede@@ 13
refriger@@ 13
regener@@ 13
rell 13
repl@@ 13
resort 13
resur@@ 13
rhino@@ 13
rie@@ 13
rika 13
rim@@ 13
rive@@ 13
roc@@ 13
rocky 13
samsun@@ 13
samsung@@ 13
santos 13
satur@@ 13
schol@@ 13
schwarzkopf 13
seam@@ 13
seba@@ 13
seed@@ 13
sene@@ 13
seph@@ 13
sheen 13
shoel@@ 13
sible 13
skate@@ 13
sko@@ 13
snk 13
sophi@@ 13
sprou@@ 13
ssance 13
steph@@ 13
stewart 13
sti 13
stream@@ 13
strip@@ 13
struc@@ 13
suicide 13
summit 13
sung@@ 13
swing@@ 13
tains 13
tao@@ 13
td@@ 13
tefal 13
thread@@ 13
tissot 13
tita 13
tless 13
topia 13
toyo 13
tre 13
trs 13
try@@ 13
ttle 13
turismo 13
tutu@@ 13
type@@ 13
ua@@ 13
umi@@ 13
une@@ 13
univers@@ 13
ured 13
urumi 13
usb@@ 13
uss 13
uw 13
vable 13
vand@@ 13
vegas 13
verde 13
veron@@ 13
versus 13
vey@@ 13
viktor 13
vip@@ 13
vitara 13
vocaloid 13
vv@@ 13
wen 13
wiz 13
workshop 13
xiao 13
xiii 13
yr@@ 13
zel@@ 13
zepp@@ 13
zg@@ 13
zoe@@ 13
zp 13
zt 13
zzaro 13
ü@@ 13
H@@ 12
No 12
S 12
abo 12
ache@@ 12
ada@@ 12
admir@@ 12
adop@@ 12
aes 12
agu@@ 12
aig 12
ain@@ 12
aki@@ 12
alan@@ 12
amit 12
anas@@ 12
anus 12
appear@@ 12
aprica 12
asa@@ 12
asrock 12
astar 12
athers 12
athletics 12
avene 12
awe@@ 12
backpack@@ 12
baguette 12
bala 12
bambi 12
bape 12
baru@@ 12
baza@@ 12
beautyblender 12
beck@@ 12
bell@@ 12
beri 12
berry@@ 12
beyou@@ 12
bid 12
bie@@ 12
bili 12
bis 12
bli 12
bonjour 12
boon 12
bos@@ 12
botan@@ 12
branding 12
bree@@ 12
brick@@ 12
busters 12
byredo 12
cake@@ 12
captor 12
cco 12
ceci@@ 12
chacha 12
champs 12
charg@@ 12
chichi 12
ckers 12
clarins 12
cleef 12
clemen@@ 12
clj 12
clothes@@ 12
cny 12
coli 12
comme 12
cond@@ 12
cose 12
crossfit 12
ctional 12
ctr@@ 12
cutt@@ 12
dak@@ 12
danger@@ 12
dar 12
datsun 12
dec 12
denim@@ 12
ding@@ 12
doi@@ 12
done 12
duplo 12
dynasty 12
eleph@@ 12
emin 12
esc@@ 12
ester 12
evelyn 12
exp@@ 12
fah@@ 12
fei 12
ferre@@ 12
figh@@ 12
fing@@ 12
fox@@ 12
fum 12
gaga 12
galac@@ 12
gamo@@ 12
gato 12
gene 12
gian@@ 12
giga@@ 12
glamglow 12
gls 12
gnc 12
gner 12
goreng 12
got@@ 12
gour@@ 12
gre 12
grey@@ 12
gs@@ 12
gwg 12
gyu 12
haru 12
hercules 12
holistic 12
hope@@ 12
humi@@ 12
hux@@ 12
hw@@ 12
igu@@ 12
iling 12
imper@@ 12
insp@@ 12
itional 12
itz 12
jag@@ 12
java 12
jessie 12
jeweled 12
jog 12
joie 12
kali@@ 12
kami@@ 12
kanebo 12
kini 12
kla@@ 12
kni@@ 12
knigh@@ 12
koi@@ 12
koko@@ 12
konica 12
laby@@ 12
lago@@ 12
lander 12
lery 12
lever@@ 12
liana 12
lilian 12
lilli@@ 12
limit 12
llo@@ 12
lolli@@ 12
lot@@ 12
lovetoy 12
lunarlon 12
maest@@ 12
marsh@@ 12
mcgra@@ 12
mechanics 12
mes@@ 12
mico 12
midor@@ 12
mikey 12
mild@@ 12
minolta 12
mob 12
monroe 12
mony 12
motul 12
mpers 12
msg 12
nana 12
naru@@ 12
noo@@ 12
obd 12
oblique 12
og@@ 12
olympic 12
orts 12
ott 12
pace 12
pepper@@ 12
pero 12
pert 12
pick@@ 12
piko 12
ping@@ 12
pk@@ 12
plat 12
plush@@ 12
posay 12
pose 12
posh@@ 12
powe@@ 12
prim 12
protro 12
qic@@ 12
qua@@ 12
quest@@ 12
radar 12
raiser 12
rd@@ 12
refin@@ 12
rele@@ 12
revel@@ 12
rey@@ 12
rii 12
rine 12
rui 12
ryn 12
sanit@@ 12
sao 12
sar 12
satis@@ 12
scape 12
scien@@ 12
scoo@@ 12
scottie 12
scrip@@ 12
shen 12
shore 12
sical 12
sig 12
sks 12
slp 12
sor 12
sora 12
span@@ 12
squa@@ 12
stat@@ 12
stein@@ 12
steven 12
sticated 12
supr@@ 12
sur 12
taxi 12
tb@@ 12
temper@@ 12
teng 12
teresa 12
tfs 12
thic 12
thu@@ 12
tian@@ 12
tility 12
tj 12
tlc 12
tok 12
tonka 12
trainers 12
trid 12
trina 12
uch 12
uler 12
ulity 12
ulous 12
vamp@@ 12
vanna 12
vii 12
virgin@@ 12
vivienne 12
vou@@ 12
voyage@@ 12
wannaone 12
wav@@ 12
wbb@@ 12
weather@@ 12
week@@ 12
westwood 12
wins 12
xr@@ 12
xton 12
xxxg 12
zard 12
zaz@@ 12
zelle 12
zma 12
ø 12
L 11
achu 11
ael 11
agi@@ 11
ahan 11
airpo@@ 11
ake@@ 11
aker 11
akira 11
aku@@ 11
amazfit 11
anu 11
appe@@ 11
applied 11
archi@@ 11
archite@@ 11
armor@@ 11
ary@@ 11
asb 11
astrid 11
ati 11
aus@@ 11
austr@@ 11
bak 11
barry 11
basic@@ 11
beh@@ 11
bern@@ 11
bian@@ 11
bic@@ 11
bird@@ 11
biz@@ 11
blox 11
bracele@@ 11
bridge@@ 11
bry@@ 11
butt@@ 11
caf@@ 11
calcul@@ 11
camaro 11
camp@@ 11
cet 11
cheng 11
chou 11
chris@@ 11
cigare@@ 11
cleans@@ 11
climal@@ 11
communic@@ 11
cork@@ 11
cot@@ 11
crashguard 11
creepers 11
dah@@ 11
danica 11
daytona 11
db@@ 11
ddings 11
dear@@ 11
deep@@ 11
deodor@@ 11
deon@@ 11
derella 11
dire@@ 11
dlp 11
dman 11
docu@@ 11
dou 11
dred 11
ducati 11
dumbo 11
duo@@ 11
durex 11
dyna 11
ease 11
east@@ 11
ece 11
edge@@ 11
eeeeeeee@@ 11
eleg@@ 11
eling 11
ella@@ 11
emul@@ 11
enzy@@ 11
eries 11
exfoli@@ 11
festa 11
ffs 11
fie@@ 11
filip@@ 11
fina 11
flage 11
fm@@ 11
forever@@ 11
formul@@ 11
fragr@@ 11
ftc 11
galant 11
gawa 11
geant 11
gear@@ 11
gggg@@ 11
ggie 11
gid 11
glacier 11
gthen@@ 11
handle@@ 11
hank 11
haus 11
hele@@ 11
hersh@@ 11
hgbf 11
hid 11
hitachi 11
hok@@ 11
hola 11
hori 11
hound@@ 11
htt@@ 11
hype@@ 11
icy@@ 11
iner@@ 11
iners 11
interlocking 11
inven@@ 11
ipadair 11
iq@@ 11
iss@@ 11
iwatch@@ 11
jeun@@ 11
jing 11
jl@@ 11
jolie 11
js@@ 11
kd@@ 11
koa 11
kom 11
kos 11
kov 11
kyo 11
laco@@ 11
lary 11
leb 11
lif@@ 11
lily@@ 11
link@@ 11
lix 11
load@@ 11
lounge@@ 11
lowepro 11
luka 11
makers 11
manfrotto 11
manufac@@ 11
marco 11
marga@@ 11
marshmel@@ 11
massa@@ 11
mati@@ 11
mbl@@ 11
meow@@ 11
mg@@ 11
mile@@ 11
mind@@ 11
minkoff 11
misa 11
more@@ 11
msn 11
mua 11
murray 11
nba@@ 11
neigh@@ 11
nig@@ 11
nile 11
nimbus 11
nine@@ 11
nixon 11
noble@@ 11
noe 11
nx@@ 11
oi 11
oi@@ 11
okc 11
olin 11
onics 11
org 11
ote 11
ots 11
ours 11
oxo 11
paragraph 11
parfu@@ 11
parody 11
pav@@ 11
pcb 11
pei 11
perfe@@ 11
pharm 11
pillar 11
plantronics 11
pok@@ 11
prince@@ 11
prophe@@ 11
purit@@ 11
queenie 11
quer 11
qz 11
rac 11
race@@ 11
raf 11
rage 11
rapi@@ 11
recharg@@ 11
reo 11
rep 11
retin@@ 11
riche 11
roland 11
roll@@ 11
rom@@ 11
romand 11
rooms 11
rus@@ 11
ryo 11
sag@@ 11
sat 11
sax 11
seau 11
sebas@@ 11
seek 11
session 11
shoo@@ 11
shooky 11
shot@@ 11
sketch@@ 11
skinny@@ 11
smash@@ 11
smr 11
sms 11
softy@@ 11
solar@@ 11
solu@@ 11
sonic@@ 11
spaghe@@ 11
spalding 11
spark@@ 11
spine 11
spirits 11
springs 11
ssk 11
stacy 11
staff 11
stampede 11
stems 11
stm 11
suho 11
syner@@ 11
tae@@ 11
tah 11
tango 11
techno@@ 11
termin@@ 11
tero 11
text@@ 11
thb 11
thers 11
thia 11
tim@@ 11
tino 11
title 11
toi@@ 11
touri@@ 11
tpe 11
tries 11
tsuki@@ 11
turb@@ 11
tzu@@ 11
uemura 11
uly 11
unge 11
ustar 11
valen@@ 11
ventil@@ 11
versa 11
vigor 11
voo@@ 11
vor@@ 11
wang@@ 11
wata 11
whoo@@ 11
wj@@ 11
wool@@ 11
xiumin 11
xk 11
xt@@ 11
yang@@ 11
yas 11
yaz@@ 11
yoon@@ 11
ytx 11
yuasa 11
yuu@@ 11
zenbook 11
zig@@ 11
zinger 11
à@@ 11
á@@ 11
K@@ 10
T 10
Y 10
aaaa@@ 10
abund@@ 10
achen 10
acry@@ 10
addiction 10
afternoon 10
agility 10
alley 10
alter 10
alter@@ 10
alux 10
amansi 10
amat@@ 10
ampo@@ 10
anium 10
anna@@ 10
anny@@ 10
anything 10
apr 10
aps 10
aso 10
asp@@ 10
atar 10
atch 10
atmo@@ 10
aug@@ 10
aun@@ 10
ave@@ 10
baba 10
barbar@@ 10
basi@@ 10
basket@@ 10
batter@@ 10
bcaa 10
beaute@@ 10
bebe@@ 10
benro 10
bever@@ 10
biz 10
bluebird 10
boot@@ 10
boss@@ 10
bred 10
brush@@ 10
cambo@@ 10
capsu@@ 10
cardin 10
cator 10
caudalie 10
cello@@ 10
centr@@ 10
cf@@ 10
chea@@ 10
chung 10
ckets 10
cli 10
climacool 10
cloudfoam 10
cocos 10
como 10
condition@@ 10
confi@@ 10
connie 10
contin@@ 10
conveni@@ 10
cozy@@ 10
dart@@ 10
ddie 10
dem 10
descen@@ 10
desk@@ 10
dges 10
dle@@ 10
dmw 10
dq 10
dressroom 10
duel 10
dupont 10
dwar@@ 10
dwel@@ 10
dyo@@ 10
eddie 10
eler 10
endur@@ 10
eno@@ 10
evangeli@@ 10
even@@ 10
extre@@ 10
facebook 10
fal 10
fav@@ 10
feed@@ 10
fessi@@ 10
fgo 10
fone 10
forge 10
fret 10
fuku@@ 10
furyu 10
fuzzy 10
geor@@ 10
getti 10
ghi@@ 10
given@@ 10
glass@@ 10
grandline 10
gregory 10
gucc 10
gucci@@ 10
gymshark 10
haru@@ 10
hdhd@@ 10
hee@@ 10
hing@@ 10
hong@@ 10
hq@@ 10
hyalur@@ 10
ias 10
ib 10
icide 10
idal 10
imo@@ 10
iny 10
itude 10
iw 10
iwatch 10
izu@@ 10
jia 10
jia@@ 10
jn 10
jour 10
jq 10
kabu@@ 10
kakao 10
keep@@ 10
keras@@ 10
kina 10
kinect 10
kmc 10
kok 10
kokuyo 10
kong@@ 10
kul@@ 10
kun 10
kw@@ 10
lad@@ 10
laser@@ 10
laun@@ 10
leaf@@ 10
legato 10
lelo 10
leo@@ 10
lg@@ 10
like@@ 10
lini 10
lio 10
lipse 10
lonely 10
lous 10
lovely@@ 10
lunch@@ 10
mali@@ 10
mamon 10
mao 10
mariah 10
marion 10
marjorie 10
megui@@ 10
micha@@ 10
minim@@ 10
minum 10
moc@@ 10
modi@@ 10
mouth@@ 10
movi@@ 10
mpo@@ 10
mv@@ 10
napo@@ 10
noritake 10
north@@ 10
not@@ 10
nv@@ 10
odles 10
ordin@@ 10
original@@ 10
paradi@@ 10
peg@@ 10
peli@@ 10
penny@@ 10
phas@@ 10
phe 10
pher 10
phop 10
pippen 10
pita 10
pm@@ 10
pouch@@ 10
pran@@ 10
protect@@ 10
rascal 10
rcma 10
reads 10
rear@@ 10
reclin@@ 10
rever@@ 10
riz@@ 10
roe 10
romeo 10
ronin 10
sby 10
scallo@@ 10
scopic 10
scription 10
sebamed 10
sent 10
shado@@ 10
shka 10
shp 10
simply@@ 10
siri@@ 10
site 10
skul@@ 10
sla 10
sly@@ 10
snack@@ 10
snake@@ 10
souven@@ 10
stabil@@ 10
stin 10
studi@@ 10
superfly 10
supre@@ 10
swift@@ 10
syno@@ 10
tako 10
tase 10
tau@@ 10
tbag 10
tern 10
tesla 10
thon 10
til 10
tillandsia 10
tley 10
todd@@ 10
tory@@ 10
totolink 10
tough@@ 10
treat@@ 10
troll 10
trop@@ 10
trou@@ 10
tshirt@@ 10
tts 10
tul 10
tup 10
tyler 10
tzu 10
ud@@ 10
undefeated 10
uptempo 10
usams 10
users 10
uu@@ 10
vana 10
vape@@ 10
vb 10
vian 10
victor@@ 10
viii 10
virtue 10
vista 10
vivier 10
vy@@ 10
wagon 10
wake 10
wards 10
wart 10
wk@@ 10
wren@@ 10
xo@@ 10
xon 10
yl@@ 10
yoshi@@ 10
yte 10
yvon@@ 10
zes 10
zilla 10
zur@@ 10
á 10
ᅠ 10
A 9
V@@ 9
aca 9
acc@@ 9
alog 9
alphab@@ 9
amg 9
anch@@ 9
androi@@ 9
anese 9
aphy 9
arc@@ 9
arden@@ 9
arnold 9
arth@@ 9
artist@@ 9
athlon 9
athy 9
atmos 9
atta 9
attipas 9
audio@@ 9
autu@@ 9
avalon 9
bagu@@ 9
bali@@ 9
bena 9
biology 9
bj@@ 9
bling@@ 9
brat@@ 9
bridesm@@ 9
brother@@ 9
buc@@ 9
cambridge 9
camer@@ 9
campbell 9
capu@@ 9
cartoon@@ 9
cay@@ 9
cecil 9
champ@@ 9
charon 9
chay 9
chette 9
clari@@ 9
colum@@ 9
combin@@ 9
constance 9
coste 9
court@@ 9
crank@@ 9
cryst@@ 9
cyc@@ 9
dac 9
dcr 9
demon@@ 9
deon 9
detro@@ 9
dimen@@ 9
diorama 9
disk@@ 9
dison 9
dol 9
dow@@ 9
dox 9
dp@@ 9
dsy@@ 9
due 9
duffy 9
dula 9
dz@@ 9
economics 9
eko@@ 9
elaine 9
elan 9
elec@@ 9
enhan@@ 9
eo@@ 9
evo@@ 9
excel@@ 9
exclu@@ 9
fee@@ 9
flake 9
force@@ 9
forty 9
foun@@ 9
franci@@ 9
garcons 9
gator 9
gene@@ 9
gf@@ 9
gio@@ 9
gj 9
glad@@ 9
gm@@ 9
gor 9
grate@@ 9
greg@@ 9
grin@@ 9
gsr 9
gts 9
guin@@ 9
gurt 9
helen 9
helle 9
hem@@ 9
hero@@ 9
hey@@ 9
hime 9
hl@@ 9
hobo@@ 9
hoo 9
hud 9
hus@@ 9
ial@@ 9
iggle 9
ilce 9
illian 9
immor@@ 9
indepen@@ 9
industri@@ 9
initi@@ 9
ipo@@ 9
ison 9
itsu 9
iz@@ 9
jab@@ 9
japan@@ 9
jeffrey 9
joe@@ 9
jum@@ 9
kate@@ 9
kav@@ 9
kayu@@ 9
kiddy 9
kom@@ 9
ktm 9
kymco 9
leido@@ 9
lets@@ 9
liar 9
licca 9
longsle@@ 9
lowe@@ 9
lp@@ 9
lrs 9
mafia 9
major@@ 9
mano 9
marathon 9
mask@@ 9
maybel@@ 9
mechan@@ 9
meo 9
mero 9
met@@ 9
miao 9
mitch@@ 9
mtr@@ 9
muscle@@ 9
muse@@ 9
must@@ 9
mx@@ 9
naraya 9
ncy 9
nerd 9
nico 9
nity 9
nt@@ 9
nya 9
oat@@ 9
onesi@@ 9
online@@ 9
opera 9
ophidia 9
ornam@@ 9
oto 9
pastil@@ 9
pepti@@ 9
phyto@@ 9
pipp@@ 9
pol 9
pola 9
powershot 9
priced 9
prophere 9
pse 9
pub 9
qin 9
qm 9
qua 9
reali@@ 9
recor@@ 9
rene@@ 9
repu@@ 9
respir@@ 9
respon@@ 9
roberta 9
roberto 9
rosherun 9
rossi 9
rover 9
rubb@@ 9
sanyo 9
sche 9
sche@@ 9
schwar@@ 9
shadow@@ 9
shap@@ 9
sii 9
skull@@ 9
slender 9
soldi@@ 9
sox 9
soy@@ 9
special@@ 9
spectr@@ 9
sports@@ 9
sps 9
square@@ 9
stery 9
stir@@ 9
stopp@@ 9
sual 9
sv@@ 9
sx@@ 9
sylv@@ 9
tacti@@ 9
taga@@ 9
taito 9
tarmac 9
team@@ 9
tetra 9
therm 9
thermaltake 9
think@@ 9
tify 9
tik@@ 9
tnc 9
toc 9
trai@@ 9
transpa@@ 9
tulog 9
tuning 9
udf 9
ulanzi 9
ule 9
uncle 9
ures 9
usage 9
vals 9
vas 9
vat@@ 9
very@@ 9
vessel 9
victon 9
viet@@ 9
viv@@ 9
walt 9
warri@@ 9
whoo 9
wig@@ 9
wm@@ 9
xvi 9
xxxiv 9
yne 9
yoko@@ 9
yp@@ 9
zal@@ 9
zj 9
zw 9
스@@ 9
Y@@ 8
aan 8
abil@@ 8
acou@@ 8
action@@ 8
ader 8
adidas@@ 8
aesthe@@ 8
afford@@ 8
akra@@ 8
alight 8
alpine 8
amaz@@ 8
ambassador 8
amiibo 8
amoto 8
anessa 8
angler 8
antha 8
aorus 8
apa@@ 8
appy 8
aromather@@ 8
atic 8
atory 8
ava@@ 8
avan@@ 8
bai 8
baja@@ 8
baker@@ 8
bcd 8
bd@@ 8
bdsm 8
bergam@@ 8
bioderma 8
boe@@ 8
bp@@ 8
brown@@ 8
buff@@ 8
bureau 8
bwfc 8
calyp@@ 8
candle@@ 8
caro@@ 8
carry@@ 8
carto@@ 8
cds 8
cellu@@ 8
chao 8
cheese@@ 8
chopp@@ 8
christina 8
chun 8
cig@@ 8
cil 8
cil@@ 8
cls 8
clutch@@ 8
cocon@@ 8
code@@ 8
codgenuine 8
cola@@ 8
cph 8
cpl 8
ctis 8
cuis@@ 8
cuisinart 8
cuto@@ 8
dara 8
ded@@ 8
dents 8
detoxi@@ 8
devil@@ 8
disinfe@@ 8
dk@@ 8
domo 8
duction 8
dum 8
duramo 8
dx@@ 8
eart 8
edi@@ 8
eeee@@ 8
efr 8
eland 8
electr@@ 8
elet 8
elie 8
equip@@ 8
ess@@ 8
estée 8
eter@@ 8
etude@@ 8
euph@@ 8
eys 8
ffl@@ 8
finch 8
flexi@@ 8
fq 8
fron@@ 8
futura 8
future@@ 8
gether 8
ghi 8
ginger@@ 8
gladi@@ 8
gna@@ 8
gol 8
gq 8
gram@@ 8
grape@@ 8
gry 8
gto 8
haiky@@ 8
hc@@ 8
hgbd 8
hiro 8
hm@@ 8
huawe@@ 8
ichi 8
ige 8
inese 8
inser@@ 8
introduction 8
ione 8
irs 8
ise@@ 8
isi 8
isk 8
iti 8
itz@@ 8
jitsu 8
kig@@ 8
kis@@ 8
koff 8
kook 8
laren 8
lego@@ 8
lightly 8
linear 8
lins 8
liss 8
ller 8
logg 8
loulou 8
lun 8
lunar@@ 8
maisto 8
majorette 8
mama@@ 8
margar@@ 8
marjor@@ 8
mash 8
match@@ 8
matebook 8
mbo@@ 8
meta@@ 8
mist@@ 8
mov@@ 8
mpc 8
mph@@ 8
nb@@ 8
nds 8
nespresso 8
nini 8
noah 8
notorious 8
nz@@ 8
oak@@ 8
ootd@@ 8
oride 8
orio 8
osh@@ 8
oul 8
owner 8
oy@@ 8
packaged 8
pcs@@ 8
peau 8
personali@@ 8
peti@@ 8
phan@@ 8
phen 8
phy 8
physics 8
pillow@@ 8
pired 8
playmobil 8
playo@@ 8
plp 8
pocky 8
pool@@ 8
porter 8
princess@@ 8
prop@@ 8
psv 8
randy 8
realmext 8
refe@@ 8
regul@@ 8
rement 8
rens 8
roid 8
roller@@ 8
rs@@ 8
rt@@ 8
rur@@ 8
ryx@@ 8
sabon 8
sae@@ 8
sauvage 8
sbs 8
sculp@@ 8
seal@@ 8
secre@@ 8
serv@@ 8
sgs 8
shampo@@ 8
shang@@ 8
shav@@ 8
shaw 8
sii@@ 8
sional 8
smal 8
sou 8
splash@@ 8
squish@@ 8
ssie 8
starbu@@ 8
story@@ 8
structure 8
stuffed@@ 8
sturi@@ 8
successful 8
sumi 8
sunny@@ 8
supra 8
supreme@@ 8
surve@@ 8
survi@@ 8
taipei 8
tamron 8
tant 8
tao 8
tape@@ 8
tari@@ 8
taway 8
technica 8
tens 8
tified 8
tiki 8
tings 8
tiny@@ 8
tium 8
toto 8
towel@@ 8
trail@@ 8
trese@@ 8
tura 8
turi@@ 8
uk@@ 8
ultras@@ 8
unc 8
uno@@ 8
usa@@ 8
velo 8
vest@@ 8
vinci@@ 8
vuit@@ 8
whide 8
wid@@ 8
wireless@@ 8
wrc 8
wth 8
wurth 8
wv 8
xbox@@ 8
xii 8
xu@@ 8
year@@ 8
yeti 8
yui 8
zak@@ 8
zp@@ 8
ō@@ 8
N 7
abs@@ 7
acade@@ 7
alche@@ 7
amax 7
amos 7
anderson 7
apri@@ 7
april@@ 7
ascor@@ 7
assembl@@ 7
ater@@ 7
atex 7
atine 7
audi@@ 7
bacter@@ 7
bake@@ 7
bam@@ 7
bandou@@ 7
baobao 7
barce@@ 7
beaut@@ 7
begin@@ 7
benq 7
bisco 7
bjd 7
blah@@ 7
blon@@ 7
bobo@@ 7
bom 7
brigh@@ 7
brisk 7
bts@@ 7
caa 7
cami@@ 7
cataly@@ 7
cb@@ 7
cec@@ 7
celest@@ 7
ceo 7
cezanne 7
chef@@ 7
chop@@ 7
chronic@@ 7
cindy@@ 7
ckey 7
coal 7
compati@@ 7
concord 7
coni 7
corsa 7
cove@@ 7
craw@@ 7
cullo@@ 7
cz@@ 7
cé@@ 7
dants 7
ddi 7
ddy@@ 7
dery 7
deter@@ 7
digit@@ 7
dino@@ 7
dit 7
dm@@ 7
dn@@ 7
drag@@ 7
dresse@@ 7
dut@@ 7
echo@@ 7
ef@@ 7
eld 7
eliz@@ 7
enri@@ 7
eq@@ 7
erun@@ 7
espo@@ 7
este@@ 7
experi@@ 7
fare 7
favor@@ 7
festi@@ 7
flon 7
flow@@ 7
fluore@@ 7
form@@ 7
fry@@ 7
garden@@ 7
gaul@@ 7
gelat@@ 7
genu@@ 7
gets 7
gian 7
gil 7
gorg@@ 7
grizz@@ 7
haha@@ 7
haku 7
hepa 7
hj 7
hn@@ 7
ht@@ 7
huahua 7
hydra@@ 7
hyun@@ 7
ility 7
imit@@ 7
indu@@ 7
infan@@ 7
intuos 7
iphone@@ 7
isab@@ 7
ishig@@ 7
isu@@ 7
isure 7
ita@@ 7
ition@@ 7
iu@@ 7
jae@@ 7
jeans@@ 7
jf@@ 7
jimny 7
jm@@ 7
jogg@@ 7
katsu 7
keepall 7
kered 7
kipl@@ 7
kitty@@ 7
kopf 7
ks@@ 7
labor@@ 7
lamp@@ 7
legen@@ 7
leica 7
logo@@ 7
loop@@ 7
louboutin 7
macaro@@ 7
mainten@@ 7
maj@@ 7
maje@@ 7
makap@@ 7
mandar@@ 7
manolo 7
mare 7
mate@@ 7
mayday 7
mccartney 7
measure@@ 7
mechani@@ 7
megahouse 7
mez@@ 7
mha 7
mickey@@ 7
miffy 7
miko 7
mmd 7
modu@@ 7
montaigne 7
montblanc 7
mot 7
narci@@ 7
nay@@ 7
nite@@ 7
npg 7
nutr@@ 7
oa 7
opu@@ 7
opy 7
ora@@ 7
own@@ 7
pallas 7
panor@@ 7
pec 7
peggy 7
pentax 7
pepp@@ 7
phe@@ 7
philo@@ 7
pipe@@ 7
pipedream 7
plc 7
pleas@@ 7
popo@@ 7
prairie 7
pret@@ 7
previa 7
print@@ 7
prm 7
pup 7
qh 7
quo@@ 7
raff@@ 7
rayban 7
rb@@ 7
rect@@ 7
refil@@ 7
repe@@ 7
reve@@ 7
reven@@ 7
rg@@ 7
river@@ 7
ror@@ 7
rou 7
runk 7
sack@@ 7
sain@@ 7
samson@@ 7
sandal@@ 7
sant@@ 7
sarasa 7
schu@@ 7
sdd@@ 7
shal@@ 7
shark@@ 7
sharpen@@ 7
shimm@@ 7
shipp@@ 7
simi@@ 7
simo@@ 7
sium 7
skateboards 7
smo 7
smooth@@ 7
snic@@ 7
sop 7
soph@@ 7
spic@@ 7
sply 7
spon@@ 7
squea@@ 7
srs 7
stabi@@ 7
stai@@ 7
stamp@@ 7
stati@@ 7
steen 7
stron@@ 7
subli@@ 7
suc@@ 7
sui@@ 7
superme 7
sut@@ 7
switch@@ 7
syl@@ 7
syru@@ 7
taps 7
tc@@ 7
tekno 7
tere@@ 7
thentic 7
timber@@ 7
tiro 7
titude 7
tod 7
toga 7
tomytec 7
tp@@ 7
tq 7
tq@@ 7
trix 7
tsc 7
turer 7
tvs 7
tz@@ 7
ubi@@ 7
ue@@ 7
uncaged 7
undercover 7
usm 7
vc@@ 7
vdl 7
vino 7
vivian 7
vs@@ 7
wacom 7
wardro@@ 7
wx@@ 7
xzs 7
yach@@ 7
yao@@ 7
yeh 7
ym@@ 7
â@@ 7
ère 7
ø@@ 7
า@@ 7
NE@@ 6
addi@@ 6
adian 6
airing 6
alar@@ 6
aldo@@ 6
angeli@@ 6
anian 6
anish 6
annivers@@ 6
apu@@ 6
ashes 6
asis 6
aux@@ 6
awa 6
baller@@ 6
balmain 6
banne 6
belie@@ 6
benz@@ 6
bk@@ 6
blin 6
bluetoo@@ 6
bonding 6
bone@@ 6
brazi@@ 6
bugs@@ 6
burton 6
button@@ 6
butts 6
cabas 6
caesar 6
calbee 6
calibur 6
calor@@ 6
cancel@@ 6
carhartt 6
cayenne 6
ccd 6
ccit@@ 6
cent@@ 6
cerity 6
chanel@@ 6
chr@@ 6
cite 6
citro@@ 6
coffe@@ 6
compon@@ 6
constell@@ 6
coo 6
cooper@@ 6
copi@@ 6
crash@@ 6
cro 6
crocs@@ 6
crt 6
crystal@@ 6
culus 6
date@@ 6
deto@@ 6
deur 6
dia@@ 6
diap@@ 6
distor@@ 6
distri@@ 6
dlc 6
doki 6
dopp@@ 6
doris 6
dot@@ 6
eau@@ 6
edison 6
ema 6
emper@@ 6
enel 6
enta 6
etu@@ 6
expan@@ 6
expand@@ 6
fac 6
femin@@ 6
fenix 6
fiya 6
focus@@ 6
forester 6
fph 6
france@@ 6
frey 6
friend@@ 6
fs@@ 6
fuj@@ 6
fused 6
gano@@ 6
gement 6
gham 6
handker@@ 6
hans@@ 6
hb@@ 6
hdf 6
hind@@ 6
hour@@ 6
hoyo@@ 6
hs@@ 6
huar@@ 6
hwa 6
ichi@@ 6
ign 6
igue 6
ike 6
inci@@ 6
individu@@ 6
indonesi@@ 6
insi@@ 6
instin@@ 6
ional 6
ipad@@ 6
iss 6
itake 6
ital@@ 6
ivy@@ 6
jb@@ 6
jel 6
jenni@@ 6
jie@@ 6
judy 6
jung@@ 6
kc@@ 6
kenne@@ 6
kic 6
kinder@@ 6
kirk@@ 6
kitchen@@ 6
kj@@ 6
kou@@ 6
kq 6
lbj 6
lebr@@ 6
legg@@ 6
licen@@ 6
loid 6
longhi 6
longines 6
lunarglide 6
lz@@ 6
marry 6
marui 6
marvel@@ 6
mated 6
mbers 6
meas@@ 6
mech@@ 6
merchan@@ 6
messen@@ 6
mfi 6
mics 6
miki 6
mma@@ 6
montreal 6
mos@@ 6
motorcy@@ 6
nee@@ 6
ney@@ 6
nir@@ 6
nnnn@@ 6
nrg 6
né@@ 6
oa@@ 6
odd@@ 6
odle 6
office@@ 6
only@@ 6
onthe@@ 6
oom 6
oos 6
ords 6
oris 6
oroll 6
orus 6
outlander 6
ozweego 6
palladium 6
pari@@ 6
paro@@ 6
pd@@ 6
perspir@@ 6
pharrell 6
pik@@ 6
pist@@ 6
postale 6
pound 6
pressor 6
produce 6
putitto 6
px@@ 6
qe 6
ras 6
receip@@ 6
redu@@ 6
reno@@ 6
resu@@ 6
retrac@@ 6
rfid@@ 6
rhyton 6
ribs 6
richell 6
rob@@ 6
ror 6
salo@@ 6
salvat@@ 6
sammy 6
saudi@@ 6
sca@@ 6
scienti@@ 6
shb 6
sherry 6
shox 6
sip@@ 6
slk 6
smallrig 6
sml 6
spat@@ 6
spm 6
ssr 6
sum@@ 6
suzu@@ 6
swar@@ 6
swarov@@ 6
sweeth@@ 6
tasia 6
tasse@@ 6
teco 6
thavasa 6
thursday 6
tifying 6
tigo 6
titi@@ 6
tmax 6
touring 6
toyo@@ 6
tpu@@ 6
trape@@ 6
trey 6
trit@@ 6
troo@@ 6
tumbl@@ 6
tze 6
ucci 6
ufu@@ 6
ugg@@ 6
uli 6
usal 6
uu 6
vacu@@ 6
vale 6
vea@@ 6
viral 6
virtu@@ 6
vise@@ 6
vj 6
vor 6
vulc 6
vz 6
wave@@ 6
weeken@@ 6
well@@ 6
wester@@ 6
wheel@@ 6
willi@@ 6
willy 6
wis@@ 6
woc 6
wt@@ 6
yaman@@ 6
zojirushi 6
å@@ 6
ê@@ 6
ì 6
ó@@ 6
ú@@ 6
ஐ@@ 6
소@@ 6
웃 6
C 5
D 5
H 5
TM@@ 5
abac@@ 5
abc@@ 5
accesor@@ 5
achu@@ 5
acia 5
aka@@ 5
alas@@ 5
alcat@@ 5
ales 5
almon@@ 5
amide 5
amon 5
andri@@ 5
aniel 5
anita 5
aoc 5
apex@@ 5
apon 5
armo@@ 5
arn@@ 5
assc 5
asw 5
atf 5
bade@@ 5
bael@@ 5
bana@@ 5
bani@@ 5
barba@@ 5
bate 5
bbie 5
beas@@ 5
bime 5
booking 5
bray 5
brook@@ 5
bubu@@ 5
carne@@ 5
cefiro 5
celia 5
challen@@ 5
charge@@ 5
charri@@ 5
chev@@ 5
chies 5
christo@@ 5
chrono@@ 5
cna 5
conven@@ 5
cophone 5
copter 5
corte@@ 5
crown@@ 5
cules 5
cun@@ 5
cyn@@ 5
darwin 5
demo 5
dient 5
diptyque 5
disney@@ 5
diy@@ 5
dmi 5
doe 5
duroy 5
ecco 5
edition@@ 5
educat@@ 5
engra@@ 5
enna 5
erina 5
error 5
ett@@ 5
evel@@ 5
fear@@ 5
ffin 5
fh@@ 5
fitch@@ 5
flan@@ 5
fos@@ 5
frog@@ 5
frs 5
furnit@@ 5
geek@@ 5
gentle@@ 5
georg@@ 5
ggings 5
gie@@ 5
gogo@@ 5
goody@@ 5
gou 5
grl 5
gsi 5
guess@@ 5
gund@@ 5
gx@@ 5
hanna@@ 5
hcg 5
heavy@@ 5
hei 5
hill@@ 5
hp@@ 5
hugg@@ 5
hun 5
ica@@ 5
ige@@ 5
ily@@ 5
imar@@ 5
impreza 5
ines@@ 5
infalli@@ 5
inger@@ 5
inhal@@ 5
inspir@@ 5
instab@@ 5
intu@@ 5
ipan@@ 5
itsu@@ 5
jacket@@ 5
jai 5
jano@@ 5
jazz@@ 5
jd@@ 5
jessi@@ 5
jojo@@ 5
juni@@ 5
knu@@ 5
kuku@@ 5
kutku@@ 5
lade@@ 5
lagerfeld 5
laugh@@ 5
lauren@@ 5
laz@@ 5
lead@@ 5
levit@@ 5
liu 5
lotto 5
loved@@ 5
lyne@@ 5
mals 5
malu@@ 5
malun@@ 5
margi@@ 5
mariner 5
maserati 5
masturbat@@ 5
mbus 5
mea 5
megab@@ 5
meng 5
mian 5
michaelkors 5
migh@@ 5
mirror@@ 5
mita 5
mobil 5
moda@@ 5
monster@@ 5
mood@@ 5
motogp 5
mous@@ 5
mouse@@ 5
mq@@ 5
msp@@ 5
muller 5
neighborhood 5
nendor@@ 5
neonoe 5
neso@@ 5
ninten@@ 5
nou@@ 5
ns@@ 5
oem@@ 5
oku@@ 5
ophi@@ 5
orne 5
osp@@ 5
palla@@ 5
pb@@ 5
peace@@ 5
peekaboo 5
pengu@@ 5
pga 5
philip@@ 5
pinn@@ 5
pinnacle 5
plac@@ 5
polis 5
popu@@ 5
posable 5
ppsu 5
pq 5
prospex 5
pupp@@ 5
purcell 5
purpo@@ 5
puzz@@ 5
qo 5
quant@@ 5
quel@@ 5
qv 5
redmi@@ 5
renew@@ 5
restock@@ 5
revie@@ 5
rf@@ 5
rhine@@ 5
ril@@ 5
rode 5
rodri@@ 5
rons 5
room@@ 5
rug@@ 5
saram@@ 5
saugw@@ 5
saur 5
scoop@@ 5
seac@@ 5
season@@ 5
shih 5
shoulder@@ 5
simba 5
simple@@ 5
song@@ 5
spear@@ 5
spell@@ 5
spig@@ 5
sponge@@ 5
spot@@ 5
ssey 5
stradi@@ 5
submariner 5
teana 5
tencel 5
teque 5
test@@ 5
teur 5
thermal@@ 5
three@@ 5
tinker@@ 5
tl@@ 5
tods 5
togo 5
tone@@ 5
tpad 5
trance 5
trek@@ 5
tupper@@ 5
turenne 5
twee@@ 5
ude 5
ulzz@@ 5
unce 5
uniqlo@@ 5
usable 5
vane@@ 5
vid 5
ving@@ 5
volcan@@ 5
vx@@ 5
waii 5
walk@@ 5
weitz@@ 5
winflo 5
wip 5
wz 5
xiu 5
yamamoto 5
yaya@@ 5
yea@@ 5
yesha 5
yung 5
yur@@ 5
yz 5
zable 5
zir@@ 5
zq 5
zun@@ 5
ö 5
ā@@ 5
ღ@@ 5
년@@ 5
단 5
방@@ 5
유 5
이@@ 5
탄@@ 5
G 4
P 4
accor@@ 4
adida 4
alls 4
alumini@@ 4
amarine 4
amination 4
anci@@ 4
angela@@ 4
animate 4
anto 4
aphrodi@@ 4
appa 4
arine 4
armp@@ 4
asha@@ 4
aspe@@ 4
ata@@ 4
atti@@ 4
aveng@@ 4
bale@@ 4
bapti@@ 4
bbia 4
bearbrick 4
betrue 4
bey 4
bhm 4
blee@@ 4
blk@@ 4
braz@@ 4
bride@@ 4
brita 4
bum@@ 4
cafe@@ 4
calvin@@ 4
camper 4
canto 4
carter@@ 4
cashe@@ 4
cci@@ 4
certi@@ 4
chee 4
cheon 4
chiara 4
ching@@ 4
chiu 4
chlor@@ 4
chukka 4
cious 4
citizen@@ 4
classic@@ 4
cockro@@ 4
collap@@ 4
collection@@ 4
cosi 4
cox 4
cucci@@ 4
cuti@@ 4
daiwa 4
datejust 4
dayan 4
daybreak 4
defi@@ 4
deser@@ 4
difier 4
discoun@@ 4
dlx 4
dow 4
dsl@@ 4
dup@@ 4
dyson 4
eam 4
eb@@ 4
econ@@ 4
edel@@ 4
effe@@ 4
ego@@ 4
ej@@ 4
elect@@ 4
elu@@ 4
enga@@ 4
engine@@ 4
epo@@ 4
era@@ 4
evera 4
extrac@@ 4
eyescream 4
fact 4
factor@@ 4
family@@ 4
fans@@ 4
fant 4
farer 4
fc@@ 4
feld 4
ferti@@ 4
fessional 4
ffel 4
find@@ 4
flavo@@ 4
flb 4
flesh@@ 4
foamposite 4
frag@@ 4
fragment 4
fury@@ 4
gash@@ 4
gdr 4
gency 4
ghtening 4
gior@@ 4
givea@@ 4
gmt 4
gne@@ 4
gree@@ 4
gri 4
guo 4
gz@@ 4
heron 4
hid@@ 4
hik@@ 4
hike 4
hop@@ 4
huang@@ 4
huawei@@ 4
huf 4
hyg@@ 4
hyp@@ 4
ials 4
igi 4
ignite 4
illustr@@ 4
imac 4
ina@@ 4
indic@@ 4
ingre@@ 4
inkle 4
insane 4
inspi@@ 4
install@@ 4
iris@@ 4
izz@@ 4
jaco@@ 4
jere@@ 4
jir@@ 4
jose@@ 4
jur@@ 4
jvc 4
kaido 4
kanye 4
kb@@ 4
kees 4
kend@@ 4
kerastase 4
kori@@ 4
kumamon 4
kut@@ 4
labo@@ 4
lacoste@@ 4
lame@@ 4
lele@@ 4
lents 4
leton 4
liary 4
libr@@ 4
lles 4
loe@@ 4
lolo@@ 4
louis@@ 4
lovelive 4
lowrys 4
lthr 4
lynn 4
madel@@ 4
magn@@ 4
majo@@ 4
mami@@ 4
marcel@@ 4
mble@@ 4
mediate 4
medicom 4
meleon 4
melv@@ 4
merce@@ 4
merry@@ 4
mez 4
mfc 4
mick 4
mismatch 4
mizing 4
month@@ 4
moonstar 4
motiv@@ 4
msp 4
mw@@ 4
mé@@ 4
nebu@@ 4
negoti@@ 4
nice@@ 4
nyx@@ 4
octavia 4
oney 4
ood 4
ooo 4
opard 4
oss 4
outer@@ 4
paid 4
parat@@ 4
parley 4
peaceminusone 4
pean@@ 4
peko 4
pg@@ 4
piag@@ 4
piece@@ 4
pine@@ 4
piyo 4
plas 4
ples 4
plets 4
plung@@ 4
poc@@ 4
practi@@ 4
prene 4
primeknit 4
prospe@@ 4
pyram@@ 4
pyun@@ 4
qk 4
rang@@ 4
rcp 4
rea@@ 4
recei@@ 4
restaur@@ 4
robu@@ 4
rong 4
rotat@@ 4
ryz 4
saab 4
sario 4
scot@@ 4
scrun@@ 4
sealable 4
seamaster 4
seiwa 4
sensat@@ 4
seo@@ 4
seta 4
shake@@ 4
shape@@ 4
shey 4
shim 4
shm 4
sicle 4
sils 4
skater@@ 4
skit 4
sly 4
smit@@ 4
sneak@@ 4
sneaker@@ 4
solder@@ 4
sop@@ 4
squishy@@ 4
ssd@@ 4
ssimo 4
ssin 4
staedt@@ 4
stap@@ 4
storm@@ 4
strap@@ 4
studio@@ 4
suckle 4
suk@@ 4
sylvie 4
tama 4
tami@@ 4
tane 4
tate 4
tdc 4
tene 4
tesco@@ 4
thick@@ 4
thicken@@ 4
thous@@ 4
tiff@@ 4
tiger@@ 4
tines 4
tnf 4
tomor@@ 4
toryburch 4
tourmal@@ 4
transmit@@ 4
trefoil 4
trol 4
tty@@ 4
turtle@@ 4
tux@@ 4
twen@@ 4
uce 4
uj 4
ulic 4
uling 4
upd@@ 4
upf 4
uten@@ 4
vans@@ 4
vegetari@@ 4
ves@@ 4
vices 4
virgil 4
vivoy 4
vl@@ 4
volution 4
vomero 4
vph 4
whi 4
whirl@@ 4
wifi@@ 4
windo@@ 4
wot 4
wow@@ 4
xe@@ 4
xf@@ 4
xing@@ 4
xir 4
xiv 4
xuan 4
yer 4
yod 4
yuan@@ 4
yujin 4
yyp 4
zirco@@ 4
à 4
í@@ 4
î@@ 4
ï@@ 4
ò@@ 4
ē@@ 4
α 4
μ@@ 4
늘 4
미@@ 4
I 3
M 3
R 3
TE@@ 3
abloh 3
adizero 3
agement 3
agen@@ 3
aland 3
alaya 3
alian 3
alur@@ 3
amber@@ 3
angular 3
annah 3
annie@@ 3
anny 3
apeach 3
aphro@@ 3
apol@@ 3
apps 3
arbu@@ 3
assa@@ 3
assle 3
asty 3
atsu@@ 3
aya@@ 3
bage 3
balenci@@ 3
ballo@@ 3
bander@@ 3
bask 3
bbies 3
bec@@ 3
bii 3
bike@@ 3
billi@@ 3
binders 3
bobo 3
bool@@ 3
browne 3
bson 3
bto@@ 3
build@@ 3
bumbag 3
busti@@ 3
bvl@@ 3
bvlgar@@ 3
cappu@@ 3
carni@@ 3
casio@@ 3
cater@@ 3
catri@@ 3
cdw 3
celine@@ 3
cept 3
chamo@@ 3
chane 3
chback 3
chiang 3
chloé 3
citi@@ 3
clat 3
cly@@ 3
cnc@@ 3
codi@@ 3
collecti@@ 3
colt 3
consortium 3
coordin@@ 3
cosme 3
country@@ 3
crazylight 3
crew@@ 3
croche@@ 3
curel 3
dak 3
daph@@ 3
dauph@@ 3
defiant 3
destroy@@ 3
dionysus 3
dise 3
dita 3
dkn@@ 3
doggy@@ 3
dorae@@ 3
dus@@ 3
ecology 3
edt@@ 3
edwin 3
elan@@ 3
elf@@ 3
elite@@ 3
ello@@ 3
enh@@ 3
enthusi@@ 3
eous 3
ergono@@ 3
erin@@ 3
ers@@ 3
eva@@ 3
exe 3
exe@@ 3
exha@@ 3
facing 3
fancy@@ 3
fate@@ 3
ferra@@ 3
ferrag@@ 3
ffon 3
ffy@@ 3
fier@@ 3
flag@@ 3
flashback 3
fog@@ 3
frai@@ 3
frien@@ 3
fw@@ 3
gao@@ 3
gens 3
ggi 3
ghao 3
gigab@@ 3
glan 3
gne 3
gp@@ 3
grandi@@ 3
gros 3
guaran@@ 3
hands@@ 3
hashi 3
hava@@ 3
havai@@ 3
herit@@ 3
hexag@@ 3
hilfig@@ 3
hobby@@ 3
holli@@ 3
holly@@ 3
holo@@ 3
hz@@ 3
ibanez 3
ican 3
ics@@ 3
ifashion 3
ilton 3
inder 3
infiniti 3
ipa@@ 3
ips@@ 3
ista@@ 3
izing 3
jibb@@ 3
jill@@ 3
jt@@ 3
judy@@ 3
juice@@ 3
kand@@ 3
karao@@ 3
kayano 3
kdl 3
keyway 3
kith 3
klean@@ 3
knee@@ 3
ktor 3
kyosho 3
lando 3
leap@@ 3
leathe@@ 3
lette@@ 3
lf@@ 3
lindy 3
lipl@@ 3
lone@@ 3
longchamp@@ 3
loot@@ 3
lored 3
luna@@ 3
lx@@ 3
mamaway 3
mammy 3
manne@@ 3
marke@@ 3
maure@@ 3
mbler 3
mccar@@ 3
medu@@ 3
melia 3
membr@@ 3
meme@@ 3
mendo@@ 3
merci@@ 3
mercurial 3
mere 3
mete@@ 3
mex@@ 3
mia@@ 3
michael@@ 3
mikay@@ 3
mish 3
mister@@ 3
miya@@ 3
mmj 3
moire 3
moiselle 3
momol@@ 3
moncler 3
monogram@@ 3
moshi 3
mote 3
mountaine@@ 3
mrl 3
mrt 3
muna@@ 3
murphy 3
mut 3
nation@@ 3
neoflam 3
newbalance 3
nh@@ 3
nicho@@ 3
niki 3
nis@@ 3
nizza 3
nong@@ 3
nova@@ 3
nr@@ 3
nxedge 3
obi@@ 3
odor@@ 3
oint@@ 3
oly@@ 3
onic@@ 3
ooth 3
opa@@ 3
order@@ 3
orter 3
overkill 3
pape@@ 3
patag@@ 3
patek 3
pazz@@ 3
pecu@@ 3
penhaligon 3
pes@@ 3
philosoph@@ 3
pied@@ 3
pler 3
polkad@@ 3
pomegran@@ 3
princi@@ 3
proje@@ 3
ptt 3
purchas@@ 3
pureboost 3
qp 3
quis@@ 3
quot 3
qx 3
rc@@ 3
reau 3
refri@@ 3
repub@@ 3
retai@@ 3
right@@ 3
rl@@ 3
ruby@@ 3
ruck@@ 3
ruff 3
rv@@ 3
sacai 3
saddle@@ 3
santafe 3
sarah@@ 3
satin@@ 3
scd 3
scrappy 3
scrub@@ 3
sep@@ 3
septic 3
serpenti 3
sevenfriday 3
sfc 3
shipping@@ 3
shri@@ 3
shuttle@@ 3
sier@@ 3
singap@@ 3
sis@@ 3
skb 3
skii 3
smile@@ 3
sml@@ 3
snail@@ 3
sogo 3
solid@@ 3
sony@@ 3
sos@@ 3
spal@@ 3
spare@@ 3
speedform 3
sst 3
stc 3
stice 3
stressed 3
succu@@ 3
suga@@ 3
taro@@ 3
terproof 3
terran@@ 3
tester@@ 3
thay@@ 3
therap@@ 3
thi 3
tid 3
tier@@ 3
tish 3
toma 3
tony@@ 3
toro@@ 3
transcen@@ 3
tribu@@ 3
tsai 3
tta@@ 3
ttf 3
tun 3
uan 3
ugg 3
ules 3
unger 3
uq 3
uza 3
vage 3
vea 3
venomenon 3
vespa 3
via@@ 3
vichy 3
view@@ 3
volt@@ 3
volvo 3
wd@@ 3
weir@@ 3
whip@@ 3
wich 3
will@@ 3
wrt 3
wrx 3
xj@@ 3
xun@@ 3
xxxx@@ 3
yeol 3
yohji 3
ythe 3
zara@@ 3
zebra@@ 3
zoom@@ 3
zx@@ 3
æ 3
ème 3
ì@@ 3
í 3
ò 3
ù@@ 3
ü 3
ć@@ 3
ē 3
ō 3
ω 3
в@@ 3
ด@@ 3
ส 3
เ@@ 3
ᴀ@@ 3
ᴛ@@ 3
一@@ 3
卐 3
回 3
承 3
ꪝ 3
ꫀ@@ 3
ꫛ@@ 3
기 3
니@@ 3
스 3
양@@ 3
연@@ 3
오 3
화 3
화@@ 3
F 2
J@@ 2
O 2
Q@@ 2
W 2
X 2
X@@ 2
Z@@ 2
abdo@@ 2
aber@@ 2
ablo@@ 2
abstr@@ 2
adju@@ 2
ador@@ 2
adv@@ 2
airjordan 2
ais@@ 2
akers 2
albion 2
alga@@ 2
allows 2
alphard 2
ambas@@ 2
amel 2
ament 2
amics 2
amigo 2
android@@ 2
anello@@ 2
angas 2
anor 2
ansya 2
anteed 2
apad 2
apm 2
arai 2
arashi 2
armb@@ 2
assin 2
asted 2
asure 2
avent@@ 2
bayin 2
bby@@ 2
beauté@@ 2
belage 2
benedi@@ 2
beyouthi@@ 2
bikini@@ 2
birkin@@ 2
blackmores 2
blosso@@ 2
boite 2
boys@@ 2
bralle@@ 2
bubu 2
bume@@ 2
bymi 2
caco 2
cad 2
canvas@@ 2
carab@@ 2
cavi@@ 2
centuri@@ 2
chandeli@@ 2
chapeau 2
childre@@ 2
chloe@@ 2
chuu 2
cie@@ 2
cinia 2
citron@@ 2
cks@@ 2
clima 2
clot 2
cns@@ 2
combi@@ 2
commer@@ 2
concer@@ 2
corder 2
correct@@ 2
cosp@@ 2
cray@@ 2
credi@@ 2
cree@@ 2
croi@@ 2
degre@@ 2
descent 2
dhen@@ 2
dients 2
diet@@ 2
disinfect@@ 2
display@@ 2
disru@@ 2
dless 2
ena@@ 2
enicorn 2
erine 2
espadri@@ 2
evisu 2
falu@@ 2
fhd@@ 2
ficial 2
filtr@@ 2
finish@@ 2
flyknit@@ 2
ford@@ 2
formers 2
fortis 2
frontro@@ 2
gbong 2
geome@@ 2
georg 2
ghou@@ 2
gical 2
gigi@@ 2
giord@@ 2
glossi@@ 2
gore 2
goren@@ 2
gradable 2
graff@@ 2
gren 2
gsc 2
gsxr 2
gti 2
guar 2
gular 2
gvc 2
hac@@ 2
hana@@ 2
hape 2
haraju@@ 2
hemat@@ 2
hersch@@ 2
hog@@ 2
hogan 2
hsi@@ 2
hsu 2
hsu@@ 2
hunter@@ 2
hyperrev 2
hyung 2
icial 2
ies@@ 2
ih 2
iki 2
ikloo 2
inet 2
inflat@@ 2
ingles 2
iniki 2
innis@@ 2
interchang@@ 2
inty 2
invader 2
invest@@ 2
ioca 2
ipe@@ 2
ique@@ 2
irl@@ 2
ivers@@ 2
jab 2
jany@@ 2
jets 2
kboard 2
keith@@ 2
kening 2
kham 2
kipling@@ 2
kiwi@@ 2
koku@@ 2
korea@@ 2
kushi 2
ladesh 2
ladlad@@ 2
lagun@@ 2
lamb@@ 2
lamy 2
lane@@ 2
langu@@ 2
lati@@ 2
ldv 2
leadcat 2
lenci@@ 2
lesli@@ 2
letto 2
liang 2
libee 2
liu@@ 2
livina 2
lizer 2
loch 2
loewe 2
lolit@@ 2
look@@ 2
lour 2
lum@@ 2
mammut 2
mann@@ 2
marj@@ 2
mbm 2
mcq 2
medic@@ 2
megal@@ 2
melas@@ 2
microwav@@ 2
miki@@ 2
milit@@ 2
mitsubi@@ 2
miu@@ 2
mivue 2
miyuki 2
mmee 2
mmsn 2
moma@@ 2
monit@@ 2
montre@@ 2
mosch@@ 2
motive 2
naturacenti@@ 2
naugh@@ 2
navar@@ 2
navy@@ 2
nect@@ 2
nego@@ 2
nickelo@@ 2
niki@@ 2
ninja@@ 2
niu 2
noname 2
nun@@ 2
octo@@ 2
ody@@ 2
onex 2
onitsu@@ 2
onto 2
oreg@@ 2
orie@@ 2
ork 2
orous 2
pand 2
paralle@@ 2
pash@@ 2
patcho@@ 2
patter@@ 2
paulin 2
pede 2
peop@@ 2
peugeot 2
phire 2
phoe@@ 2
pimp@@ 2
pinea@@ 2
pins@@ 2
pling 2
plr 2
pote 2
pred@@ 2
pregn@@ 2
premium@@ 2
prim@@ 2
process@@ 2
professi@@ 2
project@@ 2
psal 2
pub@@ 2
pvc@@ 2
quart@@ 2
quik@@ 2
random@@ 2
rasp@@ 2
realme@@ 2
regg@@ 2
rejuvin@@ 2
renheit 2
rescu@@ 2
rimowa 2
ripndip 2
roh@@ 2
rst 2
sailor@@ 2
saler 2
sali@@ 2
sammi 2
saudig@@ 2
scrap@@ 2
sdi 2
second@@ 2
senn@@ 2
sery 2
sham 2
share@@ 2
sisle@@ 2
slet 2
smith@@ 2
solarsoft 2
solo@@ 2
sopr@@ 2
spande@@ 2
ssil 2
station@@ 2
stea 2
submer@@ 2
sune 2
suq@@ 2
tailwind 2
taylor@@ 2
thm 2
thom 2
thr 2
tible 2
timate 2
tobler@@ 2
tok@@ 2
tommy@@ 2
tomy@@ 2
tore@@ 2
toshi@@ 2
tox@@ 2
treme 2
trench@@ 2
trino@@ 2
tronics 2
trus@@ 2
tuc@@ 2
twork 2
tyu@@ 2
uden 2
uman 2
upun@@ 2
ura@@ 2
uter 2
uts@@ 2
verine 2
versati@@ 2
vetements 2
vieve 2
vinta@@ 2
vintage@@ 2
vities 2
vivox 2
vk@@ 2
volk@@ 2
volte 2
voy@@ 2
wachi@@ 2
wander@@ 2
ware@@ 2
wars@@ 2
wau@@ 2
weet 2
why@@ 2
wick@@ 2
wmf 2
wur@@ 2
xiu@@ 2
yes@@ 2
yt@@ 2
yuki@@ 2
yupsal 2
yzf 2
zaida 2
zema 2
zenpad 2
zzo 2
ã 2
ë 2
ë@@ 2
ñ 2
ô@@ 2
õ@@ 2
û@@ 2
ĺ 2
ń@@ 2
ŕ 2
ǝ 2
ɢ 2
ɴ@@ 2
ʀ@@ 2
ʺ 2
π 2
π@@ 2
ก 2
ง@@ 2
ม@@ 2
อ@@ 2
ไ@@ 2
ᴇ@@ 2
ᴏ@@ 2
キ@@ 2
シ@@ 2
ス@@ 2
ン 2
ー@@ 2
一 2
手机@@ 2
片 2
生 2
드 2
라 2
비@@ 2
상 2
샤 2
엑@@ 2
오@@ 2
집 2
츠@@ 2
코@@ 2
크@@ 2
킨 2
킨@@ 2
푸@@ 2
헤@@ 2
B 1
K 1
Q 1
U 1
abea@@ 1
abeth 1
acay 1
acg 1
acke@@ 1
advan@@ 1
aeon 1
aide@@ 1
airpod@@ 1
airpods@@ 1
alb@@ 1
albu@@ 1
alphabo@@ 1
alth 1
amethy@@ 1
amg@@ 1
amoo 1
andan 1
anger@@ 1
anson 1
aolikes 1
ardu@@ 1
arit@@ 1
arky@@ 1
arma 1
armani@@ 1
armour@@ 1
arts@@ 1
asdf 1
asoy 1
astac@@ 1
asus@@ 1
asymme@@ 1
atherine 1
athon 1
atoys 1
audre@@ 1
aum 1
aut 1
auxi@@ 1
ayta 1
baek@@ 1
bague@@ 1
balance@@ 1
bambo@@ 1
bandoulière 1
bedro@@ 1
biotherm 1
blanc@@ 1
blazer@@ 1
bler@@ 1
blowo@@ 1
boost@@ 1
botani@@ 1
breakable 1
bucket@@ 1
bumble@@ 1
burberry@@ 1
burch@@ 1
bure@@ 1
bws 1
caffe@@ 1
calyptus 1
canmake@@ 1
canv@@ 1
carbure@@ 1
cardig@@ 1
carmate 1
carnau@@ 1
carnit@@ 1
cars@@ 1
cartier@@ 1
casser@@ 1
cea@@ 1
cedar@@ 1
cei@@ 1
ceiver 1
cense 1
ceta@@ 1
chach@@ 1
chak@@ 1
chemic@@ 1
chenn 1
chez 1
chien 1
chimei 1
chup 1
cink 1
cinnam@@ 1
clio@@ 1
coac@@ 1
cob@@ 1
coloure@@ 1
comou@@ 1
converse@@ 1
cora@@ 1
cormick 1
cosmetica 1
cosplay@@ 1
costco 1
cpu@@ 1
craftholic 1
creuset 1
criss@@ 1
cuff@@ 1
cuisin@@ 1
culo@@ 1
cussion 1
cylin@@ 1
cylindri@@ 1
cô@@ 1
dare@@ 1
desg@@ 1
dhr 1
diamond@@ 1
dians 1
diction@@ 1
dimma@@ 1
dives 1
dodo@@ 1
dough@@ 1
drest 1
drg 1
dsquared 1
ducat@@ 1
dvd@@ 1
dvz 1
edp@@ 1
eek 1
ellant 1
ellite 1
elmo@@ 1
elsa@@ 1
emilie 1
eneo 1
enger 1
envelo@@ 1
envir@@ 1
eon@@ 1
epil@@ 1
eslite 1
essence@@ 1
essential@@ 1
ettus@@ 1
executi@@ 1
exer@@ 1
extaball 1
fancl 1
farra@@ 1
feng@@ 1
ferr@@ 1
ffler 1
figu@@ 1
fila@@ 1
filipini@@ 1
flam 1
folli 1
fooda@@ 1
frando 1
frared 1
friends@@ 1
fuch@@ 1
gamakatsu 1
garten 1
gasp@@ 1
ggy@@ 1
ghu 1
giraff@@ 1
glc 1
glori@@ 1
goodlife 1
goong 1
gps@@ 1
grocer@@ 1
gros@@ 1
gudet@@ 1
hall@@ 1
halo@@ 1
hatchi@@ 1
heaven@@ 1
heiser 1
hellokitty@@ 1
helme@@ 1
herbali@@ 1
hilar@@ 1
hilfiger@@ 1
hipp@@ 1
hobon@@ 1
hoda 1
hsieh 1
husb@@ 1
hybri@@ 1
hyphen 1
ia@@ 1
iban@@ 1
ific 1
iii@@ 1
indivi@@ 1
inge 1
init@@ 1
inkles 1
innisfree@@ 1
inoa 1
integrate 1
internation@@ 1
inver@@ 1
ios@@ 1
irobot 1
iroo 1
isbn 1
isofi@@ 1
itas@@ 1
ixs 1
jacobs@@ 1
jacqu@@ 1
james@@ 1
jea@@ 1
jef@@ 1
jensen 1
jerse@@ 1
jsl 1
jtc 1
juju@@ 1
juste@@ 1
kaishi 1
kana@@ 1
kanahei 1
kao@@ 1
kato 1
kawas@@ 1
kelele 1
keling 1
kelly@@ 1
kelo@@ 1
kew@@ 1
kieh@@ 1
kies@@ 1
kiki@@ 1
kimi@@ 1
kincense 1
kinyo 1
kitan 1
km@@ 1
knap@@ 1
kobe@@ 1
kotobu@@ 1
krac@@ 1
ktr 1
kuma@@ 1
kwazi 1
lager@@ 1
lama@@ 1
landers 1
laneige@@ 1
lanse 1
late@@ 1
lativ 1
lauder@@ 1
laund@@ 1
laven@@ 1
lefootwear 1
levis@@ 1
lighters 1
lightning@@ 1
likes 1
lill@@ 1
lini@@ 1
lique@@ 1
loaf@@ 1
lob@@ 1
lophone 1
loubou@@ 1
louisvuitton 1
lte@@ 1
luminor 1
lunarepic 1
lus@@ 1
macbook@@ 1
madri@@ 1
maga 1
malay@@ 1
maser@@ 1
mason@@ 1
matel@@ 1
matelass@@ 1
matsu@@ 1
maybelline@@ 1
maz 1
mcm@@ 1
medal@@ 1
mef@@ 1
melroti 1
menstru@@ 1
menth@@ 1
metsu 1
mfi@@ 1
micidal 1
mido@@ 1
mira@@ 1
mkb 1
molly@@ 1
mondeo 1
montessor@@ 1
moony 1
mosai@@ 1
mption 1
mpv 1
msi@@ 1
msx 1
muah 1
mutar@@ 1
myprotein 1
mè@@ 1
nao@@ 1
naylor 1
nbhd 1
neighbor@@ 1
nerware 1
nicole@@ 1
nikelab 1
nill@@ 1
nio 1
nitri@@ 1
nm@@ 1
nms@@ 1
notor@@ 1
nove@@ 1
novo@@ 1
nubra 1
nvi@@ 1
obsi@@ 1
ocado 1
occitane@@ 1
oio@@ 1
okee 1
okin@@ 1
omega@@ 1
omola 1
omy@@ 1
oneer 1
onex@@ 1
onnai@@ 1
opi@@ 1
oppi 1
orary 1
orbis 1
ordon 1
orized 1
orosa 1
orr 1
otg@@ 1
otter@@ 1
outdoor@@ 1
outfit@@ 1
outlet@@ 1
owens 1
pagne 1
pana 1
panas@@ 1
pander 1
panerai 1
paris@@ 1
passat 1
pazzo 1
peeka@@ 1
peng 1
penhalig@@ 1
perform@@ 1
peria 1
perman@@ 1
petro@@ 1
pgo 1
phane 1
phap@@ 1
philippe 1
pigeon@@ 1
plar@@ 1
playboy@@ 1
plers 1
pneu@@ 1
pokemon@@ 1
poké@@ 1
polly@@ 1
pome@@ 1
pompo@@ 1
ppa@@ 1
ppe@@ 1
ppr@@ 1
preg@@ 1
prepar@@ 1
presto@@ 1
privac@@ 1
probio@@ 1
proble@@ 1
procu@@ 1
prosper@@ 1
psp@@ 1
puku 1
qs@@ 1
qualco@@ 1
qub 1
quency 1
quinny 1
ragn@@ 1
rame 1
rapun@@ 1
rca@@ 1
recti@@ 1
religi@@ 1
republic@@ 1
ricane 1
rizo@@ 1
rm@@ 1
rober@@ 1
robot@@ 1
rody@@ 1
rolet 1
rrh 1
rri@@ 1
russ 1
saber@@ 1
sache@@ 1
sador 1
salicy@@ 1
samur@@ 1
sana@@ 1
sanlux 1
schwarz@@ 1
sega@@ 1
sequent 1
sevenfriday@@ 1
sgs@@ 1
sgw 1
shakespear@@ 1
shanta@@ 1
shelli@@ 1
shellie@@ 1
shirat@@ 1
shiseido@@ 1
silhou@@ 1
sior 1
skechers@@ 1
slen@@ 1
smarth@@ 1
smee@@ 1
sneakers@@ 1
snidel 1
snoopy@@ 1
sofina 1
sofit@@ 1
sonny 1
spao 1
speedy@@ 1
sportsac 1
stau@@ 1
stella@@ 1
stooth 1
sugars 1
supple@@ 1
suqqu 1
sus@@ 1
swan@@ 1
sware 1
sweeten@@ 1
swoo@@ 1
tainment 1
takar@@ 1
tako@@ 1
talight 1
tcl@@ 1
ternal 1
teryx 1
thermos@@ 1
thom@@ 1
tierra 1
tiffany@@ 1
tiga 1
tiguan 1
tiida 1
till@@ 1
tlv 1
tmb 1
tobot 1
toile@@ 1
toko@@ 1
tonite 1
tortoi@@ 1
toys@@ 1
traff@@ 1
trait 1
trest 1
trogen@@ 1
trump@@ 1
trussar@@ 1
tsa@@ 1
tsuba@@ 1
tsum@@ 1
tuil@@ 1
turine 1
turo 1
tyuio@@ 1
uary 1
ubiqu@@ 1
udi@@ 1
uku@@ 1
unge@@ 1
uniq@@ 1
urin 1
ushi 1
utri@@ 1
vatory 1
vehic@@ 1
veless 1
venomen@@ 1
versace@@ 1
vete@@ 1
victorine 1
visee 1
volkswa@@ 1
volley@@ 1
voya@@ 1
vuitton@@ 1
vw@@ 1
wana 1
wb@@ 1
wc@@ 1
wedg@@ 1
winkle 1
witho@@ 1
woori 1
woven@@ 1
wtaps 1
xdr 1
xrs 1
xund@@ 1
yabano 1
yeezy@@ 1
yg@@ 1
yoyo@@ 1
ysl@@ 1
yv 1
zakka 1
zash@@ 1
zawa 1
zeh 1
zippo 1
zix 1
zne 1
zodi@@ 1
zona 1
zozo@@ 1
zum 1
zxp 1
zza@@ 1
ß 1
â 1
æ@@ 1
þ@@ 1
ÿ 1
ć 1
đ@@ 1
ğ@@ 1
ģ 1
ī 1
ī@@ 1
ĸ@@ 1
ĺ@@ 1
ľ@@ 1
ł@@ 1
ń 1
ŏ@@ 1
ś 1
ş 1
ū@@ 1
ů@@ 1
ź@@ 1
ž@@ 1
ə@@ 1
ɪ@@ 1
ʙ@@ 1
ʜ@@ 1
β 1
δ@@ 1
ι@@ 1
κ@@ 1
λ 1
ξ@@ 1
ψ 1
ψ@@ 1
а@@ 1
м 1
н@@ 1
т 1
т@@ 1
ข@@ 1
ค@@ 1
ง 1
จ@@ 1
ช 1
ช@@ 1
ต 1
ต@@ 1
ท@@ 1
น 1
น@@ 1
ป@@ 1
ผ 1
พ 1
ม 1
ย@@ 1
ร@@ 1
ล 1
ล@@ 1
ว 1
ส@@ 1
ห 1
ห@@ 1
อ 1
ะ@@ 1
แ@@ 1
ใ@@ 1
ᄉ@@ 1
ᄋ 1
ᄋ@@ 1
ᅠ@@ 1
ᅳ 1
ᴄ 1
ᴅ@@ 1
ᴋ 1
ᴘ@@ 1
ᴛ 1
ᴜ@@ 1
ủ 1
あ@@ 1
い 1
い@@ 1
ご 1
し@@ 1
す 1
た@@ 1
で@@ 1
に@@ 1
の@@ 1
ほ@@ 1
り@@ 1
ん@@ 1
ク@@ 1
ショ@@ 1
ット 1
ツ 1
ピ@@ 1
ポ 1
ム 1
メ@@ 1
ュ@@ 1
ラ@@ 1
リ@@ 1
レ@@ 1
ン@@ 1
ー 1
丁 1
七@@ 1
丫 1
中@@ 1
仅 1
他@@ 1
休闲@@ 1
保@@ 1
保温@@ 1
信@@ 1
健@@ 1
冷@@ 1
出@@ 1
前@@ 1
剪刀 1
医@@ 1
原味@@ 1
号@@ 1
吃@@ 1
味 1
品牌 1
嗨@@ 1
图 1
圆 1
圆@@ 1
场@@ 1
坊 1
塩@@ 1
壶@@ 1
天@@ 1
头@@ 1
奶 1
始@@ 1
子 1
孔 1
存 1
定 1
家 1
寳 1
幕 1
年款 1
年華 1
广@@ 1
开@@ 1
弥 1
御@@ 1
悲@@ 1
抗@@ 1
无@@ 1
日@@ 1
日本語 1
旧@@ 1
最新 1
有@@ 1
木@@ 1
杯@@ 1
枕@@ 1
果@@ 1
株式会社 1
楼@@ 1
気@@ 1
氣炸鍋 1
水@@ 1
池@@ 1
油@@ 1
泫 1
泰@@ 1
浆@@ 1
漫@@ 1
热@@ 1
珍珠粉@@ 1
珠@@ 1
甘@@ 1
电@@ 1
画 1
登山@@ 1
白花@@ 1
真空@@ 1
眼影 1
笔 1
米@@ 1
糖@@ 1
結 1
维@@ 1
美肌 1
老@@ 1
脾@@ 1
色 1
花 1
花樣@@ 1
英@@ 1
英文字@@ 1
苹果@@ 1
蘭@@ 1
衰@@ 1
语@@ 1
買一送一 1
货 1
运动@@ 1
运动鞋 1
降@@ 1
雅 1
露 1
青春@@ 1
韩国@@ 1
頑@@ 1
预@@ 1
风 1
香草@@ 1
駄@@ 1
黑@@ 1
깨@@ 1
난@@ 1
네@@ 1
녀 1
니 1
다 1
달@@ 1
도@@ 1
들 1
뚜@@ 1
라@@ 1
루 1
루@@ 1
리@@ 1
마@@ 1
만 1
박@@ 1
보@@ 1
븐@@ 1
비 1
뽕 1
서@@ 1
세@@ 1
송@@ 1
쌈@@ 1
아@@ 1
알@@ 1
와@@ 1
의 1
인@@ 1
일@@ 1
장 1
준 1
중@@ 1
즈 1
진 1
짬@@ 1
찬@@ 1
타@@ 1
트 1
트@@ 1
틴 1
팩 1
프@@ 1
피@@ 1
하@@ 1
해@@ 1
