現貨 27416
小@@ 13938
nike 11704
大@@ 9219
的@@ 8409
全新 8326
新款@@ 8311
adidas 7760
時尚@@ 7671
兒童@@ 7317
家用@@ 7218
現貨@@ 7116
air 6970
日本@@ 6399
免運 6172
全新@@ 6027
包 5844
女@@ 5833
款 5663
系列 5566
多功能@@ 5445
創意@@ 5425
復古@@ 5378
韓國@@ 5161
韓版@@ 4977
簡約@@ 4929
經典@@ 4912
男士@@ 4906
黑色@@ 4836
學生@@ 4821
可@@ 4801
二手 4608
2@@ 4523
1 4515
包@@ 4464
慢跑鞋 4447
防水@@ 4390
男@@ 4360
百搭@@ 4354
黑@@ 4323
寶寶@@ 4320
預購 4300
迷你@@ 4222
3@@ 4163
機@@ 4120
黑 4091
代購 4086
帶@@ 4040
上衣 4018
款@@ 3997
可愛@@ 3986
黑色 3974
s@@ 3967
式@@ 3933
水@@ 3928
男女@@ 3915
5@@ 3911
白@@ 3911
4@@ 3875
加厚@@ 3832
花@@ 3826
機 3820
男鞋 3772
超@@ 3755
套裝 3729
金@@ 3707
雙@@ 3690
造型@@ 3653
8@@ 3643
夏季@@ 3638
1@@ 3618
運動鞋 3617
6@@ 3608
專用@@ 3605
新@@ 3601
運動@@ 3593
組 3577
美@@ 3573
器@@ 3479
休閒@@ 3467
有@@ 3467
套裝@@ 3459
max 3455
系列@@ 3429
版 3411
正品@@ 3386
新款 3376
a@@ 3369
手提包 3319
二手@@ 3302
器 3301
潮流@@ 3290
網紅@@ 3285
lv 3222
純棉@@ 3202
2 3194
女 3186
高@@ 3181
休閑@@ 3173
無@@ 3156
正品 3153
休閒鞋 3136
女鞋 3122
10@@ 3117
真皮@@ 3085
一@@ 3078
三@@ 3069
100 3063
附@@ 3054
北歐@@ 3045
個性@@ 3031
單肩包 3031
c@@ 3026
7@@ 3020
女士@@ 3016
外套 3015
實木@@ 3005
x@@ 3003
紅@@ 2982
車@@ 2972
子@@ 2966
卡通@@ 2963
汽車@@ 2955
全@@ 2953
gucci 2951
鞋@@ 2947
手機@@ 2927
m@@ 2900
側背包 2900
金屬@@ 2887
戶外@@ 2884
白 2882
型@@ 2870
送@@ 2859
情侶@@ 2841
不@@ 2838
長@@ 2823
手機殼 2794
耳環 2793
短t 2777
g@@ 2766
12@@ 2754
9@@ 2750
盒 2738
t恤 2729
風@@ 2723
鞋 2709
白色@@ 2699
透明@@ 2696
0@@ 2692
b@@ 2688
裝飾@@ 2687
d@@ 2673
11 2672
10 2665
中@@ 2649
手錶 2647
e@@ 2644
印花@@ 2619
coach 2616
f@@ 2604
臥室@@ 2602
透氣@@ 2599
折疊@@ 2591
子 2589
t@@ 2586
客廳@@ 2564
手@@ 2562
嬰兒@@ 2538
收納@@ 2537
粉@@ 2534
短袖 2527
不銹鋼@@ 2526
洋裝 2525
大容量@@ 2510
性感@@ 2509
3 2502
卡@@ 2494
廚房@@ 2479
藍@@ 2461
愛@@ 2460
美國@@ 2455
特價@@ 2426
潮@@ 2424
k@@ 2410
燈@@ 2409
女生@@ 2401
玻璃@@ 2396
木@@ 2389
手工@@ 2386
架 2383
燈 2367
單@@ 2362
頭@@ 2361
20@@ 2356
布@@ 2356
日本 2353
男 2351
12 2345
斜挎包 2343
新品 2325
短袖@@ 2320
特價 2317
手拿包 2312
用@@ 2306
玩具 2303
成人@@ 2301
色@@ 2299
刺繡@@ 2289
w@@ 2280
玩具@@ 2279
長袖@@ 2275
氣質@@ 2274
架@@ 2272
好@@ 2268
盒@@ 2261
之@@ 2259
蕾絲@@ 2252
h@@ 2249
粉 2240
男生@@ 2236
iphone 2224
l@@ 2221
與@@ 2217
11@@ 2207
公仔 2206
防@@ 2203
牛皮@@ 2202
皮@@ 2197
t 2185
袋 2171
36 2164
天@@ 2163
包包 2162
簡易@@ 2156
30@@ 2147
防滑@@ 2146
lv@@ 2143
電動@@ 2143
線@@ 2135
台灣@@ 2134
版@@ 2134
貓@@ 2125
短袖t恤 2121
板@@ 2118
卡 2110
陶瓷@@ 2106
套@@ 2086
茶@@ 2075
香@@ 2067
p@@ 2064
天然@@ 2056
光@@ 2050
歐美@@ 2050
y@@ 2049
錢包 2039
精品@@ 2036
人@@ 2031
長夾 2029
歐式@@ 2027
chanel 2025
n@@ 2023
大號@@ 2023
後背包 2017
短褲 2017
藍 2016
led@@ 2015
娃娃 2014
ins@@ 2012
小型@@ 2012
new 2005
代購@@ 2001
jordan 1991
式 1991
15@@ 1989
修身@@ 1987
上@@ 1980
多@@ 1980
立體@@ 1978
寵物@@ 1975
18@@ 1973
條紋@@ 1973
肩背包 1969
i@@ 1958
v@@ 1958
樂@@ 1958
裝@@ 1957
潮 1953
爆款 1950
衣@@ 1947
pro 1945
電@@ 1941
正韓@@ 1939
女包 1936
褲 1925
雙層@@ 1921
衣服@@ 1913
油@@ 1905
籃球鞋 1905
z@@ 1899
上衣@@ 1895
16@@ 1893
白色 1892
plus 1889
現代簡約@@ 1888
小舖 1885
黃@@ 1885
零錢包 1882
顯瘦@@ 1880
片 1877
水晶@@ 1872
40 1866
型 1865
米@@ 1863
u@@ 1855
簡約現代@@ 1850
正@@ 1846
精品 1846
貼@@ 1843
13@@ 1835
家@@ 1834
寶@@ 1834
內@@ 1830
球@@ 1830
q@@ 1827
便攜@@ 1825
19@@ 1823
爆款@@ 1823
the 1821
愛迪達 1820
車 1820
50@@ 1813
特@@ 1805
拖鞋 1804
吊飾 1801
原廠@@ 1792
智能@@ 1791
男女鞋 1789
紙@@ 1787
寬鬆@@ 1785
長褲 1782
專用 1778
背心 1776
後@@ 1772
手提@@ 1771
神器@@ 1769
舒適@@ 1769
針織@@ 1768
日系@@ 1766
新品@@ 1765
4 1754
片@@ 1754
大碼@@ 1752
出清 1748
套 1747
r@@ 1744
專業@@ 1735
14@@ 1726
秋冬@@ 1725
熱銷 1724
彩色@@ 1723
韓國 1722
含@@ 1716
龍@@ 1716
貼 1715
綠@@ 1713
塑料@@ 1712
色 1704
二手書 1700
貼紙 1697
珍珠@@ 1692
寬松@@ 1688
自動@@ 1688
michael 1685
夾 1684
四@@ 1674
帽 1673
公司貨 1664
前@@ 1663
實拍 1652
黑白 1652
杯 1649
阿@@ 1643
20 1638
女童@@ 1637
限量@@ 1635
圓形@@ 1632
時尚 1627
板 1624
純色@@ 1621
斜背包 1620
女款@@ 1619
17@@ 1612
床@@ 1612
o@@ 1609
潮牌@@ 1603
室內@@ 1598
海@@ 1597
銀@@ 1597
男款@@ 1596
皮夾 1596
保暖@@ 1593
墊@@ 1590
懶人@@ 1589
袋@@ 1589
非@@ 1589
免運@@ 1586
魚@@ 1585
加@@ 1583
15 1582
正版 1578
通用@@ 1578
棉@@ 1573
熱賣 1572
配件 1570
夾@@ 1567
組合@@ 1563
5 1562
gucci@@ 1560
40@@ 1559
日式@@ 1559
皮帶 1555
二@@ 1549
60@@ 1545
項鍊 1543
雙面@@ 1540
線 1537
店 1535
杯@@ 1535
紅 1531
拉@@ 1528
日@@ 1525
神@@ 1523
25@@ 1517
筆@@ 1513
boost 1512
皮革@@ 1512
復古 1510
6 1509
粉色@@ 1507
鐵@@ 1507
m 1506
五@@ 1506
logo 1504
保護套 1504
心@@ 1504
旅行@@ 1503
衣 1503
褲@@ 1500
百搭 1497
正韓 1495
開@@ 1492
頭 1492
編織@@ 1487
連帽@@ 1481
商務@@ 1480
louis 1479
hello 1474
王@@ 1474
80@@ 1472
a 1470
椅@@ 1468
辦公室@@ 1468
彩@@ 1463
情侶鞋 1461
高腰@@ 1460
襯衫 1459
30 1458
品@@ 1456
鐵藝@@ 1452
originals 1451
休閒 1451
禮物 1450
車載@@ 1450
diy@@ 1449
桌@@ 1447
電腦@@ 1447
蝴蝶結@@ 1446
石@@ 1444
林@@ 1443
外套@@ 1437
台@@ 1436
kitty 1435
薄款@@ 1432
限定 1432
拼接@@ 1428
和@@ 1424
兩用@@ 1422
格@@ 1422
正版@@ 1422
面@@ 1419
24@@ 1416
老@@ 1412
s 1411
無線@@ 1410
桌面@@ 1409
帆布@@ 1408
36@@ 1407
超薄@@ 1407
男女 1406
置物架@@ 1406
牛仔@@ 1401
墊 1400
44 1399
椅 1399
圓@@ 1398
蘋果@@ 1392
保濕@@ 1388
冰@@ 1388
屋 1387
字母@@ 1386
藍色@@ 1385
書@@ 1381
35 1380
裝 1380
夏@@ 1379
愛心@@ 1379
扣@@ 1379
進口@@ 1379
本@@ 1378
牌@@ 1377
防曬@@ 1376
kors 1375
同款@@ 1375
免運費 1374
必備 1373
13 1372
運動 1369
不鏽鋼@@ 1367
膠@@ 1363
發@@ 1362
v領@@ 1358
星@@ 1358
沙發@@ 1357
家 1356
跑步鞋 1354
黑白@@ 1354
紅色@@ 1353
2019@@ 1352
球 1352
門@@ 1351
c 1350
格子@@ 1349
雅@@ 1343
帽@@ 1339
短夾 1336
刀@@ 1335
圓領@@ 1334
j@@ 1330
網@@ 1330
18 1329
實拍@@ 1328
透氣 1327
盤@@ 1325
女裝@@ 1324
t恤@@ 1321
人 1318
真@@ 1315
玫瑰@@ 1313
鏤空@@ 1311
用品@@ 1308
館 1307
毛@@ 1305
居家@@ 1300
彈力@@ 1299
板鞋 1299
灰 1299
100@@ 1298
山@@ 1297
設計 1295
用 1293
矽膠@@ 1293
迪士尼 1292
7 1291
涼鞋 1288
布藝@@ 1286
神器 1284
棒 1281
50 1280
打@@ 1280
16 1278
紫@@ 1278
歐@@ 1277
德國@@ 1275
軟@@ 1275
14 1273
90@@ 1271
2018@@ 1270
公主@@ 1270
少女@@ 1270
擺件@@ 1269
男鞋@@ 1268
綁帶@@ 1267
宿舍@@ 1266
德@@ 1266
下@@ 1263
安@@ 1263
馬@@ 1263
口@@ 1261
2017@@ 1260
衛生間@@ 1255
設計@@ 1255
灰@@ 1254
書 1252
絲@@ 1252
32@@ 1249
靜音@@ 1249
38 1248
六@@ 1247
balance 1246
半@@ 1246
斯@@ 1246
雙人@@ 1246
盤 1244
薄@@ 1243
台灣現貨 1242
家居@@ 1242
箱@@ 1242
張@@ 1240
經典 1239
布 1237
充電@@ 1236
usb@@ 1234
shop 1230
貓咪@@ 1230
美式@@ 1229
no 1228
牛仔褲 1228
力@@ 1227
飾品 1227
全新現貨 1222
掛@@ 1222
編織 1221
女鞋@@ 1217
克@@ 1213
手鍊 1213
日版 1213
金色@@ 1213
電子@@ 1213
用品 1212
全新正品 1211
定制@@ 1209
one 1207
家居 1203
背包 1201
logo@@ 1200
短@@ 1200
牌 1199
多層@@ 1198
00@@ 1197
服@@ 1195
70@@ 1192
工具@@ 1191
落地@@ 1190
配@@ 1188
配件@@ 1188
17 1187
生@@ 1186
箱 1185
伸縮@@ 1184
3d@@ 1180
收納盒 1180
筆 1180
浴室@@ 1178
品 1176
平底@@ 1176
紋@@ 1176
手機殼@@ 1175
中長款@@ 1174
時尚百搭@@ 1174
100ml 1172
i 1172
風 1172
華@@ 1171
咖啡@@ 1169
迪士尼@@ 1169
車用@@ 1168
錢夾 1168
陽臺@@ 1167
單人@@ 1164
年@@ 1164
文@@ 1161
海賊王 1161
置物架 1161
ultra 1160
塑膠@@ 1160
小米@@ 1157
飾品@@ 1155
襪 1154
條@@ 1151
瓶 1151
細@@ 1151
耐吉 1150
外@@ 1147
棉麻@@ 1146
90 1143
水果@@ 1143
純@@ 1143
8 1139
下殺 1138
防摔@@ 1136
雪紡@@ 1135
nmd 1134
花 1134
辦公@@ 1134
底@@ 1132
流蘇@@ 1132
mini 1129
包包@@ 1129
微@@ 1129
韓版 1129
22@@ 1128
仿真@@ 1127
手環 1127
熱賣@@ 1127
2019新款@@ 1125
保護殼 1125
限定@@ 1125
厚@@ 1122
組@@ 1121
化妝包 1118
韓@@ 1117
puma 1116
刀 1115
vuitton 1114
45 1113
護@@ 1113
小戶型@@ 1112
冬季@@ 1111
草@@ 1111
小清新@@ 1110
帶 1109
西@@ 1109
水 1108
質感@@ 1103
防水 1102
熱@@ 1101
19 1100
mk@@ 1099
夏天@@ 1099
女包@@ 1097
元 1096
美甲@@ 1096
蓋@@ 1095
地@@ 1094
腳@@ 1094
001 1092
藍色 1092
轉@@ 1091
點@@ 1091
原@@ 1090
竹@@ 1088
百貨 1086
環保@@ 1084
2020@@ 1082
35@@ 1082
精緻@@ 1082
三角@@ 1081
優@@ 1081
狗@@ 1081
畫@@ 1081
限@@ 1080
壁掛@@ 1077
2020新款@@ 1076
xl 1076
格紋@@ 1076
麗@@ 1076
安全@@ 1075
25 1073
兩@@ 1073
短款@@ 1073
b 1072
陳@@ 1072
x 1071
清潔@@ 1071
長款@@ 1070
出@@ 1068
收納 1068
邊@@ 1068
便攜式@@ 1067
本 1067
鑰匙圈 1067
餐廳@@ 1066
免@@ 1064
l 1062
禮盒 1062
帆布鞋 1060
鏡@@ 1060
飛@@ 1059
55@@ 1058
nike@@ 1058
女孩@@ 1058
現代@@ 1057
頂級@@ 1057
工具 1054
潮流 1053
臺@@ 1053
裝飾 1053
椅子@@ 1052
裙 1051
直@@ 1050
支架@@ 1049
小孩@@ 1046
木質@@ 1046
0 1045
商品 1045
熱銷@@ 1044
管@@ 1044
壓@@ 1043
d 1042
台灣製 1042
日本製 1042
面膜 1042
平@@ 1039
拉鏈@@ 1039
雪@@ 1039
超級@@ 1038
28@@ 1037
感@@ 1036
瓶@@ 1036
zoom 1033
店@@ 1033
全自動@@ 1032
去@@ 1032
高檔@@ 1032
男童@@ 1031
26@@ 1029
法@@ 1029
baby 1025
甜美@@ 1025
dior 1023
手套 1023
青@@ 1023
厚底@@ 1022
手作@@ 1021
造型 1021
高清@@ 1019
9 1018
star 1018
古@@ 1017
批發 1014
公仔@@ 1012
達@@ 1012
45@@ 1011
寬@@ 1010
雙肩包 1010
香奈兒 1009
扣 1007
清@@ 1007
服 1006
櫃@@ 1006
衣服 1006
清新@@ 1004
for 1002
玉@@ 1001
客訂 999
擺件 998
sony 997
背心@@ 997
連衣裙@@ 996
紅色 994
扭蛋 993
熊@@ 993
健身@@ 991
月@@ 990
王 989
手錶@@ 988
apple 987
氣墊 987
皮帶@@ 987
24 985
大 984
可折疊@@ 983
商品@@ 983
模型 982
組合 982
輕奢@@ 982
元@@ 981
分@@ 981
果@@ 981
油 981
深@@ 981
粉色 980
艾@@ 980
品牌@@ 979
按摩@@ 979
裙@@ 978
明@@ 977
音樂@@ 977
pro@@ 974
旋轉@@ 974
共@@ 973
家用 972
短褲@@ 971
柜@@ 970
男裝@@ 969
台灣製造 968
放@@ 968
最新@@ 968
三葉草 967
學院風@@ 966
棒@@ 965
綠 965
適用 965
金 965
吊帶@@ 963
黃金@@ 963
支架 962
彈性@@ 961
g 959
動漫@@ 959
口袋@@ 958
男款 958
xs 957
春夏@@ 957
福@@ 957
銅@@ 957
鋼@@ 956
burberry 954
方@@ 954
碗@@ 954
耳環@@ 954
學@@ 953
小號@@ 952
vans 951
21 950
運動鞋@@ 949
01 947
佳@@ 945
輕便@@ 945
娃娃@@ 944
適用@@ 943
最@@ 942
輪@@ 942
兒@@ 941
70 939
force 939
電池 939
魔@@ 939
u 938
到@@ 937
刷@@ 937
時尚潮流@@ 937
桌 937
連衣裙 937
櫃 936
特惠 936
拼色@@ 935
八@@ 934
香奈兒@@ 933
日韓@@ 932
隨身@@ 931
圖@@ 930
快速出貨 929
模型@@ 929
皮革 928
條 927
火@@ 927
下標 926
棉質@@ 925
短袖t恤@@ 925
貼紙@@ 925
22 923
利@@ 923
生活館 923
動物@@ 922
39 921
桶@@ 921
號 921
香水@@ 921
60 920
收納架@@ 920
2017新款@@ 919
200@@ 918
磨砂@@ 918
花朵@@ 918
葉@@ 918
貓 918
戒指 917
機車@@ 917
2018新款@@ 916
の@@ 916
國@@ 914
髮@@ 914
75@@ 913
收納盒@@ 913
座@@ 912
尺寸@@ 908
flyknit 907
生日禮物 907
輕@@ 905
比@@ 904
童裝 904
自然@@ 904
鍋@@ 904
香水 903
美國代購 902
38@@ 901
側@@ 901
ar@@ 900
來@@ 900
生活@@ 900
四季@@ 899
滿@@ 899
星星@@ 898
東@@ 898
lego 897
專櫃@@ 897
情侶款 897
洗@@ 897
霜 897
converse 896
腕錶 896
茶 896
夢@@ 893
衛衣 893
百@@ 892
防塵@@ 892
ck@@ 891
asus 890
李@@ 890
米奇@@ 890
2018 889
羅@@ 889
重@@ 888
bb@@ 886
dvd 886
88@@ 885
kitty@@ 885
免打孔@@ 885
眼鏡 885
翻蓋@@ 885
路易威登 885
adidas@@ 884
網 884
腰包 883
長方形@@ 882
自@@ 881
皮套 879
素色@@ 879
素面@@ 879
眼@@ 878
玩偶 877
罐 877
聯名@@ 877
氣@@ 874
沙灘@@ 874
奇@@ 873
手提包@@ 873
禮物@@ 873
贈@@ 873
夜@@ 872
拖鞋@@ 872
春秋@@ 871
法國@@ 871
80 870
迷彩@@ 870
錶 870
青年@@ 870
f 869
23 867
27@@ 867
屋@@ 867
墨鏡 866
兔@@ 865
2016@@ 862
七@@ 862
價 862
古馳@@ 861
帽子 861
p 860
洋氣@@ 860
硅膠@@ 860
女款 859
酒店@@ 859
97 857
約@@ 857
背@@ 857
賣場 857
遊戲@@ 857
帽t 856
茶幾@@ 856
道@@ 856
30ml 855
氣墊@@ 855
味@@ 854
春@@ 854
皮 854
o 853
蓋 853
美 852
k 851
克 851
鎖@@ 850
co@@ 849
野@@ 849
洋裝@@ 848
表@@ 848
50ml 847
coach@@ 847
背包@@ 847
鋁合金@@ 847
亞@@ 846
會@@ 846
粉紅@@ 846
吉@@ 844
保護套@@ 841
撞色@@ 840
玄關@@ 840
腰帶 840
鏡 840
現貨免運 837
強力@@ 836
殼 836
成@@ 835
泰國@@ 834
領@@ 834
23@@ 833
我@@ 833
游戲@@ 833
愛迪達@@ 832
標@@ 832
跑鞋 832
防風@@ 832
預購@@ 832
亮@@ 831
珠@@ 831
34 830
精@@ 830
座 829
蘭@@ 829
在@@ 828
大學t 828
牛皮 828
鑽@@ 828
露@@ 828
w 827
收納袋 827
37@@ 826
代@@ 826
孔@@ 826
襯衫@@ 826
孕婦@@ 825
耐吉@@ 825
涼鞋@@ 824
蛋糕@@ 824
路@@ 824
刷 823
chanel@@ 821
簡約 821
長褲@@ 821
貝@@ 819
限量 819
抱枕 818
英國@@ 818
28 817
re@@ 817
65@@ 816
圈@@ 816
隱形@@ 816
夏季新款@@ 815
灰色@@ 815
膠 815
男女款 814
吸@@ 813
菜@@ 813
波@@ 812
訓練@@ 811
床頭@@ 810
拉鍊@@ 810
長袖 810
字@@ 808
samsung 807
假@@ 807
原單 807
毛衣 807
肉@@ 807
立@@ 806
襪@@ 806
買@@ 806
經典款@@ 805
膜@@ 805
購 805
小包 804
乳@@ 803
糖@@ 803
mi@@ 802
pp@@ 802
32 801
學習@@ 801
hermes 800
white 800
圍巾 800
對@@ 800
桿@@ 800
無痕@@ 800
素@@ 800
麂皮 800
香 799
n 798
圖案@@ 798
性@@ 798
斯 798
眼鏡@@ 798
300@@ 797
威@@ 797
鍋 797
十@@ 796
樹@@ 796
沙@@ 796
優質@@ 794
角@@ 793
le@@ 792
推薦 792
收納包 792
秋季@@ 792
優雅@@ 791
出清@@ 791
書桌@@ 791
浪漫@@ 790
通@@ 790
康@@ 789
生活 788
內褲 787
鏈條包 787
e 786
架子@@ 786
貨@@ 786
田@@ 785
全棉@@ 783
單肩包@@ 783
收納架 783
純棉 782
耳@@ 782
極@@ 780
同款 778
板鞋@@ 778
全套@@ 777
行@@ 776
韓版潮流@@ 774
可愛 773
家具@@ 773
350 770
la 770
合@@ 770
小熊@@ 770
low 769
千@@ 769
購物袋 768
鏈條@@ 768
儲物@@ 764
快@@ 764
英倫@@ 764
短袖上衣 763
me@@ 762
名@@ 762
尼@@ 762
床 762
殼@@ 762
and 761
美國 761
出貨 760
古奇@@ 760
紙 760
下單 758
加絨@@ 758
樂 758
舒適 758
材質 757
體@@ 756
26 755
29@@ 755
尺寸 755
tw 754
ysl 754
入@@ 753
灰色 753
三星 752
保@@ 752
切@@ 752
除@@ 752
casio 750
南@@ 750
爆@@ 750
印@@ 749
夏日@@ 749
必備@@ 749
打底@@ 749
經濟型@@ 749
餐桌@@ 749
太陽眼鏡 748
接@@ 748
r 747
修@@ 747
年 746
罩@@ 746
正 745
袖@@ 745
mo@@ 744
yeezy 744
化@@ 744
中文版 743
寶 743
情侶款@@ 742
泰@@ 742
er@@ 740
in@@ 740
無袖@@ 740
長版@@ 740
工作@@ 739
蝴蝶@@ 739
連帽外套 739
聖誕@@ 738
2019 737
34@@ 737
藝術@@ 737
高品質@@ 737
全館免運 736
ma@@ 735
玩@@ 735
oppo 734
度@@ 734
2017 733
原價@@ 733
耳機@@ 733
良好 732
時@@ 731
46 730
6s 729
on 729
牛仔褲@@ 729
速@@ 729
龍 729
現貨供應 728
in 727
台 727
空@@ 727
紗@@ 727
超大@@ 727
伊@@ 726
桌子@@ 726
美容@@ 726
低幫@@ 725
商用@@ 725
彩虹@@ 725
爾@@ 725
穿@@ 725
全新未拆 724
情@@ 724
經典款 724
號@@ 724
針@@ 724
情趣@@ 723
改裝@@ 723
方形@@ 723
物@@ 723
童@@ 723
精油@@ 722
黃 722
仿@@ 721
h 720
森@@ 720
三層@@ 719
冰絲@@ 719
膏 719
動@@ 718
夏裝@@ 718
手作 718
植物@@ 718
耐磨@@ 718
33@@ 717
armani 717
內衣 717
狗狗@@ 717
青少年@@ 717
凱@@ 716
日本代購 716
禮品@@ 716
max@@ 715
傘@@ 715
豆@@ 715
家具 714
框@@ 714
牛@@ 714
鑲鑽@@ 714
英文@@ 713
健康@@ 712
環@@ 712
石 712
耳機 712
托特包 711
劑 710
古馳 710
思@@ 710
水鑽@@ 710
特惠@@ 709
瑞@@ 709
自行車@@ 709
世界@@ 708
價@@ 707
碗 707
雙色@@ 707
全包@@ 706
是@@ 706
系@@ 706
跑步@@ 706
風格@@ 705
持久@@ 704
的 704
酷@@ 704
音@@ 704
收@@ 703
景品 703
腰@@ 703
中 702
客@@ 702
生日@@ 702
褲子 702
你@@ 701
大尺碼@@ 701
手 701
男錶 701
遙控@@ 701
晶@@ 700
液 700
已@@ 699
保溫@@ 698
實用@@ 698
盆@@ 698
形@@ 697
智慧@@ 697
飾@@ 697
tee 696
懶人鞋 696
錢包@@ 694
一體@@ 693
500@@ 692
de@@ 692
mk 691
九@@ 691
瑪@@ 691
聯名 691
腰帶@@ 691
初學者@@ 690
力 690
小牛皮@@ 690
活動@@ 689
pvc@@ 688
老花@@ 688
內衣@@ 687
流@@ 687
釣魚@@ 687
95@@ 686
排@@ 686
男孩@@ 686
精華@@ 685
霜@@ 685
鳥@@ 685
200 684
面膜@@ 684
21@@ 683
all 683
an@@ 683
易@@ 683
下殺@@ 682
公@@ 682
種@@ 682
移動@@ 681
系帶@@ 681
老爹鞋 681
管 680
蛋@@ 680
love 679
卡夾 679
專屬賣場 679
快速@@ 678
提@@ 678
科@@ 678
ac@@ 677
ps4 677
帶蓋@@ 677
綠色@@ 677
夜光@@ 675
招財@@ 675
304不銹鋼@@ 674
mini@@ 673
保護@@ 672
優惠@@ 672
雷@@ 672
斜挎包@@ 670
牙@@ 670
集 670
佛@@ 669
及@@ 669
抱枕@@ 669
02 668
外穿@@ 668
強@@ 668
中式@@ 667
劑@@ 667
手機 667
耐克@@ 667
鞋子@@ 667
充氣@@ 666
卷@@ 666
圈 666
看@@ 666
繩@@ 666
萬用@@ 666
藍牙@@ 666
99@@ 665
優品 665
潤@@ 665
巴@@ 664
櫻花@@ 664
抗@@ 663
水杯@@ 663
純銀@@ 663
羊皮@@ 663
者@@ 663
usb 662
搭配@@ 662
航海王 662
點點@@ 662
48@@ 661
diy 661
服裝@@ 661
熊 661
萬@@ 661
都@@ 661
蜜@@ 660
塔@@ 659
女錶 659
批發@@ 659
男女款@@ 659
直播@@ 659
托@@ 658
美白@@ 658
cd@@ 657
入 657
連身裙 657
la@@ 656
全新品 656
客訂@@ 656
格 656
迪@@ 656
as@@ 655
run 655
唇膏 655
銀 655
cd 654
兒 654
手動@@ 654
舞@@ 654
碎花@@ 653
衣物@@ 652
補@@ 652
過@@ 652
disney 651
原創@@ 651
咖啡 651
插@@ 649
樂高 648
活@@ 648
液@@ 648
硬@@ 648
膏@@ 648
工@@ 647
童裝@@ 647
go 646
v 646
書房@@ 646
集@@ 646
電池@@ 646
44@@ 645
66@@ 645
客廳臥室@@ 645
尼龍@@ 645
級@@ 645
輪 645
鬼@@ 645
2020 644
black 644
台灣現貨@@ 644
衛衣@@ 644
麥@@ 644
29 643
優惠 643
小 643
戰@@ 643
褲子@@ 643
帽子@@ 641
特 641
防護@@ 641
33 640
套組 640
標 640
跑步鞋@@ 640
300 639
凳@@ 639
女神@@ 639
起@@ 639
檸檬@@ 638
水洗@@ 638
supreme 637
罐@@ 637
變@@ 637
雞@@ 637
al@@ 636
慢跑 636
暖@@ 636
三葉草@@ 635
單肩@@ 635
柔軟@@ 635
桶 635
男包 635
ba@@ 634
包郵 634
流行@@ 634
玫瑰金@@ 634
剪@@ 633
維@@ 633
哈@@ 632
請@@ 632
口紅@@ 631
小香@@ 631
gg 630
of 630
y 630
低@@ 630
xxl 629
玫瑰金 629
周邊 628
春季@@ 628
led 627
shirt 627
件 627
帥氣@@ 627
深藍 627
紋 627
連@@ 627
遊戲 627
露肩@@ 627
幾何@@ 626
風扇 626
li@@ 625
光 625
水桶包 625
配色 625
羊毛@@ 624
64@@ 623
se@@ 623
修護@@ 623
棒球帽 623
附發票 623
升降@@ 622
合金@@ 622
95 621
z 621
后@@ 621
周邊@@ 621
喜@@ 621
潮男@@ 621
網紗@@ 621
雨@@ 621
39@@ 620
85@@ 620
吊墜@@ 620
摺疊@@ 620
37 619
dr 619
巧克力@@ 619
棉 619
高端@@ 618
47@@ 616
幼兒@@ 616
發光@@ 616
真皮 616
裙子@@ 616
吊@@ 615
結婚@@ 615
著 615
htc 614
泥@@ 614
調@@ 614
法式@@ 613
馬桶@@ 613
pu@@ 612
三星@@ 612
休閒鞋@@ 611
鑽石@@ 611
零食@@ 611
魔法@@ 611
to@@ 610
凳子@@ 610
機械@@ 610
藝@@ 610
身@@ 610
里@@ 610
噴@@ 609
小白鞋 608
尚@@ 608
韓式@@ 608
ai@@ 607
主@@ 607
兩件套@@ 607
貨 607
長裙 607
項鏈 607
個@@ 606
柔@@ 606
烤@@ 606
型號 605
書包 605
書架@@ 605
松@@ 605
紫色@@ 605
通用 605
03 604
110@@ 604
打底衫@@ 604
膜 604
環 603
mm@@ 602
冷@@ 602
小鋪 602
平底鞋 602
粗@@ 602
休閒褲 601
定@@ 601
組裝@@ 601
錶@@ 601
食@@ 601
尖頭@@ 600
彈@@ 600
得@@ 600
普@@ 600
短裙 600
翻領@@ 600
量@@ 600
韓國代購 600
件@@ 599
幼兒園@@ 599
賣@@ 599
土@@ 598
奢華@@ 598
尾@@ 598
毛衣@@ 598
空調@@ 598
香港@@ 598
品牌 597
媽媽@@ 597
完美@@ 597
相@@ 597
相機包 597
襪子 597
ii 596
31 595
se 595
休閑鞋 595
海外代購 595
連身@@ 595
150@@ 594
am@@ 594
下單區 594
固定@@ 594
雲@@ 594
aj@@ 593
滿版@@ 593
路易威登@@ 593
99 592
st@@ 592
噴霧@@ 592
框 592
burberry@@ 591
一組 591
不規則@@ 591
寶貝@@ 591
手鏈 591
27 590
中國風@@ 590
折@@ 590
泡泡@@ 590
靠背@@ 590
休閒運動@@ 589
湯@@ 589
老人@@ 589
cc 588
印花 588
外出@@ 588
手拿包@@ 588
120@@ 587
刺繡 587
士@@ 587
絨@@ 587
大容量 586
超輕@@ 585
400 584
ck 584
ml@@ 584
三件套@@ 584
面 584
500 583
修身顯瘦@@ 583
女裝 583
豬@@ 583
床上@@ 582
最新款@@ 582
單肩斜挎包 581
小學生@@ 580
高幫@@ 580
手持@@ 579
禮盒@@ 579
露 579
韓版百搭@@ 579
off 578
ysl@@ 578
戒指@@ 578
槍@@ 578
紫 578
2色 577
製@@ 577
cm 576
耳釘 576
41 575
ro@@ 575
switch 575
tomica 575
劍@@ 575
夢幻@@ 575
實@@ 575
秋@@ 575
置物@@ 575
肌@@ 575
en@@ 574
under 574
儀@@ 574
原廠 574
透@@ 574
嘉@@ 573
婚禮@@ 573
舒@@ 573
餐具@@ 573
毛絨@@ 572
涼@@ 572
輕量@@ 572
情侶 571
新生兒@@ 571
煙@@ 571
行動電源 571
輕量 571
香氛@@ 571
區 570
小方包 570
麻@@ 570
儀 569
門 569
77@@ 568
包裝@@ 568
博@@ 568
反光@@ 568
情趣 568
手套@@ 568
超值@@ 568
連體@@ 568
xr 567
現貨免運@@ 567
on@@ 566
椅子 566
拼@@ 565
納@@ 565
長袖上衣 565
baby@@ 564
信@@ 564
筆記本@@ 564
糖果@@ 564
聖@@ 564
家庭@@ 563
運動褲 563
ko@@ 562
料@@ 562
烘焙@@ 562
500ml 560
98@@ 560
go@@ 559
慢跑鞋@@ 559
2016 558
classic 558
ga 558
整理@@ 558
磨@@ 558
酒@@ 558
高級@@ 558
3c 557
兔子@@ 557
房間@@ 557
日本帶回 557
靈@@ 557
42 555
polo衫 555
乾@@ 555
休閑鞋@@ 555
兒童 555
數字@@ 555
獨家@@ 555
項鏈@@ 555
中國@@ 554
官方@@ 554
整@@ 554
文藝@@ 554
碼 554
wmns 553
化妝@@ 553
手提袋 553
坊 552
多功能 552
淺@@ 552
prada 551
桿 551
秋冬季@@ 551
草莓@@ 551
行李箱@@ 551
衫 551
at@@ 550
fendi 550
吊燈@@ 550
秀@@ 550
耐克 550
軟殼 550
to 549
公分 549
惠@@ 549
摩托車@@ 549
牛奶@@ 549
真空@@ 549
立領@@ 548
米奇 547
親子@@ 547
co 546
全身@@ 546
專屬 546
血@@ 546
鏈@@ 546
噴霧 545
智@@ 545
002 544
bts 544
m號 544
枕@@ 544
籃球@@ 544
能@@ 544
藥@@ 544
骨@@ 544
學生宿舍@@ 543
安全帽 543
畫 543
積木@@ 543
髮飾 543
套頭@@ 542
娜@@ 542
米 542
絕版@@ 542
同@@ 541
枕 541
現貨實拍 541
耐@@ 541
101 540
cm@@ 540
亮片@@ 540
北@@ 540
半袖@@ 540
座椅@@ 540
手鏈@@ 540
模@@ 540
童鞋 540
絕版 540
superstar 539
下標區 539
奶@@ 539
定制 539
全白 538
巴寶莉@@ 538
掛件@@ 538
神奇寶貝 538
西裝@@ 538
925純銀@@ 537
ce@@ 537
原裝@@ 537
42@@ 536
so@@ 536
休閒運動鞋 536
密封@@ 536
粉紅 536
食品@@ 536
吳@@ 535
平板@@ 535
抽@@ 535
淨@@ 535
原單@@ 534
生日禮物@@ 534
相機@@ 534
絲 534
籃球鞋@@ 533
og 532
再@@ 532
海洋@@ 532
英@@ 532
限時@@ 532
代理版 531
位@@ 531
節@@ 531
腿@@ 531
金色 531
日常@@ 530
精華 530
餐@@ 530
43 529
5ml 529
加長@@ 529
妮@@ 529
根@@ 529
積木 529
空氣@@ 529
質@@ 529
星空@@ 528
零@@ 528
house 527
斜跨包 527
睡衣@@ 527
街頭@@ 527
68@@ 526
calvin 526
坐墊@@ 526
少女心@@ 526
新品下殺 526
秋冬新款@@ 526
綠色 526
高品質 526
出版 525
創意個性@@ 525
加大@@ 525
拍@@ 525
毛巾@@ 525
隊 525
鞋柜@@ 525
韓系@@ 525
3m 524
墻@@ 524
媽咪@@ 524
小卡 524
廁所@@ 524
沙發 524
精美@@ 524
表 524
大理石@@ 523
專櫃正品 523
巾@@ 523
時尚休閒@@ 523
正品代購 523
等@@ 523
雙肩包@@ 523
地墊 522
學生 522
洗澡@@ 522
潮鞋@@ 522
珠 522
遮陽@@ 522
髮圈 522
髮夾 522
free 521
交叉@@ 521
回@@ 521
橘@@ 521
糖 521
馬克杯 521
07 520
一次性@@ 520
手包 520
榻榻米@@ 520
酒吧@@ 520
創意 519
喬丹@@ 519
巾 519
手提 519
沐浴@@ 519
萌@@ 519
43@@ 518
依@@ 518
橡膠@@ 518
諾@@ 518
足@@ 518
bag 517
恐龍@@ 517
木 517
蝦@@ 517
限定下標 517
風扇@@ 517
su@@ 516
法 516
燒@@ 516
da@@ 515
tory 515
儲物柜@@ 515
冰箱@@ 515
寶可夢 515
梅@@ 515
毯 515
牆@@ 515
一組@@ 514
世@@ 514
單 514
壺@@ 514
密@@ 514
粗跟@@ 513
蘋果 513
大型@@ 512
小巧@@ 512
抖音@@ 512
襪子@@ 512
78@@ 511
my 511
恩@@ 511
服裝店@@ 511
緊身@@ 511
風格 511
干@@ 510
抽繩@@ 510
短版@@ 510
碼@@ 510
罩 510
reebok 509
彩繪@@ 509
星 509
life 508
包裝 508
意@@ 508
芯@@ 508
辦公桌@@ 508
釘@@ 508
mm 507
ss@@ 507
制@@ 507
專屬@@ 507
島@@ 507
捲@@ 507
給@@ 507
露營@@ 507
5cm 506
冬@@ 506
魚 506
川@@ 505
心 505
換@@ 505
洗髮精 505
潔@@ 505
直筒@@ 505
te@@ 504
乳 504
材料 504
05@@ 503
bv@@ 503
cos@@ 503
控油@@ 503
af 502
內搭@@ 502
吸水@@ 502
盆 502
明星同款@@ 501
lo@@ 500
古著 500
手袋 500
田園@@ 500
破洞@@ 500
菱格@@ 500
polo 499
迷你小@@ 499
三色@@ 498
學 498
溫@@ 498
防刮@@ 497
49@@ 496
me 496
書包@@ 496
裙子 496
賣場@@ 496
電視@@ 496
be@@ 495
retro 495
奧@@ 495
指@@ 495
立式@@ 495
設計師@@ 495
200ml 494
五金 494
內褲@@ 494
包屁衣 494
國際@@ 494
黃色@@ 494
一番賞 493
新 493
古奇 492
海綿@@ 492
v2 491
地毯@@ 491
購物包 491
le 490
pe@@ 490
保護貼 490
全黑 490
售 490
喔 490
寬褲 490
張 490
情趣用品 490
擺飾 490
明星@@ 490
柜 490
男子@@ 490
者 490
賽@@ 490
高筒 490
type 489
單鞋@@ 489
圖 489
泡沫@@ 489
派對@@ 489
淡@@ 489
窗簾@@ 489
萊@@ 489
鋁@@ 489
北歐風@@ 488
如@@ 488
富@@ 488
攝影@@ 488
盒子@@ 488
飯@@ 488
58@@ 487
嬰幼兒@@ 487
拼圖 487
楊@@ 487
頭層牛皮@@ 487
150 486
愛馬仕@@ 486
新娘@@ 486
源@@ 486
75 485
抗菌@@ 485
為@@ 485
盒裝@@ 485
鮮@@ 485
不含@@ 484
包郵@@ 484
可以@@ 484
馬卡龍@@ 484
寶寶 483
就@@ 483
徽章 483
手環@@ 483
材質@@ 483
9成新 482
筒@@ 482
鉚釘@@ 482
46@@ 481
兔 481
劉@@ 481
48 480
ch@@ 480
嘻哈@@ 480
拍照@@ 480
爐@@ 480
藤@@ 480
cc@@ 479
why 479
媽咪 479
理@@ 479
詩@@ 479
跟@@ 479
適合@@ 479
鑽 479
卡包 478
手繪@@ 478
桌子 478
機能@@ 478
豹紋@@ 478
ins風@@ 477
ol@@ 477
反光 477
綜合@@ 477
義大利@@ 477
鑰匙@@ 477
靴 477
shock 476
周@@ 476
購@@ 476
鎖 476
震動@@ 476
700 475
幸福@@ 475
房@@ 475
深藍@@ 475
ki@@ 474
sm@@ 474
初@@ 474
希@@ 474
水杯 474
睡衣 474
全新正品@@ 473
大氣@@ 473
青春@@ 473
by@@ 472
墨@@ 472
墨鏡@@ 472
材料@@ 472
繩 472
耳釘@@ 472
q 471
七龍珠 471
五金@@ 471
假兩件@@ 471
化妝品@@ 471
夏 471
小說 471
海報 471
鹿@@ 471
57@@ 470
j 470
po@@ 470
太@@ 470
柏@@ 470
洛@@ 470
i7 469
可愛卡通@@ 469
地墊@@ 469
掛鉤@@ 469
石英@@ 469
華為@@ 469
si@@ 468
反@@ 468
夾克 468
文具@@ 468
月 468
杯子@@ 468
生 468
金證 468
400@@ 467
ab@@ 467
s號 467
原版@@ 467
拉 467
電鍍@@ 467
nb 466
我的@@ 466
臺式@@ 466
莉@@ 466
進@@ 466
鼠@@ 466
an 465
奶油@@ 465
3xl 464
eqt 464
感應@@ 464
男用@@ 464
胸包 464
行 464
長 464
chic@@ 463
原宿@@ 463
居家 463
師@@ 463
現@@ 463
高跟@@ 463
by 462
galaxy 462
兩件套 462
各@@ 462
水壺 462
騎行@@ 462
600@@ 461
71 461
iphone@@ 461
size 461
口罩 461
堂@@ 461
廠家直銷 461
文化 461
軍@@ 461
頂@@ 461
stan 460
ta@@ 460
基本款 460
收藏@@ 460
特賣 460
被@@ 460
110 459
old 459
低筒 459
壹@@ 459
益智@@ 459
長袖t恤 459
間@@ 459
附購證 459
小花@@ 458
很@@ 458
感 458
手表@@ 458
練習@@ 458
kobe 457
做@@ 457
另有@@ 457
收納櫃 457
港風@@ 457
皂@@ 457
破@@ 457
禮 457
邊 457
r1 456
修復@@ 456
必@@ 456
斜@@ 456
毛巾 456
禮服@@ 456
bo@@ 455
do@@ 455
m6@@ 455
sp@@ 455
super 455
創@@ 455
gucci古馳@@ 454
全新現貨@@ 454
曼@@ 454
棉t 454
母@@ 454
蘇@@ 454
05 453
64 453
場@@ 453
夏季 453
按摩棒 453
省空間@@ 453
肩@@ 453
虎@@ 453
裝飾品@@ 453
仙@@ 452
小香風@@ 452
拖@@ 452
紀念@@ 452
翻@@ 452
天 451
展示@@ 451
扇@@ 451
推薦@@ 451
護理@@ 451
風衣 451
65 450
ri@@ 450
堂 450
轉蛋 450
4g 449
bmw 449
尺@@ 449
滑@@ 449
短tee 449
充電器 448
售@@ 448
孔 448
登山@@ 448
銀色@@ 448
高跟鞋 448
公分@@ 447
台中@@ 447
哥@@ 447
桃@@ 447
臺灣@@ 447
09@@ 446
180@@ 446
公文包 446
抽屜@@ 446
機家用@@ 446
鏡子@@ 446
收腰@@ 445
架子 445
正版授權 445
甜@@ 445
運動套裝 445
郵差包 445
ad@@ 444
sa@@ 444
嚴選 444
底 444
模 444
當@@ 444
錢夾@@ 444
阿瑪尼@@ 444
女用@@ 443
第一@@ 443
萬能@@ 443
三麗鷗 442
摩@@ 442
改@@ 442
男生 442
磁@@ 442
長t 442
a4@@ 441
sh@@ 441
ti@@ 441
古著@@ 441
吊燈 441
工業@@ 441
影@@ 441
af@@ 440
一字領@@ 440
只@@ 440
天使@@ 440
泡@@ 440
迪奧 440
音響@@ 440
smith 439
友@@ 439
彈 439
滑板鞋 439
盒裝 439
舖 439
近全新 439
二代@@ 438
愛 438
支@@ 438
爾 438
玻璃貼 438
精油 438
銀色 438
防摔 438
鞋子 438
下單@@ 437
古典@@ 437
壺 437
枕頭@@ 437
衛浴@@ 437
di@@ 436
歌@@ 436
發 436
神 436
衣櫃@@ 436
ao@@ 435
dior@@ 435
us@@ 435
個性創意@@ 435
刷毛@@ 435
可調@@ 435
爆品下殺 435
羅馬@@ 435
聯@@ 435
道具@@ 435
47 434
600 434
76@@ 434
ipad 434
掛畫@@ 434
澳洲@@ 434
羊@@ 434
蒂@@ 434
語@@ 434
armour 433
ua 433
三合一@@ 433
刮@@ 433
游泳@@ 433
皂 433
系 433
防紫外線@@ 433
養@@ 433
女生 432
室外@@ 432
洋@@ 432
玩偶@@ 432
百貨@@ 432
隔熱@@ 432
項鍊@@ 432
04 431
55 431
gg@@ 431
prada@@ 431
交換禮物 431
文具 431
更@@ 431
解@@ 431
素t 430
花卉@@ 430
豐@@ 430
餐椅@@ 430
充電式@@ 429
升@@ 429
卡片 429
小店 429
工裝@@ 429
帆布 429
斜挎@@ 429
篇 429
韓版時尚@@ 429
69@@ 428
ep 428
基@@ 428
大尺碼 428
女童 428
漫畫 428
球鞋 428
絨毛@@ 428
藏@@ 428
車內@@ 428
雙g@@ 428
髮帶 428
充電線 427
女式@@ 427
尺 427
手機套 427
手鐲 427
歡迎@@ 427
燈具 427
異@@ 427
蠟@@ 427
衣架@@ 427
門口@@ 427
or@@ 426
點 426
1000@@ 425
喇叭 425
城@@ 425
專輯 425
照片@@ 425
衣柜@@ 425
運動休閒@@ 425
huarache 424
ni@@ 424
夜店@@ 424
爐 424
高筒@@ 424
plus@@ 423
優 423
女性@@ 423
旅行包 423
永@@ 423
漢@@ 423
送禮 423
喬@@ 422
潮牌 422
簡單@@ 422
保暖 421
推@@ 421
派@@ 421
2入 420
促銷 420
具@@ 420
旅遊@@ 420
營養@@ 420
磁性@@ 420
精選@@ 420
迷@@ 420
配色@@ 420
寶石@@ 419
導@@ 419
男錶@@ 419
短t@@ 419
粒@@ 419
5吋 418
92 418
pc@@ 418
公司@@ 418
字 418
抽屜式@@ 418
皮夾@@ 418
北歐簡約@@ 417
女學生@@ 417
選@@ 417
開叉@@ 417
雙頭@@ 417
餅乾 417
79@@ 416
了 416
宮@@ 416
小米 416
新款韓版@@ 416
船@@ 416
荷葉邊@@ 416
送禮@@ 416
達 416
部@@ 416
64g 415
no@@ 415
倍@@ 415
吊墜 415
景@@ 415
泳衣 415
經@@ 415
長條@@ 415
飄窗@@ 415
61 414
卡通 414
小白鞋@@ 414
平口@@ 414
磁鐵@@ 414
零錢包@@ 414
klein 413
nb@@ 413
少@@ 413
禮品 413
花園@@ 413
關@@ 413
雅 413
餅@@ 413
ss 412
仔@@ 412
朵@@ 412
襯衣@@ 412
購物@@ 412
超美@@ 412
66 411
亞麻@@ 411
專賣店 411
床邊@@ 411
泳裝 411
賣 411
3d立體@@ 410
de 410
el@@ 410
ns 410
優選 410
現貨實拍@@ 410
繡花@@ 410
跑@@ 410
迷妳@@ 410
120 409
burch 409
圓領 409
有機@@ 409
桌上@@ 409
檔@@ 409
每@@ 409
毛呢@@ 409
男女同款@@ 409
總@@ 409
酸@@ 409
閨蜜@@ 409
鞋架@@ 409
麂皮@@ 409
jo@@ 408
取@@ 408
數位@@ 408
瑜伽@@ 408
皮質@@ 408
結@@ 408
靴@@ 408
saint 407
世界 407
印章 407
打底衫 407
ralph 406
促銷@@ 406
冊 406
御@@ 406
柱@@ 406
荷葉@@ 406
韓版修身@@ 406
館@@ 406
ci@@ 405
city 405
versace 405
團@@ 405
壁@@ 405
抓@@ 405
漆@@ 405
章 405
著@@ 405
衫@@ 405
遊@@ 405
鋼帶@@ 405
音響 405
02@@ 404
拉鍊 404
歐洲@@ 404
男女士@@ 404
興@@ 404
開衫@@ 404
魔術@@ 404
lin 403
上 403
仙女@@ 403
加厚 403
巧@@ 403
玫瑰 403
簡@@ 403
級 403
英倫風@@ 403
裸@@ 403
透明 403
鋪 403
電腦桌@@ 403
125 402
iphone6 402
vi@@ 402
代 402
加熱@@ 402
名媛@@ 402
喇叭@@ 402
多色@@ 402
紫色 402
蒸@@ 402
谷@@ 402
陽台@@ 402
270 401
品質@@ 401
廠家直銷@@ 401
洋 401
牛仔短褲 401
閃@@ 401
類@@ 401
餐具 401
嘴@@ 400
琴@@ 400
舊@@ 400
製 400
轉角@@ 400
鏡頭@@ 400
順@@ 400
食物@@ 400
67@@ 399
ma 399
墊子@@ 399
女孩 399
戀@@ 399
新中式@@ 399
日本進口@@ 399
農@@ 399
針織上衣 399
包臀@@ 398
大功率@@ 398
沖@@ 398
濾@@ 398
罩衫 398
腕錶@@ 398
衣架 398
霧@@ 398
line 397
ne@@ 397
亞克力@@ 397
凳 397
台北@@ 397
東京@@ 397
補水@@ 397
sb 396
九分@@ 396
原木@@ 396
太空@@ 396
拼圖@@ 396
果凍@@ 396
洗衣機@@ 396
滑板@@ 396
潛水@@ 396
賽車@@ 396
轉賣 396
防蚊@@ 396
鬆緊@@ 396
商@@ 395
筆袋 395
雜物@@ 395
鴨舌帽 395
ka@@ 394
七彩@@ 394
傘 394
包頭@@ 394
吹@@ 394
巴寶莉 394
帆布鞋@@ 394
情人節@@ 394
束@@ 394
海外@@ 394
運@@ 394
騎士@@ 394
耳針 393
華碩 393
變頻@@ 393
89@@ 392
了@@ 392
會 392
燙@@ 392
花花@@ 392
010 391
ins 391
吃@@ 391
塑@@ 391
太陽@@ 391
教@@ 391
桌遊 391
橫@@ 391
犬@@ 391
瑞士@@ 391
科技@@ 391
菲@@ 391
59@@ 390
丹@@ 390
地板@@ 390
睡@@ 390
羽@@ 390
蝴蝶結 390
迪奧@@ 390
鉤@@ 390
pa 389
卡片@@ 389
屏@@ 389
氣質 389
聲@@ 389
花邊@@ 389
06@@ 388
balenciaga 388
四輪@@ 388
眉@@ 388
56@@ 387
壓克力@@ 387
巨@@ 387
愛馬仕 387
擦@@ 387
收藏 387
裝飾畫@@ 387
迷你 387
零食 387
優品@@ 386
先生 386
涼感@@ 386
絲絨@@ 386
韓風@@ 386
ho@@ 385
un@@ 385
塗鴉@@ 385
有線@@ 385
樂器 385
蛇@@ 385
貝殼@@ 385
vintage 384
新年@@ 384
條紋 384
男包@@ 384
鍵盤@@ 384
電影@@ 384
馬 384
ap@@ 383
benz 383
一字@@ 383
仿古@@ 383
作@@ 383
使用@@ 383
出貨@@ 383
增高@@ 383
手抓包 383
枕頭 383
標準@@ 383
毛 383
漫@@ 383
陽@@ 383
220v 382
87@@ 382
勾@@ 382
未@@ 382
樹脂@@ 382
電源@@ 382
a3@@ 381
tr@@ 381
中性@@ 381
個性 381
專區 381
服飾 381
美麗@@ 381
走@@ 381
軟底@@ 381
雨傘@@ 381
霧面@@ 381
鹽@@ 381
久@@ 380
層@@ 380
筒 380
茶杯@@ 380
針 380
風水@@ 380
31@@ 379
壁掛式@@ 379
收納柜@@ 379
歐洲站@@ 379
狼@@ 379
01@@ 378
iphone7 378
it@@ 378
love@@ 378
tubular 378
保證@@ 378
想@@ 378
桌椅@@ 378
燒烤@@ 378
男女同款 378
角落生物 378
健@@ 377
全館@@ 377
可議價 377
數@@ 377
槍 377
磁吸@@ 377
餐椅 377
魔鬼氈 377
a字@@ 376
ku@@ 376
夾克@@ 376
繡@@ 376
荔枝紋@@ 376
ex@@ 375
可 375
掛勾 375
橘 375
肩背包@@ 375
電熱@@ 375
鼻@@ 375
ts@@ 374
口 374
吧臺@@ 374
圓頭@@ 374
增@@ 374
背帶@@ 374
防撞@@ 374
gs 373
台灣出貨 373
店鋪@@ 373
浴@@ 373
物 373
tt@@ 372
一 372
代理 372
封@@ 372
漫畫@@ 372
禮@@ 372
簡約時尚@@ 372
雕花@@ 372
三眼@@ 371
中大童@@ 371
丸@@ 371
休閑運動@@ 371
勝@@ 371
吋 371
工業風@@ 371
折 371
擋@@ 371
狗 371
男性@@ 371
皮鞋@@ 371
秋裝@@ 371
隊@@ 371
72 370
圖騰@@ 370
寬鬆 370
梳 370
自粘@@ 370
迷彩 370
進門@@ 370
針織 370
雪花@@ 370
06 369
54@@ 369
av@@ 369
cortez 369
man 369
toyota 369
小腳@@ 369
快充@@ 369
日版@@ 369
燈具@@ 369
珍@@ 369
短靴 369
身體@@ 369
遠@@ 369
錢@@ 369
養生@@ 369
3色 368
又@@ 368
君@@ 368
單鞋 368
壁貼 368
客製化@@ 368
收納箱 368
水壺@@ 368
男女情侶@@ 368
睡眠@@ 368
碎@@ 368
腳 368
襪套 368
長袖襯衫 368
003 367
roshe 367
九成新 367
兩用 367
坐墊 367
簡約百搭@@ 367
紙膠帶 367
蟲@@ 367
鞋女@@ 367
925純銀 366
大衣 366
梳妝臺@@ 366
欣@@ 366
洗臉@@ 366
減@@ 366
球衣 366
買一送一 366
露背@@ 366
顯瘦 366
m4@@ 365
供@@ 365
側背包@@ 365
厚底 365
吊飾@@ 365
大人@@ 365
連身衣 365
長裙@@ 365
單車@@ 364
城 364
客 364
毯@@ 364
碳纖維@@ 364
胸@@ 364
針織衫@@ 364
鏡面@@ 364
倒@@ 363
坐@@ 363
展@@ 363
彩妝@@ 363
收納袋@@ 363
日本製@@ 363
海報@@ 363
滋潤@@ 363
照@@ 363
籃@@ 363
開關@@ 363
ca@@ 362
圍@@ 362
圖案 362
專@@ 362
掛件 362
日本進口 362
書桌 362
武@@ 362
泳衣@@ 362
淺口@@ 362
登@@ 362
胖@@ 362
道具 362
pk 361
全皮@@ 361
利 361
披肩 361
男裝 361
繽紛@@ 361
顏色@@ 361
130@@ 360
250@@ 360
3m@@ 360
bi@@ 360
全新未拆封 360
咖啡廳@@ 360
字母印花@@ 360
皮鞋 360
短襪 360
種子 360
首飾@@ 360
黃色 360
黑紅 360
公事包 359
展示架@@ 359
左@@ 359
把@@ 359
掛鉤 359
收納箱@@ 359
水晶 359
產@@ 359
男女鞋@@ 359
長夾@@ 359
雜貨鋪 359
原宿風@@ 358
居@@ 358
砂@@ 358
窗@@ 358
臥室床頭@@ 358
螺絲 358
豪華@@ 358
97@@ 357
下 357
唇@@ 357
日 357
美妝@@ 357
靠枕@@ 357
fb@@ 356
honda 356
polo@@ 356
加絨加厚@@ 356
圍巾@@ 356
安卓@@ 356
粉底液 356
餅 356
72@@ 355
六角@@ 355
四件套@@ 355
美背@@ 355
遮瑕@@ 355
開關 355
高領@@ 355
07@@ 354
150ml 354
jo 354
傳@@ 354
公主 354
剪 354
台灣 354
好 354
床墊@@ 354
提袋 354
文胸@@ 354
要@@ 354
過濾@@ 354
韓版潮@@ 354
飾 354
ke@@ 353
one@@ 353
衣櫃 353
鉆@@ 353
防盜@@ 353
隔斷@@ 353
yu@@ 352
多 352
廣告@@ 352
民族風@@ 352
特賣@@ 352
連身褲 352
us 351
卷 351
愛心 351
期@@ 351
汽車 351
空壓殼 351
臉@@ 351
行李箱 351
電動車@@ 351
剪刀 350
志@@ 350
禮服 350
芯 350
購入 350
釦@@ 350
馬甲@@ 350
9折 349
high 349
panasonic 349
公司貨@@ 349
大小@@ 349
太陽能@@ 349
手包@@ 349
新款男士@@ 349
粘@@ 349
針織衫 349
風衣@@ 349
xr@@ 348
全 348
兩色 348
冷氣@@ 348
快樂@@ 348
短裙@@ 348
莎@@ 348
輕薄@@ 348
08@@ 347
52@@ 347
700@@ 347
平衡@@ 347
或@@ 347
指甲@@ 347
料 347
浮雕@@ 347
漆皮@@ 347
甲@@ 347
籃 347
腰包@@ 347
螺絲@@ 347
衣櫥@@ 347
躺椅@@ 347
防滑 347
飛機@@ 347
aa@@ 346
內搭褲 346
分體@@ 346
區@@ 346
塞@@ 346
小物 346
戶外 346
手辦@@ 346
擺@@ 346
旗袍@@ 346
美妝 346
蘭 346
螢幕@@ 346
遮光@@ 346
乳液 345
推車 345
染@@ 345
肩帶@@ 345
至@@ 345
臺 345
速干@@ 345
配方 345
韓 345
風衣外套 345
高速@@ 345
5mm 344
blue 344
pop 344
事@@ 344
可開發票 344
大象@@ 344
料理@@ 344
柱 344
玩具總動員 344
現 344
秋冬 344
行動@@ 344
靜@@ 344
vapormax 343
吋@@ 343
宜@@ 343
插卡@@ 343
文 343
牛仔長褲 343
蝦皮@@ 343
褲裙 343
阿迪達斯@@ 343
頸@@ 343
含運 342
宏@@ 342
小桌子@@ 342
情人節禮物 342
椰子@@ 342
毛球@@ 342
洗衣@@ 342
玻璃 342
私@@ 342
臥室客廳@@ 342
首@@ 342
49 341
98 341
兒童玩具@@ 341
半身裙@@ 341
印 341
台灣製@@ 341
夏季薄款@@ 341
帝@@ 341
德國 341
眼影 341
錶帶 341
阿迪達斯 341
160@@ 340
ct@@ 340
lauren 340
ml 340
ms@@ 340
react 340
扇 340
手鐲@@ 340
掛飾 340
書柜@@ 340
舒緩@@ 340
lv路易威登@@ 339
休閒百搭@@ 339
正貨 339
潮人@@ 339
蔻馳@@ 339
mar@@ 338
味 338
廣@@ 338
情侶鞋@@ 338
斜背@@ 338
清爽@@ 338
線條@@ 338
聯名款 338
草 338
靠墊@@ 338
高雄@@ 338
仁@@ 337
傳輸線 337
壓紋@@ 337
森林@@ 337
琳@@ 337
讀@@ 337
貓咪 337
透視@@ 337
鈦鋼@@ 337
防摔殼 337
63 336
ds@@ 336
sd@@ 336
st 336
助@@ 336
可調節@@ 336
班@@ 336
背景@@ 336
雙人 336
mid 335
佳 335
口罩@@ 335
夫@@ 335
毛毛@@ 335
浮@@ 335
烏@@ 335
玫瑰花@@ 335
瓦@@ 335
維修@@ 335
網面@@ 335
電競@@ 335
高跟鞋@@ 335
rolex 334
吸盤@@ 334
季@@ 334
耳夾 334
藍芽@@ 334
親@@ 334
那@@ 334
lu@@ 333
ptcg 333
丁@@ 333
保濕 333
小童@@ 333
廚房置物架@@ 333
暗@@ 333
清潔 333
白金@@ 333
網路@@ 333
職業@@ 333
通 333
運動休閑@@ 333
遮@@ 333
鍊 333
降價 333
餅乾@@ 333
chi@@ 332
zero 332
三件套 332
像@@ 332
史努比@@ 332
墻上@@ 332
幹@@ 332
拼接 332
爆米花@@ 332
男士 332
磚@@ 332
落地式@@ 332
醬@@ 332
鉤 332
鋼化玻璃@@ 332
雜貨 332
68 331
my@@ 331
sp 331
一個@@ 331
可拆洗@@ 331
奶茶@@ 331
底座@@ 331
性感 331
慢跑@@ 331
掛畫 331
搭@@ 331
早餐@@ 331
殺@@ 331
派對 331
皮套@@ 331
盒子 331
部 331
000@@ 330
250 330
aq@@ 330
內增高@@ 330
出 330
向@@ 330
唐@@ 330
小包@@ 330
時尚百搭 330
曬@@ 330
棒球@@ 330
萬聖節@@ 330
96 329
下標@@ 329
唇膏@@ 329
壁燈@@ 329
小小@@ 329
手機包 329
推車@@ 329
烤漆@@ 329
短袖t 329
聖誕節@@ 329
豪@@ 329
采@@ 329
鏈 329
ic@@ 328
墻壁@@ 328
小姐@@ 328
段@@ 328
減震@@ 328
目@@ 328
眼睛@@ 328
短靴@@ 328
脫@@ 328
臺燈@@ 328
裝飾品 328
視@@ 328
100g 327
bu@@ 327
lg 327
re 327
三 327
以@@ 327
冠@@ 327
婚紗@@ 327
官網@@ 327
掛式@@ 327
樂高@@ 327
模具 327
氣 327
網布 327
麵@@ 327
09 326
三色 326
下殺價 326
主機 326
名 326
妝@@ 326
池@@ 326
盆栽@@ 326
莫@@ 326
鏡子 326
04@@ 325
es@@ 325
pandora 325
pc 325
全銅@@ 325
手機支架 325
服飾@@ 325
氣墊鞋 325
米妮 325
精品下殺 325
縫@@ 325
過膝@@ 325
長袖t恤@@ 325
laurent 324
marc 324
便@@ 324
個 324
台灣公司貨 324
寸@@ 324
帕@@ 324
度 324
廚@@ 324
情人節 324
拆@@ 324
旗@@ 324
款式@@ 324
狂@@ 324
珠寶@@ 324
雕刻@@ 324
黏@@ 324
bandai 323
hp 323
nba 323
sc@@ 323
wifi@@ 323
七分袖@@ 323
二代 323
可用 323
娜 323
柜子@@ 323
說@@ 323
趣味@@ 323
鍵盤 323
雙肩@@ 323
fila 322
多款@@ 322
床單@@ 322
德 322
手機架 322
毛線@@ 322
牙刷@@ 322
社 322
緊緻@@ 322
軟殼@@ 322
鴨@@ 322
1000 321
15ml 321
一對@@ 321
之家 321
小羊皮@@ 321
碟@@ 321
神奇@@ 321
腰 321
訂製@@ 321
酵素@@ 321
音 321
顆@@ 321
2020夏季新款@@ 320
800 320
hi 320
五分褲 320
口紅 320
媽@@ 320
情侶裝@@ 320
第@@ 320
聖羅蘭 320
記@@ 320
跑鞋@@ 320
防潮@@ 320
限定版 320
頭飾@@ 320
麥克風 320
yo@@ 319
宇@@ 319
幸運@@ 319
怪@@ 319
手鍊@@ 319
極簡@@ 319
歐美風@@ 319
豆豆鞋 319
象@@ 319
鑰匙包 319
防彈少年團 319
雙耳@@ 319
顆 319
44碼 318
air@@ 318
gap 318
刻@@ 318
小姐 318
披肩@@ 318
明信片 318
棉褲 318
海賊王@@ 318
消毒@@ 318
特殊@@ 318
眼影@@ 318
胎@@ 318
許@@ 318
超強@@ 318
限量版 318
250ml 317
77 317
86@@ 317
8g 317
man@@ 317
史努比 317
小方包@@ 317
服裝 317
比基尼@@ 317
水龍頭@@ 317
混@@ 317
科比@@ 317
鋸@@ 317
顏@@ 317
vol 316
基礎@@ 316
增高 316
壓花@@ 316
彎@@ 316
正品代購@@ 316
皇@@ 316
秒@@ 316
能量@@ 316
電腦包 316
顏色 316
香薰@@ 316
鼓@@ 316
93 315
l號 315
red 315
usb充電@@ 315
勞力士 315
太陽鏡 315
夾子@@ 315
女生包包 315
新款時尚@@ 315
日貨 315
活力@@ 315
的店 315
鋼琴@@ 315
62 314
亞 314
剪刀@@ 314
戴@@ 314
書架 314
溫泉@@ 314
背帶 314
蜂蜜@@ 314
限時下殺 314
高爾夫@@ 314
a5@@ 313
adv 313
chanel香奈兒@@ 313
ins網紅@@ 313
kt@@ 313
zenfone 313
冠軍@@ 313
午睡@@ 313
太陽鏡@@ 313
寫@@ 313
手辦 313
掛飾@@ 313
星巴克@@ 313
測@@ 313
複古@@ 313
350@@ 312
75ml 312
bf@@ 312
不鏽鋼 312
入門@@ 312
叉@@ 312
多肉@@ 312
奶茶店@@ 312
妙@@ 312
室@@ 312
換鞋凳@@ 312
支 312
江@@ 312
激@@ 312
米白 312
進口 312
鍍@@ 312
電腦桌 312
08 311
500g 311
52 311
gap@@ 311
sk@@ 311
仕@@ 311
保養@@ 311
勾 311
十字@@ 311
園@@ 311
工坊 311
帆布包 311
時鐘@@ 311
睡覺@@ 311
票@@ 311
筆記本 311
紋身@@ 311
變色@@ 311
連身裙@@ 311
道 311
鋼彈 311
錠 311
128g 310
32g 310
51 310
hd@@ 310
ㄧ@@ 310
散@@ 310
水槽@@ 310
特別@@ 310
發貨 310
門簾@@ 310
da 309
dc@@ 309
ed@@ 309
壁畫@@ 309
少女 309
er 308
mit 308
享@@ 308
便宜@@ 308
全家@@ 308
巧克力 308
彩 308
泳裝@@ 308
潮鞋 308
珍珠 308
芬迪@@ 308
跳蛋 308
輕鬆@@ 308
金剛@@ 308
開口@@ 308
高 308
點心@@ 308
79 307
canon 307
ms 307
th@@ 307
優惠價 307
北歐 307
單肩斜挎@@ 307
按摩器 307
控@@ 307
簾@@ 307
綁@@ 307
茶葉@@ 307
電話@@ 307
龜@@ 307
3c@@ 306
84@@ 306
也@@ 306
四季通用@@ 306
懷舊@@ 306
旅游@@ 306
旺@@ 306
格紋 306
碳@@ 306
純銅@@ 306
耐磨 306
臉部@@ 306
蕾絲 306
錢 306
餐桌 306
體恤@@ 306
高壓@@ 306
69 305
car@@ 305
佩@@ 305
可移動@@ 305
園藝@@ 305
垃圾桶 305
奶瓶@@ 305
尖@@ 305
果 305
種子@@ 305
米妮@@ 305
膚@@ 305
花架@@ 305
足球@@ 305
電視柜@@ 305
igo 304
使用 304
女夏@@ 304
小屋 304
微波爐@@ 304
掛脖@@ 304
果汁@@ 304
相機 304
華 304
街@@ 304
勺@@ 303
即@@ 303
巴黎@@ 303
考@@ 303
舒適透氣@@ 303
葉 303
蝦皮24h 303
超可愛@@ 303
選 303
2020年@@ 302
85 302
gd 302
gu@@ 302
is 302
客製@@ 302
折扣@@ 302
杯子 302
短袖上衣@@ 302
遮陽帽 302
鉗@@ 302
雨衣 302
170@@ 301
5g 301
cp@@ 301
串@@ 301
主機@@ 301
怡@@ 301
曲@@ 301
替換@@ 301
林 301
水桶@@ 301
纖@@ 301
老帽 301
肩背@@ 301
補水保濕@@ 301
gucci古奇@@ 300
pvc 300
充電寶@@ 300
含稅 300
射@@ 300
床墊 300
扁@@ 300
男女生@@ 300
瘋@@ 300
皇冠@@ 300
粒 300
耐吉nike 300
輕巧@@ 300
鉗 300
鏈條包@@ 300
鑰匙扣@@ 300
1a 299
up 299
傑@@ 299
寬版@@ 299
捷@@ 299
时尚@@ 299
櫻桃@@ 299
煮@@ 299
福袋 299
korea 298
mr 298
style 298
versace@@ 298
中號@@ 298
午休@@ 298
商務休閒@@ 298
聖誕節 298
被套@@ 298
運動休閒鞋 298
10ml 297
6s@@ 297
88 297
airpods 297
snoopy 297
化妝水 297
可充電@@ 297
寢室@@ 297
專櫃 297
從@@ 297
擺設 297
深層@@ 297
漸層@@ 297
澤@@ 297
秒殺價 297
精 297
精華液 297
素 297
耳飾 297
肩背 297
速乾@@ 297
ah@@ 296
pa@@ 296
s925純銀@@ 296
交@@ 296
兒童房@@ 296
抖音同款@@ 296
湯匙 296
漢服@@ 296
炫彩@@ 296
籠@@ 296
細跟@@ 296
茶具@@ 296
草本@@ 296
蔡@@ 296
薇@@ 296
蝶@@ 296
被 296
褲女@@ 296
67 295
74@@ 295
ny@@ 295
uniqlo 295
中文@@ 295
中跟@@ 295
二合一@@ 295
動漫 295
底座 295
拍 295
斑@@ 295
曉@@ 295
最新款 295
涼鞋女@@ 295
絕@@ 295
織@@ 295
葡萄@@ 295
見@@ 295
貝殼包 295
魚缸@@ 295
jp@@ 294
kors@@ 294
tb@@ 294
便宜賣 294
奈@@ 294
日系 294
森系@@ 294
溫和@@ 294
玉米@@ 294
益@@ 294
蛋 294
調理@@ 294
辣@@ 294
飯店@@ 294
800@@ 293
kyrie 293
lin@@ 293
ps@@ 293
runner 293
別@@ 293
單肩 293
外貿@@ 293
工程@@ 293
法蘭絨@@ 293
淑女@@ 293
潮流時尚@@ 293
羽毛@@ 293
舞蹈@@ 293
藍光@@ 293
護眼@@ 293
釣具 293
83@@ 292
sn@@ 292
休閒短褲 292
倫@@ 292
兔兔@@ 292
冬天@@ 292
幻@@ 292
文件@@ 292
模具@@ 292
牛仔外套 292
盛@@ 292
站@@ 292
簽名@@ 292
軸@@ 292
en 291
exo 291
fit 291
is@@ 291
人氣@@ 291
動漫周邊@@ 291
吸管@@ 291
多色可選 291
旅行箱@@ 291
朗@@ 291
森 291
泡茶@@ 291
胡@@ 291
膠帶 291
芙@@ 291
電影 291
髮 291
髮箍 291
03@@ 290
360@@ 290
兩件式@@ 290
冷熱@@ 290
唇釉 290
婚禮小物 290
悅@@ 290
懶人鞋@@ 290
手表 290
歐美 290
節能@@ 290
蔬菜@@ 290
適@@ 290
隔離@@ 290
鳥 290
cosplay@@ 289
ve@@ 289
常@@ 289
手珠 289
木工@@ 289
步@@ 289
洗車@@ 289
緣@@ 289
被子@@ 289
隔@@ 289
非 289
2米@@ 288
asics 288
度假@@ 288
擺設@@ 288
書籍 288
榮@@ 288
款式 288
濕@@ 288
糖果色@@ 288
輔助@@ 288
lebron 287
sun@@ 287
制服@@ 287
口味 287
吸頂燈@@ 287
平價@@ 287
彈簧@@ 287
窄@@ 287
薄款 287
開運@@ 287
魯夫 287
麵 287
ga@@ 286
qq@@ 286
q版@@ 286
store 286
u型@@ 286
不對稱@@ 286
伯@@ 286
型男@@ 286
士 286
庭院@@ 286
建@@ 286
戒 286
牛津布@@ 286
穿搭 286
窩@@ 286
翡翠@@ 286
腳墊@@ 286
護手霜 286
財@@ 286
退@@ 286
麵包@@ 286
es 285
mp@@ 285
先@@ 285
史@@ 285
吸塵器 285
奇 285
師 285
橙@@ 285
玉 285
的小@@ 285
編號@@ 285
鏡頭 285
開車@@ 285
阿贊@@ 285
bl@@ 284
fe@@ 284
hco 284
mu@@ 284
puma@@ 284
人物@@ 284
保溫杯@@ 284
卡西歐 284
完 284
寶可夢@@ 284
掛 284
時鐘 284
樓梯@@ 284
滿版 284
火鍋@@ 284
炫@@ 284
燙金@@ 284
白黑 284
精選 284
茶几@@ 284
華為 284
装@@ 284
58 283
fi@@ 283
ge@@ 283
xperia 283
古風@@ 283
場 283
大學生@@ 283
小戶型客廳@@ 283
小茶幾@@ 283
比 283
自由@@ 283
螢光@@ 283
鍊@@ 283
102 282
2015 282
53 282
925銀@@ 282
gt 282
pink 282
下單處 282
冊@@ 282
哥 282
喬丹 282
大頭@@ 282
婚慶@@ 282
宜家@@ 282
小白@@ 282
庫@@ 282
方便@@ 282
春夏季@@ 282
機械錶 282
牙刷 282
獨@@ 282
臥室 282
護唇膏 282
鋯石@@ 282
閱讀@@ 282
00 281
73 281
81 281
91 281
92@@ 281
day 281
he@@ 281
te 281
作 281
合身@@ 281
妹@@ 281
字母 281
手拿@@ 281
投@@ 281
收納包@@ 281
皇家@@ 281
眼影盤 281
科技 281
編@@ 281
2000@@ 280
ds 280
du@@ 280
ra@@ 280
star@@ 280
傳統@@ 280
定做@@ 280
後背包@@ 280
拉拉熊 280
斜跨@@ 280
樹 280
涼拖鞋 280
男女童@@ 280
百搭時尚@@ 280
眼 280
耐高溫@@ 280
衣櫥 280
醬 280
cat 279
miss 279
一套@@ 279
三件組 279
云@@ 279
井@@ 279
兵@@ 279
凝膠 279
園 279
城市@@ 279
大號 279
微型@@ 279
搖@@ 279
春秋季@@ 279
普拉達@@ 279
杯墊 279
正品現貨 279
水滴@@ 279
油畫@@ 279
蜜蜂@@ 279
閣 279
2016新款@@ 278
a3 278
cu@@ 278
ph@@ 278
tw@@ 278
充@@ 278
旅行 278
水管@@ 278
花盆@@ 278
裝備@@ 278
飛線@@ 278
ha@@ 277
ip@@ 277
ipad@@ 277
m5@@ 277
na@@ 277
sy@@ 277
串珠@@ 277
具 277
女錶@@ 277
廚房 277
星巴克 277
棒球帽@@ 277
波浪@@ 277
短袖t恤女@@ 277
美髮@@ 277
蔻馳 277
蠟燭@@ 277
豆豆鞋@@ 277
電 277
87 276
armani@@ 276
gd@@ 276
乳膠@@ 276
別墅@@ 276
原廠公司貨 276
帳篷@@ 276
床包 276
真絲@@ 276
碧@@ 276
綁帶 276
美肌@@ 276
膠囊 276
蠟 276
鋪@@ 276
鏡片 276
魯@@ 276
360 275
保鮮@@ 275
側背@@ 275
寫字@@ 275
小夜燈 275
春裝@@ 275
洗手@@ 275
炸@@ 275
盒玩 275
轉賣@@ 275
長洋裝 275
閃亮@@ 275
鞋櫃@@ 275
飲料@@ 275
63@@ 274
face 274
pi@@ 274
play 274
supreme@@ 274
xl@@ 274
保護殼@@ 274
客廳 274
無鋼圈@@ 274
皮卡丘 274
石英錶 274
美樂蒂 274
鄭@@ 274
靠枕 274
麋鹿@@ 274
220v@@ 273
fu@@ 273
i8 273
ya@@ 273
份@@ 273
可愛小@@ 273
布料@@ 273
拉桿@@ 273
掌@@ 273
極致@@ 273
止@@ 273
比基尼 273
沙灘鞋 273
現貨出清 273
男式@@ 273
種 273
美容院@@ 273
自拍@@ 273
茶桌@@ 273
超市@@ 273
隨@@ 273
高效@@ 273
16g 272
mi 272
min@@ 272
季 272
宅@@ 272
尺碼 272
最後@@ 272
清洗@@ 272
珠光@@ 272
相框@@ 272
芳@@ 272
英雄@@ 272
菊@@ 272
蕾@@ 272
鈦@@ 272
除臭@@ 272
uv@@ 271
wa@@ 271
ze@@ 271
凝膠@@ 271
凱蒂貓 271
單肩斜挎包@@ 271
大學@@ 271
床頭柜@@ 271
碟 271
章@@ 271
鐘@@ 271
電腦 271
露趾@@ 271
鞋櫃 271
rs 270
vivo@@ 270
任選@@ 270
免費@@ 270
分格@@ 270
嚴選@@ 270
實用 270
拉拉熊@@ 270
掛衣架@@ 270
文字@@ 270
斷@@ 270
春夏新款@@ 270
梳@@ 270
淑@@ 270
現貨不用等 270
現貨在台 270
瓷@@ 270
角落生物@@ 270
謝@@ 270
豆豆@@ 270
79折 269
96@@ 269
ak@@ 269
亮面@@ 269
休閑百搭@@ 269
你的@@ 269
凍@@ 269
咖啡色 269
圓領短袖 269
大牌@@ 269
戰靴 269
抹胸@@ 269
插座@@ 269
聚@@ 269
購買@@ 269
轉 269
防爆@@ 269
限量版@@ 269
2代@@ 268
champion 268
休閒長褲 268
可放@@ 268
史迪奇@@ 268
命@@ 268
安 268
杆@@ 268
涼拖鞋@@ 268
激光@@ 268
腳踏@@ 268
錦@@ 268
霸@@ 268
chen 267
shop@@ 267
skool 267
tomy 267
yamaha 267
三折@@ 267
分 267
家用客廳@@ 267
彪馬 267
樣@@ 267
瀝水@@ 267
網眼@@ 267
蒙@@ 267
試@@ 267
雕@@ 267
雪紡上衣 267
電腦椅@@ 267
需@@ 267
ag@@ 266
cf@@ 266
二次元@@ 266
化妝包@@ 266
南瓜@@ 266
單車 266
圍兜 266
姿@@ 266
寶貝 266
將@@ 266
幾@@ 266
彩繪 266
懶人沙發@@ 266
改裝 266
木製@@ 266
淡香水 266
漸變@@ 266
繪本 266
蓮@@ 266
赤@@ 266
車貼 266
hollister 265
下擺@@ 265
五分@@ 265
保溫杯 265
史迪奇 265
商城 265
故事@@ 265
水鉆@@ 265
溫馨@@ 265
濾網 265
防燙@@ 265
5米@@ 264
box 264
cr@@ 264
ins潮@@ 264
support 264
we@@ 264
佈置 264
啞光@@ 264
塔 264
期 264
河@@ 264
玻尿酸@@ 264
真 264
窗戶@@ 264
管理@@ 264
蛋糕 264
質感 264
越@@ 264
趣@@ 264
身 264
鑰匙扣 264
降@@ 264
麻花@@ 264
140@@ 263
78 263
ex 263
北歐實木@@ 263
台南@@ 263
固@@ 263
塊@@ 263
小豬@@ 263
教學@@ 263
浪@@ 263
游@@ 263
義@@ 263
肥@@ 263
貨到付款 263
質 263
超亮@@ 263
避震@@ 263
邊幾@@ 263
閃光@@ 263
面料@@ 263
004 262
240@@ 262
50g 262
boy 262
ford 262
名牌@@ 262
垃圾桶@@ 262
女寶寶@@ 262
娃@@ 262
小說@@ 262
愛情@@ 262
排扣@@ 262
機器人@@ 262
清倉@@ 262
筆電@@ 262
自慰器 262
陶@@ 262
面部@@ 262
300ml 261
8plus@@ 261
bq@@ 261
leather 261
三麗鷗@@ 261
主播@@ 261
兩件@@ 261
多色 261
套裝女@@ 261
幼@@ 261
復@@ 261
掛繩@@ 261
沒@@ 261
沙灘鞋@@ 261
洗面乳 261
特級@@ 261
純手工@@ 261
180 260
king 260
五分褲@@ 260
低筒@@ 260
刺@@ 260
情侶裝 260
營@@ 260
男女通用@@ 260
索@@ 260
耐熱@@ 260
聚攏@@ 260
自己@@ 260
運動短褲 260
邦@@ 260
門廳@@ 260
黃銅@@ 260
8米@@ 259
bv 259
power 259
tommy 259
ya 259
一件@@ 259
乳液@@ 259
保固@@ 259
卡包@@ 259
成人兒童@@ 259
次@@ 259
歲@@ 259
漏@@ 259
濃@@ 259
睫毛@@ 259
金屬 259
鋼 259
體 259
魔術貼@@ 259
750@@ 258
abercrombie 258
dc 258
dvd@@ 258
一盒@@ 258
九分褲 258
化妝桌@@ 258
情趣內衣@@ 258
扶手@@ 258
方型@@ 258
樂園 258
水潤@@ 258
港@@ 258
犬 258
耳墜@@ 258
褲襪 258
語 258
資料夾 258
闊腿褲@@ 258
防風外套 258
鯊魚@@ 258
麥克風@@ 258
94 257
套腳@@ 257
宴會@@ 257
店鋪 257
整套@@ 257
早@@ 257
潤滑液 257
瘦身@@ 257
計@@ 257
記 257
近@@ 257
閣@@ 257
阿甘鞋 257
as 256
台式@@ 256
性 256
方 256
氣球 256
消@@ 256
致@@ 256
西裝外套 256
親膚@@ 256
豆 256
貝殼頭 256
防雨@@ 256
限時特價 256
304@@ 255
86 255
chuck 255
hi@@ 255
x5@@ 255
保健@@ 255
保固一年 255
兩用包 255
卸妝@@ 255
嘴 255
影 255
時尚商務@@ 255
晴@@ 255
木頭@@ 255
桃紅 255
紳士@@ 255
繫帶@@ 255
露營 255
mb@@ 254
mit@@ 254
nba@@ 254
便當盒 254
印章@@ 254
古裝@@ 254
吉他@@ 254
哺乳@@ 254
妍@@ 254
斗@@ 254
業@@ 254
筆電 254
若@@ 254
運 254
鑲@@ 254
音箱@@ 254
108@@ 253
coco@@ 253
ty@@ 253
中筒@@ 253
優選@@ 253
動物 253
地毯 253
報@@ 253
壁燈 253
槽@@ 253
減肥@@ 253
男士商務@@ 253
老式@@ 253
訂@@ 253
越野@@ 253
運動外套 253
黛@@ 253
dw@@ 252
fendi@@ 252
ig@@ 252
rose 252
ts 252
zara 252
中古@@ 252
健身 252
君 252
員@@ 252
寫真@@ 252
成品@@ 252
抱@@ 252
旗艦店 252
爪@@ 252
珊瑚絨@@ 252
社@@ 252
羅 252
贈品 252
陸@@ 252
黑灰 252
2xl 251
9h@@ 251
ca 251
dw 251
nu@@ 251
到貨 251
山 251
形 251
招財 251
時尚簡約@@ 251
束口@@ 251
浴巾 251
深藍色 251
滴@@ 251
漁夫帽 251
綿@@ 251
纖維@@ 251
茶几 251
落@@ 251
角 251
記憶@@ 251
誘惑@@ 251
鋪棉@@ 251
鑫@@ 251
闊腿@@ 251
龍貓@@ 251
12v@@ 250
1入 250
hermes@@ 250
ko 250
pr@@ 250
乾 250
全場買二送一 250
四角@@ 250
布藝沙發@@ 250
意大利@@ 250
房 250
手柄@@ 250
敏@@ 250
泰迪@@ 250
熱賣款 250
網紅款@@ 250
美國代購@@ 250
達人 250
閃電@@ 250
a0@@ 249
gi@@ 249
marmont 249
mon@@ 249
oo@@ 249
vo@@ 249
x1 249
一起@@ 249
中文 249
二 249
便攜 249
充電 249
可面交 249
咪@@ 249
女子@@ 249
嫩@@ 249
屏風@@ 249
工藝@@ 249
彩虹 249
戰術@@ 249
晨@@ 249
朵 249
柄@@ 249
樂器@@ 249
毛孔@@ 249
狀@@ 249
瓷磚@@ 249
甜心@@ 249
精靈@@ 249
紋繡@@ 249
群@@ 249
觸控@@ 249
酒柜@@ 249
76 248
7吋 248
do 248
led燈@@ 248
僅@@ 248
先生@@ 248
多用途@@ 248
工藝品@@ 248
琉璃@@ 248
畢業@@ 248
藍牙耳機 248
表演@@ 248
誠@@ 248
貨架@@ 248
跳@@ 248
釣@@ 248
125@@ 247
88折 247
ly@@ 247
ver@@ 247
儲物櫃@@ 247
勁@@ 247
器家用@@ 247
小可愛 247
帶回 247
平安@@ 247
水鑽 247
活動 247
無限@@ 247
良@@ 247
飼料 247
休閑 246
余文樂 246
劍 246
可刷卡 246
吊帶褲 246
掛鐘 246
方頭@@ 246
於@@ 246
歡樂@@ 246
熊貓@@ 246
真品 246
秋季新款@@ 246
美體@@ 246
鈴@@ 246
雜誌 246
鞋架 246
74 245
spf50 245
個人@@ 245
公克 245
只有@@ 245
咖啡色@@ 245
妹 245
層 245
烤箱@@ 245
瘦@@ 245
站 245
藍牙耳機@@ 245
諾 245
錶帶@@ 245
1000ml 244
a7@@ 244
li 244
丹寧@@ 244
作者 244
價格@@ 244
圓盤@@ 244
安全帽@@ 244
工廠@@ 244
慕斯@@ 244
時間@@ 244
照 244
燈泡 244
笑臉@@ 244
置物櫃 244
美甲 244
藍芽耳機 244
認證 244
4g@@ 243
ee@@ 243
premium 243
xx@@ 243
你 243
修身 243
出售 243
大碼女裝@@ 243
嬰兒童@@ 243
小號 243
展示架 243
承@@ 243
液晶@@ 243
聊聊@@ 243
配飾@@ 243
防曬 243
阿瑪尼 243
雷射@@ 243
220@@ 242
2代 242
56 242
it 242
qs 242
ー@@ 242
上下@@ 242
串珠 242
冰淇淋@@ 242
分裝 242
化 242
北歐風格@@ 242
型號@@ 242
妮 242
宮廷@@ 242
家用小型@@ 242
寵@@ 242
床包@@ 242
指定@@ 242
洞@@ 242
細肩帶@@ 242
絨布@@ 242
胖mm@@ 242
腮紅 242
莫代爾@@ 242
蒸汽@@ 242
陰@@ 242
ba 241
bb 241
ch 241
gs@@ 241
more 241
san 241
三眼怪 241
來 241
保溫瓶 241
合售 241
圍欄@@ 241
村@@ 241
熱銷款 241
瑜珈@@ 241
萬向輪@@ 241
野餐@@ 241
53@@ 240
a4 240
i5 240
lx 240
mc@@ 240
mt@@ 240
側邊@@ 240
台風行 240
史密斯 240
唯美@@ 240
市@@ 240
手帳@@ 240
明星同款 240
精致@@ 240
老虎@@ 240
茶幾 240
超火@@ 240
雙 240
雙向@@ 240
靜電@@ 240
魔力@@ 240
麗 240
3歲@@ 239
a字裙@@ 239
cosplay 239
ing@@ 239
th 239
多用@@ 239
大碼 239
官@@ 239
掛繩 239
搶@@ 239
斜背包@@ 239
材@@ 239
炒@@ 239
百變@@ 239
粉紅色 239
芬迪 239
褲男@@ 239
計時@@ 239
資料@@ 239
連帽 239
防臭@@ 239
隔板@@ 239
雜誌@@ 239
韓版寬松@@ 239
x2 238
升級@@ 238
圍裙 238
多卡位@@ 238
戒@@ 238
朱@@ 238
機器@@ 238
海外代購@@ 238
漆 238
烤肉@@ 238
特價中 238
紙袋 238
翼@@ 238
賴@@ 238
長版上衣 238
82 237
chloe 237
光療@@ 237
功能@@ 237
子母@@ 237
寵物 237
手推車 237
手推車@@ 237
手搖@@ 237
抽象@@ 237
掛架@@ 237
散熱@@ 237
燈飾 237
版本 237
生日 237
男女學生@@ 237
盤子@@ 237
華麗@@ 237
運動長褲 237
量 237
鋁合金 237
顯@@ 237
髮束 237
鷹@@ 237
黑紅@@ 237
br@@ 236
original 236
sa 236
slip 236
super@@ 236
分類@@ 236
吃飯@@ 236
手工 236
石英錶@@ 236
繪畫@@ 236
美國正品 236
蚊帳@@ 236
買 236
門簾 236
限時促銷 236
110v@@ 235
celine 235
cs@@ 235
pp 235
sock 235
tb 235
份 235
名片夾 235
壓 235
多種@@ 235
安德瑪 235
客人@@ 235
潮t 235
獨角獸@@ 235
獸@@ 235
現貨特價@@ 235
窩 235
筷子@@ 235
羊皮 235
茶盤@@ 235
薩@@ 235
蛋白@@ 235
護膚@@ 235
資生堂 235
這@@ 235
連帽衛衣 235
釘 235
靠墊 235
頓@@ 235
bd@@ 234
sl@@ 234
帶鎖@@ 234
慶@@ 234
柳@@ 234
茶壺@@ 234
里 234
bvlgari 233
ns@@ 233
下標處 233
休閒褲@@ 233
兔子 233
出版社 233
動 233
只要@@ 233
單肩斜跨包 233
地 233
奈米@@ 233
徽章@@ 233
才@@ 233
摺@@ 233
民@@ 233
氣球@@ 233
秋冬款@@ 233
訓練 233
購物袋@@ 233
針織外套 233
韓版新款@@ 233
60ml 232
900 232
gel 232
mr@@ 232
tt 232
大框@@ 232
太陽眼鏡@@ 232
奶嘴@@ 232
彪馬@@ 232
插電@@ 232
春夏 232
櫥窗@@ 232
知@@ 232
絲光棉@@ 232
絲襪 232
面料 232
韓版學生@@ 232
高腳@@ 232
髮飾@@ 232
sm 231
yy@@ 231
備@@ 231
小圓@@ 231
廠 231
強化@@ 231
托 231
時 231
歐美時尚@@ 231
清潔劑 231
產品@@ 231
紗 231
美式鄉村@@ 231
芬@@ 231
麵包超人@@ 231
齊@@ 231
57 230
9h 230
kiehl 230
低跟@@ 230
全場@@ 230
刷破@@ 230
喵@@ 230
壁紙@@ 230
數碼@@ 230
材 230
杜@@ 230
美人@@ 230
美術@@ 230
螢幕 230
貼布@@ 230
辦公椅@@ 230
韻@@ 230
馬丁靴@@ 230
11100@@ 229
3d 229
6歲@@ 229
hy@@ 229
mizuno 229
polo衫@@ 229
presto 229
t1@@ 229
ta 229
ua@@ 229
國際 229
圍裙@@ 229
尼 229
情人@@ 229
整理箱@@ 229
束口袋 229
洞洞@@ 229
網紅同款@@ 229
缸@@ 229
膠囊@@ 229
膠帶@@ 229
薄荷@@ 229
蠶絲@@ 229
超人@@ 229
金標 229
限定賣場 229
隻 229
靠背椅@@ 229
83 228
89 228
93@@ 228
north 228
ps 228
sport 228
做舊@@ 228
吧@@ 228
圓領t恤 228
墻面@@ 228
專利@@ 228
小熊維尼 228
手感@@ 228
搖擺@@ 228
收納櫃@@ 228
文化@@ 228
明 228
老師@@ 228
胸包@@ 228
雪花 228
高中@@ 228
魂@@ 228
59 227
a5 227
cb@@ 227
isbn 227
malone 227
中腰@@ 227
企業@@ 227
凡賽斯@@ 227
功夫茶具@@ 227
司@@ 227
小洋裝 227
折扣 227
新品上市 227
樂園@@ 227
硬殼 227
訂製 227
護髮@@ 227
貴@@ 227
貼片 227
105 226
ed 226
lite 226
top 226
三人@@ 226
九分褲@@ 226
入耳式@@ 226
全場免運 226
其他@@ 226
前後@@ 226
加厚保暖@@ 226
哦 226
微笑@@ 226
成人 226
時光@@ 226
朝@@ 226
灰白 226
羽絨@@ 226
薰衣草@@ 226
袖 226
負離子@@ 226
防漏@@ 226
零件 226
靠@@ 226
頭皮@@ 226
食品 226
鱷魚@@ 226
鴨舌帽@@ 226
2015@@ 225
320@@ 225
3入 225
94@@ 225
ff@@ 225
ver 225
休閑褲@@ 225
低價@@ 225
傳 225
凡@@ 225
功夫@@ 225
基本款@@ 225
小熊 225
新款女士@@ 225
梯@@ 225
毛帽 225
海綿 225
滋養@@ 225
焊@@ 225
牆面@@ 225
甜蜜@@ 225
男童 225
聽@@ 225
良品 225
藤編@@ 225
螺紋@@ 225
賓士 225
車門@@ 225
錄音@@ 225
陽光@@ 225
飄@@ 225
麋鹿 225
140 224
5d@@ 224
chanel香奈兒 224
girl 224
suede 224
主題@@ 224
亮白@@ 224
保證正品 224
全球@@ 224
去角質@@ 224
塊 224
客製化 224
專柜@@ 224
布料 224
批@@ 224
櫻@@ 224
沐浴乳 224
獅子@@ 224
短夾@@ 224
籽@@ 224
緩震@@ 224
草編@@ 224
蟲 224
近視@@ 224
送 224
零錢@@ 224
齒@@ 224
龍頭@@ 224
保鮮盒 223
全實木@@ 223
加大 223
可當@@ 223
吊帶裙 223
塞 223
尾 223
戶外運動@@ 223
手指@@ 223
手袋@@ 223
把手@@ 223
斜背 223
海 223
烘@@ 223
牙膏 223
琪@@ 223
瘋狂@@ 223
移動電源@@ 223
綠茶@@ 223
襯衣 223
軟妹@@ 223
送女友@@ 223
高腰顯瘦@@ 223
bottega 222
lv女包 222
tsum 222
中夾 222
任選 222
卡通可愛@@ 222
大logo 222
尿@@ 222
工作服@@ 222
手工編織@@ 222
挂@@ 222
搖滾@@ 222
星星 222
柯@@ 222
洗臉盆@@ 222
百搭款 222
磚 222
素面 222
練@@ 222
莉 222
蜂@@ 222
變形@@ 222
貔貅@@ 222
酥 222
鉛筆@@ 222
鐳射@@ 222
隨機@@ 222
雜貨@@ 222
電風扇 222
风@@ 222
香氛 222
香蕉@@ 222
2件@@ 221
fk 221
i6 221
ka 221
you 221
京@@ 221
媽 221
嬌@@ 221
專賣 221
巴黎世家 221
扭蛋@@ 221
掛鐘@@ 221
桌布@@ 221
水泥@@ 221
沙發墊@@ 221
登月@@ 221
皮卡丘@@ 221
而@@ 221
耐用@@ 221
臂@@ 221
行李@@ 221
衣帽架@@ 221
軟糖 221
運動套裝@@ 221
醫@@ 221
007 220
144 220
41@@ 220
82@@ 220
ar 220
eg@@ 220
little 220
pokemon 220
pump 220
上新@@ 220
低腰@@ 220
典雅@@ 220
分裝@@ 220
容@@ 220
小物@@ 220
廠@@ 220
招@@ 220
指甲油 220
洗手盆@@ 220
漁@@ 220
男女通用 220
管理 220
網面透氣@@ 220
緊@@ 220
蓮花@@ 220
螺旋@@ 220
賦活@@ 220
軟皮@@ 220
透膚@@ 220
開衩@@ 220
防震@@ 220
112@@ 219
618@@ 219
be 219
cos 219
zx@@ 219
全能@@ 219
夏季新款 219
女人@@ 219
情趣精品 219
新品免運 219
織帶@@ 219
花園 219
超仙@@ 219
週@@ 219
還@@ 219
限定款 219
雨傘 219
雨衣@@ 219
髮夾@@ 219
鬥@@ 219
5吋@@ 218
coco 218
oppo@@ 218
yu 218
一般@@ 218
低幫 218
保固 218
免洗@@ 218
可可@@ 218
吸管 218
坊@@ 218
坡跟@@ 218
女性淡香水 218
快充 218
日本正版 218
本舖 218
洗碗@@ 218
牛仔 218
物語 218
玉石@@ 218
簾 218
航@@ 218
菜 218
螺@@ 218
裝飾畫 218
角色扮演 218
詹姆斯@@ 218
轉接頭 218
速 218
遮陽帽@@ 218
雙肩背包 218
頭盔@@ 218
魅@@ 218
魚尾@@ 218
fury 217
ins超火@@ 217
s8 217
人偶 217
口水巾 217
吃雞@@ 217
小桌子 217
帶燈@@ 217
支持@@ 217
收腹@@ 217
族@@ 217
最愛 217
無毒@@ 217
糖果 217
肯@@ 217
育@@ 217
視頻@@ 217
赫@@ 217
鐵 217
長柄@@ 217
附贈@@ 217
韓版簡約@@ 217
20cm 216
gl@@ 216
light 216
nac 216
son@@ 216
凳子 216
切割@@ 216
勁戰 216
可拆卸@@ 216
學生用@@ 216
小沙發@@ 216
帳篷 216
排汗@@ 216
新手@@ 216
業 216
樓@@ 216
歐 216
深藍色@@ 216
相框 216
禪意@@ 216
立牌 216
粉嫩@@ 216
紗布@@ 216
范思哲@@ 216
跳舞@@ 216
輕便 216
輪胎@@ 216
頭戴式@@ 216
飛行@@ 216
高質感@@ 216
bl 215
cq@@ 215
dr@@ 215
ea@@ 215
friends 215
xs@@ 215
充電器@@ 215
出口@@ 215
古董@@ 215
天天@@ 215
寶馬@@ 215
寸 215
惡魔@@ 215
早教@@ 215
書法@@ 215
桑@@ 215
樂樂@@ 215
水桶包@@ 215
滑板 215
科學@@ 215
空間 215
肉 215
衛@@ 215
辦公桌 215
過道@@ 215
適用于@@ 215
隻@@ 215
san@@ 214
中年@@ 214
佐@@ 214
信封@@ 214
兒童玩具 214
凈@@ 214
存錢筒 214
寧@@ 214
小香 214
工廠 214
校園@@ 214
檯燈 214
汽@@ 214
波 214
真品@@ 214
筆記本電腦@@ 214
行動電源@@ 214
觀@@ 214
調料@@ 214
陶瓷 214
隆@@ 214
電瓶車@@ 214
316@@ 213
ji@@ 213
kg@@ 213
lv包包 213
philipp 213
咖@@ 213
後 213
挖@@ 213
數據線@@ 213
求@@ 213
泰國 213
涼拖@@ 213
濃縮@@ 213
牆壁@@ 213
現貨特價 213
甩@@ 213
花紋@@ 213
裡@@ 213
製作@@ 213
造@@ 213
雞 213
頻@@ 213
騰@@ 213
201@@ 212
4色 212
cf 212
lady 212
中長@@ 212
人體@@ 212
任@@ 212
假髮 212
全套 212
加拿大@@ 212
可拆@@ 212
寬松顯瘦@@ 212
成 212
旅行包@@ 212
棉衣@@ 212
歐洲代購 212
比賽@@ 212
淨化@@ 212
漫威@@ 212
男女孩@@ 212
籃球 212
紅外線@@ 212
美女@@ 212
蠟燭 212
音箱 212
預購款 212
2g 211
520@@ 211
fate 211
fitch 211
一對 211
中華@@ 211
保守@@ 211
全效@@ 211
冷凍@@ 211
化妝臺@@ 211
名片@@ 211
女性淡香精 211
廚房用品@@ 211
拖把@@ 211
撐@@ 211
梨@@ 211
植@@ 211
氣墊粉餅 211
男鞋女鞋 211
秘@@ 211
竿@@ 211
連線 211
頭飾 211
馬克杯@@ 211
鬧鐘@@ 211
鼠 211
62@@ 210
gt@@ 210
lv路易威登 210
上新 210
五分袖@@ 210
保護 210
保護膜 210
假髮@@ 210
全場秒殺 210
公斤@@ 210
吸頂燈 210
團 210
垂墜@@ 210
學院@@ 210
小清新 210
尿布@@ 210
成長@@ 210
抗皺@@ 210
淋浴@@ 210
潘朵拉 210
煎@@ 210
甘@@ 210
短袖襯衫 210
程@@ 210
絲襪@@ 210
臥室燈@@ 210
釦 210
鐘 210
24h@@ 209
304不鏽鋼@@ 209
a字裙 209
便宜 209
哈倫褲@@ 209
單層@@ 209
基本@@ 209
失@@ 209
家居服@@ 209
寬鬆顯瘦@@ 209
小腳褲@@ 209
恐龍 209
新鮮@@ 209
明信片@@ 209
春季新款@@ 209
植物 209
正版dvd 209
氏@@ 209
泵@@ 209
滿天星@@ 209
玩 209
粉刺@@ 209
美樂蒂@@ 209
背蓋 209
華碩@@ 209
贈送@@ 209
軒@@ 209
運動褲@@ 209
雞肉@@ 209
雨鞋 209
飲@@ 209
黑武士 209
al 208
diy手工@@ 208
note 208
代理@@ 208
休閒套裝 208
全新真品 208
劇@@ 208
可坐@@ 208
咖啡杯@@ 208
喇叭袖@@ 208
圣@@ 208
女士 208
姆@@ 208
愛麗絲@@ 208
托盤@@ 208
日本帶回@@ 208
棕色 208
機車 208
水性@@ 208
汽車用@@ 208
洗手間@@ 208
琺瑯@@ 208
穿 208
紅酒@@ 208
美顏@@ 208
翔@@ 208
萬代 208
非常@@ 208
260@@ 207
carter 207
house@@ 207
shadow 207
stussy 207
乳霜 207
俏@@ 207
單人 207
四色@@ 207
奶茶 207
存@@ 207
少年@@ 207
居 207
情 207
時尚個性@@ 207
櫥柜@@ 207
止滑@@ 207
湖@@ 207
潔面@@ 207
無線藍牙@@ 207
矮@@ 207
節 207
繪@@ 207
耳朵@@ 207
葫蘆@@ 207
讓@@ 207
音樂 207
飛利浦@@ 207
馬達 207
10入 206
cl@@ 206
dd@@ 206
mac@@ 206
兄弟@@ 206
小腳褲 206
拖 206
牛 206
病@@ 206
礦@@ 206
粉餅 206
置@@ 206
腳踏墊 206
范@@ 206
護膚品@@ 206
路 206
連帽衛衣@@ 206
野生@@ 206
550@@ 205
con@@ 205
三件@@ 205
凡賽斯 205
功能 205
卡套 205
庭@@ 205
時髦@@ 205
櫻花 205
氣動@@ 205
煞車@@ 205
疊@@ 205
百貨店 205
秋冬新款 205
穿搭@@ 205
第二@@ 205
絲巾 205
絲巾@@ 205
被套 205
買二送一 205
購物 205
錫@@ 205
隱@@ 205
雙c@@ 205
震@@ 205
預 205
顆粒@@ 205
飯盒@@ 205
首選 205
香皂@@ 205
麻將@@ 205
450@@ 204
cat@@ 204
s9 204
sha 204
三菱 204
倉鼠@@ 204
免運費@@ 204
公 204
口袋 204
圓領短袖@@ 204
天絲@@ 204
婚@@ 204
密碼@@ 204
小眾@@ 204
接頭 204
杏@@ 204
毒@@ 204
毛絨玩具@@ 204
法國 204
海灘@@ 204
熱銷款@@ 204
獅@@ 204
百褶@@ 204
皮面@@ 204
網紅 204
聯名款@@ 204
荷@@ 204
郵@@ 204
鈴 204
鳳@@ 204
54 203
5mm@@ 203
650@@ 203
a8 203
fo@@ 203
home 203
kt 203
pegasus 203
taylor 203
付@@ 203
儲物柜 203
剛@@ 203
合 203
圍 203
墻貼@@ 203
大師@@ 203
慧@@ 203
提花@@ 203
書櫃@@ 203
木紋@@ 203
楓@@ 203
短筒@@ 203
粉紅色@@ 203
絨面@@ 203
航空@@ 203
花束 203
螢幕保護貼 203
philips 202
tu@@ 202
wh@@ 202
凝@@ 202
原創 202
可水洗@@ 202
團購@@ 202
孩子@@ 202
客廳沙發@@ 202
拉鍊長夾 202
旋@@ 202
普拉達 202
現代 202
童話@@ 202
背景墻@@ 202
臭@@ 202
芳香@@ 202
逼真@@ 202
防油@@ 202
雞蛋@@ 202
103 201
jacobs 201
不銹鋼 201
丸 201
可選@@ 201
外套女@@ 201
大童@@ 201
安撫@@ 201
寒@@ 201
小夜燈@@ 201
手電筒 201
捲 201
旅@@ 201
會議@@ 201
棋盤格@@ 201
棕@@ 201
波點@@ 201
滑鼠 201
滾@@ 201
眼霜 201
短袖polo衫 201
空間@@ 201
竹炭@@ 201
網布@@ 201
肩帶 201
藝術 201
街拍@@ 201
證件@@ 201
軟包@@ 201
鋼化膜 201
防潑水@@ 201
驅蚊@@ 201
龍頭 201
005 200
108 200
360度@@ 200
3件@@ 200
gucci古馳 200
mg 200
micro 200
monogram 200
ny 200
一次@@ 200
內置@@ 200
寬口@@ 200
恩 200
時尚休閑@@ 200
月亮@@ 200
棉質 200
橘色 200
沉@@ 200
沙 200
流 200
素色 200
衛生@@ 200
話@@ 200
販售 200
針織毛衣 200
銳@@ 200
長襪 200
騎@@ 200
鸚鵡@@ 200
900@@ 199
anna 199
for@@ 199
huawei 199
ktv@@ 199
up@@ 199
一套 199
不可@@ 199
乾燥@@ 199
保留 199
剩@@ 199
半身@@ 199
唷 199
媽媽包 199
嬰兒床@@ 199
學步鞋 199
導航@@ 199
小型 199
小朋友@@ 199
床罩@@ 199
彩色 199
抗uv@@ 199
探@@ 199
新品熱賣 199
早期@@ 199
晶鑽@@ 199
桌椅 199
正裝@@ 199
漂@@ 199
磁力@@ 199
維尼 199
花瓣@@ 199
補充包 199
限 199
飲 199
2019夏季新款@@ 198
5s 198
a9 198
aj1 198
ef@@ 198
made 198
wd 198
一件免運 198
公斤 198
可伸縮@@ 198
和風@@ 198
戀愛@@ 198
掃@@ 198
掛墻@@ 198
方塊@@ 198
爽@@ 198
獨家 198
碳纖維 198
童鞋@@ 198
絨 198
耳 198
貓窩@@ 198
買家@@ 198
面交 198
006 197
110v 197
999@@ 197
curry 197
kd 197
企鵝@@ 197
叫@@ 197
各種@@ 197
大衣@@ 197
妞@@ 197
家用臥室@@ 197
小胸@@ 197
平板 197
所@@ 197
手幅 197
拍攝@@ 197
指紋@@ 197
桌椅組合@@ 197
深v@@ 197
男女寶寶@@ 197
硬殼@@ 197
社團@@ 197
網面 197
翠@@ 197
茶道@@ 197
鑰匙圈@@ 197
黑金@@ 197
130 196
benassi 196
中型@@ 196
亂@@ 196
人偶@@ 196
剎車@@ 196
創意家居@@ 196
十字紋@@ 196
夢 196
姬@@ 196
小雛菊@@ 196
小馬@@ 196
岩@@ 196
後背@@ 196
得 196
悠@@ 196
把手 196
支援@@ 196
枝@@ 196
棍@@ 196
棕色@@ 196
漾@@ 196
獎@@ 196
白鐵@@ 196
盆栽 196
直播 196
神奇寶貝@@ 196
精鋼@@ 196
經濟型 196
縫隙@@ 196
腳踏車@@ 196
英國 196
英語@@ 196
警@@ 196
豐田 196
長袖襯衫@@ 196
開光@@ 196
防潑水 196
零件@@ 196
餐盤 196
2000 195
af1 195
era 195
et 195
etude 195
fb 195
ky@@ 195
sw@@ 195
va@@ 195
促銷價 195
公主風@@ 195
其@@ 195
加粗@@ 195
卡其 195
售價@@ 195
套餐 195
婷 195
拼布@@ 195
拼裝@@ 195
按摩 195
殺菌@@ 195
牙 195
界@@ 195
研@@ 195
窗簾 195
筷@@ 195
緞帶@@ 195
萃@@ 195
虎頭@@ 195
製造 195
言@@ 195
語音@@ 195
超商@@ 195
酥@@ 195
鋰電池@@ 195
降價@@ 195
飛機杯 195
鬧鐘 195
el 194
hd 194
hu@@ 194
jordan@@ 194
偏光@@ 194
原子筆 194
單人雙人@@ 194
圓形 194
境@@ 194
壽@@ 194
女韓版@@ 194
妖@@ 194
已售出 194
平底鞋@@ 194
打包@@ 194
找@@ 194
救@@ 194
旅行組 194
水龍頭 194
清倉 194
燈飾@@ 194
獨特@@ 194
網紅ins@@ 194
緹花@@ 194
薄外套 194
費@@ 194
酒精@@ 194
ap 193
ax@@ 193
han@@ 193
op@@ 193
rx@@ 193
studio 193
tech 193
事 193
何@@ 193
俊@@ 193
印度@@ 193
女王@@ 193
平跟@@ 193
按摩棒@@ 193
效@@ 193
日本代購@@ 193
減壓@@ 193
然@@ 193
稀有@@ 193
精靈寶可夢 193
袋子@@ 193
隔音@@ 193
雨鞋@@ 193
210@@ 192
dy@@ 192
je@@ 192
loft@@ 192
na 192
speedy 192
wifi 192
中筒襪 192
優惠中 192
兒童寶寶@@ 192
冰雪奇緣@@ 192
劉海@@ 192
善@@ 192
床包組 192
引@@ 192
拋光@@ 192
橡木@@ 192
痛@@ 192
省@@ 192
磁鐵 192
等 192
粉底@@ 192
精品代購 192
耳飾@@ 192
蛋黃哥@@ 192
輝@@ 192
週年@@ 192
運動拖鞋 192
選擇 192
酒紅 192
野營@@ 192
電磁爐@@ 192
龜 192
4k@@ 191
bk@@ 191
boss 191
dream 191
kate 191
pl@@ 191
sk 191
space 191
watch 191
一包@@ 191
休闲@@ 191
典@@ 191
初學@@ 191
吧 191
宇宙@@ 191
小牛皮 191
手把 191
扎@@ 191
新生@@ 191
浴缸@@ 191
演出@@ 191
維尼@@ 191
羽絨外套 191
膚 191
花漾@@ 191
莓@@ 191
變壓器 191
趣 191
連衣裙女@@ 191
郭@@ 191
韓國代購@@ 191
韩版@@ 191
題@@ 191
騎士 191
魅力@@ 191
111 190
123 190
2019年@@ 190
body 190
fa@@ 190
superdry 190
vans@@ 190
中心 190
制作@@ 190
北歐輕奢@@ 190
匠@@ 190
團購 190
大童 190
奶粉@@ 190
家用多功能@@ 190
峰@@ 190
幼稚園@@ 190
怪獸@@ 190
戰靴@@ 190
掛架 190
未來@@ 190
桃紅@@ 190
水彩@@ 190
沒有@@ 190
特價出清 190
現代簡約客廳@@ 190
球鞋@@ 190
男童女童@@ 190
簍空@@ 190
絕對@@ 190
緞面@@ 190
莊@@ 190
設備@@ 190
追@@ 190
電風扇@@ 190
頓 190
香草@@ 190
design 189
vivo 189
world 189
上市 189
保養 189
唯@@ 189
單肩斜跨@@ 189
四件套 189
帽t@@ 189
廚師@@ 189
拉鏈錢包 189
搭扣@@ 189
暢銷@@ 189
毛邊@@ 189
沐浴露@@ 189
泉@@ 189
溫柔@@ 189
男性淡香水 189
社會@@ 189
福 189
米色@@ 189
系統 189
紀@@ 189
緞帶 189
花瓶@@ 189
軸 189
2020年新款@@ 188
2020新款 188
6g 188
fly 188
lab 188
line@@ 188
不沾@@ 188
任天堂 188
俏皮@@ 188
修容@@ 188
修補@@ 188
制冷@@ 188
卡其@@ 188
另@@ 188
吸汗@@ 188
天使 188
奇蹟@@ 188
宅配免運 188
徐@@ 188
悠遊卡 188
政@@ 188
有 188
治@@ 188
淨白@@ 188
熟@@ 188
痕@@ 188
科 188
範@@ 188
耳夾@@ 188
茶臺@@ 188
蜜粉 188
逆@@ 188
鏟@@ 188
開 188
防身@@ 188
限時優惠 188
預@@ 188
d2@@ 187
wcf 187
三角褲 187
便利@@ 187
保險@@ 187
傷@@ 187
全新公司貨 187
匡威 187
家居服 187
平面@@ 187
打火機@@ 187
抹茶@@ 187
搞怪@@ 187
柴@@ 187
玄@@ 187
田 187
直徑@@ 187
窗 187
腿 187
自行車 187
艷@@ 187
訂單 187
遊戲王 187
防走光@@ 187
beauty 186
gb@@ 186
l型@@ 186
sanrio 186
sd 186
上班@@ 186
傢俱@@ 186
勺 186
双@@ 186
和服@@ 186
培@@ 186
增高鞋 186
娃 186
安裝@@ 186
定型@@ 186
平角@@ 186
施華洛世奇@@ 186
机@@ 186
校@@ 186
棕 186
紅白@@ 186
紗裙 186
紫砂@@ 186
西班牙@@ 186
超低價 186
重低音@@ 186
野外@@ 186
鋰電@@ 186
鐘表@@ 186
電玩 186
韓國連線 186
黑灰@@ 186
a7 185
cs 185
elite 185
f1 185
hot 185
k歌@@ 185
mb 185
skin 185
俠@@ 185
北歐創意@@ 185
十二@@ 185
升級版 185
可穿 185
奶瓶 185
家用室內@@ 185
带@@ 185
收腰顯瘦@@ 185
數位 185
暗黑@@ 185
束腳@@ 185
漿@@ 185
潔膚@@ 185
無穀@@ 185
聖羅蘭@@ 185
腳踏車 185
調節@@ 185
購買 185
軍綠 185
轉運@@ 185
鋼筆@@ 185
防塵罩@@ 185
鞋墊 185
項圈 185
驅@@ 185
30cm 184
ce 184
mt 184
pure 184
spa@@ 184
中老年@@ 184
內刷毛@@ 184
公升@@ 184
加固@@ 184
口味@@ 184
台灣製造@@ 184
右@@ 184
商店 184
壁畫 184
強光@@ 184
手臂@@ 184
拔@@ 184
擊@@ 184
施@@ 184
日貨@@ 184
昇@@ 184
星光@@ 184
泡泡袖@@ 184
泥 184
獵@@ 184
百搭休閒@@ 184
置物盒 184
葉子@@ 184
蔬果@@ 184
裏@@ 184
賞@@ 184
鑲鉆@@ 184
防刮 184
馨@@ 184
160 183
rs@@ 183
s10 183
sc 183
三眼計時@@ 183
二手書@@ 183
入戶@@ 183
冰箱 183
券 183
各式@@ 183
圓領短t 183
多肉植物 183
專櫃正品@@ 183
小怪獸@@ 183
工 183
工作室 183
平板電腦@@ 183
廠家@@ 183
折疊 183
拉桿箱@@ 183
插頭 183
武器@@ 183
水器@@ 183
流行 183
牙膏@@ 183
特大@@ 183
特色@@ 183
直購價 183
相片@@ 183
紙巾盒@@ 183
花束@@ 183
萬聖節 183
調 183
護腰@@ 183
豬 183
貼身@@ 183
鎮@@ 183
防霧@@ 183
面包@@ 183
韓系 183
400ml 182
73@@ 182
84 182
agnes 182
color 182
nissan 182
or 182
免打孔 182
出風口@@ 182
商務休閑@@ 182
夾縫@@ 182
孔雀@@ 182
實體店面 182
寫字臺@@ 182
寶格麗 182
康 182
我 182
日曆@@ 182
潘@@ 182
特大號@@ 182
玄關柜@@ 182
男孩女孩@@ 182
系統@@ 182
純銀 182
胸前@@ 182
透 182
鍍金@@ 182
118@@ 181
978986@@ 181
ai 181
bar@@ 181
kids 181
ks 181
sr@@ 181
ン@@ 181
七分@@ 181
儲物架@@ 181
化妝鏡@@ 181
可調式@@ 181
圓點@@ 181
幫@@ 181
惡@@ 181
打火機 181
旅行袋 181
朋友@@ 181
柔軟 181
梅花@@ 181
橘色@@ 181
涼席@@ 181
磨毛@@ 181
純棉短t 181
胎 181
藍芽喇叭 181
長袖上衣@@ 181
韓國製 181
106 180
gx@@ 180
mac 180
人生@@ 180
偉@@ 180
公升 180
原味@@ 180
土 180
小舖@@ 180
巴西@@ 180
引擎@@ 180
扣式@@ 180
抽 180
氣泡@@ 180
活膚@@ 180
熊熊@@ 180
燕麥@@ 180
爬@@ 180
經典logo@@ 180
花盆 180
英文 180
裂@@ 180
軟膠@@ 180
鎖扣@@ 180
首飾盒@@ 180
黑金 180
ju@@ 179
儲@@ 179
刨@@ 179
可選 179
唱@@ 179
圓 179
壁掛 179
壓力@@ 179
就是@@ 179
晾@@ 179
枕套 179
梵@@ 179
機商用@@ 179
沃@@ 179
流蘇 179
滿鑽@@ 179
特典 179
男女情侶款@@ 179
笑@@ 179
籠 179
西服@@ 179
車用 179
酵素 179
防風 179
電瓶@@ 179
230@@ 178
3g 178
61@@ 178
paul 178
ul@@ 178
veneta 178
休閒短t 178
別針 178
厚底鞋 178
夫 178
女夏季@@ 178
好市多 178
實木 178
小魚@@ 178
星際大戰 178
時裝@@ 178
棉花糖@@ 178
棋盤格 178
源 178
燃氣@@ 178
玻璃杯 178
耐用 178
蔻@@ 178
褶皺@@ 178
超好@@ 178
車貼@@ 178
迷你小型@@ 178
過年@@ 178
防曬衣@@ 178
bk 177
bws 177
dior迪奧@@ 177
kg 177
set 177
tiffany 177
ur@@ 177
win@@ 177
yy 177
冷藏@@ 177
刻字@@ 177
吹風機 177
垂墜耳環 177
床頭櫃@@ 177
強 177
忍者@@ 177
愛的@@ 177
本田@@ 177
毛料@@ 177
當天出貨 177
發飾@@ 177
符@@ 177
罩衫@@ 177
美國正品代購 177
膠原蛋白@@ 177
花茶@@ 177
躺椅 177
車身@@ 177
车@@ 177
逸@@ 177
錄 177
霸氣@@ 177
響@@ 177
類 177
風景@@ 177
飛線 177
麵包超人 177
44碼@@ 176
boost@@ 176
bra@@ 176
ct 176
db@@ 176
dv@@ 176
dx 176
三代 176
乾燥花 176
偏@@ 176
冰雪奇緣 176
包包女@@ 176
圓環@@ 176
圓臉@@ 176
堅果@@ 176
壁紙 176
壽司@@ 176
外殼@@ 176
好物 176
寬松大碼@@ 176
島 176
手把@@ 176
接待@@ 176
支撐@@ 176
注@@ 176
燈芯絨@@ 176
牆上@@ 176
理 176
甜品@@ 176
磅 176
移@@ 176
童 176
筆電包 176
耀@@ 176
背 176
芽@@ 176
購入@@ 176
鋼彈@@ 176
鋼絲@@ 176
鎖骨鏈@@ 176
限量款 176
雨靴@@ 176
頭套 176
魂 176
120ml 175
40ml 175
6吋 175
lo 175
ru@@ 175
usb3 175
wanna 175
zo@@ 175
匙 175
啦 175
喝@@ 175
國際牌 175
夏季韓版@@ 175
妃@@ 175
寫字桌@@ 175
小胸聚攏@@ 175
指甲油@@ 175
插座 175
攪拌@@ 175
日文@@ 175
時代@@ 175
最低價 175
權@@ 175
水池@@ 175
火 175
烤盤 175
眼部@@ 175
維修 175
腳架 175
茉莉@@ 175
西瓜@@ 175
連接@@ 175
飯桌@@ 175
6寸@@ 174
750 174
dunk 174
ps4@@ 174
u盤@@ 174
wa 174
wang 174
zz@@ 174
以上@@ 174
免運直出 174
兜@@ 174
兩穿@@ 174
割@@ 174
吐司@@ 174
哆啦a夢 174
大燈@@ 174
夾子 174
家用廚房@@ 174
小熊維尼@@ 174
小狗@@ 174
戰 174
手機通用@@ 174
指環@@ 174
月子@@ 174
根 174
母親節@@ 174
獨立@@ 174
琴 174
男士腕錶 174
絲綢@@ 174
網絡@@ 174
耳塞@@ 174
裝備 174
邁@@ 174
長效@@ 174
電壓@@ 174
電工@@ 174
餐盒 174
香港代購 174
鳳梨@@ 174
100元 173
ke 173
shi@@ 173
toy 173
toys 173
亞瑟士 173
便當盒@@ 173
兜 173
內 173
勒@@ 173
動力@@ 173
單品 173
單鞋女@@ 173
四件組 173
妝 173
官方 173
密 173
布置@@ 173
手串@@ 173
手機包@@ 173
拉絲@@ 173
擺攤@@ 173
收納筐@@ 173
文青@@ 173
書寶二手書t1 173
有蓋@@ 173
木制@@ 173
民宿@@ 173
水器 173
汗@@ 173
淡化@@ 173
烘培@@ 173
特價免運 173
白金 173
盾@@ 173
藍白 173
親子裝 173
院@@ 173
韓國東大門@@ 173
鬆緊腰@@ 173
3代 172
5代 172
80g 172
blazer 172
fashion 172
givenchy 172
happy 172
loewe 172
magic 172
mo 172
queen 172
so 172
wu 172
上衣女@@ 172
伴娘@@ 172
分隔@@ 172
北歐ins@@ 172
咬@@ 172
塵@@ 172
娜美 172
完@@ 172
宗@@ 172
宣傳@@ 172
實體@@ 172
小雞@@ 172
布偶 172
床1 172
慢@@ 172
枚 172
桃園@@ 172
汁@@ 172
白藍 172
脂@@ 172
臺燈 172
舞 172
苗@@ 172
蒜@@ 172
衝@@ 172
觀音@@ 172
設計款 172
調味@@ 172
配飾 172
金銀@@ 172
錄@@ 172
鍵@@ 172
鍾@@ 172
電腦包@@ 172
領帶@@ 172
1ml 171
3000@@ 171
acer 171
cy@@ 171
ii@@ 171
j7 171
kin@@ 171
停車@@ 171
刀具@@ 171
前 171
十字繡@@ 171
吊牌 171
單件@@ 171
地中海@@ 171
彈性 171
恒溫@@ 171
慵懶@@ 171
斜紋@@ 171
柄 171
梳妝@@ 171
浴室 171
牛津@@ 171
瓜@@ 171
索尼@@ 171
編號 171
腹@@ 171
蘭蔻 171
角落@@ 171
變速@@ 171
貝 171
踏板 171
運動健身@@ 171
頸椎@@ 171
黏土@@ 171
ber@@ 170
focus 170
fw@@ 170
ia 170
live 170
ray 170
sl 170
tretta 170
tri@@ 170
t恤女@@ 170
x3 170
三代@@ 170
人造@@ 170
休閒時尚@@ 170
修 170
博士@@ 170
原廠公司貨@@ 170
叉 170
壓縮@@ 170
大logo@@ 170
天鵝@@ 170
寄出 170
復古風@@ 170
心形@@ 170
排水@@ 170
新版@@ 170
時尚創意@@ 170
機油@@ 170
歌 170
流沙@@ 170
海鷗 170
潮流百搭@@ 170
炎@@ 170
现货@@ 170
琳 170
睡裙@@ 170
細肩@@ 170
蘑菇@@ 170
設計感@@ 170
設計款@@ 170
路亞@@ 170
間 170
降噪@@ 170
雪 170
120g 169
30g 169
fr@@ 169
ja@@ 169
kenzo@@ 169
ls 169
ter@@ 169
保留中 169
充 169
刷毛 169
加寬@@ 169
外接@@ 169
婷@@ 169
学生@@ 169
寬 169
快速出貨@@ 169
散裝@@ 169
沙發椅@@ 169
洗衣機 169
洪@@ 169
浴巾@@ 169
滾邊@@ 169
炭@@ 169
燙鑽@@ 169
特產@@ 169
现货 169
留@@ 169
石頭@@ 169
納米@@ 169
經典商務@@ 169
縮口褲 169
腕表 169
花架 169
茶壺 169
迪 169
鄉村@@ 169
鋰電池 169
雜@@ 169
飛利浦 169
龍貓 169
2手@@ 168
4人@@ 168
7plus@@ 168
b5@@ 168
home@@ 168
innisfree 168
nikon 168
zi@@ 168
一字肩@@ 168
一腳蹬@@ 168
優雅 168
北歐現代簡約@@ 168
咖啡杯 168
噴頭@@ 168
墜@@ 168
大方@@ 168
姐@@ 168
性感蕾絲@@ 168
應援@@ 168
打孔@@ 168
方便 168
曾@@ 168
杰@@ 168
棒球外套 168
歲 168
母 168
演@@ 168
無瑕@@ 168
猴@@ 168
畫畫@@ 168
白紅 168
磁扣@@ 168
花朵 168
蒸氣@@ 168
角幾@@ 168
跨@@ 168
軍事@@ 168
除塵@@ 168
青少年學生@@ 168
靜音 168
頭層@@ 168
2017年@@ 167
20ml 167
574 167
5入 167
5號 167
8m@@ 167
a6@@ 167
ac 167
bt@@ 167
ge 167
giorgio 167
hp@@ 167
kenzo 167
ld 167
m2k 167
men 167
monster 167
takara 167
上班族@@ 167
位 167
便當袋 167
加高@@ 167
哈倫@@ 167
天然 167
契爾氏 167
媽媽 167
宋@@ 167
家用簡易@@ 167
小包包 167
復刻@@ 167
戶@@ 167
授權@@ 167
晚@@ 167
最新 167
液體@@ 167
淘@@ 167
滑鼠墊 167
男士手錶 167
箱子@@ 167
美的@@ 167
翅膀@@ 167
老花 167
電線@@ 167
靴子@@ 167
鞋女鞋@@ 167
鴻@@ 167
190 166
2020夏季@@ 166
990@@ 166
cool 166
m44@@ 166
r15 166
tr 166
woc 166
一個 166
保羅@@ 166
全掌氣墊@@ 166
冠軍 166
加強@@ 166
卡娜赫拉@@ 166
原裝 166
去污@@ 166
小碎花@@ 166
數 166
東方@@ 166
棉被@@ 166
波士頓包 166
王國 166
玲@@ 166
瑪瑙@@ 166
環保 166
短袖t恤男@@ 166
破壞@@ 166
經典時尚@@ 166
羊絨@@ 166
翹@@ 166
襯@@ 166
規@@ 166
貓頭鷹@@ 166
貼膜@@ 166
起 166
起司@@ 166
超長@@ 166
雙人床@@ 166
面板@@ 166
面霜 166
280@@ 165
5m@@ 165
cg@@ 165
club 165
fm@@ 165
mei@@ 165
ス@@ 165
丁 165
上海@@ 165
兩色@@ 165
刀架@@ 165
可樂@@ 165
哆啦a夢@@ 165
墜子 165
尋@@ 165
小鹿@@ 165
尤@@ 165
帥@@ 165
復仇者聯盟 165
手冊 165
打底褲@@ 165
明星款@@ 165
材料包 165
毛毯 165
沐@@ 165
漁夫帽@@ 165
熱賣中 165
竿 165
红@@ 165
義大利 165
腋下@@ 165
花生@@ 165
菱形@@ 165
萬用包 165
術 165
觸@@ 165
證@@ 165
通用型@@ 165
鑰匙 165
靈 165
騷@@ 165
鵝@@ 165
101@@ 164
115 164
24h出貨 164
270@@ 164
levi 164
royal 164
sf@@ 164
七龍珠@@ 164
代言 164
因@@ 164
圓領純棉@@ 164
外 164
女神 164
學生百搭@@ 164
安卓 164
家用小@@ 164
小型犬@@ 164
屏 164
思 164
晾衣架@@ 164
本田 164
橘子@@ 164
氧@@ 164
爸爸@@ 164
玻璃杯@@ 164
眉筆 164
福利品 164
純棉圓領@@ 164
美好@@ 164
臻品下殺 164
計 164
軌道@@ 164
速幹@@ 164
邱@@ 164
鈴鐺@@ 164
錐@@ 164
面盆@@ 164
餐具組 164
餐桌椅@@ 164
2a 163
601 163
a9@@ 163
book 163
macbook 163
pg@@ 163
switch@@ 163
一件 163
保 163
公路@@ 163
化妝鏡 163
升級版@@ 163
半身裙 163
原價 163
均@@ 163
大眾@@ 163
定位@@ 163
控制@@ 163
搖椅@@ 163
擴@@ 163
杯緣子 163
派 163
滾輪@@ 163
火爆@@ 163
米奇米妮@@ 163
精華液@@ 163
紅茶@@ 163
聖誕禮物 163
聲 163
能 163
舞臺@@ 163
衛生間浴室@@ 163
認證@@ 163
貿易 163
賓士@@ 163
鴛鴦@@ 163
boy@@ 162
pet@@ 162
億@@ 162
厚 162
可用@@ 162
單個@@ 162
套餐@@ 162
室內外@@ 162
實心@@ 162
小童 162
小麥@@ 162
層架 162
悟空 162
懸掛@@ 162
拉鏈包 162
拖地@@ 162
柴犬@@ 162
楠竹@@ 162
極速@@ 162
橄欖@@ 162
檀香@@ 162
水族@@ 162
洞 162
熱賣款@@ 162
秀 162
縮腰@@ 162
耳麥@@ 162
肌膚@@ 162
藻@@ 162
賀@@ 162
遙控器@@ 162
遮擋@@ 162
離@@ 162
黑膠@@ 162
angel 161
bear 161
big 161
chu@@ 161
gp@@ 161
seiko 161
tpu@@ 161
twice 161
ty 161
二手衣 161
佛 161
勞力士@@ 161
台灣現貨限時下殺@@ 161
外賣@@ 161
娃娃機 161
小蜜蜂@@ 161
床上用品@@ 161
愛麗絲 161
插 161
揚@@ 161
攜帶@@ 161
枕頭包 161
格子 161
案@@ 161
檢@@ 161
洗漱@@ 161
烘焙 161
無敵@@ 161
率@@ 161
短袖套裝 161
禾@@ 161
綠蘿@@ 161
聲光@@ 161
胸針 161
腮紅@@ 161
蛙@@ 161
記憶卡 161
軟毛@@ 161
鋁箔@@ 161
雙子星 161
馬達@@ 161
高幫 161
高精度@@ 161
魔鬼氈@@ 161
104 160
5cm@@ 160
airpods@@ 160
art 160
au@@ 160
ep@@ 160
ob@@ 160
skechers 160
yi 160
zx 160
保冷@@ 160
到 160
制服 160
吸塵器@@ 160
咖 160
單寧@@ 160
境 160
客製 160
小鳥@@ 160
山茶花@@ 160
新店@@ 160
旗 160
書櫃 160
桌上型@@ 160
滅@@ 160
牛仔短褲@@ 160
玲 160
療@@ 160
矽膠 160
碗盤@@ 160
碗碟@@ 160
花色@@ 160
英寸@@ 160
菌@@ 160
藍白@@ 160
蛋黃哥 160
貝殼頭@@ 160
貼畫@@ 160
貼膜 160
遙控器 160
鏡面 160
防寒@@ 160
餐飲@@ 160
109 159
201 159
20寸@@ 159
240 159
box@@ 159
costco 159
r9s 159
uni@@ 159
健身器材@@ 159
內搭 159
全包防摔@@ 159
兵 159
加贈@@ 159
原味 159
台製@@ 159
圈圈@@ 159
夾式耳環 159
娃娃鞋 159
室 159
家用簡約@@ 159
尊@@ 159
小小兵@@ 159
小黑@@ 159
戰士 159
搖搖@@ 159
新版 159
杯架 159
桃 159
波西米亞@@ 159
海邊@@ 159
漂亮@@ 159
演唱會@@ 159
無線 159
璀璨@@ 159
生物@@ 159
短版上衣 159
空氣清淨機 159
粉底 159
自取 159
蚊帳 159
蜜 159
超大號@@ 159
超軟@@ 159
長袖帽t 159
降溫@@ 159
霹靂@@ 159
2014 158
2018年@@ 158
5x@@ 158
dart 158
ice 158
louisvuitton 158
omega 158
ton 158
yi@@ 158
創意園 158
動漫周邊 158
同步@@ 158
國外@@ 158
基 158
塑身@@ 158
實戰@@ 158
展 158
您@@ 158
打磨@@ 158
方領@@ 158
日發完 158
最愛二手精品 158
板手 158
淡香精 158
清涼@@ 158
激情@@ 158
照片 158
男士休閑@@ 158
皮膚@@ 158
紅包袋 158
航海王@@ 158
草莓 158
落肩@@ 158
超靜音@@ 158
轉換@@ 158
釉@@ 158
防水防@@ 158
限時 158
鬼 158
ball 157
dai@@ 157
sr 157
timberland 157
vuitton@@ 157
件套@@ 157
凝露 157
器材 157
夜燈 157
夾式@@ 157
富士@@ 157
尼龍 157
左右@@ 157
庫存@@ 157
情趣內衣 157
意 157
愛迪達adidas 157
日記 157
時尚氣質@@ 157
末@@ 157
櫃子@@ 157
歐文@@ 157
漢堡@@ 157
爆米花 157
猛@@ 157
珍珠耳環 157
砂 157
綺@@ 157
美式復古@@ 157
美津濃 157
美腿@@ 157
胖子@@ 157
脆@@ 157
腦@@ 157
舍@@ 157
范思哲 157
蘆薈@@ 157
連線@@ 157
除毛@@ 157
電器 157
領 157
香皂 157
馬鞍包 157
黑藍 157
168@@ 156
200g 156
2019新款 156
2個@@ 156
401 156
5kg 156
8cm 156
999 156
green 156
jacket 156
吊帶裙@@ 156
哈倫褲 156
唱歌@@ 156
小女孩@@ 156
工藝 156
幕@@ 156
店長推薦 156
提亮@@ 156
摩登@@ 156
擠@@ 156
星球@@ 156
標籤@@ 156
機器人 156
漸層 156
笛@@ 156
紙盒 156
肌肉@@ 156
臀@@ 156
通勤@@ 156
酒紅@@ 156
隨機出貨 156
靠墻@@ 156
領帶 156
顯示@@ 156
鱷魚紋@@ 156
麻辣@@ 156
1200@@ 155
2017新款 155
250g 155
50元 155
90cm 155
ben@@ 155
essential 155
gold 155
ly 155
md@@ 155
功@@ 155
勞@@ 155
南極人@@ 155
品質 155
圓領套頭@@ 155
头@@ 155
奶嘴 155
嬰兒 155
布丁@@ 155
復刻 155
手機套@@ 155
拉桿 155
晚宴包 155
棋@@ 155
水瓶 155
沛@@ 155
牆貼 155
現貨速發 155
睡衣女@@ 155
睡袋 155
祖@@ 155
私密@@ 155
秋冬裝@@ 155
立體 155
翻新@@ 155
老闆@@ 155
花苞@@ 155
補充@@ 155
譜@@ 155
達菲 155
重磅@@ 155
雨刷 155
雪茄@@ 155
餐邊柜@@ 155
骷髏@@ 155
008 154
199@@ 154
500g@@ 154
720 154
b0@@ 154
fl@@ 154
gx 154
iphone8 154
mlb 154
ღ@@ 154
人生 154
凱蒂貓@@ 154
副@@ 154
化妝品收納盒@@ 154
吊牌@@ 154
夾腳@@ 154
學院風 154
寄@@ 154
座椅 154
延@@ 154
恆@@ 154
成年@@ 154
扳手@@ 154
拼貼 154
按摩器@@ 154
暴@@ 154
標籤 154
正方形@@ 154
水波紋@@ 154
泳衣女@@ 154
海軍藍 154
滋@@ 154
燒 154
牛角@@ 154
男t 154
發夾@@ 154
祛@@ 154
經典復古@@ 154
經濟@@ 154
色號@@ 154
花草@@ 154
蜜桃@@ 154
規 154
跑步 154
軒 154
配 154
除濕@@ 154
雲朵@@ 154
韓妞@@ 154
饅頭@@ 154
125ml 153
2013 153
25cm 153
az@@ 153
chi 153
ec@@ 153
ku 153
s3 153
shoes 153
tc@@ 153
不粘@@ 153
修飾@@ 153
典藏@@ 153
凸@@ 153
呼吸@@ 153
單雙人@@ 153
多功能家用@@ 153
寫真 153
惡搞@@ 153
挺@@ 153
核@@ 153
機小型@@ 153
歐美代購 153
水冷@@ 153
池 153
洗髮@@ 153
海邊度假@@ 153
照明@@ 153
牛仔裙 153
紅茶 153
純白@@ 153
胸針@@ 153
苦@@ 153
茶杯 153
菱格紋@@ 153
藝 153
蘿@@ 153
蠟筆小新 153
角色扮演@@ 153
贈品@@ 153
鋼筆 153
雙門@@ 153
革@@ 153
頁@@ 153
魚嘴@@ 153
304 152
3號@@ 152
710@@ 152
brown 152
chrome 152
cj@@ 152
japan 152
led燈 152
lee 152
shiseido 152
ulzzang@@ 152
uniqlo@@ 152
代步@@ 152
伴@@ 152
傢俱 152
光碟 152
和 152
壓紋 152
外殼 152
孫@@ 152
安德瑪@@ 152
小吃@@ 152
席@@ 152
惠 152
抖音同款 152
曼 152
杏仁@@ 152
樣 152
油漆@@ 152
現貨秒發 152
男鞋女鞋@@ 152
祥@@ 152
稱@@ 152
筐@@ 152
範思哲@@ 152
肌 152
胸章 152
腸@@ 152
莎 152
訂單@@ 152
護士@@ 152
超人 152
超薄 152
越南@@ 152
長筒@@ 152
關節@@ 152
馳@@ 152
009 151
6入 151
ad 151
altis 151
gh@@ 151
ix 151
mp3@@ 151
plein 151
ry@@ 151
starbucks 151
ti 151
亮面 151
休閒運動 151
信 151
側掀皮套 151
包女@@ 151
北歐風 151
啟@@ 151
客廳燈@@ 151
小包包@@ 151
工具箱@@ 151
床頭櫃 151
延長線 151
拉鏈 151
推 151
曲 151
橋@@ 151
次 151
照明 151
熱 151
狼 151
監控@@ 151
精準@@ 151
紅米@@ 151
老爹鞋@@ 151
膠水@@ 151
自制@@ 151
藍芽 151
重型@@ 151
錶盤@@ 151
附購買證明 151
電器@@ 151
食 151
魅力 151
點點 151
190@@ 150
4入 150
ae@@ 150
am 150
at 150
ay@@ 150
bon@@ 150
bs 150
case 150
cw@@ 150
gr@@ 150
led吸頂燈@@ 150
mazda 150
per@@ 150
porter 150
triple 150
uptempo 150
三用@@ 150
儿童@@ 150
免安裝@@ 150
加 150
化妝桌 150
匡威@@ 150
原 150
參@@ 150
可躺@@ 150
單肩包斜挎包@@ 150
單頭@@ 150
場景@@ 150
安裝 150
慕@@ 150
懶@@ 150
晶 150
棗@@ 150
水光@@ 150
污@@ 150
海軍@@ 150
減齡@@ 150
熒光@@ 150
片裝 150
研磨@@ 150
秋千@@ 150
統@@ 150
經典老花@@ 150
綠植@@ 150
芝@@ 150
西 150
話筒@@ 150
誘@@ 150
踏板@@ 150
運動服 150
鐵皮@@ 150
長洋 150
隨身碟 150
高潮@@ 150
4k 149
4代 149
di 149
fc@@ 149
heart 149
her@@ 149
neo 149
ng@@ 149
rc@@ 149
sha@@ 149
swarovski 149
xi@@ 149
xsmax@@ 149
乙@@ 149
加濕器@@ 149
卡娜赫拉 149
后現代@@ 149
坪 149
定做 149
小鋪@@ 149
巴黎世家@@ 149
床上用品 149
弦@@ 149
拳擊@@ 149
振@@ 149
敷@@ 149
數據線 149
旅行箱 149
樣板房@@ 149
涂鴉@@ 149
清潔刷 149
無縫@@ 149
珊瑚@@ 149
球衣@@ 149
琪 149
秤 149
臻@@ 149
茶具 149
荷蘭@@ 149
趴@@ 149
週邊 149
錘@@ 149
難@@ 149
面具 149
顏料@@ 149
駕駛@@ 149
8成新 148
aw@@ 148
br 148
dickies 148
os 148
ou@@ 148
rn 148
smax 148
tom 148
供奉@@ 148
像 148
充電線@@ 148
勿@@ 148
卓@@ 148
卡夾@@ 148
同人@@ 148
員 148
墊子 148
夏裝新款@@ 148
大學t@@ 148
娘@@ 148
居家家 148
我愛@@ 148
戲@@ 148
手機皮套 148
收納籃 148
新品上市@@ 148
棚@@ 148
森林 148
椅家用@@ 148
橢圓@@ 148
水餃包 148
汽油@@ 148
洗菜盆@@ 148
澳@@ 148
無線充電@@ 148
甜點@@ 148
电@@ 148
盧@@ 148
眼罩 148
矯正@@ 148
穩@@ 148
老爹@@ 148
肩 148
花灑@@ 148
襯衫女@@ 148
閥@@ 148
限時免運 148
鬼滅之刃 148
150g 147
600ml 147
90元 147
ikea 147
ll 147
mer@@ 147
primeknit 147
tiger 147
zakka 147
zara@@ 147
上衣潮 147
休閑運動鞋 147
保鮮盒@@ 147
健身房@@ 147
出清價 147
列@@ 147
墜 147
夏季透氣@@ 147
大師 147
大馬@@ 147
床單 147
循環@@ 147
手帕 147
批發價 147
排釦@@ 147
收納柜 147
收縮毛孔@@ 147
椰@@ 147
正宗@@ 147
泡泡 147
滿額免運 147
瀝水架@@ 147
狐@@ 147
男士皮帶 147
睫毛膏 147
競技@@ 147
簡約現代臥室@@ 147
紅木@@ 147
耐克nike 147
股@@ 147
背心裙 147
草帽@@ 147
袋裝 147
貓狗@@ 147
資@@ 147
超細@@ 147
超高@@ 147
金扣 147
面罩@@ 147
食品級@@ 147
餐桌椅組合@@ 147
餐盤@@ 147
黏土 147
鼎@@ 147
1500@@ 146
380@@ 146
5公分 146
5號@@ 146
aj 146
dj@@ 146
funko 146
kd@@ 146
ps3 146
一代@@ 146
儀器@@ 146
儲物箱@@ 146
兩個@@ 146
刻 146
副廠@@ 146
十字架@@ 146
姆 146
姜@@ 146
守@@ 146
定時@@ 146
收銀@@ 146
教育@@ 146
斜挎 146
新竹@@ 146
日本原裝 146
最愛@@ 146
松木@@ 146
潤澤@@ 146
版型@@ 146
狐狸@@ 146
王子@@ 146
男孩 146
碗筷@@ 146
秤@@ 146
簡約現代客廳@@ 146
米白@@ 146
網格@@ 146
緩震 146
自製@@ 146
證 146
資生堂@@ 146
跳跳@@ 146
辣椒@@ 146
適用於@@ 146
部品 146
鎖骨@@ 146
飛機 146
12v 145
580@@ 145
5l 145
5尺@@ 145
qu@@ 145
ssd 145
two 145
ve 145
vr@@ 145
wi@@ 145
三色可選 145
件組 145
休@@ 145
佈置@@ 145
供佛@@ 145
倉@@ 145
側背 145
典 145
冰種@@ 145
劇場版 145
品質保證 145
問@@ 145
套件 145
小禮服 145
尺碼@@ 145
山地車@@ 145
布鞋@@ 145
戰鬥@@ 145
按鍵@@ 145
撞色 145
故事 145
方巾 145
有現貨 145
正貨@@ 145
永久@@ 145
活頁@@ 145
滿月@@ 145
火焰@@ 145
牛排@@ 145
牧@@ 145
用具 145
秋款@@ 145
移動電源 145
米色 145
紫外線@@ 145
絨毛娃娃 145
職員@@ 145
肚@@ 145
萌萌@@ 145
蝸牛@@ 145
觸屏@@ 145
貝親@@ 145
走廊@@ 145
踏@@ 145
鈣@@ 145
阿甘 145
雅詩蘭黛 145
面板 145
馬卡龍 145
鬆@@ 145
011 144
114 144
117 144
12歲@@ 144
280 144
301 144
backpack 144
cp 144
ing 144
ir@@ 144
m60@@ 144
mj@@ 144
ol 144
wave 144
white@@ 144
wu@@ 144
亮 144
八成新 144
可超取 144
商場@@ 144
學生韓版@@ 144
客廳小戶型@@ 144
州@@ 144
幣 144
日本迪士尼@@ 144
日本限定 144
時尚潮流 144
桌家用@@ 144
桔@@ 144
洗髮精@@ 144
清 144
焦糖@@ 144
玫@@ 144
白光 144
簡約現代 144
背後@@ 144
背景布@@ 144
茲@@ 144
西裝褲 144
課本 144
豆腐@@ 144
超大容量@@ 144
金證@@ 144
鋼化膜@@ 144
防水貼紙 144
阻@@ 144
電繡@@ 144
項@@ 144
驚@@ 144
112 143
15cm 143
1970s 143
2017夏季新款@@ 143
2018新款 143
256g 143
300g 143
3代@@ 143
a1 143
cap 143
fc 143
r17 143
sw 143
tekno 143
way 143
x7@@ 143
代購nike 143
倉庫 143
凌@@ 143
勇@@ 143
北歐鐵藝@@ 143
喬巴 143
國 143
威 143
娃娃機@@ 143
完全@@ 143
定 143
容量@@ 143
封口@@ 143
小凳子@@ 143
差@@ 143
布娃娃@@ 143
帆布袋 143
手機支架@@ 143
拾@@ 143
控 143
推拉@@ 143
搭配 143
教師@@ 143
新品特價 143
早春@@ 143
昌@@ 143
杠@@ 143
椰子 143
款號@@ 143
毛筆@@ 143
港版 143
燕@@ 143
現貨現貨@@ 143
登 143
短襪@@ 143
積@@ 143
空機 143
純天然@@ 143
素材 143
臉 143
臥@@ 143
輯 143
運動跑步@@ 143
邊框@@ 143
鍊條@@ 143
電焊@@ 143
韓國進口@@ 143
餌@@ 143
香爐 143
ani@@ 142
can@@ 142
edition 142
gk 142
hg 142
mas@@ 142
phone 142
q版 142
休閒包 142
倉庫@@ 142
全新商品 142
全白@@ 142
制 142
加濕器 142
勿下單 142
可升降@@ 142
可自取 142
唐裝@@ 142
圓圈@@ 142
圓領短袖t恤 142
堡@@ 142
墊片 142
大全@@ 142
套書 142
姐妹@@ 142
尿布 142
帽子女@@ 142
幣@@ 142
念@@ 142
應@@ 142
手寫@@ 142
托特包@@ 142
拍照 142
按@@ 142
搖頭@@ 142
撒@@ 142
星球 142
時尚印花@@ 142
核桃@@ 142
樂福鞋@@ 142
模擬@@ 142
櫥櫃@@ 142
泵 142
滾珠@@ 142
滿千減100 142
玩具總動員@@ 142
皮包 142
省空間 142
禮盒組 142
索隆 142
總成 142
美美@@ 142
英文字母@@ 142
豎@@ 142
轉換器@@ 142
連身洋裝 142
銘@@ 142
雲 142
青蛙@@ 142
靚@@ 142
顯示 142
168 141
3xl碼 141
4d@@ 141
bf風@@ 141
em@@ 141
golf 141
iphonex 141
play@@ 141
pu皮@@ 141
三腳架@@ 141
今@@ 141
倫敦@@ 141
元素@@ 141
光澤@@ 141
內裡@@ 141
冬季新款@@ 141
冬裝@@ 141
刺青@@ 141
去除@@ 141
台中 141
夜間@@ 141
大理石紋@@ 141
寵物用品 141
小外套 141
座墊@@ 141
掀蓋@@ 141
接頭@@ 141
攝影機 141
方包 141
旗艦@@ 141
日版金證 141
春 141
極度乾燥 141
滿額@@ 141
潔淨@@ 141
男人@@ 141
秒殺 141
老鼠@@ 141
蕾絲拼接@@ 141
觸摸@@ 141
變形金剛 141
豹@@ 141
運動上衣 141
遮肚顯瘦@@ 141
鑲嵌@@ 141
閃耀@@ 141
顆粒 141
餐巾紙 141
骷髏頭@@ 141
199 140
220 140
amg 140
atf 140
bt21 140
dg@@ 140
fun@@ 140
ki 140
pd@@ 140
pop@@ 140
su 140
乾燥花@@ 140
交通@@ 140
仙人掌@@ 140
包鞋 140
吉 140
國旗@@ 140
圓框@@ 140
地球@@ 140
大包 140
大錶盤@@ 140
嫁@@ 140
學校@@ 140
家族 140
手工diy@@ 140
手持式@@ 140
抓皺@@ 140
拿@@ 140
數學@@ 140
斤@@ 140
望@@ 140
桃花@@ 140
毛巾架@@ 140
氣囊@@ 140
浮潛@@ 140
海盜@@ 140
混合@@ 140
清潔劑@@ 140
滑板車 140
熱褲 140
牡丹@@ 140
球球@@ 140
直銷@@ 140
紐@@ 140
罩杯@@ 140
茶樹@@ 140
蜘蛛人 140
蝦 140
規格 140
財神@@ 140
車上@@ 140
週年 140
酒櫃@@ 140
針扣@@ 140
針織背心 140
鑰匙包@@ 140
面霜@@ 140
風味@@ 140
餐 140
首爾@@ 140
黎@@ 140
黑魂 140
530@@ 139
978@@ 139
edge 139
ft@@ 139
mat@@ 139
miu 139
nike耐克@@ 139
不挑色 139
信封包 139
公文包@@ 139
冷氣 139
出租房@@ 139
劇 139
化妝水@@ 139
受@@ 139
古銅@@ 139
咖啡機 139
四色 139
國家@@ 139
女寶@@ 139
崎@@ 139
工藝品 139
帳@@ 139
手抓包@@ 139
托盤 139
拳@@ 139
採@@ 139
擋風@@ 139
攜帶式@@ 139
日期@@ 139
木板@@ 139
棉衣 139
橡皮@@ 139
沙發床@@ 139
炮@@ 139
療癒@@ 139
發熱@@ 139
碳素@@ 139
筆袋@@ 139
胸罩@@ 139
裁@@ 139
製作 139
課@@ 139
輕盈@@ 139
運動內衣 139
運費@@ 139
鍍膜@@ 139
防滑耐磨@@ 139
雄@@ 139
餐盒@@ 139
髮圈@@ 139
1組 138
520 138
adidas愛迪達@@ 138
bc@@ 138
court 138
ferragamo 138
fila@@ 138
gk@@ 138
pazzo 138
pin@@ 138
prada普拉達@@ 138
racer 138
sega 138
sh 138
ys 138
俄羅斯@@ 138
免釘@@ 138
全店免運 138
呂@@ 138
周歲@@ 138
唐老鴨 138
小個子@@ 138
工作褲 138
工業風 138
手電筒@@ 138
扭@@ 138
折疊桌@@ 138
握@@ 138
改良@@ 138
普卡 138
書籍@@ 138
梁@@ 138
演出服@@ 138
燈籠@@ 138
爛@@ 138
爵士@@ 138
現代簡約 138
甜甜@@ 138
秋 138
篩@@ 138
粉餅@@ 138
納 138
美發@@ 138
蝙蝠@@ 138
街 138
豐田@@ 138
通話@@ 138
閥 138
限定下單 138
電玩@@ 138
韓版寬鬆@@ 138
頭髮@@ 138
體驗@@ 138
501 137
85折 137
bag@@ 137
cho@@ 137
dy 137
g點@@ 137
note8 137
note@@ 137
shock@@ 137
ton@@ 137
xxl碼 137
不粘鍋@@ 137
他@@ 137
休閑椅@@ 137
前臺@@ 137
勺子@@ 137
包巾 137
可調 137
圓桌@@ 137
壓克力 137
外銷@@ 137
女生衣著 137
媚@@ 137
寶石 137
小戶型 137
巡@@ 137
店面@@ 137
徑@@ 137
心機@@ 137
戰馬@@ 137
拜@@ 137
斜跨包@@ 137
柔 137
櫃子 137
爆款熱賣 137
物理@@ 137
珠寶 137
琥珀@@ 137
男士真皮@@ 137
瘦腿@@ 137
皆@@ 137
空 137
節日@@ 137
簡易家用@@ 137
純金@@ 137
繞@@ 137
聯想@@ 137
臥室床邊@@ 137
興 137
色彩@@ 137
蓋布@@ 137
蝶古巴特 137
衣帽架 137
貼片@@ 137
超萌@@ 137
途@@ 137
速發 137
邊桌@@ 137
鈕扣@@ 137
長板@@ 137
降 137
集中@@ 137
雜貨店 137
530 136
charles 136
disney@@ 136
mp 136
pg 136
r9 136
sf 136
ten@@ 136
ye@@ 136
佑@@ 136
兔毛@@ 136
分享@@ 136
匯@@ 136
卡西歐@@ 136
四方@@ 136
好看@@ 136
嬰兒寶寶@@ 136
小包包女@@ 136
帆布包@@ 136
後庭@@ 136
性感睡衣 136
戰士@@ 136
戰鬥陀螺 136
扳手 136
拉拉@@ 136
拓@@ 136
拖鞋女@@ 136
捲髮@@ 136
掉@@ 136
收 136
收納置物架@@ 136
文學@@ 136
晚宴@@ 136
最便宜 136
梨花@@ 136
極限@@ 136
潔 136
獨角獸 136
現貨居家裝飾廚房收納 136
祛痘@@ 136
空專 136
精靈 136
紫水晶@@ 136
結 136
胡桃@@ 136
自黏@@ 136
舖@@ 136
英雄 136
薄 136
處@@ 136
訓練鞋 136
超美 136
進口牛皮@@ 136
達人@@ 136
重 136
鉛筆盒 136
除臭 136
電源 136
電腦椅 136
餐廳 136
馬克@@ 136
高雄 136
髪@@ 136
魚子醬@@ 136
龍婆@@ 136
365 135
51@@ 135
abs@@ 135
collection 135
ks@@ 135
marvel 135
nmd@@ 135
rc 135
secret 135
sun 135
偶像學園 135
傳奇@@ 135
元素 135
创意@@ 135
台製 135
啟動@@ 135
垃圾@@ 135
夏天 135
巴 135
復古vintage 135
掛衣架 135
攻@@ 135
效期@@ 135
敲@@ 135
整理箱 135
斤 135
春秋新款@@ 135
橫條@@ 135
死@@ 135
氣質百搭@@ 135
滾筒@@ 135
男友@@ 135
登山 135
直接@@ 135
矽@@ 135
硬碟 135
租房@@ 135
空運@@ 135
米家@@ 135
置物 135
蕾蕾小鋪正@@ 135
袖珍@@ 135
賓@@ 135
輪胎 135
釋@@ 135
鋼化玻璃 135
鋼鐵人 135
閃卡 135
限時下殺@@ 135
電腦椅家用@@ 135
霧面 135
鶴@@ 135
12m 134
210 134
2l 134
90ml 134
996 134
alice 134
ang@@ 134
core 134
desire 134
iii 134
ine 134
lego@@ 134
m1 134
tc 134
xi 134
y3 134
zakka@@ 134
俠 134
個性百搭@@ 134
假花@@ 134
兒童成人@@ 134
噴漆@@ 134
如意@@ 134
客訂商品 134
尚 134
帆布鞋女@@ 134
廚具@@ 134
提臀@@ 134
插頭@@ 134
撈@@ 134
沐浴露 134
深海@@ 134
港味@@ 134
溫度@@ 134
潤膚@@ 134
百年@@ 134
目 134
直筒褲 134
空軍一號 134
簡體書 134
編 134
胖胖@@ 134
芭@@ 134
荔枝紋牛皮@@ 134
蓬@@ 134
補水 134
訊@@ 134
讚@@ 134
身體乳 134
运动@@ 134
運動風@@ 134
醋@@ 134
鏈條 134
閃粉@@ 134
鞋柜 134
高腳凳@@ 134
107 133
11pro 133
123@@ 133
170 133
40mm 133
450 133
6m 133
8plus 133
ami@@ 133
dh@@ 133
hilfiger 133
m40@@ 133
mk5@@ 133
mk6@@ 133
nt 133
roots 133
sam@@ 133
ラ@@ 133
二手出清 133
互動@@ 133
休閒商務@@ 133
休閒運動慢跑鞋 133
兒童安全@@ 133
兒童小@@ 133
前短後長@@ 133
唇釉@@ 133
外搭@@ 133
大紅@@ 133
夾克外套 133
奇奇蒂蒂 133
學步@@ 133
屏幕@@ 133
市 133
帶回@@ 133
慵懶風@@ 133
手提袋@@ 133
杜蘭特@@ 133
查@@ 133
榮耀@@ 133
標誌@@ 133
消防@@ 133
淺藍@@ 133
濾心 133
狗狗 133
狗窩@@ 133
福袋@@ 133
精萃@@ 133
組裝 133
經 133
美人魚@@ 133
舌@@ 133
華萊士@@ 133
蟹@@ 133
表情@@ 133
褲帶@@ 133
詩 133
辦公室 133
辰@@ 133
連帽外套@@ 133
郎 133
鏈條單肩包 133
階@@ 133
騎車@@ 133
鬼滅之刃@@ 133
魚竿@@ 133
20g 132
3月@@ 132
eva@@ 132
gp 132
just 132
ls@@ 132
moschino 132
navy 132
nsw 132
r11s 132
run@@ 132
small 132
smart 132
仔 132
仿舊@@ 132
分鐘@@ 132
刷子@@ 132
去黑頭@@ 132
塑鋼@@ 132
大眼@@ 132
子母包 132
宅配@@ 132
手工皂 132
授權 132
收纳@@ 132
施華洛世奇 132
映@@ 132
柔光@@ 132
棒棒糖@@ 132
棒球服@@ 132
檔 132
水洗棉@@ 132
沙灘褲 132
洗顏@@ 132
清新 132
無線藍牙耳機@@ 132
玻璃保護貼 132
直送 132
省力@@ 132
空白@@ 132
老虎頭@@ 132
船 132
蝴蝶 132
衛褲 132
財務@@ 132
賣家@@ 132
酷奇@@ 132
醫療@@ 132
鐵板@@ 132
防過敏@@ 132
隨身包 132
飛 132
550 131
8m床@@ 131
bb霜 131
et@@ 131
f2 131
har@@ 131
kelly 131
men@@ 131
ra 131
tf@@ 131
上衣服@@ 131
便當@@ 131
出差@@ 131
協@@ 131
單售 131
婚紗 131
寶格麗@@ 131
托架@@ 131
拍立得 131
提升@@ 131
搬家@@ 131
斜肩@@ 131
旅遊 131
旗袍 131
東大門@@ 131
桌遊@@ 131
梯 131
樂福鞋 131
機芯 131
櫻花粉 131
權志龍 131
汽車精品 131
海馬@@ 131
游泳衣@@ 131
潔顏@@ 131
澳洲 131
牛仔褲女@@ 131
玩具車@@ 131
男士休閒@@ 131
益智玩具 131
眾@@ 131
碗柜@@ 131
簡約家用@@ 131
脫毛@@ 131
芝麻@@ 131
芬 131
花瓶 131
複@@ 131
超取 131
跑 131
金箔@@ 131
開襟@@ 131
限時特價@@ 131
隨行杯 131
頭層牛皮 131
000 130
42mm 130
5000@@ 130
cartier 130
cl 130
hdmi@@ 130
m2 130
nintendo 130
ok@@ 130
pack 130
r11 130
rebecca 130
x6@@ 130
一字拖@@ 130
使@@ 130
光感@@ 130
原裝進口 130
发@@ 130
商業@@ 130
圣誕@@ 130
坐姿@@ 130
填充@@ 130
宣@@ 130
寄 130
將 130
小豬 130
屏風隔斷@@ 130
層架@@ 130
待@@ 130
把 130
抗uv 130
捕@@ 130
排 130
擊 130
擴香@@ 130
效 130
春款@@ 130
時光 130
普通@@ 130
最佳@@ 130
枚@@ 130
梳子 130
正品保證 130
武士鞋 130
毛毯@@ 130
滑雪@@ 130
火車@@ 130
珍藏@@ 130
班 130
甜美 130
皮衣@@ 130
礦物@@ 130
立 130
筋@@ 130
簡潔@@ 130
紀梵希@@ 130
縮口@@ 130
臉書@@ 130
蘭蔻@@ 130
西餐@@ 130
調整@@ 130
護頸@@ 130
貓眼@@ 130
跨境@@ 130
車架 130
速出@@ 130
避震 130
隔斷簾@@ 130
電動牙刷@@ 130
電子 130
電視 130
霸 130
黏土人 130
40碼 129
adidas三葉草@@ 129
fe 129
ff 129
ie@@ 129
ker@@ 129
zen@@ 129
一字帶@@ 129
亮片 129
件套 129
企鵝 129
健康 129
儲存@@ 129
出清特價 129
切片@@ 129
加密@@ 129
午@@ 129
可折疊 129
吉祥@@ 129
售出 129
多彩@@ 129
太空鋁@@ 129
太陽帽@@ 129
定妝@@ 129
家電 129
家電@@ 129
寶藍 129
拼色 129
擺飾@@ 129
攝影 129
斑馬@@ 129
族 129
棉服@@ 129
椅墊@@ 129
浴盆@@ 129
測量@@ 129
王者@@ 129
眼鏡框@@ 129
短袖衣服 129
矮凳@@ 129
空壓@@ 129
紅白 129
繪本@@ 129
置物架落地@@ 129
芭比@@ 129
荔枝皮 129
菁@@ 129
萬向@@ 129
術@@ 129
記憶體 129
賞 129
雨 129
零碼@@ 129
須@@ 129
高光@@ 129
點心 129
1970 128
299@@ 128
320 128
5寸@@ 128
760@@ 128
ab 128
der@@ 128
iphone11 128
mk手錶 128
nature 128
nokia 128
七分褲 128
仕 128
全面@@ 128
出國@@ 128
刮痧@@ 128
副食品@@ 128
勞保@@ 128
勿下標 128
可動@@ 128
司 128
圖騰 128
天堂@@ 128
套裝家用@@ 128
嬰@@ 128
寬松百搭@@ 128
手串 128
手工皂@@ 128
手柄 128
排汗 128
掛勾@@ 128
擋板@@ 128
攝像頭@@ 128
枸杞@@ 128
梳妝台@@ 128
氏 128
沙發床 128
泡腳@@ 128
湯 128
甲 128
男潮@@ 128
百搭款@@ 128
神秘@@ 128
絕版品 128
腕表@@ 128
芳 128
街頭 128
重工@@ 128
雙色 128
領結@@ 128
頭發@@ 128
馬尾@@ 128
髒@@ 128
1組@@ 127
370@@ 127
7寸@@ 127
che@@ 127
io 127
ne 127
pet 127
r2 127
roots@@ 127
x4@@ 127
ト@@ 127
一體式@@ 127
二合一 127
伍@@ 127
佛牌@@ 127
傑 127
全台@@ 127
化妝刷@@ 127
可參考 127
可愛動物@@ 127
單色@@ 127
圍欄 127
多美@@ 127
套装@@ 127
奶粉 127
客廳餐廳@@ 127
寬褲@@ 127
嵐 127
幸@@ 127
延長@@ 127
弗@@ 127
影樓@@ 127
後視鏡@@ 127
心型@@ 127
板凳@@ 127
概論 127
槽 127
檢測@@ 127
歡@@ 127
短版 127
竹節@@ 127
管道@@ 127
簡易 127
精品店 127
純色 127
維他命@@ 127
脖@@ 127
臺面@@ 127
藍寶石@@ 127
藍牙 127
藤原浩@@ 127
裕@@ 127
豆漿@@ 127
超取請聊聊我 127
辦公椅 127
運動短褲@@ 127
郵差包@@ 127
鉆石@@ 127
鋸 127
鐵盒@@ 127
闊腿褲 127
韓妞必備 127
香奈兒chanel@@ 127
高溫@@ 127
鼓 127
1l 126
2018夏季新款@@ 126
420@@ 126
6吋@@ 126
bio@@ 126
emporio 126
epson 126
io@@ 126
longchamp 126
mg@@ 126
mp3 126
pe 126
rx 126
s5@@ 126
s8@@ 126
伏@@ 126
傳說@@ 126
冬季保暖@@ 126
冰塊@@ 126
刺激@@ 126
半高領@@ 126
另售@@ 126
合一@@ 126
四葉草@@ 126
大尺寸@@ 126
套裝組 126
女男@@ 126
好好@@ 126
寬肩帶@@ 126
情人節禮物@@ 126
成功@@ 126
我們@@ 126
手推@@ 126
抽紙盒@@ 126
插畫@@ 126
放 126
日韓 126
晚禮服@@ 126
暖暖@@ 126
書店 126
梯子@@ 126
流水@@ 126
涵@@ 126
游戲 126
潔牙@@ 126
無紡布@@ 126
燈led@@ 126
班服@@ 126
瑞 126
租@@ 126
簡約創意@@ 126
紙巾@@ 126
終極@@ 126
耳墜 126
脚@@ 126
荔枝皮@@ 126
蓝@@ 126
虎 126
蜂巢@@ 126
蠟筆小新@@ 126
袖上衣 126
詢問@@ 126
起子@@ 126
轉換器 126
達菲@@ 126
金絲@@ 126
防塵 126
附購買憑證 126
香爐@@ 126
104@@ 125
1kg 125
330@@ 125
4a 125
8mm 125
ban@@ 125
burberry巴寶莉@@ 125
gogoro 125
ha 125
net 125
son 125
sony@@ 125
time 125
u11 125
va 125
ven@@ 125
vip@@ 125
v領 125
三種@@ 125
上衣女 125
中號 125
于@@ 125
五色@@ 125
值@@ 125
光學@@ 125
全部@@ 125
内@@ 125
厚款@@ 125
周年@@ 125
商務 125
喜歡@@ 125
圓型@@ 125
太陽傘@@ 125
小小兵 125
帽衫 125
幻彩@@ 125
庫 125
影音@@ 125
懷@@ 125
戶外防水@@ 125
房子@@ 125
手提式@@ 125
手提肩背@@ 125
手腕@@ 125
拋@@ 125
掛衣@@ 125
新品上架 125
會員@@ 125
有貨 125
松 125
桂@@ 125
測試@@ 125
漁夫鞋 125
漫威 125
熊貓 125
珍品下殺 125
直條紋@@ 125
直流@@ 125
盾 125
筷子 125
紐約@@ 125
經典格紋@@ 125
胖妹妹@@ 125
自由組合@@ 125
菊花@@ 125
菱@@ 125
辛@@ 125
迎@@ 125
透氣舒適@@ 125
造景@@ 125
長版 125
防曬霜@@ 125
防蟲@@ 125
靴子 125
馬丁靴 125
高潮 125
001@@ 124
100ml@@ 124
247 124
3a 124
6mm 124
711@@ 124
ace 124
alexander 124
and@@ 124
flyknit@@ 124
free@@ 124
hoodie 124
pre@@ 124
um 124
you@@ 124
丁字褲 124
乳霜@@ 124
人的@@ 124
佩佩豬@@ 124
來令片 124
保留@@ 124
停@@ 124
優惠價@@ 124
化妝臺 124
博柏利@@ 124
古奇gucci@@ 124
啤酒@@ 124
大力@@ 124
太陽帽 124
嬰兒推車@@ 124
孕@@ 124
宅配 124
小時@@ 124
幅@@ 124
弦 124
彈力 124
急@@ 124
慈@@ 124
所 124
整理盒@@ 124
方向盤@@ 124
春夏新款 124
書套 124
桌布 124
植萃@@ 124
漁具@@ 124
牆 124
獸 124
瑩@@ 124
粉底液@@ 124
紀梵希 124
緬甸玉@@ 124
英國代購 124
藤原浩 124
護欄@@ 124
轉接@@ 124
配方@@ 124
醒@@ 124
野 124
鉛筆 124
鎮 124
防輻射@@ 124
黑板@@ 124
5色 123
680@@ 123
care 123
game 123
gb 123
hdmi 123
jy 123
lip 123
m2@@ 123
mil@@ 123
music 123
outlet@@ 123
sho@@ 123
t0@@ 123
vs 123
人字拖@@ 123
仁 123
伴手禮 123
來電@@ 123
傘狀@@ 123
刃@@ 123
剃@@ 123
創意簡約@@ 123
加絨 123
卡夢 123
台風行家具 123
吧台@@ 123
圖書 123
婚禮 123
孫悟空 123
幼童@@ 123
強效@@ 123
律@@ 123
拍立得@@ 123
拍賣 123
整理盒 123
智慧型@@ 123
柴犬 123
母乳@@ 123
洗 123
濃密@@ 123
炒菜@@ 123
直銷 123
相機包@@ 123
短 123
童車@@ 123
純棉短袖 123
純棉短袖@@ 123
緊致@@ 123
線上@@ 123
美味@@ 123
美杜莎@@ 123
耳針@@ 123
萬圣節@@ 123
講@@ 123
趴趴@@ 123
跑車@@ 123
迎賓@@ 123
都市@@ 123
銷@@ 123
防滑墊 123
雙拉鏈@@ 123
雨刷@@ 123
電視機@@ 123
鞋架子@@ 123
頂級 123
马@@ 123
380 122
5m 122
80元 122
ah 122
a貨 122
citizen 122
day@@ 122
hermes愛馬仕@@ 122
insta 122
joy 122
klein@@ 122
les 122
mei 122
melody 122
new@@ 122
vs@@ 122
イ@@ 122
三腳架 122
人字拖 122
令@@ 122
低胸@@ 122
佛像@@ 122
佛珠@@ 122
偷@@ 122
全黑@@ 122
削肩@@ 122
加大碼@@ 122
史萊姆@@ 122
吹風機@@ 122
夏季男士@@ 122
多多@@ 122
夜光 122
大氣墊 122
好市多@@ 122
寶寶兒童@@ 122
小風扇@@ 122
微電腦@@ 122
技@@ 122
拉手@@ 122
持久 122
挎包 122
撞@@ 122
撥@@ 122
斗柜@@ 122
歐米茄 122
正品全新 122
水瓶@@ 122
水鞋@@ 122
法蘭@@ 122
滑鼠@@ 122
滿299發貨 122
熱敷@@ 122
熱褲@@ 122
版型 122
現貨供應@@ 122
睡袋@@ 122
硫化@@ 122
稀有 122
箭@@ 122
自動機械@@ 122
荔枝紋 122
蕭@@ 122
蕾絲花邊@@ 122
蝙蝠俠@@ 122
設備 122
邊柜@@ 122
重力@@ 122
鋒@@ 122
鍛煉@@ 122
長袖衛衣 122
雙效@@ 122
香港代購@@ 122
鹿 122
124 121
155 121
apple@@ 121
a貨@@ 121
cor@@ 121
gu 121
iphone6s 121
pan@@ 121
仿實木@@ 121
便條紙 121
劃@@ 121
北歐客廳@@ 121
合金 121
圖解@@ 121
塗鴉 121
安全帶@@ 121
小型家用@@ 121
小型迷你@@ 121
小禮服@@ 121
必買@@ 121
擴充@@ 121
改 121
晾衣@@ 121
書籤 121
梅 121
椒@@ 121
檸檬 121
洽談@@ 121
游戲機@@ 121
準@@ 121
溪@@ 121
用書 121
私處@@ 121
筱@@ 121
米蘭@@ 121
花器 121
西裝 121
警示@@ 121
超輕量@@ 121
近全新@@ 121
銀行@@ 121
銀飾@@ 121
長款錢包 121
門市@@ 121
阿甘@@ 121
電扇 121
飛行員@@ 121
飼料@@ 121
100cm 120
135 120
2016年@@ 120
7plus 120
double 120
epic 120
gtr 120
lg@@ 120
m3@@ 120
mor@@ 120
nano 120
piece 120
por@@ 120
qc@@ 120
s2 120
top@@ 120
伊 120
低價 120
假睫毛@@ 120
全新轉賣 120
全氣墊 120
兩件套裝@@ 120
動畫@@ 120
包裝袋 120
台北 120
向 120
哥吉拉 120
哲@@ 120
單面@@ 120
器材@@ 120
圍脖 120
墻紙@@ 120
夏裝 120
大臉@@ 120
姬 120
學生鞋 120
完整@@ 120
小店@@ 120
峰 120
巧虎@@ 120
希 120
投影@@ 120
抗菌 120
拆售 120
景 120
服務 120
材料包@@ 120
模特@@ 120
欄@@ 120
此@@ 120
水藍 120
沙灘褲@@ 120
沙發椅 120
油性@@ 120
沾@@ 120
潘朵拉@@ 120
潮款@@ 120
灌@@ 120
燈光@@ 120
產品 120
皺@@ 120
精工@@ 120
約會@@ 120
終@@ 120
緊身褲 120
纹@@ 120
膚色 120
角色@@ 120
豹紋 120
貨號@@ 120
轉椅@@ 120
辦公室桌面@@ 120
運動襪 120
遮肚@@ 120
重量@@ 120
銀飾 120
鋼管@@ 120
鏟 120
鏤空 120
預定 120
風火輪 120
食用@@ 120
2012 119
3m反光 119
3色@@ 119
a2 119
app@@ 119
chen@@ 119
good 119
levis 119
nms 119
pony 119
ro 119
s7 119
tee@@ 119
一體機@@ 119
三聯@@ 119
中秋@@ 119
保暖外套 119
冷淡風@@ 119
別針@@ 119
升級 119
咒@@ 119
垂@@ 119
墨水@@ 119
复古@@ 119
太極@@ 119
夫妻@@ 119
安全 119
客廳裝飾@@ 119
專輯@@ 119
弘@@ 119
彩妝 119
忠@@ 119
恒@@ 119
打造@@ 119
投影儀@@ 119
插花@@ 119
撲克牌 119
效果@@ 119
敬@@ 119
數顯@@ 119
東立 119
果凍 119
梳妝臺臥室@@ 119
橫款@@ 119
步 119
湯鍋@@ 119
漫 119
火影忍者 119
無袖背心 119
燉@@ 119
獅 119
發財@@ 119
白底@@ 119
盡@@ 119
真的@@ 119
睿@@ 119
私訊@@ 119
端@@ 119
算@@ 119
籃子@@ 119
紅米 119
絲滑@@ 119
羽絨服@@ 119
習@@ 119
老師 119
腳墊 119
英 119
草坪@@ 119
萬寶龍@@ 119
角落小夥伴 119
軟套 119
軟管@@ 119
遊戲片 119
運動服@@ 119
酒紅色@@ 119
鋼化玻璃貼 119
門廳柜@@ 119
防藍光@@ 119
隨意@@ 119
雙層 119
電鍍 119
鳴@@ 119
黑貓@@ 119
25g 118
2款 118
2色@@ 118
bc 118
fit@@ 118
g6 118
gopro 118
id@@ 118
il@@ 118
iphone7@@ 118
king@@ 118
kk 118
kobe@@ 118
neo@@ 118
nike耐吉@@ 118
pen@@ 118
snoopy@@ 118
victoria 118
za 118
不是@@ 118
倫 118
側掀@@ 118
儲物櫃 118
內膽@@ 118
公主裙@@ 118
可攜式@@ 118
吧臺椅@@ 118
含稅附發票 118
吾@@ 118
夏款@@ 118
客廳玄關@@ 118
小卡@@ 118
小方@@ 118
小美人魚 118
座墊 118
懂@@ 118
手機殼蘋果@@ 118
接口@@ 118
明日@@ 118
條紋上衣 118
歸@@ 118
沙發凳@@ 118
法拉利@@ 118
浦@@ 118
淨 118
烤箱 118
無煙@@ 118
燈泡@@ 118
珍 118
百搭潮流@@ 118
短款 118
禮盒裝 118
精裝@@ 118
縮@@ 118
美版 118
美睫@@ 118
聚會@@ 118
草帽 118
蛇紋@@ 118
街舞@@ 118
護膝@@ 118
變焦@@ 118
貴妃@@ 118
趙@@ 118
踢@@ 118
醫生@@ 118
防水臺@@ 118
離子@@ 118
電動摩托車@@ 118
面具@@ 118
首刷@@ 118
馬甲 118
鼠年@@ 118
5a 117
6月@@ 117
80cm 117
8折 117
ddr3 117
gar@@ 117
gr 117
ix@@ 117
kiss 117
kk@@ 117
knit 117
len@@ 117
lightning 117
m3 117
msi 117
nova 117
sky 117
summer 117
tamiya 117
tl 117
一代 117
中學生@@ 117
二件式@@ 117
兔兔 117
全系列@@ 117
削@@ 117
可拆洗 117
可換@@ 117
可穿@@ 117
圓領短袖t恤@@ 117
堡 117
媽咪包 117
學習 117
官方正品 117
家的@@ 117
實惠@@ 117
專 117
小可愛@@ 117
小貓@@ 117
小資@@ 117
局@@ 117
建築@@ 117
慧 117
折疊桌 117
指環 117
曲線@@ 117
書本@@ 117
杏 117
枚入 117
果蔬@@ 117
極光@@ 117
極緻@@ 117
水桶 117
潛@@ 117
热销 117
男表@@ 117
男鞋子@@ 117
糕@@ 117
紅豆@@ 117
絨毛 117
翼 117
自慰@@ 117
落地燈@@ 117
袋裝@@ 117
變身@@ 117
躺@@ 117
軍綠@@ 117
遇@@ 117
鄉@@ 117
長袖衛衣@@ 117
雙面 117
電視櫃 117
飯 117
體育 117
100入 116
11代 116
12色@@ 116
202 116
4xl 116
902 116
a8@@ 116
adidas阿迪達斯@@ 116
bape 116
bear@@ 116
bn@@ 116
bobbi 116
bt 116
cn@@ 116
dm@@ 116
dx@@ 116
gen@@ 116
gm 116
gm@@ 116
hs 116
m9@@ 116
master 116
may@@ 116
ni 116
pt@@ 116
s1 116
s7@@ 116
sui 116
tv@@ 116
with 116
wood 116
x9@@ 116
xx 116
zi 116
い@@ 116
三國@@ 116
下午茶@@ 116
低音炮@@ 116
佛牌 116
全包 116
剝@@ 116
原廠正品 116
員工@@ 116
單肩手提@@ 116
四層@@ 116
坑條@@ 116
多口袋@@ 116
夜視@@ 116
夢想@@ 116
大地@@ 116
天鵝絨@@ 116
女包包 116
家飾 116
小ck@@ 116
床單被套@@ 116
廖@@ 116
彈跳@@ 116
彌@@ 116
換 116
整理 116
文胸 116
普 116
朴@@ 116
柜子 116
歐式 116
武士 116
毛圈@@ 116
氣壓@@ 116
泡 116
淡香水@@ 116
淺藍 116
湯鍋 116
溫 116
煥膚@@ 116
瑪莉@@ 116
番@@ 116
盈@@ 116
秘密@@ 116
童書 116
肩包 116
胡迪 116
膠條 116
花藝@@ 116
薑@@ 116
蘋果安卓@@ 116
蛤蟆鏡 116
衝浪@@ 116
褲裙@@ 116
豪 116
貴婦@@ 116
超聲波@@ 116
遮陽傘@@ 116
都會@@ 116
酷 116
鉆 116
鑄鐵@@ 116
門墊@@ 116
雜貨舖 116
雯@@ 116
顯示器@@ 116
餌 116
香檳@@ 116
黑糖@@ 116
105@@ 115
116 115
18m 115
24小時@@ 115
38mm 115
402 115
5成新 115
925@@ 115
ash@@ 115
boss@@ 115
champion@@ 115
dm 115
ine@@ 115
iphonex@@ 115
joy@@ 115
kose 115
the@@ 115
usb充電 115
vivi@@ 115
wars 115
ア@@ 115
也 115
五角星@@ 115
休閒外套 115
倉 115
儲物盒@@ 115
內有@@ 115
全家 115
全新未拆@@ 115
包屁衣@@ 115
卡套@@ 115
印刷@@ 115
印花短t 115
吉他 115
和紙膠帶 115
唇蜜 115
嗎 115
坪@@ 115
增壓@@ 115
壞@@ 115
多美小汽車 115
夜 115
大全 115
夾心@@ 115
女友@@ 115
奶茶色 115
小金@@ 115
居家生活@@ 115
平 115
必備款 115
手拿 115
招財貓@@ 115
按壓式@@ 115
挑@@ 115
操@@ 115
收納籃@@ 115
新百倫 115
星座@@ 115
晚安@@ 115
月亮 115
朋友 115
木耳邊@@ 115
木雕@@ 115
杏色@@ 115
板橋@@ 115
油畫 115
泳@@ 115
洗頭@@ 115
浴室衛生間@@ 115
溫控@@ 115
炮 115
痕 115
素描@@ 115
索尼 115
線控@@ 115
聖誕 115
背膠@@ 115
蓬蓬@@ 115
衣著 115
鐘錶@@ 115
開檔@@ 115
雪紡衫@@ 115
青年學生@@ 115
韓國可愛@@ 115
10g 114
145 114
225@@ 114
24m 114
2手 114
ape 114
b37@@ 114
dior迪奧 114
ft 114
hm 114
ho 114
jj@@ 114
mix 114
m號@@ 114
sb@@ 114
三星標 114
不易@@ 114
不用@@ 114
作品 114
信封包@@ 114
克拉@@ 114
兒童床@@ 114
初回@@ 114
包裝盒 114
只 114
后 114
唐老鴨@@ 114
城堡@@ 114
女士手提包 114
小白鞋女@@ 114
工作服 114
廢@@ 114
慕斯 114
扇子 114
暢@@ 114
母子@@ 114
永生花@@ 114
泰迪熊@@ 114
涼 114
無印良品@@ 114
牛肉@@ 114
由@@ 114
百合@@ 114
章魚@@ 114
精品包包 114
結單 114
缸 114
花紋 114
萬 114
萬寶龍 114
蕾哈娜@@ 114
薰衣草 114
裝修@@ 114
試用包 114
賽 114
鋼化玻璃保護貼 114
长@@ 114
限時搶購 114
除菌@@ 114
韓版休閒@@ 114
預定@@ 114
香香@@ 114
高低@@ 114
魔鬼@@ 114
050@@ 113
126 113
128 113
5折 113
60cm 113
650 113
daniel 113
fa 113
ina 113
lon@@ 113
lt 113
tab 113
tra@@ 113
ultraboost 113
一鍵@@ 113
三輪@@ 113
中大尺碼 113
中小童@@ 113
人體工學@@ 113
個性時尚@@ 113
傾@@ 113
內附@@ 113
務@@ 113
卡地亞 113
原液@@ 113
原色@@ 113
古 113
含運@@ 113
吸盤式@@ 113
咖啡豆 113
啦@@ 113
四腳@@ 113
坐便器@@ 113
多肉植物@@ 113
大尺寸 113
大特價 113
套罩@@ 113
客廳茶幾@@ 113
寶寶嬰兒@@ 113
小新@@ 113
布朗@@ 113
得力@@ 113
快拆@@ 113
情趣用品@@ 113
應急@@ 113
懸@@ 113
手珠@@ 113
按壓@@ 113
整裝@@ 113
星空 113
時尚潮@@ 113
未拆 113
桌墊 113
機能 113
毯子 113
民族@@ 113
洗漱臺@@ 113
津@@ 113
浴簾@@ 113
淺色@@ 113
無痕 113
爪 113
玻璃殼 113
理發店@@ 113
痘@@ 113
百 113
盤子 113
眼睛 113
票 113
禪@@ 113
簽@@ 113
組合包 113
網紅ins風@@ 113
線條 113
艾斯 113
花架子@@ 113
董@@ 113
蓮 113
衣帽@@ 113
衣著@@ 113
記憶棉@@ 113
譜 113
象 113
車充 113
轉售 113
郎@@ 113
開發票 113
零錢袋 113
電視櫃@@ 113
鞋帶 113
韓風 113
音頻@@ 113
額@@ 113
鳥籠@@ 113
齡@@ 113
158 112
1g 112
2021 112
480@@ 112
aa 112
armani阿瑪尼@@ 112
bo 112
js 112
keith 112
lexus 112
lolita@@ 112
mn@@ 112
note10 112
np 112
par@@ 112
reno 112
tp@@ 112
x3@@ 112
三件式@@ 112
串 112
亞洲@@ 112
全新正版 112
兼@@ 112
創意可愛@@ 112
加壓@@ 112
卡通印花@@ 112
吊帶背心@@ 112
單冷@@ 112
坑@@ 112
夏威夷@@ 112
多格@@ 112
多款 112
多美 112
大底 112
奧運@@ 112
如圖 112
客廳家用@@ 112
實 112
彩膜@@ 112
慢跑褲 112
戴妃包 112
手作材料 112
摩托@@ 112
新加坡@@ 112
枕套@@ 112
樹葉@@ 112
歐美潮牌@@ 112
汁 112
沙發背景墻@@ 112
湘@@ 112
無印良品 112
無法@@ 112
熊大@@ 112
版本@@ 112
牛仔長褲@@ 112
玖@@ 112
珊@@ 112
現貨熱銷 112
甜美可愛@@ 112
男生衣著 112
百搭韓版@@ 112
眼膜 112
福特 112
禮盒裝@@ 112
童趣@@ 112
精密@@ 112
約 112
紙巾盒 112
翡翠 112
翻糖@@ 112
翻蓋 112
背巾 112
菲利普@@ 112
薄紗@@ 112
話 112
護手霜@@ 112
跳蛋@@ 112
載@@ 112
造景 112
鐵盒 112
雀@@ 112
需要@@ 112
願@@ 112
飲水機@@ 112
驚喜價@@ 112
骨 112
魔幻@@ 112
24寸@@ 111
adi@@ 111
bd 111
bu9@@ 111
ea7@@ 111
g5 111
grey 111
ll@@ 111
lv新款@@ 111
moto 111
nike鞋 111
p1 111
pink@@ 111
ren@@ 111
shimano 111
toy@@ 111
x4 111
zu@@ 111
不傷@@ 111
不會@@ 111
中袖@@ 111
乃@@ 111
人魚@@ 111
便攜式 111
保存@@ 111
克羅心@@ 111
初中@@ 111
刺激 111
刻字 111
加購@@ 111
印花logo@@ 111
啞鈴@@ 111
增強@@ 111
好穿@@ 111
安心@@ 111
小汽車 111
布鞋 111
往@@ 111
情侣@@ 111
愛買 111
懸掛式@@ 111
手帳 111
掛墻式@@ 111
探險@@ 111
旭@@ 111
春天@@ 111
智 111
會客@@ 111
朋克@@ 111
服務@@ 111
植村秀 111
橡@@ 111
武士@@ 111
殺手包 111
水感@@ 111
水族 111
滿 111
熱帶@@ 111
燒烤爐@@ 111
牆貼@@ 111
玩具車 111
琦@@ 111
產后@@ 111
男女情侶鞋 111
瞬@@ 111
素顏@@ 111
美式 111
耐摔@@ 111
職@@ 111
膠原@@ 111
臉盆@@ 111
自助@@ 111
舒這@@ 111
艾灸@@ 111
蚊@@ 111
調味料@@ 111
請勿@@ 111
變裝@@ 111
買就送@@ 111
金邊@@ 111
釣 111
鋼化玻璃膜 111
開門@@ 111
陰陽@@ 111
隔離霜 111
風車 111
高貴@@ 111
107@@ 110
113 110
2010 110
2020春季新款@@ 110
299 110
7號@@ 110
aw 110
bs@@ 110
ken@@ 110
life@@ 110
lv皮帶 110
mate 110
rose@@ 110
swoosh 110
一年@@ 110
三眼怪@@ 110
三重@@ 110
不要@@ 110
世家 110
休閒板鞋 110
兩色可選 110
八角@@ 110
切菜@@ 110
半圓@@ 110
半袖 110
卸@@ 110
原裝正品 110
名品@@ 110
單人床@@ 110
墨水 110
多媒體@@ 110
大燈 110
妝前@@ 110
宏 110
小飛@@ 110
山水@@ 110
岡@@ 110
彤@@ 110
態@@ 110
掛牆@@ 110
掛耳式@@ 110
教室@@ 110
新生兒 110
春裝新款@@ 110
柵欄@@ 110
棉布 110
棍 110
橢圓形@@ 110
每日@@ 110
毛衣女@@ 110
沈@@ 110
沙發套@@ 110
浩@@ 110
涼拖 110
濾芯 110
炒鍋@@ 110
爺@@ 110
現代簡約小戶型@@ 110
的家 110
皇冠 110
相冊@@ 110
眼罩@@ 110
秒殺@@ 110
細緻@@ 110
英文版 110
茶水@@ 110
螢光綠 110
袋子 110
裸色@@ 110
褲帶 110
設@@ 110
誘惑 110
證件套 110
護髮 110
近視眼鏡@@ 110
酸 110
金絲絨@@ 110
鑽石 110
門窗@@ 110
防曬衣 110
除螨@@ 110
雕 110
震動 110
霧化@@ 110
馬桶 110
驚喜@@ 110
118 109
2人@@ 109
40g 109
5xl 109
a6 109
bre@@ 109
den@@ 109
estee 109
grand 109
g家@@ 109
kakao 109
r9@@ 109
中褲@@ 109
住@@ 109
便宜出清 109
保溫瓶@@ 109
全皮 109
冰涼@@ 109
卡其色@@ 109
吊帶 109
四角褲 109
圍脖@@ 109
大師圖書@@ 109
天下@@ 109
女潮@@ 109
安娜@@ 109
富貴@@ 109
小衫@@ 109
小車 109
工作鞋 109
巴黎 109
市場@@ 109
布丁狗 109
平滑扣@@ 109
戶外登山@@ 109
扮家家 109
折疊式@@ 109
抹布@@ 109
控制器 109
斗篷@@ 109
星期@@ 109
時間 109
杏色 109
杯架@@ 109
樂活@@ 109
機車包 109
汽車用品 109
海苔@@ 109
淺灰 109
滑 109
火影忍者@@ 109
無袖洋裝 109
理膚寶水 109
男女情侶款 109
發卡@@ 109
睡袍@@ 109
睫毛 109
短袖襯衫@@ 109
穩定@@ 109
紗窗@@ 109
素顏霜 109
緣 109
繪 109
缺@@ 109
肥皂@@ 109
膠水 109
臟@@ 109
舒服@@ 109
菸@@ 109
藍光 109
虧本@@ 109
裤@@ 109
親子裝@@ 109
請先@@ 109
護理 109
豹 109
逛街@@ 109
遊 109
遙控 109
金鍊@@ 109
鉛@@ 109
鏡片@@ 109
長袖t 109
開業@@ 109
陳冠希@@ 109
雛菊@@ 109
雪糕@@ 109
雪莉玫 109
電話 109
鞋男@@ 109
10元 108
116@@ 108
137 108
15g 108
236@@ 108
4代@@ 108
50入 108
81@@ 108
850@@ 108
917@@ 108
a2@@ 108
armani阿瑪尼 108
audi 108
a款 108
crystal 108
danielwellington@@ 108
f5@@ 108
ic 108
ino@@ 108
low@@ 108
os@@ 108
pochette 108
ste@@ 108
vuitton路易威登@@ 108
woc@@ 108
yo 108
一片式@@ 108
主 108
佈@@ 108
佛教@@ 108
作品@@ 108
保護貼@@ 108
偶@@ 108
內襯 108
全場促銷 108
創意時尚@@ 108
卡地亞@@ 108
嘉 108
大陸@@ 108
奢@@ 108
奧迪@@ 108
好物@@ 108
妞 108
小羊皮 108
小風扇 108
床頭燈@@ 108
悟空@@ 108
扶手 108
拉鏈錢夾 108
握把 108
新百倫@@ 108
新色@@ 108
旗艦店@@ 108
春秋款@@ 108
時尚韓版@@ 108
最強@@ 108
月光@@ 108
柚子@@ 108
橙 108
滑輪@@ 108
烤漆 108
燦@@ 108
瑞典@@ 108
男士手錶@@ 108
白粉 108
白黑@@ 108
睡裙 108
磅@@ 108
空軍@@ 108
筆筒 108
緹@@ 108
纖維 108
翻蓋包 108
背景牆@@ 108
自拍神器 108
臺式電腦@@ 108
良品@@ 108
花香@@ 108
萬代@@ 108
蘋果x手機殼@@ 108
貓頭鷹 108
貞@@ 108
超可愛 108
超柔@@ 108
錯@@ 108
錶盤 108
防水防油@@ 108
隨手@@ 108
雪紡 108
雷霆 108
電容@@ 108
鯉魚@@ 108
1080p 107
109@@ 107
152 107
18k@@ 107
205 107
24cm 107
2ml 107
2個 107
330 107
500ml@@ 107
574@@ 107
64gb 107
8吋 107
99元 107
adidas愛迪達 107
ali@@ 107
beats 107
df@@ 107
fendi芬迪@@ 107
gsc 107
jr 107
kar@@ 107
montblanc 107
nike耐吉 107
platform 107
seventeen 107
si 107
speed 107
tl@@ 107
usa 107
valentino 107
x5 107
一生@@ 107
三合一 107
中的@@ 107
二層@@ 107
入裝 107
內飾@@ 107
全新正品nike 107
勁戰@@ 107
北歐簡約現代@@ 107
可拆 107
吊床@@ 107
吻@@ 107
壁飾@@ 107
娘 107
婚紗禮服@@ 107
孕婦裝 107
實木質@@ 107
實物拍攝 107
小樣 107
尾燈 107
布藝 107
弓@@ 107
戀 107
抑菌@@ 107
拉鏈長夾 107
採用@@ 107
插卡 107
改善@@ 107
旋風@@ 107
早秋@@ 107
格子襯衫 107
桐@@ 107
極品@@ 107
水果盤@@ 107
水洗 107
浴室置物架@@ 107
潮流鞋 107
無盒 107
珮@@ 107
現貨熱銷@@ 107
現金@@ 107
短袖套裝@@ 107
第三@@ 107
筆筒@@ 107
簡易書架@@ 107
紐巴倫 107
純淨@@ 107
老年人@@ 107
耐熱玻璃@@ 107
苗 107
茶包 107
茶桌 107
行車記錄器 107
西點@@ 107
規格@@ 107
解 107
調整型@@ 107
貔貅 107
貨號 107
買1送1 107
買一送一@@ 107
賢 107
車牌@@ 107
選擇@@ 107
邊桌 107
錠@@ 107
長款錢包@@ 107
電源供應器 107
電腦桌臺式@@ 107
面紙盒 107
韓版休閑@@ 107
飄逸@@ 107
黑曜石@@ 107
1代 106
200元 106
3s 106
3件組 106
fs@@ 106
gucci女包 106
gundam 106
hyper@@ 106
lc 106
mc 106
mh@@ 106
pam@@ 106
rl 106
s6 106
tg 106
ting 106
三角形@@ 106
作業@@ 106
全方位@@ 106
冬 106
冬季 106
刀劍神域 106
制服誘惑@@ 106
刷具@@ 106
加絨保暖@@ 106
勝 106
包裝袋@@ 106
卡片夾 106
可配@@ 106
台南 106
吸濕排汗@@ 106
啟蒙@@ 106
坎肩@@ 106
塗@@ 106
大包@@ 106
大方 106
套筒 106
如 106
婚房@@ 106
小紅@@ 106
尾牙@@ 106
帶輪@@ 106
幽靈@@ 106
弧@@ 106
打印機@@ 106
打底褲 106
指針@@ 106
摔@@ 106
收納柜子@@ 106
木馬@@ 106
核心@@ 106
模型車 106
民 106
永恆@@ 106
法拉利 106
淡斑@@ 106
漬@@ 106
瀨@@ 106
熱門@@ 106
留言@@ 106
白綠 106
皮包@@ 106
真人@@ 106
磁扣 106
空軍一號@@ 106
紙盒@@ 106
耳環女@@ 106
臘@@ 106
艾草@@ 106
荔枝@@ 106
蘭芝@@ 106
處理@@ 106
裹胸@@ 106
西裝夾 106
課 106
論@@ 106
護具 106
超低@@ 106
跑步健身@@ 106
軟 106
速乾 106
過濾器 106
過濾器@@ 106
釘珠@@ 106
鍵 106
限定版@@ 106
隱形襪 106
雙g 106
餃子@@ 106
體恤 106
高級感@@ 106
鷹 106
麻繩@@ 106
默@@ 106
002@@ 105
122 105
128@@ 105
132 105
32g@@ 105
3l 105
ach@@ 105
bm@@ 105
com@@ 105
combi 105
em 105
hb@@ 105
print 105
s20 105
tiffany@@ 105
tpu 105
vw 105
wr@@ 105
x1@@ 105
一體 105
休 105
包邊@@ 105
化學@@ 105
匙@@ 105
可摺疊@@ 105
可貨到付款 105
吸盤 105
商 105
圓領t 105
圖書@@ 105
垃圾袋@@ 105
培訓@@ 105
奶 105
奶奶@@ 105
娜娜@@ 105
定價 105
寬松休閑@@ 105
對折@@ 105
小叮噹 105
小圓桌@@ 105
工具套裝@@ 105
廣角@@ 105
彈簧 105
復仇者聯盟@@ 105
怡 105
扇子@@ 105
技術@@ 105
持久淡香@@ 105
提亮膚色@@ 105
提供@@ 105
摩托車 105
新勁戰 105
時尚男士@@ 105
曬衣@@ 105
束 105
歐米茄@@ 105
毫安@@ 105
洗菜@@ 105
洗面乳@@ 105
洗面奶@@ 105
潑墨 105
熏@@ 105
白板@@ 105
眼影盤@@ 105
穀@@ 105
簡約客廳@@ 105
糧@@ 105
紗裙@@ 105
纸@@ 105
美食@@ 105
腕@@ 105
腹肌@@ 105
膚色@@ 105
花盆架@@ 105
茗@@ 105
蓁@@ 105
藤椅@@ 105
赤足 105
超夯@@ 105
跟 105
過 105
適 105
酒紅色 105
銷售@@ 105
門鎖@@ 105
阿瑪尼手錶 105
雙排扣@@ 105
雙肩背包@@ 105
體感@@ 105
黑藍@@ 105
121 104
12入 104
260 104
28cm 104
5w 104
880@@ 104
ana 104
ari@@ 104
best 104
buy 104
hc@@ 104
ice@@ 104
iv 104
jeans 104
mix@@ 104
oil 104
pandora@@ 104
ter 104
tm@@ 104
tn@@ 104
v2@@ 104
wen 104
xt 104
三角 104
中空@@ 104
五 104
亞曼尼 104
人緣@@ 104
修身小腳@@ 104
個月 104
光面@@ 104
全新未@@ 104
全明星@@ 104
兩輪@@ 104
再生@@ 104
呢@@ 104
噴水@@ 104
園藝 104
土耳其@@ 104
圣誕節@@ 104
婦@@ 104
嬰兒車@@ 104
學生書包@@ 104
學習桌@@ 104
小林@@ 104
山葉 104
帳 104
徑 104
復古慢跑鞋 104
戈@@ 104
手排 104
手機架@@ 104
手辦模型@@ 104
打 104
拼布 104
接 104
收納神器@@ 104
整理架@@ 104
文字 104
斑馬 104
新品現貨 104
歐舒丹 104
正常@@ 104
滋潤 104
烈@@ 104
無味@@ 104
燈籠袖@@ 104
牆紙@@ 104
產後@@ 104
白玉@@ 104
皮筋@@ 104
短靴女@@ 104
神明@@ 104
空姐@@ 104
穿戴@@ 104
紮@@ 104
細節@@ 104
網狀@@ 104
緬甸@@ 104
聲控@@ 104
舞台@@ 104
衛生棉 104
補光燈@@ 104
連體衣@@ 104
運動休閒鞋@@ 104
酒杯@@ 104
鋼架@@ 104
鎖骨鏈 104
防 104
防疫@@ 104
防霉@@ 104
阿爾@@ 104
頭燈 104
高腰 104
鹹@@ 104
1米@@ 103
2020春夏@@ 103
60g 103
6色 103
7p 103
ar24@@ 103
ck手錶 103
cream 103
lam@@ 103
lancome 103
mf@@ 103
mx@@ 103
nx@@ 103
prm 103
rb@@ 103
s0@@ 103
select 103
shf 103
sneaker 103
suzuki 103
一字領 103
三眼 103
中童 103
假面騎士 103
克斯@@ 103
全場下殺 103
全網@@ 103
冰 103
分離@@ 103
剪裁@@ 103
夏季男生@@ 103
多多 103
大款 103
套筒@@ 103
子彈@@ 103
小款 103
嵐@@ 103
年終@@ 103
彼@@ 103
徒步@@ 103
快手@@ 103
懶懶熊 103
手機電腦@@ 103
散打@@ 103
旋轉 103
染 103
櫥@@ 103
止滑 103
水機@@ 103
水箱@@ 103
消臭@@ 103
液壓@@ 103
液晶電視 103
湯姆@@ 103
滑板車@@ 103
灰黑 103
無袖上衣 103
牛仔褲男@@ 103
牛皮紙@@ 103
珂@@ 103
珠珠@@ 103
環保袋 103
生肖@@ 103
男寶寶@@ 103
男表 103
番茄@@ 103
異形@@ 103
直筒褲@@ 103
短袖洋裝 103
空運 103
筆記 103
紀念品 103
紋牛皮@@ 103
紐扣@@ 103
純 103
綢@@ 103
網球@@ 103
网红@@ 103
美少女戰士 103
美甲店@@ 103
考試@@ 103
耶@@ 103
胸 103
胸罩 103
腰部@@ 103
菱格紋 103
蒂 103
融@@ 103
衛衣女@@ 103
袖套 103
被子 103
裙擺@@ 103
記事本@@ 103
認@@ 103
護具@@ 103
讚 103
貼布 103
賢@@ 103
赤足@@ 103
走 103
農用@@ 103
透明殼 103
通訊 103
連衣@@ 103
邊櫃@@ 103
鍋蓋@@ 103
鍍鉻@@ 103
開發@@ 103
雙用@@ 103
韓國連線@@ 103
頸枕 103
顏 103
鬆緊帶@@ 103
211@@ 102
3mm 102
528@@ 102
art@@ 102
cam@@ 102
cr 102
hearts 102
huang 102
ikea@@ 102
mh 102
pin 102
po 102
rm 102
shu 102
tex 102
v3 102
vintage@@ 102
xa 102
主機板 102
任意@@ 102
似@@ 102
促銷活動 102
個性潮流@@ 102
候@@ 102
兒童學習@@ 102
兒童自行車@@ 102
公路車@@ 102
切 102
北海道@@ 102
即期@@ 102
史 102
單品@@ 102
圓領上衣 102
墻角@@ 102
壯@@ 102
孟@@ 102
宴@@ 102
家族@@ 102
專賣@@ 102
小方巾 102
怪獸 102
抹@@ 102
拉花@@ 102
收銀臺@@ 102
整箱@@ 102
新款上市 102
曲面@@ 102
未拆封 102
柚@@ 102
格紋襯衫 102
樸@@ 102
水果 102
深層清潔@@ 102
深灰 102
滿千免運 102
無糖@@ 102
焦@@ 102
牙齒@@ 102
現代簡約臥室@@ 102
登機箱@@ 102
白灰 102
第二代@@ 102
筷 102
簡約休閒@@ 102
精緻 102
繁體@@ 102
脖子@@ 102
腳底@@ 102
自慰杯 102
花卉 102
菊 102
薔薇@@ 102
蘿莉@@ 102
製造@@ 102
視覺@@ 102
覺@@ 102
誠品eslite 102
護膝 102
過家家@@ 102
酒瓶@@ 102
釣魚 102
鋼圈@@ 102
鋼鐵@@ 102
陳列@@ 102
雙口袋@@ 102
韓版復古@@ 102
食玩 102
餃子包 102
魔方@@ 102
麥當勞@@ 102
133 101
18cm 101
45碼 101
4月@@ 101
5代@@ 101
701 101
925銀針 101
bur@@ 101
cafe 101
cos服@@ 101
der 101
df 101
eh@@ 101
intel 101
jk@@ 101
kan@@ 101
k金@@ 101
sch@@ 101
sen@@ 101
tester 101
xb@@ 101
七夕@@ 101
世紀@@ 101
亭@@ 101
伸縮 101
儲物架 101
內外@@ 101
全包邊@@ 101
兩折@@ 101
兩種@@ 101
冠 101
到貨@@ 101
加肥加大碼@@ 101
卡夢@@ 101
史密斯@@ 101
司機@@ 101
名牌包包 101
和服 101
喵 101
回力@@ 101
圓領t恤@@ 101
娃衣 101
孤@@ 101
專用賣場 101
居家裝飾 101
彭@@ 101
性愛@@ 101
恐怖@@ 101
打蠟@@ 101
拖車@@ 101
掛式 101
掛鐘客廳@@ 101
方向燈 101
杯套 101
槓@@ 101
檔案@@ 101
歐式復古@@ 101
正廠 101
水鬼@@ 101
特典@@ 101
瑪 101
瓦斯@@ 101
生活館@@ 101
男生短t 101
百搭休閑@@ 101
真皮皮帶 101
眼霜@@ 101
短袖短褲@@ 101
秋冬款 101
穴@@ 101
童車 101
第二彈 101
紅米note@@ 101
繁體中文版 101
羽球@@ 101
聊聊 101
自慰套 101
衛褲@@ 101
裸妝@@ 101
財 101
費 101
足浴@@ 101
透氣網面@@ 101
避@@ 101
郁@@ 101
部屋 101
鉑金@@ 101
開岔@@ 101
防掉@@ 101
雪靴 101
領口@@ 101
風鈴@@ 101
食堂@@ 101
10mm 100
12寸@@ 100
1500 100
2入@@ 100
2層@@ 100
4t 100
6plus@@ 100
balance@@ 100
carhartt 100
coach蔻馳 100
coach蔻馳@@ 100
dt@@ 100
evo 100
gear 100
jet 100
kit 100
lb 100
miss@@ 100
mon 100
pt 100
s9@@ 100
slim 100
vc@@ 100
way@@ 100
y3@@ 100
丹尼爾惠靈頓@@ 100
交換@@ 100
以上 100
余文樂@@ 100
傳說 100
價格 100
公司 100
分裝瓶 100
初生@@ 100
刷色@@ 100
博士 100
原裝進口@@ 100
叉子 100
同名@@ 100
囉 100
圓珠@@ 100
埃及@@ 100
多卡位 100
大學生宿舍@@ 100
大擺@@ 100
奈 100
子彈 100
字母logo@@ 100
客戶@@ 100
家居裝飾品@@ 100
小汽車@@ 100
小花 100
山居歲月 100
嵌@@ 100
市集 100
平光@@ 100
平衡車@@ 100
幽@@ 100
性感百搭@@ 100
手拉@@ 100
打印@@ 100
撲@@ 100
料理 100
時尚單肩包 100
時尚手提包 100
時尚流行@@ 100
杉@@ 100
機芯@@ 100
權志龍@@ 100
水管 100
波波@@ 100
渡@@ 100
潤 100
無塵@@ 100
現貨熱賣@@ 100
瑟@@ 100
甜甜圈@@ 100
瘦臉@@ 100
登機箱 100
發售 100
皮質 100
相容@@ 100
眉 100
短洋裝 100
示@@ 100
福斯 100
秋冬季新款@@ 100
穿衣鏡@@ 100
粉撲 100
純棉t恤 100
美國隊長@@ 100
耳麥 100
色可選 100
葛@@ 100
蔥@@ 100
蕾絲上衣 100
薯條@@ 100
蘋果x@@ 100
蝙蝠俠 100
螃蟹@@ 100
裝飾貼 100
調光@@ 100
證件夾 100
軍 100
辦@@ 100
透光@@ 100
邊框 100
酒 100
釣魚竿@@ 100
長巾 100
限時特賣 100
雞肉 100
雯 100
靶@@ 100
餐廳燈@@ 100
首飾盒 100
黏貼@@ 100
鼠標@@ 100
11月@@ 99
146 99
2018新款韓版@@ 99
3號 99
4l 99
4色@@ 99
580 99
608 99
925 99
950@@ 99
990 99
9成新@@ 99
ax 99
bw@@ 99
chang 99
chic 99
element 99
exo@@ 99
gps@@ 99
gucci古奇 99
mitsubishi 99
om@@ 99
prime 99
spa 99
story 99
sweet 99
tor@@ 99
za@@ 99
一次 99
一起賣 99
不織布@@ 99
之旅 99
任何@@ 99
佳能@@ 99
傳奇 99
儀表@@ 99
兄弟 99
內衣女@@ 99
凹@@ 99
刀片 99
刊 99
劃痕@@ 99
加大尺碼@@ 99
卡貼 99
即食@@ 99
可拆式@@ 99
四 99
夾式 99
姿 99
宜 99
工地@@ 99
年會@@ 99
急救@@ 99
懶人沙發 99
手提斜挎包 99
手提肩背包 99
打結@@ 99
抽水@@ 99
敏 99
文創@@ 99
新品特價台灣熱售@@ 99
新貨下殺 99
新貨特價 99
新配色 99
棉布@@ 99
棉襖@@ 99
極細@@ 99
機油 99
檯燈@@ 99
款可選 99
洞洞鞋 99
海鮮@@ 99
液態@@ 99
溝@@ 99
滿鋪@@ 99
演唱會 99
火鍋 99
無袖 99
爱@@ 99
玻璃膜 99
瑜伽墊@@ 99
瑪麗@@ 99
皮藝@@ 99
禁@@ 99
空調被@@ 99
简约@@ 99
簡約復古@@ 99
精品代購@@ 99
紅藍@@ 99
繁@@ 99
背景 99
臨@@ 99
舒壓@@ 99
芒果@@ 99
蒼@@ 99
虹@@ 99
衣帽架落地@@ 99
送1@@ 99
遠射@@ 99
邦 99
鎮宅@@ 99
間約@@ 99
雅詩蘭黛@@ 99
雷朋@@ 99
電動牙刷 99
鞋墊@@ 99
韓國氣質@@ 99
韓站 99
頭套@@ 99
飛鏢@@ 99
飽@@ 99
首飾 99
高街@@ 99
高雅@@ 99
10月@@ 98
2b 98
3xl@@ 98
5尺 98
6歲 98
801 98
97895@@ 98
ate@@ 98
ci 98
he 98
land 98
party 98
pk@@ 98
realme 98
tour 98
ysl聖羅蘭@@ 98
ღ 98
ㄉ@@ 98
一年保固 98
一批 98
一盒 98
不掉色@@ 98
便捷@@ 98
側翻皮套 98
偶像@@ 98
偶像學園@@ 98
全鋼@@ 98
兩款 98
冥@@ 98
創意客廳@@ 98
哪@@ 98
商務女包 98
坂@@ 98
場景 98
多款可選 98
奏@@ 98
女士包包 98
好運@@ 98
小推車@@ 98
小背心 98
工作桌 98
帽衫@@ 98
怪 98
情侶對錶 98
戴 98
扭結@@ 98
抓絨@@ 98
挎包@@ 98
揹@@ 98
數字 98
晴 98
曜@@ 98
曬衣架 98
東立@@ 98
松糕@@ 98
柏 98
殘@@ 98
氨基酸@@ 98
水機 98
沉香@@ 98
沙發邊幾@@ 98
灰藍 98
爭@@ 98
爸@@ 98
生命@@ 98
生活百貨 98
直出 98
直立式@@ 98
石英手錶 98
碳纖@@ 98
競@@ 98
竹節棉@@ 98
網美@@ 98
縫 98
美國隊長 98
葵@@ 98
計時 98
論 98
護 98
貼畫 98
避震器 98
采用@@ 98
野餐 98
鋁框@@ 98
防曬外套 98
雙重@@ 98
電動 98
韋@@ 98
頭枕@@ 98
香港 98
麥 98
黑白色@@ 98
165 97
18k金@@ 97
2019新款潮@@ 97
3000 97
3m反光@@ 97
50ml@@ 97
512@@ 97
5s@@ 97
70g 97
808 97
bh@@ 97
bmw@@ 97
cas@@ 97
cb 97
cool@@ 97
crv 97
cuxi 97
ez@@ 97
fin@@ 97
lovelive 97
ment 97
net@@ 97
nice 97
ow@@ 97
pri@@ 97
steam 97
sy 97
tod 97
tv 97
t桖 97
乘@@ 97
人字@@ 97
仰臥起坐@@ 97
体@@ 97
保濕補水@@ 97
倒車@@ 97
元氣@@ 97
券@@ 97
勤@@ 97
唇彩@@ 97
單反@@ 97
四代@@ 97
妝前乳 97
姓名@@ 97
客廳創意@@ 97
宿舍學生@@ 97
密碼箱@@ 97
富 97
小心機@@ 97
小茶幾 97
岸@@ 97
平角褲@@ 97
心率@@ 97
快遞@@ 97
成品 97
扣環@@ 97
掌上@@ 97
接線@@ 97
撕@@ 97
擋 97
收縮@@ 97
新款潮@@ 97
新疆@@ 97
日本迪士尼 97
時尚女包 97
杯墊@@ 97
東京迪士尼@@ 97
極新 97
機器 97
海豚@@ 97
消光@@ 97
滴塑@@ 97
潔面乳 97
濕紙巾 97
煞車皮 97
環球@@ 97
益智玩具@@ 97
瞬間@@ 97
碗架@@ 97
祭@@ 97
程 97
簡約現代經濟型@@ 97
紅棗@@ 97
紅綠@@ 97
綿 97
練字@@ 97
羊羔毛@@ 97
美少女@@ 97
老板@@ 97
耳環耳釘@@ 97
芸@@ 97
范 97
菇@@ 97
葡萄 97
装 97
訂 97
走秀款@@ 97
超厚@@ 97
運動背心 97
遺@@ 97
長款 97
閃 97
院 97
除濕機 97
隆 97
隨機 97
雙肩包女@@ 97
雷霆@@ 97
青 97
鞋套@@ 97
韓國空運 97
韓國簡約@@ 97
項圈@@ 97
預訂 97
頭盔 97
馬車@@ 97
髮帶@@ 97
魯 97
鹽 97
102@@ 96
180ml 96
19新款@@ 96
1號@@ 96
365@@ 96
6plus 96
6尺@@ 96
9999@@ 96
celine@@ 96
chu 96
civic 96
con 96
cy 96
dz@@ 96
fen@@ 96
gucci新款@@ 96
i6s 96
james 96
junior 96
let 96
lp 96
mam@@ 96
outlet 96
rd@@ 96
rr 96
tp 96
vit@@ 96
一級@@ 96
一般小說 96
三隻@@ 96
不同@@ 96
中心@@ 96
事務@@ 96
休閑時尚@@ 96
余@@ 96
假發@@ 96
冒險@@ 96
勵志@@ 96
合作@@ 96
吊籃@@ 96
名媛氣質@@ 96
固體@@ 96
圓球@@ 96
大型犬@@ 96
大衣外套 96
夾板@@ 96
奔@@ 96
奶油底 96
好市多代購 96
密封罐@@ 96
小站 96
幾何 96
廁@@ 96
拇指@@ 96
敏感@@ 96
斐樂 96
日立@@ 96
星辰@@ 96
最高@@ 96
桃紅色@@ 96
棉花@@ 96
棉襪 96
水上@@ 96
沁@@ 96
沙灘拖鞋 96
泡澡@@ 96
波士頓@@ 96
溫暖@@ 96
澄@@ 96
火箭@@ 96
炫酷@@ 96
牛皮壓花@@ 96
球員卡 96
生態@@ 96
男士腕錶@@ 96
真標@@ 96
種植@@ 96
筆記本電腦桌@@ 96
綠茶 96
繪圖@@ 96
纯棉@@ 96
羊毛 96
膠原蛋白 96
自帶@@ 96
臺盆@@ 96
茂@@ 96
葡萄酒@@ 96
蕊 96
蜘蛛@@ 96
說 96
變 96
豐 96
貝兒@@ 96
運動慢跑鞋 96
運動鞋女@@ 96
道教@@ 96
量販@@ 96
銀扣 96
鎖頭@@ 96
電子錶 96
韓國ins@@ 96
餘@@ 96
高質感 96
黑武士@@ 96
黑粉 96
106@@ 95
1歲@@ 95
30cm@@ 95
310@@ 95
7p@@ 95
91@@ 95
basic 95
camry 95
christian 95
den 95
diva 95
dsquared2 95
ele@@ 95
fly@@ 95
fy@@ 95
goo 95
jack 95
kl@@ 95
kn@@ 95
moon 95
oh@@ 95
oversize@@ 95
pu 95
racing 95
tm 95
xz 95
一字扣@@ 95
中小學生@@ 95
內建@@ 95
全屏@@ 95
八卦@@ 95
刷具 95
包裝盒@@ 95
千鳥格@@ 95
单肩@@ 95
可旋轉@@ 95
可調整@@ 95
同人 95
商店@@ 95
單支@@ 95
圓筒@@ 95
域@@ 95
壹腳蹬@@ 95
大阪@@ 95
學生書包 95
寧 95
寬鬆短袖 95
專業 95
屏風 95
心經@@ 95
心靈@@ 95
情趣睡衣 95
打氣@@ 95
承重@@ 95
抗敏@@ 95
拍照道具 95
挑戰@@ 95
操作@@ 95
日歷@@ 95
日立 95
時代 95
景品@@ 95
書桌書架組合@@ 95
東大門 95
松鼠@@ 95
機全自動@@ 95
款號 95
歡迎詢問 95
正版現貨 95
正規@@ 95
毯子@@ 95
水凝@@ 95
求婚@@ 95
沙拉@@ 95
深度@@ 95
灯@@ 95
煙灰缸@@ 95
現貨秒出 95
當日@@ 95
盆帽@@ 95
硬幣@@ 95
穆勒鞋 95
粘貼@@ 95
維生素@@ 95
老年@@ 95
胃@@ 95
脈@@ 95
膝蓋@@ 95
自慰 95
茉莉 95
茶水柜@@ 95
萌 95
萱@@ 95
蓬鬆@@ 95
蓮蓬頭 95
行銷@@ 95
訂做 95
請勿下標 95
謎@@ 95
貂@@ 95
超低價@@ 95
超高跟@@ 95
輔@@ 95
連帽上衣 95
連衣裙女 95
週年紀念@@ 95
醇@@ 95
鑑@@ 95
鑰匙套 95
閨蜜裝@@ 95
電動車 95
鞭@@ 95
風衣外套@@ 95
駝色 95
魏@@ 95
黃金 95
點煙器@@ 95
2014@@ 94
20cm@@ 94
222 94
399@@ 94
3個@@ 94
499@@ 94
4尺@@ 94
620@@ 94
6人@@ 94
8x@@ 94
8折@@ 94
age 94
aj1@@ 94
bb霜@@ 94
black@@ 94
bra 94
casio@@ 94
dhc 94
f7@@ 94
fs 94
fun 94
kb@@ 94
korea@@ 94
lucky 94
porsche 94
rd 94
s925銀@@ 94
ws@@ 94
zero@@ 94
一條@@ 94
三頭@@ 94
不挑@@ 94
中島@@ 94
中長裙 94
休閒慢跑鞋 94
休閒長褲@@ 94
佩佩豬 94
兩件式 94
兩面@@ 94
功能正常 94
加肥加大@@ 94
半罩 94
印刷 94
喬巴@@ 94
噗@@ 94
四合一@@ 94
城堡 94
塑膠 94
夏新款@@ 94
外置@@ 94
大包包 94
夾腳拖鞋 94
女裝韓版@@ 94
好看 94
好貨下殺 94
嫩白@@ 94
子的@@ 94
安瓶@@ 94
客廳裝飾畫@@ 94
小孩 94
工具箱 94
手縫@@ 94
技術 94
拉力@@ 94
拋棄式@@ 94
掛包@@ 94
探索@@ 94
揹巾 94
搖搖椅@@ 94
攝@@ 94
教材 94
新色 94
日本直送 94
日用@@ 94
晴雨兩用@@ 94
替@@ 94
有效@@ 94
木炭@@ 94
果汁機 94
染髮@@ 94
梳子@@ 94
武器 94
毛球 94
治 94
洗發水@@ 94
洗面@@ 94
涼爽@@ 94
渣@@ 94
湯匙@@ 94
潑墨@@ 94
爆乳@@ 94
王子 94
男子 94
画@@ 94
疏@@ 94
白藍@@ 94
白證 94
百摺@@ 94
監測@@ 94
碧璽@@ 94
磨砂 94
美白 94
群 94
耶誕@@ 94
菲 94
菲拉格慕@@ 94
落 94
落地置物架@@ 94
藍牙喇叭 94
衝評價 94
許願@@ 94
超取@@ 94
超輕量 94
路跑@@ 94
身高@@ 94
達爾 94
遮瑕 94
鐘錶 94
長度@@ 94
長袖洋裝 94
鞋帶@@ 94
韓國帶回 94
韓國進口 94
韓范@@ 94
預購商品 94
餐廳吊燈@@ 94
首選@@ 94
香吉士 94
駕車鞋 94
體重@@ 94
魔 94
黑底@@ 94
黑綠 94
135@@ 93
4分@@ 93
9m 93
9號店@@ 93
b4@@ 93
fgo 93
forever 93
gc@@ 93
head 93
hero 93
hu 93
ie 93
john 93
jtc 93
lte 93
pm 93
sel@@ 93
tods@@ 93
us10 93
wei 93
xt@@ 93
z3 93
zip 93
zoo 93
七分褲@@ 93
上下鋪@@ 93
书@@ 93
仙女風@@ 93
低幫鞋@@ 93
出品 93
副廠 93
匯 93
卧室@@ 93
可定制@@ 93
吧椅@@ 93
單人沙發@@ 93
圍兜@@ 93
園林@@ 93
壓花 93
大口袋@@ 93
好用@@ 93
娃娃領@@ 93
婕@@ 93
實驗@@ 93
寫字桌 93
已預訂 93
布置 93
干 93
情趣精品@@ 93
批 93
披風@@ 93
捲線器 93
播放器@@ 93
斗 93
日式 93
明星 93
板式@@ 93
棉服 93
樓 93
正品現貨@@ 93
泉 93
泳褲 93
清透@@ 93
烏龜@@ 93
熙@@ 93
爆 93
特價下殺 93
玩具店 93
瓦 93
盔@@ 93
直購 93
石英表 93
砧板@@ 93
禮券 93
空中@@ 93
空調 93
簿 93
統一@@ 93
美人魚 93
義 93
芭蕾@@ 93
蔓越莓@@ 93
藥 93
蛇 93
記錄@@ 93
護腕@@ 93
谷 93
超人氣@@ 93
踏墊 93
這樣@@ 93
銀河@@ 93
長方@@ 93
開運 93
防塵罩 93
防靜電@@ 93
雙子星@@ 93
電機@@ 93
霸王@@ 93
鞋面@@ 93
風味 93
高清 93
鳳凰@@ 93
10寸@@ 92
19ss 92
390 92
3ds 92
711 92
c0@@ 92
chan@@ 92
cx 92
dg 92
dyson 92
eh 92
ht 92
mark 92
mcqueen 92
mk手錶@@ 92
ner@@ 92
nor@@ 92
note5 92
out@@ 92
pm2 92
power@@ 92
school 92
size@@ 92
tea 92
too 92
trainer 92
vi 92
we 92
wish 92
丝@@ 92
中古 92
代餐@@ 92
保險箱@@ 92
俱樂部 92
兒童卡通@@ 92
兔裝 92
全新盒裝 92
出租@@ 92
分層@@ 92
化妝品 92
北歐大理石@@ 92
千層@@ 92
卡其色 92
卷發@@ 92
原版 92
同人本 92
呆@@ 92
圍兜兜 92
堅@@ 92
娟@@ 92
孕婦裝@@ 92
字母刺繡@@ 92
宮 92
家用成人@@ 92
宿舍 92
密封罐 92
寶藍@@ 92
對 92
小書架@@ 92
居家服 92
帆@@ 92
床頭燈 92
廚 92
廚房衛生間@@ 92
廠商直送 92
後視鏡 92
我是@@ 92
指甲剪 92
按扣@@ 92
掛簾@@ 92
搖籃@@ 92
收納架子@@ 92
文創 92
新品热销 92
新款熱銷 92
日文 92
日本正版@@ 92
段 92
淋@@ 92
清洗劑@@ 92
湖水綠 92
潛水 92
灑@@ 92
牛仔布@@ 92
猴子@@ 92
皮面 92
簡單 92
純銀耳環 92
胡椒@@ 92
自然 92
菌 92
萬斯 92
蕾哈娜 92
薇 92
蘇打@@ 92
褶@@ 92
貝殼 92
貴賓@@ 92
走秀@@ 92
超 92
跑車 92
輔食@@ 92
辟邪@@ 92
金標@@ 92
防彈@@ 92
頁 92
高彈@@ 92
高彈力@@ 92
魚鱗@@ 92
115@@ 91
119 91
131 91
2019秋冬新款@@ 91
400g 91
5d 91
7a 91
7月@@ 91
8吋@@ 91
basket 91
bor@@ 91
burch@@ 91
chloe@@ 91
cnc@@ 91
flight 91
hitachi 91
jp 91
ju 91
kl 91
lativ 91
m5 91
mercci22 91
mj 91
natural 91
ori@@ 91
s10@@ 91
vic@@ 91
xr1 91
xsmax 91
リ@@ 91
休閑板鞋 91
保溫袋 91
假睫毛 91
傳動@@ 91
公文@@ 91
刻度@@ 91
前置@@ 91
加肥@@ 91
動畫 91
午休床@@ 91
半透明@@ 91
口罩套 91
可動 91
吊椅@@ 91
同人誌 91
吸油@@ 91
周年 91
囊@@ 91
堵@@ 91
大象 91
太郎 91
夾棉@@ 91
女帝 91
宽松@@ 91
快充線 91
慶 91
手機保護殼 91
教學 91
新品特惠 91
日記@@ 91
時尚女士@@ 91
書寶二手書t3 91
村 91
松緊腰@@ 91
柒@@ 91
柔膚@@ 91
模組 91
機多功能@@ 91
歷史@@ 91
殺 91
殿 91
汽車用品@@ 91
沛納海 91
浪漫 91
深灰@@ 91
渡假@@ 91
潤滑液@@ 91
發票@@ 91
直條@@ 91
直筒牛仔褲 91
私人@@ 91
紀念 91
置物架壁掛@@ 91
羊 91
美人 91
美國進口@@ 91
美版@@ 91
菱格 91
蚊香@@ 91
蝙蝠袖@@ 91
衛生紙@@ 91
袖口@@ 91
認知@@ 91
購物車@@ 91
身體乳@@ 91
辣 91
郵票@@ 91
金毛@@ 91
閃電 91
閉@@ 91
開心@@ 91
防爆 91
隱藏@@ 91
雪紡衫 91
預購中 91
頭燈@@ 91
鴨 91
黃光 91
黑頭@@ 91
012 90
10歲@@ 90
1200 90
16gb 90
1b 90
203 90
20入 90
888 90
a10@@ 90
age@@ 90
d2 90
des 90
hr@@ 90
id 90
ita 90
ite@@ 90
kai@@ 90
lauder 90
lv老花@@ 90
mks@@ 90
ophidia 90
oshkosh 90
ow 90
spade 90
t型@@ 90
wo@@ 90
ws 90
上的@@ 90
亦@@ 90
今日@@ 90
伊布 90
休閒上衣 90
便利貼 90
偏光太陽眼鏡 90
儀器 90
儲物盒 90
凱 90
出遊@@ 90
包入 90
匹@@ 90
十字紋牛皮@@ 90
单@@ 90
原宿 90
同學@@ 90
含稅@@ 90
四代 90
多肉 90
夜燈@@ 90
婉@@ 90
嬰兒童裝 90
客厅@@ 90
實拍現貨 90
專屬賣場@@ 90
小車@@ 90
屁股@@ 90
巷@@ 90
平光鏡@@ 90
微景觀@@ 90
忍@@ 90
手拎@@ 90
手掌@@ 90
扣頭@@ 90
拍拍@@ 90
掛表@@ 90
掛袋 90
教你@@ 90
文件夾 90
斯特@@ 90
日本原裝進口@@ 90
書桌椅@@ 90
歐式創意@@ 90
歐貨@@ 90
歐風@@ 90
泡麵 90
洗髮乳 90
瀝水架 90
火辣@@ 90
無線耳機 90
無耳洞@@ 90
煥@@ 90
特大 90
玻璃貼@@ 90
班服 90
男士皮帶@@ 90
男神@@ 90
登機@@ 90
發泡@@ 90
發箍@@ 90
發行 90
百搭顯瘦@@ 90
皮皮@@ 90
益生菌 90
相容 90
省電@@ 90
看 90
碎花 90
秋裝新款@@ 90
穎@@ 90
米奇米妮 90
紅黑@@ 90
綁繩@@ 90
義式@@ 90
羽 90
耐磨防滑@@ 90
聯 90
臥室床頭燈@@ 90
臺布@@ 90
艦@@ 90
荷花@@ 90
菜刀@@ 90
萬斯@@ 90
萱 90
蓓@@ 90
螺絲刀@@ 90
衝擊@@ 90
裙女@@ 90
補丁@@ 90
褲子男@@ 90
西洋@@ 90
負@@ 90
貨車@@ 90
車頂@@ 90
送禮首選 90
醉@@ 90
醫用@@ 90
鋼帶 90
防水包 90
電磁@@ 90
顧@@ 90
馬蹄@@ 90
高密度@@ 90
髮膜 90
鱷魚 90
111008@@ 89
154 89
18寸@@ 89
228@@ 89
32gb 89
3t 89
3層@@ 89
405 89
44mm 89
5l@@ 89
5折@@ 89
602 89
720@@ 89
789 89
8g@@ 89
8p@@ 89
cdg 89
dw手錶@@ 89
english 89
fm 89
fossil 89
girl@@ 89
gucci皮帶 89
iphone6@@ 89
jh@@ 89
missha 89
nu 89
ot@@ 89
over@@ 89
rock 89
tin@@ 89
tote 89
xbox 89
xxl@@ 89
é 89
上衣服 89
中款 89
亞曼尼@@ 89
人類@@ 89
低幫鞋 89
保冷袋 89
健身器材家用@@ 89
充氣 89
內含@@ 89
全新coach 89
全新品@@ 89
兩件組 89
公園@@ 89
冷暖@@ 89
初學者 89
口腔@@ 89
古巴@@ 89
可爱@@ 89
單桿@@ 89
單雙@@ 89
喵喵@@ 89
圖片@@ 89
地面@@ 89
埃@@ 89
大air 89
室內 89
家居家具傢俱用品 89
寵愛@@ 89
布魯@@ 89
床笠@@ 89
影片 89
戲水@@ 89
抹布 89
挺版@@ 89
控油 89
損@@ 89
文青 89
新品熱銷 89
智力@@ 89
束腰@@ 89
柔順@@ 89
栗@@ 89
植絨@@ 89
檯 89
欄 89
水槍@@ 89
海底@@ 89
火烈鳥@@ 89
煎鍋@@ 89
燃脂@@ 89
玩家 89
理療@@ 89
畫冊 89
當日出貨 89
監視器 89
盲@@ 89
第五@@ 89
能量 89
舖棉@@ 89
色系 89
茶葉 89
菠蘿@@ 89
萬年@@ 89
蘭芝 89
蛤蟆鏡@@ 89
言 89
設計師 89
貝親 89
走秀款 89
車業 89
郵票 89
都是@@ 89
開衫 89
雨靴 89
雪紡洋裝 89
靠背 89
頭巾 89
顯瘦百搭@@ 89
顯示器 89
香味@@ 89
高跟涼鞋 89
齒輪@@ 89
151 88
1600 88
2016夏季新款@@ 88
24k@@ 88
2件 88
3cm 88
4000@@ 88
490@@ 88
640@@ 88
7ml 88
7號 88
bl漫畫 88
boo@@ 88
book@@ 88
bow@@ 88
class 88
earth 88
g1 88
givenchy@@ 88
golf@@ 88
n6@@ 88
night 88
ox 88
pal@@ 88
psv 88
room 88
sup@@ 88
superdry@@ 88
turbo 88
t卹 88
一箱@@ 88
二手商品 88
代步車@@ 88
仿真花@@ 88
休閒百搭 88
便攜折疊@@ 88
保溫飯盒@@ 88
光碟@@ 88
克斯 88
內襯@@ 88
初秋@@ 88
前衛@@ 88
加油@@ 88
勒 88
半袖上衣@@ 88
占@@ 88
友 88
古曼@@ 88
可坐躺@@ 88
可水洗 88
名器 88
商務包 88
回 88
在 88
壓克力吊飾 88
大廳@@ 88
女表 88
好貨 88
學習桌 88
宮崎駿 88
家用創意@@ 88
帶蓋 88
幸福 88
影音大批發 88
態 88
所有@@ 88
手沖@@ 88
披風 88
抽獎@@ 88
持久留香@@ 88
掛布@@ 88
播放器 88
斐樂@@ 88
新款熱賣 88
方格@@ 88
日本原裝@@ 88
概念@@ 88
段變頻@@ 88
沐浴乳@@ 88
沙灘 88
洗衣精 88
活性碳@@ 88
游泳衣 88
滲透@@ 88
漢 88
無油@@ 88
瓜 88
男生t恤 88
砧板 88
立牌@@ 88
竹編@@ 88
篷@@ 88
簡約氣質@@ 88
米白色@@ 88
籽 88
粉彩@@ 88
紫水晶 88
置 88
美少女戰士@@ 88
羽絨服 88
聰明@@ 88
臥室家用@@ 88
自取@@ 88
芊@@ 88
芙 88
莊 88
落地 88
衣服架子@@ 88
誰@@ 88
賈@@ 88
跟鞋 88
透亮@@ 88
遇見@@ 88
邊幾 88
防水防汗@@ 88
隔離霜@@ 88
雙翹@@ 88
飲水機 88
香港迪士尼@@ 88
駕@@ 88
驗@@ 88
魚子@@ 88
龍泉@@ 88
25ml 87
315@@ 87
3ml 87
599@@ 87
5月@@ 87
844@@ 87
american 87
d3@@ 87
db 87
ers 87
eva 87
guess 87
iphone11@@ 87
lenovo 87
london 87
long 87
lunar 87
make 87
md 87
nylon 87
rav4 87
sharp 87
ster 87
tx 87
wm@@ 87
x6 87
z5 87
一字領露肩@@ 87
不倒翁@@ 87
世代 87
交叉綁帶@@ 87
代言@@ 87
代購adidas 87
仿真 87
休息@@ 87
健身器材 87
北歐ins風@@ 87
北歐現代@@ 87
去汙@@ 87
取 87
單孔@@ 87
嘟嘟@@ 87
嚴@@ 87
報 87
墻貼 87
奇哥@@ 87
女王 87
女襪 87
宇 87
安瓶 87
家用學生@@ 87
寬松韓版@@ 87
小柜子@@ 87
小椰子 87
屁屁@@ 87
干花@@ 87
平底鍋@@ 87
廠商@@ 87
恤 87
情侶手錶 87
抽屜 87
搞@@ 87
擦 87
新包裝 87
方形 87
方框@@ 87
日產 87
書坊 87
書柜 87
月餅@@ 87
有機棉@@ 87
染發劑@@ 87
桃園 87
歷@@ 87
毛巾架 87
洲@@ 87
浴室鏡@@ 87
添加@@ 87
溼@@ 87
潤唇膏 87
爆裂@@ 87
爵@@ 87
特價促銷 87
玫瑰花 87
現場@@ 87
現貨供應中 87
瓶裝 87
百貨鋪 87
福利@@ 87
窄版@@ 87
笛 87
純白 87
綠光@@ 87
置物袋 87
翔 87
聲波@@ 87
自在@@ 87
臺上盆@@ 87
花香 87
菈@@ 87
蜂窩@@ 87
袍@@ 87
訂購@@ 87
詳@@ 87
護手@@ 87
護頸枕@@ 87
貓抓@@ 87
賽車 87
贈 87
超長待機@@ 87
送一@@ 87
造 87
酸奶@@ 87
鋪子 87
長版外套 87
長袖外套 87
防摔手機殼 87
陀螺@@ 87
隔層@@ 87
雙排@@ 87
韓版可愛@@ 87
頂 87
風琴@@ 87
高爾夫球@@ 87
黑暗@@ 87
10個@@ 86
161 86
23cm 86
3吋 86
7g 86
armani阿曼尼@@ 86
dragon 86
ef 86
ferrari 86
fx@@ 86
god 86
happy@@ 86
hydro 86
idolish7 86
iris 86
iu@@ 86
jd 86
key 86
live@@ 86
lu 86
m43@@ 86
may 86
n4@@ 86
nars 86
out 86
panerai 86
series 86
sk8 86
tan@@ 86
women 86
xc@@ 86
丘@@ 86
九折@@ 86
人像@@ 86
保濕面膜 86
信用@@ 86
假面騎士@@ 86
充電寶 86
充電式 86
光陽@@ 86
兒童學生@@ 86
全新正版@@ 86
全系列 86
全館免運@@ 86
凈化@@ 86
出租 86
刷街@@ 86
十足 86
原礦@@ 86
吸水 86
品味@@ 86
單排扣@@ 86
四驅車 86
圓領修身@@ 86
墻 86
夏季2020新款@@ 86
大大@@ 86
夯@@ 86
契爾氏@@ 86
女士手錶 86
女表@@ 86
好貨促銷 86
妃 86
妖怪@@ 86
室內拖鞋 86
小公主@@ 86
小提琴@@ 86
巴斯光年 86
平底鍋 86
幼犬@@ 86
廚房收納@@ 86
廚房用品 86
廟@@ 86
廳@@ 86
弟@@ 86
彌月@@ 86
復古鞋 86
手機座 86
掛袋@@ 86
擴展@@ 86
放置@@ 86
救生@@ 86
新貨@@ 86
曲奇@@ 86
木柄@@ 86
果盤@@ 86
桃紅色 86
棋 86
樹枝@@ 86
歌林@@ 86
歐美復古@@ 86
毛怪 86
民國@@ 86
水杯子@@ 86
汪@@ 86
海軍風@@ 86
淚@@ 86
混色@@ 86
滿天星 86
潮吹@@ 86
燜燒@@ 86
玻@@ 86
現貨熱賣 86
男用 86
百搭學生@@ 86
皇后@@ 86
睡墊 86
祕@@ 86
移門@@ 86
簡易衣柜@@ 86
紅石榴@@ 86
網拍@@ 86
綿羊@@ 86
緻@@ 86
縫紉@@ 86
美國正品@@ 86
羽毛球@@ 86
聯合@@ 86
聲寶 86
腕帶@@ 86
艾米家 86
花樣@@ 86
落地多層@@ 86
蔓@@ 86
衣物 86
警察@@ 86
警示燈 86
豎款@@ 86
走廊過道@@ 86
路跑 86
運動休閑鞋@@ 86
重機@@ 86
鍛@@ 86
長型@@ 86
閨蜜 86
附原廠@@ 86
隱藏式@@ 86
頸鍊 86
飾條 86
黑銀 86
12吋@@ 85
164 85
2020新款潮@@ 85
2020春夏新款@@ 85
600g 85
60粒 85
717@@ 85
8寸@@ 85
all@@ 85
ang 85
bosch 85
del@@ 85
dl@@ 85
eau 85
eu@@ 85
fu 85
good@@ 85
hero@@ 85
iphone手機殼 85
jc@@ 85
kai 85
lv男士@@ 85
mickey 85
next 85
pat@@ 85
rihanna 85
sea 85
s號@@ 85
tissot 85
tommy@@ 85
touch 85
t恤男@@ 85
キ@@ 85
一雙 85
不挑款 85
中幫@@ 85
人工@@ 85
但@@ 85
們@@ 85
兒童益智@@ 85
分析@@ 85
刷頭 85
創 85
博柏利 85
可裝@@ 85
吊頂@@ 85
喜 85
嘻哈 85
四人@@ 85
圓凳@@ 85
垂釣@@ 85
夢幻 85
大小號@@ 85
大理石 85
奔馳@@ 85
好穿 85
嫁接@@ 85
字帖@@ 85
字紋 85
害@@ 85
專家 85
小椰子@@ 85
小樣@@ 85
後跟@@ 85
情侶拖鞋 85
惠普@@ 85
手辦模型 85
扶@@ 85
捕蚊@@ 85
星辰 85
普利@@ 85
束帶 85
束腳褲 85
架家用@@ 85
桃心@@ 85
案 85
椅子靠背@@ 85
毛器 85
沙龍@@ 85
烤盤@@ 85
男生短袖 85
界 85
白銀 85
直購@@ 85
短上衣 85
短褲男@@ 85
秋冬新款韓版@@ 85
穿鞋凳@@ 85
立領 85
簍@@ 85
籠子@@ 85
翻玩@@ 85
背部@@ 85
膠底 85
自慰器@@ 85
自拍桿@@ 85
菜板@@ 85
親筆簽名@@ 85
角幾 85
軟管 85
迴力車 85
透氣鞋 85
適合 85
遮臉@@ 85
邊夾@@ 85
鄉村風@@ 85
酒神包 85
銀鍊 85
鑰匙套@@ 85
鑲鑽 85
限量款@@ 85
陣@@ 85
雷射 85
韓貨 85
領巾 85
馬油@@ 85
鬆糕@@ 85
12吋 84
19年@@ 84
310 84
4xl@@ 84
60支@@ 84
a70 84
ate 84
ato@@ 84
a級@@ 84
bobo@@ 84
dk 84
dk@@ 84
dor@@ 84
ev@@ 84
fd@@ 84
fl 84
gi 84
gogo@@ 84
gy@@ 84
issey 84
jy@@ 84
ling 84
lp@@ 84
lv長夾 84
mag@@ 84
marmont@@ 84
mate@@ 84
nac@@ 84
soft 84
sta@@ 84
subaru 84
tree 84
um@@ 84
wellington 84
x9 84
xy@@ 84
一番賞@@ 84
下水道@@ 84
休閑褲 84
休閒椅 84
保證 84
信號@@ 84
免運中 84
冷氣濾網 84
包屁@@ 84
化妝箱@@ 84
北欧@@ 84
可到付 84
吸濕排汗 84
咖啡壺 84
單片@@ 84
國語@@ 84
大量@@ 84
奇幻@@ 84
學生兒童@@ 84
家用經濟型@@ 84
容 84
寫 84
小美@@ 84
山地@@ 84
巴寶莉burberry@@ 84
平底 84
年保固 84
庫洛魔法使 84
弧形@@ 84
影視@@ 84
手提單肩包 84
手機袋 84
折扣卷 84
拿鐵 84
支裝@@ 84
收口@@ 84
斜肩包 84
无@@ 84
日常 84
日本原裝進口 84
日韓版@@ 84
昕@@ 84
時尚新款@@ 84
未開刃 84
枕芯@@ 84
柔霧@@ 84
柯基@@ 84
歐美街頭@@ 84
泰國佛牌 84
洗發@@ 84
流星@@ 84
流浪包 84
滑板鞋@@ 84
瀏海@@ 84
灣@@ 84
父@@ 84
牧田 84
犬貓@@ 84
瑜@@ 84
畢@@ 84
畢業禮物 84
畫眉@@ 84
百褶裙@@ 84
直飲@@ 84
相 84
短t恤 84
石英腕錶 84
石英腕錶@@ 84
磨牙@@ 84
票卡夾 84
端子 84
竹制@@ 84
米老鼠@@ 84
緩@@ 84
續@@ 84
肝@@ 84
背心式@@ 84
茲 84
蓄@@ 84
薯@@ 84
裙式@@ 84
襪套@@ 84
見 84
記事本 84
軌@@ 84
通風@@ 84
速度@@ 84
運動t恤 84
運費 84
過濾網@@ 84
金屬扣@@ 84
鈦晶@@ 84
鎂@@ 84
防丟@@ 84
防摔殼@@ 84
防曬乳 84
陽 84
雙孔@@ 84
雙輪@@ 84
零碼出清 84
韓妞必備@@ 84
頸部@@ 84
題 84
香味 84
馬拉松@@ 84
010@@ 83
128gb 83
129 83
12mm 83
166 83
1tb 83
1代@@ 83
2003@@ 83
200斤@@ 83
2019秋季新款@@ 83
240ml 83
3歲 83
603 83
90g 83
aj4 83
belt 83
bg 83
cc霜 83
charms 83
dan@@ 83
dxf 83
face@@ 83
falcon 83
flex 83
fujifilm 83
goo@@ 83
jd@@ 83
model 83
queen@@ 83
s925純銀 83
sky@@ 83
sugar 83
t8@@ 83
tf 83
ultra@@ 83
un 83
us9 83
uv 83
vii 83
z1 83
カ@@ 83
三民 83
下水@@ 83
中大尺碼@@ 83
低 83
兔耳朵@@ 83
兩款@@ 83
再送@@ 83
刮胡刀@@ 83
勢@@ 83
包覆@@ 83
北歐式@@ 83
卡拉@@ 83
告@@ 83
啾@@ 83
國際牌@@ 83
圓柱@@ 83
地漏@@ 83
坦@@ 83
增高鞋@@ 83
壁挂@@ 83
壹灣@@ 83
夏季新品@@ 83
夾克外套@@ 83
奇哥 83
妹妹@@ 83
對開@@ 83
小屋@@ 83
局 83
年貨@@ 83
幸運草@@ 83
弱@@ 83
快 83
憶@@ 83
手抓@@ 83
打擊@@ 83
抖音網紅@@ 83
抽屜櫃 83
拉桿箱 83
拌@@ 83
捕魚@@ 83
描@@ 83
損 83
整組@@ 83
斜口@@ 83
新貨熱賣 83
景觀@@ 83
晾衣架 83
束縛@@ 83
枕頭套 83
柴油@@ 83
棉質上衣 83
棚 83
檯@@ 83
涵 83
無聲@@ 83
燙鉆@@ 83
爬服 83
牛奶 83
現代簡約創意@@ 83
現貨下殺 83
用具@@ 83
男真皮@@ 83
石英男錶@@ 83
秦@@ 83
突@@ 83
窗臺@@ 83
粉藍 83
精梳純棉 83
細 83
絲帶@@ 83
經典雙g@@ 83
緞@@ 83
羊絨圍巾 83
翅膀 83
聖誕樹@@ 83
自己 83
舒適透氣 83
芝麻街@@ 83
菩提@@ 83
蒸籠@@ 83
藍牙音箱@@ 83
裝潢@@ 83
裝飾擺件@@ 83
襪子鞋 83
評@@ 83
詠@@ 83
超柔軟@@ 83
足療@@ 83
足部@@ 83
輪滑鞋@@ 83
送1 83
透明玻璃@@ 83
通用型 83
進階@@ 83
長褲子@@ 83
門後@@ 83
閃充@@ 83
防塵套 83
防紫外線 83
隔板 83
集點@@ 83
雙11@@ 83
電暖@@ 83
霧 83
非洲@@ 83
鞋架多層@@ 83
風情@@ 83
飛機杯@@ 83
飲料 83
體育@@ 83
高山@@ 83
魅惑@@ 83
麥當勞 83
麻 83
020 82
127 82
12cm 82
144@@ 82
1號 82
230 82
24v@@ 82
2歲@@ 82
39碼 82
420 82
5歲@@ 82
ace@@ 82
bal@@ 82
ban 82
bio 82
bp@@ 82
care@@ 82
cx@@ 82
don@@ 82
eye 82
first 82
hot@@ 82
ins潮 82
key@@ 82
kh@@ 82
link 82
lun@@ 82
lux@@ 82
m10 82
mic@@ 82
mks 82
nike拖鞋 82
nike耐克 82
opp@@ 82
paris 82
sat@@ 82
soul 82
spf@@ 82
vin@@ 82
wt 82
ル@@ 82
二色 82
介@@ 82
休閒t恤 82
休閒套裝@@ 82
休閒運動套裝 82
伽@@ 82
保健 82
保溫 82
個月@@ 82
優質 82
創意家用@@ 82
包臀裙@@ 82
厚底鞋@@ 82
去角質 82
名偵探柯南 82
喜慶@@ 82
四面@@ 82
國旗 82
地攤@@ 82
地柜@@ 82
坤@@ 82
太陽 82
女士腕錶@@ 82
女短款@@ 82
女神必備 82
存錢罐@@ 82
寬楦 82
小戶型臥室@@ 82
小背包 82
小西裝@@ 82
居家生活 82
屎@@ 82
工裝褲 82
帝 82
年級@@ 82
庭 82
很仙的@@ 82
從零開始的異世界生活 82
快乾@@ 82
急速@@ 82
性感睡衣@@ 82
手繩 82
挖寶二手片 82
掃地機器人@@ 82
握力@@ 82
支裝 82
教具 82
日雜@@ 82
昌 82
智慧 82
書寶二手書t5 82
束口褲 82
格子襯衫@@ 82
梯形@@ 82
椅背@@ 82
樺@@ 82
機場@@ 82
欣 82
正反@@ 82
正版授權@@ 82
水手@@ 82
沖泡@@ 82
泰 82
涼感 82
混搭@@ 82
溫度計 82
現貨正品 82
瑜伽服@@ 82
甲油膠@@ 82
男生女生@@ 82
男褲 82
療癒 82
白紅@@ 82
益智 82
眼線筆 82
端子@@ 82
第六@@ 82
紫羅蘭@@ 82
線器 82
纯@@ 82
罐裝 82
罐裝@@ 82
置物籃 82
羅技 82
美女 82
耳塞 82
背蓋@@ 82
自動鉛筆 82
英式@@ 82
茉@@ 82
荷葉袖@@ 82
華夫@@ 82
菲拉格慕 82
著用 82
蕾 82
藍莓@@ 82
補 82
襯 82
解析 82
詞@@ 82
護腕 82
讓你@@ 82
貢@@ 82
走路@@ 82
超大容量 82
超能@@ 82
足 82
輕量化@@ 82
輝 82
透光不透明@@ 82
速食@@ 82
造型上衣 82
運動耳機 82
運動鞋慢跑鞋@@ 82
遮陽防曬@@ 82
酵@@ 82
鋼化 82
開學@@ 82
雪紡襯衫 82
雷朋 82
面盤 82
頭枕 82
黑檀木@@ 82
1s 81
2022 81
350ml 81
4cm 81
armani手錶 81
bar 81
bi 81
bwsr 81
cartier@@ 81
chicco 81
city@@ 81
fg@@ 81
fi 81
fre@@ 81
future 81
gucci女款@@ 81
hang 81
hellokitty@@ 81
lady@@ 81
laneige 81
lx@@ 81
momo@@ 81
nd@@ 81
oo 81
pocket 81
r11@@ 81
real 81
ron@@ 81
sg@@ 81
squishy 81
van@@ 81
versace範思哲@@ 81
x10@@ 81
xxxl 81
ッ@@ 81
一字領上衣 81
一片@@ 81
三明治@@ 81
三眼計時腕錶 81
三菱@@ 81
两@@ 81
中控@@ 81
事業@@ 81
五月@@ 81
來自@@ 81
保證真品 81
側翻@@ 81
內刷毛 81
內裏@@ 81
全掌氣墊 81
兩層@@ 81
公寓@@ 81
勃@@ 81
卡牌@@ 81
印字@@ 81
原裝正品@@ 81
命運@@ 81
哈雷@@ 81
国@@ 81
圆@@ 81
外觀@@ 81
多功能防水@@ 81
婦 81
室內家用@@ 81
家居客廳@@ 81
寬鬆休閒@@ 81
寶馬 81
射燈@@ 81
小學@@ 81
小皮鞋@@ 81
工具組 81
工場 81
年後 81
幻想@@ 81
微星 81
悟@@ 81
戀人 81
我的英雄學院 81
戴爾@@ 81
手燈 81
打蛋@@ 81
托腹@@ 81
拆裝@@ 81
排毒@@ 81
掛布 81
搓@@ 81
散熱器 81
文學 81
日單@@ 81
日系復古@@ 81
書寶二手書t4 81
朵色@@ 81
棘輪@@ 81
椅墊 81
椅子家用@@ 81
極度乾燥@@ 81
標準尺碼 81
標簽@@ 81
標誌 81
機家用小型@@ 81
機甲@@ 81
橡皮擦 81
气@@ 81
沙包@@ 81
沙發墊 81
沙發套 81
海灘褲 81
淘寶@@ 81
澳洲代購 81
焊接@@ 81
照明燈 81
煲@@ 81
狗頭@@ 81
珀@@ 81
現貨nike 81
瑪瑙 81
甄@@ 81
男士修身@@ 81
皮衣 81
真皮女包 81
短袖男@@ 81
稀@@ 81
稻@@ 81
立體聲@@ 81
符 81
簡版@@ 81
粥@@ 81
精英@@ 81
糕 81
紐西蘭@@ 81
細帶@@ 81
經絡@@ 81
編織鞋 81
繃帶@@ 81
羅紋@@ 81
肚子@@ 81
臥室小戶型@@ 81
蕾絲洋裝 81
藕@@ 81
處理 81
行車紀錄器 81
訂做@@ 81
訓@@ 81
貓爬架@@ 81
軟膠 81
輕便折疊@@ 81
轉接線 81
逗@@ 81
造型耳環 81
運動跑步鞋 81
銷 81
長版t 81
阿曼尼@@ 81
除 81
雙肩後背包 81
靠背椅 81
餐桌布@@ 81
黑白條紋@@ 81
1080p@@ 80
153 80
169 80
195 80
1m 80
2號 80
325@@ 80
410@@ 80
5個@@ 80
5米1 80
64g@@ 80
6款 80
71@@ 80
7吋@@ 80
901 80
TM 80
a73 80
cap@@ 80
crew 80
dolce 80
drive 80
duffy 80
eos 80
fv@@ 80
got7 80
ins北歐@@ 80
jdi 80
lbj@@ 80
lily 80
ring 80
roo@@ 80
sgs@@ 80
silver 80
sv@@ 80
sx@@ 80
tre@@ 80
war@@ 80
wild 80
wn@@ 80
zoo@@ 80
と@@ 80
ク@@ 80
一腳蹬 80
七天鑒賞 80
三個@@ 80
三角架@@ 80
上課@@ 80
下單前@@ 80
主臥@@ 80
九成新@@ 80
五層@@ 80
休眠@@ 80
休閒拖鞋 80
入組 80
刀劍亂舞 80
加濕@@ 80
匠 80
卡西歐手錶 80
吃 80
吊卡 80
同步 80
唇彩 80
喂奶@@ 80
喬登@@ 80
圖鑑 80
團體@@ 80
坦克@@ 80
塵 80
墨 80
墨綠 80
墨綠@@ 80
大王@@ 80
太 80
女潮 80
好朋友 80
学@@ 80
安卓蘋果@@ 80
實物@@ 80
小飛象 80
平口褲 80
床單人@@ 80
廊 80
廚房家用@@ 80
微波@@ 80
必備款@@ 80
懸浮@@ 80
扇形@@ 80
批發價@@ 80
摩洛哥@@ 80
攻略 80
整套 80
斑 80
新品折扣 80
日本精品 80
日本限定@@ 80
望遠鏡@@ 80
桌面收納盒@@ 80
桑蠶絲@@ 80
棉鞋@@ 80
榮 80
樂購@@ 80
歐舒丹@@ 80
氟@@ 80
水培@@ 80
水泵@@ 80
沙漠@@ 80
活 80
海賊@@ 80
涂@@ 80
涼被 80
渦輪@@ 80
澎澎@@ 80
火山@@ 80
犀牛盾 80
現在@@ 80
琪琪@@ 80
產 80
畫板@@ 80
直立@@ 80
秋衣@@ 80
窄管@@ 80
米白色 80
粉撲@@ 80
粉絲@@ 80
細紋@@ 80
絲質@@ 80
經典百搭@@ 80
網吧@@ 80
練 80
羊肉@@ 80
美國帶回 80
翻轉@@ 80
背面@@ 80
脂 80
花器@@ 80
花童@@ 80
花色 80
英文字@@ 80
范斯@@ 80
茶海@@ 80
蕊@@ 80
藏 80
號店 80
蜜糖@@ 80
行者@@ 80
角度@@ 80
認明yuanroro優質賣場 80
談@@ 80
請勿下單 80
譯@@ 80
變形金剛@@ 80
貼鑽@@ 80
踩@@ 80
蹦迪@@ 80
躍@@ 80
送女生@@ 80
進口牛皮 80
適用蘋果@@ 80
野餐墊 80
金扣@@ 80
銀樓 80
銅 80
開店@@ 80
隨身瓶 80
雕塑@@ 80
零錢夾 80
電扇@@ 80
震 80
霖@@ 80
面罩 80
韓製 80
食指@@ 80
120cm 79
138 79
1包@@ 79
235@@ 79
25mm 79
265 79
26cm 79
305 79
40cm 79
4mm 79
80ml 79
9號 79
ano@@ 79
beauty@@ 79
birkin 79
brother 79
cal@@ 79
dar@@ 79
j7@@ 79
lc@@ 79
look 79
malone@@ 79
maybelline 79
note9 79
p20@@ 79
race 79
rt 79
skin@@ 79
yoyo@@ 79
七成新 79
三格@@ 79
三輪車@@ 79
上色@@ 79
不起@@ 79
中文版@@ 79
中老年人@@ 79
二版 79
五代 79
五色 79
人字梯@@ 79
傲@@ 79
前后@@ 79
助力@@ 79
化妝椅@@ 79
化妝箱 79
午餐@@ 79
印尼@@ 79
印象@@ 79
反折@@ 79
可愛少女@@ 79
可愛的@@ 79
可調節 79
史奴比 79
吃雞神器@@ 79
咖啡豆@@ 79
商行 79
問題@@ 79
喜糖@@ 79
噴劑 79
四件@@ 79
四角內褲 79
執@@ 79
大人 79
大款@@ 79
天線 79
女士香水@@ 79
好吃@@ 79
孝@@ 79
寬版 79
寬袖@@ 79
寬鬆大碼@@ 79
導航 79
小人@@ 79
小美人魚@@ 79
工作 79
帶帽@@ 79
幻影@@ 79
性感夜店@@ 79
懶人沙發榻榻米@@ 79
户外@@ 79
手提女包 79
抗藍光@@ 79
捆@@ 79
擺 79
攪@@ 79
收納神器 79
效果 79
新春@@ 79
時尚腕錶 79
書局 79
最後一@@ 79
校服@@ 79
框架@@ 79
森林系@@ 79
水墨@@ 79
浴袍@@ 79
漂亮 79
澎@@ 79
濾網@@ 79
無損@@ 79
煎蛋@@ 79
熨斗@@ 79
燒水壺@@ 79
爆款下殺 79
爺 79
牙刷架 79
玻璃瓶 79
瓣@@ 79
生理@@ 79
痘印@@ 79
益生菌@@ 79
真皮牛皮@@ 79
真皮錢包 79
短款錢包 79
碩@@ 79
粉白 79
精品館 79
紋路@@ 79
結婚 79
經典logo 79
網紅款 79
考 79
背心洋裝 79
腿部@@ 79
臥室簡易@@ 79
臭氧@@ 79
艾米家@@ 79
茶幾簡約現代@@ 79
菜瓜布 79
蒙 79
蜂膠@@ 79
蠟筆 79
裝飾貼紙 79
複合@@ 79
親子 79
調色@@ 79
貨架 79
買菜@@ 79
起泡@@ 79
超細纖維@@ 79
蹭@@ 79
軍規@@ 79
辦公 79
酒店 79
鎖骨鍊 79
鐵灰 79
韓版氣質@@ 79
餅干@@ 79
高絲 79
高階@@ 79
鬚@@ 79
魷魚@@ 79
齊全 79
龍蝦@@ 79
龐克@@ 79
14寸@@ 78
16寸@@ 78
225 78
2k@@ 78
302 78
30元 78
35cm 78
450ml 78
5000 78
5g@@ 78
703 78
9789864@@ 78
ant@@ 78
back 78
bon 78
cv@@ 78
dd 78
diy材料 78
f0@@ 78
g3 78
innisfree@@ 78
ite 78
lacoste 78
like 78
lite@@ 78
lv女款@@ 78
met 78
mlb@@ 78
mol@@ 78
order 78
p20 78
p30 78
pd 78
rog 78
rv@@ 78
se2 78
slide 78
taiwan 78
vita 78
v字@@ 78
x2@@ 78
ytl 78
zr@@ 78
é@@ 78
コ@@ 78
ロ@@ 78
三人位@@ 78
三眼日曆@@ 78
中長版@@ 78
五分短褲 78
人參@@ 78
人形@@ 78
供 78
依 78
俏麗@@ 78
傘車@@ 78
元起標 78
內裡 78
全省@@ 78
刃 78
分離式@@ 78
刮刀 78
創意小@@ 78
化妝台 78
卯釘@@ 78
另有 78
可定制 78
名字@@ 78
唇 78
單槽@@ 78
單眼@@ 78
單肩包斜挎包 78
女中長款@@ 78
女包包@@ 78
女士手錶@@ 78
女性淡香水@@ 78
好用 78
如何@@ 78
媛@@ 78
學步鞋@@ 78
完美 78
密碼鎖@@ 78
封 78
專櫃品質 78
小沙發 78
小黃@@ 78
尾巴@@ 78
尾翼 78
展示柜@@ 78
層板@@ 78
崔@@ 78
巫@@ 78
年輕@@ 78
府@@ 78
弓形@@ 78
律 78
復古做舊@@ 78
必買 78
快感@@ 78
恤@@ 78
情侶錶 78
愛馬仕皮帶 78
懶人 78
戰神@@ 78
手槍@@ 78
手竿@@ 78
折叠@@ 78
拉伸@@ 78
控制 78
撕拉@@ 78
播@@ 78
擱板@@ 78
攜帶型@@ 78
數量有限 78
新型@@ 78
日本購入 78
桌墊@@ 78
桌椅組合 78
樂天@@ 78
機電動@@ 78
歐美潮流@@ 78
水草@@ 78
油炸@@ 78
泫雅@@ 78
海苔 78
湯碗@@ 78
滾輪 78
滿299出貨 78
滿滿@@ 78
漆皮 78
潛航者@@ 78
無袖背心@@ 78
營業@@ 78
發聲@@ 78
百褶裙 78
盆景@@ 78
直發@@ 78
睡 78
石英手錶@@ 78
秋季新款韓版@@ 78
筆芯 78
筆記@@ 78
篇@@ 78
精品女包@@ 78
純棉短袖t恤 78
经典@@ 78
翻斗@@ 78
耳塞式@@ 78
腳架@@ 78
自拍桿 78
自行@@ 78
船襪 78
茶幾組合@@ 78
薄荷綠 78
蝙蝠包 78
衛 78
表帶@@ 78
裂 78
補光@@ 78
角質@@ 78
護目鏡 78
貓罐 78
貴族@@ 78
超級英雄 78
轉印@@ 78
遮陽 78
鄧@@ 78
酒架@@ 78
金盞花@@ 78
金鍊 78
鋼化@@ 78
鏡框 78
防刮皮革@@ 78
防護 78
電鑽 78
靴女@@ 78
鞋套 78
鞋盒 78
音樂盒@@ 78
馬自達 78
高達@@ 78
鬍子@@ 78
麥飯石@@ 78
麻吉@@ 78
黑人@@ 78
龍珠@@ 78
1300@@ 77
150元 77
178 77
2016新款 77
24入 77
255 77
304不鏽鋼 77
323 77
325 77
360度旋轉@@ 77
670@@ 77
749@@ 77
7mm 77
9元 77
abs 77
ann 77
b5 77
cpu 77
g9@@ 77
gucci錢包 77
hademu 77
hm精品 77
ht@@ 77
j4 77
lb@@ 77
lock 77
mercedes 77
mimi@@ 77
monogram@@ 77
ram 77
sampo 77
td@@ 77
us8 77
vn@@ 77
wd@@ 77
xdr 77
さ@@ 77
一口@@ 77
三角內褲 77
下殺價@@ 77
中央@@ 77
丹寧 77
乒乓球@@ 77
二手正品 77
二館 77
互@@ 77
亮光@@ 77
人物 77
仙 77
供應@@ 77
倪@@ 77
做飯@@ 77
入門 77
全新未拆封@@ 77
則@@ 77
割草機@@ 77
加厚加絨@@ 77
包膜 77
包臀裙 77
原花 77
叮@@ 77
合一 77
向日葵@@ 77
吸濕@@ 77
啦啦@@ 77
喚@@ 77
圓領衛衣 77
墻面裝飾@@ 77
壁貼@@ 77
夠@@ 77
大波浪@@ 77
大降價 77
套装 77
套頭衛衣 77
套頭衛衣@@ 77
女寶 77
守護@@ 77
家用小戶型@@ 77
實拍現貨@@ 77
小仙女@@ 77
少年 77
屋頂@@ 77
布貼 77
床上用@@ 77
廣告牌@@ 77
後照鏡 77
怪物@@ 77
愛戀@@ 77
抽取式@@ 77
掛毯@@ 77
推拉門@@ 77
擱@@ 77
日本品牌 77
日本景品 77
日空版 77
旺旺@@ 77
星月@@ 77
暖手@@ 77
曬衣架@@ 77
會議椅@@ 77
東 77
機箱@@ 77
止癢@@ 77
每包@@ 77
毛衣外套 77
氣質名媛@@ 77
油箱@@ 77
泡澡桶@@ 77
活性@@ 77
浮雕 77
清倉價 77
溶@@ 77
滴膠@@ 77
潔面乳@@ 77
澡@@ 77
灰白@@ 77
無毒 77
現貨韓國@@ 77
理髮@@ 77
瑋@@ 77
璐@@ 77
田宮 77
男寶@@ 77
畫家@@ 77
發票 77
監@@ 77
知名@@ 77
硬碟@@ 77
碟盤 77
紫晶@@ 77
美國正品代購@@ 77
美胸@@ 77
耳釘女@@ 77
臥室陽臺@@ 77
良 77
色眼影盤 77
色系@@ 77
芮@@ 77
茶具套裝@@ 77
薄荷 77
袖子@@ 77
貓爪@@ 77
路易@@ 77
踢 77
軟糖@@ 77
輕薄 77
迅@@ 77
這款@@ 77
醜@@ 77
醬油@@ 77
鏟子@@ 77
鐵架 77
限時優惠@@ 77
限時特惠 77
雕刻 77
雙拉鍊@@ 77
雪紡紗@@ 77
雷 77
電源線 77
電視背景墻@@ 77
非滿版 77
香港迪士尼 77
馥@@ 77
高度@@ 77
高景觀@@ 77
鯨魚@@ 77
麗嬰房@@ 77
麻布@@ 77
黄@@ 77
齊 77
10cm 76
1600@@ 76
181 76
228 76
2l@@ 76
2m 76
2米 76
303 76
355@@ 76
3ce 76
3ce@@ 76
526@@ 76
540@@ 76
87折 76
bts@@ 76
bz@@ 76
dvz 76
fr 76
fw 76
k1 76
lol@@ 76
longchamp@@ 76
lv手提包 76
mv@@ 76
note4 76
np@@ 76
pad@@ 76
pure@@ 76
rgb 76
show 76
special 76
team 76
tokyo 76
t恤上衣 76
vuitton路易威登 76
wei@@ 76
レ@@ 76
三宅一生 76
三線@@ 76
上架 76
中筒 76
五折@@ 76
五行@@ 76
亞馬遜@@ 76
便利店 76
修護 76
側肩包 76
元寶@@ 76
克羅心 76
全遮光@@ 76
兩件套裝 76
兩隻@@ 76
初中生@@ 76
加厚不銹鋼@@ 76
南 76
可加@@ 76
台灣出貨@@ 76
咖哩@@ 76
唱片 76
啾啾@@ 76
回收@@ 76
回饋@@ 76
墻壁掛@@ 76
大同@@ 76
天空藍 76
套件@@ 76
嫩膚@@ 76
实木@@ 76
家居館 76
寶緹嘉@@ 76
寶藍色 76
小ck 76
小布@@ 76
小背包@@ 76
小象@@ 76
展示 76
幫浦 76
康是美 76
廁所 76
廠商直銷 76
徽@@ 76
心情@@ 76
忘@@ 76
戒指女@@ 76
抖音 76
披薩@@ 76
拚@@ 76
招財貓 76
攜@@ 76
整組 76
新郎@@ 76
星際大戰@@ 76
春夏款@@ 76
時尚復古@@ 76
晴雨傘@@ 76
本命年@@ 76
松糕厚底@@ 76
檀木@@ 76
母嬰@@ 76
民族風 76
水晶球@@ 76
水波紋 76
泡棉@@ 76
海鹽@@ 76
煙 76
煤油@@ 76
熊大 76
燃@@ 76
燙金 76
瓷 76
男士內褲@@ 76
發酵@@ 76
百貨店@@ 76
砂輪@@ 76
破 76
祈福@@ 76
種口味 76
笑臉包 76
筆記型電腦 76
箱子 76
簡約時尚 76
精工 76
細膩@@ 76
胸墊 76
腰枕@@ 76
艾多美 76
花花 76
茶葉罐@@ 76
蓉@@ 76
衛浴 76
表演 76
誇張@@ 76
調情 76
護照夾 76
豔@@ 76
買家 76
車材 76
逃@@ 76
造形@@ 76
進化@@ 76
還有@@ 76
重低音 76
金蔥@@ 76
金釦@@ 76
鐵藝 76
開口笑 76
開瓶器 76
闆娘@@ 76
階 76
雙面穿@@ 76
電繡 76
鞋底 76
鞋底@@ 76
韓國ulzzang@@ 76
音波@@ 76
飛織@@ 76
高清夜視@@ 76
鬆餅@@ 76
魚骨 76
鯨@@ 76
134 75
2020新款夏季@@ 75
2cm 75
2t 75
2號@@ 75
350v2 75
3入@@ 75
404 75
414@@ 75
4件@@ 75
4入@@ 75
4號 75
555 75
7尺@@ 75
8p 75
925銀針@@ 75
ana@@ 75
arts 75
c3 75
card 75
diamond 75
dream@@ 75
ew 75
ferragamo@@ 75
ino 75
ja 75
k5@@ 75
kat@@ 75
kaws 75
kipling 75
ky 75
lock@@ 75
mx 75
nm 75
oh 75
qc3 75
qi@@ 75
shin@@ 75
sq@@ 75
wi 75
シ@@ 75
一包 75
三線 75
中長款 75
丹 75
便 75
倍思 75
假髮女@@ 75
凡 75
出門@@ 75
刀劍@@ 75
刑@@ 75
北極@@ 75
印花t恤 75
可調式 75
合成@@ 75
吧凳@@ 75
吸頂@@ 75
售完為止 75
喬遷@@ 75
單反相機@@ 75
墜飾 75
外套男@@ 75
大氣 75
天竺@@ 75
宴 75
宿@@ 75
展示櫃 75
幼兒 75
庫里@@ 75
式耳環 75
復古鐵藝@@ 75
恆溫@@ 75
意式@@ 75
愛麗@@ 75
手工製作@@ 75
打亮@@ 75
放大鏡@@ 75
新鮮貨 75
日文版 75
日製@@ 75
日語@@ 75
早餐 75
有型@@ 75
杯袋 75
果樹@@ 75
森女@@ 75
極新@@ 75
標志@@ 75
正式@@ 75
殺菌 75
氣墊慢跑鞋 75
永生花 75
污 75
消光黑 75
漸變色@@ 75
澆@@ 75
濕巾@@ 75
熊抱哥 75
瑕疵@@ 75
甜心 75
男褲@@ 75
白底 75
白鐵 75
的好@@ 75
皙@@ 75
石英鐘@@ 75
研究@@ 75
磁吸式@@ 75
私訊 75
秋天@@ 75
純日版 75
純牛皮@@ 75
經典花紋@@ 75
网@@ 75
美國製 75
老爺@@ 75
聚寶盆 75
聲寶@@ 75
胎壓@@ 75
胖達 75
胸墊@@ 75
腎@@ 75
膳魔師@@ 75
臥室房間@@ 75
臥室書房@@ 75
艇@@ 75
萊卡@@ 75
落地鏡@@ 75
行政@@ 75
註@@ 75
誠信@@ 75
護耳@@ 75
貓貓@@ 75
貼花 75
轉接頭@@ 75
迷你便攜@@ 75
通話 75
運動手錶 75
遮陽傘 75
部落@@ 75
針織毛線@@ 75
鈺@@ 75
鉚釘 75
鋯石 75
開衫外套 75
關鍵@@ 75
防曬服@@ 75
防護欄@@ 75
防震 75
除蟎@@ 75
雙桿@@ 75
電視柜茶幾組合@@ 75
電鍋@@ 75
震動棒 75
顏色隨機 75
風暴@@ 75
餡@@ 75
香辣@@ 75
013 74
1300 74
16g@@ 74
184 74
186 74
2017秋冬新款@@ 74
213 74
22cm 74
235 74
3寸@@ 74
45mm 74
610 74
6色@@ 74
8mm@@ 74
a50 74
ann@@ 74
apieu 74
ax7 74
cpu@@ 74
golden 74
kon@@ 74
kr@@ 74
lisa 74
lv經典@@ 74
mars 74
p2 74
style@@ 74
wallet 74
一卡通 74
三分@@ 74
上市@@ 74
世 74
之 74
仙氣@@ 74
令 74
低溫@@ 74
保溫桶@@ 74
做工@@ 74
光陽 74
全自動 74
兩件式套裝 74
刀劍神域@@ 74
刺繡logo 74
割破@@ 74
厚底松糕@@ 74
去 74
史奴比@@ 74
哈利波特@@ 74
噴頭 74
四色可選 74
國文@@ 74
國潮@@ 74
垢@@ 74
大促銷 74
大出清 74
大屏@@ 74
大門@@ 74
太陽花@@ 74
女士時尚@@ 74
奶器@@ 74
好康@@ 74
妳@@ 74
學生鞋@@ 74
安琪@@ 74
家居の@@ 74
家用門口@@ 74
家用電動@@ 74
寶劍@@ 74
寺@@ 74
小logo 74
小丑@@ 74
小愛@@ 74
小米手環@@ 74
尚品@@ 74
工房 74
建筑@@ 74
开@@ 74
彎頭@@ 74
情人 74
情侶套裝 74
感謝@@ 74
戀與製作人 74
成新 74
打底衫女@@ 74
推理@@ 74
攜帶方便 74
文玩@@ 74
斜跨 74
新品優惠@@ 74
新年 74
新款兒童@@ 74
日常百搭@@ 74
春節@@ 74
暈染@@ 74
松緊@@ 74
棒棒糖 74
止汗@@ 74
法鬥@@ 74
泰迪熊 74
泳褲@@ 74
洗手液@@ 74
渲染@@ 74
溜溜車@@ 74
無刷@@ 74
無框@@ 74
熔@@ 74
爆炸@@ 74
特別版 74
狐狸 74
珊 74
用的@@ 74
男士短袖 74
男士短袖t恤@@ 74
男生包包與配件 74
真牛皮@@ 74
睫@@ 74
磁石@@ 74
磯@@ 74
秋季 74
穎 74
空心@@ 74
竹子@@ 74
範思哲 74
簡約純色@@ 74
粥 74
紅繩@@ 74
紅酒架@@ 74
線器@@ 74
織 74
繩子@@ 74
纏繞@@ 74
罐頭 74
羅賓 74
羊毛氈@@ 74
美國直郵@@ 74
美食 74
羽毛 74
翁@@ 74
自學@@ 74
荳@@ 74
虎頭 74
處 74
蛋黃@@ 74
蜜粉@@ 74
蝸@@ 74
補光燈 74
褲腰帶 74
該@@ 74
譯 74
讀 74
買2送1 74
質量@@ 74
起子 74
超彈力@@ 74
超顯瘦@@ 74
車窗@@ 74
軍迷@@ 74
迪士尼公主@@ 74
迷人@@ 74
連帽t 74
連褲襪@@ 74
運動休閑鞋 74
酒店大堂@@ 74
鎢鋼@@ 74
鏈條斜挎包 74
鐵絲@@ 74
防曬隔熱@@ 74
防止@@ 74
附錄 74
雄 74
雙邊@@ 74
電壓 74
露臍@@ 74
面交@@ 74
韓製@@ 74
領結 74
驅動@@ 74
髮繩 74
黑白色 74
龍鳳@@ 74
10000@@ 73
10段變頻@@ 73
171 73
185 73
18650@@ 73
188 73
198 73
1a@@ 73
1個 73
2005 73
2007 73
2017新款韓版@@ 73
2入組 73
2歲 73
30入 73
333 73
366@@ 73
390@@ 73
403 73
45x@@ 73
5t 73
80s 73
819@@ 73
c300 73
com 73
cp值@@ 73
craft 73
fresh 73
garmin 73
jc 73
jogger 73
kids@@ 73
kit@@ 73
m4 73
s5 73
seed 73
ser@@ 73
ten 73
urban 73
v型@@ 73
wh 73
woven 73
xa1 73
xy 73
一家@@ 73
中性 73
中性筆@@ 73
交換 73
今年@@ 73
代買 73
保濕滋潤@@ 73
保險櫃@@ 73
們 73
假兩件式@@ 73
傢@@ 73
催@@ 73
僅此@@ 73
兔耳@@ 73
全新出清 73
全新未使用 73
兼容@@ 73
分褲 73
加送@@ 73
卡座@@ 73
古代@@ 73
台灣發貨 73
史黛拉@@ 73
咪 73
售價 73
單一@@ 73
圓弧@@ 73
多層 73
夜市@@ 73
大腿@@ 73
女靴@@ 73
好幫手 73
妤@@ 73
安全褲 73
寬鬆上衣 73
寵 73
小丸子@@ 73
小動物@@ 73
小香風 73
尾燈@@ 73
屬@@ 73
工作鞋@@ 73
幫寶適@@ 73
扒@@ 73
拆卸@@ 73
拼皮@@ 73
指甲 73
掀@@ 73
掃地機器人 73
推拿@@ 73
收納筐 73
收納罐 73
新品促銷 73
旅行背包 73
日牌@@ 73
暖宮@@ 73
書房 73
書桌椅 73
望 73
束腳褲@@ 73
東西@@ 73
栽@@ 73
楓葉@@ 73
模式 73
櫸木@@ 73
櫻 73
水族箱@@ 73
泡茶 73
泡菜@@ 73
波蘭@@ 73
洗腳@@ 73
海竿@@ 73
涼鞋女夏@@ 73
溜@@ 73
溜溜@@ 73
潤色@@ 73
無添加@@ 73
煉@@ 73
燕窩@@ 73
牛皮女包 73
猫@@ 73
男韓版@@ 73
白水晶@@ 73
短袖polo衫@@ 73
矽膠套 73
碰@@ 73
窄裙 73
等級@@ 73
粉晶@@ 73
糖果色 73
糯@@ 73
編織包 73
編著 73
羞@@ 73
老爹 73
聚合物@@ 73
聯府 73
聯盟@@ 73
聲卡@@ 73
腰封@@ 73
芒@@ 73
芳香劑 73
英倫學院風@@ 73
蒙古包@@ 73
蓬蓬裙@@ 73
蛙 73
託盤@@ 73
話筒 73
講義 73
豎版@@ 73
豪華版 73
貝爾@@ 73
購物網 73
贴@@ 73
超硬@@ 73
足弓@@ 73
踝@@ 73
車輪@@ 73
輕量化 73
透白@@ 73
遊戲機 73
遠投@@ 73
遠程@@ 73
邊櫃 73
鋼鐵人@@ 73
鍊帶@@ 73
鍵鼠@@ 73
長靴 73
閃閃@@ 73
開襠@@ 73
防水布@@ 73
防踢@@ 73
隨行@@ 73
雕像 73
雙c 73
雨傘架@@ 73
韓站@@ 73
飛人@@ 73
駿@@ 73
魔術貼 73
魚眼@@ 73
鯊@@ 73
016 72
12v24v@@ 72
26寸@@ 72
2尺@@ 72
316 72
331 72
50mm 72
6cm 72
abc 72
are 72
bee 72
buy@@ 72
che 72
cla@@ 72
dhc@@ 72
easy 72
fan 72
fer@@ 72
hermes愛馬仕 72
hs@@ 72
ig 72
iphone6s@@ 72
kiki 72
lauren@@ 72
ld@@ 72
lux 72
muse 72
nex@@ 72
nk 72
ph 72
rolex@@ 72
sin@@ 72
store@@ 72
uni 72
な@@ 72
の 72
久 72
之家@@ 72
之星 72
任天堂@@ 72
佛堂@@ 72
修復 72
修身百搭@@ 72
傷 72
兒童滑板車@@ 72
內出貨 72
全身鏡@@ 72
公牛@@ 72
公雞@@ 72
冷水壺 72
凹凸@@ 72
分離式冷氣 72
創作@@ 72
化妝品收納盒 72
北倉 72
卡斯@@ 72
厘米@@ 72
只裝@@ 72
可可 72
可愛造型@@ 72
可議 72
各一 72
后現代簡約@@ 72
吐@@ 72
吧臺桌@@ 72
商用 72
坡@@ 72
墻上置物架@@ 72
大叔@@ 72
大豆@@ 72
大音量@@ 72
天堂 72
姐 72
安娜 72
完整 72
完整版 72
實木腿@@ 72
小櫻@@ 72
帶門@@ 72
彰化@@ 72
微單@@ 72
愛美@@ 72
應用@@ 72
成犬@@ 72
手賬@@ 72
打卡@@ 72
投影機 72
拆封@@ 72
拍攝 72
拖把 72
持@@ 72
換鞋凳 72
搖桿 72
撞色拼接@@ 72
撿@@ 72
旅 72
時尚大氣@@ 72
時尚經典@@ 72
有聲@@ 72
木質 72
未使用 72
杯蓋 72
棉花糖 72
植村秀@@ 72
欲@@ 72
正版全新 72
段式@@ 72
洛克@@ 72
浪琴@@ 72
涼墊@@ 72
淇@@ 72
淡香精@@ 72
清水套 72
潮流個性@@ 72
潮男 72
烘干@@ 72
無印@@ 72
煙灰缸 72
熱銷搶先價@@ 72
物品@@ 72
物流@@ 72
特考 72
疲勞@@ 72
痘痘@@ 72
瘦 72
百貨公司@@ 72
盜@@ 72
直髮@@ 72
眼鏡盒 72
短袖衣服@@ 72
磨腳@@ 72
空壓殼@@ 72
簡約個性@@ 72
簡約現代家用@@ 72
粉紫 72
經濟學 72
聯繫客服 72
胜肽@@ 72
腰掛@@ 72
膳@@ 72
膽@@ 72
艾莎@@ 72
芮 72
落地燈 72
衣服架@@ 72
袋鼠@@ 72
裱花@@ 72
資訊@@ 72
走路鞋 72
跑步運動@@ 72
軍裝@@ 72
軟木@@ 72
輸@@ 72
遮瑕膏 72
酒吧椅@@ 72
醬料@@ 72
重機 72
金釦 72
鍋具@@ 72
鏈子@@ 72
防過敏 72
阿迪@@ 72
限定款@@ 72
離合器@@ 72
雷神@@ 72
露肩上衣 72
靜 72
韓國新款@@ 72
韓國童裝 72
頭巾@@ 72
風車@@ 72
飯盒 72
養殖@@ 72
餐墊 72
餐巾紙@@ 72
高檔 72
高跟鞋女@@ 72
魯夫@@ 72
黑色牛皮@@ 72
點綴@@ 72
143 71
156 71
2kg 71
340@@ 71
4款 71
555088 71
5ml@@ 71
606 71
6splus@@ 71
85折@@ 71
8m 71
ant 71
au 71
b1 71
bas@@ 71
char@@ 71
duo 71
eyes 71
f3 71
fur@@ 71
g4 71
hana 71
hl 71
if@@ 71
ik@@ 71
ink 71
joe 71
lee@@ 71
mah@@ 71
project 71
que@@ 71
sou@@ 71
street 71
tab@@ 71
vol@@ 71
vr 71
xp@@ 71
zy@@ 71
一本@@ 71
三角褲@@ 71
上衣m 71
不能@@ 71
中壢@@ 71
中性筆 71
中筒襪@@ 71
丹麥@@ 71
亞瑟士@@ 71
付 71
保時捷@@ 71
倍 71
側掀 71
內增高 71
內扣@@ 71
全罩 71
六色@@ 71
刷子 71
創意卡通@@ 71
創新@@ 71
十二生肖@@ 71
午睡床@@ 71
卡扣@@ 71
卡牌 71
卡特@@ 71
原液 71
古箏@@ 71
只賣@@ 71
周年紀念@@ 71
唇露 71
售完不補 71
單字@@ 71
單支 71
回饋 71
國小@@ 71
土豆@@ 71
坐便@@ 71
壹字@@ 71
外穿 71
夜場@@ 71
大型 71
大學 71
大白@@ 71
大風@@ 71
奇異@@ 71
套組@@ 71
女孩公主@@ 71
妞妞@@ 71
婆@@ 71
嬰兒床 71
密碼 71
實品@@ 71
專屬下單區 71
小戶型迷你@@ 71
小禮物 71
小腿@@ 71
少 71
居家用品 71
展示盒 71
工業級@@ 71
工程車@@ 71
帥氣 71
帶胸墊@@ 71
形狀@@ 71
忍者 71
房間 71
手工制作@@ 71
打造 71
拍賣@@ 71
捲邊@@ 71
排氣管 71
掛耳@@ 71
接收器@@ 71
撫@@ 71
收納架子 71
收音機@@ 71
效期 71
日本品牌@@ 71
暫@@ 71
書寶二手書t6 71
書寶二手書t9 71
木瓜@@ 71
未來 71
杆 71
杜嘉班納@@ 71
柑橘@@ 71
桃木@@ 71
構@@ 71
機械鍵盤@@ 71
檀@@ 71
歐式鐵藝@@ 71
水晶玻璃@@ 71
沿@@ 71
洗漱包 71
清水@@ 71
炒鍋 71
熨燙@@ 71
爬行墊@@ 71
牛仔裙@@ 71
狀 71
瓜子@@ 71
瓶裝@@ 71
甜點 71
男學生@@ 71
發廊@@ 71
發貨@@ 71
碗櫃@@ 71
磨刀@@ 71
祥 71
稅@@ 71
竹 71
簡易衣櫃@@ 71
粉底刷 71
緬甸玉 71
織帶 71
纏@@ 71
美品 71
美學 71
美膚@@ 71
耳勾@@ 71
肩挎包 71
胺基酸@@ 71
腰靠@@ 71
舉@@ 71
艾 71
茶盤 71
荒@@ 71
蓋毯 71
行車@@ 71
衣帽間@@ 71
装饰@@ 71
詢問 71
誌 71
證書 71
變壓器@@ 71
貝雷帽 71
買一@@ 71
賣家 71
足球 71
踏板車@@ 71
迴@@ 71
連身衣@@ 71
遙控飛機@@ 71
適用於 71
都有@@ 71
銹@@ 71
鋼木@@ 71
鐵架@@ 71
長版衣 71
門后@@ 71
開花@@ 71
防滑墊@@ 71
阿拉@@ 71
雙人沙發 71
霍@@ 71
鞋面 71
順 71
飛鼠@@ 71
馬丁靴女@@ 71
駝色@@ 71
高倍@@ 71
麗莎@@ 71
麥昆@@ 71
麵包 71
10片 70
1166@@ 70
2011 70
2m@@ 70
399 70
610@@ 70
9月@@ 70
bally 70
burberry巴寶莉 70
candy 70
chanel女包 70
dji 70
don 70
dw手錶 70
gentle 70
guc@@ 70
guess@@ 70
hr 70
htc@@ 70
hui 70
jin 70
jm@@ 70
lan 70
lan@@ 70
les@@ 70
lie@@ 70
lt@@ 70
mama 70
metal 70
mk包包 70
ng 70
ok 70
om 70
pieu 70
pod 70
pr 70
puma彪馬@@ 70
shine 70
sil@@ 70
sj@@ 70
tcg 70
t恤衫@@ 70
watch@@ 70
wow 70
ド@@ 70
ン 70
一支@@ 70
下午茶 70
丞@@ 70
主持人@@ 70
休閑板鞋@@ 70
伯爵@@ 70
保時捷 70
修身顯瘦 70
值 70
克萊@@ 70
全球購@@ 70
創意禮品@@ 70
古龍@@ 70
吊帶背心 70
吊帶褲@@ 70
名牌精品包 70
吸 70
國產@@ 70
堆@@ 70
墙@@ 70
墬@@ 70
外套女 70
夾鏈袋 70
女僕@@ 70
姐姐@@ 70
媽媽裝@@ 70
家用靜音@@ 70
寶寶小孩@@ 70
封面@@ 70
專櫃品牌 70
導入@@ 70
小咪代購 70
小子 70
層次@@ 70
工作室@@ 70
工裝褲@@ 70
干果@@ 70
年中@@ 70
床裙@@ 70
延伸@@ 70
愛上@@ 70
愛迪生@@ 70
懶人桌@@ 70
扁平@@ 70
投影機@@ 70
挑逗@@ 70
搓澡@@ 70
搞笑@@ 70
搭 70
擦拭@@ 70
收納柜一體@@ 70
日本製造 70
旱冰鞋@@ 70
春秋裝@@ 70
更換@@ 70
書寶二手書t7 70
書本熊 70
書架落地@@ 70
會所@@ 70
朗 70
果醬@@ 70
桌面 70
梳妝鏡@@ 70
棉麻 70
法式復古@@ 70
波力@@ 70
波浪紋@@ 70
海洋 70
海爾@@ 70
海藻@@ 70
浸@@ 70
無人機@@ 70
煮面@@ 70
特惠價 70
狂歡@@ 70
狐 70
瓶子@@ 70
男女運動鞋 70
異味@@ 70
疊疊樂 70
登山包 70
白雪公主 70
白雪公主@@ 70
皇 70
短褲套裝 70
石英表@@ 70
磁吸 70
票據@@ 70
站立@@ 70
童襪 70
第三代@@ 70
紅黑 70
紡@@ 70
組合套裝@@ 70
絕美@@ 70
網面透氣 70
縫線@@ 70
羅技@@ 70
美樂@@ 70
美縫@@ 70
老二@@ 70
職人@@ 70
背心上衣 70
背景布 70
腳趾@@ 70
臨摹@@ 70
自拍棒 70
舔@@ 70
色號 70
蔣@@ 70
蘭花@@ 70
號碼@@ 70
蜂蜜 70
蜘蛛俠@@ 70
被芯@@ 70
計算機 70
調料架@@ 70
輪轂@@ 70
轉盤@@ 70
連線代購 70
遙控車@@ 70
邪@@ 70
部落 70
金剛 70
鉻@@ 70
鋼琴 70
鋼鐵俠@@ 70
錄音筆@@ 70
鍋具 70
鏈包 70
鏈帶@@ 70
長版襯衫 70
防水防曬@@ 70
防脹氣@@ 70
陶瓷杯 70
雙眼皮@@ 70
雨天@@ 70
電暖器 70
露營燈 70
項鏈女@@ 70
預售 70
風琴包 70
香奈兒chanel 70
馨 70
馬丁@@ 70
馬上@@ 70
馬自達@@ 70
駝@@ 70
骷髏頭 70
高腳椅 70
麗嬰房 70
015 69
1000g 69
126@@ 69
12代 69
136 69
139 69
147 69
175 69
192 69
2009 69
2019新款韓版@@ 69
204 69
208 69
212 69
2a@@ 69
2月@@ 69
335@@ 69
36mm 69
3尺@@ 69
4號@@ 69
555@@ 69
5分@@ 69
6l 69
745@@ 69
805 69
8入 69
8歲@@ 69
a30 69
acs 69
aj11 69
android 69
ar14@@ 69
are@@ 69
ation 69
bf 69
blue@@ 69
brand 69
b款 69
ey@@ 69
gal@@ 69
google 69
hg@@ 69
ins風 69
j6 69
lulu@@ 69
micro@@ 69
n9@@ 69
nn@@ 69
occitane 69
off@@ 69
r7 69
reno@@ 69
rilakkuma 69
s6@@ 69
sal@@ 69
sonic 69
tods 69
t恤女短袖@@ 69
walk 69
works 69
xp 69
yeezy@@ 69
三點式@@ 69
上光@@ 69
不傷發@@ 69
世代@@ 69
中國風 69
丸子@@ 69
乐@@ 69
二手非全新@@ 69
亮彩@@ 69
仿皮@@ 69
來圖@@ 69
修容 69
光燈@@ 69
全景@@ 69
全集 69
凍 69
刀架 69
包達人 69
厄文@@ 69
厚底增高@@ 69
厚度@@ 69
原料@@ 69
去油@@ 69
反摺@@ 69
可超取@@ 69
吸附@@ 69
售出@@ 69
單入 69
四季通用 69
塑身衣@@ 69
填@@ 69
增加@@ 69
壇@@ 69
夏裝新款韓版@@ 69
外出 69
多功能收納@@ 69
大台北@@ 69
大號加厚@@ 69
太子@@ 69
女士腕錶 69
女性淡香精@@ 69
妹妹 69
婚鞋 69
媽媽包@@ 69
安德@@ 69
完成品 69
帶抽屜@@ 69
廠家直銷滿千減100 69
後背 69
息@@ 69
愛巴黎 69
成人用品 69
戶外休閑@@ 69
戶外便攜@@ 69
手電@@ 69
投資@@ 69
抗過敏 69
折屏@@ 69
折疊椅@@ 69
搶 69
擦手巾 69
收集@@ 69
新奇@@ 69
新房@@ 69
旅行袋@@ 69
早春新款@@ 69
春夏季新款@@ 69
昭@@ 69
時空@@ 69
晉@@ 69
曆@@ 69
最大@@ 69
東京迪士尼 69
東西 69
楠@@ 69
水溶性@@ 69
水蜜桃@@ 69
汙@@ 69
汽車座椅@@ 69
沖擊@@ 69
河 69
河馬@@ 69
況@@ 69
泡茶壺@@ 69
波斯@@ 69
浴桶@@ 69
滅蚊@@ 69
滿鉆@@ 69
澤 69
火爆款@@ 69
煙盒@@ 69
熱賣中@@ 69
燈家用@@ 69
燈座 69
特製@@ 69
猴 69
玻璃門@@ 69
現代簡約家用@@ 69
現貨24小時快速出貨 69
現貨商品 69
現貨正品@@ 69
生存遊戲 69
男仕@@ 69
町@@ 69
畫框@@ 69
瘦腰@@ 69
白勾 69
直筒 69
眉毛@@ 69
硅膠 69
碗架 69
秘 69
第二代 69
糕點@@ 69
素t@@ 69
練習 69
繡 69
线@@ 69
老公@@ 69
肥 69
自有書 69
船襪@@ 69
艾米@@ 69
花之@@ 69
菩薩@@ 69
萃取@@ 69
蒙口@@ 69
薇薇@@ 69
薰@@ 69
藍芽耳機@@ 69
蛋糕模 69
蜘蛛人@@ 69
蟒@@ 69
衛衣外套 69
表帶 69
覆@@ 69
負離子 69
超優惠 69
跡 69
透氣網@@ 69
連續@@ 69
運動型@@ 69
運動鞋休閒鞋@@ 69
運輸@@ 69
遙@@ 69
遙控車 69
避光墊 69
鈎@@ 69
鏢@@ 69
閱@@ 69
關公@@ 69
防晒@@ 69
防曬防紫外線@@ 69
防窺@@ 69
雙usb@@ 69
零 69
電流@@ 69
電視機柜@@ 69
電鋸@@ 69
韓國正品@@ 69
韓流@@ 69
韓版潮 69
飛行外套 69
香菇@@ 69
高幫鞋 69
鮮 69
鹿角@@ 69
黑橘 69
021 68
10000毫安@@ 68
10包 68
117@@ 68
187 68
2008 68
2017夏季@@ 68
216@@ 68
430@@ 68
4個@@ 68
575@@ 68
5v 68
5色@@ 68
911 68
925銀 68
95折 68
997 68
9mm 68
9分@@ 68
aq 68
aqua 68
ar59@@ 68
bh 68
camo 68
exq 68
fear 68
jimmy 68
laurent@@ 68
mal@@ 68
miyake 68
muji 68
olympus 68
oversize 68
plr 68
powder 68
rock@@ 68
sale 68
smile 68
sports 68
sta 68
stone 68
tar@@ 68
tsu@@ 68
water 68
win 68
wings 68
マ@@ 68
一直被模仿 68
三段@@ 68
上鋪@@ 68
不退@@ 68
中褲 68
五件@@ 68
例@@ 68
俗@@ 68
偏光太陽鏡@@ 68
傳輸線@@ 68
儲物凳@@ 68
光滑@@ 68
全場現貨 68
全掌@@ 68
全民@@ 68
六月@@ 68
出版@@ 68
刀片@@ 68
刺繡logo@@ 68
加厚款@@ 68
勃肯@@ 68
半簾@@ 68
即期品 68
可加購@@ 68
可站立 68
吉利@@ 68
喂@@ 68
單肩手提包 68
噴漆 68
噴霧器@@ 68
嚼@@ 68
夏被@@ 68
大戰@@ 68
大茶几 68
嬰幼兒 68
家庭 68
小木@@ 68
小板凳@@ 68
居家必備 68
工作燈 68
工具包@@ 68
布偶@@ 68
布面@@ 68
年度@@ 68
床上書桌@@ 68
庫裏@@ 68
從未被超越 68
復古風 68
志 68
感應 68
成人男女@@ 68
手機保護套 68
手繪 68
折疊床@@ 68
抽鬚@@ 68
拉鏈式@@ 68
拉鏈錢包@@ 68
掃描@@ 68
攝像頭 68
敬酒服@@ 68
數量@@ 68
斗篷 68
斜 68
新品優惠 68
施工@@ 68
施巴@@ 68
日單 68
星際@@ 68
晴天@@ 68
書寫@@ 68
柑@@ 68
栓@@ 68
桃子@@ 68
棉褲@@ 68
樣板間@@ 68
機動@@ 68
機械錶@@ 68
正韓貨 68
毒 68
比熊@@ 68
毛衣鏈@@ 68
水槍 68
水漾@@ 68
水藍@@ 68
汽材 68
沙發巾@@ 68
沙袋@@ 68
泡面@@ 68
海棉@@ 68
消除@@ 68
滿意寶寶@@ 68
漁夫@@ 68
漏 68
潮包 68
灰姑娘 68
無色@@ 68
熊本熊@@ 68
熨@@ 68
燈罩@@ 68
特價下殺@@ 68
玄關 68
生活用品 68
男鞋40 68
發光 68
盘@@ 68
監控 68
短途@@ 68
矯正器@@ 68
碼數@@ 68
磁 68
磨 68
福特@@ 68
禮包 68
窄版 68
第二版 68
米桶@@ 68
純鈦@@ 68
紙箱@@ 68
紙膠帶@@ 68
緩衝@@ 68
纖長@@ 68
美容 68
美少女 68
老花鏡@@ 68
老鷹@@ 68
耐咬@@ 68
耐衝擊@@ 68
耳機套 68
能力@@ 68
膝@@ 68
膝上@@ 68
花茶 68
英國next預購代購 68
茵@@ 68
茶包@@ 68
莓果@@ 68
蓋巾@@ 68
薄型@@ 68
蘿蔔@@ 68
蛇紋 68
蠟筆@@ 68
裝扮@@ 68
觀音 68
言情小說 68
試衣間@@ 68
調味罐@@ 68
調情@@ 68
識@@ 68
護目鏡@@ 68
豬八@@ 68
貓砂@@ 68
貝兒 68
貼花@@ 68
賓館@@ 68
超q@@ 68
路由器@@ 68
車標@@ 68
車載手機支架@@ 68
輕小說 68
送女友 68
透氣吸汗@@ 68
醫 68
開光 68
開幕@@ 68
防水防滑@@ 68
限時折扣 68
階梯@@ 68
隔熱墊 68
電鍋 68
露肩 68
青蛙 68
靠背椅子@@ 68
革 68
韓劇@@ 68
韓國時尚@@ 68
韓國直送 68
韓版兒童@@ 68
頌@@ 68
頰@@ 68
顯白@@ 68
香薰 68
黑粉@@ 68
黑面@@ 68
點火@@ 68
1080@@ 67
129@@ 67
142 67
215 67
229 67
232 67
238 67
249 67
2xl碼 67
30mm 67
316l@@ 67
3a@@ 67
3款 67
410 67
60cm@@ 67
70ml 67
750ml 67
830 67
a71 67
ahc 67
amy@@ 67
color@@ 67
creuset 67
dear 67
dou@@ 67
ever@@ 67
ez易買日本代購 67
far@@ 67
fenty 67
furylite 67
iq@@ 67
j5 67
ji 67
kiki@@ 67
las@@ 67
ln 67
mel@@ 67
moschino@@ 67
nr 67
pad 67
phone@@ 67
r3 67
smart@@ 67
tat@@ 67
vivi 67
wl@@ 67
x10 67
三通@@ 67
三針@@ 67
主打@@ 67
二次@@ 67
仙子 67
伴 67
佛具@@ 67
修剪@@ 67
優質現貨 67
內褲女@@ 67
內飾改裝@@ 67
全包圍@@ 67
全車@@ 67
冷 67
凝露@@ 67
凱莉@@ 67
初音未來 67
包腳@@ 67
半指@@ 67
去死皮@@ 67
咖啡桌@@ 67
嘉義@@ 67
囍@@ 67
固齒器 67
國畫@@ 67
垢 67
墨綠色@@ 67
夏季新款韓版@@ 67
外套潮 67
大創@@ 67
大圓@@ 67
大小 67
天下 67
天天特價@@ 67
奇奇蒂蒂@@ 67
奴@@ 67
宮廷風@@ 67
富士 67
實戰 67
實穿@@ 67
專櫃正貨 67
小蒼蘭@@ 67
岡山@@ 67
工業 67
席夢思@@ 67
延時@@ 67
廷@@ 67
弓 67
慢 67
成犬 67
握把@@ 67
搶購 67
收納整理@@ 67
改造@@ 67
救星 67
教 67
散粉@@ 67
新品下殺@@ 67
新款夏季@@ 67
日本空運@@ 67
昂@@ 67
智能 67
晾曬@@ 67
暴力@@ 67
束口袋@@ 67
桂格@@ 67
梭@@ 67
棒棒@@ 67
極潤@@ 67
毫升 67
氣質時尚@@ 67
氣質款@@ 67
沖浪@@ 67
洗碗池@@ 67
深色@@ 67
添@@ 67
滿千@@ 67
漾 67
濕紙巾@@ 67
濟@@ 67
烙@@ 67
熊熊 67
爬行@@ 67
物語@@ 67
牽引@@ 67
玩家@@ 67
玻尿酸保濕@@ 67
現代簡約北歐@@ 67
理發@@ 67
男女皆可穿 67
男生衣著@@ 67
男鞋38 67
疏通@@ 67
皮具@@ 67
研 67
程式@@ 67
紀 67
維 67
纖 67
置物柜@@ 67
美國代購coach 67
美容院專用@@ 67
老虎 67
肌膚 67
肥皂 67
背光@@ 67
背心裙@@ 67
舒服 67
舞會@@ 67
艾瑪@@ 67
芭蕾舞@@ 67
蝦皮優選 67
螞蟻@@ 67
衛生間置物架@@ 67
裝潢 67
裝飾燈 67
襠@@ 67
親膚 67
計劃@@ 67
調酒@@ 67
謙@@ 67
足銀@@ 67
躲@@ 67
軟墊@@ 67
輸出 67
软@@ 67
返@@ 67
過濾網 67
鈦 67
鍋家用@@ 67
鐵製@@ 67
防撞 67
際@@ 67
雜物 67
韌@@ 67
頭型@@ 67
飯廳@@ 67
飯桌 67
香檳金 67
駕車鞋@@ 67
魔法 67
鮭魚@@ 67
鴛鴦 67
鴨舌@@ 67
黑檀@@ 67
黑眼圈@@ 67
黑科技@@ 67
10mm@@ 66
11代@@ 66
12個月@@ 66
12色 66
1450@@ 66
157 66
191 66
20吋@@ 66
246 66
247@@ 66
480 66
50cm 66
708 66
aape 66
amo@@ 66
bally@@ 66
cle@@ 66
curry@@ 66
ddr4 66
dickies@@ 66
dre@@ 66
dress 66
e27 66
e5 66
fac@@ 66
fan@@ 66
ger@@ 66
girls 66
g點 66
hun@@ 66
i11 66
iphone5 66
kevin 66
ler 66
lip@@ 66
m8 66
maserati 66
ment@@ 66
mina 66
pants 66
pretty 66
rgb@@ 66
sisley 66
t1 66
una 66
wal@@ 66
wheels 66
young 66
ze 66
五星@@ 66
今天@@ 66
仙人掌 66
代購商城 66
低調@@ 66
佰@@ 66
便利店@@ 66
全包軟殼 66
公事包@@ 66
切肉@@ 66
力量@@ 66
加深@@ 66
半拖@@ 66
卡通兒童@@ 66
印花短袖@@ 66
原文書 66
可搭配@@ 66
史黛拉 66
咖啡店@@ 66
單邊@@ 66
國王@@ 66
城市 66
墊腳@@ 66
大花@@ 66
大靠背@@ 66
套裝男@@ 66
女士錢包 66
女用 66
奶泡@@ 66
妍 66
妻@@ 66
學測@@ 66
定製@@ 66
家用辦公@@ 66
小精靈 66
小黑板@@ 66
小黑裙@@ 66
尺寸m 66
屑@@ 66
巖@@ 66
川 66
帽踢 66
平日@@ 66
年代@@ 66
心動@@ 66
快餐@@ 66
手做@@ 66
托特@@ 66
扣帶@@ 66
抗過敏@@ 66
抵@@ 66
接收器 66
揚 66
換季@@ 66
擋板 66
支入 66
改變@@ 66
斗櫃 66
新北@@ 66
新款現貨 66
方向燈@@ 66
方向盤 66
時刻 66
普洱茶@@ 66
晴雨傘 66
晶片@@ 66
最低價@@ 66
杯組 66
柑仔店 66
榨汁@@ 66
機打@@ 66
歐美性感@@ 66
氣墊鞋@@ 66
水平@@ 66
汽修@@ 66
油壓@@ 66
法國代購 66
洗卸@@ 66
洗衣袋 66
游泳 66
湛@@ 66
潮流休閒@@ 66
烤爐 66
無線藍牙耳機 66
煎餅@@ 66
煙燻@@ 66
煥白@@ 66
熱水器@@ 66
熱熔@@ 66
爆款熱銷 66
牛軋糖@@ 66
特價秒殺 66
玟@@ 66
申@@ 66
男女生 66
男生休閒@@ 66
發帶@@ 66
白鋼@@ 66
眼線@@ 66
祈@@ 66
究極@@ 66
空氣劉海@@ 66
等級 66
等身抱枕 66
簡約現代實木@@ 66
米老鼠 66
精巧@@ 66
素材@@ 66
網卡 66
網紗拼接@@ 66
繫@@ 66
罪@@ 66
美甲飾品 66
翡翠玉@@ 66
色紙 66
花蓮@@ 66
苹果@@ 66
虛@@ 66
蠅@@ 66
觸感@@ 66
調料盒@@ 66
護套 66
護髮素 66
貝貝@@ 66
货@@ 66
輕透@@ 66
輸出@@ 66
運動休閒 66
過濾 66
酷炫@@ 66
鈞@@ 66
鈦金@@ 66
鋅@@ 66
錄音 66
镜@@ 66
閃光燈@@ 66
關 66
防踢被 66
陰蒂@@ 66
雪地靴@@ 66
零售 66
電子秤@@ 66
電競 66
青年男士@@ 66
非樂高@@ 66
鞋款 66
韓劇 66
顯瘦修身@@ 66
風機@@ 66
食玩@@ 66
香體@@ 66
鯊魚 66
鹿皮@@ 66
黃水晶@@ 66
鼠標 66
014 65
10吋@@ 65
1100 65
14吋@@ 65
206 65
3入組 65
4件組 65
502 65
537@@ 65
5v@@ 65
5米 65
60x@@ 65
6a 65
6代 65
75折 65
7cm 65
8cm@@ 65
ae 65
alpha 65
ard 65
ath 65
auto@@ 65
bit@@ 65
converse@@ 65
coo@@ 65
dl 65
dn@@ 65
dsq@@ 65
ei@@ 65
factory 65
fil@@ 65
gaming 65
garden 65
hm@@ 65
ina@@ 65
jump 65
koso 65
kv@@ 65
kymco 65
mio 65
nba球衣 65
nova@@ 65
od@@ 65
palette 65
pm@@ 65
pw 65
rg 65
rider 65
steam@@ 65
stussy@@ 65
swarovski@@ 65
swift 65
tas@@ 65
tennis 65
tg@@ 65
tin 65
trail 65
tro@@ 65
us7 65
v8@@ 65
vt 65
xl號 65
yang 65
your 65
zippo@@ 65
し@@ 65
一字扣帶@@ 65
三孔@@ 65
不分售 65
中大@@ 65
五分袖 65
什麼@@ 65
代購coach 65
休閑運動鞋@@ 65
佛經@@ 65
便簽@@ 65
保濕霜 65
信用卡夾 65
傳輸@@ 65
內里@@ 65
兩折錢包 65
出售@@ 65
分子@@ 65
分期 65
分析 65
初級@@ 65
前開@@ 65
加大尺碼 65
努@@ 65
北歐茶幾@@ 65
十一@@ 65
半袖體恤@@ 65
博 65
厚棉@@ 65
參考@@ 65
叢林@@ 65
合1@@ 65
吸汗 65
咖啡機@@ 65
哇@@ 65
售完@@ 65
喲 65
國內@@ 65
夏日 65
外出包 65
大眼仔 65
夾趾@@ 65
女士香水 65
好品質 65
如圖@@ 65
如約 65
威力@@ 65
存 65
宝宝@@ 65
家居裝飾@@ 65
家用全自動@@ 65
寶藍色@@ 65
專櫃貨 65
小宅女 65
小惡魔@@ 65
小直筒@@ 65
小飛象@@ 65
尖 65
屁@@ 65
工裝 65
已保留 65
巴士 65
帆船@@ 65
平板電腦 65
度假風@@ 65
後座@@ 65
微鑲@@ 65
忍 65
快感 65
恐@@ 65
悠遊@@ 65
情侶t恤 65
惜@@ 65
戰神 65
戰隊 65
手創@@ 65
手提單肩@@ 65
打亮 65
技嘉 65
拐杖@@ 65
摩托車頭盔@@ 65
摸@@ 65
數位小兔 65
日劇 65
日曆 65
日期 65
时尚 65
時尚款@@ 65
智能手環@@ 65
會社 65
期限@@ 65
桔梗@@ 65
梳妝臺 65
棉線@@ 65
棠@@ 65
榨@@ 65
榨汁機 65
榻榻米 65
橫式@@ 65
正常 65
沖繩@@ 65
泰國佛牌@@ 65
活塞@@ 65
浴衣@@ 65
消毒 65
清理@@ 65
游泳池@@ 65
湖人@@ 65
滿千折百 65
瀝@@ 65
热销@@ 65
焗@@ 65
熱銷新品 65
牙籤@@ 65
狀況@@ 65
狐貍@@ 65
獲@@ 65
玫瑰金色@@ 65
現貨出清@@ 65
現貨新款@@ 65
男款短t 65
發熱衣 65
發燒@@ 65
百萬@@ 65
的一@@ 65
皮箱@@ 65
破損@@ 65
礼@@ 65
祛斑@@ 65
秋冬保暖@@ 65
童裝男童@@ 65
籤@@ 65
粘鉤@@ 65
紙杯@@ 65
絲光@@ 65
美學@@ 65
羽絨棉@@ 65
翻蓋式@@ 65
翻領 65
老闆 65
聖誕節禮物 65
肌密@@ 65
肚臍@@ 65
育兒@@ 65
臺式機@@ 65
萍 65
蒂芙尼@@ 65
蒲團@@ 65
蘋果手機@@ 65
蛇皮@@ 65
解憂@@ 65
試題@@ 65
詹@@ 65
請看@@ 65
買10送1 65
质@@ 65
超值 65
超商免運 65
跆拳道@@ 65
輕量慢跑鞋 65
連身短褲 65
運動毛巾 65
金士頓 65
金魚@@ 65
釣蝦@@ 65
鋁圈 65
鐵藝實木@@ 65
陳 65
隔層 65
雜貨鋪@@ 65
離子夾 65
電子琴@@ 65
電子鍋 65
電波@@ 65
露腰@@ 65
願 65
飾品盒 65
餅乾鞋 65
鬆 65
魚骨@@ 65
鱼@@ 65
007@@ 64
100張 64
1028 64
11號 64
182 64
1盒@@ 64
207 64
245 64
24v 64
2mm 64
30公分 64
368@@ 64
38號 64
3mm@@ 64
4ml 64
997@@ 64
a57 64
af1@@ 64
apm 64
app 64
aso@@ 64
bask 64
bigbang 64
car 64
costco@@ 64
denim 64
dog 64
dp@@ 64
eco 64
f1@@ 64
fish 64
glow 64
gore 64
hc 64
iw@@ 64
jk 64
jm 64
kiss@@ 64
kw@@ 64
lar@@ 64
lit@@ 64
lov@@ 64
lv8 64
lv單肩包 64
m20@@ 64
m64@@ 64
nex 64
oc 64
pap@@ 64
pei 64
pi 64
pilot 64
pw@@ 64
real@@ 64
republic 64
salvatore 64
sol 64
sunny 64
sym 64
tn 64
t恤短袖@@ 64
ur 64
velvet 64
vios 64
ー 64
ㄚ@@ 64
不鏽鋼帶@@ 64
丫@@ 64
串標 64
丶@@ 64
之夜 64
二手精品 64
亨@@ 64
便攜迷你@@ 64
健身運動@@ 64
偶像夢幻祭 64
優優@@ 64
內徑@@ 64
全店@@ 64
兩件 64
冰沙@@ 64
加工@@ 64
勳@@ 64
午睡枕 64
半自動@@ 64
卸甲@@ 64
古馳gucci@@ 64
可單@@ 64
可坐可躺@@ 64
可愛貓咪@@ 64
可肩背@@ 64
名牌 64
告白@@ 64
單肩斜跨包@@ 64
單門@@ 64
固定 64
國中@@ 64
垂感@@ 64
多效@@ 64
大顆粒@@ 64
奇奇 64
奢侈@@ 64
奧 64
好物推薦 64
學校 64
學步車@@ 64
客制@@ 64
寬松直筒@@ 64
寬鬆百搭@@ 64
寶寶玩具@@ 64
少女心 64
尖端 64
廚房置物架 64
強磁@@ 64
彈弓@@ 64
復古懷舊@@ 64
心理學 64
情侶對@@ 64
情緒@@ 64
手圍@@ 64
拉鏈零錢包 64
掃把@@ 64
排線 64
提拉@@ 64
收藏品 64
敗@@ 64
教室 64
整體@@ 64
數學 64
斬@@ 64
新貨 64
方塊 64
时@@ 64
昆@@ 64
昱@@ 64
晶晶 64
曦@@ 64
書架置物架@@ 64
杖 64
柚木@@ 64
柜臺@@ 64
棒球 64
極度@@ 64
樂團 64
櫥 64
櫥櫃 64
歌林 64
歐式簡約@@ 64
歐美大牌@@ 64
正品nike 64
求生@@ 64
泳圈 64
洗護@@ 64
滑行@@ 64
漏水@@ 64
演出服 64
激情套裝@@ 64
瀏海夾 64
火山泥@@ 64
熬夜@@ 64
珍妮@@ 64
瑕疵 64
百搭上衣 64
皆可@@ 64
皮帶扣@@ 64
皿 64
睡墊@@ 64
石膏@@ 64
砲@@ 64
禮物盒 64
秘書@@ 64
穗@@ 64
第四@@ 64
紅花@@ 64
紋眉@@ 64
線香@@ 64
细@@ 64
美日@@ 64
職場@@ 64
聽 64
肖@@ 64
脫毛膏@@ 64
腳踝@@ 64
芷@@ 64
荒野@@ 64
莫斯奇諾@@ 64
蒼蠅@@ 64
蘆@@ 64
蜜粉餅 64
螢@@ 64
行車記錄儀@@ 64
衛生間廁所@@ 64
衣架落地@@ 64
表演服 64
議價 64
護色@@ 64
豬豬@@ 64
販 64
賽琳@@ 64
軟底 64
輔助器@@ 64
輪滑@@ 64
轉向@@ 64
連身褲@@ 64
針線@@ 64
鍋寶@@ 64
門票 64
门@@ 64
防彈少年團@@ 64
限宅配 64
限時秒殺 64
隔熱 64
雙環@@ 64
雙頻@@ 64
雲端@@ 64
雷霆s 64
電吉他@@ 64
鞋架子 64
韓款@@ 64
韻 64
頭繩@@ 64
頻 64
飛碟@@ 64
養生 64
骨瓷@@ 64
高爾夫 64
高音質@@ 64
麥片 64
023 63
12月@@ 63
14cm 63
1個@@ 63
1包 63
209 63
224 63
2400 63
24小時出貨 63
2件組 63
345 63
366 63
3吋@@ 63
6000@@ 63
604 63
605 63
655 63
702 63
957@@ 63
ane 63
aro@@ 63
ass@@ 63
flower 63
gift 63
gogoro@@ 63
grace 63
gtx 63
hco@@ 63
ios 63
ker 63
lativ@@ 63
laura 63
m6 63
makita 63
momo 63
mw@@ 63
nie 63
qposket 63
rel@@ 63
smith@@ 63
sn 63
t5 63
td 63
thunder 63
togo@@ 63
vc 63
zy 63
一件代發 63
不凋花 63
不拆賣 63
不用等 63
中大童 63
二手家具 63
代籃球鞋@@ 63
休閒運動鞋@@ 63
便宜出售 63
保存良好 63
保護膜@@ 63
健 63
健腹@@ 63
免稅@@ 63
六一@@ 63
出水@@ 63
出游@@ 63
刀叉@@ 63
分期@@ 63
刊@@ 63
功率@@ 63
勇者@@ 63
化妝台@@ 63
北京@@ 63
匣@@ 63
升降轉椅@@ 63
博美@@ 63
原木 63
原生@@ 63
原礦 63
可搭@@ 63
可撕@@ 63
可改@@ 63
可機洗@@ 63
吸血鬼@@ 63
呵護@@ 63
唯一@@ 63
喉@@ 63
單顆@@ 63
在家@@ 63
坐姿 63
基地 63
壽 63
夏季純棉@@ 63
多功能折疊@@ 63
女性 63
如意 63
娛樂@@ 63
婚鞋@@ 63
宝@@ 63
家居飾品@@ 63
家用折疊@@ 63
容量 63
寇@@ 63
實拍圖 63
寫字板@@ 63
小叮噹@@ 63
小櫃子@@ 63
居家服@@ 63
巢@@ 63
巨無霸 63
幕 63
平角內褲 63
床罩 63
床雙人@@ 63
床頭柜 63
店長@@ 63
庫存 63
廣場舞@@ 63
彪馬puma 63
復古老爹鞋 63
微喇叭@@ 63
微波爐 63
截@@ 63
手游@@ 63
披@@ 63
抱抱@@ 63
抽氣@@ 63
捷 63
搖控@@ 63
摩卡@@ 63
教育 63
數據@@ 63
新生兒寶寶@@ 63
新生嬰兒@@ 63
旅行背包@@ 63
春季新款韓版@@ 63
春秋季新款@@ 63
春秋薄款@@ 63
時尚百搭短袖 63
晶片 63
更新@@ 63
望遠鏡 63
松鼠 63
桌球@@ 63
桑拿@@ 63
棒壘@@ 63
極 63
極淨@@ 63
標示@@ 63
毛領@@ 63
水水@@ 63
汗 63
泡麵@@ 63
洗澡桶@@ 63
洛麗塔@@ 63
洞洞鞋@@ 63
液晶電視@@ 63
淋浴房@@ 63
淋雨@@ 63
漂浮@@ 63
潤髮乳 63
澆花@@ 63
烏克麗麗 63
無線藍牙音箱@@ 63
無蓋@@ 63
煤氣@@ 63
熱銷中@@ 63
牛仔短裙 63
牛仔背帶@@ 63
猿@@ 63
玻璃貼紙@@ 63
生技 63
男朋友@@ 63
男短t 63
發圈@@ 63
百搭單品 63
百科 63
盥洗包 63
短踢 63
硬筆@@ 63
碗碟架@@ 63
社團 63
祝@@ 63
神器家用@@ 63
福字@@ 63
秋裝新款韓版@@ 63
立體造型@@ 63
笔@@ 63
第三彈 63
簡易經濟型@@ 63
精品屋 63
精裝 63
紀念品@@ 63
紙尿褲 63
紙袋@@ 63
素食@@ 63
細肩帶 63
絕地求生@@ 63
絞肉@@ 63
絨布 63
綴@@ 63
美臀@@ 63
肛@@ 63
胡桃色@@ 63
腰凳@@ 63
臥室餐廳@@ 63
艙@@ 63
芥@@ 63
荔枝紋牛皮 63
蜜蜂 63
螢幕貼 63
蟎@@ 63
蟻@@ 63
補漏@@ 63
西門@@ 63
西餐廳@@ 63
貳@@ 63
購物包@@ 63
超讚 63
踝靴 63
車燈 63
軟軟 63
較@@ 63
輕 63
輕便透氣@@ 63
輕巧 63
辭典 63
農場@@ 63
边@@ 63
通道@@ 63
運動跑鞋 63
金冠@@ 63
金牌@@ 63
金融@@ 63
鈴鐺 63
鐵三角 63
鑚@@ 63
長頸鹿@@ 63
阪@@ 63
防水台@@ 63
防水袋 63
雷姆 63
電信@@ 63
電飯煲@@ 63
顯示卡 63
餐車@@ 63
駕車@@ 63
高亮@@ 63
高音@@ 63
髮廊@@ 63
麥克@@ 63
黏 63
1000片@@ 62
10cm@@ 62
162 62
176 62
19新款 62
306 62
308 62
32mm 62
345@@ 62
3個月@@ 62
3米@@ 62
4a@@ 62
5m1 62
704 62
amp 62
ar5@@ 62
c1 62
carbon 62
cin@@ 62
cou@@ 62
cre@@ 62
c型@@ 62
ear@@ 62
eq@@ 62
eye@@ 62
f10 62
fragment 62
friends@@ 62
h扣@@ 62
ion 62
just@@ 62
kawasaki 62
kin 62
kor@@ 62
land@@ 62
light@@ 62
lv男女@@ 62
martens 62
mega 62
mimi 62
miumiu@@ 62
mont 62
nx 62
omega@@ 62
pazzo@@ 62
pb 62
plein@@ 62
ps2 62
ren 62
s75@@ 62
s79@@ 62
sab@@ 62
sport@@ 62
t5@@ 62
u凸@@ 62
vault 62
vcd 62
wil@@ 62
wireless 62
xxxl碼 62
y5@@ 62
zb@@ 62
三款@@ 62
三洋@@ 62
上身@@ 62
丟@@ 62
二手衣@@ 62
二用@@ 62
五件組 62
五斗柜@@ 62
京都@@ 62
亮采@@ 62
介 62
伴娘服@@ 62
佳人 62
依依@@ 62
係@@ 62
保平安 62
保溼@@ 62
保潔墊 62
保養品 62
修腳@@ 62
倒掛@@ 62
側開@@ 62
允@@ 62
光纖@@ 62
內衣褲@@ 62
全新原廠@@ 62
全真皮@@ 62
全配 62
冰機 62
冰機@@ 62
冰淇淋 62
切絲@@ 62
初音 62
動物園 62
化妝 62
半 62
半盔@@ 62
原廠電池 62
原色 62
古早味@@ 62
古銅色@@ 62
可挑@@ 62
呼@@ 62
哈衣@@ 62
哨@@ 62
哺乳衣 62
單身@@ 62
噴瓶 62
地瓜@@ 62
堆堆@@ 62
塑料 62
壁飾 62
夏涼被@@ 62
多人@@ 62
奪@@ 62
女性香水 62
女生配件 62
妳 62
威化@@ 62
嬰兒車 62
學生情侶@@ 62
官 62
定制logo@@ 62
封面 62
專業代購 62
尊 62
小冰箱@@ 62
小獅王辛巴 62
小艾@@ 62
少量@@ 62
屏東@@ 62
崁@@ 62
川久保玲 62
工程車 62
布書 62
帶麥@@ 62
平價 62
平安扣@@ 62
平頭@@ 62
床頭 62
座充 62
建議@@ 62
御守 62
微波爐架@@ 62
慾@@ 62
成套@@ 62
手拉車@@ 62
手機吊飾 62
扣環 62
抽紙盒 62
拖鞋男@@ 62
拿鐵@@ 62
指 62
指南 62
排氣@@ 62
攝像機@@ 62
改色@@ 62
故@@ 62
新世紀@@ 62
方巾@@ 62
書寶二手書t8 62
木桶@@ 62
木耳@@ 62
枕頭包@@ 62
果果@@ 62
條碼@@ 62
棋盤@@ 62
業務@@ 62
榨汁機@@ 62
機械 62
母親節 62
毛器@@ 62
毛毛 62
水筆@@ 62
油壺@@ 62
泳帽 62
洗漱包@@ 62
洛 62
浮標 62
清洗 62
游泳圈@@ 62
漫步@@ 62
潤滑@@ 62
灶臺@@ 62
無線wifi@@ 62
無線遙控@@ 62
無鋼圈 62
無限 62
煤@@ 62
熏香@@ 62
爬蟲@@ 62
特種兵@@ 62
狂歡大促銷 62
狼牙@@ 62
猜@@ 62
珍藏 62
環境@@ 62
男襪 62
當天@@ 62
療癒小物 62
發射器 62
直郵 62
眉筆@@ 62
睫毛膏@@ 62
碳化@@ 62
碳粉匣 62
磨砂皮@@ 62
禮品盒@@ 62
窗簾成品@@ 62
窗紗@@ 62
立柱@@ 62
節慶@@ 62
範 62
簾子@@ 62
精品女鞋@@ 62
精梳棉@@ 62
結構@@ 62
線組 62
縷空@@ 62
置物架子@@ 62
羊羔絨@@ 62
美國直郵 62
老婆@@ 62
考試 62
胸花@@ 62
膠鞋@@ 62
航拍@@ 62
范斯 62
莓 62
萃 62
蒲@@ 62
蔻馳新款@@ 62
蘿卜@@ 62
行李包@@ 62
衛生紙 62
裤 62
託@@ 62
語言@@ 62
豐盈@@ 62
超小@@ 62
超輕 62
路飛@@ 62
軸承@@ 62
轉接器 62
農場 62
逆齡@@ 62
速出 62
連身 62
進門口@@ 62
逼@@ 62
還原@@ 62
都可以@@ 62
量大@@ 62
針織衣 62
鋪棉 62
鐲 62
闊@@ 62
關注@@ 62
防側翻@@ 62
防塵袋 62
防火@@ 62
阿迪達斯adidas 62
陳冠希 62
陸 62
隔斷柜@@ 62
隨便@@ 62
雙槽@@ 62
雜貨館 62
電冰箱 62
電吉他 62
電子秤 62
電熱水壺@@ 62
霓@@ 62
飯店 62
高幫鞋@@ 62
高空@@ 62
高鐵@@ 62
鴿@@ 62
鸚鵡 62
黑水鬼@@ 62
10w 61
149 61
173 61
2017春季新款@@ 61
218@@ 61
231 61
307 61
308@@ 61
30包 61
312 61
314@@ 61
322 61
3人@@ 61
4d 61
4吋@@ 61
523@@ 61
7成新 61
906 61
a1@@ 61
a51 61
ag 61
ala@@ 61
ama 61
ao 61
cars 61
cherry 61
cosplay服裝@@ 61
daybreak 61
ea7 61
ford@@ 61
gtx@@ 61
gucci長夾 61
han 61
hf 61
homme 61
j2 61
k2g27@@ 61
ken 61
lon 61
lr@@ 61
lv包 61
m9 61
maru@@ 61
miu@@ 61
oc@@ 61
ou 61
perfect 61
pokémon 61
porter@@ 61
rb 61
red@@ 61
set@@ 61
ster@@ 61
sto@@ 61
stuart 61
t365 61
thea 61
tom@@ 61
tsum@@ 61
vip 61
wx@@ 61
xl碼 61
xz@@ 61
yes 61
フ@@ 61
三宅一生@@ 61
三條@@ 61
上班族 61
不到@@ 61
不拆售 61
不掉毛@@ 61
中藥@@ 61
交換禮物@@ 61
亮眼@@ 61
代步車 61
低價促銷 61
促销 61
保冰@@ 61
修正@@ 61
假兩件 61
儲水@@ 61
儿@@ 61
光動能@@ 61
光盤@@ 61
全新黑色@@ 61
全明星 61
全金屬@@ 61
公園 61
冰晶@@ 61
冷水壺@@ 61
刮鬍刀 61
午夜@@ 61
半身裙女@@ 61
华@@ 61
卡哇伊@@ 61
卡車@@ 61
卷紙@@ 61
卷邊@@ 61
卸妝水 61
厚實@@ 61
古馳皮帶 61
可發貨到付款 61
吊帶連衣裙@@ 61
吸管杯@@ 61
咬咬@@ 61
品出清 61
品木宣言 61
商務正裝@@ 61
噴劑@@ 61
噴槍 61
國民@@ 61
地區@@ 61
地圖@@ 61
地柜 61
垃圾桶家用@@ 61
塑封@@ 61
塑形@@ 61
外套m 61
大海@@ 61
大耳狗 61
大馬 61
天然翡翠@@ 61
太空灰 61
女仆@@ 61
女生上衣 61
婚宴@@ 61
家用實木@@ 61
寬邊@@ 61
寶寶鞋 61
寶緹嘉 61
專業級@@ 61
對戒 61
對錶 61
小心@@ 61
尾戒 61
居家裝飾@@ 61
展架@@ 61
希臘@@ 61
帖 61
带 61
平口 61
床墊1 61
序@@ 61
底片 61
快煮壺 61
愛迪達三葉草@@ 61
感應燈 61
戰國@@ 61
手腕包 61
拉繩@@ 61
捷運@@ 61
掛壁@@ 61
效果器 61
文具盒@@ 61
文藝復古@@ 61
斯卡@@ 61
新款女包 61
明治@@ 61
暖 61
書寶二手書t2 61
書架簡易@@ 61
木材@@ 61
李 61
果汁 61
格林@@ 61
格蘭@@ 61
桂圓@@ 61
梅子@@ 61
梨 61
楓木@@ 61
機械男錶 61
橡膠 61
檜木@@ 61
正韓上衣 61
此款@@ 61
比特@@ 61
氣墊跑鞋 61
水槽 61
汽車內@@ 61
汽車工具 61
沖洗@@ 61
泛@@ 61
浴室柜組合@@ 61
浴巾架@@ 61
海邊 61
清淨@@ 61
湯碗 61
演奏@@ 61
灰綠 61
然 61
照相機@@ 61
燈管 61
片入 61
牙簽@@ 61
物品 61
特價優惠 61
犬用@@ 61
玫瑰粉 61
玻璃貼膜 61
珠子@@ 61
珪藻土@@ 61
球包 61
瑜珈 61
甜甜圈 61
生產@@ 61
田宮@@ 61
發現@@ 61
百樂 61
皮革材質 61
直角@@ 61
直送@@ 61
短款錢包@@ 61
短袖t@@ 61
破盤@@ 61
硬盤@@ 61
碳纖 61
祝福 61
神仙@@ 61
粉紅豬小妹 61
粘貼式@@ 61
精品店@@ 61
精神@@ 61
精靈寶可夢@@ 61
紅外@@ 61
紓困振興 61
紙膠帶分裝 61
絡@@ 61
綁 61
翹臀@@ 61
耳勾 61
股東會紀念品 61
花邊 61
芸 61
菁 61
萍@@ 61
蕾絲邊@@ 61
蜥蜴@@ 61
蟑螂@@ 61
蠟線@@ 61
製冰@@ 61
複方@@ 61
複製@@ 61
襯衫外套 61
西藏@@ 61
視 61
觸控 61
設計感小眾@@ 61
費雪@@ 61
跳跳虎 61
蹲@@ 61
車衣 61
軍綠色 61
轉售@@ 61
連 61
遊戲書 61
運動長褲@@ 61
遮蓋@@ 61
鋼針 61
錬@@ 61
鎧@@ 61
鑽耳環 61
長方形 61
長絨棉@@ 61
防水尼龍@@ 61
防風防水@@ 61
陀@@ 61
附cd 61
陰陽 61
面紙@@ 61
韓國製@@ 61
預訂@@ 61
額 61
顏料 61
顯瘦遮肚@@ 61
馬牌 61
馬車 61
體重計 61
鬍子 61
魚口@@ 61
魚子醬 61
魚缸 61
黑水鬼 61
點數 61
1000片 60
1050 60
1100@@ 60
128g@@ 60
158@@ 60
1620@@ 60
18新款@@ 60
253 60
35mm 60
510 60
5片 60
609 60
666 60
6p 60
75g 60
8l 60
ada 60
ak 60
alo@@ 60
ax5 60
bathing 60
bb6@@ 60
bri@@ 60
ck皮帶 60
deluxe 60
eagle 60
elle 60
fire 60
fol@@ 60
fuji@@ 60
god@@ 60
gts 60
gw@@ 60
hy 60
i7@@ 60
igo@@ 60
jill 60
lomo@@ 60
lv男包 60
m8@@ 60
mah 60
melody@@ 60
moncler 60
nat@@ 60
only 60
plu@@ 60
poli 60
rosherun 60
sandisk 60
show@@ 60
sv 60
tomica@@ 60
v7 60
w205 60
wtaps 60
く@@ 60
一張@@ 60
一顆@@ 60
三門@@ 60
主食罐 60
五件套@@ 60
休閒女包 60
伶@@ 60
倍思@@ 60
倩碧 60
優格@@ 60
兒代購 60
兒童節@@ 60
內六角@@ 60
全場特價 60
全新正貨 60
公路車 60
冰冰@@ 60
凉@@ 60
几@@ 60
分裝盒 60
列印@@ 60
初音@@ 60
刷具組 60
刷牙@@ 60
前列腺@@ 60
加大號@@ 60
勝利@@ 60
化妝盒 60
北歐小戶型@@ 60
半月@@ 60
卡通圖案@@ 60
印花字母@@ 60
厚磅@@ 60
原始@@ 60
原廠保固 60
可愛創意@@ 60
可擦@@ 60
咖哩 60
問 60
喬 60
四季 60
坎@@ 60
墻畫@@ 60
大底@@ 60
天梭@@ 60
夫人@@ 60
奧地利@@ 60
女生手錶 60
嬌蘭 60
定價@@ 60
專賣店@@ 60
尋寶@@ 60
小禮品@@ 60
少女時代 60
嵌入式@@ 60
工具包 60
布袋@@ 60
干燥@@ 60
平底涼鞋 60
平衡車 60
德國進口@@ 60
性感情趣內衣@@ 60
戀人@@ 60
手工藝@@ 60
手帕@@ 60
手持風扇 60
手錶男@@ 60
扭扭@@ 60
挖肩@@ 60
排氣管@@ 60
推薦款 60
換鞋@@ 60
擬@@ 60
收副乳@@ 60
散裝 60
文具盒 60
日本空運 60
春日@@ 60
時尚修身@@ 60
時尚款 60
普拉@@ 60
暑@@ 60
暴龍@@ 60
朋@@ 60
条@@ 60
桌曆 60
棉被 60
欧@@ 60
正品公司貨 60
死皮@@ 60
毫@@ 60
汽車模型@@ 60
汽車貼紙 60
汽車遮陽@@ 60
泡溫泉@@ 60
浴室置物架 60
浴盆 60
满@@ 60
漱口杯@@ 60
潮流時尚 60
濱@@ 60
烏龍@@ 60
無痛@@ 60
煥顏@@ 60
爆款熱賣@@ 60
牛仔外套@@ 60
牛仔寬褲 60
牛皮手提包 60
牛皮錢包 60
獻@@ 60
玉髓@@ 60
玻尿酸 60
男士手拿包 60
男夾 60
男款手錶 60
百搭修身@@ 60
真愛@@ 60
眼膜@@ 60
矢@@ 60
知識@@ 60
私房@@ 60
空頂@@ 60
第三版 60
筋膜@@ 60
精華乳 60
純棉短袖t恤@@ 60
純正@@ 60
索 60
索隆@@ 60
網兜@@ 60
綾@@ 60
緩解@@ 60
縣@@ 60
總裁@@ 60
罐頭@@ 60
置物箱 60
羽絨棉服@@ 60
翻譯@@ 60
脂肪@@ 60
腳套@@ 60
膳魔師 60
自來水@@ 60
自動扣@@ 60
舒敏@@ 60
花鳥@@ 60
范冰冰@@ 60
茹@@ 60
蒸鍋@@ 60
蓋子 60
蓬松@@ 60
蛋捲@@ 60
行李箱女@@ 60
街頭潮流@@ 60
褲頭@@ 60
襪子女@@ 60
襯衫上衣 60
訂購 60
計畫 60
訊 60
詢問客服 60
試衣鏡@@ 60
護照@@ 60
豬肉@@ 60
貓玩具 60
貓用@@ 60
貓飼料 60
貝殼包@@ 60
購回 60
走心@@ 60
超質感@@ 60
足球鞋 60
車充@@ 60
車殼 60
車載 60
車載香水@@ 60
軍綠色@@ 60
轉蛋@@ 60
辦公桌面@@ 60
透氣舒適 60
逗貓@@ 60
道路@@ 60
選物 60
部分@@ 60
郵局@@ 60
針管@@ 60
釣竿@@ 60
鈦合金@@ 60
銷售 60
門檻@@ 60
閃燈@@ 60
防偽@@ 60
防摔保護殼 60
防走失@@ 60
隨身 60
雙釦@@ 60
雨披@@ 60
電鉆@@ 60
鞋店 60
韓國飾品 60
音樂盒 60
項 60
預約@@ 60
題庫@@ 60
首飾收納盒@@ 60
馬鞍包@@ 60
髮梳 60
鳥巢@@ 60
黑勾 60
黑標 60
齒 60
110cm 59
11pro@@ 59
141 59
14吋 59
1970s@@ 59
2007@@ 59
2012@@ 59
2019年新款@@ 59
211 59
214 59
24h 59
256@@ 59
2吋 59
2張 59
300元 59
327 59
388@@ 59
3件免運 59
739 59
777 59
820@@ 59
905 59
alphabounce 59
bel@@ 59
cer@@ 59
champion冠軍@@ 59
ck手錶@@ 59
code 59
cotton 59
cross 59
doll 59
dry 59
edp 59
flux 59
force@@ 59
fx 59
g5@@ 59
gn@@ 59
hifi@@ 59
j1 59
jan@@ 59
ley 59
loewe@@ 59
m0@@ 59
max90 59
moon@@ 59
q10@@ 59
shi 59
social 59
space@@ 59
sportswear 59
sus@@ 59
two@@ 59
uemura 59
ul 59
v5 59
vel@@ 59
well 59
whoo 59
xw 59
yaris 59
zs@@ 59
り@@ 59
ん@@ 59
プ@@ 59
一隻@@ 59
三折錢包 59
三陽 59
不生@@ 59
中款@@ 59
主持@@ 59
主義@@ 59
主食@@ 59
之王 59
乾燥花束 59
二手品 59
交叉 59
供燈@@ 59
保暖衣 59
值得@@ 59
偏光墨鏡 59
做 59
偽娘@@ 59
充電傳輸線 59
全國@@ 59
全電壓 59
六 59
冷飲@@ 59
化學 59
十年@@ 59
千 59
卷發棒@@ 59
原創設計@@ 59
參考 59
口徑@@ 59
另類@@ 59
史萊姆 59
合奏明星 59
合購@@ 59
合金車@@ 59
名家@@ 59
吸力@@ 59
喜帖 59
單靴@@ 59
噴 59
四月@@ 59
四輪滑板@@ 59
培 59
多件@@ 59
大促 59
大和@@ 59
大戰 59
大碼寬松@@ 59
奢華 59
妻 59
婷婷@@ 59
子母包@@ 59
宣紙@@ 59
宮崎駿@@ 59
寵物玩具 59
封口機 59
專屬下標區 59
專櫃同步@@ 59
專科@@ 59
導軌@@ 59
小吃 59
小晴 59
小款@@ 59
小羊@@ 59
小背心@@ 59
小馬 59
工具套裝 59
工廠直營 59
巴洛克@@ 59
帝王@@ 59
帽tee 59
幫 59
平民版 59
平紋@@ 59
序號 59
彥@@ 59
微彈@@ 59
心理@@ 59
快速發貨 59
怎麼@@ 59
性感v領@@ 59
成人專區 59
戰馬 59
房間臥室@@ 59
抓夾 59
抱枕靠墊@@ 59
按鍵 59
掌 59
搶購@@ 59
摘@@ 59
擦拭布 59
攀爬@@ 59
支架式@@ 59
收單 59
收納桶 59
新一代@@ 59
新上市 59
新娘 59
新潮@@ 59
日本正品 59
昊@@ 59
春季新款 59
時尚舒適@@ 59
時尚運動@@ 59
晶透@@ 59
智慧型手機 59
柿@@ 59
楷@@ 59
橘紅 59
次元@@ 59
正韓上衣@@ 59
永生@@ 59
汝@@ 59
汽車內飾@@ 59
汽車坐墊@@ 59
沙發套罩@@ 59
法蘭絨 59
注水@@ 59
浴室柜@@ 59
海外限定 59
淨膚@@ 59
淺灰@@ 59
測 59
湊@@ 59
照片墻@@ 59
牙刷架@@ 59
牛仔吊帶褲 59
率 59
珍藏版 59
理想@@ 59
琦 59
生活用品@@ 59
男女可穿 59
男女通用款 59
留香@@ 59
的賣場 59
皇室@@ 59
盲盒@@ 59
真皮男士@@ 59
矮桌@@ 59
石榴@@ 59
硯@@ 59
碧璽 59
票夾 59
禮品袋 59
秋冬韓版@@ 59
秋裝 59
穴 59
立領外套 59
端午@@ 59
第一彈 59
簡約風@@ 59
簡體@@ 59
紅心@@ 59
組裝模型 59
給 59
綢緞@@ 59
網球鞋 59
織布@@ 59
繼@@ 59
繽@@ 59
美國進口 59
老 59
耗材 59
肥皂盒 59
膩子@@ 59
自動傘 59
臺式電腦桌@@ 59
船型襪 59
花式@@ 59
花果@@ 59
花生 59
華倫天奴@@ 59
萬事@@ 59
落地扇@@ 59
葉子 59
蒸煮@@ 59
蓬蓬裙 59
薰香@@ 59
蝶 59
螺 59
袖套@@ 59
裝扮 59
裝飾燈@@ 59
親 59
誼@@ 59
識別證 59
變頻 59
賬@@ 59
超商取貨 59
足底@@ 59
跡@@ 59
軟邊@@ 59
轎車@@ 59
達特@@ 59
達菲熊@@ 59
都 59
釀@@ 59
錐形@@ 59
鍍膜 59
鏈帶包 59
钢@@ 59
長皮夾 59
開拓者@@ 59
防撞條 59
防曬遮陽@@ 59
防曬霜 59
防水手錶 59
附 59
陵@@ 59
集線器 59
雪人@@ 59
電力@@ 59
電腦臺式@@ 59
電腦臺式桌@@ 59
電量@@ 59
頂級品質 59
顏色隨機出貨 59
香水100ml 59
高中生@@ 59
魚尾裙 59
鳳 59
鳳梨 59
鴨嘴@@ 59
黑豆@@ 59
齋@@ 59
017 58
018 58
165@@ 58
20mm 58
20元 58
20吋 58
213@@ 58
223 58
2米1 58
326 58
3條@@ 58
4000 58
4款@@ 58
503 58
545@@ 58
5c 58
5w@@ 58
705 58
747@@ 58
888@@ 58
9789869@@ 58
9折@@ 58
9號@@ 58
a14@@ 58
arashi 58
arc 58
armani阿瑪尼ar@@ 58
authentic 58
bell 58
bp 58
bts防彈少年團 58
can 58
costco代購 58
cp9@@ 58
cu 58
cushion 58
f3@@ 58
giant 58
gn 58
gra@@ 58
gucci男款@@ 58
hf@@ 58
human 58
il 58
iz 58
jen@@ 58
jojo 58
jt 58
kelly@@ 58
lala@@ 58
legend 58
lego樂高 58
lm 58
lunar@@ 58
lv錢包 58
m612@@ 58
mama@@ 58
marcelo 58
mark@@ 58
mit台灣製 58
nine 58
oli@@ 58
ons 58
party@@ 58
pb@@ 58
playboy 58
princess 58
prophere 58
rain@@ 58
shoulder 58
t2 58
t6@@ 58
tai@@ 58
tws@@ 58
u領@@ 58
west 58
xf@@ 58
yuanroro@@ 58
一張 58
七 58
三眼計時 58
上網@@ 58
不掉@@ 58
中型 58
五斗@@ 58
五月天 58
交 58
人緣 58
休閒短袖 58
保羅 58
克蘭詩 58
免運現貨 58
免郵 58
內衣收納盒@@ 58
全新真品@@ 58
全透明@@ 58
兩用被@@ 58
公主裙 58
冰河@@ 58
出行@@ 58
剎@@ 58
加州@@ 58
勢 58
南非@@ 58
印花短袖 58
印花短袖t恤 58
原料 58
及膝裙 58
古馳gucci 58
合金車 58
吸塵@@ 58
哈衣 58
喝水@@ 58
單耳@@ 58
噴槍@@ 58
四驅@@ 58
地獄@@ 58
垂直@@ 58
堅果 58
壓線@@ 58
夏季冰絲@@ 58
夜店 58
大沿@@ 58
大腳@@ 58
天然緬甸@@ 58
夹@@ 58
奧迪 58
女朋友@@ 58
始@@ 58
娃娃機商品 58
學生女@@ 58
學院 58
安撫奶嘴 58
家居服套裝 58
密碼鎖 58
實務 58
寫作@@ 58
寫生@@ 58
對戰@@ 58
小怪獸 58
小牛@@ 58
少量現貨 58
尺寸s 58
工具車 58
巴士@@ 58
床品@@ 58
床邊桌@@ 58
廚房收納 58
性感露肩@@ 58
性感露背@@ 58
愛情 58
憲@@ 58
手拎包 58
技 58
拉麵 58
指環扣 58
提醒@@ 58
摺疊 58
擦手@@ 58
攤 58
支撐 58
整理架 58
新款秒殺 58
旋 58
日記本@@ 58
旦@@ 58
會議桌@@ 58
有保固 58
板材@@ 58
染色@@ 58
核 58
棉柔@@ 58
正版公仔 58
死亡@@ 58
母親節禮物 58
毛毛蟲@@ 58
毛絨玩具 58
氣壓式@@ 58
水乳@@ 58
洋基@@ 58
洋芋片 58
流浪@@ 58
海星@@ 58
淡水@@ 58
淨水器 58
清爽型 58
滅菌@@ 58
漿 58
潤唇膏@@ 58
濕 58
瀝水籃@@ 58
無肩帶@@ 58
熱賣熱搜@@ 58
率性@@ 58
現貨當天@@ 58
生存@@ 58
男女兒童@@ 58
留言板@@ 58
益 58
盤組 58
真皮女包@@ 58
眼唇@@ 58
短袖長褲@@ 58
矽膠模 58
砂鍋@@ 58
砍@@ 58
示 58
祝福@@ 58
禾聯 58
秋季新款 58
稱重@@ 58
空瓶 58
範斯 58
簡 58
簡約現代小戶型@@ 58
簿@@ 58
米米@@ 58
絞@@ 58
網襪 58
緊實@@ 58
羅馬鞋 58
美好 58
耳機麥克風 58
耳釘耳環@@ 58
耳飾品 58
耶誕節@@ 58
腕帶 58
腸 58
腿毛@@ 58
臥室創意@@ 58
自動機械手錶 58
臻品@@ 58
艾斯@@ 58
芽 58
草莓晶@@ 58
萊雅@@ 58
蓋子@@ 58
薩波 58
蘇菲@@ 58
蘋果6@@ 58
訓練器@@ 58
試管@@ 58
誠 58
貓抓板@@ 58
貓砂 58
販售@@ 58
買一送@@ 58
超越@@ 58
越 58
越野車@@ 58
輪子@@ 58
辦公家用@@ 58
迪士尼米奇@@ 58
送男友@@ 58
速溶@@ 58
進 58
過敏@@ 58
那 58
釣竿 58
鋼托@@ 58
鏽 58
鑽頭 58
長t@@ 58
防塵塞 58
防水布 58
陰莖@@ 58
陽具@@ 58
隨便賣 58
隨身聽@@ 58
雙人1 58
雙顯@@ 58
露露@@ 58
鞋盒@@ 58
韓國復古@@ 58
韓版個性@@ 58
頭戴@@ 58
领@@ 58
飆@@ 58
飛線編織@@ 58
首發@@ 58
馬夾@@ 58
馬鞍@@ 58
鬆緊帶 58
鼠標墊@@ 58
10個 57
183 57
19cm 57
2008@@ 57
212@@ 57
215@@ 57
242 57
250元 57
258 57
265@@ 57
290 57
318@@ 57
33cm 57
3500@@ 57
351 57
369@@ 57
384 57
440@@ 57
4吋 57
535@@ 57
559 57
70cm 57
820 57
8號 57
a20 57
adidas阿迪達斯 57
adidas鞋 57
airpods保護套@@ 57
a貨翡翠 57
bridge 57
canvas 57
disruptor 57
fp@@ 57
gam@@ 57
gl 57
hyundai 57
ins超火的@@ 57
int@@ 57
iphone7plus@@ 57
irving 57
j2@@ 57
lucky@@ 57
m7@@ 57
macbook@@ 57
mk女包 57
palace 57
petit 57
pl 57
puzzle 57
sacai 57
sg 57
shu@@ 57
sis 57
studio@@ 57
tank 57
tte@@ 57
vespa 57
wen@@ 57
xa2 57
xiaomi 57
ysl聖羅蘭 57
か@@ 57
ㄇ@@ 57
三四@@ 57
三款 57
三眼計時日曆@@ 57
不對稱耳環 57
中和@@ 57
串標@@ 57
主義 57
云南@@ 57
亮皮@@ 57
代購歐洲 57
以下@@ 57
來福@@ 57
保溫壺@@ 57
傑克@@ 57
優質賣場 57
光影@@ 57
全牛皮@@ 57
全館免運價格下殺 57
共8@@ 57
兵器@@ 57
典雅 57
冬款@@ 57
分裝瓶@@ 57
切割機@@ 57
刷毛外套 57
刺蝟 57
剪裁 57
加厚塑料@@ 57
千鳥@@ 57
升 57
卡爾@@ 57
卡通動漫@@ 57
卡通動物@@ 57
卡通造型@@ 57
卷軸@@ 57
卸妝油 57
叉子@@ 57
可樂 57
吊繩 57
名產 57
吸壁式@@ 57
咖啡桌 57
哆@@ 57
售完 57
喜字@@ 57
單肩斜背包 57
嘎@@ 57
圓盤 57
坐椅@@ 57
墜子@@ 57
士兵@@ 57
夜店性感@@ 57
大功率 57
大家@@ 57
天然水晶@@ 57
天絲 57
夸張@@ 57
奶昔@@ 57
嫁接睫毛@@ 57
安妮@@ 57
官網 57
官網同步@@ 57
宜興@@ 57
客廳書房@@ 57
客訂賣場 57
宥@@ 57
家樂@@ 57
家生活館 57
寬松 57
封閉式@@ 57
專櫃代購 57
對折錢包 57
小品@@ 57
小天@@ 57
小姐姐@@ 57
小朋友 57
小碼@@ 57
山地自行車@@ 57
巨無霸@@ 57
巴利@@ 57
市場 57
布衣柜@@ 57
帶音樂@@ 57
帽女@@ 57
平輸 57
幼兒童@@ 57
後廂@@ 57
快閃@@ 57
恰@@ 57
想 57
愛運動 57
手鏈女@@ 57
手飾@@ 57
打底 57
折疊椅 57
抽繩 57
拆賣 57
搖滾 57
播種@@ 57
擬真@@ 57
擴充 57
擺件創意@@ 57
攪拌機 57
散熱器@@ 57
文藝 57
方法 57
日韓風@@ 57
會計@@ 57
杯緣子@@ 57
柴 57
條紋襯衫 57
棲@@ 57
概要 57
標準 57
機械式@@ 57
機車精品 57
毛線 57
氣墊粉餅@@ 57
水果蔬菜@@ 57
水溶@@ 57
洗水@@ 57
消音@@ 57
涼墊 57
淫@@ 57
減震 57
溜冰鞋@@ 57
漢服女@@ 57
潮流女包 57
澎湖@@ 57
無鋼圈內衣 57
燭臺@@ 57
現貨全新@@ 57
琉璃 57
生日禮物女生@@ 57
男女運動@@ 57
瘡@@ 57
登山鞋 57
白瓷@@ 57
百分百@@ 57
皆可 57
盟@@ 57
真實@@ 57
真空壓縮袋@@ 57
矮凳 57
石英女錶 57
研磨機 57
移動式@@ 57
窗貼 57
箱包@@ 57
糾正@@ 57
紙巾 57
終結@@ 57
網紗 57
網鞋@@ 57
緊身衣 57
線圈@@ 57
级@@ 57
美妝蛋 57
老板椅@@ 57
老爹鞋女@@ 57
耳罩式耳機 57
聲音@@ 57
肩頸@@ 57
背夾@@ 57
膩 57
自粘 57
臭 57
英吋 57
菓@@ 57
菜盤@@ 57
華為oppo@@ 57
萊 57
藍芽音響 57
訊號@@ 57
設 57
請先詢問@@ 57
豐胸@@ 57
豬年@@ 57
貓包@@ 57
貓窩 57
資訊 57
超值組 57
超閃@@ 57
距@@ 57
輻射@@ 57
逍遙@@ 57
邊角@@ 57
鄉 57
針織帽 57
鈕扣 57
長短@@ 57
長髮公主 57
開放@@ 57
防指紋 57
障@@ 57
雙人三人@@ 57
雨棚@@ 57
電燈@@ 57
電鑽@@ 57
面紙套 57
韓國創意@@ 57
韓貨@@ 57
飯碗@@ 57
餐墊@@ 57
餐桌椅 57
鹵@@ 57
黑紫 57
黛西 57
037 56
11promax@@ 56
174 56
17新款@@ 56
1800@@ 56
18ss 56
18v 56
2006 56
275@@ 56
30ml@@ 56
354 56
375@@ 56
3kg 56
5件@@ 56
6x@@ 56
7天@@ 56
802 56
8代 56
8月@@ 56
aape@@ 56
airpods保護套 56
a賞 56
banila 56
bebe@@ 56
bone 56
bts防彈少年團@@ 56
chin@@ 56
dio 56
diptyque 56
dmv 56
dri 56
dt 56
easy@@ 56
field 56
hoo@@ 56
hyperdunk 56
iphonexs 56
ir 56
jbl 56
jojo@@ 56
jr@@ 56
lancer 56
lunarepic 56
lv時尚@@ 56
m440@@ 56
meier 56
mir@@ 56
nano@@ 56
ong 56
op 56
ppsu@@ 56
qw@@ 56
rg@@ 56
sse@@ 56
tit@@ 56
track 56
u12 56
woo@@ 56
x21@@ 56
ᴇ@@ 56
あ@@ 56
一拖@@ 56
丁字褲@@ 56
七龍珠超 56
三折短夾 56
个性@@ 56
乃 56
乞丐@@ 56
二手漫畫 56
二手良品 56
二手近全新 56
五月天@@ 56
交流@@ 56
信封 56
倩@@ 56
優生@@ 56
充電頭 56
全齡@@ 56
六層@@ 56
其 56
出清特賣 56
初戀@@ 56
劍麻@@ 56
加強版 56
勞力士手錶 56
勿下 56
包包女包@@ 56
十字紋 56
半框@@ 56
卡帶 56
可外穿@@ 56
可收納@@ 56
吉普@@ 56
呢子@@ 56
命 56
咖啡廳 56
喜宴@@ 56
喬治@@ 56
四川@@ 56
團體服 56
均碼 56
墊高@@ 56
墨水匣 56
壹體@@ 56
外拍@@ 56
多件優惠 56
天空@@ 56
夾層@@ 56
套裝m 56
套頭衫@@ 56
女士長夾 56
奶油 56
家用迷你@@ 56
宿舍神器@@ 56
寄送 56
實拍nike 56
專櫃品牌@@ 56
小綠@@ 56
小錢包 56
尹@@ 56
尾牙 56
岳@@ 56
州 56
已拆 56
巷 56
布包 56
帥 56
底盤 56
廚房置物架落地多層@@ 56
廣角 56
延長線@@ 56
彈蓋@@ 56
影印 56
快乾 56
悅 56
慕絲 56
戰爭@@ 56
手冊@@ 56
手握@@ 56
手機遠程@@ 56
手表女@@ 56
手部@@ 56
扭力@@ 56
抱枕套@@ 56
拆 56
按摩儀 56
排檔@@ 56
掛籃@@ 56
提袋@@ 56
搗@@ 56
擠壓@@ 56
收縮毛孔 56
故障@@ 56
新配色@@ 56
旁@@ 56
日本正品@@ 56
日行燈 56
晨 56
晶亮@@ 56
木門@@ 56
杖@@ 56
枕頭套@@ 56
樂高積木@@ 56
檢測 56
櫻花粉@@ 56
止 56
武術@@ 56
水杯子 56
水電@@ 56
沛納海@@ 56
沫@@ 56
法國小眾@@ 56
洗澡 56
流蘇耳環 56
浴袍 56
淡香@@ 56
淳@@ 56
淺藍色@@ 56
游泳圈 56
満 56
溫熱@@ 56
滿印@@ 56
煞車拉桿 56
燒烤架@@ 56
牛皮皮帶 56
狄@@ 56
猴子 56
玄關裝飾畫@@ 56
玩具屋 56
現貨不用等@@ 56
環形@@ 56
環繞@@ 56
產婦@@ 56
甲醛@@ 56
男士時尚@@ 56
男女鞋36 56
畫架@@ 56
異味 56
疤@@ 56
百搭簡約@@ 56
的秘密 56
盔 56
盛 56
監聽@@ 56
真皮皮帶@@ 56
知 56
短袖女@@ 56
短袖純棉@@ 56
硬式@@ 56
碎花洋裝 56
磨豆機 56
空姐包 56
童裝女童@@ 56
粉刺 56
精華露 56
糖糖@@ 56
糧 56
紋身貼紙 56
絎縫@@ 56
絢@@ 56
網購 56
緒 56
緒@@ 56
组合@@ 56
美容儀 56
美樂家 56
耐高溫 56
耳罩@@ 56
聖誕樹 56
肽@@ 56
膠條@@ 56
臂章 56
舒適百搭@@ 56
艾倫@@ 56
芳香 56
茶幾電視柜組合@@ 56
華為榮耀@@ 56
蒜泥@@ 56
蓋碗@@ 56
蓮蓬頭@@ 56
蔻馳coach@@ 56
薩 56
藝品 56
螺絲刀 56
蠶@@ 56
衛衣男@@ 56
衝鋒衣 56
表演服@@ 56
被套床單@@ 56
襦裙@@ 56
西裝領@@ 56
計步@@ 56
調理機 56
護唇膏@@ 56
護脊@@ 56
讀卡機 56
變裝 56
豚@@ 56
象牙@@ 56
貓籠@@ 56
買二送一@@ 56
超彈性@@ 56
超有@@ 56
軟硅膠@@ 56
軟裝@@ 56
軸承 56
輕柔@@ 56
遊戲組 56
郡@@ 56
鄉村 56
酒杯 56
醫院@@ 56
鋰@@ 56
長夾錢包 56
長腿@@ 56
防臭 56
附光碟 56
降價出清 56
限時免運中 56
陪@@ 56
零售@@ 56
零錢 56
零錢袋@@ 56
霖 56
靠背椅子 56
鞋柜家用門口@@ 56
韩国@@ 56
風機 56
飲料提袋 56
養生茶@@ 56
餐桌椅組合 56
香精 56
驢@@ 56
鬆餅機 56
魚線@@ 56
黑底 56
點心盤 56
點讀@@ 56
齡 56
1028@@ 55
13代 55
163 55
178@@ 55
189 55
25cm@@ 55
275 55
2k 55
42碼 55
6000 55
612@@ 55
660@@ 55
8000@@ 55
80cm@@ 55
90度@@ 55
a60 55
ale 55
ape@@ 55
big@@ 55
blaze 55
c250 55
cha@@ 55
eb 55
eco@@ 55
fgo@@ 55
figure 55
fle@@ 55
full 55
fy 55
fz@@ 55
gogoro2 55
hid 55
k8 55
kinyo 55
l2 55
lesportsac 55
lol 55
mk3@@ 55
mp4@@ 55
o型@@ 55
pdd@@ 55
ryz 55
stage 55
stella 55
thrasher 55
toshiba 55
usa@@ 55
utility 55
vn0a3@@ 55
xin 55
ysl女包 55
zoom@@ 55
バ@@ 55
一直愛着妳 55
三件組@@ 55
三角架 55
下標前@@ 55
不可 55
不怕@@ 55
之戰 55
九 55
乳酪@@ 55
亞絲娜 55
付款 55
仰@@ 55
休閒男鞋 55
佩 55
佳佳@@ 55
倒流@@ 55
偵探@@ 55
備用@@ 55
先鋒 55
全彩@@ 55
全自動機械@@ 55
兩 55
出貨前@@ 55
初代@@ 55
刷卡@@ 55
刷白@@ 55
刺 55
刺繡字母@@ 55
創意陶瓷@@ 55
創造@@ 55
加強版@@ 55
加碼@@ 55
加購 55
化妆@@ 55
化妝棉@@ 55
半截@@ 55
卡位@@ 55
压@@ 55
原石@@ 55
口服@@ 55
可做@@ 55
台灣公司貨@@ 55
吊帶睡裙@@ 55
后備箱@@ 55
吹泡泡@@ 55
咖啡館@@ 55
喜樂@@ 55
單售@@ 55
嗶@@ 55
嚕嚕米 55
因 55
圈圈 55
垂墜式耳環 55
垃圾袋 55
堤@@ 55
多功能大容量@@ 55
大浴巾 55
大蝴蝶結@@ 55
天氣@@ 55
天然水晶 55
套頭衫 55
奧運 55
女装@@ 55
女靴 55
好禮 55
姆斯 55
娟 55
嫣@@ 55
嬰兒推車 55
宅急@@ 55
定頻@@ 55
實品拍攝 55
專家@@ 55
對講機@@ 55
小獅王@@ 55
小百貨@@ 55
小雞 55
尖頭淺口@@ 55
尾巴 55
市面@@ 55
布丁狗@@ 55
布藝沙發 55
床組 55
庭院燈@@ 55
強化 55
復古時尚@@ 55
微笑 55
恭喜@@ 55
愉@@ 55
愛你 55
愛心耳環 55
感溫@@ 55
手術@@ 55
打折@@ 55
扳@@ 55
抱枕套 55
抽拉式@@ 55
拼 55
拼插@@ 55
指甲貼 55
振動@@ 55
揭@@ 55
搖椅 55
搬運@@ 55
摺 55
據@@ 55
文件夾@@ 55
旅行便攜@@ 55
早期 55
昆蟲@@ 55
春新款@@ 55
時尚外穿@@ 55
更新 55
曹@@ 55
有限公司 55
木吉他@@ 55
木子@@ 55
桂花@@ 55
梨子家@@ 55
樂美@@ 55
標價@@ 55
橙子@@ 55
死飛@@ 55
比亞@@ 55
氣墊空壓殼 55
水粉@@ 55
沐浴桶@@ 55
沙發罩 55
洽@@ 55
浪琴 55
消費@@ 55
淨水@@ 55
清風@@ 55
測驗@@ 55
滿1000減100 55
漂流@@ 55
潘多拉@@ 55
潮吹 55
潮品 55
潮品匯 55
潮流男生@@ 55
火車 55
灰塵@@ 55
炸雞@@ 55
無暇@@ 55
無鉛@@ 55
牆壁掛@@ 55
牛頭@@ 55
狠@@ 55
玻璃瓶@@ 55
現貨24小時快速出貨@@ 55
現貨不必等 55
現貨全新 55
球型@@ 55
瑪莎拉蒂@@ 55
生日派對@@ 55
番 55
白灰@@ 55
白熊 55
百元@@ 55
百葉@@ 55
皮褲 55
皺褶@@ 55
盅 55
相思@@ 55
知道@@ 55
石英女錶@@ 55
確認@@ 55
穴位@@ 55
第1@@ 55
粘土@@ 55
精萃 55
糊@@ 55
綻@@ 55
線香 55
绒@@ 55
罩衣@@ 55
羊羔@@ 55
美容床@@ 55
美甲貼紙 55
義大利製 55
耳朵 55
聖物 55
聖經 55
脖圍 55
腰枕 55
腳鏈@@ 55
自己的@@ 55
至尊@@ 55
艦 55
芋@@ 55
英倫風 55
草機@@ 55
荷葉領@@ 55
葵 55
蒲公英@@ 55
薄外套@@ 55
藤 55
蠍@@ 55
血 55
衛生間 55
袍 55
裝飾貼@@ 55
褥@@ 55
西班牙 55
西褲@@ 55
視窗@@ 55
談 55
護外@@ 55
豬巴@@ 55
貝恩@@ 55
質量保證 55
超模@@ 55
超輕超硬@@ 55
趣味 55
趴 55
蹦@@ 55
車標 55
車線@@ 55
轟@@ 55
遊戲墊 55
運動包 55
達爾@@ 55
鋅合金@@ 55
鏽@@ 55
鐲@@ 55
鐵塔@@ 55
鑄@@ 55
長版背心 55
長袖套裝 55
長靴@@ 55
開始@@ 55
闇@@ 55
防寒 55
防曬防雨@@ 55
陌@@ 55
陪護@@ 55
陰道@@ 55
隨身攜帶@@ 55
雙碟@@ 55
雪花秀 55
電腦顯示器@@ 55
電話機@@ 55
霞@@ 55
頂級原單 55
飛行器 55
飾品配件 55
餐巾@@ 55
餐廳臥室@@ 55
餐桌墊@@ 55
饰@@ 55
香氛蠟燭 55
香蕉 55
香薰爐@@ 55
騰 55
高橋@@ 55
鬆緊 55
黃色小鴨 55
黑框@@ 55
黑芝麻@@ 55
黑銀@@ 55
鼻毛@@ 55
011@@ 54
100張@@ 54
1400 54
14k@@ 54
167 54
17cm 54
197 54
2001 54
2020夏裝新款@@ 54
233 54
288 54
295 54
2s 54
356 54
4歲@@ 54
500元 54
506 54
50元@@ 54
680 54
810 54
909 54
921826 54
948@@ 54
a75 54
av 54
bat@@ 54
c2 54
cab@@ 54
canmake 54
chan 54
d9@@ 54
e27@@ 54
essence 54
est 54
fleece 54
footscape 54
george 54
gps 54
gre@@ 54
gy 54
hair 54
hel@@ 54
hk@@ 54
hon@@ 54
im@@ 54
internationalist 54
ion@@ 54
legends 54
lia 54
lm@@ 54
logo印花@@ 54
los 54
lou@@ 54
lv皮夾 54
lv短夾 54
medi@@ 54
modern 54
money 54
muji@@ 54
mur@@ 54
nana 54
oem@@ 54
open@@ 54
pigeon 54
q5 54
ray@@ 54
remax 54
s20@@ 54
scottish 54
snow 54
ssa@@ 54
stars 54
tissot天梭@@ 54
tk 54
tony 54
tta 54
v紋@@ 54
work 54
zebra 54
ミ@@ 54
ル 54
一字夾@@ 54
一對一@@ 54
三節@@ 54
上網卡 54
下單區@@ 54
之心 54
之戀 54
乾燥玫瑰 54
二件@@ 54
五指@@ 54
享 54
亮膚@@ 54
亮麗@@ 54
代購gucci 54
休閒短褲@@ 54
伸縮折疊@@ 54
儲物罐@@ 54
儲蓄罐@@ 54
免運優惠 54
兒童電動@@ 54
內搭褲@@ 54
內裝@@ 54
全套包裝 54
全盔@@ 54
八 54
八折@@ 54
公克@@ 54
公共@@ 54
六角 54
分享 54
制作 54
創意生日禮物@@ 54
創見 54
加厚款 54
加拿大 54
化粧@@ 54
北歐臥室@@ 54
十 54
卡卡@@ 54
卡式@@ 54
口水巾@@ 54
口金包 54
可分期 54
可坐人@@ 54
吊掛@@ 54
吊蘭@@ 54
后視鏡@@ 54
吸吮@@ 54
和室@@ 54
啫喱@@ 54
單板@@ 54
四件式@@ 54
回彈@@ 54
圍巾女@@ 54
圓領長袖@@ 54
基隆@@ 54
多孔@@ 54
多用途 54
太空棉@@ 54
女版@@ 54
女生包包@@ 54
女神同款 54
好評@@ 54
好貨@@ 54
妖 54
婆婆@@ 54
嬰幼@@ 54
學生學習@@ 54
宴會 54
家居旗艦店 54
家用1 54
家用大號@@ 54
專櫃新款@@ 54
小宜 54
小巧便攜@@ 54
小臉@@ 54
小鴨@@ 54
山水畫@@ 54
崁燈 54
工廠直銷 54
帶支架@@ 54
幼幼@@ 54
幾何圖形@@ 54
床包四件組 54
廚房水槽@@ 54
廣場 54
得利@@ 54
得標@@ 54
循環扇 54
怕@@ 54
思考@@ 54
打底衫m 54
护@@ 54
拖車 54
提籃 54
插畫 54
搶手@@ 54
擴大機 54
收音機 54
敏感肌@@ 54
數位相機 54
施華洛@@ 54
日本語@@ 54
早教益智@@ 54
春夏新品@@ 54
時刻@@ 54
普拉達prada@@ 54
有氧@@ 54
朵朵@@ 54
杉 54
杓 54
東北@@ 54
桌游@@ 54
樂購 54
樓梯 54
樹德 54
樹德@@ 54
機油芯 54
檢驗合格 54
權誌龍@@ 54
款式新穎@@ 54
歐式客廳@@ 54
歐美新款@@ 54
歐膩@@ 54
每個@@ 54
毒液@@ 54
水印@@ 54
沙灘包 54
油煙機@@ 54
泊泉雅@@ 54
波力 54
波希米亞@@ 54
洗澡盆@@ 54
洗髮露 54
活性炭@@ 54
海鷗@@ 54
海鹽 54
清晰@@ 54
清潔器 54
港式@@ 54
游 54
漂白@@ 54
漆面@@ 54
漢堡 54
潮流印花@@ 54
濕巾 54
火焰 54
無人機 54
無痕掛勾 54
煞@@ 54
燃氣灶@@ 54
牛仔襯衫 54
特效@@ 54
獅子 54
瑜 54
瑪利歐@@ 54
甜品店@@ 54
男友褲 54
男性淡香水@@ 54
畢業 54
畫集 54
百货@@ 54
的大@@ 54
真標 54
研磨機@@ 54
碧兒泉 54
礦泉@@ 54
科學 54
種菜@@ 54
第1 54
第三代 54
簡約休閑@@ 54
簡約百搭 54
籃子 54
粉橘 54
粉橘@@ 54
粹@@ 54
純手工 54
純金 54
素顏霜@@ 54
絨毛玩偶 54
綁結@@ 54
經典黑白@@ 54
繁殖@@ 54
繁體中文 54
置物架客廳@@ 54
美國大媽代購 54
美甲光療@@ 54
耐穿@@ 54
耕@@ 54
肌因@@ 54
胶@@ 54
胸部@@ 54
腳鍊 54
自動感應@@ 54
自慰棒 54
芒果 54
花襯衫 54
花開@@ 54
苑 54
英語 54
茶漏@@ 54
莫蘭迪@@ 54
蕾絲性感@@ 54
藍牙音箱 54
藍綠 54
藍芽音箱 54
藤條@@ 54
蛋蛋@@ 54
補習@@ 54
訂製款 54
計算@@ 54
詢價 54
試用@@ 54
議 54
變頻冷暖@@ 54
豎條紋@@ 54
超大 54
超級賽亞人 54
車燈@@ 54
軍工@@ 54
軟質@@ 54
輯@@ 54
轉盤 54
辦公用品 54
農家@@ 54
迷 54
運動外套@@ 54
運動短t 54
運動背包 54
運動跑步鞋@@ 54
過道走廊@@ 54
邊夾 54
酒器 54
酒壺@@ 54
醣@@ 54
針式耳環 54
針織上衣@@ 54
針織洋裝 54
鈎 54
鉗子@@ 54
長袖包屁衣 54
阿財@@ 54
陳列架@@ 54
隨身聽 54
險@@ 54
雙胞胎@@ 54
雪地靴 54
電磁爐 54
電腦臺式桌家用@@ 54
電路@@ 54
面紙 54
韓版顯瘦@@ 54
食譜 54
餵食@@ 54
饅頭 54
香港直郵 54
魔法風雲會 54
麻料@@ 54
黃色小鴨@@ 54
黑色真皮@@ 54
100g@@ 53
10吋 53
150cm 53
16mm 53
16吋@@ 53
17cm@@ 53
193 53
194 53
196 53
20000@@ 53
2019春季新款@@ 53
234 53
252 53
256 53
277 53
2包 53
2盒 53
315 53
3g@@ 53
409 53
417 53
48v@@ 53
4s 53
512g 53
550ml 53
5公分@@ 53
705@@ 53
706 53
710 53
775@@ 53
808@@ 53
8a 53
908@@ 53
918@@ 53
97898@@ 53
a00@@ 53
a77 53
ah8050 53
ane@@ 53
bao@@ 53
base 53
bee@@ 53
books 53
burlon 53
c200 53
choo 53
clot 53
coffee 53
daiwa 53
dp 53
ear 53
gucci男包 53
gucci男士@@ 53
heart@@ 53
honey 53
hotwheels 53
hx@@ 53
ide@@ 53
liu 53
ln@@ 53
l號@@ 53
mic 53
mk包 53
oppor@@ 53
outdoor 53
pharrell 53
ple@@ 53
pon@@ 53
ras 53
sar@@ 53
seiko@@ 53
sen 53
skoda 53
tshirt 53
u型枕@@ 53
v4 53
vape 53
vivienne 53
w8@@ 53
wear 53
wing 53
y9@@ 53
う@@ 53
お@@ 53
き@@ 53
七分袖 53
三圈@@ 53
三洋 53
丘 53
也可以@@ 53
事業 53
井 53
人民@@ 53
低敏@@ 53
侃爺@@ 53
假日@@ 53
健身墊@@ 53
側面@@ 53
儲物箱 53
充電座 53
免運免運費 53
入耳@@ 53
全館現貨 53
凈水器@@ 53
出國 53
出貨前可@@ 53
刀座@@ 53
刺客@@ 53
力量 53
加長 53
卡特 53
只剩@@ 53
叮噹@@ 53
同 53
名牌皮夾 53
名鞋匯 53
含稅開發票 53
周 53
和平@@ 53
咒 53
商鋪 53
單肩手提包@@ 53
圓角@@ 53
在台現貨 53
地圖 53
埔@@ 53
夏天必備 53
夏普 53
外帶@@ 53
大創 53
大風力@@ 53
太太@@ 53
夾腳拖 53
契@@ 53
套腳鞋 53
套腳鞋@@ 53
女神款 53
委@@ 53
字體 53
孵化@@ 53
室內陽臺@@ 53
家用塑料@@ 53
宿舍寢室@@ 53
寢具 53
寬口徑@@ 53
封口機@@ 53
小孩寶寶@@ 53
小戶型家用@@ 53
小櫻 53
小貝@@ 53
小鋼@@ 53
小錢包@@ 53
展示牌@@ 53
平安 53
彌月禮 53
影片@@ 53
復古工業風@@ 53
恬@@ 53
惑@@ 53
懶人沙發單人@@ 53
懶得出門二手書 53
戰爭 53
戶 53
戽斗@@ 53
手壓@@ 53
手機專用@@ 53
托德斯@@ 53
折價@@ 53
拉桿箱萬向輪@@ 53
拋光 53
拍攝道具 53
拍照道具@@ 53
招牌@@ 53
拭@@ 53
拼貼@@ 53
捧花 53
掛包 53
揉捏@@ 53
放大鏡 53
新品現貨上架85折優惠 53
新款lv@@ 53
斷貨@@ 53
時尚運動鞋 53
普洱@@ 53
智能感應@@ 53
最低@@ 53
最終@@ 53
束腹@@ 53
桌旗@@ 53
極效@@ 53
機身@@ 53
橫條紋@@ 53
檢 53
檢驗@@ 53
毛絨 53
毫安 53
氣質甜美@@ 53
水陸@@ 53
沙發組合@@ 53
法器@@ 53
泡泡先生@@ 53
泰銀@@ 53
洗潔@@ 53
海釣@@ 53
涮@@ 53
清香@@ 53
溫泉 53
滅蚊燈@@ 53
滋補@@ 53
滿意寶寶 53
漱口杯 53
点@@ 53
熱縮@@ 53
燈條 53
燉鍋@@ 53
牧羊@@ 53
特價品 53
狂 53
狙擊@@ 53
獎 53
玻璃罩@@ 53
現代簡約實木@@ 53
現貨現貨 53
男士短袖t恤 53
男女休閒@@ 53
略@@ 53
當代@@ 53
病 53
痘 53
白鞋 53
直排輪@@ 53
省電 53
眠@@ 53
短褲女@@ 53
石英男錶 53
禮卷 53
禮盒套裝@@ 53
種籽@@ 53
窗貼@@ 53
童書@@ 53
箔 53
精華霜 53
紀念版 53
結婚禮@@ 53
絕緣@@ 53
網線@@ 53
網袋 53
缺貨 53
羅意威 53
羽毛球拍@@ 53
腰椎@@ 53
臣@@ 53
自用@@ 53
舌 53
花開花落 53
茜@@ 53
茶具套裝 53
薛@@ 53
藍紅 53
藍芽喇叭@@ 53
藤蔓@@ 53
蝦竿 53
行李箱貼紙 53
衣柜 53
裝飾品擺件@@ 53
討@@ 53
說話@@ 53
調速@@ 53
謝謝 53
識別證@@ 53
護肩@@ 53
賤@@ 53
賽琳 53
贏@@ 53
超好看@@ 53
超讚@@ 53
跟高@@ 53
跪@@ 53
迷你型@@ 53
透氣運動鞋 53
逛街包 53
進氣@@ 53
郊@@ 53
釦式@@ 53
鈔票@@ 53
鈦鋼 53
鏡架 53
镂空@@ 53
長髮@@ 53
開始 53
開孔@@ 53
防脫@@ 53
防銹@@ 53
附小@@ 53
附收納袋 53
集塵@@ 53
雙圈@@ 53
霧燈@@ 53
露背 53
青花瓷@@ 53
鞋鞋@@ 53
韓版女童@@ 53
風尚@@ 53
飾板 53
饗@@ 53
魔豆@@ 53
鮑@@ 53
鹼@@ 53
鹿晗@@ 53
黑x@@ 53
006@@ 52
0507 52
051 52
100元@@ 52
10代 52
10元@@ 52
130g 52
139@@ 52
166@@ 52
17年@@ 52
1吋 52
2004 52
2010@@ 52
2013@@ 52
2015年@@ 52
2020韓版@@ 52
217 52
226 52
238@@ 52
281 52
2g@@ 52
2瓶 52
30x@@ 52
32cm 52
350元 52
406 52
470@@ 52
499 52
4mm@@ 52
4x@@ 52
620 52
6mm@@ 52
6分@@ 52
850 52
903 52
90x@@ 52
978957@@ 52
ano 52
ara 52
aux 52
bot@@ 52
buff 52
b賞 52
col@@ 52
colors 52
colourpop 52
cover 52
creeper 52
d5@@ 52
ec 52
ever 52
f1s 52
green@@ 52
guerlain 52
h7@@ 52
her 52
hk 52
hol@@ 52
iphone7plus 52
ips@@ 52
jets 52
kr 52
lala 52
laser 52
ling@@ 52
march 52
monarch 52
moo@@ 52
n字鞋 52
otg@@ 52
ov@@ 52
ox@@ 52
parker 52
per 52
pig 52
qx@@ 52
r88@@ 52
revolution 52
rimowa 52
s925@@ 52
she@@ 52
short 52
speed@@ 52
s型@@ 52
travel 52
uc 52
var@@ 52
vga 52
vie@@ 52
waffle 52
wet 52
wor@@ 52
yun@@ 52
zc@@ 52
zz 52
丈@@ 52
不敗@@ 52
不黏@@ 52
乾爽@@ 52
五十@@ 52
五彩@@ 52
代購正品@@ 52
休閒鞋運動鞋@@ 52
伯賢 52
保護鏡 52
保鮮膜@@ 52
信用卡@@ 52
個性簡約@@ 52
偽@@ 52
儲物柜子@@ 52
兔女郎@@ 52
內存@@ 52
全蓋@@ 52
八分@@ 52
八哥@@ 52
冬瓜@@ 52
冰墊@@ 52
出清價@@ 52
刀具 52
刀鋒@@ 52
列 52
刺蝟@@ 52
動感@@ 52
包子@@ 52
化妝刷 52
卡鉗 52
印尼 52
印表機 52
厚款 52
原木色@@ 52
可拆卸 52
可插@@ 52
吃飯桌子@@ 52
名品 52
名片夾@@ 52
后背@@ 52
吹風@@ 52
哄@@ 52
單機身 52
噴霧瓶 52
四格@@ 52
圓領短袖m 52
地磚@@ 52
夜店洋裝@@ 52
夜用@@ 52
大呎碼@@ 52
大地色@@ 52
大幅@@ 52
大悲咒@@ 52
大碼胖mm@@ 52
天地@@ 52
天然植物@@ 52
天線@@ 52
套裝女 52
奧利奧 52
奧特曼@@ 52
女學生韓版@@ 52
女長款@@ 52
好奇@@ 52
妮妮 52
婆 52
存儲@@ 52
學步車 52
它@@ 52
官方旗艦店 52
官方正版 52
实@@ 52
寵物外出@@ 52
寵物窩@@ 52
寵物衣服 52
對話@@ 52
小擺件@@ 52
小柜子 52
小海@@ 52
小美代購 52
小音箱@@ 52
居家收納 52
年前@@ 52
床上四件套@@ 52
床簾@@ 52
廚房浴室@@ 52
征@@ 52
快速發貨八五折 52
懶人椅@@ 52
手掌紋@@ 52
手飾品@@ 52
打蛋器 52
抽取@@ 52
拆機@@ 52
拉杆@@ 52
拉花 52
拐@@ 52
拐角@@ 52
拖鞋女夏@@ 52
提籃@@ 52
放大@@ 52
新品現貨@@ 52
新書 52
新款女@@ 52
日月@@ 52
日本購回 52
显瘦@@ 52
晟@@ 52
暖手寶@@ 52
書櫥@@ 52
木地板@@ 52
木盒@@ 52
松本@@ 52
枝 52
染發膏@@ 52
柔軟舒適@@ 52
查理@@ 52
桶裝@@ 52
梓@@ 52
森林家族 52
椅凳 52
機械腕錶 52
歐式實木@@ 52
歐美爆款@@ 52
歷史 52
死神@@ 52
氣炸鍋 52
氣質手提包 52
水平儀@@ 52
水氧機 52
水鑽耳環 52
沖 52
沖鋒@@ 52
沙灘裙@@ 52
油瓶@@ 52
泊@@ 52
泡沫 52
注音@@ 52
洗臉機 52
活動特價 52
洽談椅 52
清潔組 52
測速@@ 52
港版@@ 52
湯勺@@ 52
溫感@@ 52
滿399@@ 52
瀅@@ 52
灣 52
炸鍋 52
無框畫 52
無線滑鼠 52
焦點@@ 52
燕子@@ 52
牛牛@@ 52
牽引繩@@ 52
牽繩 52
猛男@@ 52
玻璃殼@@ 52
珠子 52
理髮店@@ 52
男士女士@@ 52
男段 52
畢業花束 52
畫筆@@ 52
百搭寬鬆@@ 52
皓@@ 52
盞@@ 52
盤扣@@ 52
睫毛夾 52
石材@@ 52
福斯@@ 52
穹@@ 52
箭頭@@ 52
簡易臥室@@ 52
簡歐@@ 52
簽名 52
籐@@ 52
粗 52
紅底@@ 52
純金9999 52
純銀項鍊 52
紫羅蘭 52
絲印@@ 52
維納斯@@ 52
綱@@ 52
緋@@ 52
線圈 52
罩杯 52
羅意威@@ 52
翰@@ 52
翻頁@@ 52
肚 52
肚皮舞@@ 52
背心外套 52
腐@@ 52
腮紅刷 52
腳凳@@ 52
腳套 52
舍 52
色料@@ 52
芬迪fendi@@ 52
芭比 52
茶色@@ 52
荔枝 52
菲利普 52
菲董 52
萬國@@ 52
蜻蜓@@ 52
裙子女@@ 52
識 52
變形 52
買到賺到 52
賠售 52
路易威登lv@@ 52
車系 52
軍刀@@ 52
辦公椅子@@ 52
農 52
送一 52
逢@@ 52
避邪 52
鉛筆盒@@ 52
銀鍊@@ 52
鎖匙@@ 52
鏤空蕾絲@@ 52
鑰匙皮套 52
闊腿褲女@@ 52
防滑鞋@@ 52
防潮 52
防濺@@ 52
防直吹@@ 52
阻力@@ 52
附錄@@ 52
陽臺休閑@@ 52
隔水@@ 52
隨手杯 52
雀巢@@ 52
雕像@@ 52
電煮鍋@@ 52
鞋子男@@ 52
題庫 52
顏色選擇 52
風情 52
飲品 52
餐券 52
馬口@@ 52
高保濕@@ 52
高彈莫代爾純棉 52
高約@@ 52
159 51
2005@@ 51
20年@@ 51
2500@@ 51
258@@ 51
286 51
2x@@ 51
309 51
355 51
363 51
3件 51
40碼@@ 51
430 51
450g 51
504 51
505 51
508 51
5件組 51
618 51
6代@@ 51
700ml 51
70s 51
7分@@ 51
804 51
85g 51
8折起 51
90cm@@ 51
90公分 51
9吋 51
band@@ 51
bike 51
chang@@ 51
cnc 51
combi@@ 51
crv@@ 51
eng@@ 51
ez 51
family 51
fd 51
fh@@ 51
gabrielle 51
gio 51
honda@@ 51
icash2 51
jin@@ 51
jing 51
js@@ 51
kanye 51
kao 51
kc 51
keyway 51
lf@@ 51
logitech 51
longines 51
lv錢夾 51
minkoff 51
monster@@ 51
nine@@ 51
og@@ 51
orange 51
peanuts 51
pf 51
point 51
poli@@ 51
p助 51
remix 51
rin 51
room@@ 51
rv 51
s4@@ 51
scott 51
silver@@ 51
sk2 51
skater 51
superstar@@ 51
t3 51
tanjun 51
tech@@ 51
toreba 51
tx@@ 51
t卹@@ 51
ugg@@ 51
uncaged 51
v領上衣 51
wel@@ 51
wii 51
wild@@ 51
winnie 51
zeus 51
つ@@ 51
ま@@ 51
一字拖 51
三入組 51
三日@@ 51
下巴@@ 51
不繡鋼@@ 51
丽@@ 51
乾洗手@@ 51
仙女裙@@ 51
代購michael 51
仿真植物@@ 51
优@@ 51
低跟鞋 51
低音炮 51
供應 51
假領@@ 51
側 51
先 51
全新公司貨@@ 51
全球購 51
全集@@ 51
兩條@@ 51
冰霸杯 51
函@@ 51
加溫@@ 51
加絨衛衣 51
动@@ 51
动漫@@ 51
動物園@@ 51
北極熊@@ 51
半永久@@ 51
厚外套 51
原宿風 51
原理 51
去漬@@ 51
可口可樂@@ 51
可掛@@ 51
可洗@@ 51
可視@@ 51
台風行@@ 51
含稅價 51
吸乳器 51
吸汗透氣@@ 51
咪咪@@ 51
哄睡@@ 51
啡@@ 51
單位@@ 51
單手@@ 51
噴射@@ 51
噴霧器 51
固定架 51
圓桶@@ 51
堿@@ 51
塗層@@ 51
多元@@ 51
大牌 51
天然a貨@@ 51
太空艙@@ 51
太陽能 51
女士包包@@ 51
女版 51
奶鍋@@ 51
好搭@@ 51
定位 51
客房@@ 51
家務@@ 51
家用加厚@@ 51
審@@ 51
寫真集 51
寬鬆t恤 51
寵物用品@@ 51
寶寶餐椅@@ 51
專區@@ 51
小皮@@ 51
小蜜蜂 51
小鎮 51
工作坊 51
左 51
已拆@@ 51
巴斯@@ 51
席 51
干濕兩用@@ 51
年代 51
床圍欄@@ 51
廂@@ 51
廉@@ 51
彩條@@ 51
影響@@ 51
復古文藝@@ 51
恢復@@ 51
情侶款男女生 51
惡搞 51
手工製作 51
手機夾 51
手機平板@@ 51
手機通用 51
打火@@ 51
打碼@@ 51
扣式 51
技師@@ 51
拖尾@@ 51
拱@@ 51
拼接撞色@@ 51
拼裝玩具@@ 51
按摩床@@ 51
捆綁@@ 51
授@@ 51
搖桿@@ 51
支撐架 51
收納儲物@@ 51
故事書 51
教練@@ 51
整理袋@@ 51
文件柜@@ 51
日產@@ 51
早安@@ 51
易 51
春秋 51
時尚手錶 51
晚禮服 51
暢銷 51
木盒 51
李寧@@ 51
果醬 51
柳釘@@ 51
格力@@ 51
桌面收納盒 51
棉t@@ 51
棕櫚@@ 51
楔型@@ 51
櫥窗 51
欄桿@@ 51
歐美風 51
止滑墊 51
比利時@@ 51
毛孔 51
氧氣@@ 51
氨@@ 51
沐浴 51
泛黃 51
泰拳@@ 51
海棉 51
清洗劑 51
温@@ 51
游戲手柄@@ 51
溢@@ 51
滋潤保濕@@ 51
滑步車 51
潮女@@ 51
灰姑娘@@ 51
烘乾@@ 51
無章釘 51
無葉@@ 51
熱情@@ 51
燕 51
特價商品 51
特價活動 51
狗飼料 51
現貨24h@@ 51
球形@@ 51
瑄 51
瓷器@@ 51
男士香水 51
瘦肚子@@ 51
白光@@ 51
皮草@@ 51
皮靴@@ 51
盾牌@@ 51
真正@@ 51
真皮包包@@ 51
眼線液筆 51
眾多@@ 51
睡袍 51
破壁@@ 51
硅@@ 51
磨甲@@ 51
磯釣@@ 51
禮盒包裝 51
穩定器 51
空瓶@@ 51
窗戶玻璃貼 51
第2@@ 51
策@@ 51
簡易折疊@@ 51
簡約實木@@ 51
簽 51
簽字筆 51
精雕@@ 51
純水@@ 51
組合式@@ 51
綁帶洋裝 51
綠豆@@ 51
網咖@@ 51
網狀 51
網紅同款 51
練功@@ 51
繽紛 51
老佛爺@@ 51
聯盟 51
腳踏 51
臂 51
臥室掛衣架@@ 51
航 51
艇 51
艾莉@@ 51
英雄聯盟@@ 51
茜茜優品 51
蕙@@ 51
薏仁@@ 51
藍底@@ 51
虛擬@@ 51
蛋白 51
衛星@@ 51
被罩@@ 51
補充包@@ 51
裡 51
褲腳@@ 51
要的@@ 51
覺 51
觀賞@@ 51
說明 51
說明書 51
護膚品 51
變色 51
豆沙@@ 51
象印 51
貝母@@ 51
貨車 51
貴 51
贈潤滑液 51
货 51
赫本@@ 51
超取免運 51
超彈@@ 51
超輕量慢跑鞋 51
超音波@@ 51
转@@ 51
辦公室午睡@@ 51
遊戲機@@ 51
運動水壺 51
運動錶 51
運動鞋跑步鞋慢跑鞋籃球鞋男女鞋 51
遮肚子@@ 51
都有 51
重複@@ 51
金字@@ 51
鈣 51
鋒 51
鋸齒@@ 51
錄音筆 51
鏈條女包 51
鑽戒 51
银@@ 51
長度 51
長毛@@ 51
長項鍊 51
防磨@@ 51
防風保暖@@ 51
附代購憑證 51
除味@@ 51
陷@@ 51
隨身碟@@ 51
雨傘桶@@ 51
電話機 51
霓淨思 51
霧燈 51
靠牆@@ 51
韓版女裝@@ 51
音效@@ 51
顯瘦高腰@@ 51
飲水器 51
養成@@ 51
養護@@ 51
餐椅家用@@ 51
餐櫃 51
首刷 51
馬克 51
髮箍@@ 51
魚尾裙@@ 51
鴉@@ 51
鹿鞭@@ 51
黑曜石 51
10入@@ 50
12g 50
180g 50
18mm 50
2017春夏新款@@ 50
20ss 50
214@@ 50
248 50
28mm 50
304不銹鋼 50
312@@ 50
341 50
35g 50
3款@@ 50
525@@ 50
5款@@ 50
621 50
6cm@@ 50
6d 50
718@@ 50
728 50
7代 50
8t 50
8號@@ 50
9428@@ 50
950 50
a80@@ 50
ack@@ 50
action 50
amg@@ 50
angel@@ 50
armour@@ 50
bro@@ 50
cla 50
clarins 50
cos服 50
cro@@ 50
dark 50
dell 50
esp@@ 50
extreme 50
fate@@ 50
foundation 50
fox 50
gazelle 50
ger 50
gla@@ 50
gri@@ 50
i8@@ 50
jam 50
jun@@ 50
lbj 50
leg@@ 50
ley@@ 50
lie 50
lw 50
l夾 50
mar 50
melissa 50
mia 50
mvp 50
ness 50
nite 50
non 50
oro@@ 50
pearl 50
pro手機殼@@ 50
rabbit 50
rt@@ 50
running 50
sentra 50
sexy 50
sim 50
true 50
tu 50
ye 50
zone 50
る@@ 50
ん 50
タ@@ 50
一隻 50
一體機 50
万@@ 50
三月@@ 50
三版 50
上托@@ 50
下標用 50
不褪色 50
世界名@@ 50
九尾@@ 50
乳酸菌@@ 50
乾果@@ 50
二手書店 50
五合一@@ 50
亮粉@@ 50
什麼 50
介紹 50
休閒滑板鞋 50
伶 50
來襲 50
促銷中 50
修身包臀@@ 50
們的@@ 50
偏光鏡@@ 50
優品の@@ 50
兆@@ 50
免脫@@ 50
全新轉賣@@ 50
全機@@ 50
全罩@@ 50
全館搶購 50
公尺 50
冰裂@@ 50
加厚耐磨@@ 50
包大容量@@ 50
北 50
十字架 50
升降 50
半罩@@ 50
口交@@ 50
可直接@@ 50
可立@@ 50
可選擇 50
合售@@ 50
合身 50
和面@@ 50
唱片@@ 50
單個 50
單杠@@ 50
嗨@@ 50
噴泉@@ 50
四款@@ 50
圓桌 50
圖畫@@ 50
地板 50
型男必備 50
域 50
墊被@@ 50
增高架@@ 50
墨鏡女@@ 50
夏季新品 50
大氣墊@@ 50
太陽傘 50
夾娃娃 50
奇奇@@ 50
女士單肩包 50
女款手提包 50
女款錢包 50
女郎@@ 50
女鞋子@@ 50
妙妙@@ 50
媚比琳 50
嬰 50
孫悟空@@ 50
安娜蘇 50
安安@@ 50
客廳簡約現代@@ 50
家家@@ 50
家家酒 50
寵物狗狗@@ 50
專櫃新款 50
對決 50
對講機 50
小兔@@ 50
小豆@@ 50
小貓 50
尾箱@@ 50
居家生活館 50
工字@@ 50
布洛克@@ 50
帆船鞋 50
帳篷戶外@@ 50
帶線@@ 50
幫寶適 50
干貝@@ 50
平安符袋 50
床頭靠墊@@ 50
底部@@ 50
彈力修身@@ 50
彩屏@@ 50
彰@@ 50
後現代@@ 50
復古簡約@@ 50
快速 50
情侶外套 50
愛迪達adidas@@ 50
成為@@ 50
手作坊 50
技巧 50
抽紙@@ 50
拉拉 50
拉線@@ 50
捕夢網@@ 50
捷克@@ 50
排水管@@ 50
掛衣服@@ 50
探索書店@@ 50
揉@@ 50
擰@@ 50
攪拌機@@ 50
收納桶@@ 50
放鬆@@ 50
新款真皮@@ 50
日韓潮流@@ 50
明星款 50
書屋 50
書畫@@ 50
杯刷 50
案板@@ 50
梔子@@ 50
條文@@ 50
森女系@@ 50
楊冪同款@@ 50
樂華 50
樟@@ 50
橡皮筋@@ 50
毛呢外套 50
氣質簡約@@ 50
水晶球 50
水藍色 50
水銀@@ 50
水鞋 50
汝窯@@ 50
沐浴精 50
沙漏@@ 50
泰式@@ 50
洲 50
浪 50
海洋堂 50
海綿寶寶 50
液晶 50
深灰色 50
測驗 50
溫奶器 50
溫馨浪漫@@ 50
滴水@@ 50
滷@@ 50
漁具 50
火腿@@ 50
灶@@ 50
炎 50
炫 50
為什麼@@ 50
無線充電器@@ 50
營 50
燻@@ 50
爽膚水@@ 50
牛仔吊帶裙 50
特價中@@ 50
特定@@ 50
特產 50
玄關桌@@ 50
王國@@ 50
玻璃奶瓶 50
現代中式@@ 50
甘草@@ 50
甜 50
生命之@@ 50
男內褲 50
男士商務休閒@@ 50
男士純棉@@ 50
男女段 50
町 50
盆帽 50
眼袋@@ 50
眼鏡架@@ 50
短袖連衣裙@@ 50
矮柜@@ 50
矯@@ 50
研究所 50
空拍機 50
空氣芯 50
笑臉 50
精品手錶 50
統 50
絹@@ 50
經文@@ 50
經營@@ 50
繞頸@@ 50
美女與野獸 50
美式實木@@ 50
聚寶盆@@ 50
肛塞 50
肥佬@@ 50
背袋 50
腳踏墊@@ 50
膠鞋 50
自衛@@ 50
臺灣 50
舒 50
艺@@ 50
艾莎 50
花圈 50
草寫@@ 50
莉卡@@ 50
萌寵@@ 50
蜂巢 50
袜@@ 50
裝置 50
裴@@ 50
裸睡@@ 50
覺醒 50
訓練器 50
訓練服 50
記憶 50
訪@@ 50
誌@@ 50
調料瓶@@ 50
證書@@ 50
護欄 50
護頸枕 50
貪@@ 50
贊@@ 50
起來@@ 50
路亞 50
車庫@@ 50
輕奢 50
轮@@ 50
辦公家具@@ 50
进口@@ 50
這個@@ 50
適穿 50
重生@@ 50
鉤針@@ 50
鋪棉外套 50
鎖頭 50
钻@@ 50
長袖毛衣 50
閱讀燈 50
防黴@@ 50
雪肌精@@ 50
電光@@ 50
青木@@ 50
非凡@@ 50
韓國襪子 50
頑@@ 50
頭部@@ 50
餅乾模 50
首發 50
香氣@@ 50
香薰蠟燭@@ 50
骨頭@@ 50
高強度@@ 50
高校@@ 50
魔鏡@@ 50
黑綠@@ 50
0000@@ 49
0001 49
030@@ 49
1400@@ 49
148 49
179 49
2020年 49
2分@@ 49
2店 49
324 49
369 49
382 49
3分@@ 49
3月 49
415@@ 49
451 49
4e 49
5款 49
6個@@ 49
6款@@ 49
6號 49
848@@ 49
8gb 49
9m@@ 49
abc@@ 49
als 49
ance 49
audio 49
benq 49
brush 49
bw 49
cbr@@ 49
cg 49
chain 49
cny 49
c字@@ 49
ek@@ 49
fish@@ 49
gucc 49
gucci皮夾 49
h0@@ 49
hal@@ 49
hola 49
holika 49
infinite 49
iron 49
kaishi 49
kolin 49
maison 49
moc 49
nyx 49
oreo 49
oz 49
pos@@ 49
prada普拉達 49
psp@@ 49
rayban 49
ride 49
rit@@ 49
s10e 49
sad@@ 49
seven@@ 49
shinee 49
shirt@@ 49
simple 49
solo@@ 49
starbucks@@ 49
stick 49
tote@@ 49
tte 49
t恤衫 49
undercover 49
u形@@ 49
van 49
vo 49
w204 49
wip 49
wn 49
wt@@ 49
wy 49
yamaha@@ 49
york 49
yuanroro優質賣場 49
➋ 49
た@@ 49
一雙@@ 49
丁香@@ 49
三寶@@ 49
三環@@ 49
下單備註尺寸 49
下的@@ 49
不掉色 49
不鏽鋼真空@@ 49
乳頭@@ 49
乾濕兩用@@ 49
二手書籍 49
仙子@@ 49
伯 49
便宜賣@@ 49
信箱 49
倉鼠 49
入式@@ 49
內容@@ 49
全框@@ 49
公主袖@@ 49
公牛 49
凱文@@ 49
出租屋@@ 49
刀頭 49
則 49
功夫茶具套裝@@ 49
加絨衛衣@@ 49
助 49
勇 49
勇士隊 49
包手提@@ 49
南極@@ 49
去黃@@ 49
古典 49
可站立@@ 49
号@@ 49
吊床 49
吊櫃@@ 49
吸音@@ 49
咖啡濾@@ 49
哈士奇@@ 49
唇蜜@@ 49
商務男包 49
四代勁戰 49
四種@@ 49
四角褲@@ 49
圆领@@ 49
國文 49
圓圓@@ 49
地鋪@@ 49
垂吊@@ 49
基本 49
墨綠色 49
多拉@@ 49
夜店女裝@@ 49
大中@@ 49
大王 49
大麥@@ 49
天上@@ 49
天王@@ 49
套裝組合@@ 49
女t 49
女單鞋@@ 49
女童洋裝 49
如果@@ 49
姻@@ 49
安全座椅@@ 49
安撫巾 49
宏碁 49
宗教@@ 49
官方正品@@ 49
客廳沙發背景墻@@ 49
客廳簡約@@ 49
宿 49
實戰籃球鞋 49
寫真書 49
寶寶小@@ 49
專櫃購入 49
小公仔 49
小吊飾 49
小甜甜 49
居家裝飾廚房收納現貨 49
市價@@ 49
布簾@@ 49
帶飯@@ 49
年華@@ 49
廚房小@@ 49
廠家現貨@@ 49
彈珠@@ 49
懷舊 49
成功 49
手撕@@ 49
手繩@@ 49
抬@@ 49
拉鍊包 49
拖布@@ 49
拳 49
拼接蕾絲@@ 49
持續@@ 49
按摩油 49
挑嘴@@ 49
捏@@ 49
捕蚊燈 49
排汗衫 49
提手@@ 49
搖籃床@@ 49
擁有@@ 49
擦地@@ 49
擦車@@ 49
攻 49
料理機 49
斜挎女包 49
新加坡 49
新品上架@@ 49
新多益@@ 49
新娘結婚@@ 49
新款上市@@ 49
新款運動鞋 49
方桌@@ 49
日系原宿@@ 49
春季 49
時尚館 49
景德鎮@@ 49
晶采@@ 49
晾衣桿@@ 49
曼谷包 49
杏仁酸@@ 49
東元 49
栓 49
格鬥@@ 49
梗@@ 49
楦@@ 49
樹脂 49
正版迪士尼@@ 49
武 49
殘疾人@@ 49
殺人鯨 49
毛線帽@@ 49
汙 49
決@@ 49
汽車擺件@@ 49
汽車載@@ 49
活性碳 49
涼鞋女 49
清潔液 49
游泳衣女@@ 49
湯米@@ 49
漂移@@ 49
濟州@@ 49
無 49
無雙@@ 49
焰@@ 49
熊本熊 49
熱賣爆款 49
熱賣爆款@@ 49
燭@@ 49
爬行墊 49
爽 49
牆角@@ 49
牆體@@ 49
牛蒡@@ 49
玥@@ 49
玫紅 49
玻璃貼膜@@ 49
珠寶盒 49
現拍@@ 49
現貨日本@@ 49
球褲 49
球迷@@ 49
瑰@@ 49
環球影城 49
甜美氣質@@ 49
疼@@ 49
瘦瘦@@ 49
發繩@@ 49
盤發@@ 49
知性@@ 49
短板@@ 49
短洋 49
短髮@@ 49
砂紙@@ 49
破褲 49
磷@@ 49
穆@@ 49
第四彈 49
簡約修身短袖 49
簡約北歐@@ 49
籃球褲 49
米諾@@ 49
精梳棉 49
糾@@ 49
紀錄@@ 49
紅藍 49
紋身貼@@ 49
純色百搭@@ 49
素踢 49
紫光@@ 49
結婚禮物@@ 49
網帽 49
網面透氣跑步鞋 49
腳踏板 49
腳踩@@ 49
腸粉@@ 49
自動 49
自家@@ 49
船型@@ 49
艾多美@@ 49
节@@ 49
芙蓉@@ 49
花灑 49
花草茶@@ 49
茶台@@ 49
荷葉邊 49
莫斯奇諾 49
菈 49
薑黃@@ 49
藍球鞋 49
蘇 49
衛生棉@@ 49
表白@@ 49
補水保濕 49
裝飾擺件 49
複刻@@ 49
褲襪@@ 49
診@@ 49
誤@@ 49
譚@@ 49
護照套 49
護身符@@ 49
買十送一 49
貼墻@@ 49
購於@@ 49
起司 49
超保暖@@ 49
超透氣@@ 49
軟軟@@ 49
轉接環 49
轉轉@@ 49
迷霧@@ 49
透气@@ 49
逐@@ 49
進擊的巨人 49
遊戲王@@ 49
運動電子@@ 49
達菲熊 49
選購 49
配對@@ 49
配送@@ 49
金錢@@ 49
針織開衫@@ 49
鈔票夾 49
鉛筆褲 49
鍍金 49
門把手@@ 49
閃光燈 49
防曬帽@@ 49
阳@@ 49
阿瑪尼armani@@ 49
附盒 49
附送@@ 49
限定買家 49
集點 49
雙人加大@@ 49
雜糧@@ 49
雪地@@ 49
雪白@@ 49
電飯鍋@@ 49
需要的@@ 49
青瓷@@ 49
青軸@@ 49
韓國襪 49
韓妞 49
頂夾@@ 49
領劵@@ 49
顯 49
驚奇@@ 49
高低床@@ 49
高手 49
鬆糕鞋 49
鬧@@ 49
鮮花@@ 49
鯊魚夾 49
黑黃 49
10m 48
13cm 48
15cm@@ 48
15mm 48
172 48
1件 48
23號 48
241 48
266 48
2c 48
2xl@@ 48
2條@@ 48
344@@ 48
348 48
3cm@@ 48
3雙@@ 48
408 48
4分 48
5a@@ 48
615@@ 48
617 48
628 48
6p@@ 48
6件組 48
707 48
8000 48
816 48
880 48
920@@ 48
9789865@@ 48
988 48
995 48
998 48
999純銀@@ 48
9h鋼化玻璃保護貼 48
9h鋼化玻璃貼 48
acer@@ 48
ahc@@ 48
amy 48
ao3108 48
ar0@@ 48
avent 48
b00@@ 48
b4 48
banana 48
bwfc 48
c5 48
cic@@ 48
cli@@ 48
d0@@ 48
din@@ 48
doom 48
est@@ 48
fashion@@ 48
ful 48
ful@@ 48
g7@@ 48
gold@@ 48
goyard 48
gymboree 48
g點按摩棒 48
hey 48
hor@@ 48
hw@@ 48
hz@@ 48
icash 48
jacobs@@ 48
jay@@ 48
jessi@@ 48
jf@@ 48
kangol 48
kirkland 48
kw 48
lab@@ 48
labo 48
lancome@@ 48
lcd@@ 48
leboy 48
lightning@@ 48
long@@ 48
mall 48
mango 48
many 48
market 48
maserati@@ 48
miku 48
ming 48
mod 48
mouse 48
mp3播放器@@ 48
novo@@ 48
oni@@ 48
open 48
oro 48
p9 48
panasonic國際牌 48
pant 48
peppa 48
pgm 48
shin 48
ski@@ 48
tic 48
tk@@ 48
uma 48
undefeated 48
united 48
v1 48
v8 48
wb 48
ら@@ 48
一瓶@@ 48
一腳蹬懶人鞋@@ 48
三開門@@ 48
下標賣場 48
不倒翁 48
中長裙@@ 48
中間@@ 48
九陽@@ 48
五角@@ 48
人體感應@@ 48
休閒上衣@@ 48
伴手禮@@ 48
低音@@ 48
佛教用品@@ 48
佛珠 48
便盆@@ 48
保平安@@ 48
修護霜 48
假發 48
健美@@ 48
側開叉@@ 48
傘車 48
僅試穿 48
優惠促銷@@ 48
光明@@ 48
克里@@ 48
免手洗@@ 48
兒童玩具車@@ 48
兒童鞋 48
入耳式 48
全友@@ 48
全網通@@ 48
公仔毛絨玩具@@ 48
公對@@ 48
典藏版 48
冬天 48
冰箱貼 48
出租二手書 48
前短後長 48
剪紙@@ 48
勇士 48
勳 48
勻@@ 48
包防水@@ 48
化妝凳@@ 48
化妝盒@@ 48
北極熊 48
北臉 48
十字 48
午後@@ 48
半透明 48
卡樂@@ 48
卷翹@@ 48
原創設計 48
原宿bf風@@ 48
取暖@@ 48
受損@@ 48
口水@@ 48
吃到飽 48
名字 48
單人學生宿舍@@ 48
單賣 48
噴壺@@ 48
四分@@ 48
四版 48
固定座 48
國寶@@ 48
土地@@ 48
塑型@@ 48
增長@@ 48
壓縮袋 48
夏日必備 48
夕@@ 48
外蓋 48
大卷@@ 48
夯 48
夹 48
奇妙@@ 48
奕@@ 48
套頭 48
奧利奧@@ 48
女鞋36 48
好搭 48
好朋友@@ 48
妖怪手錶 48
姊@@ 48
字體@@ 48
學院包 48
安全帶 48
寬帶@@ 48
小350 48
小包裝@@ 48
小妹 48
小戶型現代簡約@@ 48
小王子@@ 48
小蠻腰@@ 48
小音響@@ 48
尖頭鞋 48
尖頭高跟鞋@@ 48
尼康@@ 48
屍@@ 48
屑 48
巴黎萊雅 48
布套 48
帕 48
帝國 48
平角褲 48
床尾@@ 48
店主@@ 48
度度鳥 48
後綁帶@@ 48
微微@@ 48
快樂 48
快速到貨 48
念 48
成本@@ 48
手電鉆@@ 48
打包袋@@ 48
打底裙@@ 48
扣子@@ 48
投籃@@ 48
抽插@@ 48
拉鍊式@@ 48
拉鍊零錢包 48
拉鏈外套 48
捕夢網 48
掃地@@ 48
揮@@ 48
搜@@ 48
攝像@@ 48
攤@@ 48
收款@@ 48
教程@@ 48
敢@@ 48
散 48
新娘飾品 48
新款百搭@@ 48
日式簡約@@ 48
春夏款 48
春裝 48
時尚達人 48
更換 48
書簽@@ 48
書籤@@ 48
會議椅 48
本合售 48
本子@@ 48
李小@@ 48
柔軟舒適 48
桃園以北免運費 48
桌上型 48
棉襪@@ 48
棋盤格紋@@ 48
植鞣@@ 48
榴@@ 48
槳@@ 48
機械手錶 48
櫻桃 48
歌曲@@ 48
正品adidas 48
段變頻 48
毛刷 48
毛巾桿@@ 48
水母@@ 48
水泥 48
水玉@@ 48
汀 48
沙发@@ 48
洩@@ 48
活口@@ 48
活泉@@ 48
流蘇包 48
涉@@ 48
液晶顯示器 48
減負@@ 48
漁網@@ 48
潮韓版@@ 48
火熱@@ 48
火爆 48
焙@@ 48
照片牆@@ 48
熱敏@@ 48
燙衣板@@ 48
爾斯@@ 48
牌照@@ 48
獎盃@@ 48
玩具套裝@@ 48
現貨1 48
現貨adidas 48
理膚寶水@@ 48
瑄@@ 48
環球影城@@ 48
瓢蟲@@ 48
生活家 48
甲片@@ 48
男女適用 48
男子籃球鞋 48
男孩子@@ 48
男生包包 48
異國@@ 48
疤痕@@ 48
痛 48
登場 48
百寶@@ 48
的架子@@ 48
盥洗@@ 48
直紋@@ 48
真皮皮夾 48
福氣@@ 48
秋冬新品@@ 48
簡約學生@@ 48
簡約現代創意@@ 48
籃球鞋運動休閒鞋 48
粒面@@ 48
糖果盒 48
約會 48
紡 48
結緣@@ 48
絕對完美@@ 48
絲柔@@ 48
綠水鬼 48
綠葉@@ 48
維多利亞@@ 48
網紅爆款@@ 48
緊緻 48
緯@@ 48
置物櫃@@ 48
羅馬涼鞋 48
羅馬鞋@@ 48
美勞 48
美甲材料 48
翠 48
翻譯小說 48
肌底@@ 48
腹部@@ 48
自留@@ 48
舟@@ 48
芭樂@@ 48
花梨@@ 48
花梨木@@ 48
花花公子@@ 48
英字@@ 48
草編鞋 48
莉莉@@ 48
莜莜代購 48
菊花茶@@ 48
菜單@@ 48
菠@@ 48
華為mate@@ 48
華萊士 48
蒂芙尼 48
蒸蛋@@ 48
蔻 48
蕎麥@@ 48
藍綠@@ 48
藥師@@ 48
蘿 48
蛇頭@@ 48
螢光 48
街機@@ 48
衣機@@ 48
裡的@@ 48
裸靴@@ 48
褐@@ 48
訂制@@ 48
調教@@ 48
護墊 48
護髮油 48
豆腐包 48
貓耳@@ 48
賺@@ 48
購物車 48
超取請聊聊 48
超纖@@ 48
超輕便攜@@ 48
跳 48
車頭@@ 48
輕型@@ 48
迪卡儂@@ 48
透氣網布@@ 48
連體衣 48
遛@@ 48
遮陽鏡 48
金鏈@@ 48
金飾 48
釘槍@@ 48
針織毛衣@@ 48
銳步@@ 48
錢幣@@ 48
鍊條 48
鏡頭貼 48
鐵板燒@@ 48
長發@@ 48
長頸鹿 48
防塵袋@@ 48
防摔保護套 48
防曬衣女@@ 48
防潮箱 48
防蚊液 48
防風打火機 48
阿泰 48
附發票@@ 48
階段@@ 48
雙肩 48
雞翅木@@ 48
雨傘架 48
雪莉玫@@ 48
電動螺絲刀@@ 48
電推剪@@ 48
電機 48
靜電玻璃貼 48
靠背墊@@ 48
鞋子女@@ 48
鞋袋 48
韓國空運@@ 48
響 48
頸鏈 48
風火輪@@ 48
飄窗墊@@ 48
飲食@@ 48
飾底乳 48
餐碗 48
香膏@@ 48
馨馨@@ 48
馬拉松 48
駱駝@@ 48
高雄可面交 48
高領 48
鮪魚@@ 48
鹿頭@@ 48
黑貓 48
齋 48
019 47
0mm 47
15吋@@ 47
1800 47
18吋@@ 47
1st 47
1t 47
1盒 47
2020台風行 47
219 47
273 47
278 47
285 47
2cd 47
2p 47
328 47
453 47
4764@@ 47
4條@@ 47
4歲 47
510@@ 47
5cgo 47
5kg@@ 47
5xl@@ 47
6ml 47
709 47
806 47
8kg 47
8字@@ 47
9g 47
a20@@ 47
aa3@@ 47
adilette 47
amissa 47
ans@@ 47
any@@ 47
ar18@@ 47
ashlee 47
ball@@ 47
bm 47
board 47
bred 47
bul@@ 47
burst 47
cel@@ 47
cha 47
climacool 47
compact 47
diamond@@ 47
disney迪士尼@@ 47
d賞 47
f30 47
f4 47
fast 47
figuarts 47
g6@@ 47
gabbana 47
gh 47
gin@@ 47
gopro@@ 47
gue@@ 47
hand@@ 47
hario 47
hb 47
hsu 47
ih@@ 47
j3 47
kiehls 47
lancôme 47
lay 47
lh 47
lh@@ 47
lic@@ 47
lindy 47
lj@@ 47
loft工業風@@ 47
lulu 47
mask 47
mate20@@ 47
metis 47
min 47
nail@@ 47
ner 47
note3 47
nude 47
p3@@ 47
pixel 47
qc 47
rayban@@ 47
s925 47
sand@@ 47
sandal 47
shield 47
sim@@ 47
solar 47
sub@@ 47
swi@@ 47
tec 47
tescom 47
time@@ 47
ugg 47
usb風扇 47
ut 47
ux@@ 47
what 47
wood@@ 47
ww@@ 47
x8@@ 47
yam@@ 47
yan@@ 47
your@@ 47
こ@@ 47
み@@ 47
ス 47
ツ@@ 47
一定要@@ 47
一洗@@ 47
一秒@@ 47
一腳蹬懶人鞋 47
七分袖上衣 47
七星@@ 47
不二@@ 47
中信@@ 47
中夾@@ 47
中幫 47
之星@@ 47
介面 47
代售 47
伊姆斯@@ 47
休閑防水@@ 47
休閒購物包 47
伸縮桿@@ 47
伺服@@ 47
保潔@@ 47
保障 47
修身顯瘦百搭@@ 47
億人小鋪@@ 47
優先@@ 47
儲物罐 47
元寶 47
光采@@ 47
兒童房間@@ 47
兒童泳衣@@ 47
內搭衣 47
全手工@@ 47
全新含吊牌 47
全新日本@@ 47
全新正品adidas 47
八寶@@ 47
公主系列 47
凝霜 47
出風口 47
分類 47
別墅 47
刮刮@@ 47
剁@@ 47
剃須刀@@ 47
割草機 47
功 47
加工 47
勇士@@ 47
勺子 47
包款 47
北美代購 47
千年@@ 47
半拖鞋 47
半掌@@ 47
卡組 47
卵@@ 47
古奇女包 47
另售 47
可分@@ 47
可手提 47
吊 47
吊柜@@ 47
和田玉@@ 47
和風 47
喔@@ 47
喜糖盒 47
單人1 47
單人雙人三人@@ 47
單桿式@@ 47
四門@@ 47
圓領衛衣@@ 47
地下@@ 47
地理@@ 47
墩@@ 47
墬 47
壹號店@@ 47
多寶@@ 47
大v領@@ 47
大富 47
天然乳膠@@ 47
天然石@@ 47
天然緬甸玉@@ 47
夾層 47
奇蹟 47
套盒 47
套鞋@@ 47
女時尚@@ 47
女涼鞋@@ 47
奶茶色@@ 47
娃娃吊飾 47
孫芸芸@@ 47
家用兒童@@ 47
密封條@@ 47
實務@@ 47
寶典 47
寶寶輔食@@ 47
專屬下標 47
專案 47
小伙@@ 47
小書柜@@ 47
小童鞋 47
小蘋果@@ 47
居家廚房生活裝飾現貨 47
居家拖鞋 47
山葉@@ 47
工作臺@@ 47
工廠直@@ 47
巧虎 47
巨人 47
帖@@ 47
帝國@@ 47
幹 47
幼兒園寶寶@@ 47
床套@@ 47
座便@@ 47
庫存出清 47
引 47
引擎 47
彩燈@@ 47
彼得兔@@ 47
復古跑鞋 47
微波爐架子@@ 47
必備單品 47
性感包臀@@ 47
慈 47
手腳@@ 47
抗痘@@ 47
抗老@@ 47
拆洗@@ 47
拎@@ 47
拿 47
捉@@ 47
捏捏@@ 47
掉 47
接口 47
插排@@ 47
播 47
救援@@ 47
數位版 47
新安@@ 47
新款休閑@@ 47
新生兒童@@ 47
方向@@ 47
方向盤套 47
方舟@@ 47
日本連線 47
日系潮牌@@ 47
時尚斜挎包 47
晏@@ 47
月光石@@ 47
有效期@@ 47
札@@ 47
杠 47
板扣腰帶時尚商務牛皮材質皮帶寬3 47
柜組合@@ 47
格斗@@ 47
桌巾 47
桌面擺件@@ 47
楷書@@ 47
樁@@ 47
樂金 47
樣式@@ 47
氣嘴@@ 47
水鬼 47
決明子@@ 47
泡腳桶@@ 47
洗澡玩具 47
洗衣精@@ 47
浮動@@ 47
涼拖鞋女@@ 47
淘氣@@ 47
淺藍色 47
清洗機 47
清爽 47
清除@@ 47
溜溜車 47
滑滑車@@ 47
漱口水 47
潘多拉 47
潮品@@ 47
濾鏡 47
火星塞 47
灰橘 47
炫彩 47
煞 47
燥@@ 47
爆閃@@ 47
爬樓@@ 47
爬藤@@ 47
爽膚水 47
片式@@ 47
牛仔褲男士@@ 47
牛津布 47
牛筋@@ 47
牽@@ 47
獎勵@@ 47
玩具組 47
珉@@ 47
瑞士 47
瑪莎拉蒂 47
男士外套@@ 47
男士短袖@@ 47
男士腰帶 47
男夏季@@ 47
男生短袖t恤 47
男生短褲 47
畫家貓 47
發條@@ 47
白蘭@@ 47
皮紋@@ 47
盒況@@ 47
直升機@@ 47
直排@@ 47
直購價@@ 47
眼線液 47
瞬效@@ 47
硬度@@ 47
稱 47
空氣凈化@@ 47
穿衣鏡 47
立扇 47
符管 47
簽字筆@@ 47
籠子 47
米果 47
精粹@@ 47
紫外線消毒@@ 47
細胞@@ 47
紳士 47
統計學 47
綁帶上衣 47
經濟學@@ 47
綸@@ 47
緹花 47
繡線@@ 47
繡花 47
纱@@ 47
罐子@@ 47
罗@@ 47
美型@@ 47
美容儀@@ 47
美睫 47
美背 47
羔@@ 47
老物 47
耳針耳環 47
聞@@ 47
胭脂@@ 47
臥室裝飾@@ 47
臨時停車@@ 47
自帶線@@ 47
自有@@ 47
般@@ 47
花王@@ 47
苑@@ 47
茄@@ 47
葫蘆 47
蓉 47
蔡依林@@ 47
薇薇 47
藍海@@ 47
藝術品@@ 47
藤席@@ 47
蛋卷@@ 47
蝦皮 47
行動充 47
被單@@ 47
裙褲@@ 47
襲@@ 47
親子鞋 47
解壓@@ 47
調整 47
證明 47
调@@ 47
貓抓板 47
貝瑞克@@ 47
貴人@@ 47
買2@@ 47
買賣@@ 47
貸@@ 47
赫本風@@ 47
超市 47
超重低音炮@@ 47
車家兩用@@ 47
車罩 47
輕奢風@@ 47
輕質@@ 47
轉運珠@@ 47
辣妹@@ 47
迷你風扇 47
透氣跑步鞋 47
逗貓棒 47
連體褲@@ 47
週邊@@ 47
運動電子手錶 47
道士@@ 47
遠紅外線@@ 47
遮陽板@@ 47
鄉村風 47
酒具@@ 47
醫師@@ 47
野營 47
鈔@@ 47
鉛筆鞋 47
銀釦@@ 47
錄像@@ 47
錘 47
鍛造@@ 47
鎖精@@ 47
鏡框@@ 47
鐘表掛鐘客廳@@ 47
長tee 47
長袖t恤女@@ 47
长袖@@ 47
關於@@ 47
防水拖鞋 47
防水透氣@@ 47
阿波@@ 47
隔熱墊@@ 47
雕花 47
雙面膠 47
離合器 47
雪紡連衣裙@@ 47
電磨@@ 47
電競椅@@ 47
霧感@@ 47
韓國chic@@ 47
韓版男士@@ 47
音器 47
領劵享優 47
飯碗 47
飲水@@ 47
養 47
養蜂@@ 47
香奈@@ 47
馬賽克@@ 47
駐@@ 47
高碳@@ 47
高端大氣@@ 47
高級 47
高透@@ 47
髮晶@@ 47
黑皮@@ 47
黛西@@ 47
1001 46
137@@ 46
13吋 46
160g 46
17號 46
2016夏季@@ 46
2017最新款@@ 46
2017秋冬@@ 46
2020熱銷@@ 46
22mm 46
243 46
256gb 46
282 46
2款@@ 46
305@@ 46
340 46
349 46
3種@@ 46
407 46
43mm 46
4寸@@ 46
5元 46
5入@@ 46
5歲 46
5雙@@ 46
690 46
6d@@ 46
6l@@ 46
6尺 46
718 46
809 46
810@@ 46
anpanman 46
armani阿瑪尼手錶 46
ato 46
baseus 46
bg@@ 46
bhm 46
bird 46
blade 46
bun@@ 46
crazy 46
cv 46
diy手作@@ 46
evo@@ 46
excel 46
excel@@ 46
fran@@ 46
fro@@ 46
g2 46
gle@@ 46
h8@@ 46
hand 46
jf 46
km 46
kyosho 46
l1 46
louis@@ 46
mari@@ 46
marmont系列@@ 46
max90@@ 46
mercier 46
mk58@@ 46
molly 46
mom 46
native 46
neighborhood 46
nikeair@@ 46
noki@@ 46
olivia 46
pic@@ 46
pick 46
pillow 46
ps3@@ 46
px@@ 46
saber 46
sanrio@@ 46
signature 46
suqqu 46
suv@@ 46
t7@@ 46
town 46
vapor 46
vga@@ 46
via 46
v臉@@ 46
xz1 46
ykk@@ 46
yun 46
zs 46
ジ@@ 46
ナ@@ 46
一人@@ 46
一份@@ 46
一天@@ 46
一直@@ 46
下單專區 46
下水管@@ 46
不留@@ 46
不褪色@@ 46
丙級@@ 46
中國結@@ 46
中型犬@@ 46
中字 46
中性款 46
中英@@ 46
二次元 46
五代@@ 46
休閑簡約@@ 46
伸@@ 46
佩戴@@ 46
俱樂部@@ 46
優品家居 46
優購 46
免 46
兒童書包@@ 46
兩側@@ 46
公主鞋@@ 46
公交@@ 46
冰河醣蛋白@@ 46
冷光@@ 46
几 46
削筆@@ 46
創意實用@@ 46
功放@@ 46
加密加厚@@ 46
加速@@ 46
北歐家用@@ 46
十二星座@@ 46
南瓜 46
卡座 46
印第安@@ 46
即可@@ 46
去濕@@ 46
反光貼 46
只能@@ 46
可上@@ 46
吉田@@ 46
名器@@ 46
吸引@@ 46
吸管杯 46
味道 46
和平精英@@ 46
品樂家@@ 46
哲 46
商務男士@@ 46
啞@@ 46
啞鈴 46
單片 46
單顆 46
噸@@ 46
四季鞋 46
固態@@ 46
圈圈耳環 46
圓餅包 46
垫@@ 46
堵漏@@ 46
填色@@ 46
墻貼紙@@ 46
多益@@ 46
大作戰 46
大床@@ 46
大推 46
大童鞋 46
婭@@ 46
媽媽裝 46
嬰兒推車可坐可躺@@ 46
嬰幼兒童@@ 46
學生書桌@@ 46
學生男女@@ 46
宙@@ 46
宛@@ 46
家庭裝@@ 46
實體店面@@ 46
寬肩@@ 46
寵物零食 46
小丸子 46
小孩子@@ 46
小巧 46
小米9@@ 46
小胖@@ 46
小顆粒@@ 46
少年童書 46
布沙發 46
布藝沙發小戶型@@ 46
希望@@ 46
幅 46
幕布@@ 46
幼兒園 46
底板 46
度假 46
廁所衛生間@@ 46
廠家 46
廷 46
彼得@@ 46
復活節@@ 46
快速充電 46
感應式@@ 46
慣性@@ 46
手壓式@@ 46
手提包單肩包@@ 46
手足@@ 46
打字@@ 46
打氣筒 46
抹茶 46
抽屜式收納柜@@ 46
抽真空@@ 46
拇指姑娘 46
指尖@@ 46
捲尺 46
排扣 46
排汗衣 46
排球@@ 46
搖床@@ 46
撥水@@ 46
撲滿 46
擴香 46
擺件客廳@@ 46
攝影棚@@ 46
政 46
敦@@ 46
整人@@ 46
斯特 46
新款潮流@@ 46
新茶@@ 46
方扣@@ 46
明太子 46
時尚套裝@@ 46
晃@@ 46
月曆 46
有點@@ 46
果凍套 46
桃花 46
梳妝凳@@ 46
極度誘惑@@ 46
標準盒 46
標語@@ 46
橋 46
機械手感@@ 46
檀香 46
櫻桃小丸子@@ 46
毛帽@@ 46
毛線帽 46
毫米@@ 46
民宿 46
民眾代購@@ 46
水手服@@ 46
水果刀 46
水果盤 46
水餃@@ 46
沙發巾 46
油煙機 46
油箱蓋 46
波紋@@ 46
泰迪狗@@ 46
洋甘菊@@ 46
浮力@@ 46
海水@@ 46
海綿寶寶@@ 46
淨透@@ 46
深 46
渡假風@@ 46
游戲周邊@@ 46
溢乳墊 46
滑鼠墊@@ 46
滿分@@ 46
漢方@@ 46
潮t@@ 46
潮流百搭 46
濃 46
濾鏡@@ 46
火星@@ 46
炫光@@ 46
烏龍茶 46
烏龜 46
热@@ 46
燙 46
特價現貨 46
狗年@@ 46
玩水@@ 46
珍珠耳釘 46
現貨在台@@ 46
現貨新品@@ 46
瑜珈墊 46
環保購物袋 46
瓊@@ 46
生日派對 46
生物 46
田園風@@ 46
男生t恤@@ 46
留 46
異色@@ 46
癮@@ 46
的商品 46
皮繩@@ 46
皮鞋男@@ 46
目前@@ 46
石英鐘 46
碎花雪紡@@ 46
神話@@ 46
祭 46
窗簾布@@ 46
笑笑@@ 46
第十@@ 46
筆盒 46
簡易家用經濟型@@ 46
簷@@ 46
米其林@@ 46
米菲@@ 46
粉紫@@ 46
精品錶 46
糞@@ 46
紅米5 46
紓壓@@ 46
紗布巾 46
結單@@ 46
經典馬車@@ 46
綠水鬼@@ 46
維多利亞的秘密 46
緊急@@ 46
羅馬數字@@ 46
美津濃@@ 46
聯想 46
背負式@@ 46
胺@@ 46
脸@@ 46
腰圍@@ 46
臨 46
自吸@@ 46
艦娘 46
艾米粒 46
艾美@@ 46
菜籃子@@ 46
萊卡棉@@ 46
葉黃素@@ 46
葳@@ 46
蒟蒻@@ 46
蒸臉@@ 46
蓋板 46
蓋毯@@ 46
蔬@@ 46
藍黑 46
藝品@@ 46
裝飾用品@@ 46
西瓜 46
識別@@ 46
貓玩具@@ 46
貓籠子@@ 46
貝拉@@ 46
負重@@ 46
貨號bd@@ 46
質量 46
賽季@@ 46
贈送 46
超人力霸王 46
超實用@@ 46
超持久@@ 46
超薄款@@ 46
踩腳@@ 46
車間@@ 46
軟骨@@ 46
輕熟@@ 46
辛普森@@ 46
辦公用品@@ 46
运@@ 46
運動風 46
遮陽板 46
邊條@@ 46
酪梨@@ 46
酵母@@ 46
金卡 46
鉤花@@ 46
銳步 46
銼@@ 46
鋁圈@@ 46
鋸片 46
鋼板@@ 46
長條桌@@ 46
長款拉鏈@@ 46
門上@@ 46
門牌@@ 46
防曬噴霧 46
防水防潮@@ 46
防滑軟底@@ 46
陽臺客廳@@ 46
隔離 46
隨身鏡 46
雅芳@@ 46
雙筒@@ 46
雙開門@@ 46
零件機 46
電擊@@ 46
電源線@@ 46
電熨斗@@ 46
電纜@@ 46
電腦桌臺式家用@@ 46
電腦椅家用辦公椅@@ 46
露娜@@ 46
青花@@ 46
靖@@ 46
韓版夏季@@ 46
韓版學院風@@ 46
韩@@ 46
音質@@ 46
頭箍@@ 46
頸鏈@@ 46
飲料袋 46
駝 46
驅蚊器@@ 46
體脂@@ 46
高質量@@ 46
鮭魚 46
鳴人@@ 46
鴕鳥@@ 46
鴿子@@ 46
麗芙小屋@@ 46
麻糬@@ 46
黑色蕾絲@@ 46
00元 45
031 45
10000mah 45
10l 45
160ml 45
18k金 45
20000毫安@@ 45
2004@@ 45
200mm 45
2015新款@@ 45
2018夏季@@ 45
2019夏季@@ 45
208@@ 45
20公分 45
261 45
263 45
272 45
2館 45
316不銹鋼@@ 45
360度旋轉 45
367 45
378 45
383 45
395 45
3b 45
40cm@@ 45
45碼@@ 45
466@@ 45
4kg 45
5人@@ 45
646 45
7000@@ 45
7折@@ 45
7歲@@ 45
803 45
818@@ 45
849@@ 45
996@@ 45
a32 45
aero 45
aj4@@ 45
amd 45
ani 45
asus@@ 45
balenciaga@@ 45
brick 45
clar@@ 45
classic@@ 45
clean 45
cross@@ 45
cup 45
diy手作材料 45
dj 45
ea 45
farm 45
final 45
flower@@ 45
gro@@ 45
hao@@ 45
hybrid 45
iwc 45
j1@@ 45
j4@@ 45
k金 45
last 45
leboy@@ 45
led護眼@@ 45
lex@@ 45
lv手拿包 45
m67@@ 45
mai@@ 45
major 45
mazda@@ 45
mbs 45
mer 45
missha@@ 45
miumiu 45
moto@@ 45
mq@@ 45
nc@@ 45
onitsuka 45
oz@@ 45
pla@@ 45
q3 45
rainbow 45
rh@@ 45
s1@@ 45
s925銀針@@ 45
season 45
shorts 45
sli@@ 45
speedy@@ 45
spf30 45
sse 45
stayreal 45
sunshine 45
sur@@ 45
tam@@ 45
tape 45
ther@@ 45
thom 45
tiida 45
tomy@@ 45
txt 45
und@@ 45
ung 45
v15 45
v9 45
vis@@ 45
vjr 45
volvo 45
vu@@ 45
yd 45
yellow 45
z2 45
zippo 45
ᴀ@@ 45
一分@@ 45
一步@@ 45
三件 45
三抽@@ 45
三段式@@ 45
三輪車 45
乖@@ 45
二手機 45
他 45
仰臥板@@ 45
任天堂switch@@ 45
佳人@@ 45
侧@@ 45
保固內 45
保濕修護@@ 45
保羅喬治@@ 45
保護蓋 45
修眉@@ 45
俱@@ 45
健身跑步@@ 45
偽裝@@ 45
傢居 45
優美@@ 45
免打孔衛生間@@ 45
內搭衫@@ 45
內里 45
全套裝@@ 45
全專 45
全棉 45
全素 45
全聯@@ 45
兮@@ 45
冒@@ 45
冰絲涼席@@ 45
出貨前實拍 45
出貨實拍 45
分售 45
初代 45
判@@ 45
刷卡 45
剋星 45
前叉@@ 45
創意家居 45
加藤@@ 45
勁爆價@@ 45
動物森友會 45
十八@@ 45
十月@@ 45
原廠公司貨michael 45
厨房@@ 45
參考書 45
及膝@@ 45
只是@@ 45
只有一個 45
可拉@@ 45
可掛式@@ 45
吃貨@@ 45
各大@@ 45
各類@@ 45
合頁@@ 45
呎 45
周邊商品 45
商務錢包 45
四個@@ 45
图@@ 45
圓頂@@ 45
圓領上衣@@ 45
垂墜 45
墜感@@ 45
壓模 45
夏新@@ 45
外傳 45
多層次@@ 45
大富@@ 45
大紅色@@ 45
大量現貨 45
太陽鏡女@@ 45
夾吸@@ 45
女生衣著@@ 45
女裝新款@@ 45
女錢包 45
婚禮佈置 45
婭 45
子母床@@ 45
字畫@@ 45
學生成人@@ 45
家用衛生間@@ 45
容量大 45
寶寶床@@ 45
寶寶防摔@@ 45
專利 45
小傑雜貨 45
小兔子@@ 45
尖嘴@@ 45
山茶花 45
差 45
帶燈 45
干濕@@ 45
平沿@@ 45
床邊桌 45
床頭柜簡約現代@@ 45
廠家批發 45
強光手電筒@@ 45
彌月禮盒 45
影像@@ 45
復興@@ 45
微風@@ 45
情侶男女@@ 45
愛麗絲夢遊仙境 45
懶人支架 45
戶外休閒@@ 45
手錶女@@ 45
托架 45
批發零售 45
投射燈 45
折疊傘 45
抽抽樂 45
指環支架 45
指甲油膠@@ 45
掃地機 45
掛燙@@ 45
掛燙機 45
掰@@ 45
提亮膚色 45
提拉緊致@@ 45
撐 45
播放@@ 45
擋風板 45
擠乳器 45
攝影道具 45
故宮@@ 45
教科書 45
新年禮物 45
新款特價 45
斷電@@ 45
施巴 45
旺 45
旺角 45
易拉@@ 45
時尚精品 45
普普熊@@ 45
暈@@ 45
曠野@@ 45
最新爆款@@ 45
束口 45
東芝 45
柜子儲物柜@@ 45
栗子@@ 45
棉麻布藝@@ 45
森林系 45
椰棕@@ 45
樣式 45
機專用@@ 45
機頂盒@@ 45
毅@@ 45
毛衣鏈 45
民謠@@ 45
氣囊 45
氣質洋裝 45
氣門@@ 45
水嫩@@ 45
汽機車@@ 45
汽車改裝@@ 45
汽車頭枕@@ 45
沖孔@@ 45
沙拉碗@@ 45
沙滩@@ 45
油門@@ 45
泫雅風@@ 45
洛杉磯@@ 45
洽談桌椅組合@@ 45
浴室櫃@@ 45
浴衣 45
海軍藍@@ 45
淡香 45
淨水 45
湖南@@ 45
滑行車@@ 45
潮帽 45
潮款 45
濾芯@@ 45
灰粉 45
災@@ 45
烏克麗麗@@ 45
熱銷商品 45
爆米花桶 45
牢@@ 45
物美@@ 45
特選@@ 45
现代简约@@ 45
現貨免運費 45
理財@@ 45
琪琪 45
璇@@ 45
甲蟲@@ 45
男t@@ 45
男士潮流@@ 45
男女時尚@@ 45
男短袖 45
症@@ 45
發音 45
白水晶 45
白襯衫 45
百貨專櫃@@ 45
的人@@ 45
的故事 45
盒組 45
相冊 45
真心@@ 45
短袖t恤女 45
石英防水@@ 45
破洞牛仔褲 45
磚石@@ 45
礦 45
礦石 45
禧@@ 45
程式 45
穗 45
童舖 45
筐 45
箭 45
簡易書桌@@ 45
簡易組裝@@ 45
粉筆@@ 45
純棉t恤@@ 45
紙箱 45
細肩帶背心 45
纖體@@ 45
美肌 45
聖 45
肉肉@@ 45
背帶褲@@ 45
胡桃木@@ 45
胸圍@@ 45
腰身@@ 45
膨@@ 45
臂力@@ 45
舒眠@@ 45
舞會 45
英倫復古@@ 45
茶器@@ 45
茶花@@ 45
菱 45
菱格鏈條@@ 45
萬花@@ 45
落肩 45
蒂芬妮綠 45
蓁 45
蔡依林 45
蔡小葵家 45
蔬菜 45
蕾絲鏤空@@ 45
蚊子@@ 45
行軍床@@ 45
街頭嘻哈@@ 45
衛生紙盒 45
補貨@@ 45
裱@@ 45
西裝外套@@ 45
要 45
訂婚@@ 45
記事@@ 45
調味瓶@@ 45
護目@@ 45
貓眼石@@ 45
起子機 45
軟式@@ 45
透明軟殼 45
透明防水@@ 45
逛@@ 45
逢甲@@ 45
遙控汽車@@ 45
都能@@ 45
配送 45
醃@@ 45
醫生 45
量子@@ 45
金牌 45
鉑@@ 45
鉛筆褲@@ 45
銀灰 45
銀針@@ 45
鋼頭@@ 45
錄影 45
铺 45
長袖襯衣@@ 45
閒@@ 45
閨蜜裝 45
防腐木@@ 45
隨手杯@@ 45
雙g印花@@ 45
雙卡@@ 45
雙扣@@ 45
雙肩帶@@ 45
雨鞋女@@ 45
雪肌粹@@ 45
電吹風@@ 45
電競椅 45
霉@@ 45
霸氣貓 45
青春 45
鞋器@@ 45
韓版修身顯瘦@@ 45
頌 45
領卷@@ 45
頭髮 45
顧客@@ 45
飄花@@ 45
飛人 45
飛輪@@ 45
餐包 45
餵奶@@ 45
香草 45
馬桶蓋@@ 45
騎行服@@ 45
驗 45
高效能@@ 45
麂皮絨@@ 45
麥芽@@ 45
點煙器 45
012@@ 44
026 44
108顆@@ 44
10倍@@ 44
15號 44
16cm 44
1月@@ 44
1色 44
2003 44
2016年 44
2017春夏@@ 44
2018年 44
20190@@ 44
2019秋冬@@ 44
2020春季@@ 44
218 44
24吋 44
2500 44
251 44
2b@@ 44
2way@@ 44
2用@@ 44
300h 44
30粒 44
334 44
338@@ 44
362 44
373 44
375 44
37號 44
3w 44
425 44
45cm 44
699@@ 44
85折下殺 44
908 44
99免運 44
9a 44
ami 44
asics@@ 44
av女優@@ 44
benz@@ 44
berry 44
bling@@ 44
bonbon 44
bot 44
charm 44
ching 44
chris 44
ck內褲 44
clinique 44
coach女包 44
cola 44
d7@@ 44
doo@@ 44
ek 44
fas@@ 44
flo@@ 44
gig@@ 44
ham@@ 44
hardy 44
hh@@ 44
hugo 44
hunter 44
hw 44
i3 44
ico 44
iphone11pro 44
jb@@ 44
jk制服@@ 44
joyride 44
kingston 44
limited 44
living 44
loft 44
made@@ 44
mamaway 44
mavic 44
monkey 44
mother 44
mu 44
nail 44
nana@@ 44
nas@@ 44
nh@@ 44
nillkin 44
p3 44
p30@@ 44
panasonic@@ 44
playboy@@ 44
polo領@@ 44
pv@@ 44
pvc防水@@ 44
r15@@ 44
r20 44
rl@@ 44
rpm 44
ryan 44
s80@@ 44
sense 44
solution 44
stay 44
storm 44
str@@ 44
suga 44
swiss 44
tattoo 44
tho@@ 44
tint 44
tur@@ 44
typec 44
val@@ 44
vapor@@ 44
versace凡賽斯@@ 44
wan@@ 44
wk@@ 44
xz2 44
y9 44
ying 44
yonex 44
yuri 44
yves 44
は@@ 44
ィ@@ 44
一般 44
三合@@ 44
三腳@@ 44
上學@@ 44
下訂@@ 44
不暈染@@ 44
不脫色@@ 44
主場@@ 44
乾洗手 44
二件組 44
二手衣物 44
亮白 44
人員 44
人員@@ 44
休閑椅 44
休閒寬鬆@@ 44
休閒潮流@@ 44
休閒跑步鞋 44
休閒運動短袖 44
休閒運動褲 44
佛具 44
佛前@@ 44
佳麗寶 44
來福 44
保暖加厚@@ 44
保溫箱@@ 44
倒流香爐@@ 44
假發女@@ 44
偏光鏡片 44
傘裙 44
優雅氣質@@ 44
儲米箱@@ 44
免稅店@@ 44
兒童書架@@ 44
全場熱賣 44
全書 44
全膠 44
全長@@ 44
兩件免運 44
兩個 44
兩雙@@ 44
冰棒@@ 44
冰雪@@ 44
冷熱水龍頭@@ 44
凹槽@@ 44
刀頭@@ 44
初版 44
利亞 44
前線 44
副食品 44
創意歐式@@ 44
功夫茶具 44
半拖鞋@@ 44
叛@@ 44
口氣@@ 44
口金@@ 44
可愛少女心@@ 44
史上@@ 44
吧椅 44
含運費 44
咨詢@@ 44
啊@@ 44
單只@@ 44
單柄@@ 44
單筒@@ 44
喵喵 44
嚕嚕米@@ 44
四款 44
壁掛架 44
外牆@@ 44
多啦a夢 44
大air@@ 44
大前賣場 44
大叔 44
大檐@@ 44
大班@@ 44
大鈔夾 44
天使之@@ 44
太陽能燈@@ 44
奇肌@@ 44
女褲@@ 44
子彈頭@@ 44
子線@@ 44
季節@@ 44
家用陽臺@@ 44
宸@@ 44
富士山@@ 44
寶麗來@@ 44
導 44
小品 44
小衫 44
小雛菊 44
小零錢包 44
小館 44
尖頭 44
屈臣氏 44
左手@@ 44
師大@@ 44
帶蓋勺@@ 44
幽靈 44
底盤@@ 44
康乃馨@@ 44
廁所洗手間@@ 44
廚具 44
引體向上@@ 44
彩鑽@@ 44
彪@@ 44
彬@@ 44
影子@@ 44
待 44
徒@@ 44
復古百搭@@ 44
微距@@ 44
思思@@ 44
性愛 44
情侶短袖 44
意大利進口@@ 44
慕絲@@ 44
憂@@ 44
戶外折疊@@ 44
房子 44
手杖@@ 44
手遊@@ 44
扭蛋機 44
折疊傘@@ 44
抱枕被子兩用@@ 44
拉提@@ 44
拉麵@@ 44
掛牌@@ 44
掛衣鉤@@ 44
支撐架@@ 44
收納凳@@ 44
收音@@ 44
攻擊@@ 44
放心@@ 44
效率@@ 44
整圖@@ 44
文房四寶@@ 44
斑馬紋@@ 44
斧@@ 44
新款gucci@@ 44
新款nike 44
新莊@@ 44
方型 44
方式 44
施工 44
旋轉式@@ 44
日規@@ 44
明裝@@ 44
春夏秋@@ 44
春秋冬季@@ 44
晚會@@ 44
晨光@@ 44
智能手表@@ 44
替代@@ 44
有趣@@ 44
架落地@@ 44
染料@@ 44
染髮劑 44
樂高積木 44
機手動@@ 44
機迷你@@ 44
正面@@ 44
每天@@ 44
毛氈@@ 44
毛髮@@ 44
民俗風@@ 44
氣墊殼 44
氣質顯瘦@@ 44
汽車鑰匙扣@@ 44
沉香 44
沙發墊四季通用@@ 44
沙發罩@@ 44
沙發靠墊@@ 44
沙金@@ 44
油煙@@ 44
法器 44
洗手乳 44
洛洛精品 44
流線@@ 44
涼鞋女仙女風@@ 44
淺灰色 44
滾筒洗衣機@@ 44
滿1000@@ 44
滿299@@ 44
澎袖@@ 44
濾心@@ 44
濾水@@ 44
烤爐@@ 44
無線藍芽@@ 44
無香@@ 44
煎鍋 44
照相@@ 44
煩@@ 44
熱水袋@@ 44
熱風@@ 44
特技@@ 44
狗窩 44
玉石 44
玩具兒童@@ 44
玩色@@ 44
現代客廳@@ 44
現貨促銷 44
現貨在@@ 44
生日禮 44
生日蛋糕@@ 44
田園 44
男友風@@ 44
男士黑色@@ 44
男大容量@@ 44
男女尺寸 44
男女式@@ 44
男運動@@ 44
當 44
白t 44
白粉@@ 44
的世界 44
直 44
相本 44
相簿 44
真發@@ 44
神經@@ 44
禮帽@@ 44
秋季男士@@ 44
秒殺全場 44
竹纖維@@ 44
笨@@ 44
第七@@ 44
答@@ 44
策 44
简易@@ 44
簡易多層@@ 44
簡易小@@ 44
粗陶@@ 44
精品包 44
約定@@ 44
紅光@@ 44
紅外線 44
純棉翻領@@ 44
綑@@ 44
經理@@ 44
網眼 44
網購@@ 44
緻 44
置物盒@@ 44
美國100 44
老虎頭 44
耳機保護套 44
耳罩 44
背板 44
脊椎@@ 44
自動機械 44
舒壓 44
航空 44
船錨@@ 44
芝士@@ 44
芝麻街 44
苔@@ 44
茶器 44
著用款 44
薄款外套 44
藍紅@@ 44
蘆洲@@ 44
蘋果無線藍牙耳機@@ 44
蛋糕裙 44
蜜蠟@@ 44
蜜餞@@ 44
行事曆 44
行李袋@@ 44
行銷 44
街頭風@@ 44
衝評價@@ 44
衣服女@@ 44
補色@@ 44
裝訂@@ 44
襯衫男@@ 44
觀光@@ 44
角川@@ 44
解題@@ 44
記號@@ 44
詢價@@ 44
試衣@@ 44
調味品@@ 44
諮@@ 44
警 44
護膚 44
護髮乳 44
變成@@ 44
赫 44
超人氣 44
超低直購 44
超商 44
超激@@ 44
超薄透氣@@ 44
路易威登lv 44
軟體@@ 44
載 44
辣媽@@ 44
辦公家具 44
送禮自用兩相宜 44
透明塑膠@@ 44
連體裙式@@ 44
逸 44
運動短袖 44
運動籃球鞋 44
都可@@ 44
酥油燈@@ 44
醋 44
采 44
金石@@ 44
金鑽@@ 44
鈴木@@ 44
銀針 44
鋼珠@@ 44
鍊包 44
鍵盤鼠標@@ 44
鎏金@@ 44
鑑定@@ 44
鑰匙鏈@@ 44
長袖套頭@@ 44
長褲套裝 44
長鴻@@ 44
防腐@@ 44
限時促銷@@ 44
限量商品 44
陶 44
雀斑@@ 44
集市 44
雙g壓花@@ 44
雪克@@ 44
雲南@@ 44
電動滑板車@@ 44
露乳@@ 44
靈動@@ 44
韓國帶回@@ 44
韓文@@ 44
韓版小清新@@ 44
頂級原單@@ 44
頭像@@ 44
頭戴式 44
類似@@ 44
顯示屏@@ 44
飛線編織 44
飯糰@@ 44
香料@@ 44
香榭@@ 44
香腸@@ 44
馬來西亞@@ 44
馬戲團@@ 44
駱@@ 44
高手@@ 44
魔術道具 44
鱗@@ 44
鶴 44
黃金戒指 44
黃銅材質 44
黑子的籃球 44
黑頭 44
027 43
0cm 43
1112 43
13號 43
15w 43
18v@@ 43
18年@@ 43
198@@ 43
19款@@ 43
1米 43
2016秋季新款@@ 43
2017年 43
2018春季新款@@ 43
20新款@@ 43
24色@@ 43
27cm 43
287 43
339 43
36號 43
396 43
3d印花@@ 43
470 43
4冊 43
501@@ 43
511 43
557 43
626 43
654 43
8米 43
9ml 43
a50@@ 43
accessories 43
adidas三葉草 43
anderson 43
aqu@@ 43
astone 43
b7@@ 43
blanc 43
bling 43
brown@@ 43
bt21@@ 43
bvlgari@@ 43
c4 43
casio卡西歐@@ 43
cheng 43
cooper 43
d3 43
dia 43
dis@@ 43
du 43
dual 43
dur@@ 43
edt 43
fang 43
fifty 43
g7 43
gle 43
hip 43
ico@@ 43
impact 43
jun 43
k3@@ 43
kappa 43
kc@@ 43
kno@@ 43
kur@@ 43
lai 43
led電子@@ 43
legacy 43
levis@@ 43
lion 43
lone 43
lv女包@@ 43
monsta 43
n5@@ 43
nis@@ 43
olive 43
peach 43
plan@@ 43
playmobil 43
posh 43
pur@@ 43
pvc配皮@@ 43
py@@ 43
qasa 43
r1@@ 43
rbrick 43
rouge 43
ry 43
shark 43
ssd@@ 43
t10 43
uag 43
ura 43
v5@@ 43
vomero 43
westwood 43
wp 43
y型@@ 43
z00@@ 43
z4 43
の店 43
テ@@ 43
一壺@@ 43
一拖二@@ 43
一號@@ 43
一體成型 43
不沾鍋 43
中老年女裝@@ 43
丹尼@@ 43
九折 43
乾洗@@ 43
二手旗艦 43
五穀@@ 43
五谷雜糧@@ 43
亮顏@@ 43
代發 43
代购@@ 43
仲@@ 43
休閒短t@@ 43
伴郎@@ 43
俊 43
保健品@@ 43
保溫保冷@@ 43
保濕精華 43
保貼 43
保險櫃 43
倫敦 43
健行@@ 43
傢飾 43
儲物 43
兜兜@@ 43
內頁@@ 43
全新免運 43
冬季加厚@@ 43
减@@ 43
利亞@@ 43
刷破 43
刷頭@@ 43
劇場版@@ 43
動漫二次元@@ 43
動漫抱枕 43
包含@@ 43
卡娜赫拉的小動物 43
卡帶@@ 43
卡洛@@ 43
原廠正品@@ 43
厭@@ 43
可伸縮 43
可口可樂 43
可手提@@ 43
可移除@@ 43
可脫 43
可變@@ 43
台灣正版二手dvd 43
吊帶背心女@@ 43
同學 43
吧台椅@@ 43
呈@@ 43
咖啡廳酒吧@@ 43
哭@@ 43
商務休閒女包 43
啊 43
喇叭褲 43
單圈@@ 43
單眼相機 43
噹噹@@ 43
四代戰 43
四件套純棉@@ 43
因為@@ 43
圓領短t@@ 43
圣羅蘭@@ 43
坐便器 43
坐墊子@@ 43
基礎款@@ 43
塑膠袋@@ 43
塑身衣 43
墻飾@@ 43
壓褶@@ 43
壼 43
壽司 43
夏涼@@ 43
夏裝2020新款@@ 43
多卡@@ 43
多層落地@@ 43
夢境@@ 43
大的@@ 43
大禮包 43
大禮包@@ 43
大蒜@@ 43
大馬標@@ 43
太太 43
奏 43
女子 43
威爾@@ 43
娃娃機夾@@ 43
娜美@@ 43
媽媽餵@@ 43
孕婦 43
孫芸芸 43
學生包 43
宵@@ 43
家用宿舍@@ 43
寄出前@@ 43
寓@@ 43
寶盒 43
專拍 43
小丑 43
小燈 43
小狗 43
尖端@@ 43
尼克@@ 43
工具車@@ 43
希爾@@ 43
平民@@ 43
廚房防油@@ 43
弟 43
彈潤@@ 43
彎 43
彎管@@ 43
形象@@ 43
後照鏡@@ 43
得標 43
徠@@ 43
復健@@ 43
復刻版@@ 43
微軟@@ 43
悶燒@@ 43
情侶衛衣 43
慾望@@ 43
成貓@@ 43
成長 43
戶外旅行@@ 43
手機充電@@ 43
按摩儀@@ 43
掛表 43
推出@@ 43
描金@@ 43
提 43
撞色條紋@@ 43
收納夾 43
收納置物架 43
教程 43
方便攜帶 43
旅行收納袋@@ 43
旱冰@@ 43
星星月亮@@ 43
暮@@ 43
書立@@ 43
本土@@ 43
杯蓋@@ 43
板凳 43
果凍包 43
架置物架@@ 43
梳妝鏡 43
椒 43
樂譜@@ 43
樺 43
櫻桃小丸子 43
欣欣代購 43
欧美@@ 43
正生@@ 43
步鞋 43
比亞 43
水星錶系 43
水果籃@@ 43
求婚 43
汐@@ 43
沙包 43
沙發客廳@@ 43
波西米亞風@@ 43
波輪@@ 43
洗車 43
浴帽 43
海藍@@ 43
淺 43
清潔刷@@ 43
溶解@@ 43
滿199發貨 43
潤滑油 43
潮流韓版@@ 43
火鍋店@@ 43
炸彈@@ 43
热卖 43
無油煙@@ 43
無線充電器 43
無需@@ 43
煮粥@@ 43
熨斗 43
燈罩 43
父親節@@ 43
牛乳@@ 43
玄關櫃 43
珠珠 43
現代創意@@ 43
現貨免等 43
現貨新品 43
瑩 43
生活家居館 43
男士運動@@ 43
男女情侶 43
畫板 43
白色蕾絲@@ 43
白菜@@ 43
白鞋@@ 43
白領@@ 43
皮夾錢包 43
盅@@ 43
直郵@@ 43
眼線筆@@ 43
眼鏡框 43
睡枕@@ 43
睡美人@@ 43
睡覺抱枕@@ 43
睫毛蕾絲@@ 43
矩@@ 43
短柄@@ 43
石英 43
研究 43
碳酸@@ 43
磨破@@ 43
神話 43
空盒 43
空調出風口@@ 43
空調被 43
穿鞋@@ 43
窗型@@ 43
窯@@ 43
童話 43
競速@@ 43
粉藍@@ 43
粧@@ 43
精品服飾 43
純黑@@ 43
紗網@@ 43
紙巾架@@ 43
紫藤@@ 43
續航@@ 43
纸 43
美男@@ 43
翡@@ 43
老鼠 43
耗@@ 43
肌活@@ 43
背帶裙@@ 43
胡子@@ 43
腥@@ 43
臀 43
臥室內@@ 43
自售 43
自我@@ 43
自拍 43
自留款 43
花環@@ 43
花花世界 43
芹@@ 43
茶道 43
葡萄牙@@ 43
蒂蒂 43
蓋布 43
蘋果小舖 43
蝦皮美食外送 43
蝦米@@ 43
蟬@@ 43
表盤@@ 43
裙褲 43
補丁 43
裸粉 43
襯衫洋裝 43
覆盆@@ 43
親愛的@@ 43
视@@ 43
計劃 43
計畫@@ 43
設計師款@@ 43
試衣鏡 43
試題 43
認明@@ 43
誠可議 43
調光 43
調節 43
象印@@ 43
貝克@@ 43
[...]
