現貨 28125
小@@ 13071
nike 11702
ml 11197
新款@@ 9954
全新 8535
大@@ 8501
的@@ 7832
adidas 7729
air 7121
時尚@@ 7093
兒童@@ 6949
家用@@ 6881
包 6374
現貨@@ 6357
日本@@ 6247
免運 6232
款 6195
系列 5709
全新@@ 5653
女@@ 5376
復古@@ 5266
cm 5261
多功能@@ 5234
創意@@ 5160
韓國@@ 4951
二手 4745
韓版@@ 4726
簡約@@ 4703
男士@@ 4679
經典@@ 4663
黑色@@ 4634
學生@@ 4533
可@@ 4496
新款 4447
慢跑鞋 4420
預購 4394
防水@@ 4161
黑 4133
黑色 4111
mm 4107
代購 4055
黑@@ 4047
款@@ 4043
包@@ 4024
寶寶@@ 4013
上衣 3997
迷你@@ 3977
百搭@@ 3970
男鞋 3967
男@@ 3933
iphone 3930
帶@@ 3887
可愛@@ 3876
白@@ 3733
套裝 3725
機@@ 3721
max 3712
男女@@ 3685
夏季@@ 3638
水@@ 3628
組 3622
運動鞋 3621
機 3613
加厚@@ 3611
花@@ 3570
金@@ 3564
元 3561
式@@ 3560
雙@@ 3536
色 3515
超@@ 3502
造型@@ 3463
版 3451
新@@ 3443
運動@@ 3427
專用@@ 3413
s@@ 3409
休閒@@ 3383
女鞋 3345
美@@ 3335
正品 3283
lv 3281
手提包 3266
女 3209
有@@ 3209
正品@@ 3174
器@@ 3159
休閒鞋 3156
系列@@ 3106
二手@@ 3093
網紅@@ 3085
潮流@@ 3080
無@@ 3079
套裝@@ 3063
休閑@@ 3048
單肩包 3038
入 3029
d@@ 3028
器 3023
不銹鋼@@ 2963
外套 2962
特價 2960
純棉@@ 2955
三@@ 2945
個性@@ 2939
gucci 2932
女士@@ 2921
北歐@@ 2905
白 2903
真皮@@ 2899
側背包 2850
汽車@@ 2841
盒 2829
一@@ 2823
卡通@@ 2822
金屬@@ 2821
全@@ 2805
附@@ 2770
實木@@ 2766
t恤 2754
手機殼 2752
紅@@ 2752
耳環 2729
戶外@@ 2726
手機@@ 2711
g@@ 2707
型@@ 2686
高@@ 2685
鞋@@ 2678
車@@ 2673
色@@ 2670
鞋 2670
coach 2644
不@@ 2643
情侶@@ 2637
短t 2633
子@@ 2631
pro 2603
裝飾@@ 2597
透明@@ 2588
白色@@ 2577
手錶 2568
手@@ 2558
送@@ 2547
印花@@ 2532
plus 2514
折疊@@ 2507
短袖 2506
m@@ 2494
米@@ 2469
男 2466
臥室@@ 2460
新品 2451
吋 2447
日本 2428
子 2415
客廳@@ 2413
廚房@@ 2413
收納@@ 2413
風@@ 2412
中@@ 2410
嬰兒@@ 2410
透氣@@ 2410
性感@@ 2406
洋裝 2405
x@@ 2395
大容量@@ 2382
片 2372
美國@@ 2371
a@@ 2363
女生@@ 2361
長@@ 2354
號 2342
斜挎包 2339
手工@@ 2317
愛@@ 2315
手拿包 2313
燈 2299
玻璃@@ 2289
粉 2285
布@@ 2282
木@@ 2269
玩具 2255
v@@ 2250
單@@ 2248
燈@@ 2241
卡@@ 2239
粉@@ 2238
公仔 2221
成人@@ 2219
t 2218
袋 2213
藍@@ 2211
架 2208
人@@ 2204
包包 2188
與@@ 2187
氣質@@ 2181
用@@ 2179
c@@ 2173
頭@@ 2167
盒@@ 2165
蕾絲@@ 2159
潮@@ 2156
長袖@@ 2148
刺繡@@ 2147
玩具@@ 2146
xl 2135
好@@ 2127
短袖@@ 2118
男生@@ 2101
折 2100
牛皮@@ 2093
皮@@ 2093
簡易@@ 2092
電動@@ 2088
之@@ 2077
k@@ 2073
jordan 2065
chanel 2045
防滑@@ 2045
陶瓷@@ 2044
l@@ 2042
藍 2028
天然@@ 2024
防@@ 2024
長夾 2022
台灣@@ 2015
天@@ 2015
new 2011
短袖t恤 2008
貓@@ 2000
錢包 1994
後背包 1991
m 1983
架@@ 1982
歐式@@ 1980
短褲 1976
lv@@ 1972
卡 1970
板@@ 1969
娃娃 1960
白色 1960
型 1955
肩背包 1952
多@@ 1949
香@@ 1948
大號@@ 1942
精品@@ 1941
年@@ 1939
茶@@ 1932
套@@ 1930
女包 1930
版@@ 1923
條紋@@ 1920
代 1916
ins@@ 1914
爆款 1910
立體@@ 1897
光@@ 1896
小型@@ 1894
零錢包 1894
專用 1891
潮 1890
led@@ 1888
修身@@ 1884
樂@@ 1883
寵物@@ 1877
男女鞋 1875
歐美@@ 1872
a 1861
小舖 1852
線@@ 1849
雙層@@ 1849
正韓@@ 1842
籃球鞋 1836
愛迪達 1830
式 1829
黃@@ 1828
現代簡約@@ 1827
the 1825
韓國 1819
水晶@@ 1817
上@@ 1807
h@@ 1806
簡約現代@@ 1799
顯瘦@@ 1799
拖鞋 1797
套 1786
衣服@@ 1783
長褲 1782
吊飾 1779
衣@@ 1775
t@@ 1772
背心 1767
出清 1761
代購@@ 1759
銀@@ 1759
實拍 1754
褲 1750
秋冬@@ 1747
爆款@@ 1744
原廠@@ 1741
電@@ 1740
便攜@@ 1736
精品 1733
正@@ 1732
熱銷 1731
二手書 1729
時尚 1728
神器@@ 1719
車 1719
內@@ 1710
彩色@@ 1710
智能@@ 1710
專業@@ 1709
日系@@ 1709
e@@ 1706
舒適@@ 1701
寬鬆@@ 1700
上衣@@ 1693
貼@@ 1692
油@@ 1689
公司貨 1688
針織@@ 1688
年 1686
黑白 1685
手提@@ 1681
特價@@ 1679
球@@ 1677
michael 1674
片@@ 1671
特@@ 1668
杯 1667
cm@@ 1665
貼紙 1663
貼 1660
帽 1658
夾 1653
寶@@ 1651
新品@@ 1651
碼 1650
塑料@@ 1649
家@@ 1649
後@@ 1647
斜背包 1638
大碼@@ 1631
代@@ 1630
珍珠@@ 1630
含@@ 1627
四@@ 1617
s 1613
mk 1610
店 1610
裝@@ 1610
綠@@ 1601
正版 1600
p@@ 1599
皮夾 1597
紙@@ 1591
圓形@@ 1588
純色@@ 1584
自動@@ 1583
配件 1577
保護套 1570
熱賣 1570
龍@@ 1569
女童@@ 1565
寬松@@ 1562
室內@@ 1555
w@@ 1552
線 1549
復古 1544
百搭 1544
保暖@@ 1539
阿@@ 1537
紅 1534
前@@ 1533
boost 1531
正韓 1529
懶人@@ 1514
板 1511
日式@@ 1507
logo 1506
i@@ 1505
限量@@ 1501
二@@ 1500
通用@@ 1498
女款@@ 1488
項鍊 1487
加@@ 1486
非@@ 1484
雙面@@ 1483
五@@ 1479
潮牌@@ 1478
情侶鞋 1475
海@@ 1475
男女 1475
y@@ 1468
組合@@ 1468
休閒 1467
辦公室@@ 1463
魚@@ 1463
墊@@ 1462
kitty 1461
襯衫 1460
f@@ 1458
皮帶 1458
gucci@@ 1457
床@@ 1457
hello 1453
寸@@ 1451
棉@@ 1451
蝴蝶結@@ 1450
夾@@ 1449
originals 1448
不鏽鋼@@ 1447
皮革@@ 1443
頭 1439
人 1437
louis 1436
旅行@@ 1431
連帽@@ 1430
商務@@ 1427
禮物 1427
ps 1425
男款@@ 1424
編織@@ 1423
拉@@ 1422
日@@ 1420
限定 1419
心@@ 1414
粉色@@ 1412
免運@@ 1410
鐵藝@@ 1410
diy@@ 1407
夏季新款@@ 1404
高腰@@ 1403
b@@ 1401
mm@@ 1401
林@@ 1401
號@@ 1401
公分 1400
衣 1399
吋@@ 1398
彩@@ 1395
袋@@ 1390
車載@@ 1389
電腦@@ 1389
墊 1388
瓶 1387
兩用@@ 1386
薄款@@ 1382
o@@ 1379
王@@ 1377
運動 1372
kors 1368
拼接@@ 1368
球 1367
字母@@ 1365
椅@@ 1363
免運費 1362
和@@ 1360
藍色@@ 1358
鐵@@ 1358
n@@ 1357
正版@@ 1355
老@@ 1353
椅 1351
超薄@@ 1351
跑步鞋 1351
無線@@ 1350
愛心@@ 1349
神@@ 1349
帆布@@ 1348
牛仔@@ 1348
防曬@@ 1347
格@@ 1346
石@@ 1342
進口@@ 1338
筆@@ 1337
格子@@ 1333
開@@ 1333
mini 1331
x 1329
桌面@@ 1328
必備 1326
夏@@ 1323
星@@ 1321
涼鞋 1321
韓版 1319
玫瑰@@ 1318
黑白@@ 1316
牛仔褲 1313
q@@ 1312
品@@ 1312
本@@ 1312
透氣 1312
家 1309
棒 1309
杯@@ 1308
板鞋 1308
短夾 1308
鏤空@@ 1308
山@@ 1307
桌@@ 1307
v領@@ 1304
褲@@ 1304
神器 1302
用 1301
迪士尼 1301
外套@@ 1300
屋 1299
灰 1298
no 1297
門@@ 1297
u@@ 1296
全新現貨 1295
面@@ 1295
帽@@ 1290
保濕@@ 1289
台灣現貨 1289
紅色@@ 1289
設計 1289
圓@@ 1286
同款@@ 1285
月@@ 1283
經典 1282
台@@ 1280
置物架@@ 1280
牌@@ 1278
刀@@ 1275
扣@@ 1274
真@@ 1274
純銀@@ 1265
毛@@ 1264
張@@ 1260
balance 1258
沙發@@ 1255
綁帶@@ 1255
彈力@@ 1252
冰@@ 1250
盤@@ 1245
米 1245
公主@@ 1241
居家@@ 1238
shop 1236
膠@@ 1236
軟@@ 1236
分@@ 1233
紫@@ 1232
雅@@ 1232
aj 1231
箱 1231
矽膠@@ 1230
圓領@@ 1227
盤 1227
編織 1227
尺寸 1226
書 1224
網@@ 1223
t恤@@ 1222
日版 1219
少女@@ 1218
全新正品 1217
宿舍@@ 1217
德國@@ 1216
設計@@ 1216
歐@@ 1212
雙人@@ 1212
usb@@ 1209
下殺 1209
灰@@ 1208
背包 1208
布藝@@ 1207
館 1207
安@@ 1206
書@@ 1206
牌 1205
飾品 1205
家居@@ 1204
貓咪@@ 1204
收納盒 1203
衛生間@@ 1202
防水 1198
擺件@@ 1195
金色@@ 1195
美式@@ 1194
靜音@@ 1194
六@@ 1193
筆 1193
用品@@ 1192
絲@@ 1192
one 1186
家用 1186
下@@ 1185
德@@ 1184
耐吉 1181
發@@ 1180
伸縮@@ 1179
實拍@@ 1177
浴室@@ 1175
logo@@ 1173
布 1172
海賊王 1171
馬@@ 1169
女裝@@ 1168
充電@@ 1166
ultra 1164
置物架 1164
半@@ 1163
條@@ 1163
用品 1163
多層@@ 1162
錢夾 1162
z@@ 1160
電子@@ 1158
定制@@ 1156
蘋果@@ 1154
手鍊 1151
滿 1150
咖啡@@ 1147
nmd 1145
斯@@ 1144
保護殼 1139
力@@ 1139
家居 1137
塑膠@@ 1134
口@@ 1131
單人@@ 1130
配件@@ 1130
男鞋@@ 1129
落地@@ 1129
陽臺@@ 1129
車用@@ 1128
打@@ 1127
迪士尼@@ 1125
流蘇@@ 1124
生@@ 1124
花 1124
襪 1123
箱@@ 1122
帶 1121
短@@ 1119
puma 1117
藍色 1117
時尚百搭@@ 1116
工具@@ 1114
仿真@@ 1113
中長款@@ 1112
vuitton 1111
文@@ 1110
辦公@@ 1110
元@@ 1108
刀 1106
水果@@ 1106
品 1104
平底@@ 1104
掛@@ 1104
風 1099
細@@ 1097
雪紡@@ 1096
華@@ 1090
水 1088
化妝包 1085
r@@ 1081
外@@ 1081
棉麻@@ 1081
本 1080
質感@@ 1080
配@@ 1078
工具 1077
紋@@ 1076
薄@@ 1076
裝 1076
裝飾 1075
陳@@ 1074
帆布鞋 1072
安全@@ 1071
ml@@ 1070
月 1070
小清新@@ 1069
潮流 1068
飾品@@ 1068
熱銷@@ 1065
蓋@@ 1065
適用 1063
台灣製 1062
送 1061
i 1060
韓@@ 1060
手環 1058
百貨 1058
蘋果 1058
鑰匙圈 1058
三角@@ 1056
冬季@@ 1056
格紋@@ 1056
克@@ 1055
小戶型@@ 1055
純@@ 1055
衣服 1055
日本製 1054
禮盒 1053
防摔@@ 1052
收納 1051
美甲@@ 1049
餐廳@@ 1049
夏天@@ 1048
限定@@ 1048
熱賣@@ 1047
熱@@ 1045
造型 1044
香奈兒 1044
短款@@ 1043
面膜 1043
baby 1041
微@@ 1038
男款 1038
zoom 1036
兩@@ 1036
腳@@ 1033
春夏@@ 1032
竹@@ 1032
現代@@ 1031
免@@ 1029
商品 1029
大 1029
環保@@ 1029
服@@ 1028
客訂 1027
長款@@ 1026
dior 1025
狗@@ 1025
批發 1024
地@@ 1023
高檔@@ 1022
壓@@ 1020
手作@@ 1020
模型 1020
女鞋@@ 1018
平@@ 1018
組合 1018
連衣裙 1016
條 1015
木質@@ 1014
紅色 1014
草@@ 1013
香水 1013
原@@ 1012
畫@@ 1011
青@@ 1011
雙肩包 1010
star 1008
for 1006
手套 1003
特惠 1003
粉色 1003
頂級@@ 1000
西@@ 999
扭蛋 997
椅子@@ 996
點@@ 996
包包@@ 995
cd 990
sony 990
個@@ 990
拉鏈@@ 990
直@@ 990
臺@@ 990
護@@ 990
j@@ 989
支架 988
甜美@@ 988
飛@@ 988
裙 984
壁掛@@ 983
台灣製造 982
精緻@@ 981
超級@@ 981
霜 981
出@@ 979
麗@@ 976
xs 975
三葉草 975
氣墊 975
件 973
雪@@ 973
油 972
健身@@ 971
force 970
nike@@ 970
女孩@@ 970
底@@ 970
小孩@@ 967
扣 967
男童@@ 967
apple 966
厚底@@ 966
古@@ 966
支架@@ 966
王 966
厚@@ 965
女包@@ 965
擺件 965
買 964
鏡@@ 964
服 963
去@@ 962
感@@ 962
歲@@ 961
便攜式@@ 960
店@@ 960
入@@ 959
清新@@ 959
管@@ 957
轉@@ 957
綠 956
罐 955
vans 953
公仔@@ 952
全自動@@ 951
口袋@@ 950
學@@ 949
明@@ 949
金 949
法@@ 948
輕奢@@ 947
burberry 946
限@@ 946
優@@ 945
皮帶@@ 945
清潔@@ 944
玉@@ 944
下標 943
放@@ 941
組@@ 941
dvd 940
動漫@@ 939
學院風@@ 939
旋轉@@ 939
皮革 939
情侶款 938
彈性@@ 937
高清@@ 937
度@@ 936
女款 935
背心@@ 935
克 934
成新 934
艾@@ 934
邊@@ 932
b 931
kg 930
動物@@ 930
瓶@@ 929
貓 928
隨身@@ 928
柜@@ 927
電池 927
童裝 925
路易威登 925
吊帶@@ 924
品牌@@ 923
桌 920
銅@@ 920
最新@@ 919
櫃@@ 919
輪@@ 918
手錶@@ 917
生日禮物 917
快速出貨 916
清@@ 916
音樂@@ 916
flyknit 915
機車@@ 914
熊@@ 914
plus@@ 913
共 913
手機殼@@ 912
可折疊@@ 911
note 910
美國代購 909
c 907
小號@@ 907
果@@ 906
衛衣 904
輕便@@ 903
f 898
方@@ 898
棉質@@ 898
四季@@ 897
茶 897
八@@ 896
按摩@@ 896
網 896
converse 895
限量 893
寸 892
連衣裙@@ 892
usb 890
火@@ 890
男裝@@ 890
us 889
戒指 889
圖@@ 887
黃金@@ 887
lego 885
李@@ 885
櫃 885
帽子 884
玩偶 884
腰包 884
達@@ 884
asus 883
歲 881
的 881
眼鏡 881
洗@@ 880
賣場 880
防塵@@ 880
刷@@ 879
桶@@ 879
魔@@ 879
磨砂@@ 878
の@@ 877
百@@ 877
自然@@ 876
比@@ 875
娃娃@@ 874
小米@@ 874
碗@@ 874
拼色@@ 873
現貨免運 873
腕錶 873
價 871
收納盒@@ 871
長方形@@ 869
adidas@@ 867
收納架@@ 867
短褲@@ 867
美 867
裙@@ 867
tw 865
墨鏡 865
模型@@ 865
男女款 864
耳環@@ 864
迷彩@@ 864
皮套 863
kitty@@ 862
日韓@@ 861
生活館 861
尺@@ 860
最@@ 860
福@@ 860
羅@@ 860
專櫃@@ 859
星星@@ 859
純棉 856
素面@@ 856
花朵@@ 856
簡約 855
商品@@ 854
佳@@ 853
個 853
帽t 852
素色@@ 852
香奈兒@@ 852
髮@@ 852
孔@@ 849
米奇@@ 849
蓋 848
輕@@ 848
原價 846
聯名@@ 846
跑鞋 846
長袖 846
來@@ 845
兒@@ 845
刷 845
時尚潮流@@ 845
殼 845
利@@ 844
ar 843
深@@ 841
側@@ 840
東@@ 840
美國 840
紙 838
夢@@ 837
大學t 836
適用@@ 835
腰帶 834
pro@@ 833
正 832
貼紙@@ 830
奇@@ 829
氣墊@@ 828
鋼@@ 828
手 826
我@@ 825
毛衣 825
短袖t恤@@ 825
翻蓋@@ 825
道@@ 824
鋁合金@@ 823
k 822
棒@@ 822
鎖@@ 821
手提包@@ 820
皮 820
蘭@@ 820
af 819
座 819
la 816
張 816
粉紅@@ 816
遊戲@@ 815
葉@@ 813
法國@@ 812
味@@ 811
沙灘@@ 811
青年@@ 811
強力@@ 807
蛋糕@@ 807
white 806
亮@@ 806
在@@ 806
收納包 806
運動鞋@@ 806
香水@@ 806
鏡 805
g 804
古馳@@ 804
床 803
背包@@ 802
酒店@@ 802
麂皮 802
拉鍊@@ 798
收納架 798
泰國@@ 798
硅膠@@ 798
亞@@ 797
玄關@@ 797
短袖上衣 797
禮物@@ 797
背@@ 797
表@@ 796
p 795
無痕@@ 795
字@@ 794
防風@@ 794
d 793
內褲 793
屋@@ 793
愛迪達@@ 793
春@@ 793
十@@ 792
圍巾 792
小包 792
推薦 792
貝@@ 792
and 791
床頭@@ 791
錶 791
抱枕 790
牛皮 790
英國@@ 790
學習@@ 789
自@@ 789
gb 788
samsung 788
七@@ 788
成@@ 788
灰色 788
in 787
優雅@@ 786
夜@@ 786
小 786
收納袋 786
吸@@ 785
尺 785
游戲@@ 785
角@@ 785
免打孔@@ 784
眼@@ 783
同款 782
春秋@@ 782
優質@@ 781
鑽@@ 781
hermes 779
標@@ 779
領@@ 779
可愛 778
yeezy 777
出貨 777
襯衫@@ 776
low 772
兔@@ 772
精@@ 771
鍋@@ 770
下單 769
三星 768
件@@ 768
圖案@@ 768
耐吉@@ 768
經典款@@ 767
贈@@ 767
chanel@@ 766
孕婦@@ 766
撞色@@ 766
珠@@ 766
香 765
原單 764
田@@ 764
秋季@@ 763
訓練@@ 763
太陽眼鏡 762
書寶二手書t 762
性@@ 761
灰色@@ 761
購物袋 760
康@@ 759
浪漫@@ 759
鏈條包 759
洋氣@@ 758
舒適 758
co@@ 757
小米 757
隱形@@ 756
ss 755
吉@@ 755
劑 754
膜@@ 754
書桌@@ 753
cc 751
ck 751
千@@ 751
菜@@ 751
銀 751
快@@ 750
氣@@ 750
波@@ 750
生活@@ 749
連帽外套 749
黃 749
生活 748
糖@@ 748
褲子 748
路@@ 748
全棉@@ 747
全館免運 747
架子@@ 747
茶幾@@ 747
通@@ 747
casio 746
拖鞋@@ 746
鏈條@@ 746
coach@@ 745
ysl 744
中文版 744
野@@ 744
假@@ 743
立@@ 743
by 742
威@@ 742
膠 742
儲物@@ 741
英倫@@ 741
國@@ 740
樂 740
寶 739
對@@ 739
秋冬新款@@ 738
石 737
古馳 736
樹@@ 736
沙@@ 736
台 735
現貨供應 735
l 734
oppo 734
肉@@ 734
九@@ 733
座@@ 733
龍 733
u 732
種@@ 732
素@@ 732
除@@ 732
日本代購 731
經典款 731
夏日@@ 730
re@@ 727
手機 727
斯 727
出清@@ 726
全新未拆 725
小熊@@ 725
無袖@@ 725
眼鏡@@ 725
家具@@ 724
空@@ 724
經濟型@@ 724
內衣 723
懶人鞋 723
桿@@ 723
洋裝@@ 723
重@@ 723
手作 722
極@@ 722
mk@@ 721
se 721
泰@@ 721
南@@ 720
膏 720
韓版潮流@@ 719
圈@@ 718
蝴蝶@@ 718
長版@@ 718
材質 717
le@@ 716
爆@@ 716
bb 715
到@@ 715
板鞋@@ 715
聖誕@@ 715
情趣@@ 714
方形@@ 714
森@@ 714
體@@ 714
e 713
會@@ 713
女裝 712
o 711
全 711
加絨@@ 709
保護套@@ 708
armani 707
三層@@ 707
印@@ 707
玩@@ 707
碗 707
仿@@ 706
健康@@ 706
爾@@ 706
love 705
pp@@ 705
單肩包@@ 705
涼鞋@@ 705
耳@@ 705
景品 704
水鑽@@ 704
美容@@ 704
力 703
名@@ 703
良好 703
購 703
跑步@@ 703
彩虹@@ 702
餐桌@@ 701
工作@@ 700
純銀 700
長褲@@ 700
藝術@@ 699
預購@@ 699
tee 698
桌子@@ 698
植物@@ 698
高品質@@ 698
mi@@ 697
古奇@@ 697
夏季 697
大容量 697
改裝@@ 697
物@@ 697
男錶 697
凱@@ 696
必備@@ 696
殼@@ 695
狗狗@@ 695
襪@@ 695
世界@@ 694
自行車@@ 694
超大@@ 694
接@@ 693
耳機 693
商用@@ 692
罩@@ 692
托特包 691
gg 690
保@@ 689
專屬賣場 689
是@@ 688
老爹鞋 688
買@@ 688
伊@@ 687
智慧@@ 687
貨@@ 687
釣魚@@ 687
diy 686
低幫@@ 686
禮品@@ 684
聯名 684
化@@ 683
all 682
尼@@ 682
瑞@@ 682
xr 681
環@@ 681
系@@ 681
咖啡 680
耐磨@@ 680
圈 679
型號 679
時@@ 679
液 678
移動@@ 678
耳機@@ 678
針@@ 678
行@@ 677
露@@ 677
鳥@@ 677
兒童 676
唇膏 676
長 676
你@@ 675
n 674
r 673
女錶 673
熊 673
風格@@ 673
go 672
傘@@ 672
管 672
合@@ 671
小牛皮@@ 670
帶蓋@@ 670
牛@@ 669
航海王 669
豆@@ 669
遊戲 669
一體@@ 668
修@@ 668
形@@ 668
思@@ 668
紗@@ 668
英文@@ 668
一組 666
卡夾 666
夜光@@ 666
led 665
mo@@ 665
特 665
格 664
音@@ 664
切@@ 663
抗@@ 663
系帶@@ 663
約 663
on 662
實用@@ 662
生日@@ 662
酷@@ 662
冰絲@@ 661
情@@ 661
易@@ 661
飾@@ 661
y 660
打底@@ 660
dr 659
外穿@@ 659
速@@ 659
櫻花@@ 658
遙控@@ 658
鑲鑽@@ 658
全新品 657
run 656
框@@ 656
雙色@@ 656
初學者@@ 655
新 655
包郵 654
家具 654
強@@ 654
雷@@ 654
h 653
disney 652
保護@@ 651
連身裙 651
青少年@@ 651
ck@@ 650
瑪@@ 650
變@@ 650
me@@ 649
pvc@@ 649
樂高 649
衣物@@ 649
及@@ 648
鍋 648
ga 647
佛@@ 647
原創@@ 647
牙@@ 647
特惠@@ 647
集 647
快速@@ 646
托@@ 646
持久@@ 646
直播@@ 646
精油@@ 646
black 645
大尺碼@@ 645
情侶款@@ 645
慢跑 645
收@@ 645
男包 645
萬用@@ 645
輪 645
風扇 645
xxl 644
in@@ 643
水桶包 643
綠色@@ 643
動@@ 642
抱枕@@ 642
斜挎包@@ 642
通用 642
精華 641
袖@@ 641
內衣@@ 640
棉 640
流行@@ 640
真皮 640
桶 639
深藍 639
穿@@ 639
噴霧 638
招財@@ 638
春季@@ 638
美白@@ 638
supreme 637
休閑鞋 637
of 636
夏裝@@ 636
nb 635
水洗@@ 635
老花@@ 635
書包 634
女神@@ 633
折@@ 633
搭配@@ 633
附發票 633
提@@ 632
標 632
套組 631
碎花@@ 631
低@@ 630
優品 630
公@@ 630
男女款@@ 630
腰帶@@ 629
中式@@ 628
多功能 628
小白鞋 628
書房@@ 628
科@@ 627
兒 626
an@@ 625
中 625
尼龍@@ 625
插@@ 624
晶@@ 624
貨 624
都@@ 624
周邊 623
維@@ 623
長裙 623
充氣@@ 622
洗髮精 622
活動@@ 622
耐克@@ 622
著 622
蛋@@ 622
防護@@ 622
htc 621
乳@@ 621
光 621
合金@@ 621
牛仔褲@@ 621
玫瑰金 621
襪子 621
童@@ 619
網紗@@ 619
單肩@@ 618
麥@@ 618
哈@@ 617
寬@@ 617
棒球帽 617
工@@ 616
帥氣@@ 616
摺疊@@ 616
玫瑰金@@ 616
面 616
羊皮@@ 615
腰@@ 615
行動電源 615
保溫@@ 614
優惠 614
品牌 614
活@@ 614
級@@ 614
韓國代購 614
柔軟@@ 613
潤@@ 613
發光@@ 613
ii 612
情侶 611
de@@ 610
凳@@ 610
學生 610
結婚@@ 609
膜 609
連@@ 609
配色 609
刺繡 608
周邊@@ 608
巴@@ 608
男孩@@ 608
萬@@ 608
mp 607
幾何@@ 607
流@@ 607
看@@ 607
剪@@ 606
批發@@ 606
第 606
藍牙@@ 606
迪@@ 606
點點@@ 606
三葉草@@ 605
客廳臥室@@ 605
已@@ 605
相機包 605
手動@@ 604
過@@ 604
v 603
水杯@@ 603
戰@@ 602
最新款@@ 602
調@@ 602
co 601
暖@@ 601
海外代購 601
硬@@ 601
shirt 600
服裝@@ 600
紫 599
蜜@@ 599
尚@@ 598
衛衣@@ 598
集@@ 598
塔@@ 597
潮男@@ 597
kl 596
平底鞋 596
雨@@ 596
寶寶 595
紋 595
雞@@ 595
全套@@ 594
口紅@@ 594
單肩斜挎包 594
鞋子@@ 594
新款韓版@@ 592
者@@ 592
幼兒園@@ 591
支@@ 591
法式@@ 591
項鏈 591
to@@ 590
休閒褲 590
繩@@ 590
耳釘 590
魔法@@ 590
高端@@ 589
鬼@@ 589
修護@@ 588
噴@@ 588
錢包@@ 588
主@@ 587
原廠 587
台灣現貨@@ 587
完美@@ 587
粗@@ 587
露肩@@ 587
升降@@ 586
卷@@ 586
帽子@@ 586
耐克 586
老人@@ 585
z 584
中國風@@ 584
喬丹 584
幼兒@@ 584
喜@@ 582
小學生@@ 582
客@@ 581
手鏈 581
翻領@@ 581
書架@@ 580
韓式@@ 580
off 579
豬@@ 579
輕量 579
吊墜@@ 578
小香@@ 578
手持@@ 578
檸檬@@ 578
童鞋 578
下單區 577
印花 577
售 577
框 577
童裝@@ 577
組裝@@ 577
switch 576
under 576
全包@@ 576
層@@ 576
情趣 576
普@@ 576
小鋪 575
滿@@ 575
后@@ 574
椅子 574
置物@@ 574
零食@@ 574
ar@@ 573
肌@@ 573
運動褲 573
靠背@@ 573
凳子@@ 572
固定@@ 572
不規則@@ 571
液@@ 571
短裙 571
米奇 571
舞@@ 571
藝@@ 571
露 571
tomica 570
公分@@ 570
婚禮@@ 570
排@@ 570
紫色@@ 570
門 570
下殺@@ 569
創意 569
區 569
夢幻@@ 569
連身@@ 569
al@@ 568
加厚 568
客訂@@ 568
里@@ 568
長袖上衣 568
雲@@ 568
外出@@ 567
媽媽@@ 567
松@@ 567
相@@ 567
手拿包@@ 566
軟殼 566
專屬 565
桿 565
烤@@ 565
粒 565
膏@@ 565
食@@ 565
m號 564
博@@ 564
吊@@ 564
跑步鞋@@ 564
小方包 563
巧克力@@ 563
褲子@@ 563
起@@ 563
超輕@@ 563
儀@@ 562
毛衣@@ 562
涼@@ 562
優惠@@ 561
機械@@ 561
身@@ 561
量@@ 561
香港@@ 561
馬桶@@ 561
星 560
湯@@ 560
classic 559
日本帶回 559
me 558
實@@ 558
現貨實拍 558
盆@@ 558
罐@@ 558
定制 557
手提袋 557
空調@@ 557
li@@ 556
修身顯瘦@@ 556
奢華@@ 556
補@@ 556
pu@@ 555
兔子@@ 555
請@@ 555
劑@@ 554
土@@ 554
得@@ 554
滿版@@ 554
裙子@@ 554
羊毛@@ 553
prada 552
wmns 552
ysl@@ 552
家庭@@ 552
獨家@@ 552
絕版 552
錶@@ 552
中國@@ 551
柔@@ 551
槍@@ 551
毛絨@@ 551
納@@ 551
髮飾 551
休閒鞋@@ 550
劍@@ 550
尾@@ 550
積木 550
bts 549
w 549
透@@ 549
ba 548
冷@@ 548
嘉@@ 548
圖 548
環 548
burberry@@ 547
全身@@ 547
孔 547
泡泡@@ 547
連體@@ 547
高級@@ 547
粉紅 546
草莓@@ 546
ai@@ 545
全白 545
親子@@ 545
位@@ 544
神奇寶貝 544
baby@@ 543
er@@ 543
superstar 543
信@@ 543
禮盒@@ 543
秀@@ 543
聖@@ 543
高品質 543
kobe 541
下標區 541
士@@ 541
綠色 541
顆 541
馬克杯 541
to 540
系 540
絲 540
金色 540
小卡 539
房間@@ 539
舒@@ 538
打底衫@@ 537
整理@@ 537
糖 537
高 537
free 536
單 536
尖頭@@ 536
mini@@ 535
on@@ 535
地墊 535
手提 535
電池@@ 535
骨@@ 535
麻@@ 535
fendi 534
og 534
ro@@ 534
吳@@ 534
巾 534
表 534
件組 533
烘焙@@ 533
髮圈 533
代理版 532
牛奶@@ 532
go@@ 531
亮片@@ 531
專櫃正品 531
路易威登@@ 531
house 530
安全帽 530
文藝@@ 530
新品下殺 530
糖果@@ 530
絕版@@ 530
反光@@ 528
淺@@ 528
籃球@@ 528
英@@ 528
裙子 528
兩件套@@ 527
半袖@@ 527
新生兒@@ 527
泥@@ 527
酒@@ 527
bag 526
ma@@ 526
sk 526
乾@@ 526
休閒運動@@ 526
立領@@ 526
鑽石@@ 526
香氛@@ 526
天 525
珠 525
行李箱@@ 525
製@@ 525
輕量@@ 525
calvin 524
ipad 524
polo衫 524
休閒運動鞋 524
拼圖 524
斜跨包 524
街頭@@ 524
韓系@@ 524
風格 524
餐具@@ 524
se@@ 523
沙發 523
遮陽@@ 523
高幫@@ 523
乳 522
星空@@ 522
廁所@@ 521
毯 521
酒吧@@ 521
靈@@ 521
size 520
創意個性@@ 520
寶可夢 520
韓版百搭@@ 520
化妝@@ 519
座椅@@ 519
摩托車@@ 519
料@@ 519
磨@@ 519
精華@@ 519
衫 519
la@@ 518
拼@@ 518
項鏈@@ 518
my 517
共@@ 517
吊燈@@ 517
學生宿舍@@ 517
掛件@@ 517
限定下標 517
心 516
秋@@ 516
三件套@@ 515
夏 515
積木@@ 515
能@@ 515
交叉@@ 514
墻@@ 514
現貨免運@@ 514
絨@@ 514
tory 513
一次性@@ 513
儀 513
出版 513
原裝@@ 513
手鏈@@ 513
枕 513
髮夾 513
包屁衣 512
彈@@ 512
手套@@ 512
材料 511
燒@@ 511
血@@ 511
reebok 510
定@@ 510
食品@@ 510
套頭@@ 509
官方@@ 508
寶貝@@ 508
戒指@@ 508
生日禮物@@ 508
坊 507
數字@@ 507
相機@@ 507
短版@@ 507
st 506
包裝@@ 506
床上@@ 506
木 506
筆記本@@ 506
古奇 505
北@@ 504
恐龍@@ 504
畫 504
奶@@ 503
巴寶莉@@ 503
整@@ 503
煙@@ 503
秋冬季@@ 503
罩 503
保護貼 502
全黑 502
原單@@ 502
古著 502
大型@@ 502
惠@@ 502
毛巾@@ 502
睡衣@@ 502
耐@@ 502
同@@ 501
川@@ 501
時尚休閒@@ 501
枕@@ 501
洗澡@@ 501
直筒@@ 501
life 500
polo 500
休閑鞋@@ 500
娜@@ 500
少女心@@ 500
q 499
包裝 499
釘@@ 499
鞋子 499
ma 498
干@@ 498
水杯 498
賣@@ 498
冬@@ 497
淨@@ 497
智@@ 496
空氣@@ 496
retro 495
type 495
依@@ 495
價@@ 495
繩 495
者 495
隊 495
魚 495
max@@ 494
兔 494
加大@@ 494
奧@@ 494
彩繪@@ 494
橡膠@@ 494
正品代購 494
緊身@@ 494
迷你 494
ko@@ 493
一番賞 493
大理石@@ 493
慢跑鞋@@ 493
桌子 493
防摔 493
高筒 493
so@@ 492
媽咪 492
擺飾 492
鑽 492
面膜@@ 492
ds 491
喔 491
抽繩@@ 491
服裝店@@ 491
沐浴@@ 491
購物包 491
bb@@ 490
媽咪@@ 490
拉 490
立式@@ 490
意@@ 489
海報 489
藥@@ 489
諾@@ 489
鏈@@ 489
分 488
制@@ 488
徽章 488
拍@@ 488
海洋@@ 488
皂 488
給@@ 488
廠家直銷 487
日常@@ 487
榻榻米@@ 487
男子@@ 487
設計師@@ 487
鞋柜@@ 487
房@@ 486
橘@@ 486
海綿@@ 486
盒裝 486
襪子@@ 486
派對@@ 485
發 485
頭層牛皮@@ 485
高跟鞋 485
am@@ 484
口罩 484
國際@@ 484
寬 484
抽@@ 484
水壺 484
泡沫@@ 484
兩件套 483
冰箱@@ 483
北歐風@@ 483
坐墊@@ 483
睡衣 483
萌@@ 483
賽@@ 483
辦公桌@@ 483
鮮@@ 483
就@@ 482
手包 482
模@@ 482
超值@@ 482
雙肩包@@ 482
le 481
不含@@ 481
加長@@ 481
可以@@ 481
女童 481
嬰幼兒@@ 481
控油@@ 481
支 481
根@@ 481
霜@@ 481
抗菌@@ 480
指@@ 480
田園@@ 480
節@@ 480
en@@ 479
五金 479
金證 479
鉚釘@@ 479
反光 478
青春@@ 478
再@@ 477
專屬@@ 477
毛巾 477
溫@@ 477
靴 477
黃色@@ 477
七龍珠 476
春夏新款@@ 476
ep 475
盒子@@ 475
西裝@@ 475
餐@@ 475
why 474
小說 474
抖音@@ 474
源@@ 474
等@@ 474
豹紋@@ 474
eqt 473
卡通 473
地毯@@ 473
巾@@ 473
平板@@ 473
情趣用品 473
發貨 473
sb 472
內搭@@ 472
冊 472
卡包 472
潔@@ 472
腿@@ 472
ol@@ 471
pa 471
spf 471
s號 471
如@@ 471
春季新款@@ 471
精美@@ 471
零@@ 471
噴霧@@ 470
胸包 470
雙 470
shock 469
墨@@ 469
密@@ 469
希@@ 469
幸福@@ 469
手袋 469
攝影@@ 469
潮牌 469
特賣 469
ua 468
三色@@ 468
質@@ 468
迷你小@@ 468
化妝品@@ 467
太@@ 467
梅@@ 467
窗簾@@ 467
回@@ 466
文化 466
明星@@ 466
真空@@ 466
藤@@ 466
hp 465
充電器 465
吸水@@ 465
妮@@ 465
馬 465
基本款 464
壺@@ 464
換@@ 464
書包@@ 464
碼@@ 464
粗跟@@ 464
附購證 464
sp 463
五金@@ 463
低筒 463
劉@@ 463
包郵@@ 463
居家 463
愛 463
馬卡龍@@ 463
可愛卡通@@ 462
恩@@ 462
掛鉤@@ 462
臺式@@ 462
風衣 462
lo@@ 461
ms 461
感應@@ 461
斜@@ 461
現@@ 461
old 460
stan 460
super 460
嘻哈@@ 460
密封@@ 460
手環@@ 460
明星同款@@ 460
羅馬@@ 460
詩@@ 460
間@@ 460
bv 459
原宿@@ 459
gs 458
寬褲 458
手繪@@ 458
收納櫃 458
為@@ 458
破洞@@ 458
芯@@ 458
迪奧 458
bmw 457
galaxy 457
po@@ 457
su@@ 457
堂 457
夾克 457
法 457
牆@@ 457
ac 456
ins風@@ 456
世@@ 456
捲@@ 456
an 455
做@@ 455
儲物柜@@ 455
女生 455
按摩棒 455
模 455
爐@@ 455
菱格@@ 455
風扇@@ 455
富@@ 454
be@@ 453
周@@ 453
手表@@ 453
騎行@@ 453
cos@@ 452
ki@@ 452
修復@@ 452
假兩件@@ 452
大氣@@ 452
賣 452
反@@ 451
棉t 451
省空間@@ 451
石英@@ 451
跟@@ 451
鎖 451
tb 450
壹@@ 450
小香風@@ 450
轉蛋 450
長袖t恤 450
義大利@@ 449
鼠@@ 449
全新正品@@ 448
工業@@ 448
漫畫 448
甜@@ 448
精油 448
頂@@ 448
倍@@ 447
內褲@@ 447
堂@@ 447
洛@@ 447
綜合@@ 447
只@@ 446
正版授權 446
盆 446
足@@ 446
銀色 446
鹿@@ 446
學 445
島@@ 445
手鐲 445
杯子@@ 445
舖 445
aq 444
ce@@ 444
de 444
我的@@ 444
文具@@ 444
裝飾品@@ 444
充電線 443
卡片 443
喇叭 443
收腰@@ 443
深藍@@ 443
滑板鞋 443
篇 443
莉@@ 443
萬能@@ 443
近全新 443
運動套裝 443
餅乾 443
高跟@@ 443
ss@@ 442
拍照@@ 442
燈具 442
飯@@ 442
chic@@ 441
圓領 441
理@@ 441
進@@ 441
保暖 440
愛馬仕@@ 440
架子 440
籃球鞋@@ 440
賣場@@ 440
gucci古馳@@ 439
pc 439
smith 439
初@@ 439
機家用@@ 439
玻璃貼 439
男生 439
透明 439
原版@@ 438
師@@ 438
彈 438
必@@ 438
扇@@ 438
鑰匙@@ 438
防刮@@ 438
city 437
地墊@@ 437
墨鏡@@ 437
完 437
很@@ 437
鋁@@ 437
門口@@ 437
一 436
公文包 436
手機套 436
每@@ 436
萊@@ 436
蝦@@ 436
吊墜 435
嚴選 435
滑@@ 435
爆品下殺 435
練習@@ 435
銀色@@ 435
armour 434
st@@ 434
促銷 434
單鞋@@ 434
小花@@ 434
展示@@ 434
柜 434
衛浴@@ 434
達 434
旅行包 433
楊@@ 433
道具@@ 433
電視@@ 433
zenfone 432
一字領@@ 432
不鏽鋼 432
帆布 432
改@@ 432
文具 432
柏@@ 432
游泳@@ 432
破@@ 432
護理@@ 432
電鍍@@ 432
露營@@ 432
交換禮物 431
底 431
機能@@ 431
爾 431
臺灣@@ 431
髮帶 431
吊燈 430
枕頭@@ 430
港風@@ 430
澳洲@@ 430
bo@@ 429
個性創意@@ 429
刷毛@@ 429
女性@@ 429
二代@@ 428
小巧@@ 428
摩@@ 428
材質@@ 428
母@@ 428
紀念@@ 428
衣櫃@@ 428
豐@@ 428
送禮 428
郵差包 428
prada@@ 427
專輯 427
車內@@ 427
dior@@ 426
三麗鷗 426
奶油@@ 426
限時@@ 426
斜挎@@ 425
聯@@ 425
阿瑪尼@@ 425
huarache 424
優 424
壺 424
抽屜@@ 424
泡@@ 424
泳衣 424
益智@@ 424
絨毛@@ 424
耳釘@@ 424
鏡子@@ 424
音響@@ 424
as 423
台中@@ 423
大尺碼 423
永@@ 423
男用@@ 423
禮品 423
防紫外線@@ 423
基@@ 422
導@@ 422
玫瑰 422
es 421
世界 421
女式@@ 421
室外@@ 421
軍@@ 421
音響 421
as@@ 420
lin 420
仙@@ 420
女用@@ 420
生 420
當@@ 420
行 420
衣柜@@ 420
迷@@ 420
do@@ 419
古典@@ 419
合 419
拖@@ 419
泳裝 419
秋季新款@@ 419
抽屜式@@ 418
磁性@@ 418
翻@@ 418
養@@ 418
北歐簡約@@ 417
打底衫 417
新款時尚@@ 417
材料@@ 417
盒裝@@ 417
筒@@ 417
簡單@@ 417
級 417
餐具 417
高筒@@ 417
te@@ 416
三合一@@ 416
天使@@ 416
感 416
服飾 416
淡@@ 416
潮鞋@@ 416
雙人 416
si@@ 415
公司@@ 415
女學生@@ 415
推薦@@ 415
飄窗@@ 415
di@@ 414
個性 414
收藏@@ 414
荷葉邊@@ 414
蒂@@ 414
蘇@@ 414
雙頭@@ 414
da@@ 413
klein 413
mr 413
乳液 413
花卉@@ 413
j 412
ns 412
拉鍊 412
羊@@ 412
肩@@ 412
衣架@@ 412
了 411
古著@@ 411
夜店@@ 411
度 411
掛畫@@ 411
華碩 411
藏@@ 411
邊 411
具@@ 410
寶石@@ 410
專賣店 410
景@@ 410
毛呢@@ 410
經@@ 410
隔熱@@ 410
burch 409
dc 409
工裝@@ 409
歡迎@@ 409
氣質 409
素t 409
繡花@@ 409
語@@ 409
ri@@ 408
saint 408
城@@ 408
新娘@@ 408
荷葉@@ 408
line 407
pk 407
印章 407
登山@@ 407
購@@ 407
迷妳@@ 407
長t 407
餐椅@@ 407
ralph 406
亞麻@@ 406
遊@@ 406
gt 405
台灣 405
抓@@ 405
總@@ 405
可調@@ 404
壁@@ 404
有機@@ 404
漆@@ 404
漢@@ 404
玩偶@@ 404
玩具總動員 404
男女同款 404
秋冬 404
蝴蝶結 404
運動休閒@@ 404
適合@@ 404
鋪 404
上 403
下單@@ 403
可 403
單鞋 403
曼@@ 403
紫色 403
花園@@ 403
針織上衣 403
韓版時尚@@ 403
gd 402
仙女@@ 402
充電式@@ 402
友@@ 402
御@@ 402
球鞋 402
皮質@@ 402
短tee 402
陽台@@ 402
餅 402
男裝 401
磁鐵@@ 401
神 401
筆袋 401
簡@@ 401
轉賣 401
配色@@ 401
魔術@@ 401
麂皮@@ 401
da 400
新款男士@@ 400
男女士@@ 400
鴨舌帽 400
送禮@@ 399
選@@ 399
開叉@@ 399
震動@@ 399
數位@@ 398
日 398
虎@@ 398
蠟@@ 398
點 398
優選 397
巴寶莉 397
新中式@@ 397
條紋 397
樂器 397
沖@@ 397
章 397
著@@ 397
零錢包@@ 397
versace 396
傘 396
歌@@ 396
胖@@ 396
衣架 396
長條@@ 396
顯瘦 396
九分@@ 395
兩用 395
升@@ 395
吹@@ 395
戀@@ 395
男士 395
粒@@ 395
全套 394
太空@@ 394
下 393
墊子@@ 393
女孩 393
客 393
枕頭 393
桌遊 393
洗衣機@@ 393
照片@@ 393
牛仔短褲 393
花花@@ 393
英倫風@@ 393
解@@ 393
ins 392
字 392
收藏 392
cd@@ 391
口 391
嘴@@ 391
團@@ 391
愛馬仕 391
歐洲@@ 391
滑板@@ 391
現貨實拍@@ 391
禮服@@ 391
雙g@@ 391
bt 390
原木@@ 390
取@@ 390
專區 390
果凍@@ 390
潛水@@ 390
琴@@ 390
閨蜜@@ 390
零食 390
類@@ 390
airpods 389
balenciaga 389
ti@@ 389
七彩@@ 389
三件套 389
巨@@ 389
朵@@ 389
瑜伽@@ 389
雜物@@ 389
塑@@ 388
百貨@@ 388
禮 388
角落生物 388
鏡頭@@ 388
d立體@@ 387
創@@ 387
太陽@@ 387
桃@@ 387
橘 387
粉底液 387
船@@ 387
項鍊@@ 387
一字@@ 386
台北@@ 386
各@@ 386
含運 386
地板@@ 386
戶外 386
瑞士@@ 386
第一@@ 386
花邊@@ 386
霧@@ 386
vi@@ 385
卷 385
厚底 385
手抓包 385
掛勾 385
推@@ 385
洋 385
皮鞋 385
舊@@ 385
轉角@@ 385
順@@ 385
館@@ 385
小白鞋@@ 384
少@@ 384
新年@@ 384
涼感@@ 384
皮夾@@ 384
連身衣 384
針 384
韓風@@ 384
jo 383
zx 383
寬鬆 383
巧@@ 383
有線@@ 383
罩衫 383
興@@ 383
benz 382
仿古@@ 382
公主 382
小店 382
未@@ 382
貝殼@@ 382
走@@ 382
全新現貨@@ 381
塗鴉@@ 381
針織 381
ao 380
ch@@ 380
刮@@ 380
加熱@@ 380
包臀@@ 380
四輪@@ 380
磁@@ 380
谷@@ 380
開衫@@ 380
食物@@ 380
pe@@ 379
可議價 379
男女同款@@ 379
被@@ 379
風水@@ 379
餐椅 379
ac@@ 378
tubular 378
vintage 378
xl@@ 378
勾@@ 378
台灣出貨 378
旅遊@@ 378
更@@ 378
樹脂@@ 378
洋@@ 378
燙@@ 378
爐 378
玻璃 378
裸@@ 378
黃色 378
tr 377
吃@@ 377
名媛@@ 377
場@@ 377
營養@@ 377
短靴 377
靴@@ 377
騎士@@ 377
魔鬼氈 377
黑紅 377
jo@@ 376
th 376
代理 376
卡片@@ 376
坐墊 376
夾克@@ 376
收納箱 376
精選@@ 376
cp 375
廠家直銷@@ 375
日本進口@@ 375
橫@@ 375
配方 375
錢夾@@ 375
陽@@ 375
丹@@ 374
先生 374
圓頭@@ 374
床邊@@ 374
派@@ 374
海外@@ 374
軟底@@ 374
aa 373
圖案 373
壁貼 373
平口@@ 373
長袖襯衫 373
電腦桌@@ 373
亞克力@@ 372
想@@ 372
男包@@ 372
購物@@ 372
電熱@@ 372
鬆緊@@ 372
料 371
梳 371
超美@@ 371
轉 371
鍵盤@@ 371
開關 371
ah 370
店鋪@@ 370
書桌 370
標準@@ 370
睡@@ 370
繡@@ 370
cortez 369
優惠價 369
大衣 369
尺寸@@ 369
擋@@ 369
簡約時尚@@ 369
紙膠帶 369
羽@@ 369
買一送一 369
man 368
九成新 368
促銷@@ 368
床墊 368
襪套 368
ab@@ 367
roshe 367
披肩 367
防蚊@@ 367
gg@@ 366
另有@@ 366
大功率@@ 366
愛心 366
掛鉤 366
擦@@ 366
漫@@ 366
犬@@ 366
行李箱 366
衫@@ 366
酸@@ 366
雅 366
韓版修身@@ 366
公事包 365
圖騰@@ 365
壓克力@@ 365
小腳@@ 365
情人節@@ 365
日本進口 365
柱@@ 365
洗臉@@ 365
淺口@@ 365
短襪 365
螺絲 365
裝飾畫@@ 365
賽車@@ 365
錠 365
ce 364
倒@@ 364
又@@ 364
客製化@@ 364
影@@ 364
梳妝臺@@ 364
檔@@ 364
耳針 364
蛇@@ 364
鋼帶@@ 364
cf 363
宮@@ 363
德 363
物 363
製 363
道具 363
閃@@ 363
ni@@ 362
保證@@ 362
教@@ 362
牛仔長褲 362
蘭 362
襯衣@@ 362
防滑 362
a字@@ 361
ta@@ 361
了@@ 361
作@@ 361
德國 361
日版@@ 361
武@@ 361
毛毛@@ 361
燒烤@@ 361
種子 361
衣櫃 361
gx 360
hd 360
利 360
大人@@ 360
字母印花@@ 360
收納柜@@ 360
全新未拆封 359
屏@@ 359
束@@ 359
毛 359
男性@@ 359
筒 359
身體@@ 359
針織衫@@ 359
sm@@ 358
內搭褲 358
兩色 358
品質@@ 358
商@@ 358
多色@@ 358
毯@@ 358
男女情侶@@ 358
異@@ 358
皂@@ 358
臥室床頭@@ 358
荔枝紋@@ 358
蝦皮 358
迷彩 358
ex 357
壁掛式@@ 357
多 357
提袋 357
水晶 357
碳纖維@@ 357
聲@@ 357
茶杯@@ 357
變頻@@ 357
鏡面@@ 357
鼻@@ 357
honda 356
sm 356
全皮@@ 356
剪刀 356
包頭@@ 356
吧臺@@ 356
工業風@@ 356
帆布鞋@@ 356
會 356
磁吸@@ 356
繽紛@@ 356
補水@@ 356
針織衫 356
霧面@@ 356
桌上@@ 355
桌椅@@ 355
照@@ 355
腳 355
鹽@@ 355
af@@ 354
中大童@@ 354
化妝水 354
汽車 354
狗 354
芯 354
蟲@@ 354
褲裙 354
love@@ 353
or@@ 353
仔@@ 353
健@@ 353
六角@@ 353
味 353
左@@ 353
彩妝@@ 353
球衣 353
限時下殺 353
養生@@ 353
at@@ 352
toyota 352
中性@@ 352
展示架@@ 352
期@@ 352
泳衣@@ 352
現 352
禮@@ 352
空壓殼 352
風衣外套 352
哥@@ 351
坐@@ 351
珍@@ 351
眉@@ 351
豪華@@ 351
迪奧@@ 351
雕花@@ 351
韓 351
ne@@ 350
re 350
sp@@ 350
傳輸線 350
加絨加厚@@ 350
增高@@ 350
廣告@@ 350
收納箱@@ 350
日本製@@ 350
皮鞋@@ 350
短t@@ 350
結@@ 350
露背@@ 350
飾 350
is 349
lg 349
喇叭@@ 349
掛件 349
東京@@ 349
漫畫@@ 349
狼@@ 349
精華液 349
運@@ 349
長裙@@ 349
防盜@@ 349
ax 348
high 348
vapormax 348
佳 348
保濕 348
收納袋@@ 348
民族風@@ 348
睡眠@@ 348
美妝 348
背帶@@ 348
鉤@@ 348
阿迪達斯 348
blue 347
ca 347
售@@ 347
自粘@@ 347
輕薄@@ 347
農@@ 347
雪花@@ 347
pop 346
sh@@ 346
性感 346
時尚百搭 346
濾@@ 346
燈具@@ 346
舒緩@@ 346
蒸@@ 346
貓咪 346
部@@ 346
防摔殼 346
雜貨鋪 346
鞋架@@ 346
ct 345
it@@ 345
剪 345
巧克力 345
平衡@@ 345
情人節禮物 345
文 345
浴@@ 345
遮光@@ 345
釦@@ 345
馬甲@@ 345
rx 344
可開發票 344
城 344
大小@@ 344
正貨 344
降價 344
電源@@ 344
at 343
iphone@@ 343
冷氣@@ 343
出貨@@ 343
圍巾@@ 343
掛飾 343
禮服 343
要@@ 343
雨傘@@ 343
電動車@@ 343
鞋女@@ 343
風衣@@ 343
休閑運動@@ 342
兒童玩具@@ 342
吊飾@@ 342
專@@ 342
慢跑@@ 342
盒子 342
衣櫥@@ 342
餅@@ 342
咖啡廳@@ 341
聯名款 341
限量版 341
飛機@@ 341
lauren 340
nba 340
react 340
zero 340
君@@ 340
插卡@@ 340
欣@@ 340
肩帶@@ 340
臥室客廳@@ 340
行動@@ 340
連身褲 340
ad@@ 339
凝膠 339
口紅 339
塞@@ 339
拍 339
指甲@@ 339
窗@@ 339
籃 339
美背@@ 339
透視@@ 339
高領@@ 339
sa@@ 338
sc 338
三色 338
宜@@ 338
手機包 338
清潔 338
漆皮@@ 338
潮人@@ 338
素 338
膠囊 338
跑@@ 338
bq 337
kyrie 337
單車@@ 337
拼接 337
料理@@ 337
浮雕@@ 337
甲@@ 337
登@@ 337
簡約百搭@@ 337
菲@@ 337
過濾@@ 337
bi@@ 336
cc@@ 336
ho@@ 336
polo@@ 336
rolex 336
原宿風@@ 336
把@@ 336
旗袍@@ 336
書柜@@ 336
森林@@ 336
滋潤@@ 336
玫瑰花@@ 336
肩背包@@ 336
臺 336
莎@@ 336
裝飾品 336
防撞@@ 336
阿迪達斯@@ 336
ka@@ 335
rs 335
凳 335
數@@ 335
派對 335
浮@@ 335
短裙@@ 335
道 335
電影@@ 335
顆@@ 335
mid 334
下殺價 334
使用@@ 334
圍@@ 334
娜 334
尺碼 334
年新款@@ 334
情人節 334
模具 334
絲絨@@ 334
線條@@ 334
護手霜 334
遮@@ 334
鉆@@ 334
隔斷@@ 334
ptcg 333
vol 333
三眼@@ 333
供@@ 333
壓紋@@ 333
掛畫 333
染@@ 333
柱 333
槍 333
粘@@ 333
背帶 333
豆豆鞋 333
進門@@ 333
韓版潮@@ 333
panasonic 332
二代 332
助@@ 332
名 332
增@@ 332
推車 332
白金@@ 332
碎@@ 332
科技@@ 332
親@@ 332
長夾@@ 332
el@@ 331
小物 331
烏@@ 331
網布 331
鍵盤 331
kd 330
主機 330
像@@ 330
公斤 330
吸盤@@ 330
早餐@@ 330
筆記本 330
職業@@ 330
華為@@ 330
鏡子 330
非 330
usb充電@@ 329
使用 329
勝@@ 329
可調節@@ 329
唐@@ 329
情侶裝@@ 329
手珠 329
氣 329
秋裝@@ 329
米妮 329
脫@@ 329
落地式@@ 329
通 329
那@@ 329
氣墊鞋 328
mar@@ 327
台灣公司貨 327
太陽能@@ 327
或@@ 327
手包@@ 327
明信片 327
歐美 327
海報@@ 327
潮鞋 327
腰 327
莫@@ 327
躺椅@@ 327
采@@ 327
鑰匙包 327
電腦包 327
hi 326
史努比 326
大號 326
小姐 326
萬聖節@@ 326
速干@@ 326
麥克風 326
er 325
fila 325
ku@@ 325
l號 325
分體@@ 325
少女 325
烤漆@@ 325
盆栽@@ 325
私@@ 325
精品下殺 325
縫@@ 325
開關@@ 325
鴨@@ 325
久@@ 324
以@@ 324
勞力士 324
可拆洗@@ 324
水壺@@ 324
減震@@ 324
耐磨 324
遠@@ 324
靜@@ 324
顏色@@ 324
cq 323
laurent 323
marc 323
七分袖@@ 323
四件套@@ 323
妝@@ 323
床墊@@ 323
杯子 323
鉤 323
黏@@ 323
bandai 322
ch 322
gap 322
pandora 322
丸@@ 322
五分褲 322
大象@@ 322
好 322
展@@ 322
棒球@@ 322
美麗@@ 322
錶帶 322
防彈少年團 322
北歐 321
太陽鏡 321
婚紗@@ 321
底座@@ 321
書架 321
柜子@@ 321
聖誕節@@ 321
鉗 321
首飾@@ 321
up 320
yu@@ 320
傳@@ 320
內增高@@ 320
全銅@@ 320
封@@ 320
棉褲 320
耳夾 320
wifi@@ 319
仕@@ 319
側背包@@ 319
含稅 319
珍珠 319
米白 319
購入 319
趣味@@ 319
進口 319
雙肩@@ 319
頭飾@@ 319
bk 318
一套 318
事@@ 318
垃圾桶 318
夏季薄款@@ 318
專櫃 318
小桌子@@ 318
小羊皮@@ 318
毛線@@ 318
籃@@ 318
美妝@@ 318
雜貨 318
電腦桌 318
靠枕@@ 318
餐桌 318
adv 317
cs 317
ke@@ 317
style 317
印 317
小童@@ 317
幸運@@ 317
拆@@ 317
特殊@@ 317
bv@@ 316
lv路易威登@@ 316
un@@ 316
大碼 316
安卓@@ 316
帝@@ 316
日貨 316
薄款 316
許@@ 316
雙耳@@ 316
音 316
壓花@@ 315
奶茶@@ 315
宇@@ 315
文胸@@ 315
淡香水 315
臉@@ 315
蕾絲 315
香薰@@ 315
no@@ 314
不銹鋼 314
台灣製@@ 314
增高 314
多款@@ 314
幹@@ 314
扇 314
歐美風@@ 314
網面@@ 314
蔻馳@@ 314
蝦皮@@ 314
運動休閑@@ 314
顏@@ 314
高跟鞋@@ 314
igo 313
mg 313
xl碼 313
宏@@ 313
手機支架 313
擺@@ 313
短袖t 313
編號 313
螺絲@@ 313
超強@@ 313
電影 313
sd 312
唇@@ 312
墻上@@ 312
多肉@@ 312
夫@@ 312
官網@@ 312
小包@@ 312
小小@@ 312
帆布包 312
最新款 312
瓦@@ 312
維修@@ 312
聖羅蘭 312
膠帶 312
臥室 312
複古@@ 312
訂製@@ 312
錢 312
隊@@ 312
mit 311
ts 311
丁@@ 311
休閒百搭@@ 311
冠軍@@ 311
午睡@@ 311
妙@@ 311
工坊 311
巴黎@@ 311
志@@ 311
活力@@ 311
溫泉@@ 311
眼影 311
紋身@@ 311
醬 311
鈦鋼@@ 311
到 310
口味 310
墻壁@@ 310
夾子@@ 310
快充@@ 310
手鐲@@ 310
掛飾@@ 310
曬@@ 310
服裝 310
產@@ 310
皇@@ 310
網路@@ 310
變色@@ 310
遮陽帽 310
廚房置物架@@ 309
推車@@ 309
搭@@ 309
江@@ 309
睡覺@@ 309
秒@@ 309
精 309
耐吉nike 309
能量@@ 309
華 309
說@@ 309
跳蛋 309
高雄@@ 309
小屋 308
快樂@@ 308
精選 308
臺燈@@ 308
canon 307
ins網紅@@ 307
sa 307
xa 307
剪刀@@ 307
勾 307
向@@ 307
園@@ 307
奶茶店@@ 307
款式 307
涼拖鞋 307
測@@ 307
班@@ 307
葉 307
蜂蜜@@ 307
首@@ 307
ta 306
仁@@ 306
保溫杯 306
出 306
口罩@@ 306
小姐@@ 306
掛式@@ 306
碟@@ 306
輕鬆@@ 306
運動休閒鞋 306
mi 305
十字@@ 305
壁畫@@ 305
客廳 305
帕@@ 305
手機架 305
旅游@@ 305
時鐘@@ 305
正品代購@@ 305
殺@@ 305
綁@@ 305
聖誕節 305
雨衣 305
顏色 305
jp 304
pvc 304
red 304
之家 304
彩 304
懷舊@@ 304
手表 304
水龍頭@@ 304
男女鞋@@ 304
皮套@@ 304
福袋 304
腕錶@@ 304
臉部@@ 304
蛋 304
關@@ 304
電視柜@@ 304
鼓@@ 304
lu@@ 303
動漫 303
可移動@@ 303
手辦 303
手辦@@ 303
掛脖@@ 303
擺設 303
款式@@ 303
滿版 303
牙刷 303
耳飾 303
藍芽@@ 303
one@@ 302
sr 302
us@@ 302
ze 302
佩@@ 302
公司貨@@ 302
冠@@ 302
四季通用@@ 302
情侶鞋@@ 302
斜背@@ 302
日系 302
樂高@@ 302
珠寶@@ 302
瘋@@ 302
眼睛@@ 302
純銅@@ 302
老帽 302
肩背 302
蔻馳 302
記@@ 302
讀@@ 302
豪@@ 302
鋼彈 302
新款潮@@ 301
旗@@ 301
果 301
神奇@@ 301
米妮@@ 301
胸@@ 301
螢幕@@ 301
護唇膏 301
超可愛@@ 301
便@@ 300
便宜賣 300
保養@@ 300
勺@@ 300
壁燈@@ 300
拼圖@@ 300
星巴克@@ 300
池@@ 300
清爽@@ 300
琳@@ 300
社 300
輕巧@@ 300
門簾@@ 300
電腦 300
高壓@@ 300
dw 299
gap@@ 299
傑@@ 299
可用 299
旺@@ 299
消毒@@ 299
醬@@ 299
鋼化玻璃@@ 299
開口@@ 299
餅乾@@ 299
鳥 299
fit 298
tt@@ 298
優品@@ 298
全家@@ 298
刻@@ 298
怡@@ 298
洗衣@@ 298
漸層@@ 298
特賣@@ 298
秒殺價 298
考@@ 298
單肩 297
女生包包 297
居@@ 297
床單@@ 297
極簡@@ 297
牛仔外套 297
相機 297
碳@@ 297
纖@@ 297
肩背@@ 297
華為 297
足球@@ 297
連身裙@@ 297
過膝@@ 297
長袖t恤@@ 297
麵@@ 297
kg@@ 296
一對@@ 296
單人 296
媽@@ 296
廚房 296
水槽@@ 296
種 296
runner 295
uniqlo 295
三星@@ 295
兒童房@@ 295
基礎@@ 295
多色可選 295
彎@@ 295
服飾@@ 295
比 295
沙灘鞋 295
深層@@ 295
皇冠@@ 295
選 295
髮 295
ya 294
主機@@ 294
披肩@@ 294
毛球@@ 294
男女生@@ 294
白黑 294
織@@ 294
舒適透氣@@ 294
貝殼包 294
錢@@ 294
魚缸@@ 294
mt 293
換鞋凳@@ 293
格紋 293
櫻桃@@ 293
爆米花@@ 293
腰包@@ 293
舞蹈@@ 293
茶葉@@ 293
草 293
防潮@@ 293
cat 292
kors@@ 292
lebron 292
pink 292
tt 292
xperia 292
區@@ 292
太陽鏡@@ 292
季@@ 292
樹 292
潮流時尚@@ 292
炫彩@@ 292
玉 292
玉米@@ 292
跑鞋@@ 292
遮瑕@@ 292
ba@@ 291
exo 291
xr@@ 291
交@@ 291
休閒短褲 291
保固 291
吸塵器 291
女韓版@@ 291
室@@ 291
書籍 291
機械錶 291
洗面乳 291
益@@ 291
胡@@ 291
茶具@@ 291
薇@@ 291
護眼@@ 291
限定版 291
髮箍 291
store 290
一組@@ 290
人氣@@ 290
入組 290
寫@@ 290
工程@@ 290
時鐘 290
森系@@ 290
海賊王@@ 290
激@@ 290
磚@@ 290
羽毛@@ 290
草本@@ 290
asics 289
lx 289
pp 289
床包 289
拉拉熊 289
散@@ 289
斑@@ 289
的小@@ 289
種子@@ 289
籠@@ 289
象@@ 289
資料夾 289
魯夫 289
korea 288
三件組 288
下單處 288
別@@ 288
動漫周邊@@ 288
寢室@@ 288
折扣@@ 288
有 288
朗@@ 288
法蘭絨@@ 288
淑女@@ 288
澤@@ 288
眼 288
蔬菜@@ 288
高爾夫@@ 288
ic@@ 287
play 287
冬天@@ 287
台風行 287
史努比@@ 287
園藝@@ 287
婚禮小物 287
底座 287
戴@@ 287
段@@ 287
湯匙 287
濕@@ 287
狂@@ 287
窄@@ 287
背景@@ 287
花架@@ 287
電競@@ 287
龜@@ 287
chi@@ 286
mate 286
na 286
ㄧ@@ 286
單肩斜挎@@ 286
小方包@@ 286
小號 286
常@@ 286
廣@@ 286
扁@@ 286
木工@@ 286
榮@@ 286
糖果色@@ 286
綁帶 286
部 286
鋸@@ 286
鏈條包@@ 286
隔@@ 286
頸@@ 286
三 285
倫@@ 285
制服@@ 285
尖@@ 285
杯墊 285
炫@@ 285
盛@@ 285
被子@@ 285
輔助@@ 285
開運@@ 285
阿贊@@ 285
雕刻@@ 285
點心@@ 285
en 284
不對稱@@ 284
中跟@@ 284
串@@ 284
也@@ 284
二合一@@ 284
卡西歐 284
型男@@ 284
寶可夢@@ 284
射@@ 284
暗@@ 284
煮@@ 284
節能@@ 284
茶几@@ 284
鋼琴@@ 284
隔離@@ 284
高速@@ 284
史@@ 283
唇釉 283
喬@@ 283
字母 283
怪@@ 283
模具@@ 283
步@@ 283
混@@ 283
目@@ 283
簾@@ 283
被 283
鏈 283
my@@ 282
snoopy 282
yo@@ 282
伯@@ 282
便攜 282
古風@@ 282
女性淡香水 282
婚慶@@ 282
替換@@ 282
正品現貨 282
牛津布@@ 282
絕@@ 282
靠墊@@ 282
麵包@@ 282
chanel香奈兒@@ 281
miss 281
q版@@ 281
下標@@ 281
人物@@ 281
半身裙@@ 281
士 281
大頭@@ 281
擺設@@ 281
腳墊@@ 281
開車@@ 281
電話@@ 281
體恤@@ 281
pc@@ 280
u型@@ 280
安 280
廚@@ 280
比基尼 280
補水保濕@@ 280
金剛@@ 280
鍊 280
br 279
day 279
凱蒂貓 279
合身@@ 279
宜家@@ 279
小茶幾@@ 279
師 279
控@@ 279
改裝 279
果汁@@ 279
水桶@@ 279
燙金@@ 279
的店 279
砂@@ 279
美樂蒂 279
鉗@@ 279
電 279
麵 279
face 278
man@@ 278
小夜燈 278
悅@@ 278
曉@@ 278
減@@ 278
現貨出清 278
站@@ 278
緊緻@@ 278
蔡@@ 278
ca@@ 277
中文@@ 277
井@@ 277
便當盒 277
午休@@ 277
客製@@ 277
寬版@@ 277
小白@@ 277
旅行 277
泳裝@@ 277
現貨在台 277
皮卡丘 277
碧@@ 277
美髮@@ 277
芬迪@@ 277
蛋糕 277
金屬 277
釣具 277
限時特價 277
靠枕 277
gucci古奇@@ 276
云@@ 276
傳統@@ 276
別墅@@ 276
化妝包@@ 276
可充電@@ 276
城市@@ 276
奈@@ 276
微型@@ 276
比基尼@@ 276
花盆@@ 276
螢光@@ 276
辣@@ 276
長洋裝 276
ap 275
chen 275
fb@@ 275
單車 275
彪馬 275
油畫@@ 275
波浪@@ 275
盒玩 275
石英錶 275
耐高溫@@ 275
軟殼@@ 275
鋪@@ 275
閱讀@@ 275
鞋櫃 275
手鍊@@ 274
漢服@@ 274
短靴@@ 274
豆豆鞋@@ 274
鄭@@ 274
鈦@@ 274
鋼 274
鑰匙扣 274
閃亮@@ 274
高效@@ 274
car@@ 273
sun@@ 273
top 273
wd 273
休閒長褲 273
便宜@@ 273
先@@ 273
淑@@ 273
男式@@ 273
紅米 273
美容院@@ 273
記 273
豆 273
酵素@@ 273
鑰匙扣@@ 273
飯店@@ 273
cosplay@@ 272
gu@@ 272
ko 272
sf 272
女夏@@ 272
實用 272
寶貝 272
按摩器 272
水滴@@ 272
現貨不用等 272
胎@@ 272
裝備@@ 272
調理@@ 272
超市@@ 272
ap@@ 271
armani@@ 271
box 271
fi@@ 271
一盒 271
串珠@@ 271
享@@ 271
兔兔@@ 271
圍兜 271
山 271
度假@@ 271
男女童@@ 271
車貼 271
露趾@@ 271
boy 270
champion 270
亞 270
入門@@ 270
外貿@@ 270
建@@ 270
斤@@ 270
相框@@ 270
真絲@@ 270
碟 270
蝶@@ 270
見@@ 270
赤@@ 270
轉賣@@ 270
除臭@@ 270
飲料@@ 270
麋鹿@@ 270
li 269
具 269
可愛小@@ 269
多色 269
奶瓶@@ 269
宅@@ 269
戒 269
抖音同款@@ 269
林 269
泡茶@@ 269
深藍色 269
科技 269
穿搭 269
編@@ 269
聚@@ 269
腳踏@@ 269
藍牙耳機 269
適@@ 269
雪紡上衣 269
air@@ 268
fw 268
pg 268
修身 268
側背@@ 268
史迪奇 268
哥 268
情侶裝 268
抹胸@@ 268
掛繩@@ 268
期 268
極致@@ 268
樂園 268
洗車@@ 268
瓷@@ 268
蕾@@ 268
褲襪 268
鞋櫃@@ 268
飛線@@ 268
skool 267
tomy 267
yamaha 267
充電 267
即@@ 267
大牌@@ 267
平價@@ 267
成人 267
瀝水@@ 267
財@@ 267
錦@@ 267
鏡頭 267
puma@@ 266
二次元@@ 266
休閑 266
休閑百搭@@ 266
你的@@ 266
兩件式@@ 266
員@@ 266
彈簧@@ 266
掛衣架@@ 266
收納包@@ 266
樓梯@@ 266
窩@@ 266
緣@@ 266
膚@@ 266
芳@@ 266
角 266
軸@@ 266
鐘@@ 266
雜誌 266
be 265
ka 265
亮面@@ 265
佈置 265
保溫瓶 265
南瓜@@ 265
叉@@ 265
布料@@ 265
幾@@ 265
後背包@@ 265
懶人鞋@@ 265
文字@@ 265
方 265
春夏季@@ 265
杆@@ 265
椰子@@ 265
水管@@ 265
溫馨@@ 265
獨@@ 265
褲女@@ 265
視@@ 265
防燙@@ 265
黑灰 265
oz 264
power 264
support 264
二 264
分格@@ 264
刺@@ 264
園 264
掛 264
明星同款 264
春秋季@@ 264
自由@@ 264
貨到付款 264
hco 263
pi@@ 263
rose 263
ve@@ 263
合售 263
大學生@@ 263
店鋪 263
從@@ 263
普拉達@@ 263
桃紅 263
棒球帽@@ 263
水鉆@@ 263
沒@@ 263
窗戶@@ 263
鏡片 263
bd 262
bu 262
min@@ 262
九分褲 262
原廠公司貨 262
固@@ 262
姿@@ 262
旅行箱@@ 262
时尚@@ 262
森 262
橙@@ 262
玻尿酸@@ 262
男童 262
短袖上衣@@ 262
義@@ 262
色可選 262
藍光@@ 262
諾 262
雕@@ 262
面部@@ 262
hollister 261
king 261
leather 261
versace@@ 261
充@@ 261
動物 261
吸頂燈@@ 261
女寶寶@@ 261
房 261
拉拉熊@@ 261
掌@@ 261
方便@@ 261
沐浴乳 261
潤滑液 261
自己@@ 261
運動短褲 261
邊幾@@ 261
鍊@@ 261
阿甘鞋 261
bl 260
主播@@ 260
層 260
搖@@ 260
教學@@ 260
火鍋@@ 260
管理@@ 260
繪本 260
蜜蜂@@ 260
西裝外套 260
角落生物@@ 260
越@@ 260
鋁合金 260
門廳@@ 260
飼料 260
ea 259
tommy 259
公克 259
北歐實木@@ 259
壁燈 259
復@@ 259
手拿@@ 259
捷@@ 259
斜跨@@ 259
曲@@ 259
活動 259
牙刷@@ 259
特級@@ 259
章@@ 259
羅 259
聚攏@@ 259
避震@@ 259
防風外套 259
abercrombie 258
al 258
ex@@ 258
k金@@ 258
商務休閒@@ 258
排扣@@ 258
眼霜 258
索@@ 258
豆豆@@ 258
貝殼頭 258
身 258
閃光@@ 258
露營 258
魔術貼@@ 258
mah 257
ny@@ 257
sl 257
zara 257
四角@@ 257
小豬@@ 257
新款夏季@@ 257
溫和@@ 257
真品 257
票@@ 257
筆電@@ 257
純手工@@ 257
翡翠@@ 257
街@@ 257
質 257
闊腿褲@@ 257
防爆@@ 257
魯@@ 257
麻花@@ 257
ed 256
fk 256
乳霜 256
任選 256
公升 256
台南@@ 256
定做@@ 256
寫字@@ 256
庫@@ 256
歐洲站@@ 256
水潤@@ 256
港@@ 256
激光@@ 256
炸@@ 256
肥@@ 256
腮紅 256
霸@@ 256
鯊魚@@ 256
黃銅@@ 256
chanel香奈兒 255
chuck 255
ds@@ 255
qq@@ 255
supreme@@ 255
yy 255
保護殼@@ 255
冊@@ 255
咖啡色 255
報@@ 255
幻@@ 255
成 255
瘦身@@ 255
睫毛@@ 255
贈品 255
鋯石@@ 255
面料@@ 255
中號@@ 254
分裝 254
化妝桌@@ 254
台式@@ 254
單肩斜挎包@@ 254
地毯 254
塔 254
帳篷@@ 254
微波爐@@ 254
快充 254
拉桿@@ 254
文件@@ 254
春夏 254
木頭@@ 254
業@@ 254
水鑽 254
浴巾 254
清潔劑 254
漁夫帽 254
自拍@@ 254
被套@@ 254
親膚@@ 254
do 253
marmont 253
shop@@ 253
五分褲@@ 253
健身 253
冷熱@@ 253
吊帶褲 253
售價 253
夏季新款 253
妍@@ 253
故事@@ 253
梳@@ 253
眼影盤 253
美甲 253
若@@ 253
運動外套 253
qs 252
中筒@@ 252
免費@@ 252
圓領短袖 252
抱@@ 252
斷@@ 252
清洗@@ 252
減肥@@ 252
濾網 252
特別@@ 252
耳墜@@ 252
茶几 252
質感 252
越野@@ 252
防曬 252
mb 251
star@@ 251
乾 251
低筒@@ 251
作 251
大學@@ 251
將@@ 251
意大利@@ 251
成人兒童@@ 251
戰靴 251
招財 251
次@@ 251
熱賣款 251
版本 251
繫帶@@ 251
蠟 251
謝@@ 251
速 251
it 250
kt 250
ts@@ 250
上新 250
中古@@ 250
中文 250
全場買二送一 250
凍@@ 250
喬丹@@ 250
展示架 250
掛繩 250
星巴克 250
時尚簡約@@ 250
晨@@ 250
束口@@ 250
犬 250
珊瑚絨@@ 250
男士商務@@ 250
芬迪 250
英雄@@ 250
計@@ 250
記憶@@ 250
認證 250
閣 250
ed@@ 249
fb 249
mit@@ 249
mon@@ 249
可面交 249
嫩@@ 249
尼 249
戰術@@ 249
氣球 249
特價中 249
珠光@@ 249
瓷磚@@ 249
男女通用@@ 249
落@@ 249
跳@@ 249
鑫@@ 249
防雨@@ 249
鞋架 249
體 249
龍貓@@ 249
qc 248
余文樂 248
保鮮@@ 248
家用客廳@@ 248
帶回 248
手柄@@ 248
泰迪@@ 248
畢業@@ 248
真 248
粉紅色 248
細跟@@ 248
貨架@@ 248
連帽 248
鋪棉@@ 248
電腦椅@@ 248
串珠 247
來 247
勁@@ 247
唇膏@@ 247
女子@@ 247
妮 247
小香 247
庭院@@ 247
手推車 247
河@@ 247
熱銷款 247
老式@@ 247
葡萄@@ 247
試@@ 247
fendi@@ 246
丹寧@@ 246
五分@@ 246
兵@@ 246
出售 246
卡包@@ 246
可刷卡 246
史迪奇@@ 246
吸管@@ 246
器家用@@ 246
抽 246
方型@@ 246
牙膏 246
甜心@@ 246
皇家@@ 246
約@@ 246
網眼@@ 246
美體@@ 246
耐熱@@ 246
誠@@ 246
限量版@@ 246
陶@@ 246
黛@@ 246
ford 245
he@@ 245
三折@@ 245
吉他@@ 245
商城 245
塊@@ 245
多用途@@ 245
屏風@@ 245
幼@@ 245
木製@@ 245
槽@@ 245
漸變@@ 245
生日 245
男錶@@ 245
自慰器 245
茶幾 245
藍芽耳機 245
音箱@@ 245
作者 244
你 244
個人@@ 244
宴會@@ 244
床頭柜@@ 244
新款女士@@ 244
浪@@ 244
琉璃@@ 244
紅米note 244
kt@@ 243
premium 243
三眼怪 243
儲物櫃@@ 243
勁戰 243
名牌@@ 243
君 243
嚴選@@ 243
嬰兒童@@ 243
彩繪 243
新品上市 243
歡樂@@ 243
游@@ 243
纖維@@ 243
置物櫃 243
良@@ 243
量 243
閃電@@ 243
限時促銷 243
ddr 242
more 242
san 242
三麗鷗@@ 242
保固一年 242
女性淡香精 242
寵@@ 242
工藝@@ 242
平板 242
懶人沙發@@ 242
整套@@ 242
明 242
清倉@@ 242
漆 242
濃@@ 242
熊貓@@ 242
羊皮 242
菜 242
蒸汽@@ 242
貼片 242
速乾@@ 242
coco@@ 241
ge@@ 241
xz 241
充電寶@@ 241
先生@@ 241
冰淇淋@@ 241
北歐風格@@ 241
史密斯 241
愛情@@ 241
扶手@@ 241
春裝@@ 241
樣@@ 241
瑜珈@@ 241
絨布@@ 241
衣櫥 241
補充包 241
鈴@@ 241
阿瑪尼 241
雷射@@ 241
chloe 240
咖啡色@@ 240
圍裙 240
地 240
塊 240
寫真@@ 240
寵物 240
指定@@ 240
插座@@ 240
燈泡 240
營@@ 240
百搭時尚@@ 240
笑臉@@ 240
紙袋 240
細肩帶@@ 240
髮束 240
cosplay 239
ig@@ 239
一起@@ 239
下標處 239
全館@@ 239
夏裝新款@@ 239
女士 239
妹@@ 239
朵 239
無鋼圈@@ 239
紗 239
莫代爾@@ 239
誘惑@@ 239
資生堂 239
運動長褲 239
重 239
野餐@@ 239
長版上衣 239
靜電@@ 239
ad 238
lin@@ 238
mu@@ 238
側邊@@ 238
僅@@ 238
劍 238
夏裝 238
季 238
官@@ 238
宮廷@@ 238
朱@@ 238
機器人@@ 238
沙灘鞋@@ 238
洗手@@ 238
消@@ 238
潮t 238
窩 238
茶桌@@ 238
襯衣 238
資料@@ 238
賴@@ 238
購買@@ 238
防臭@@ 238
面料 238
ab 237
cr 237
original 237
ver 237
ver@@ 237
兩用包 237
加大 237
唯美@@ 237
國際 237
套腳@@ 237
安德瑪 237
小說@@ 237
彩虹 237
情趣內衣@@ 237
樂器@@ 237
止@@ 237
現貨特價 237
百搭款 237
硬殼 237
紳士@@ 237
美國代購@@ 237
美肌@@ 237
軟糖 237
邦@@ 237
靠墊 237
celine 236
ins潮@@ 236
slip 236
一件 236
兒童玩具 236
古裝@@ 236
名片夾 236
早@@ 236
男鞋女鞋 236
站 236
簽名@@ 236
美國正品 236
芙@@ 236
配飾@@ 236
頻@@ 236
香氛 236
cb 235
fe@@ 235
lite 235
ls 235
sock 235
乳膠@@ 235
兔子 235
吊帶裙 235
哺乳@@ 235
單肩斜跨包 235
工廠@@ 235
時尚商務@@ 235
時間@@ 235
液晶@@ 235
獸@@ 235
計時@@ 235
闊腿@@ 235
陸@@ 235
am 234
isbn 234
分類@@ 234
妹 234
小熊 234
掛架@@ 234
洞@@ 234
男女學生@@ 234
精致@@ 234
老虎@@ 234
達人 234
bvlgari 233
curry 233
一對 233
公斤@@ 233
出版社 233
升級@@ 233
多卡位@@ 233
小洋裝 233
巴黎世家 233
後 233
斗@@ 233
柳@@ 233
牛仔 233
狀@@ 233
男孩 233
緊@@ 233
華麗@@ 233
蚊帳@@ 233
訂製 233
針織外套 233
限定賣場 233
隻 233
需@@ 233
fs 232
lv路易威登 232
th@@ 232
功能@@ 232
動 232
圓領t恤 232
家用小型@@ 232
小熊維尼 232
投@@ 232
斜背 232
束口袋 232
機器@@ 232
櫥窗@@ 232
海外代購@@ 232
盤子@@ 232
相框 232
知@@ 232
紋繡@@ 232
網紅款@@ 232
超亮@@ 232
路 232
雪花 232
高腳@@ 232
麥克風@@ 232
ci 231
ci@@ 231
gel 231
nu@@ 231
厚 231
小可愛 231
布料 231
復仇者聯盟 231
捲 231
掛鐘 231
插電@@ 231
於@@ 231
材 231
杜@@ 231
海綿 231
灰白 231
獨角獸@@ 231
男女通用 231
網紅 231
繪畫@@ 231
茶壺@@ 231
薩@@ 231
蛋白@@ 231
袖 231
coco 230
gi@@ 230
mizuno 230
sport 230
一個@@ 230
件套 230
保鮮盒 230
備@@ 230
優選@@ 230
喵@@ 230
垃圾桶@@ 230
帶鎖@@ 230
平安@@ 230
成品@@ 230
歐美時尚@@ 230
泰國 230
產品@@ 230
糖果 230
運 230
酒柜@@ 230
釣@@ 230
錶帶@@ 230
降@@ 230
電風扇 230
dx 229
hi@@ 229
nba@@ 229
yu 229
小型 229
強化@@ 229
手工 229
散熱@@ 229
爪@@ 229
秋冬款@@ 229
胖mm@@ 229
致@@ 229
超火@@ 229
轉接頭 229
釘 229
齊@@ 229
is@@ 228
kiehl 228
malone 228
north 228
presto 228
vo@@ 228
下擺@@ 228
休閒褲@@ 228
哦 228
塞 228
小戶型客廳@@ 228
性 228
指甲油 228
男性淡香水 228
眼影@@ 228
綿@@ 228
貴@@ 228
金標 228
門簾 228
限 228
led燈@@ 227
ly@@ 227
pm 227
ra@@ 227
四件套 227
圍裙@@ 227
墻面@@ 227
客製化 227
手推車@@ 227
托 227
星星 227
涼拖鞋@@ 227
燈飾 227
賓士 227
零件 227
靠@@ 227
靠背椅@@ 227
韻@@ 227
cu@@ 226
hermes@@ 226
保證正品 226
個月@@ 226
做舊@@ 226
全場免運 226
印章@@ 226
微笑@@ 226
徽章@@ 226
方頭@@ 226
椰子 226
美術@@ 226
肉 226
蓮@@ 226
觸控@@ 226
護膚@@ 226
變壓器 226
趣@@ 226
防漏@@ 226
頭皮@@ 226
黑武士 226
av@@ 225
bf@@ 225
you 225
中腰@@ 225
低幫 225
加厚保暖@@ 225
奇 225
專利@@ 225
帳篷 225
承@@ 225
文化@@ 225
柯@@ 225
磅 225
藤編@@ 225
装@@ 225
貼布@@ 225
車門@@ 225
輕便 225
週年 225
適用于@@ 225
雙肩背包 225
馬達 225
麵包超人@@ 225
db 224
dvd@@ 224
ix 224
suede 224
中夾 224
主題@@ 224
壓 224
密碼@@ 224
收納櫃@@ 224
村@@ 224
直購價 224
穿 224
籃球 224
芬@@ 224
還@@ 224
陰@@ 224
girl 223
h出貨 223
九分褲@@ 223
卸妝@@ 223
可當@@ 223
吧@@ 223
啞光@@ 223
娃@@ 223
小清新 223
恐龍 223
情人@@ 223
手指@@ 223
敏@@ 223
整理箱@@ 223
梯@@ 223
歐 223
氣球@@ 223
漏@@ 223
甜蜜@@ 223
素面 223
絲光棉@@ 223
絲襪 223
群@@ 223
薄荷@@ 223
藍牙耳機@@ 223
螺紋@@ 223
蠟燭 223
辦公桌 223
鉛筆@@ 223
音箱 223
髮飾@@ 223
bottega 222
little 222
mazda 222
nb@@ 222
ny 222
polo衫@@ 222
pump 222
tsum 222
uv@@ 222
亮白@@ 222
口水巾 222
命@@ 222
大logo 222
專賣 222
小桌子 222
工廠 222
影 222
挂@@ 222
日本正版 222
柄@@ 222
炒@@ 222
烘@@ 222
腳踏車 222
角色扮演 222
訓練 222
負離子@@ 222
軟妹@@ 222
連帽衛衣 222
限定款 222
陶瓷 222
預 222
鱷魚@@ 222
齒@@ 222
bs 221
wa@@ 221
人偶 221
個月 221
傳 221
吸管 221
喬 221
夢 221
烤箱@@ 221
無限@@ 221
瘦@@ 221
百變@@ 221
科比 221
空間 221
荷@@ 221
蜂@@ 221
購物袋@@ 221
超薄 221
軟皮@@ 221
開 221
限時 221
雙向@@ 221
雨傘 221
香蕉@@ 221
魅@@ 221
麗 221
cos 220
pokemon 220
低腰@@ 220
價格@@ 220
全實木@@ 220
凡賽斯@@ 220
前後@@ 220
安全帽@@ 220
戶外運動@@ 220
抽象@@ 220
新品免運 220
晴@@ 220
材@@ 220
桌布@@ 220
櫻@@ 220
氣墊粉餅 220
汽車用@@ 220
洗臉盆@@ 220
滑板 220
玩 220
瘋狂@@ 220
精靈@@ 220
網紅同款@@ 220
蓮花@@ 220
裝飾畫 220
鋼化膜 220
鐳射@@ 220
鐵 220
面霜 220
音樂 220
风@@ 220
高腰顯瘦@@ 220
魔力@@ 220
鴨舌帽@@ 220
鷹@@ 220
nova 219
sh 219
典雅@@ 219
化 219
只要 219
基本款@@ 219
多用@@ 219
嬌@@ 219
情趣精品 219
戒@@ 219
掛鐘@@ 219
沙發墊@@ 219
烤肉@@ 219
螺旋@@ 219
近@@ 219
隔板@@ 219
cx 218
ph@@ 218
保健@@ 218
保護 218
全能@@ 218
兩件@@ 218
凳子 218
吸頂燈 218
小物@@ 218
工作服@@ 218
情 218
手搖@@ 218
毫安@@ 218
水泥@@ 218
海 218
皮卡丘@@ 218
變形@@ 218
送女友@@ 218
週年@@ 218
防震@@ 218
黑紅@@ 218
by@@ 217
fury 217
light 217
lv包包 217
吃飯@@ 217
咪@@ 217
場 217
扭蛋@@ 217
把手@@ 217
折疊 217
普拉達 217
植物 217
洗手盆@@ 217
等 217
網面透氣@@ 217
蠟燭@@ 217
語 217
退@@ 217
閣@@ 217
雜貨@@ 217
食品 217
魚尾@@ 217
龍頭@@ 217
nac 216
一般@@ 216
休閑褲@@ 216
佐@@ 216
卡通可愛@@ 216
存錢筒 216
斜背包@@ 216
旗艦店 216
磚 216
秋冬新款 216
立牌 216
而@@ 216
育@@ 216
航@@ 216
螢幕 216
褲男@@ 216
赫@@ 216
超仙@@ 216
這@@ 216
里 216
長柄@@ 216
隻@@ 216
雞 216
雨衣@@ 216
a字裙 215
a字裙@@ 215
friends 215
we@@ 215
ya@@ 215
中年@@ 215
光療@@ 215
到貨 215
古董@@ 215
太陽眼鏡@@ 215
容@@ 215
小腳褲 215
恩 215
排汗@@ 215
照 215
玉石@@ 215
短袖襯衫 215
禪意@@ 215
粉餅 215
茶盤@@ 215
跳舞@@ 215
過道@@ 215
預購款 215
頭盔@@ 215
bl@@ 214
el 214
丸 214
低價@@ 214
大框@@ 214
寬松顯瘦@@ 214
居 214
市@@ 214
布藝沙發@@ 214
慕斯@@ 214
手帳@@ 214
早教@@ 214
樂園@@ 214
檯燈 214
毛孔@@ 214
無毒@@ 214
科學@@ 214
粉嫩@@ 214
織帶@@ 214
訂@@ 214
醫@@ 214
釦 214
附 214
魂@@ 214
gucci古馳 213
可拆卸@@ 213
可放@@ 213
坡跟@@ 213
多種@@ 213
奶茶 213
廠 213
惡魔@@ 213
慶@@ 213
挖@@ 213
接頭 213
搶@@ 213
櫻花 213
歐洲代購 213
求@@ 213
甩@@ 213
秘@@ 213
耐用@@ 213
花紋@@ 213
菊@@ 213
表演@@ 213
鑲@@ 213
ai 212
gogoro 212
lady 212
son@@ 212
super@@ 212
zb 212
中華@@ 212
小圓@@ 212
尾 212
校園@@ 212
民@@ 212
清倉 212
筷子@@ 212
花園 212
辦公椅@@ 212
隨@@ 212
頭飾 212
fate 211
fu@@ 211
ins超火@@ 211
te 211
中長@@ 211
人體@@ 211
休閒套裝 211
保守@@ 211
保溫杯@@ 211
儲物柜 211
冰雪奇緣 211
可拆@@ 211
吃雞@@ 211
大碼女裝@@ 211
奶瓶 211
得 211
數碼@@ 211
植@@ 211
淨化@@ 211
濃縮@@ 211
短袖t恤女@@ 211
科 211
聽@@ 211
蟲 211
遮陽帽@@ 211
限時優惠 211
隆@@ 211
高質感@@ 211
fitch 210
ha@@ 210
or 210
ze@@ 210
五分袖@@ 210
全場秒殺 210
口袋 210
圍欄@@ 210
奈米@@ 210
媽 210
實木 210
寧@@ 210
彩色 210
搖擺@@ 210
機車 210
毛帽 210
洞洞@@ 210
淋浴@@ 210
紗布@@ 210
絲巾 210
翼@@ 210
背蓋 210
莉 210
蒙@@ 210
衛@@ 210
製作@@ 210
韓版學生@@ 210
bc 209
fc 209
gp 209
ipad@@ 209
lv女包 209
企業@@ 209
全效@@ 209
冷凍@@ 209
刷破@@ 209
前 209
只有@@ 209
名片@@ 209
圣@@ 209
失@@ 209
工藝品@@ 209
手感@@ 209
拖把@@ 209
族@@ 209
洗碗@@ 209
漫威@@ 209
煎@@ 209
短夾@@ 209
美女@@ 209
美式鄉村@@ 209
腳踏墊 209
臥室燈@@ 209
萬代 209
購物 209
鈴 209
鬧鐘@@ 209
oppo@@ 208
shadow 208
stussy 208
三菱 208
低跟@@ 208
全新真品 208
切割@@ 208
原創 208
學生用@@ 208
寬鬆顯瘦@@ 208
新鮮@@ 208
比賽@@ 208
法國 208
潘朵拉 208
牆面@@ 208
短袖polo衫 208
粉刺@@ 208
紅外線@@ 208
聊聊@@ 208
自行車 208
范思哲@@ 208
護髮@@ 208
首選 208
龍頭 208
假髮@@ 207
功夫@@ 207
功夫茶具@@ 207
化妝臺@@ 207
匡威 207
卡套 207
單層@@ 207
團 207
學步鞋 207
學院@@ 207
彪馬@@ 207
洗手間@@ 207
滴@@ 207
滿天星@@ 207
琺瑯@@ 207
礦@@ 207
筆記本電腦@@ 207
美人@@ 207
美顏@@ 207
耳朵@@ 207
膠帶@@ 207
英國 207
視頻@@ 207
讓@@ 207
超人@@ 207
高中@@ 207
carter 206
home 206
ji@@ 206
sha 206
speedy 206
功能 206
喇叭袖@@ 206
套裝女@@ 206
家居服@@ 206
廚房用品@@ 206
愛麗絲@@ 206
才@@ 206
拖 206
日本帶回@@ 206
櫥柜@@ 206
波 206
緩震@@ 206
肩帶 206
花束 206
輪胎@@ 206
近視@@ 206
非常@@ 206
飄@@ 206
麋鹿 206
watch 205
劇@@ 205
基本@@ 205
存@@ 205
床包@@ 205
時光@@ 205
時尚個性@@ 205
湖@@ 205
漁@@ 205
煞車@@ 205
物語 205
現代 205
絨 205
練@@ 205
草編@@ 205
行李@@ 205
買二送一 205
軒@@ 205
酥 205
雙c@@ 205
飲 205
餐盤 205
髮夾@@ 205
ge 204
micro 204
pegasus 204
sw 204
ー@@ 204
代理@@ 204
倉鼠@@ 204
凡@@ 204
可坐@@ 204
咖啡杯@@ 204
嘴 204
套餐 204
姆@@ 204
婚@@ 204
小腳褲@@ 204
尿@@ 204
棉質 204
橘色 204
氣動@@ 204
琪@@ 204
碳纖維 204
磁鐵 204
管理 204
素色 204
缸@@ 204
翔@@ 204
藝術 204
螢幕保護貼 204
訂單 204
豐田 204
錄音@@ 204
陽光@@ 204
雞肉@@ 204
震@@ 204
頭戴式@@ 204
dw@@ 203
ee 203
house@@ 203
ing@@ 203
oo@@ 203
philipp 203
sy@@ 203
taylor 203
促銷價 203
入耳式@@ 203
凝露 203
升級版 203
圓形 203
媽媽包 203
尿布@@ 203
搖滾@@ 203
本舖 203
桌椅 203
滋養@@ 203
社@@ 203
穿搭@@ 203
繪@@ 203
老師@@ 203
胸包@@ 203
臂@@ 203
薰衣草@@ 203
蜜粉 203
衣帽架@@ 203
野生@@ 203
零錢@@ 203
韓版新款@@ 203
et 202
ks 202
monogram 202
studio 202
便宜 202
全場@@ 202
全球@@ 202
圓盤@@ 202
專柜@@ 202
少年@@ 202
托盤@@ 202
時髦@@ 202
絨面@@ 202
葫蘆@@ 202
販售 202
車用 202
長襪 202
防油@@ 202
雞蛋@@ 202
面交 202
顯@@ 202
騰@@ 202
anna 201
nokia 201
way 201
一包 201
凝膠@@ 201
哈倫褲@@ 201
女人@@ 201
子母@@ 201
孩子@@ 201
廠@@ 201
手工編織@@ 201
拉鍊長夾 201
提花@@ 201
旅行包@@ 201
時 201
最愛 201
會議@@ 201
棉衣@@ 201
棕@@ 201
海灘@@ 201
獨家 201
百褶@@ 201
窗簾 201
筆電 201
聯名款@@ 201
范@@ 201
螺@@ 201
證件@@ 201
連帽衛衣@@ 201
針織毛衣 201
開衩@@ 201
防潑水 201
雜誌@@ 201
jacobs 200
ty@@ 200
京@@ 200
保留 200
卡其 200
唷 200
女錶@@ 200
慧@@ 200
抗皺@@ 200
按摩 200
旅行組 200
書櫃@@ 200
無線藍牙@@ 200
牆壁@@ 200
現貨特價@@ 200
真品@@ 200
竹炭@@ 200
節 200
絲巾@@ 200
維尼 200
置@@ 200
羽絨外套 200
背景墻@@ 200
芳香@@ 200
逼真@@ 200
鸚鵡@@ 200
cl 199
era 199
fa 199
tech 199
不可@@ 199
件套@@ 199
保護膜 199
凈@@ 199
半身@@ 199
天使 199
天天@@ 199
手幅 199
把手 199
摺@@ 199
收腹@@ 199
新品熱賣 199
款號 199
波點@@ 199
童 199
精鋼@@ 199
絲襪@@ 199
航空@@ 199
贈送@@ 199
酒紅 199
鍍@@ 199
降價@@ 199
雨鞋 199
飯盒@@ 199
鬥@@ 199
ao@@ 198
ef 198
made 198
wifi 198
一件免運 198
一個 198
免洗@@ 198
原子筆 198
去角質@@ 198
坊@@ 198
大童 198
小包包 198
小夜燈@@ 198
小朋友@@ 198
小沙發@@ 198
小胸@@ 198
杏@@ 198
涼拖@@ 198
熱銷款@@ 198
牛 198
直播 198
短筒@@ 198
薄外套 198
街拍@@ 198
貓窩@@ 198
運動褲@@ 198
選擇 198
預@@ 198
飛行@@ 198
bws 197
ktv@@ 197
中筒襪 197
乾燥@@ 197
假髮 197
充電寶 197
免打孔 197
冰箱 197
可水洗@@ 197
吧 197
和風@@ 197
天絲@@ 197
安撫@@ 197
家用臥室@@ 197
拉桿箱@@ 197
掃@@ 197
書法@@ 197
最後@@ 197
最新 197
月亮@@ 197
正裝@@ 197
汽@@ 197
深v@@ 197
盆栽 197
磁力@@ 197
竿@@ 197
肯@@ 197
衛生@@ 197
被套 197
觀@@ 197
調料@@ 197
超低價 197
趣 197
顆粒@@ 197
鬧鐘 197
cg 196
du@@ 196
lab 196
tb@@ 196
tl 196
十字紋@@ 196
可伸縮@@ 196
可可@@ 196
可穿 196
客人@@ 196
形 196
戀愛@@ 196
探@@ 196
新生@@ 196
時尚休閑@@ 196
棕色 196
水桶包@@ 196
系統 196
網布@@ 196
製造 196
貔貅@@ 196
購買 196
軟包@@ 196
運動套裝@@ 196
銳@@ 196
防潑水@@ 196
韓版簡約@@ 196
飛機杯 196
香港代購 196
benassi 195
color 195
es@@ 195
etude 195
fly 195
fo@@ 195
mac@@ 195
付@@ 195
任@@ 195
保養 195
兄弟@@ 195
出口@@ 195
加 195
各種@@ 195
圓領短袖@@ 195
團購@@ 195
帶燈@@ 195
後背@@ 195
扎@@ 195
折優惠 195
救@@ 195
斤 195
木紋@@ 195
氏@@ 195
泥 195
漾@@ 195
皮面@@ 195
社團@@ 195
縫隙@@ 195
腿 195
膚 195
話@@ 195
ff 194
ga@@ 194
kate 194
san@@ 194
so 194
剎車@@ 194
創意家居@@ 194
岩@@ 194
已售出 194
拍攝@@ 194
拼布@@ 194
掛墻@@ 194
撐@@ 194
效期 194
方塊@@ 194
晶鑽@@ 194
棍@@ 194
爽@@ 194
石英錶@@ 194
空間@@ 194
粉紅色@@ 194
精靈寶可夢 194
網紅ins@@ 194
花瓣@@ 194
附贈@@ 194
頓@@ 194
rc 193
公 193
印度@@ 193
大師@@ 193
大衣@@ 193
妖@@ 193
小牛皮 193
小雛菊@@ 193
小馬@@ 193
掛架 193
數據線@@ 193
正版dvd 193
殺菌@@ 193
減壓@@ 193
甘@@ 193
綠茶@@ 193
緞帶 193
虎頭@@ 193
造@@ 193
隔音@@ 193
零件@@ 193
電瓶車@@ 193
韓版寬松@@ 193
鼠 193
ag@@ 192
body 192
ke 192
loft@@ 192
rd 192
vivo 192
壽@@ 192
姬@@ 192
床包組 192
戰 192
手把 192
拋光@@ 192
新手@@ 192
梨@@ 192
水龍頭 192
特價出清 192
獅@@ 192
田 192
男女寶寶@@ 192
界@@ 192
研@@ 192
稀有@@ 192
第二@@ 192
萬向輪@@ 192
連線 192
dd@@ 191
space 191
三角褲 191
上下@@ 191
兒童寶寶@@ 191
其@@ 191
大童@@ 191
安卓 191
引@@ 191
按摩棒@@ 191
早期@@ 191
枝@@ 191
業 191
水性@@ 191
焊@@ 191
純棉短t 191
緞帶@@ 191
酒精@@ 191
飲@@ 191
馬克杯@@ 191
上市 190
休闲@@ 190
保 190
偏光@@ 190
勺 190
北歐輕奢@@ 190
增高鞋 190
女王@@ 190
家居服 190
小時@@ 190
折扣 190
桌椅組合@@ 190
棕 190
棕色@@ 190
浴缸@@ 190
滑鼠 190
簍空@@ 190
紅酒@@ 190
維尼@@ 190
羽絨@@ 190
良品 190
花漾@@ 190
英語@@ 190
藍芽 190
蛋黃哥@@ 190
郭@@ 190
酵素 190
靜音 190
騎士 190
design 189
superdry 189
tr@@ 189
world 189
人偶@@ 189
俏@@ 189
凡賽斯 189
原裝 189
吸汗@@ 189
單人雙人@@ 189
壁紙@@ 189
婷 189
宅配免運 189
廚師@@ 189
拉鏈錢包 189
效@@ 189
樓@@ 189
毛邊@@ 189
痛@@ 189
白紅 189
矮@@ 189
絕對@@ 189
緞面@@ 189
至@@ 189
英文 189
警@@ 189
賞@@ 189
軍綠 189
遊戲王 189
鑰匙圈@@ 189
餐盒 189
黑金@@ 189
boss 188
diy手工@@ 188
gtx 188
mc 188
wcf 188
wu 188
任天堂 188
信封@@ 188
免運費@@ 188
加拿大@@ 188
奶嘴@@ 188
妃@@ 188
悠遊卡 188
插頭 188
楓@@ 188
止滑@@ 188
沒有@@ 188
淡香精 188
溫柔@@ 188
熟@@ 188
牙 188
玻璃杯 188
現代簡約客廳@@ 188
社會@@ 188
米色@@ 188
紗裙 188
經濟型 188
腕表 188
花瓶@@ 188
號店 188
防身@@ 188
電玩 188
黑金 188
beauty 187
dm 187
elite 187
mac 187
skin 187
三人@@ 187
制冷@@ 187
加粗@@ 187
商店 187
國際牌 187
壁畫 187
壁紙 187
夏季新款韓版@@ 187
徐@@ 187
搞怪@@ 187
搭扣@@ 187
支持@@ 187
朝@@ 187
校@@ 187
毒@@ 187
治@@ 187
泉@@ 187
泵@@ 187
玄@@ 187
男童女童@@ 187
硬殼@@ 187
萬聖節 187
設備@@ 187
錫@@ 187
防刮 187
題@@ 187
馬丁靴@@ 187
cj 186
pure 186
sanrio 186
set 186
俏皮@@ 186
傢俱@@ 186
其他@@ 186
圓領短t 186
宇宙@@ 186
島 186
幼稚園@@ 186
怪獸@@ 186
抹茶@@ 186
星際大戰 186
柔軟 186
潔面@@ 186
病@@ 186
白鐵@@ 186
移動電源 186
程@@ 186
紫砂@@ 186
美樂蒂@@ 186
耐用 186
背 186
護膚品@@ 186
賦活@@ 186
逆@@ 186
銀針 186
防走光@@ 186
鞋墊 186
項圈 186
aj@@ 185
hot 185
ld 185
zs 185
事 185
全新公司貨 185
北歐創意@@ 185
匠@@ 185
双@@ 185
司@@ 185
四色@@ 185
奇蹟@@ 185
官方 185
客廳沙發@@ 185
家用室內@@ 185
平角@@ 185
平面@@ 185
床上用品 185
打火機 185
淨白@@ 185
無穀@@ 185
範@@ 185
置物盒 185
藍芽喇叭 185
蠶絲@@ 185
裡@@ 185
西班牙@@ 185
貝 185
透膚@@ 185
長袖襯衫@@ 185
韓國連線 185
麻將@@ 185
ak@@ 184
av 184
bu@@ 184
dream 184
for@@ 184
l型@@ 184
vans@@ 184
內刷毛@@ 184
周歲@@ 184
定型@@ 184
家用多功能@@ 184
招@@ 184
插座 184
施@@ 184
毛絨玩具@@ 184
泡泡袖@@ 184
流行 184
深藍色@@ 184
燈飾@@ 184
玄關柜@@ 184
疊@@ 184
福 184
艷@@ 184
袋子@@ 184
調節@@ 184
輝@@ 184
韓國製 184
韓系 184
飛線 184
驅@@ 184
happy 183
k歌@@ 183
toy 183
ua@@ 183
中老年@@ 183
卡其@@ 183
厚底鞋 183
原 183
和服@@ 183
咖@@ 183
壁掛 183
多肉植物 183
天然 183
峰@@ 183
工作室 183
手臂@@ 183
日貨@@ 183
暗黑@@ 183
火 183
烤盤 183
特色@@ 183
痕@@ 183
籽@@ 183
紀@@ 183
紙巾盒@@ 183
葉子@@ 183
蜜 183
軟膠@@ 183
野營@@ 183
鋰電池 183
鏟@@ 183
電風扇@@ 183
麵包超人 183
agnes 182
fm 182
huawei 182
nissan 182
philips 182
wang 182
三代 182
三眼計時@@ 182
傷@@ 182
儲@@ 182
典@@ 182
分裝@@ 182
加固@@ 182
各式@@ 182
吹風機 182
商務休閑@@ 182
單品 182
孔雀@@ 182
寒@@ 182
實體店面 182
對 182
惡@@ 182
明信片@@ 182
枚 182
桃紅@@ 182
武器@@ 182
沉@@ 182
流蘇 182
涼鞋女@@ 182
滾@@ 182
移動電源@@ 182
網面 182
胸前@@ 182
腳踏車@@ 182
花盆 182
貼身@@ 182
鑲鉆@@ 182
馨@@ 182
驅蚊@@ 182
魅力@@ 182
kids 181
wa 181
入戶@@ 181
公主風@@ 181
出風口@@ 181
別針 181
啦 181
圓點@@ 181
夾縫@@ 181
好市多 181
導航@@ 181
平底鞋@@ 181
庭@@ 181
拔@@ 181
拼裝@@ 181
旅行箱 181
旅行袋 181
日發完 181
最低價 181
束腳@@ 181
片裝 181
男女孩@@ 181
直徑 181
相片@@ 181
耳夾@@ 181
蔬果@@ 181
週@@ 181
郵@@ 181
防霧@@ 181
隨機@@ 181
hs 180
一次@@ 180
七分@@ 180
出清價 180
匙 180
半身裙 180
右@@ 180
夏新款@@ 180
嬰兒床@@ 180
引擎@@ 180
擊@@ 180
梅花@@ 180
棋盤格 180
水器 180
沃@@ 180
派 180
潘@@ 180
環保 180
男士腕錶 180
磨毛@@ 180
精品代購 180
翠@@ 180
耳 180
色號 180
花束@@ 180
配 180
首飾盒@@ 180
fashion 179
ku 179
lo 179
veneta 179
儲物架@@ 179
叫@@ 179
可調式@@ 179
哆啦a夢 179
夾子 179
小怪獸@@ 179
工 179
带@@ 179
成長@@ 179
手機包@@ 179
扣式@@ 179
星光@@ 179
橡木@@ 179
注@@ 179
漿@@ 179
特典 179
當天出貨 179
筆電包 179
經典logo@@ 179
花朵 179
茶道@@ 179
調 179
配飾 179
鎮@@ 179
防風 179
靴子@@ 179
con@@ 178
mo 178
paul 178
phone 178
sn@@ 178
ty 178
偉@@ 178
冰雪奇緣@@ 178
圍 178
就是@@ 178
巴西@@ 178
指紋@@ 178
晾@@ 178
沐浴露 178
流 178
涼席@@ 178
滿鑽@@ 178
牛仔短褲@@ 178
现货 178
童話@@ 178
笑@@ 178
符@@ 178
藍白 178
西瓜@@ 178
費@@ 178
超商@@ 178
躺椅 178
鍵@@ 178
限量款 178
飛利浦@@ 178
magic 177
mx 177
m床@@ 177
na@@ 177
pa@@ 177
reno 177
乾燥花 177
亂@@ 177
垂墜耳環 177
好物 177
妞@@ 177
安裝@@ 177
廠家@@ 177
手袋@@ 177
批@@ 177
批發價 177
揚@@ 177
時裝@@ 177
朋友@@ 177
棋盤格@@ 177
熊熊@@ 177
立體 177
胎 177
褶皺@@ 177
語音@@ 177
過年@@ 177
鋼絲@@ 177
防曬衣@@ 177
頭套 177
鳳@@ 177
hg 176
rb 176
tiffany 176
何@@ 176
公升@@ 176
圓臉@@ 176
團購 176
壽司@@ 176
嬰兒 176
小戶型 176
我 176
抗uv@@ 176
支撐@@ 176
日本代購@@ 176
梵@@ 176
橘色@@ 176
燈芯絨@@ 176
發飾@@ 176
移@@ 176
美國正品代購 176
聖羅蘭@@ 176
腳架 176
蔻@@ 176
買家@@ 176
運動拖鞋 176
鋼筆@@ 176
鍍金@@ 176
霸氣@@ 176
香皂 176
高幫 176
fr 175
live 175
nt 175
亞瑟士 175
優惠中 175
兜 175
刻字@@ 175
和 175
善@@ 175
圓 175
圓環@@ 175
墻貼@@ 175
密 175
小魚@@ 175
愛的@@ 175
所@@ 175
旅@@ 175
棉花糖@@ 175
歐文 175
無線 175
特大號@@ 175
白藍 175
眼部@@ 175
系統@@ 175
緹花@@ 175
罩衫@@ 175
耀@@ 175
臺燈 175
親子裝 175
車身@@ 175
迷你小型@@ 175
間 175
雨靴@@ 175
電瓶@@ 175
響@@ 175
類 175
騎@@ 175
dunk 174
ha 174
ly 174
queen 174
tc 174
toys 174
wanna 174
xs@@ 174
充電器@@ 174
免運直出 174
冷藏@@ 174
劉海@@ 174
原味 174
四件組 174
娃 174
寫字桌@@ 174
寬松大碼@@ 174
小狗@@ 174
平跟@@ 174
思 174
手把@@ 174
浴室 174
熱賣中 174
爆米花 174
獨立@@ 174
現代簡約 174
男女情侶款@@ 174
白金 174
箱子@@ 174
萃@@ 174
蘭蔻 174
贈 174
追@@ 174
透 174
開光@@ 174
風景@@ 174
飛利浦 174
高清 174
acer 173
di 173
givenchy 173
ju@@ 173
loewe 173
sd@@ 173
sn 173
su 173
xx 173
中型@@ 173
優雅 173
兩穿@@ 173
娜美 173
家用廚房@@ 173
寶格麗 173
小胸聚攏@@ 173
布偶 173
找@@ 173
擺攤@@ 173
收納筐@@ 173
數位 173
文青@@ 173
本田 173
機商用@@ 173
權@@ 173
獎@@ 173
百貨店 173
簡約現代 173
粉底@@ 173
義大利 173
芽@@ 173
茉莉@@ 173
莊@@ 173
證@@ 173
貼膜 173
踏板 173
黑灰@@ 173
blazer 172
np 172
tretta 172
偏@@ 172
兵 172
分隔@@ 172
咖啡杯 172
堅果@@ 172
壓力@@ 172
實戰@@ 172
小童 172
布置@@ 172
延長線 172
晶 172
枕套 172
格子 172
水池@@ 172
演出@@ 172
烘培@@ 172
然@@ 172
特大@@ 172
獨特@@ 172
睡衣女@@ 172
竿 172
縮口褲 172
舞 172
言@@ 172
計 172
跨@@ 172
車貼@@ 172
鎖骨鏈@@ 172
鐘 172
長效@@ 172
雪 172
鬆緊腰@@ 172
黏土@@ 172
focus 171
ia 171
je@@ 171
men 171
便當袋 171
俊@@ 171
修補@@ 171
動力@@ 171
北歐ins@@ 171
咬@@ 171
單肩斜跨@@ 171
地中海@@ 171
大燈@@ 171
媽媽 171
實體@@ 171
小雞@@ 171
床頭櫃@@ 171
快速出貨@@ 171
慵懶@@ 171
指環@@ 171
搭配 171
有蓋@@ 171
材料包 171
板手 171
民宿@@ 171
源 171
滑鼠墊 171
照片 171
王國 171
琳 171
神奇寶貝@@ 171
簾 171
絲綢@@ 171
網絡@@ 171
苗@@ 171
茶臺@@ 171
蒜@@ 171
蚊帳 171
身體乳 171
運動健身@@ 171
金銀@@ 171
院@@ 171
電工@@ 171
鳳梨@@ 171
龍貓 171
aw 170
book 170
kenzo 170
pr@@ 170
休閒時尚@@ 170
保留中 170
保險@@ 170
制作@@ 170
刷毛 170
外殼 170
大logo@@ 170
寶馬@@ 170
小熊維尼@@ 170
小眾@@ 170
床單 170
手冊 170
手電筒 170
拉絲@@ 170
政@@ 170
時尚創意@@ 170
柴@@ 170
母親節@@ 170
沙 170
炎@@ 170
獅子@@ 170
秀 170
穩@@ 170
紅包袋 170
細肩@@ 170
脂@@ 170
觀音@@ 170
連接@@ 170
雜@@ 170
靈 170
innisfree 169
tw@@ 169
vivo@@ 169
xx@@ 169
代言 169
十二@@ 169
台灣製造@@ 169
夫 169
女神 169
宗@@ 169
床罩@@ 169
復古風@@ 169
恒溫@@ 169
慢@@ 169
數據線 169
沙發椅@@ 169
洪@@ 169
流沙@@ 169
納米@@ 169
膠原蛋白@@ 169
至 169
花架 169
茶壺 169
莎 169
蘑菇@@ 169
設計感@@ 169
豬 169
飯桌@@ 169
line@@ 168
macbook 168
nikon 168
tp 168
一字肩@@ 168
不沾@@ 168
初學@@ 168
北歐現代簡約@@ 168
吐司@@ 168
啟@@ 168
垂墜@@ 168
培@@ 168
完@@ 168
展 168
應援@@ 168
斜紋@@ 168
新版 168
旋@@ 168
日記 168
曾@@ 168
木制@@ 168
本田@@ 168
柄 168
根 168
棒球外套 168
機油@@ 168
毛毯 168
滾邊@@ 168
演@@ 168
烘焙 168
無瑕@@ 168
牛津@@ 168
猴@@ 168
琪 168
男孩女孩@@ 168
省@@ 168
筷@@ 168
籠 168
耳飾@@ 168
能 168
膠囊@@ 168
野外@@ 168
錄 168
降噪@@ 168
除塵@@ 168
隨身碟 168
angel 167
cw 167
gk 167
han@@ 167
home@@ 167
hu@@ 167
mc@@ 167
rn 167
takara 167
zo@@ 167
上班@@ 167
便利@@ 167
內搭 167
刀具@@ 167
外 167
家用簡易@@ 167
性感蕾絲@@ 167
擴@@ 167
收腰顯瘦@@ 167
早春@@ 167
未來@@ 167
波士頓包 167
淘@@ 167
玲 167
瓜@@ 167
眉筆 167
短袖套裝 167
石頭@@ 167
矽膠 167
砂 167
蒸氣@@ 167
術 167
軍事@@ 167
迪 167
鄉村@@ 167
鑰匙 167
電磁爐@@ 167
韩版@@ 167
頭層@@ 167
香草@@ 167
cool 166
dior迪奧@@ 166
fx 166
giorgio 166
hy@@ 166
woc 166
內置@@ 166
化妝鏡 166
基 166
宋@@ 166
復刻 166
心形@@ 166
戶@@ 166
授權@@ 166
時代@@ 166
暢銷@@ 166
曲 166
水彩@@ 166
浴巾@@ 166
液體@@ 166
特產@@ 166
獵@@ 166
理 166
留@@ 166
睡裙@@ 166
福利品 166
經典時尚@@ 166
老花 166
角幾@@ 166
變速@@ 166
路亞@@ 166
轉運@@ 166
重低音@@ 166
鋼彈@@ 166
領帶@@ 166
食 166
香皂@@ 166
cat@@ 165
club 165
gm 165
gold 165
jy 165
ll 165
ne 165
ray 165
sc@@ 165
sx 165
yi 165
一腳蹬@@ 165
上班族@@ 165
修容@@ 165
剛@@ 165
博士@@ 165
卡娜赫拉@@ 165
原味@@ 165
原廠公司貨@@ 165
可樂@@ 165
天鵝@@ 165
姐@@ 165
威 165
尋@@ 165
小碎花@@ 165
机@@ 165
杯緣子 165
枕頭包 165
機小型@@ 165
沐@@ 165
洗髮@@ 165
爬@@ 165
百搭休閒@@ 165
碗碟@@ 165
翹@@ 165
萬用包 165
貓頭鷹@@ 165
起司@@ 165
通用型@@ 165
鐘表@@ 165
領 165
鴻@@ 165
ber@@ 164
ns@@ 164
omega 164
twice 164
way@@ 164
zi@@ 164
一件@@ 164
三代@@ 164
乳液@@ 164
哈倫褲 164
學生百搭@@ 164
小型犬@@ 164
小鹿@@ 164
明星款@@ 164
杰@@ 164
東方@@ 164
橘子@@ 164
歌 164
燙鑽@@ 164
美的@@ 164
臻品下殺 164
菱形@@ 164
襯@@ 164
設計款@@ 164
軌道@@ 164
電線@@ 164
青少年學生@@ 164
面盆@@ 164
鵝@@ 164
art 163
bear 163
mh 163
pt 163
位 163
凝@@ 163
制服 163
包包女 163
去污@@ 163
叉 163
夏天 163
寫字臺@@ 163
尤@@ 163
悟空 163
愛麗絲 163
拉鏈包 163
數 163
昇@@ 163
桑@@ 163
池 163
無敵@@ 163
畫畫@@ 163
紅茶 163
红@@ 163
草莓 163
雙子星 163
面包@@ 163
黑膠@@ 163
cp@@ 162
ft 162
levi 162
switch@@ 162
ti 162
tu@@ 162
t恤女@@ 162
一套@@ 162
上海@@ 162
上衣女@@ 162
上衣潮 162
億@@ 162
刨@@ 162
加寬@@ 162
可選 162
妝 162
娃娃機 162
學院風 162
定價 162
客製 162
家用小@@ 162
寬口@@ 162
抖音同款 162
拖地@@ 162
日曆@@ 162
暴@@ 162
書櫃 162
楠竹@@ 162
檀香@@ 162
母 162
汁@@ 162
潮流百搭@@ 162
狼 162
破壞@@ 162
聖誕禮物 162
胸針 162
華碩@@ 162
蛋黃哥 162
裝備 162
賀@@ 162
遮擋@@ 162
鈴鐺@@ 162
長袖帽t 162
電腦包@@ 162
領帶 162
馬達@@ 162
eh 161
seiko 161
上新@@ 161
二手衣 161
休閒短t 161
動漫周邊 161
均@@ 161
型號@@ 161
学生@@ 161
定位@@ 161
室內外@@ 161
層架 161
山茶花@@ 161
工藝 161
康 161
悠@@ 161
手串@@ 161
打火機@@ 161
攜帶@@ 161
支援@@ 161
新款百搭@@ 161
晾衣架@@ 161
杯架 161
機器人 161
水族@@ 161
洗漱@@ 161
滅@@ 161
漁夫帽@@ 161
漂@@ 161
火爆@@ 161
熱賣款@@ 161
珍珠耳環 161
瑪瑙@@ 161
短袖t恤男@@ 161
禾@@ 161
空氣清淨機 161
美津濃 161
藝 161
蛙@@ 161
西服@@ 161
設計款 161
變形金剛 161
速幹@@ 161
連衣裙女@@ 161
遙控器 161
遙控器@@ 161
銀針@@ 161
鎖扣@@ 161
防寒@@ 161
騷@@ 161
big 160
pet@@ 160
skechers 160
ン@@ 160
公路@@ 160
化妝鏡@@ 160
哆啦a夢@@ 160
唯@@ 160
外賣@@ 160
小鳥@@ 160
尼龍 160
彈性 160
復刻@@ 160
情趣內衣 160
打包@@ 160
拉桿 160
控制@@ 160
新版@@ 160
施華洛世奇@@ 160
晚@@ 160
桌上型@@ 160
滾輪@@ 160
燃氣@@ 160
燕麥@@ 160
現貨速發 160
甜品@@ 160
睡袋 160
維修 160
肌膚@@ 160
花色@@ 160
裂@@ 160
賓士@@ 160
適合 160
酥@@ 160
鋁箔@@ 160
鋰電池@@ 160
鋼筆 160
錄@@ 160
韓國代購@@ 160
頂級 160
餐桌椅@@ 160
餐飲@@ 160
馬鞍包 160
魔鬼氈@@ 160
黑藍 160
龜 160
costco 159
ice 159
mb@@ 159
mlb 159
sy 159
七龍珠@@ 159
企鵝@@ 159
健身器材@@ 159
創意園 159
單寧@@ 159
夜燈 159
夾式耳環 159
戰士 159
接待@@ 159
柴犬@@ 159
牆上@@ 159
璀璨@@ 159
男士休閑@@ 159
短版上衣 159
米奇米妮@@ 159
背心裙 159
茶杯 159
藍牙 159
袋裝 159
跑步 159
逸@@ 159
隨機出貨 159
魅力 159
ball 158
bg 158
dart 158
eg 158
gl 158
golf 158
sk@@ 158
丁 158
三件@@ 158
保固@@ 158
保羅@@ 158
國 158
國外@@ 158
塑身@@ 158
外殼@@ 158
實心@@ 158
尊@@ 158
平板電腦@@ 158
惠 158
搖搖@@ 158
方領@@ 158
最愛二手精品 158
極速@@ 158
毛料@@ 158
波西米亞@@ 158
牆貼 158
玲@@ 158
男t 158
皮膚@@ 158
詹姆斯 158
超軟@@ 158
超長@@ 158
錐@@ 158
降溫@@ 158
面板@@ 158
頓 158
bf 157
chi 157
essential 157
timberland 157
vs 157
中心 157
人生@@ 157
吸塵器@@ 157
咖 157
喝@@ 157
器材 157
圈圈@@ 157
坪 157
寫真 157
專櫃正品@@ 157
春 157
氣泡@@ 157
洗衣機 157
清涼@@ 157
漸層 157
爸爸@@ 157
牛仔裙 157
猛@@ 157
研磨@@ 157
碗盤@@ 157
綺@@ 157
美式復古@@ 157
超大號@@ 157
軟毛@@ 157
軸 157
釉@@ 157
霹靂@@ 157
韓國東大門@@ 157
altis 156
desire 156
gr 156
green 156
jacket 156
ky@@ 156
led燈 156
lee 156
louisvuitton 156
pe 156
smax 156
starbucks 156
tm 156
uni@@ 156
ve 156
伴娘@@ 156
割@@ 156
加高@@ 156
吊牌 156
壓紋 156
夏季韓版@@ 156
大師 156
大眾@@ 156
婷@@ 156
店長推薦 156
愛迪達adidas 156
提亮@@ 156
時尚潮流 156
樂樂@@ 156
櫃子@@ 156
漢堡@@ 156
生物@@ 156
耳麥@@ 156
肌 156
肌肉@@ 156
胖子@@ 156
蠟筆小新 156
補充@@ 156
西 156
超靜音@@ 156
踏板@@ 156
鱷魚紋@@ 156
麻辣@@ 156
va 155
vn 155
za 155
zz@@ 155
佛 155
停車@@ 155
內 155
制 155
勒@@ 155
十字繡@@ 155
可選@@ 155
唱歌@@ 155
塵@@ 155
境@@ 155
墊子 155
外套女@@ 155
头@@ 155
宣傳@@ 155
小舖@@ 155
屏 155
左右@@ 155
攪拌@@ 155
日文@@ 155
晚宴包 155
沛@@ 155
淡化@@ 155
漂亮@@ 155
特價免運 155
眼罩 155
祖@@ 155
私密@@ 155
秋 155
笛@@ 155
紙盒 155
翻新@@ 155
自取 155
花苞@@ 155
落肩@@ 155
認證@@ 155
貝殼頭@@ 155
達菲 155
鋰電@@ 155
防塵罩@@ 155
降 155
雨鞋@@ 155
靠墻@@ 155
bar@@ 154
boy@@ 154
dai@@ 154
hero 154
neo 154
ps@@ 154
shi@@ 154
shoes 154
ws 154
亮面 154
兜@@ 154
入裝 154
凸@@ 154
化妝桌 154
北歐風 154
台中 154
圓領套頭@@ 154
土 154
定做 154
床頭櫃 154
擠@@ 154
方便 154
桃園@@ 154
汗@@ 154
海軍藍 154
球鞋@@ 154
窗 154
納 154
經典復古@@ 154
肩 154
臀@@ 154
范思哲 154
菌@@ 154
衝@@ 154
調味@@ 154
貼畫@@ 154
赤足 154
通勤@@ 154
運動服 154
重磅@@ 154
鍾@@ 154
除濕@@ 154
雲朵@@ 154
brown 153
chrome 153
gd@@ 153
ssd 153
up@@ 153
vuitton@@ 153
yy@@ 153
亮 153
修飾@@ 153
充 153
匯@@ 153
同步@@ 153
墜 153
壓縮@@ 153
富士@@ 153
小小兵@@ 153
布丁@@ 153
帽t@@ 153
您@@ 153
惡搞@@ 153
手機通用@@ 153
推 153
收納柜 153
椅家用@@ 153
照明 153
現貨秒發 153
男士手錶 153
發夾@@ 153
睫毛膏 153
祛@@ 153
秤 153
粉底 153
經典商務@@ 153
胸章 153
菱格紋@@ 153
蝴蝶 153
貨號 153
貼膜@@ 153
購入@@ 153
隱@@ 153
魂 153
點點 153
heart 152
japan 152
ph 152
shiseido 152
tom 152
uniqlo@@ 152
uptempo 152
ur@@ 152
xt 152
ღ@@ 152
休閒運動 152
傢俱 152
光碟 152
兩色@@ 152
典 152
可折疊 152
台灣現貨限時下殺@@ 152
品質 152
單件@@ 152
多功能家用@@ 152
契爾氏 152
套餐@@ 152
孫@@ 152
成年@@ 152
抗uv 152
按摩器@@ 152
挺@@ 152
插 152
時尚氣質@@ 152
水冷@@ 152
水波紋@@ 152
油漆@@ 152
清 152
滋@@ 152
牛角@@ 152
玻璃杯@@ 152
統@@ 152
蘿@@ 152
金扣 152
長洋 152
電視 152
面板 152
飛機 152
餐邊柜@@ 152
高精度@@ 152
魚嘴@@ 152
ben@@ 151
box@@ 151
ea@@ 151
lt 151
two 151
刻 151
勞力士@@ 151
可超取 151
夾式@@ 151
寄出 151
小吃@@ 151
小女孩@@ 151
庫存@@ 151
手帕 151
排 151
摩登@@ 151
收納籃 151
日本原裝 151
梳妝@@ 151
棋@@ 151
歐美代購 151
泡泡 151
澳@@ 151
照明@@ 151
男士皮帶 151
磁扣@@ 151
祥@@ 151
索尼@@ 151
胸針@@ 151
舍@@ 151
航海王@@ 151
茶具 151
轉換@@ 151
邁@@ 151
長筒@@ 151
附購買證明 151
電鍍 151
頸椎@@ 151
骷髏@@ 151
黏土 151
kin@@ 150
mp@@ 150
porter 150
triple 150
ulzzang@@ 150
中號 150
今@@ 150
休閑運動鞋 150
側掀皮套 150
側背 150
券 150
卡娜赫拉 150
可躺@@ 150
吊牌@@ 150
呼吸@@ 150
圓領短袖t恤 150
夾腳@@ 150
套件 150
小禮服 150
幕@@ 150
戲@@ 150
斜挎 150
棉衣 150
橋@@ 150
清潔刷 150
潔膚@@ 150
炭@@ 150
爆款熱賣 150
男人@@ 150
盾@@ 150
秋千@@ 150
稱@@ 150
筐@@ 150
綠植@@ 150
翅膀@@ 150
腸@@ 150
贈品@@ 150
鐵皮@@ 150
阿甘 150
面具 150
鞋柜 150
dy 149
ing 149
mix 149
ol 149
os 149
primeknit 149
pu皮@@ 149
spa@@ 149
swarovski 149
tiger 149
ys 149
乙@@ 149
份@@ 149
伴@@ 149
便當盒@@ 149
冠軍 149
凱蒂貓@@ 149
劇場版 149
包鞋 149
南極人@@ 149
可調 149
哈倫@@ 149
喬巴 149
大方@@ 149
室 149
復古vintage 149
忍者@@ 149
懶@@ 149
散裝@@ 149
敷@@ 149
方巾 149
森林 149
標籤 149
標籤@@ 149
洞 149
海軍@@ 149
滿額免運 149
無縫@@ 149
白光 149
目 149
科比@@ 149
童鞋@@ 149
簡約現代客廳@@ 149
自制@@ 149
臭@@ 149
芝@@ 149
花草@@ 149
荷蘭@@ 149
薄 149
規 149
角色扮演@@ 149
超 149
车@@ 149
酒紅@@ 149
關節@@ 149
鞋女鞋@@ 149
餐 149
高潮@@ 149
鬼滅之刃 149
case 148
cy@@ 148
df 148
dickies 148
ff@@ 148
lb 148
monster 148
per@@ 148
ru@@ 148
tri@@ 148
zakka 148
代步@@ 148
任選@@ 148
修 148
另@@ 148
品質保證 148
場景@@ 148
墜子 148
娃娃鞋 148
居家家 148
意 148
慕@@ 148
我愛@@ 148
打 148
打孔@@ 148
振@@ 148
撞色 148
收 148
星球@@ 148
春秋新款@@ 148
棚@@ 148
椰@@ 148
正方形@@ 148
水光@@ 148
水餃包 148
污@@ 148
洗菜盆@@ 148
涂鴉@@ 148
減齡@@ 148
率@@ 148
珊瑚@@ 148
盧@@ 148
純白@@ 148
絨毛娃娃 148
耐克nike 148
誘@@ 148
長袖上衣@@ 148
雙門@@ 148
au@@ 147
bon@@ 147
ikea 147
q版 147
royal 147
wave 147
供奉@@ 147
儿童@@ 147
剩@@ 147
副@@ 147
北歐客廳@@ 147
卓@@ 147
參@@ 147
台製 147
單頭@@ 147
因@@ 147
帽子女@@ 147
強 147
手機皮套 147
拍照 147
指甲油@@ 147
排釦@@ 147
旗 147
有現貨 147
棉被@@ 147
樂福鞋 147
樣板房@@ 147
橢圓@@ 147
段變頻@@ 147
水瓶 147
汽油@@ 147
濾心 147
用具 147
登月 147
範思哲@@ 147
米色 147
精準@@ 147
精靈 147
紅木@@ 147
羊絨@@ 147
腮紅@@ 147
臉 147
角落@@ 147
觸@@ 147
護腰@@ 147
貓狗@@ 147
越南@@ 147
雅詩蘭黛 147
難@@ 147
馬卡龍 147
aa@@ 146
ct@@ 146
edge 146
funko 146
kenzo@@ 146
led吸頂燈@@ 146
op@@ 146
wh@@ 146
加濕器 146
台製@@ 146
同人@@ 146
套書 146
女包包 146
守@@ 146
小外套 146
工具箱@@ 146
手機套@@ 146
方包 146
春夏新款 146
歐式 146
氧@@ 146
海鷗 146
滑板車 146
潤澤@@ 146
甜點@@ 146
益智玩具 146
短款 146
簡約現代臥室@@ 146
純色 146
結 146
緩震 146
腋下@@ 146
自製@@ 146
裏@@ 146
話筒@@ 146
連身洋裝 146
邱@@ 146
部品 146
閥 146
離@@ 146
餐具組 146
饅頭@@ 146
amg 145
cap 145
ra 145
健身房@@ 145
儀器@@ 145
儲物箱@@ 145
八成新 145
冰種@@ 145
列@@ 145
功@@ 145
加濕器@@ 145
勿@@ 145
升級版@@ 145
噴頭@@ 145
大馬@@ 145
奶嘴 145
奶粉 145
小麥@@ 145
工業風 145
成新@@ 145
戰靴@@ 145
托盤 145
折起 145
收銀@@ 145
杏仁@@ 145
松木@@ 145
檔 145
正宗@@ 145
水器@@ 145
永久@@ 145
沐浴露@@ 145
海邊@@ 145
清新 145
港版 145
狐狸@@ 145
碗筷@@ 145
禮盒組 145
空 145
空機 145
網格@@ 145
老爹@@ 145
股@@ 145
英寸@@ 145
草帽@@ 145
西裝褲 145
課本 145
貿易 145
資@@ 145
超細@@ 145
輪胎 145
面罩@@ 145
馬丁靴 145
backpack 144
bb霜 144
fl 144
her@@ 144
va@@ 144
三色可選 144
代購nike 144
佈置@@ 144
供佛@@ 144
全包 144
劇 144
加強@@ 144
咖啡機 144
大包 144
姜@@ 144
娘@@ 144
定時@@ 144
家用簡約@@ 144
循環@@ 144
懸掛@@ 144
戰鬥@@ 144
扳手@@ 144
按@@ 144
新品上架 144
日本限定 144
案@@ 144
棗@@ 144
檢@@ 144
燕@@ 144
牧@@ 144
皮包 144
省空間 144
競技@@ 144
縮腰@@ 144
舞臺@@ 144
藍白@@ 144
蜘蛛人 144
衛生間浴室@@ 144
走廊@@ 144
鋼鐵人 144
錘@@ 144
隨身包 144
雨刷 144
電器 144
電器@@ 144
鼎@@ 144
edition 143
ja@@ 143
smart 143
tekno 143
xi@@ 143
zara@@ 143
一代@@ 143
上衣女 143
仕 143
休閒包 143
倉庫 143
充電線@@ 143
全新商品 143
副廠@@ 143
北歐鐵藝@@ 143
問@@ 143
堡@@ 143
墊片 143
完全@@ 143
家族 143
帆布袋 143
席@@ 143
幫@@ 143
慕斯 143
拾@@ 143
按鍵@@ 143
搖椅@@ 143
教育@@ 143
新品特價 143
日本迪士尼@@ 143
桌家用@@ 143
瀝水架@@ 143
火焰@@ 143
焦糖@@ 143
燒 143
现货@@ 143
療@@ 143
積@@ 143
索隆 143
綠蘿@@ 143
總成 143
老闆@@ 143
聲光@@ 143
臥@@ 143
蝸牛@@ 143
運動跑步@@ 143
重型@@ 143
針織背心 143
鋼化玻璃 143
閥@@ 143
霸 143
靚@@ 143
頁@@ 143
餐廳 143
鬼 143
dsquared 142
fe 142
forever 142
ip@@ 142
iphonex 142
kk 142
plein 142
xi 142
三用@@ 142
人生 142
信封包 142
倉@@ 142
全包防摔@@ 142
全店免運 142
勿下單 142
十字架@@ 142
可用@@ 142
可自取 142
吊帶裙@@ 142
商場@@ 142
單肩包斜挎包@@ 142
奶粉@@ 142
娃娃機@@ 142
寵物用品 142
小蜜蜂@@ 142
布娃娃@@ 142
手寫@@ 142
拉鏈 142
推拉@@ 142
日版金證 142
昌@@ 142
春款@@ 142
橄欖@@ 142
櫥櫃@@ 142
沙灘褲 142
泳衣女@@ 142
滿千減 142
激情@@ 142
熱褲 142
版型@@ 142
牛排@@ 142
狐@@ 142
玫@@ 142
直筒褲 142
短 142
秋冬裝@@ 142
純棉圓領@@ 142
素材 142
紫外線@@ 142
編 142
臻@@ 142
萌萌@@ 142
藻@@ 142
虎 142
蝦 142
製作 142
規@@ 142
觸摸@@ 142
豎@@ 142
資生堂@@ 142
超取 142
踏@@ 142
鍊條@@ 142
防水防@@ 142
阻@@ 142
餐桌椅組合@@ 142
hm 141
io 141
js 141
lbj 141
pd 141
prime 141
xp 141
休@@ 141
內裡@@ 141
全館 141
凌@@ 141
刀架@@ 141
刺青@@ 141
加贈@@ 141
去除@@ 141
唱@@ 141
單雙人@@ 141
四色 141
圍欄 141
壓克力 141
夏季透氣@@ 141
夜間@@ 141
寶石 141
小黑@@ 141
工藝品 141
座椅 141
應@@ 141
打磨@@ 141
掀蓋@@ 141
搖頭@@ 141
收縮毛孔@@ 141
效 141
教師@@ 141
施華洛世奇 141
旗袍 141
普卡 141
最愛@@ 141
核@@ 141
極度乾燥 141
機芯 141
次 141
氏 141
減 141
班 141
組裝 141
耳塞@@ 141
肚@@ 141
背後@@ 141
腦@@ 141
英文字母@@ 141
蕾絲拼接@@ 141
街 141
超美 141
邊框@@ 141
閃耀@@ 141
雙色 141
霧面 141
餌@@ 141
高雄 141
鼓 141
bf風@@ 140
dc@@ 140
ki 140
lp 140
miu 140
pop@@ 140
sun 140
tpu@@ 140
ul@@ 140
交通@@ 140
免安裝@@ 140
冬裝@@ 140
唐老鴨 140
唐裝@@ 140
大錶盤@@ 140
女生衣著 140
學生韓版@@ 140
帥@@ 140
延@@ 140
強光@@ 140
手串 140
時尚印花@@ 140
活頁@@ 140
牙膏@@ 140
球衣@@ 140
經 140
老爹鞋@@ 140
茲@@ 140
行動電源@@ 140
裁@@ 140
觸屏@@ 140
豆腐@@ 140
貝親@@ 140
財神@@ 140
超好@@ 140
車上@@ 140
遊戲片 140
運動上衣 140
運動內衣 140
酒櫃@@ 140
隨行杯 140
雲 140
飛 140
食品級@@ 140
鬆@@ 140
黎@@ 140
黑魂 140
atf 139
can@@ 139
dg@@ 139
ferragamo 139
hd@@ 139
jd 139
racer 139
三腳架@@ 139
不挑色 139
乾燥花@@ 139
倉庫@@ 139
元素@@ 139
出清特價 139
卡夾@@ 139
口味@@ 139
可升降@@ 139
圓圈@@ 139
大理石紋@@ 139
安裝 139
封口@@ 139
小孩 139
尚 139
山地車@@ 139
工作褲 139
布鞋@@ 139
手工diy@@ 139
手持式@@ 139
手機支架@@ 139
抓皺@@ 139
拿@@ 139
掛衣架 139
控 139
擋風@@ 139
攜帶式@@ 139
改良@@ 139
族 139
望@@ 139
桃花@@ 139
氣囊@@ 139
沙發床 139
游戲 139
炮@@ 139
獨角獸 139
玻璃保護貼 139
現貨現貨@@ 139
簡易 139
米白@@ 139
純天然@@ 139
辦公室 139
邊桌@@ 139
錶盤@@ 139
鑲嵌@@ 139
雄@@ 139
雙層 139
雨 139
韓國進口@@ 139
餐盤@@ 139
court 138
ii@@ 138
ip 138
kelly 138
pazzo 138
sega 138
xxl碼 138
二合一 138
亮片 138
出租房@@ 138
前臺@@ 138
商務 138
單個@@ 138
圓領純棉@@ 138
夾克外套 138
婚紗 138
小鋪@@ 138
帆布包@@ 138
座墊@@ 138
戰鬥陀螺 138
手機殼iphone 138
打底褲@@ 138
托特包@@ 138
折疊桌@@ 138
曼 138
月子@@ 138
梁@@ 138
正貨@@ 138
泵 138
活膚@@ 138
演唱會@@ 138
牡丹@@ 138
珠寶 138
登 138
短襪@@ 138
紅白 138
美發@@ 138
美腿@@ 138
膠水@@ 138
處@@ 138
蝙蝠@@ 138
補水 138
針扣@@ 138
防滑耐磨@@ 138
雜貨店 138
雪紡衫@@ 138
電腦椅 138
靴子 138
頭髮@@ 138
alice 137
ho 137
jordan@@ 137
nd 137
secret 137
ter@@ 137
仙人掌@@ 137
免釘@@ 137
勞@@ 137
古銅@@ 137
單人床@@ 137
學校@@ 137
崎@@ 137
巡@@ 137
心機@@ 137
性感睡衣 137
恆@@ 137
新款兒童@@ 137
旗艦@@ 137
梅 137
梯 137
櫃子 137
海盜@@ 137
混合@@ 137
狗狗 137
瘦腿@@ 137
登山 137
發熱@@ 137
聲 137
背景布@@ 137
花茶@@ 137
衣帽架 137
訓練鞋 137
課@@ 137
超人 137
途@@ 137
鏈條 137
長板@@ 137
限定下單 137
雪茄@@ 137
電源 137
骷髏頭@@ 137
bo 136
charles 136
collection 136
crv 136
dy@@ 136
g點@@ 136
marvel 136
mer@@ 136
ou@@ 136
shock@@ 136
ten@@ 136
white@@ 136
休閑椅@@ 136
佑@@ 136
便攜式 136
俄羅斯@@ 136
偶像學園 136
元素 136
兩個@@ 136
冬季 136
受@@ 136
呂@@ 136
垃圾@@ 136
客廳燈@@ 136
寄@@ 136
小個子@@ 136
後庭@@ 136
念@@ 136
手工皂 136
把 136
拜@@ 136
星座@@ 136
時光 136
晚宴@@ 136
木板@@ 136
模擬@@ 136
死@@ 136
海邊度假@@ 136
湯鍋 136
滾珠@@ 136
演出服@@ 136
燈籠@@ 136
現貨居家裝飾廚房收納 136
空專 136
節日@@ 136
純金 136
臥室床邊@@ 136
豹@@ 136
輕盈@@ 136
辣椒@@ 136
連線@@ 136
鈣@@ 136
鉛筆盒 136
銀飾@@ 136
銘@@ 136
電繡@@ 136
青蛙@@ 136
龍婆@@ 136
em 135
fu 135
ic 135
just 135
sw@@ 135
tg 135
ton@@ 135
wi@@ 135
不粘@@ 135
二手出清 135
價格 135
全白@@ 135
冬季新款@@ 135
创意@@ 135
化妝品收納盒@@ 135
卡西歐@@ 135
員 135
單售 135
國旗@@ 135
大學t@@ 135
安德瑪@@ 135
客訂商品 135
店面@@ 135
手抓包@@ 135
拼色 135
播放器@@ 135
故事 135
書籍@@ 135
橫條@@ 135
步 135
熒光@@ 135
物理@@ 135
男士真皮@@ 135
療癒@@ 135
矽@@ 135
秋款@@ 135
色彩@@ 135
苦@@ 135
莓@@ 135
蓋布@@ 135
蘆薈@@ 135
袖珍@@ 135
詩 135
賓@@ 135
起 135
超萌@@ 135
郎 135
鈕扣@@ 135
鉛筆 135
鋸 135
鏈條單肩包 135
鑰匙包@@ 135
除毛@@ 135
除臭 135
電腦椅家用@@ 135
韓妞@@ 135
core 134
disney@@ 134
hilfiger 134
pr 134
roots 134
small 134
td 134
tv 134
tx 134
yi@@ 134
人造@@ 134
休閒運動慢跑鞋 134
假花@@ 134
兒童小@@ 134
分享@@ 134
原裝進口 134
四方@@ 134
圓桌@@ 134
奇奇蒂蒂 134
嬰兒寶寶@@ 134
小包包@@ 134
小豬 134
床上用品@@ 134
拍立得 134
拓@@ 134
掉@@ 134
排水@@ 134
提臀@@ 134
撈@@ 134
收納置物架@@ 134
攻@@ 134
日韓 134
星球 134
末@@ 134
權志龍 134
港味@@ 134
甜美 134
百年@@ 134
直銷@@ 134
禮盒裝 134
租房@@ 134
筆袋@@ 134
簡體書 134
米家@@ 134
經濟@@ 134
缸 134
胖胖@@ 134
芭@@ 134
荔枝紋牛皮@@ 134
蓬@@ 134
蜜桃@@ 134
規格 134
遮肚顯瘦@@ 134
閃卡 134
顏料@@ 134
顯示@@ 134
高腳凳@@ 134
髪@@ 134
魚子醬@@ 134
abs@@ 133
iii 133
mas@@ 133
mat@@ 133
navy 133
nsw 133
pin@@ 133
rm 133
wu@@ 133
七分褲 133
互動@@ 133
個性百搭@@ 133
健康 133
另有 133
向 133
圖騰 133
夜光 133
好看@@ 133
如意@@ 133
姆 133
定 133
寶藍 133
巴黎世家@@ 133
帳@@ 133
手電筒@@ 133
授權 133
接頭@@ 133
握@@ 133
武士鞋 133
歲寶寶@@ 133
毛巾架@@ 133
氣質百搭@@ 133
消防@@ 133
涼鞋女 133
澳洲 133
熱 133
琥珀@@ 133
紫水晶@@ 133
腹@@ 133
芳 133
英雄 133
衛褲 133
表情@@ 133
記憶體 133
連衣裙女 133
進口牛皮@@ 133
運動風@@ 133
達人@@ 133
闊腿褲 133
革@@ 133
頭層牛皮 133
顆粒 133
點心 133
bra@@ 132
lc 132
mei@@ 132
moschino 132
run@@ 132
xbox 132
ye@@ 132
不粘鍋@@ 132
仿舊@@ 132
休閒商務@@ 132
兒童成人@@ 132
分鐘@@ 132
前短後長@@ 132
后現代@@ 132
周年@@ 132
單鞋女@@ 132
圣誕@@ 132
外搭@@ 132
宣@@ 132
實 132
帶回@@ 132
慵懶風@@ 132
拳擊@@ 132
攝影 132
收纳@@ 132
文學@@ 132
旅遊 132
查@@ 132
核桃@@ 132
桃 132
標誌@@ 132
櫻花粉 132
正品保證 132
滾筒@@ 132
爛@@ 132
狗窩@@ 132
王子@@ 132
电@@ 132
登機箱 132
直接@@ 132
直購 132
直送 132
空白@@ 132
空軍一號 132
精品店 132
紅茶@@ 132
純金@@ 132
耳墜 132
胸罩@@ 132
花瓶 132
花生@@ 132
蟹@@ 132
證 132
趴@@ 132
車架 132
运动@@ 132
金證@@ 132
銀飾 132
鏡面 132
閃粉@@ 132
防塵 132
雙人床@@ 132
雙面 132
風味@@ 132
駕駛@@ 132
騎車@@ 132
鬼滅之刃@@ 132
黏土人 132
ace 131
bp 131
cartier 131
pack 131
rebecca 131
son 131
ton 131
份 131
企鵝 131
低價 131
像 131
加絨 131
協@@ 131
去黑頭@@ 131
售出 131
女寶@@ 131
寄 131
嵐 131
廚具@@ 131
搬家@@ 131
新品上市@@ 131
映@@ 131
水洗棉@@ 131
汽車精品 131
淺藍@@ 131
礦物@@ 131
筷子 131
純銀耳環 131
舌@@ 131
蕾蕾小鋪正@@ 131
超大容量@@ 131
週邊 131
醫療@@ 131
限時免運 131
顯示 131
餐巾紙 131
魚竿@@ 131
鶴@@ 131
boost@@ 130
hdmi 130
mercci 130
nintendo 130
pet 130
prada普拉達@@ 130
全氣墊 130
典藏@@ 130
刷子@@ 130
加密@@ 130
勿下標 130
包裝袋 130
台北 130
子母包 130
寬松百搭@@ 130
小小兵 130
屏風隔斷@@ 130
拖鞋女@@ 130
普通@@ 130
杜蘭特 130
梳子 130
棒球服@@ 130
溫度@@ 130
滑雪@@ 130
男士休閒@@ 130
碗柜@@ 130
碳素@@ 130
簡約家用@@ 130
經典老花@@ 130
繞@@ 130
美版 130
脆@@ 130
脫毛@@ 130
自黏@@ 130
荔枝皮 130
襯衫女@@ 130
西餐@@ 130
譜@@ 130
讚@@ 130
開襟@@ 130
fun@@ 129
har@@ 129
iphonex@@ 129
ir@@ 129
md 129
nike耐克@@ 129
u盤@@ 129
ス@@ 129
人字拖 129
光感@@ 129
出國@@ 129
化妝臺 129
商業@@ 129
坐姿@@ 129
填充@@ 129
多彩@@ 129
學步@@ 129
學生鞋 129
尿布 129
庫 129
弦 129
彩妝 129
所 129
手提袋@@ 129
扳手 129
排汗 129
提升@@ 129
插頭@@ 129
斜肩@@ 129
最佳@@ 129
東大門@@ 129
桌遊@@ 129
棉服@@ 129
概論 129
橙 129
洗 129
潔顏@@ 129
甜甜@@ 129
監控@@ 129
眾@@ 129
短版 129
矮凳@@ 129
秤@@ 129
絕版品 129
置物架落地@@ 129
芝麻@@ 129
花灑@@ 129
貓眼@@ 129
賞 129
輯 129
酷奇@@ 129
長版 129
韓妞必備 129
須@@ 129
驚@@ 129
高光@@ 129
鹿 129
ae 128
bag@@ 128
bh 128
eva@@ 128
gtr 128
longchamp 128
mei 128
nature 128
pcs 128
sg 128
一字帶@@ 128
便當@@ 128
傑 128
傳奇@@ 128
全掌氣墊@@ 128
公文包@@ 128
刮痧@@ 128
副食品@@ 128
勞保@@ 128
匡威@@ 128
可動@@ 128
吉祥@@ 128
后 128
塑鋼@@ 128
外接@@ 128
太空鋁@@ 128
套裝組 128
待@@ 128
我們@@ 128
托架@@ 128
採@@ 128
攝影機 128
數字 128
新品現貨 128
柔 128
椅墊@@ 128
檸檬 128
滿月@@ 128
漫威 128
熊貓 128
王者@@ 128
直銷 128
省力@@ 128
矯正@@ 128
簡潔@@ 128
美人魚@@ 128
聯想@@ 128
臉書@@ 128
興 128
舖@@ 128
菁@@ 128
街頭 128
調整@@ 128
護頸@@ 128
豪 128
辦公椅 128
遮肚@@ 128
長袖衛衣 128
防過敏@@ 128
頭發@@ 128
髒@@ 128
epson 127
gu 127
lip 127
play@@ 127
vr 127
來令片 127
全面@@ 127
午@@ 127
可參考 127
吉 127
太陽帽@@ 127
嬰@@ 127
延長@@ 127
弗@@ 127
弦@@ 127
成功@@ 127
持久 127
書店 127
板凳@@ 127
梳妝台@@ 127
樂福鞋@@ 127
檢測@@ 127
歐米茄 127
毛毯@@ 127
測量@@ 127
漁夫鞋 127
火車@@ 127
珍藏@@ 127
男鞋女鞋@@ 127
神秘@@ 127
童車 127
竹節@@ 127
紀梵希@@ 127
老師 127
職員@@ 127
臺面@@ 127
船 127
英 127
萬向@@ 127
藤原浩@@ 127
裕@@ 127
超取請聊聊我 127
跨境@@ 127
跳跳@@ 127
辰@@ 127
重工@@ 127
防水貼紙 127
韓版寬鬆@@ 127
領結@@ 127
馬尾@@ 127
hoodie 126
insta 126
jr 126
mj 126
net 126
roots@@ 126
rr 126
um 126
uv 126
v領 126
上衣服@@ 126
件免運 126
保冷@@ 126
冬季保暖@@ 126
冰塊@@ 126
切片@@ 126
半高領@@ 126
可愛動物@@ 126
哥吉拉 126
好好@@ 126
家電@@ 126
寶馬 126
層架@@ 126
幸@@ 126
手推@@ 126
抽紙盒@@ 126
掛衣@@ 126
擺飾@@ 126
整理盒 126
斑馬@@ 126
春裝新款@@ 126
書籤 126
柴犬 126
歐洲站 126
毛筆@@ 126
流水@@ 126
版型 126
簡約創意@@ 126
純 126
脚@@ 126
術@@ 126
袖上衣 126
變 126
達菲@@ 126
酷 126
鉆石@@ 126
附購買憑證 126
電動牙刷@@ 126
電壓@@ 126
預定 126
高潮 126
髮圈@@ 126
ak 125
ban@@ 125
dior迪奧 125
dr@@ 125
emporio 125
fa@@ 125
k金 125
nms 125
nx 125
si 125
time 125
低胸@@ 125
全家 125
内@@ 125
勇@@ 125
合金 125
吉他 125
唇蜜 125
圍脖 125
墜@@ 125
壞@@ 125
大全 125
婚禮 125
孕@@ 125
寬肩帶@@ 125
幣@@ 125
影樓@@ 125
心型@@ 125
拍賣 125
新竹@@ 125
有貨 125
杠@@ 125
枸杞@@ 125
桂@@ 125
桌布 125
淨 125
潔 125
珍品下殺 125
班服@@ 125
男生衣著 125
皆@@ 125
短袖衣服 125
純棉短袖 125
經典格紋@@ 125
荔枝皮@@ 125
蜂巢@@ 125
褲帶@@ 125
設備 125
豆漿@@ 125
速出@@ 125
醒@@ 125
金箔@@ 125
金絲@@ 125
鋼化膜@@ 125
鏤空 125
防滑墊 125
雷霆 125
香爐 125
香爐@@ 125
adidas三葉草@@ 124
alexander 124
care 124
game 124
hc 124
levis 124
melody 124
mil@@ 124
music 124
nano 124
ok@@ 124
sony@@ 124
tab 124
一體式@@ 124
丁字褲 124
三合一 124
三腳架 124
伴手禮 124
俠@@ 124
倫 124
倫敦@@ 124
停@@ 124
冷氣 124
刺激@@ 124
加大碼@@ 124
可拆洗 124
喜歡@@ 124
圖書 124
塗鴉 124
外穿 124
大氣墊 124
太陽傘@@ 124
太陽帽 124
女士香水 124
姐妹@@ 124
嬰兒推車@@ 124
孫悟空 124
安全 124
小樣 124
希 124
帽衫 124
平 124
幻彩@@ 124
懷@@ 124
房子@@ 124
手提式@@ 124
手腕@@ 124
抗菌 124
插畫@@ 124
果凍 124
槽 124
樣 124
涼拖 124
潔面乳 124
無紡布@@ 124
燈led@@ 124
獸 124
現貨熱銷 124
發貨@@ 124
紅白@@ 124
腕表@@ 124
腳墊 124
自由組合@@ 124
荔枝紋 124
藤原浩 124
西裝 124
象 124
轉換器 124
辛@@ 124
透氣舒適@@ 124
造景@@ 124
連帽外套@@ 124
錶盤 124
高溫@@ 124
鴛鴦@@ 124
ani@@ 123
der@@ 123
gopro 123
joy 123
pw 123
rav 123
sha@@ 123
you@@ 123
于@@ 123
傘狀@@ 123
光澤@@ 123
全台@@ 123
升級 123
卡夢 123
台風行家具 123
四葉草@@ 123
姬 123
定妝@@ 123
寶格麗@@ 123
將 123
小凳子@@ 123
巴 123
年級@@ 123
強效@@ 123
手工皂@@ 123
拋@@ 123
拳@@ 123
擴香@@ 123
整理箱 123
方向盤@@ 123
杏 123
梯子@@ 123
武士 123
水桶 123
泡 123
測試@@ 123
漁具@@ 123
玩具總動員@@ 123
玩具車 123
球球@@ 123
用書 123
男女情侶鞋 123
眼膜 123
眼鏡框@@ 123
稀有 123
紐@@ 123
純棉短袖@@ 123
終@@ 123
線上@@ 123
美味@@ 123
美好@@ 123
膚色 123
膠水 123
花器 123
英國代購 123
蠟筆小新@@ 123
講@@ 123
豹紋 123
趴趴@@ 123
運動短褲@@ 123
郵差包@@ 123
鏟 123
鐵盒 123
雙拉鏈@@ 123
電扇 123
鞋架子@@ 123
項@@ 123
飯 123
餐盒@@ 123
香奈兒chanel@@ 123
馬甲 123
马@@ 123
黃金 123
dk 122
double 122
dz 122
gucci古奇 122
outlet@@ 122
pam 122
ven@@ 122
五色@@ 122
仔 122
來電@@ 122
便條紙 122
保暖外套 122
保留@@ 122
削肩@@ 122
包巾 122
博柏利@@ 122
古奇gucci@@ 122
啤酒@@ 122
國家@@ 122
圓型@@ 122
垂@@ 122
嫁@@ 122
寬褲@@ 122
專業 122
小風扇@@ 122
屏幕@@ 122
差@@ 122
影音@@ 122
微電腦@@ 122
急@@ 122
慧 122
扭@@ 122
挎包 122
撒@@ 122
撞@@ 122
擋板@@ 122
斗柜@@ 122
新百倫 122
日期@@ 122
普 122
服務 122
植萃@@ 122
橡皮@@ 122
欄@@ 122
水藍 122
沙發床@@ 122
潔淨@@ 122
火影忍者 122
無線充電@@ 122
熱敷@@ 122
票 122
罩杯@@ 122
美美@@ 122
芬 122
蕾絲花邊@@ 122
袋子 122
迎賓@@ 122
適 122
重力@@ 122
鍛煉@@ 122
長款錢包 122
che@@ 121
cho@@ 121
citizen 121
coach蔻馳 121
ep@@ 121
good 121
ine 121
pl@@ 121
sv 121
一代 121
仿實木@@ 121
佛像@@ 121
信 121
儲物櫃 121
切 121
半袖 121
圓框@@ 121
墨水 121
大尺寸 121
大特價 121
幼童@@ 121
座墊 121
拼貼 121
撥@@ 121
時間 121
松 121
桔@@ 121
條紋上衣 121
民 121
水鞋@@ 121
洽談@@ 121
浮潛@@ 121
涵@@ 121
溪@@ 121
濃密@@ 121
濕紙巾 121
灌@@ 121
玻璃殼 121
生肖@@ 121
產品 121
皺@@ 121
眼睛 121
硬碟 121
私處@@ 121
筱@@ 121
米蘭@@ 121
素顏霜 121
緊身褲 121
老鼠@@ 121
膠條 121
藍光 121
記憶卡 121
試用包 121
護 121
軟套 121
邊柜@@ 121
酸 121
鋼化玻璃貼 121
階@@ 121
集中@@ 121
雙效@@ 121
首爾@@ 121
br@@ 120
epic 120
gb@@ 120
hermes愛馬仕@@ 120
klein@@ 120
knit 120
m反光 120
ni 120
nmd@@ 120
piece 120
win 120
win@@ 120
zen@@ 120
仁 120
兔兔 120
全新轉賣 120
厚款@@ 120
另售@@ 120
咖啡豆 120
哲@@ 120
器材@@ 120
夜 120
安全帶@@ 120
官方正品 120
客廳餐廳@@ 120
小型迷你@@ 120
彈力 120
手拿 120
拆售 120
拉手@@ 120
撲克牌 120
整理盒@@ 120
文胸 120
智慧型@@ 120
朋友 120
此@@ 120
母乳@@ 120
沙發椅 120
沾@@ 120
準@@ 120
漫 120
热销 120
無袖背心 120
熱褲@@ 120
爪 120
男潮@@ 120
痕 120
童書 120
聖誕 120
茶包 120
蕭@@ 120
薰衣草 120
角落小夥伴 120
警示@@ 120
貼片@@ 120
辦公室桌面@@ 120
運動襪 120
運費 120
遙控 120
銷@@ 120
額@@ 120
風火輪 120
骨 120
黑板@@ 120
cf@@ 119
cy 119
gh@@ 119
hdmi@@ 119
ie 119
kiss 119
pony 119
rl 119
ro 119
sui 119
ultraboost 119
usb充電 119
vip@@ 119
中秋@@ 119
也 119
休閒外套 119
作品 119
佩佩豬@@ 119
包裝盒 119
地球@@ 119
大臉@@ 119
夫妻@@ 119
奶茶色 119
媚@@ 119
客廳裝飾@@ 119
小方@@ 119
小美人魚 119
弘@@ 119
恒@@ 119
投影@@ 119
拍立得@@ 119
指環 119
插花@@ 119
放 119
敬@@ 119
數學@@ 119
新生兒 119
星空 119
東立 119
梳妝臺臥室@@ 119
橫款@@ 119
殺 119
油性@@ 119
潔牙@@ 119
爵士@@ 119
玩具車@@ 119
珍 119
甲 119
發財@@ 119
白底@@ 119
百搭潮流@@ 119
皮衣@@ 119
真的@@ 119
祛痘@@ 119
私訊@@ 119
立 119
簡易家用@@ 119
約會@@ 119
緊致@@ 119
縮@@ 119
置物 119
美杜莎@@ 119
草坪@@ 119
草帽 119
萬 119
萬寶龍@@ 119
蓮 119
起子@@ 119
超值 119
超高@@ 119
跑車@@ 119
轉椅@@ 119
都市@@ 119
鉆 119
鋼管@@ 119
防輻射@@ 119
電玩@@ 119
食用@@ 119
鳴@@ 119
adidas愛迪達@@ 118
cor@@ 118
gc 118
got 118
hr 118
lightning 118
master 118
mor@@ 118
por@@ 118
rt 118
usa 118
victoria 118
一字拖@@ 118
三聯@@ 118
他@@ 118
休閒板鞋 118
倉 118
側掀@@ 118
兩件 118
冷淡風@@ 118
別針@@ 118
創意簡約@@ 118
勺子@@ 118
化妝刷@@ 118
司 118
含稅附發票 118
吾@@ 118
多款 118
天堂@@ 118
套裝女 118
女男@@ 118
如圖 118
小型家用@@ 118
工作服 118
布鞋 118
捲髮@@ 118
擴充@@ 118
整理 118
新店@@ 118
暢@@ 118
月亮 118
枚入 118
椒@@ 118
沙發凳@@ 118
潘朵拉@@ 118
潮款@@ 118
無煙@@ 118
燈光@@ 118
盡@@ 118
秋裝新款@@ 118
租@@ 118
籃子@@ 118
絲滑@@ 118
美睫@@ 118
肩包 118
胡迪 118
蝙蝠俠@@ 118
褲帶 118
角色@@ 118
賽車 118
超輕量@@ 118
趙@@ 118
釋@@ 118
鋼化玻璃保護貼 118
門市@@ 118
防藍光@@ 118
電動摩托車@@ 118
電焊@@ 118
電話 118
鞋帶 118
餌 118
體育 118
airpods@@ 117
beats 117
burberry巴寶莉@@ 117
id@@ 117
msi 117
pan@@ 117
ry@@ 117
spa 117
summer 117
wood 117
zc 117
三星s 117
三星標 117
中大尺碼 117
傳說@@ 117
傾@@ 117
冬 117
削@@ 117
動畫@@ 117
原廠正品 117
可換@@ 117
吹風機@@ 117
咒@@ 117
單面@@ 117
圖解@@ 117
境 117
夏款@@ 117
多多@@ 117
多美小汽車 117
大底 117
好市多@@ 117
媽咪包 117
客廳玄關@@ 117
小貓@@ 117
小資@@ 117
布藝 117
帆布鞋女@@ 117
必備款 117
忠@@ 117
懂@@ 117
扇子 117
折疊桌 117
拉拉@@ 117
掛勾@@ 117
擊 117
改 117
敲@@ 117
新品優惠 117
早秋@@ 117
明日@@ 117
枚@@ 117
果蔬@@ 117
柜子 117
濾芯 117
盤子 117
睡袋@@ 117
紅豆@@ 117
索尼 117
絨毛 117
線條 117
繪本@@ 117
羽絨服@@ 117
翡翠 117
聚會@@ 117
艾斯 117
落地燈@@ 117
蘋果iphone 117
蛤蟆鏡 117
衣著 117
複@@ 117
護膝@@ 117
變焦@@ 117
軟管@@ 117
載@@ 117
近全新@@ 117
通話@@ 117
避震 117
銀行@@ 117
鍍膜@@ 117
长@@ 117
門廳柜@@ 117
阿甘@@ 117
限時搶購 117
面具@@ 117
髮膜 117
ami@@ 116
bape 116
bobbi 116
dd 116
fila@@ 116
he 116
moto 116
nike耐吉 116
tamiya 116
wars 116
with 116
wt 116
い@@ 116
人字拖@@ 116
以上@@ 116
佛牌 116
佛珠@@ 116
兔毛@@ 116
公主裙@@ 116
刺激 116
剝@@ 116
原裝正品 116
可攜式@@ 116
和紙膠帶 116
員工@@ 116
坑條@@ 116
天鵝絨@@ 116
女士手提包 116
小可愛@@ 116
小汽車 116
局@@ 116
彈跳@@ 116
打底褲 116
接 116
控制器 116
效果@@ 116
晚禮服@@ 116
書本@@ 116
朴@@ 116
桌墊 116
毛圈@@ 116
深海@@ 116
淺藍 116
清潔劑@@ 116
湯 116
無痕 116
無線藍牙耳機@@ 116
瑞 116
男友@@ 116
相機包@@ 116
算@@ 116
紙巾@@ 116
素描@@ 116
結單 116
纖維 116
纹@@ 116
胖妹妹@@ 116
自慰@@ 116
薑@@ 116
衝浪@@ 116
装 116
訊@@ 116
貴妃@@ 116
車充 116
轉接@@ 116
轉換器@@ 116
都會@@ 116
鄉@@ 116
鐵盒@@ 116
防曬衣 116
防水臺@@ 116
雜貨舖 116
電視機@@ 116
香港 116
cl@@ 115
day@@ 115
ec 115
kb 115
kose 115
po 115
zakka@@ 115
一體 115
不是@@ 115
中學生@@ 115
中長款 115
二件式@@ 115
五 115
五角星@@ 115
兒童安全@@ 115
刃@@ 115
勝 115
單肩手提@@ 115
噴漆@@ 115
多美 115
夢想@@ 115
大眼@@ 115
太極@@ 115
套筒@@ 115
套装@@ 115
女夏季@@ 115
實惠@@ 115
寶寶兒童@@ 115
專輯@@ 115
小禮服@@ 115
小金@@ 115
廖@@ 115
建築@@ 115
徑@@ 115
摩托車 115
數顯@@ 115
斜跨包@@ 115
木耳邊@@ 115
杏色 115
材料包@@ 115
梨花@@ 115
植村秀 115
極光@@ 115
極限@@ 115
歡@@ 115
歸@@ 115
氣壓@@ 115
泳@@ 115
洗頭@@ 115
滋潤 115
琴 115
瑪莉@@ 115
皇冠 115
福特 115
秋季 115
端@@ 115
組合包 115
翻蓋 115
耳針@@ 115
自動機械@@ 115
花藝@@ 115
茶樹@@ 115
萬寶龍 115
蓬蓬@@ 115
蛇紋@@ 115
解 115
譜 115
護士@@ 115
護理 115
貴婦@@ 115
超聲波@@ 115
躺@@ 115
遇@@ 115
鋒@@ 115
鐘錶@@ 115
鑽石 115
韓國可愛@@ 115
香港代購@@ 115
馳@@ 115
高腰 115
黑糖@@ 115
cu 114
dv 114
ine@@ 114
keith 114
sen@@ 114
不易@@ 114
保鮮盒@@ 114
儲物盒@@ 114
全新正版 114
印刷@@ 114
多口袋@@ 114
套筒 114
娘 114
完整@@ 114
慢跑褲 114
打造@@ 114
按壓式@@ 114
智 114
棍 114
橡@@ 114
母子@@ 114
法拉利@@ 114
泰迪熊@@ 114
浴室衛生間@@ 114
潛@@ 114
無印良品 114
牆 114
現貨供應@@ 114
男女情侶款 114
百搭款@@ 114
的家 114
睫毛 114
禪@@ 114
秋裝 114
章魚@@ 114
簡約客廳@@ 114
紙巾盒 114
線控@@ 114
背巾 114
花紋 114
蘋果安卓@@ 114
衛生棉 114
豹 114
轉售 114
遮陽傘@@ 114
酒紅色@@ 114
鑄鐵@@ 114
開檔@@ 114
除菌@@ 114
雕 114
雨刷@@ 114
零錢袋 114
電子 114
青年學生@@ 114
韓風 114
ag 113
bear@@ 113
chu@@ 113
daniel 113
md@@ 113
men@@ 113
ng@@ 113
nike鞋 113
qu@@ 113
soft 113
代籃球鞋@@ 113
信封包@@ 113
全新未@@ 113
刻字 113
升 113
卡套@@ 113
台南 113
四層@@ 113
四腳@@ 113
多肉植物@@ 113
大紅@@ 113
如 113
家電 113
小款 113
布朗@@ 113
廢@@ 113
投影儀@@ 113
招財貓@@ 113
捕@@ 113
收納籃@@ 113
新款韓版百搭@@ 113
最便宜 113
未拆 113
柔光@@ 113
民族@@ 113
永生花@@ 113
洗漱臺@@ 113
游戲機@@ 113
滑鼠@@ 113
睡裙 113
瞬@@ 113
老虎頭@@ 113
董@@ 113
財務@@ 113
費 113
賣家@@ 113
跑 113
軍綠@@ 113
造景 113
適用於@@ 113
開發票 113
雪紡 113
電視櫃@@ 113
香檳@@ 113
體恤 113
魔鬼@@ 113
boss@@ 112
flyknit@@ 112
ht 112
ins潮 112
king@@ 112
les 112
lexus 112
lolita@@ 112
neo@@ 112
pre@@ 112
shimano 112
下午茶@@ 112
住@@ 112
個性時尚@@ 112
假睫毛@@ 112
全新未拆@@ 112
全部@@ 112
刀片 112
卡通印花@@ 112
周年 112
唐老鴨@@ 112
四 112
坐便器@@ 112
增壓@@ 112
多格@@ 112
夜視@@ 112
大全@@ 112
大地@@ 112
大燈 112
奧運@@ 112
宿舍 112
小椰子 112
工作鞋 112
市 112
彩膜@@ 112
情趣用品@@ 112
戴妃包 112
手作材料 112
手帳 112
手柄 112
新勁戰 112
會員@@ 112
木雕@@ 112
染 112
機能 112
水族 112
水洗 112
水管 112
沙發背景墻@@ 112
津@@ 112
浦@@ 112
淺色@@ 112
溫 112
溫控@@ 112
無印良品@@ 112
熊大@@ 112
牛肉@@ 112
獅 112
理發店@@ 112
甜美可愛@@ 112
由@@ 112
白粉 112
百合@@ 112
盾 112
福袋@@ 112
童趣@@ 112
網紅ins風@@ 112
縮口@@ 112
繪 112
美式 112
翻糖@@ 112
臉盆@@ 112
花架子@@ 112
薄紗@@ 112
衣帽@@ 112
裝修@@ 112
課 112
護欄@@ 112
豐田@@ 112
運動服@@ 112
過 112
郎@@ 112
醫生@@ 112
鋼化玻璃膜 112
鐵板@@ 112
防 112
隔斷簾@@ 112
震動 112
風車 112
香香@@ 112
鼠年@@ 112
buy 111
chen@@ 111
dg 111
dp 111
dt 111
gar@@ 111
gk@@ 111
mk手錶 111
pb 111
tee@@ 111
tf 111
vintage@@ 111
wen 111
三件式@@ 111
不傷@@ 111
不會@@ 111
中袖@@ 111
人魚@@ 111
便宜出清 111
假面騎士 111
全皮 111
兩色可選 111
出差@@ 111
刀劍神域 111
分裝瓶 111
初中@@ 111
創意可愛@@ 111
卸@@ 111
原色@@ 111
吊帶 111
吊帶背心@@ 111
吸盤 111
吸盤式@@ 111
复古@@ 111
夏威夷@@ 111
宅配 111
安心@@ 111
小車 111
巧虎@@ 111
愛買 111
應急@@ 111
懸@@ 111
掛墻式@@ 111
敏 111
新款女@@ 111
旋轉 111
會客@@ 111
棒棒糖@@ 111
模型車 111
殺手包 111
水機@@ 111
泡腳@@ 111
浴盆@@ 111
湘@@ 111
無法@@ 111
熱帶@@ 111
爆 111
王子 111
玖@@ 111
禮券 111
簽@@ 111
精工@@ 111
素顏@@ 111
翻蓋包 111
胸罩 111
自助@@ 111
舒這@@ 111
艾灸@@ 111
茶水@@ 111
茶葉 111
蚊@@ 111
螢光綠 111
訂 111
記憶棉@@ 111
變裝@@ 111
跳蛋@@ 111
金邊@@ 111
陰陽@@ 111
雀@@ 111
需要@@ 111
韓版休閒@@ 111
頭燈 111
馬自達 111
體驗@@ 111
高低@@ 111
adidas愛迪達 110
ana 110
a款 110
cuxi 110
grand 110
grey 110
ker@@ 110
pin 110
swoosh 110
世家 110
中小童@@ 110
休 110
兄弟 110
內膽@@ 110
冰 110
半圓@@ 110
发@@ 110
名品@@ 110
圓領t 110
坑@@ 110
好穿@@ 110
妝前乳 110
嬰兒童裝 110
孕婦裝 110
客廳家用@@ 110
客廳小戶型@@ 110
寶寶嬰兒@@ 110
尾燈 110
布丁狗 110
帳 110
態@@ 110
扶手 110
掛牆@@ 110
握把 110
摩托@@ 110
整裝@@ 110
新配色 110
日式 110
旭@@ 110
柵欄@@ 110
格子襯衫 110
樹葉@@ 110
機車包 110
汽車用品 110
沈@@ 110
沙灘褲@@ 110
浩@@ 110
淺灰 110
游泳衣@@ 110
潮流鞋 110
無盒 110
牛仔褲女@@ 110
特價下殺 110
珊@@ 110
琦@@ 110
產后@@ 110
男褲 110
盈@@ 110
筆筒 110
精密@@ 110
精緻 110
精裝@@ 110
耐摔@@ 110
職@@ 110
菊花@@ 110
菲利普@@ 110
葡萄 110
行車記錄器 110
裸色@@ 110
證件套 110
護具 110
超可愛 110
酒紅色 110
金絲絨@@ 110
鎮 110
門窗@@ 110
開門@@ 110
限時下殺@@ 110
除螨@@ 110
隔離霜 110
雪莉玫 110
面紙盒 110
飲水機@@ 110
馬桶 110
高貴@@ 110
鳥籠@@ 110
adidas阿迪達斯@@ 109
audi 109
crystal 109
estee 109
free@@ 109
gsc 109
joy@@ 109
kakao 109
lv皮帶 109
nike耐吉@@ 109
platform 109
realme 109
seventeen 109
vw 109
we 109
不用@@ 109
不要@@ 109
低音炮@@ 109
佛牌@@ 109
保濕面膜 109
內襯 109
全黑@@ 109
八角@@ 109
冰涼@@ 109
切菜@@ 109
加壓@@ 109
只 109
吊床@@ 109
單冷@@ 109
四角褲 109
增強@@ 109
大師圖書@@ 109
夾心@@ 109
妝前@@ 109
富貴@@ 109
小新@@ 109
小羊皮 109
岡@@ 109
州@@ 109
市集 109
懸掛式@@ 109
戀 109
扮家家 109
拉桿箱 109
按壓@@ 109
插卡 109
文字 109
星期@@ 109
朋克@@ 109
服務@@ 109
杏色@@ 109
橢圓形@@ 109
歐美潮牌@@ 109
水感@@ 109
水瓶@@ 109
沙發套@@ 109
灰黑 109
無袖洋裝 109
瑪 109
程 109
穩定@@ 109
空壓@@ 109
紐巴倫 109
細緻@@ 109
罐裝 109
翼 109
膠原@@ 109
舒服@@ 109
蓝@@ 109
號店@@ 109
貓頭鷹 109
賢 109
軒 109
軟 109
迎@@ 109
醋@@ 109
鉛@@ 109
鎖骨@@ 109
長袖t 109
長袖衛衣@@ 109
陳冠希@@ 109
雛菊@@ 109
電源供應器 109
魔幻@@ 109
鯉魚@@ 109
黑粉 109
齡@@ 109
apple@@ 108
danielwellington@@ 108
dl 108
sho@@ 108
story 108
woc@@ 108
xc 108
ト@@ 108
一片式@@ 108
一體機@@ 108
三眼怪@@ 108
佈@@ 108
佛教@@ 108
保存@@ 108
傳說 108
儲存@@ 108
克拉@@ 108
全場促銷 108
初學者 108
創意時尚@@ 108
可拆 108
啞鈴@@ 108
奢@@ 108
女士包包 108
奶 108
宅配@@ 108
小風扇 108
弓@@ 108
怡 108
戶外登山@@ 108
拉鏈長夾 108
接口@@ 108
書套 108
杯架@@ 108
柚子@@ 108
法拉利 108
洗髮乳 108
燉@@ 108
燦@@ 108
理膚寶水 108
男表@@ 108
發卡@@ 108
益智 108
直筒牛仔褲 108
相冊@@ 108
睡袍@@ 108
磨砂 108
簡易書架@@ 108
糕@@ 108
紀梵希 108
羊毛 108
美少女戰士 108
聯 108
自拍神器 108
臺式電腦@@ 108
芭比@@ 108
苗 108
茶桌 108
菸@@ 108
落地 108
蘭蔻@@ 108
請先@@ 108
買就送@@ 108
貼畫 108
通訊 108
邦 108
鎖骨鏈 108
長款 108
開業@@ 108
零碼@@ 108
魔 108
ang@@ 107
civic 107
fc@@ 107
lego@@ 107
lv新款@@ 107
montblanc 107
pl 107
pochette 107
print 107
shu 107
sj 107
speed 107
ter 107
tex 107
ting 107
valentino 107
三種@@ 107
三角 107
三輪@@ 107
伍@@ 107
休閑板鞋 107
伸縮 107
值@@ 107
克羅心@@ 107
內飾@@ 107
全新正品nike 107
全系列@@ 107
北歐簡約現代@@ 107
印花logo@@ 107
圓領短袖t恤@@ 107
大力@@ 107
套裝家用@@ 107
好物@@ 107
子彈 107
容量 107
實木質@@ 107
實物拍攝 107
寬松休閑@@ 107
山水@@ 107
市場@@ 107
帶輪@@ 107
幣 107
平滑扣@@ 107
後視鏡@@ 107
情侣@@ 107
手提肩背@@ 107
拉鏈錢夾 107
改善@@ 107
斑馬 107
斗篷@@ 107
料理 107
旗艦店@@ 107
春天@@ 107
桐@@ 107
極品@@ 107
水果盤@@ 107
汁 107
深灰 107
滑板車@@ 107
滑輪@@ 107
潑墨 107
燈泡@@ 107
珮@@ 107
現代簡約小戶型@@ 107
真人@@ 107
短袖襯衫@@ 107
筆記 107
純淨@@ 107
終極@@ 107
綠茶 107
緹@@ 107
老年人@@ 107
萬代@@ 107
蕾哈娜@@ 107
虧本@@ 107
裤@@ 107
西點@@ 107
說 107
調整型@@ 107
財 107
超柔@@ 107
逛街@@ 107
運費@@ 107
邊桌 107
隨機 107
隱形襪 107
顏 107
顯示器 107
飄逸@@ 107
餃子@@ 107
armani阿瑪尼 106
best 106
bio@@ 106
cream 106
cs@@ 106
fit@@ 106
gundam 106
iv 106
ken@@ 106
lunar 106
mark 106
sch@@ 106
tpu 106
vivi@@ 106
wl 106
一起賣 106
中童 106
中褲@@ 106
乃@@ 106
二層@@ 106
二手書@@ 106
作業@@ 106
使@@ 106
傳奇 106
光學@@ 106
全方位@@ 106
制服誘惑@@ 106
加絨保暖@@ 106
卡片夾 106
古 106
合一@@ 106
吧台@@ 106
大款 106
小紅@@ 106
律@@ 106
怪獸 106
悟空@@ 106
手排 106
挑@@ 106
換 106
收納柜子@@ 106
日立 106
時尚潮@@ 106
正品全新 106
水果 106
洗衣精 106
滿額@@ 106
瀨@@ 106
火影忍者@@ 106
留言@@ 106
白綠 106
皮質 106
直條紋@@ 106
磁扣 106
空軍一號@@ 106
精華液@@ 106
美國隊長 106
良品@@ 106
蒂 106
蝶古巴特 106
西裝夾 106
詢問@@ 106
誘惑 106
調味料@@ 106
賽 106
跑步健身@@ 106
速乾 106
過濾器 106
過濾器@@ 106
釘珠@@ 106
門鎖@@ 106
雙g 106
電腦桌臺式@@ 106
頂 106
高級感@@ 106
默@@ 106
ali@@ 105
chu 105
combi 105
id 105
shf 105
sky 105
tiffany@@ 105
tn 105
一字領 105
儲物架 105
博士 105
叉子 105
可貨到付款 105
可配@@ 105
史 105
吸濕排汗@@ 105
園藝 105
圓領上衣 105
坎肩@@ 105
城堡@@ 105
培訓@@ 105
墻紙@@ 105
壁飾@@ 105
外套女 105
多媒體@@ 105
多美@@ 105
天下@@ 105
夾式 105
奶奶@@ 105
小叮噹 105
小花 105
小衫@@ 105
山葉 105
幽靈@@ 105
床頭燈@@ 105
廚 105
復古慢跑鞋 105
戶外防水@@ 105
批 105
掛耳式@@ 105
摔@@ 105
支裝@@ 105
教室@@ 105
春裝 105
月光@@ 105
歐舒丹 105
漬@@ 105
烤箱 105
男鞋子@@ 105
秋冬新款韓版@@ 105
秋冬款 105
穀@@ 105
筆筒@@ 105
筋@@ 105
粉撲 105
紐約@@ 105
純棉t恤 105
耳麥 105
腹肌@@ 105
臘@@ 105
花盆架@@ 105
范 105
蘋果x@@ 105
褲裙@@ 105
親子裝@@ 105
負@@ 105
車牌@@ 105
透明殼 105
防塵罩 105
防蟲@@ 105
阿瑪尼手錶 105
限時特賣 105
雞肉 105
雪靴 105
電動 105
電壓 105
體感@@ 105
鹽 105
麥 105
黑藍@@ 105
bi 104
cafe 104
evo 104
hl 104
huang 104
ja 104
jeans 104
oil 104
prm 104
wh 104
xsmax@@ 104
一批 104
一雙 104
三眼 104
三角形@@ 104
人緣@@ 104
剃@@ 104
卡其色 104
卡地亞@@ 104
卡貼 104
可摺疊@@ 104
和服 104
商 104
喜 104
噴水@@ 104
圍脖@@ 104
夏季男生@@ 104
大包@@ 104
娃衣 104
婚房@@ 104
婦@@ 104
嬰兒車@@ 104
小方巾 104
尾牙@@ 104
慈@@ 104
指針@@ 104
攝像頭@@ 104
整理架@@ 104
新款上市 104
新色@@ 104
時代 104
暖暖@@ 104
未拆封 104
樓 104
武士@@ 104
浪漫 104
海苔@@ 104
烈@@ 104
無味@@ 104
無袖上衣 104
熱門@@ 104
燈籠袖@@ 104
瑩@@ 104
產後@@ 104
白灰 104
白玉@@ 104
短袖洋裝 104
硫化@@ 104
神明@@ 104
空姐@@ 104
空運 104
競@@ 104
紗裙@@ 104
紙盒@@ 104
紮@@ 104
維他命@@ 104
緬甸@@ 104
聲控@@ 104
舞台@@ 104
菱@@ 104
萬圣節@@ 104
處理@@ 104
蝙蝠俠 104
袋裝@@ 104
論@@ 104
貞@@ 104
買一送一@@ 104
貼布 104
軍 104
速發 104
郵票 104
銷售@@ 104
鋼架@@ 104
長款錢包@@ 104
防疫@@ 104
防霉@@ 104
食玩 104
麻繩@@ 104
ay 103
ck手錶 103
cr@@ 103
cv 103
dh 103
dj 103
fv 103
gucci女包 103
hu 103
ikea@@ 103
lancome 103
low@@ 103
new@@ 103
ren@@ 103
select 103
sneaker 103
suzuki 103
the@@ 103
tra@@ 103
xb 103
ღ 103
串 103
主機板 103
俠 103
全場下殺 103
兩輪@@ 103
剪裁@@ 103
加肥加大碼@@ 103
坪@@ 103
城堡 103
多卡位 103
大陸@@ 103
寧 103
小圓桌@@ 103
嵌@@ 103
徒步@@ 103
必買@@ 103
懶懶熊 103
打印機@@ 103
抑菌@@ 103
提供@@ 103
散打@@ 103
晾衣@@ 103
曬衣@@ 103
最強@@ 103
杯套 103
格紋襯衫 103
機器 103
櫥@@ 103
止滑 103
正廠 103
消臭@@ 103
湯姆@@ 103
牛仔褲男@@ 103
現貨秒出 103
環保袋 103
男子 103
男生短t 103
真皮皮帶 103
箭@@ 103
粉餅@@ 103
紀念品 103
紋牛皮@@ 103
細節@@ 103
網狀@@ 103
綿 103
肥皂@@ 103
背景牆@@ 103
腰部@@ 103
花香@@ 103
菱格紋 103
融@@ 103
袖套 103
補光燈@@ 103
裝飾貼 103
裹胸@@ 103
護膝 103
足 103
邊櫃@@ 103
酒 103
金鍊@@ 103
釣魚 103
鍍鉻@@ 103
鑰匙套 103
雙排扣@@ 103
雯 103
電動牙刷 103
電動車 103
韓版休閑@@ 103
頸枕 103
餃子包 103
駕車鞋 103
高跟涼鞋 103
鬆緊帶@@ 103
armani阿瑪尼@@ 102
chang 102
class 102
den@@ 102
et@@ 102
first 102
fun 102
g家@@ 102
hearts 102
ju 102
mon 102
pen@@ 102
rg 102
sweet 102
tea 102
tour 102
t桖 102
zoo 102
の 102
一箱 102
中空@@ 102
亞曼尼 102
仿真 102
促銷活動 102
修身小腳@@ 102
個性潮流@@ 102
兒童學習@@ 102
內附@@ 102
公司 102
分褲 102
劃@@ 102
司機@@ 102
各 102
含 102
唇釉@@ 102
喵 102
囊@@ 102
垃圾袋@@ 102
塑膠 102
墻角@@ 102
夏季男士@@ 102
奈 102
女潮@@ 102
姿 102
孟@@ 102
學習 102
客廳茶幾@@ 102
專 102
專用賣場 102
對折@@ 102
小卡@@ 102
居家裝飾 102
扇子@@ 102
技術@@ 102
折疊式@@ 102
抹@@ 102
持久淡香@@ 102
採用@@ 102
收納神器@@ 102
收銀臺@@ 102
新款復古@@ 102
春秋款@@ 102
時尚男士@@ 102
枕套@@ 102
柏 102
模特@@ 102
樸@@ 102
款可選 102
正常@@ 102
水箱@@ 102
洗顏@@ 102
洞洞鞋 102
浴室置物架@@ 102
涼 102
滿千免運 102
演唱會 102
潤唇膏 102
灰藍 102
無袖 102
牙齒@@ 102
現代簡約臥室@@ 102
瓶裝 102
皮包@@ 102
硅膠 102
簡約休閒@@ 102
紐扣@@ 102
網球@@ 102
纸@@ 102
缺@@ 102
网红@@ 102
美食@@ 102
聊聊 102
腕@@ 102
腳底@@ 102
自慰杯 102
艾草@@ 102
花卉 102
蓁@@ 102
蕾絲上衣 102
蘭芝@@ 102
裙擺@@ 102
計時 102
詹姆斯@@ 102
誠品eslite 102
賢@@ 102
超夯@@ 102
酒杯@@ 102
鍋蓋@@ 102
鍵 102
鏡片@@ 102
閃 102
防曬乳 102
陳列@@ 102
韓站 102
預訂 102
首飾 102
黑綠 102
bm 101
bra 101
com@@ 101
cos服@@ 101
em@@ 101
jet 101
lucky 101
mj@@ 101
nice 101
pink@@ 101
sam@@ 101
slim 101
tester 101
令@@ 101
任意@@ 101
兩折@@ 101
兩種@@ 101
分離@@ 101
加購@@ 101
包邊@@ 101
北海道@@ 101
卡夢@@ 101
史萊姆@@ 101
吧臺椅@@ 101
啟蒙@@ 101
單色@@ 101
嗎 101
圣誕節@@ 101
在 101
大尺寸@@ 101
女潮 101
孤@@ 101
學習桌@@ 101
專賣@@ 101
小茶幾 101
彌@@ 101
彭@@ 101
性愛@@ 101
恐怖@@ 101
懶人沙發 101
成品 101
戰馬@@ 101
手機架@@ 101
打蠟@@ 101
拉花@@ 101
拼布 101
新品特惠 101
方向燈 101
晴 101
極緻@@ 101
機油 101
法蘭@@ 101
液壓@@ 101
液態@@ 101
深層清潔@@ 101
渡@@ 101
牆紙@@ 101
牛皮紙@@ 101
特典@@ 101
直流@@ 101
短洋裝 101
短袖短褲@@ 101
穆勒鞋 101
第二彈 101
精萃@@ 101
編號@@ 101
縫 101
繁體@@ 101
繁體中文版 101
美白 101
脖子@@ 101
膚色@@ 101
膠原蛋白 101
自慰套 101
葛@@ 101
薔薇@@ 101
蘿莉@@ 101
衝評價 101
記事本@@ 101
足浴@@ 101
農用@@ 101
避@@ 101
邊框 101
郁@@ 101
長度 101
雙口袋@@ 101
鞋男@@ 101
領口@@ 101
風味 101
餐廳燈@@ 101
高質感 101
黑曜石@@ 101
app@@ 100
az@@ 100
carhartt 100
chic 100
element 100
fd 100
gear 100
kit 100
splus@@ 100
top@@ 100
un 100
一年保固 100
中的@@ 100
丹尼爾惠靈頓@@ 100
亭@@ 100
似@@ 100
光面@@ 100
兔裝 100
兩件套裝@@ 100
公路車@@ 100
刷色@@ 100
即食@@ 100
原版 100
史密斯@@ 100
場景 100
妃 100
娜娜@@ 100
安瓶 100
客戶@@ 100
宮 100
家居裝飾品@@ 100
密封罐 100
小背心 100
山居歲月 100
工具套裝@@ 100
平底 100
年會@@ 100
幽@@ 100
徑 100
手提斜挎包 100
手提肩背包 100
打結@@ 100
抹布@@ 100
拖車@@ 100
提亮膚色@@ 100
撲@@ 100
新款真皮@@ 100
時尚單肩包 100
時尚流行@@ 100
晚安@@ 100
有效@@ 100
棉襪 100
檔案@@ 100
歐式復古@@ 100
毛球 100
油畫 100
波波@@ 100
湯鍋@@ 100
炒菜@@ 100
無塵@@ 100
特大 100
瓦斯@@ 100
瘦臉@@ 100
皮筋@@ 100
睿@@ 100
短袖t恤女 100
碼數 100
穿衣鏡@@ 100
第二代@@ 100
群 100
習@@ 100
耳環女@@ 100
蕊 100
製造@@ 100
視覺@@ 100
覺@@ 100
訂單@@ 100
調光@@ 100
證件夾 100
變身@@ 100
透光@@ 100
選擇@@ 100
酒瓶@@ 100
野餐 100
鋼圈@@ 100
鍍 100
長巾 100
防爆 100
離子@@ 100
韋@@ 100
頭盔 100
顯示器@@ 100
首刷@@ 100
首飾盒 100
驚喜@@ 100
age 99
and@@ 99
ape 99
a貨@@ 99
exo@@ 99
gr@@ 99
hb 99
icash 99
ina 99
ino@@ 99
lon@@ 99
mitsubishi 99
moon 99
oppor 99
party 99
promax@@ 99
series 99
sl@@ 99
ラ@@ 99
任何@@ 99
佩佩豬 99
假睫毛 99
兒童床@@ 99
內有@@ 99
全明星@@ 99
凹@@ 99
刷具 99
卡地亞 99
土耳其@@ 99
埃及@@ 99
大學生宿舍@@ 99
女裝韓版@@ 99
子彈@@ 99
家飾 99
小米手環 99
嵐@@ 99
工地@@ 99
平光@@ 99
年終@@ 99
廣角@@ 99
急救@@ 99
慶 99
折下殺 99
挎包@@ 99
掛鐘客廳@@ 99
探險@@ 99
文創@@ 99
新貨下殺 99
新貨特價 99
曬衣架 99
曲面@@ 99
極新 99
檯燈@@ 99
潤膚@@ 99
爱@@ 99
珠珠@@ 99
現貨熱賣@@ 99
甜甜圈@@ 99
異形@@ 99
皮面 99
益生菌 99
直出 99
石英手錶 99
禁@@ 99
福斯 99
秒殺 99
篩@@ 99
精品包包 99
自帶@@ 99
舒壓@@ 99
蒼@@ 99
蕾哈娜 99
螃蟹@@ 99
裸妝@@ 99
谷 99
連體衣@@ 99
部屋 99
鉑金@@ 99
限定版@@ 99
隨意@@ 99
雙用@@ 99
青 99
飽@@ 99
高街@@ 99
魯 99
ash@@ 98
bur@@ 98
camry 98
dj@@ 98
fin@@ 98
fm@@ 98
gm@@ 98
gps@@ 98
hy 98
james 98
life@@ 98
ment 98
miss@@ 98
nu 98
rose@@ 98
tf@@ 98
ub 98
vc 98
v轉 98
wei 98
ア@@ 98
不織布@@ 98
世紀@@ 98
低幫鞋 98
側翻皮套 98
偶像@@ 98
內外@@ 98
兩款 98
冥@@ 98
初生@@ 98
刷具@@ 98
劃痕@@ 98
可拆式@@ 98
啟動@@ 98
單反@@ 98
圓領t恤@@ 98
堡 98
外銷@@ 98
多款可選 98
大包包 98
大衣外套 98
字母logo@@ 98
室內 98
宴@@ 98
家族@@ 98
富 98
工具箱 98
巴黎 98
年新款 98
幾何 98
戰士@@ 98
扭結@@ 98
抓絨@@ 98
抹布 98
播放器 98
操@@ 98
教材 98
新色 98
日本迪士尼 98
明星 98
春秋 98
時尚韓版@@ 98
柚@@ 98
棉布@@ 98
氨基酸@@ 98
沙發邊幾@@ 98
海馬@@ 98
滑 98
爭@@ 98
特惠價 98
玻璃膜 98
瑪麗@@ 98
瓦 98
生活百貨 98
番@@ 98
百 98
皮藝@@ 98
相 98
秘密@@ 98
空調被@@ 98
空運@@ 98
童車@@ 98
简约@@ 98
管道@@ 98
網美@@ 98
美人魚 98
胸 98
臨@@ 98
自然 98
菌 98
萌 98
蔥@@ 98
街舞@@ 98
衛褲@@ 98
護具@@ 98
豐 98
辦@@ 98
透氣網面@@ 98
運動慢跑鞋 98
運動背心 98
野 98
銀扣 98
長袖洋裝 98
間約@@ 98
防掉@@ 98
雙肩背包@@ 98
雙重@@ 98
鞋墊@@ 98
韓國氣質@@ 98
韓國空運 98
韓國進口 98
頭套@@ 98
高雅@@ 98
魔方@@ 98
黃光 98
basic 97
con 97
gen@@ 97
hx 97
lovelive 97
may 97
m反光@@ 97
outlet 97
racing 97
snoopy@@ 97
steam 97
tod 97
中款 97
之 97
人字@@ 97
余@@ 97
便捷@@ 97
創意客廳@@ 97
勤@@ 97
卡其色@@ 97
印花短t 97
原液@@ 97
同人 97
墨水@@ 97
墻貼 97
夏季新品@@ 97
夾腳拖鞋 97
好市多代購 97
好看 97
學生書包 97
宏 97
客廳創意@@ 97
小推車@@ 97
居家服 97
岸@@ 97
工作桌 97
幅@@ 97
平角褲@@ 97
扣環@@ 97
技術 97
拍照道具 97
掌上@@ 97
揹@@ 97
撕@@ 97
新疆@@ 97
杉@@ 97
板橋@@ 97
毯子 97
沙灘拖鞋 97
海豚@@ 97
炒鍋@@ 97
無糖@@ 97
煞車皮 97
番茄@@ 97
登月@@ 97
百搭休閑@@ 97
短袖套裝@@ 97
示@@ 97
紅綠@@ 97
紅藍@@ 97
羊羔毛@@ 97
羽球@@ 97
老板@@ 97
色眼影盤 97
茉莉 97
葵@@ 97
蓮蓬頭 97
薇 97
藥 97
虹@@ 97
跟 97
踢@@ 97
送禮首選 97
遮瑕 97
門墊@@ 97
閃電 97
開發@@ 97
防曬外套 97
除濕機 97
電子錶 97
霧 97
韓國簡約@@ 97
預購商品 97
頭枕@@ 97
風鈴@@ 97
飛行員@@ 97
飛鏢@@ 97
馬克@@ 97
駝色 97
黑貓@@ 97
cool@@ 96
ew 96
fi 96
intel 96
jack 96
junior 96
let 96
net@@ 96
ob 96
oo 96
porsche 96
vit@@ 96
yo 96
一字扣@@ 96
一級@@ 96
一般小說 96
不掉色@@ 96
中長裙 96
主 96
人體工學@@ 96
休閒百搭 96
体@@ 96
余文樂@@ 96
保濕補水@@ 96
偶像學園@@ 96
元氣@@ 96
充電式 96
克斯 96
全包邊@@ 96
全系列 96
化妝品 96
半罩 96
原裝進口@@ 96
名媛氣質@@ 96
墻 96
夾板@@ 96
女王 96
奶油底 96
家的@@ 96
宿舍學生@@ 96
專家 96
小心機@@ 96
心率@@ 96
快充線 96
快遞@@ 96
情趣睡衣 96
接線@@ 96
敏感@@ 96
旋風@@ 96
時尚女包 96
時尚手提包 96
曲線@@ 96
東大門 96
松糕@@ 96
正版現貨 96
水上@@ 96
沁@@ 96
沉香@@ 96
泡澡@@ 96
泡麵 96
波士頓@@ 96
消光@@ 96
溝@@ 96
現貨新品 96
球員卡 96
生態@@ 96
男士香水 96
男寶寶@@ 96
直立式@@ 96
直筒褲@@ 96
相容@@ 96
真標@@ 96
祭@@ 96
禮盒裝@@ 96
空調 96
竹節棉@@ 96
簡單 96
細 96
纯棉@@ 96
羊 96
美人 96
考試@@ 96
能量 96
臺盆@@ 96
芒果@@ 96
茂@@ 96
萬斯 96
葡萄酒@@ 96
蛇 96
蜘蛛@@ 96
設計師 96
請勿下標 96
走秀款@@ 96
跑車 96
連帽上衣 96
運動休閒鞋@@ 96
道教@@ 96
釣 96
雅詩蘭黛@@ 96
雯@@ 96
鞋套@@ 96
韓國帶回 96
項圈@@ 96
食堂@@ 96
bw 95
christian 95
diva 95
goo 95
idolish 95
jk 95
len@@ 95
model 95
natural 95
nk 95
oversize@@ 95
tv@@ 95
vi 95
xsmax 95
zu@@ 95
一鍵@@ 95
不同@@ 95
乘@@ 95
休閑褲 95
休閒慢跑鞋 95
保證 95
全鋼@@ 95
兩件式 95
兼@@ 95
出品 95
初回@@ 95
副廠 95
功能正常 95
加肥加大@@ 95
勵志@@ 95
千鳥格@@ 95
午休床@@ 95
印刷 95
可穿@@ 95
可調整@@ 95
合作@@ 95
吊籃@@ 95
商務女包 95
四代@@ 95
圓珠@@ 95
坂@@ 95
大阪@@ 95
奏@@ 95
套罩@@ 95
實拍現貨 95
居家生活@@ 95
屏風 95
帶蓋 95
平衡車@@ 95
年後 95
床頭燈 95
打印@@ 95
操作@@ 95
收縮@@ 95
新品特價台灣熱售@@ 95
方形 95
星辰@@ 95
書桌書架組合@@ 95
杯墊@@ 95
果汁機 95
桃紅色@@ 95
棉布 95
棉花@@ 95
棒棒糖 95
武器 95
沙拉@@ 95
治 95
泉 95
浴簾@@ 95
海鮮@@ 95
溫暖@@ 95
澄@@ 95
炫酷@@ 95
烤漆 95
現貨熱銷@@ 95
白證 95
瞬間@@ 95
石英表 95
碗架@@ 95
種植@@ 95
筆記本電腦桌@@ 95
粘貼@@ 95
紅棗@@ 95
練字@@ 95
義 95
胃@@ 95
背膠@@ 95
膝蓋@@ 95
自慰 95
茶水柜@@ 95
落 95
薯條@@ 95
藍牙喇叭 95
訂做 95
超大容量 95
超輕量 95
達爾 95
鋁框@@ 95
鎖頭@@ 95
開衫 95
閨蜜裝@@ 95
鞭@@ 95
韓國ins@@ 95
韓國連線@@ 95
餐廳吊燈@@ 95
魏@@ 95
鼠標@@ 95
casio@@ 94
celine@@ 94
champion@@ 94
cn 94
den 94
der 94
dhc 94
flight 94
ln 94
lu 94
may@@ 94
nm 94
ow 94
zip 94
三隻@@ 94
事務@@ 94
休閑時尚@@ 94
優質 94
兩面@@ 94
八卦@@ 94
凱 94
動畫 94
包裝袋@@ 94
卷發@@ 94
可旋轉@@ 94
回 94
域@@ 94
大象 94
太郎 94
女表 94
好貨下殺 94
姓名@@ 94
嫩白@@ 94
客廳裝飾畫@@ 94
寫字桌 94
已預訂 94
布置 94
帽衫@@ 94
往@@ 94
心經@@ 94
快拆@@ 94
手縫@@ 94
打氣@@ 94
拋棄式@@ 94
掛包@@ 94
控油 94
教學 94
整套 94
新款熱銷 94
日本直送 94
晴雨兩用@@ 94
松鼠@@ 94
梳子@@ 94
極細@@ 94
歡迎詢問 94
毛巾架 94
毯子@@ 94
沙灘 94
泳褲 94
涼爽@@ 94
深度@@ 94
滴塑@@ 94
瀝水架 94
火箭@@ 94
無線耳機 94
煙灰缸@@ 94
爆乳@@ 94
牛皮壓花@@ 94
痘@@ 94
百摺@@ 94
簡約現代經濟型@@ 94
米奇米妮 94
籽 94
美少女@@ 94
老年@@ 94
耶誕@@ 94
色系 94
華萊士@@ 94
落地置物架@@ 94
蓬鬆@@ 94
蠟筆 94
行銷@@ 94
言 94
許願@@ 94
謎@@ 94
護髮 94
貝殼 94
貝親 94
超取@@ 94
路跑@@ 94
踏墊 94
近視眼鏡@@ 94
週年紀念@@ 94
配方@@ 94
醇@@ 94
采用@@ 94
鐘錶 94
預購中 94
願@@ 94
香吉士 94
鴨 94
黑底@@ 94
des 93
ele@@ 93
fendi芬迪@@ 93
fgo 93
girl@@ 93
head 93
hk 93
john 93
jtc 93
ms@@ 93
m號@@ 93
os@@ 93
ox 93
pu 93
tods@@ 93
trainer 93
wish 93
三重@@ 93
上衣服 93
书@@ 93
件式@@ 93
便利貼 93
全新盒裝 93
冒險@@ 93
冠 93
加大尺碼@@ 93
務@@ 93
卧室@@ 93
口罩套 93
可水洗 93
商用 93
噴劑 93
圍兜兜 93
圓球@@ 93
圓筒@@ 93
壹腳蹬@@ 93
大口袋@@ 93
女友@@ 93
娃娃領@@ 93
小包包女 93
小店@@ 93
小時出貨 93
後視鏡 93
情趣精品@@ 93
抗敏@@ 93
指甲剪 93
捲線器 93
探索@@ 93
揹巾 93
攝@@ 93
新加坡@@ 93
新款熱賣 93
日文 93
日歷@@ 93
早春新款@@ 93
洗面奶@@ 93
淋@@ 93
清透@@ 93
湖水綠 93
烏龜@@ 93
燒烤爐@@ 93
爺@@ 93
玩家 93
画@@ 93
百搭韓版@@ 93
盆帽@@ 93
盔@@ 93
相容 93
看 93
硬幣@@ 93
碎花 93
碧璽@@ 93
粉底液@@ 93
糧@@ 93
萱@@ 93
補 93
護腕@@ 93
輔@@ 93
這樣@@ 93
銀河@@ 93
鋼琴 93
雪紡衫 93
電容@@ 93
鞋面@@ 93
髮帶@@ 93
鱷魚 93
黑白色@@ 93
art@@ 92
black@@ 92
dyson 92
gf 92
il@@ 92
jc 92
kk@@ 92
kr 92
lte 92
mcqueen 92
mk手錶@@ 92
oc 92
room 92
school 92
too 92
中古 92
中小學生@@ 92
中島@@ 92
中心@@ 92
伏@@ 92
休閒上衣 92
保溫袋 92
健身器材 92
北歐大理石@@ 92
取 92
吋盆 92
同人本 92
單人沙發@@ 92
噗@@ 92
園林@@ 92
壓花 92
女帝 92
學習桌 92
家用成人@@ 92
寬松韓版@@ 92
廚房衛生間@@ 92
廠商直送 92
彈簧 92
性感百搭@@ 92
手機保護殼 92
披風@@ 92
抽屜 92
按扣@@ 92
挑戰@@ 92
掛簾@@ 92
支裝 92
文創 92
斗 92
新品热销 92
春季 92
景品@@ 92
村 92
模組 92
正規@@ 92
沛納海 92
淡斑@@ 92
游泳衣 92
漢 92
潑墨@@ 92
灯@@ 92
煥@@ 92
男用 92
男表 92
白藍@@ 92
監測@@ 92
砧板@@ 92
破 92
空中@@ 92
空軍@@ 92
精品代購@@ 92
紗窗@@ 92
紫水晶 92
聲寶 92
脖@@ 92
舒適透氣 92
芭蕾@@ 92
英文版 92
菱格 92
萱 92
蘇打@@ 92
蘭芝 92
褶@@ 92
記錄@@ 92
設@@ 92
請勿@@ 92
貴賓@@ 92
走秀@@ 92
超人氣@@ 92
跟鞋 92
金標@@ 92
開運 92
防靜電@@ 92
限時特價@@ 92
雪紡洋裝 92
飾條 92
高山@@ 92
高彈力@@ 92
basket 91
bor@@ 91
bre@@ 91
dn 91
eva 91
fl@@ 91
fp 91
gucci新款@@ 91
hitachi 91
hr@@ 91
lativ 91
lm 91
リ@@ 91
三頭@@ 91
丹 91
亞洲@@ 91
人的@@ 91
佳能@@ 91
儀器 91
內增高 91
出租@@ 91
包入 91
可動 91
吊椅@@ 91
同人誌 91
名器 91
吧椅@@ 91
外置@@ 91
多多 91
多層 91
夢幻 91
字母刺繡@@ 91
宇 91
安娜@@ 91
宽松@@ 91
實驗@@ 91
小書架@@ 91
快 91
態 91
我是@@ 91
掛袋 91
收納架子@@ 91
文件夾 91
時尚女士@@ 91
書柜 91
板式@@ 91
枕頭套 91
核心@@ 91
榮耀 91
樂活@@ 91
機全自動@@ 91
機多功能@@ 91
每日@@ 91
清洗劑@@ 91
渡假@@ 91
渣@@ 91
灑@@ 91
煥膚@@ 91
爬服 91
爸@@ 91
牛仔布@@ 91
直條@@ 91
第五@@ 91
筆芯 91
筷 91
置 91
羽 91
脈@@ 91
自動鉛筆 91
菊 91
華萊士 91
蝙蝠袖@@ 91
衣著@@ 91
袖口@@ 91
認知@@ 91
貔貅 91
輔食@@ 91
遊 91
金毛@@ 91
鋼帶 91
鑑@@ 91
長方@@ 91
開心@@ 91
防彈@@ 91
防曬霜@@ 91
防水包 91
限時特惠 91
陽 91
隨手@@ 91
隱藏@@ 91
雙子星@@ 91
雪糕@@ 91
電磁@@ 91
韓范@@ 91
餘@@ 91
馬車@@ 91
鳳凰@@ 91
黑銀 91
黑頭@@ 91
點煙器@@ 91
adi@@ 90
cas@@ 90
cnc@@ 90
english 90
lauder 90
ll@@ 90
lv老花@@ 90
mah@@ 90
mlx 90
nike耐克 90
oh@@ 90
ophidia 90
out@@ 90
psv 90
spade 90
vr@@ 90
上的@@ 90
丝@@ 90
二手商品 90
亦@@ 90
代餐@@ 90
伊布 90
低 90
保冷袋 90
偏光太陽眼鏡 90
傳動@@ 90
儲物盒 90
兒童卡通@@ 90
全屏@@ 90
全自動 90
兩件組 90
公文@@ 90
出遊@@ 90
刻度@@ 90
創 90
包裝盒@@ 90
半透明@@ 90
可定制@@ 90
呆@@ 90
商店@@ 90
啦@@ 90
四代 90
多肉 90
夾棉@@ 90
女襪 90
婉@@ 90
婚紗禮服@@ 90
客厅@@ 90
寬松 90
寬鬆短袖 90
小ck@@ 90
屁股@@ 90
廚房用品 90
影片 90
微景觀@@ 90
拍拍@@ 90
擦 90
新包裝 90
景 90
最高@@ 90
束 90
松緊腰@@ 90
柒@@ 90
棋 90
歐式創意@@ 90
毛衣女@@ 90
求婚@@ 90
汽車用品@@ 90
液晶電視 90
熙@@ 90
牛仔長褲@@ 90
牧田 90
猴子@@ 90
畫冊 90
短靴女@@ 90
私人@@ 90
穿戴@@ 90
純白 90
綁繩@@ 90
美國隊長@@ 90
羽絨服 90
耐磨防滑@@ 90
胡桃@@ 90
臺布@@ 90
花香 90
荷花@@ 90
蓓@@ 90
衛衣女@@ 90
被子 90
西洋@@ 90
購物車@@ 90
走秀款 90
車業 90
車頂@@ 90
邊幾 90
釣魚竿@@ 90
防水防油@@ 90
防紫外線 90
雨靴 90
電視櫃 90
霧化@@ 90
霸王@@ 90
預定@@ 90
馬蹄@@ 90
高密度@@ 90
高彈@@ 90
高爾夫 90
bn 89
cc霜 89
cdg 89
fossil 89
gi 89
gucci皮帶 89
ice@@ 89
kar@@ 89
missha 89
pri@@ 89
silver 89
tor@@ 89
tote 89
turbo 89
van@@ 89
一年@@ 89
亞曼尼@@ 89
人類@@ 89
伊 89
休閒長褲@@ 89
便攜折疊@@ 89
充氣 89
全新coach 89
前置@@ 89
十字紋牛皮@@ 89
单@@ 89
友 89
口腔@@ 89
古巴@@ 89
唇彩 89
單品@@ 89
喵喵@@ 89
四合一@@ 89
地面@@ 89
塗@@ 89
大air 89
大方 89
太 89
套装 89
好貨 89
妞 89
孕婦裝@@ 89
宮崎駿 89
家居家具傢俱用品 89
峰 89
干 89
得力@@ 89
手掌@@ 89
披風 89
挺版@@ 89
掛表@@ 89
搖籃@@ 89
文青 89
新品熱銷 89
日常 89
日本原裝進口@@ 89
智慧 89
書桌椅@@ 89
染髮@@ 89
柔順@@ 89
植絨@@ 89
機芯@@ 89
檯 89
正品現貨@@ 89
水機 89
水鬼@@ 89
活 89
火烈鳥@@ 89
火辣@@ 89
火鍋 89
特價促銷 89
玫瑰花 89
班服 89
現貨下殺 89
理療@@ 89
瑜伽墊@@ 89
男生t恤 89
當日出貨 89
發箍@@ 89
監視器 89
石英腕錶 89
砧板 89
立領 89
第三@@ 89
統一@@ 89
芙 89
菜刀@@ 89
菲拉格慕@@ 89
萬年@@ 89
蔓越莓@@ 89
蚊香@@ 89
衝擊@@ 89
衣物 89
見 89
讚 89
貝兒@@ 89
走 89
軟膠 89
輝 89
運動跑步鞋 89
醉@@ 89
醫用@@ 89
銀鍊 89
錯@@ 89
長袖外套 89
防摔手機殼 89
雙排@@ 89
靠背 89
鞋帶@@ 89
頭巾 89
顧@@ 89
顯瘦百搭@@ 89
飲水機 89
香味 89
ax@@ 88
ay@@ 88
bl漫畫 88
earth 88
lenovo 88
lh 88
london 88
long 88
lv男士@@ 88
make 88
mks 88
night 88
out 88
par@@ 88
ser@@ 88
ux 88
一生@@ 88
七分褲@@ 88
以上 88
全新品@@ 88
前衛@@ 88
加油@@ 88
占@@ 88
可坐躺@@ 88
吻@@ 88
咖啡壺 88
商務包 88
喬巴@@ 88
單桿@@ 88
單雙@@ 88
嘻哈 88
壓克力吊飾 88
夜燈@@ 88
女士手錶 88
家用創意@@ 88
家用學生@@ 88
密封罐@@ 88
寶藍@@ 88
帝 88
干花@@ 88
平光鏡@@ 88
影音大批發 88
忍@@ 88
情侶手錶 88
所有@@ 88
手辦模型 88
技@@ 88
抽獎@@ 88
掛布@@ 88
整箱@@ 88
斯特@@ 88
日本正版@@ 88
日產 88
日用@@ 88
木馬@@ 88
束腳褲 88
栗@@ 88
毛怪 88
汪@@ 88
洗發水@@ 88
滲透@@ 88
滿天星 88
無油@@ 88
燃脂@@ 88
現金@@ 88
瑞典@@ 88
生活館@@ 88
界 88
穎@@ 88
立牌@@ 88
竹編@@ 88
篷@@ 88
置物袋 88
義式@@ 88
聰明@@ 88
芊@@ 88
茗@@ 88
莊 88
藍寶石@@ 88
認@@ 88
貨車@@ 88
賈@@ 88
辦公 88
透氣鞋 88
通用型 88
遇見@@ 88
鋪子 88
閨蜜 88
雷朋@@ 88
露肩上衣 88
領巾 88
頸鍊 88
飲料 88
駕@@ 88
american 87
ang 87
burch@@ 87
chloe@@ 87
dan@@ 87
god 87
guess 87
hydro 87
hyper@@ 87
iphone手機殼 87
iris 87
jf 87
kai 87
korea@@ 87
next 87
nylon 87
oshkosh 87
rog 87
sharp 87
ste@@ 87
touch 87
t型@@ 87
ysl聖羅蘭@@ 87
イ@@ 87
不倒翁@@ 87
不挑款 87
之旅 87
交叉綁帶@@ 87
今日@@ 87
仙女風@@ 87
代購adidas 87
仿真花@@ 87
休息@@ 87
保溫 87
倍 87
偶@@ 87
偷@@ 87
光碟@@ 87
公園@@ 87
冷暖@@ 87
出租 87
北歐ins風@@ 87
北歐現代@@ 87
十足 87
半袖上衣@@ 87
原液 87
去汙@@ 87
古曼@@ 87
呢@@ 87
單孔@@ 87
嘟嘟@@ 87
嚴@@ 87
圖片@@ 87
大廳@@ 87
室內拖鞋 87
小背包 87
幼兒 87
床單被套@@ 87
庭 87
手機座 87
拿鐵 87
掛式 87
斐樂@@ 87
方格@@ 87
方框@@ 87
書坊 87
月餅@@ 87
有機棉@@ 87
束帶 87
桃園 87
桃紅色 87
概念@@ 87
歐貨@@ 87
歷史@@ 87
永恆@@ 87
流浪包 87
添加@@ 87
溼@@ 87
漆皮 87
潤 87
現貨供應中 87
現貨熱賣 87
發票 87
百貨鋪 87
睡墊 87
箱子 87
簡約氣質@@ 87
米白色 87
粉彩@@ 87
緬甸玉@@ 87
聲波@@ 87
臥室家用@@ 87
臺上盆@@ 87
舖棉@@ 87
茲 87
菠蘿@@ 87
菲拉格慕 87
藤椅@@ 87
衣服架子@@ 87
補丁@@ 87
襪子鞋 87
角幾 87
誰@@ 87
警示燈 87
護手@@ 87
護頸枕@@ 87
超厚@@ 87
軟管 87
運動t恤 87
酸奶@@ 87
鋼化 87
鑲鑽 87
長版外套 87
院 87
韓版復古@@ 87
音頻@@ 87
題 87
驗@@ 87
鷹 87
麥當勞 87
黑暗@@ 87
a貨 86
dragon 86
du 86
dw手錶@@ 86
eb 86
flex 86
gs@@ 86
gt@@ 86
ite@@ 86
mickey 86
nac@@ 86
nars 86
panerai 86
power@@ 86
sea 86
ur 86
women 86
xy 86
丘@@ 86
人像@@ 86
代步車@@ 86
保護貼@@ 86
兒童學生@@ 86
入門 86
內襯@@ 86
全網@@ 86
初秋@@ 86
刷街@@ 86
匠 86
去角質 86
同學@@ 86
名偵探柯南 86
唇彩@@ 86
單排扣@@ 86
國旗 86
奇哥 86
女寶 86
好貨促銷 86
小車@@ 86
工具組 86
巴斯光年 86
巷@@ 86
平板電腦 86
年度@@ 86
幼犬@@ 86
廟@@ 86
廠商@@ 86
弧@@ 86
復古鞋 86
情人節禮物@@ 86
戈@@ 86
手沖@@ 86
扣頭@@ 86
持久留香@@ 86
散熱器 86
新款歐美@@ 86
春夏季新款@@ 86
晾衣架 86
未開刃 86
樹枝@@ 86
水手@@ 86
水槍@@ 86
沙龍@@ 86
海軍風@@ 86
深灰@@ 86
湯匙@@ 86
潮吹@@ 86
玻@@ 86
玻璃貼@@ 86
登機@@ 86
白板@@ 86
眉 86
眼罩@@ 86
祕@@ 86
移門@@ 86
端子 86
簡易衣柜@@ 86
綢@@ 86
緻@@ 86
縫紉@@ 86
美國正品@@ 86
美國進口@@ 86
耳塞 86
膠底 86
自在@@ 86
艾米家 86
荔枝@@ 86
萬斯@@ 86
蜂窩@@ 86
螺絲刀@@ 86
衛 86
褲子男@@ 86
親筆簽名@@ 86
記事本 86
讀 86
豎款@@ 86
走廊過道@@ 86
路跑 86
轉接線 86
透亮@@ 86
連衣@@ 86
運動休閑鞋 86
重機@@ 86
鍛@@ 86
防水防汗@@ 86
隨身瓶 86
隱藏式@@ 86
靠背椅 86
面霜@@ 86
頁 86
高爾夫球@@ 86
魚子@@ 86
鹹@@ 86
ari@@ 85
bosch 85
city@@ 85
eau 85
ers 85
fen@@ 85
ferrari 85
kan@@ 85
key 85
ky 85
ling 85
ob@@ 85
rihanna 85
tissot 85
tommy@@ 85
vin@@ 85
二色 85
人工@@ 85
件組@@ 85
休閒t恤 85
休閒椅 85
修身百搭@@ 85
名牌包包 85
吸濕排汗 85
品味@@ 85
囉 85
圍兜@@ 85
圓凳@@ 85
垂釣@@ 85
壯@@ 85
夯@@ 85
好穿 85
字紋 85
完美 85
小白鞋女@@ 85
庫洛魔法使 85
彼@@ 85
情侶拖鞋 85
手拎@@ 85
手機殼蘋果 85
手機袋 85
手機電腦@@ 85
折免運 85
抽屜櫃 85
掛袋@@ 85
教具 85
整組 85
數學 85
文學 85
斜肩包 85
日本原裝進口 85
日立@@ 85
星辰 85
智力@@ 85
東 85
果盤@@ 85
柔膚@@ 85
桃心@@ 85
桌椅組合 85
棉質上衣 85
歐美復古@@ 85
歐風@@ 85
水泵@@ 85
洲@@ 85
活性碳@@ 85
涼感 85
混色@@ 85
炮 85
燜燒@@ 85
牆貼@@ 85
玻璃瓶 85
珂@@ 85
現場@@ 85
男真皮@@ 85
療癒 85
發泡@@ 85
白銀 85
百褶裙@@ 85
皇后@@ 85
眼線筆 85
票卡夾 85
穿鞋凳@@ 85
粉藍 85
綿羊@@ 85
美女 85
美甲店@@ 85
耐熱玻璃@@ 85
耶@@ 85
聯合@@ 85
自慰器@@ 85
自拍桿@@ 85
艦@@ 85
花樣@@ 85
茶花@@ 85
菜板@@ 85
菜瓜布 85
詳@@ 85
貓抓@@ 85
迴力車 85
送一@@ 85
防塵套 85
阿曼尼@@ 85
附原廠@@ 85
除 85
隔層@@ 85
零碼出清 85
韓版可愛@@ 85
韓貨 85
香港迪士尼@@ 85
bmw@@ 84
cam@@ 84
dv@@ 84
eos 84
fly@@ 84
issey 84
lam@@ 84
mrl 84
rock 84
subaru 84
tan@@ 84
tree 84
wellington 84
wo@@ 84
キ@@ 84
一番賞@@ 84
下水道@@ 84
中幫@@ 84
保險箱@@ 84
全新正版@@ 84
兩件套裝 84
冷氣濾網 84
冷水壺 84
分析@@ 84
化學@@ 84
北欧@@ 84
可到付 84
可調節 84
吸頂@@ 84
四人@@ 84
回力@@ 84
大小號@@ 84
大理石 84
娟@@ 84
學生書包@@ 84
家用經濟型@@ 84
容量@@ 84
小ck 84
小時快速出貨 84
少 84
局 84
後跟@@ 84
快手@@ 84
戀人 84
戴 84
手提單肩包 84
手提女包 84
手辦模型@@ 84
扶@@ 84
抖音 84
折扣卷 84
收口@@ 84
教室 84
新款lv@@ 84
无@@ 84
木柄@@ 84
柔霧@@ 84
柯基@@ 84
樂購@@ 84
歐美街頭@@ 84
段 84
泰國佛牌 84
流星@@ 84
淚@@ 84
瀏海@@ 84
炒鍋 84
煎鍋@@ 84
男生短袖 84
畢業禮物 84
皮衣 84
真皮女包 84
秋冬季新款@@ 84
竹制@@ 84
簍@@ 84
簡約復古@@ 84
籠子@@ 84
紅黑@@ 84
結婚 84
網拍@@ 84
背心式@@ 84
背部@@ 84
脂 84
腕帶@@ 84
自己 84
自行@@ 84
落地多層@@ 84
著用 84
話 84
警察@@ 84
護目鏡 84
護髮素 84
貢@@ 84
超低價@@ 84
超長待機@@ 84
超高跟@@ 84
車載 84
通風@@ 84
進 84
遠射@@ 84
邊夾@@ 84
酒神包 84
金鍊 84
鋯石 84
鋼鐵@@ 84
隔板 84
風琴@@ 84
飼料@@ 84
香味@@ 84
齒輪@@ 84
armani手錶 83
bar 83
bz 83
charms 83
dor@@ 83
dxf 83
fr@@ 83
fy@@ 83
gn 83
gy 83
hang 83
jk@@ 83
kai@@ 83
kc 83
lily 83
link 83
lv長夾 83
mt@@ 83
ng 83
plus手機殼 83
sugar 83
toy@@ 83
t恤男@@ 83
vs@@ 83
vt 83
vuitton路易威登@@ 83
wi 83
カ@@ 83
三民 83
上下鋪@@ 83
下水@@ 83
交換@@ 83
代籃球鞋 83
代言@@ 83
休閒拖鞋 83
休閒運動套裝 83
但@@ 83
低幫鞋@@ 83
保證真品 83
信號@@ 83
修護 83
們@@ 83
候@@ 83
兒童益智@@ 83
兔耳朵@@ 83
兩款@@ 83
刃 83
刮胡刀@@ 83
包女@@ 83
北歐式@@ 83
匙@@ 83
吊頂@@ 83
同名@@ 83
唇 83
圓柱@@ 83
圖鑑 83
墨 83
大人 83
奇哥@@ 83
女神必備 83
嫁接@@ 83
害@@ 83
寬版 83
小提琴@@ 83
小林@@ 83
小皮鞋@@ 83
屁屁@@ 83
居家生活 83
工作 83
巴寶莉burberry@@ 83
廳@@ 83
弱@@ 83
彌月@@ 83
從零開始的異世界生活 83
拇指@@ 83
搭 83
擴展@@ 83
教你@@ 83
新貨熱賣 83
昕@@ 83
景觀@@ 83
曲奇@@ 83
木質 83
架家用@@ 83
格子襯衫@@ 83
欣 83
沙發墊 83
海苔 83
涂@@ 83
溫度計 83
漂亮 83
澳洲代購 83
灣@@ 83
爵@@ 83
父@@ 83
牛奶 83
現貨正品 83
男士手錶@@ 83
畫眉@@ 83
直飲@@ 83
磨牙@@ 83
窗臺@@ 83
第@@ 83
簿 83
米白色@@ 83
紅石榴@@ 83
純棉短袖t恤 83
網紅款 83
羊絨圍巾 83
美少女戰士@@ 83
背心洋裝 83
船襪 83
蒙 83
薄荷 83
襯 83
論 83
足療@@ 83
足部@@ 83
造型上衣 83
進口牛皮 83
適用於 83
遮陽 83
都是@@ 83
金屬扣@@ 83
銅 83
開岔@@ 83
限量款@@ 83
雙人床 83
雙翹@@ 83
雪紡襯衫 83
雷朋 83
電源線 83
非洲@@ 83
面盤 83
靶@@ 83
鞋底 83
頭枕 83
頸部@@ 83
馬拉松@@ 83
ann 82
ate 82
ban 82
bio 82
birkin 82
falcon 82
fujifilm 82
golf@@ 82
ita 82
laneige 82
like 82
nike拖鞋 82
ow@@ 82
pandora@@ 82
paris 82
ram 82
soul 82
vuitton路易威登 82
wp 82
xxxl 82
ル@@ 82
一腳蹬 82
三件 82
五代 82
人物 82
作品@@ 82
保健 82
全掌氣墊 82
全集 82
創意家用@@ 82
化妝箱@@ 82
同步 82
含運@@ 82
喜慶@@ 82
單肩包斜挎包 82
四面@@ 82
大功率 82
大型 82
大量@@ 82
天線 82
奔馳@@ 82
好朋友 82
妹妹@@ 82
學生兒童@@ 82
寬楦 82
寶藍色 82
小戶型臥室@@ 82
工裝褲 82
弟@@ 82
弧形@@ 82
影視@@ 82
很仙的@@ 82
急速@@ 82
我的英雄學院 82
戰神 82
手繩 82
打擊@@ 82
拌@@ 82
挖寶二手片 82
擋 82
效果 82
日期 82
日本原裝@@ 82
日雜@@ 82
日韓版@@ 82
昌 82
智能 82
束口褲 82
束縛@@ 82
椅墊 82
椅子靠背@@ 82
椅背@@ 82
榮 82
槓@@ 82
標誌 82
機場@@ 82
橡皮擦 82
歐米茄@@ 82
沙發套 82
洗髮露 82
淡香水@@ 82
深 82
清倉價 82
潮男 82
無線藍牙耳機 82
焦@@ 82
照明燈 82
犬貓@@ 82
現代簡約創意@@ 82
男士皮帶@@ 82
男生女生@@ 82
發售 82
益智玩具@@ 82
秦@@ 82
米床@@ 82
米老鼠@@ 82
紅黑 82
絲帶@@ 82
經典雙g@@ 82
緞@@ 82
編織鞋 82
練 82
繁@@ 82
置物籃 82
翻玩@@ 82
背景 82
芝麻街@@ 82
英式@@ 82
荷葉袖@@ 82
蔓@@ 82
蕾絲洋裝 82
藏 82
處理 82
裂 82
裙式@@ 82
裝潢@@ 82
裝飾擺件@@ 82
解析 82
詞@@ 82
超柔軟@@ 82
身高@@ 82
輪滑鞋@@ 82
運動耳機 82
過家家@@ 82
鄉村風@@ 82
野餐墊 82
長型@@ 82
門後@@ 82
開學@@ 82
陣@@ 82
隆 82
雙輪@@ 82
電機@@ 82
震 82
面罩 82
韓妞必備@@ 82
飛機杯@@ 82
馬油@@ 82
體育@@ 82
高檔 82
魅惑@@ 82
齊 82
齊全 82
bb霜@@ 81
bon 81
bwsr 81
chan@@ 81
chicco 81
crew 81
drive 81
eye 81
fre@@ 81
future 81
fz 81
hademu 81
io@@ 81
ji 81
jj@@ 81
jm 81
kw 81
lady@@ 81
land 81
live@@ 81
lun@@ 81
marmont@@ 81
oh 81
om 81
pf 81
pocket 81
real 81
ron@@ 81
show 81
squishy 81
s號@@ 81
u盤 81
一字領上衣 81
七夕@@ 81
三明治@@ 81
三眼計時腕錶 81
中性筆 81
事業@@ 81
五色 81
仙 81
內刷毛 81
內衣女@@ 81
兩層@@ 81
分離式@@ 81
到貨@@ 81
加長 81
勃@@ 81
包包女@@ 81
包屁衣@@ 81
包臀裙@@ 81
化妝箱 81
印字@@ 81
原礦@@ 81
可定制 81
史奴比 81
命運@@ 81
国@@ 81
國語@@ 81
地漏@@ 81
塵 81
墨綠 81
壁挂@@ 81
大氣 81
契爾氏@@ 81
安瓶@@ 81
宜 81
室內家用@@ 81
家居客廳@@ 81
小美@@ 81
小西裝@@ 81
少年 81
平口褲 81
年貨@@ 81
床笠@@ 81
度旋轉@@ 81
廊 81
微星 81
忍者 81
快乾@@ 81
怪 81
情人 81
情侶對錶 81
懶人 81
手抓@@ 81
拆裝@@ 81
掛布 81
控制 81
描@@ 81
搓@@ 81
收納神器 81
新品折扣 81
日系復古@@ 81
曜@@ 81
椅子家用@@ 81
標簽@@ 81
機家用小型@@ 81
正版授權@@ 81
殘@@ 81
沖泡@@ 81
海洋 81
滾輪 81
滿鋪@@ 81
潤髮乳 81
無聲@@ 81
燙金 81
現貨nike 81
用具@@ 81
田宮 81
瘦 81
百搭顯瘦@@ 81
皇 81
睡 81
短款錢包 81
符 81
紐西蘭@@ 81
紫羅蘭@@ 81
細帶@@ 81
經絡@@ 81
羅紋@@ 81
美國帶回 81
羽毛球@@ 81
背蓋@@ 81
臥室小戶型@@ 81
良 81
茉@@ 81
薄荷綠 81
行車紀錄器 81
衣帽架落地@@ 81
請勿下單 81
護腕 81
讓你@@ 81
貓爬架@@ 81
貼鑽@@ 81
赤足@@ 81
輕量化@@ 81
透光不透明@@ 81
透明玻璃@@ 81
逗@@ 81
速食@@ 81
進階@@ 81
遮陽防曬@@ 81
避震器 81
銀樓 81
鏡框 81
鐵藝 81
長版t 81
防丟@@ 81
防護 81
雙孔@@ 81
雙肩後背包 81
雷射 81
非滿版 81
韓製 81
首選@@ 81
麥當勞@@ 81
黏貼@@ 81
黑檀木@@ 81
黑白條紋@@ 81
TM 80
ant@@ 80
au 80
a級@@ 80
dolce 80
duffy 80
eyes 80
gl@@ 80
gucci女款@@ 80
hf 80
hot@@ 80
ins北歐@@ 80
iu@@ 80
jdi 80
m床 80
ner@@ 80
race 80
ring 80
rv 80
sky@@ 80
special 80
sup@@ 80
vii 80
vita 80
wild 80
xl號 80
七天鑒賞 80
七成新 80
三角架@@ 80
下單前@@ 80
世 80
中控@@ 80
五分短褲 80
來自@@ 80
依 80
保時捷 80
倒車@@ 80
克羅心 80
入一組 80
內建@@ 80
內裏@@ 80
刀劍亂舞 80
分離式冷氣 80
券@@ 80
加濕@@ 80
勢@@ 80
包覆@@ 80
匹@@ 80
卡西歐手錶 80
商行 80
喂奶@@ 80
噴頭 80
圆@@ 80
團體@@ 80
增高鞋@@ 80
大降價 80
女表@@ 80
寬鬆休閒@@ 80
小飛象 80
小黃@@ 80
帥氣 80
席 80
平底鍋 80
廁所 80
廚房家用@@ 80
微波@@ 80
扇形@@ 80
托腹@@ 80
捆@@ 80
排毒@@ 80
散裝 80
斑 80
斜口@@ 80
旅 80
日單@@ 80
日本限定@@ 80
書局 80
書本熊 80
朵色@@ 80
東立@@ 80
梯形@@ 80
標準尺碼 80
正反@@ 80
水凝@@ 80
水培@@ 80
水杯子@@ 80
沙包@@ 80
沙漠@@ 80
海灘褲 80
渦輪@@ 80
溜@@ 80
澎澎@@ 80
火山@@ 80
焊接@@ 80
煙 80
燙鉆@@ 80
營業@@ 80
爆款下殺 80
牙刷架 80
犀牛盾 80
瑜伽服@@ 80
甄@@ 80
生命@@ 80
產 80
百褶裙 80
真皮錢包 80
碳纖@@ 80
磅@@ 80
秒殺@@ 80
稀@@ 80
種口味 80
稻@@ 80
窄版@@ 80
端子@@ 80
粉白 80
精品館 80
絲質@@ 80
經典logo 80
綠光@@ 80
網吧@@ 80
繃帶@@ 80
羅技 80
翅膀 80
翻轉@@ 80
耳環耳釘@@ 80
胸墊 80
花色 80
英文字@@ 80
茶海@@ 80
菲 80
蜜糖@@ 80
裙女@@ 80
裝飾貼紙 80
親子 80
訂做@@ 80
認明yuanroro優質賣場 80
譯@@ 80
走路@@ 80
超低@@ 80
超級英雄 80
踩@@ 80
蹦迪@@ 80
軌@@ 80
送女生@@ 80
造型耳環 80
運動手錶 80
過濾網@@ 80
酒店 80
鎂@@ 80
鎖骨鍊 80
鎮宅@@ 80
長靴 80
閃充@@ 80
陀螺@@ 80
零錢夾 80
電繡 80
霖@@ 80
風衣外套@@ 80
飯盒 80
餐桌布@@ 80
香港迪士尼 80
abs 79
aw@@ 79
brother 79
care@@ 79
fy 79
gift 79
hw 79
lie@@ 79
lock 79
look 79
maybelline 79
momo@@ 79
pad 79
sel@@ 79
sz 79
t恤上衣 79
uk 79
ytl 79
と@@ 79
一張 79
三角內褲 79
上架 79
上色@@ 79
上課@@ 79
中大尺碼@@ 79
中大童 79
二版 79
人字梯@@ 79
令 79
供 79
便 79
側翻@@ 79
免運中 79
公寓@@ 79
刮刀 79
前后@@ 79
助力@@ 79
勁戰@@ 79
化妝台 79
化妝椅@@ 79
卡牌@@ 79
即期@@ 79
反折@@ 79
吃雞神器@@ 79
吊卡 79
哈雷@@ 79
嘉 79
四角內褲 79
回饋 79
圓領衛衣 79
地柜@@ 79
坤@@ 79
坦@@ 79
執@@ 79
墨綠@@ 79
女士腕錶@@ 79
好用 79
好運@@ 79
妹妹 79
存錢罐@@ 79
實物@@ 79
寬袖@@ 79
寬鬆大碼@@ 79
封 79
專櫃品質 79
導航 79
小沙發 79
尺碼@@ 79
尾翼 79
廚房收納@@ 79
式耳環 79
必買 79
性感夜店@@ 79
悟@@ 79
手拉@@ 79
攪@@ 79
新娘 79
日本購入 79
日記@@ 79
時尚腕錶 79
枕芯@@ 79
染發劑@@ 79
柴油@@ 79
桌面收納盒@@ 79
桑蠶絲@@ 79
森林系@@ 79
樺@@ 79
權志龍@@ 79
歐舒丹@@ 79
民族風 79
氣質名媛@@ 79
水墨@@ 79
潛水 79
無毒 79
煎蛋@@ 79
熨斗@@ 79
版本@@ 79
狗頭@@ 79
瑜@@ 79
瑟@@ 79
直立@@ 79
短袖男@@ 79
短褲男@@ 79
秋衣@@ 79
精英@@ 79
精華乳 79
糕 79
紋路@@ 79
羊肉@@ 79
美版@@ 79
背心上衣 79
背面@@ 79
腿部@@ 79
臥室簡易@@ 79
臭氧@@ 79
艾米家@@ 79
芸@@ 79
茶幾簡約現代@@ 79
華為p 79
薯@@ 79
藍莓@@ 79
處 79
衛浴 79
複合@@ 79
角度@@ 79
調色@@ 79
談@@ 79
貨架 79
買一@@ 79
買家 79
買菜@@ 79
超細纖維@@ 79
超輕 79
足球 79
踢 79
蹭@@ 79
輕便折疊@@ 79
輕薄 79
通話 79
遊戲機 79
運動鞋女@@ 79
運動鞋慢跑鞋@@ 79
遺@@ 79
金剛 79
鐵灰 79
開店@@ 79
雕刻 79
雕塑@@ 79
電鑽 79
鞋套 79
鞋盒 79
食指@@ 79
高絲 79
黑武士@@ 79
黑白色 79
點數 79
belt 78
burberry巴寶莉 78
coach蔻馳@@ 78
diy材料 78
ft@@ 78
ino 78
met 78
nc 78
order 78
pt@@ 78
roo@@ 78
sampo 78
slide 78
taiwan 78
xm 78
é@@ 78
コ@@ 78
ㄉ@@ 78
三人位@@ 78
三宅一生 78
三格@@ 78
中老年人@@ 78
中長版@@ 78
丹寧 78
九成新@@ 78
二手正品 78
二館 78
五層@@ 78
假發@@ 78
假面騎士@@ 78
傘車@@ 78
傲@@ 78
元起標 78
內裡 78
全新出清 78
全省@@ 78
兩件式套裝 78
凡 78
創意小@@ 78
勒 78
包膜 78
包臀裙 78
午餐@@ 78
单肩@@ 78
卯釘@@ 78
印尼@@ 78
印花t恤 78
可愛的@@ 78
哪@@ 78
問題@@ 78
喜糖@@ 78
圓領修身@@ 78
坦克@@ 78
大王@@ 78
天空藍 78
奔@@ 78
套頭衛衣 78
好吃@@ 78
如何@@ 78
孝@@ 78
安卓蘋果@@ 78
密碼 78
小美人魚@@ 78
尾巴@@ 78
展示柜@@ 78
層板@@ 78
工房 78
帶帽@@ 78
幫浦 78
廁@@ 78
弓形@@ 78
心靈@@ 78
情侶錶 78
抖音網紅@@ 78
折叠@@ 78
拉伸@@ 78
招財貓 78
搶 78
撕拉@@ 78
播@@ 78
擱板@@ 78
數量有限 78
斐樂 78
新春@@ 78
新款現貨 78
旅行背包 78
日本景品 78
早餐 78
春夏款@@ 78
松糕厚底@@ 78
棉襖@@ 78
機電動@@ 78
气@@ 78
油炸@@ 78
泫雅@@ 78
活性@@ 78
滿滿@@ 78
烤盤@@ 78
無損@@ 78
環球@@ 78
甜心 78
男士修身@@ 78
男士短袖 78
白鐵 78
碟盤 78
碩@@ 78
粉絲@@ 78
精華露 78
經典百搭@@ 78
緣 78
翻斗@@ 78
肥 78
自拍桿 78
花器@@ 78
華夫@@ 78
萃 78
蒸籠@@ 78
蝙蝠包 78
表帶 78
角質@@ 78
評@@ 78
詠@@ 78
話筒 78
起子 78
輸出 78
轉印@@ 78
遮瑕膏 78
遮陽傘 78
鄧@@ 78
酒架@@ 78
重低音 78
金盞花@@ 78
防刮皮革@@ 78
音樂盒@@ 78
龍珠@@ 78
龐克@@ 78
ah@@ 77
bal@@ 77
boo@@ 77
cal@@ 77
face@@ 77
garmin 77
glc 77
gucci錢包 77
hm精品 77
innisfree@@ 77
lacoste 77
malone@@ 77
mam@@ 77
mercedes 77
nex 77
pd@@ 77
rgb 77
skin@@ 77
v字@@ 77
xdr 77
zi 77
zoo@@ 77
zr 77
一口@@ 77
一次 77
不銹鋼廚房@@ 77
中央@@ 77
中筒 77
互@@ 77
享 77
人形@@ 77
休閒套裝@@ 77
俏麗@@ 77
做飯@@ 77
側肩包 77
克斯@@ 77
凍 77
加厚加絨@@ 77
包屁@@ 77
原花 77
叮@@ 77
可愛少女@@ 77
可調式 77
向日葵@@ 77
啦啦@@ 77
喚@@ 77
墻面裝飾@@ 77
夠@@ 77
大促 77
婚鞋 77
守護@@ 77
宴 77
密碼箱@@ 77
密碼鎖@@ 77
小人@@ 77
屋頂@@ 77
展示 77
布貼 77
幻影@@ 77
床上用@@ 77
廠商直銷 77
廣告牌@@ 77
後照鏡 77
必備款@@ 77
志 77
快感@@ 77
愛馬仕皮帶 77
戴爾@@ 77
户外@@ 77
掛毯@@ 77
推拉門@@ 77
擱@@ 77
攜帶型@@ 77
新型@@ 77
新百倫@@ 77
日本品牌 77
日空版 77
旺旺@@ 77
星月@@ 77
書房 77
會議椅@@ 77
杯蓋 77
東京迪士尼@@ 77
校服@@ 77
桌面 77
櫻 77
歌林@@ 77
止癢@@ 77
殺菌 77
氣墊慢跑鞋 77
水波紋 77
水草@@ 77
泡澡桶@@ 77
洗面@@ 77
浴袍@@ 77
海賊@@ 77
涼被 77
湯碗@@ 77
溶@@ 77
煲@@ 77
率 77
理髮@@ 77
疏@@ 77
盆景@@ 77
監@@ 77
真皮牛皮@@ 77
竹 77
簡約時尚 77
細紋@@ 77
繪圖@@ 77
经典@@ 77
美好 77
美胸@@ 77
背景布 77
胖mm 77
腳架@@ 77
臥室陽臺@@ 77
芮@@ 77
茶具套裝@@ 77
蒜泥@@ 77
蜂蜜 77
袖子@@ 77
補光@@ 77
調情 77
講義 77
貂@@ 77
貓爪@@ 77
貴族@@ 77
辣 77
迅@@ 77
鉚釘 77
鑰匙套@@ 77
長方形 77
開口笑 77
開衫外套 77
集點 77
雙拉鍊@@ 77
電扇@@ 77
韓國ulzzang@@ 77
馥@@ 77
高階@@ 77
鬍子@@ 77
麥飯石@@ 77
麻布@@ 77
黄@@ 77
abc 76
all@@ 76
balance@@ 76
cla 76
dvz 76
ig 76
ite 76
lan@@ 76
lol@@ 76
mag@@ 76
mama 76
qi@@ 76
sata 76
sr@@ 76
tokyo 76
xy@@ 76
yoyo@@ 76
yuanroro@@ 76
さ@@ 76
レ@@ 76
三個@@ 76
三國@@ 76
三線@@ 76
三菱@@ 76
五行@@ 76
亮光@@ 76
人份 76
人參@@ 76
修身顯瘦 76
倍思 76
光陽 76
全遮光@@ 76
冷 76
初中生@@ 76
匯 76
厚底松糕@@ 76
可可 76
售完為止 76
啾啾@@ 76
單支 76
單片@@ 76
固體@@ 76
坡@@ 76
墜飾 76
墻壁掛@@ 76
大型犬@@ 76
大款@@ 76
大波浪@@ 76
夾克外套@@ 76
夾鏈袋 76
套頭衛衣@@ 76
女士手錶@@ 76
女士時尚@@ 76
嬰幼兒 76
學生宿舍 76
完整版 76
家居館 76
小汽車@@ 76
帆@@ 76
康是美 76
復古做舊@@ 76
忘@@ 76
慕絲 76
打造 76
披薩@@ 76
拉力@@ 76
持@@ 76
掛耳@@ 76
攜@@ 76
攝像頭 76
曬衣架@@ 76
核 76
棉服 76
棉鞋@@ 76
模式 76
機箱@@ 76
消光黑 76
混搭@@ 76
滑板鞋@@ 76
滴膠@@ 76
澎@@ 76
熊大 76
熊抱哥 76
燃@@ 76
特別版 76
狐 76
珀@@ 76
珊 76
現在@@ 76
瑋@@ 76
瓷 76
畫板@@ 76
白黑@@ 76
神仙@@ 76
穎 76
筆記型電腦 76
簡約個性@@ 76
粉撲@@ 76
粥@@ 76
精品女包@@ 76
維生素@@ 76
罐頭 76
网@@ 76
美國製 76
腰枕@@ 76
花花 76
茶幾組合@@ 76
萊卡@@ 76
藍牙音箱@@ 76
虎頭 76
表演 76
規格@@ 76
誇張@@ 76
誌 76
護照夾 76
豪華版 76
車材 76
這款@@ 76
造 76
鈦晶@@ 76
鍋具 76
鏟子@@ 76
開瓶器 76
防摔殼@@ 76
防水布@@ 76
防過敏 76
防震 76
雪紡紗@@ 76
電鍋 76
頂級品質 76
高景觀@@ 76
魚骨 76
鯨@@ 76
ace@@ 75
arts 75
b款 75
card 75
diamond 75
fan@@ 75
gogo@@ 75
happy@@ 75
hellokitty@@ 75
ios 75
kaws 75
kiki 75
kipling 75
lisa 75
lux 75
mf 75
mol@@ 75
monogram@@ 75
mr@@ 75
ori@@ 75
queen@@ 75
ster 75
ten 75
tre@@ 75
t卹 75
vc@@ 75
yang 75
é 75
シ@@ 75
一字領露肩@@ 75
三線 75
中國風 75
中文版@@ 75
之星 75
乒乓球@@ 75
付 75
休眠@@ 75
俱樂部 75
們 75
假髮女@@ 75
傷 75
再送@@ 75
刀劍@@ 75
刑@@ 75
北極@@ 75
原宿 75
原裝正品@@ 75
去 75
台灣發貨 75
合成@@ 75
名字@@ 75
吸濕@@ 75
咖哩@@ 75
堅@@ 75
好用@@ 75
嫩膚@@ 75
实木@@ 75
家用小戶型@@ 75
寵 75
小香風 75
展示櫃 75
山地@@ 75
幸福 75
復古鐵藝@@ 75
徽@@ 75
性感睡衣@@ 75
意式@@ 75
愛戀@@ 75
戒指女@@ 75
投影機 75
拖鞋女夏@@ 75
斜跨 75
新鮮貨 75
日文版 75
最後一@@ 75
有型@@ 75
未來 75
本命年@@ 75
杆 75
松緊@@ 75
果樹@@ 75
桌墊@@ 75
棉花糖 75
歷@@ 75
段變頻 75
母嬰@@ 75
永生花 75
泡棉@@ 75
漸變色@@ 75
潛航者@@ 75
澆@@ 75
濕巾 75
玩具店 75
瑕疵@@ 75
瓜 75
當日@@ 75
發酵@@ 75
白底 75
百搭學生@@ 75
的好@@ 75
皙@@ 75
知名@@ 75
矽膠套 75
研究@@ 75
磁吸式@@ 75
祈福@@ 75
秋天@@ 75
立體聲@@ 75
笑臉包 75
糖果色 75
純日版 75
純牛皮@@ 75
純銀手鍊 75
純銀項鍊 75
經典花紋@@ 75
織帶 75
美國正品代購@@ 75
羽毛 75
聖誕樹@@ 75
聚寶盆 75
胖達 75
胡椒@@ 75
臥室房間@@ 75
臥室書房@@ 75
色系@@ 75
艾多美 75
芳香劑 75
萬向輪 75
落地鏡@@ 75
蕊@@ 75
蛙 75
蜂膠@@ 75
補光燈 75
褲腰帶 75
豔@@ 75
貓貓@@ 75
貝兒 75
貼花 75
路易@@ 75
軍規@@ 75
迷你便攜@@ 75
透氣網@@ 75
連帽t 75
部落 75
郵票@@ 75
金扣@@ 75
金蔥@@ 75
金釦@@ 75
鐵架 75
闆娘@@ 75
關 75
防曬霜 75
階 75
電競 75
震動棒 75
靜 75
領結 75
顏色隨機 75
飯桌 75
香辣@@ 75
髮繩 75
鬆餅@@ 75
bee 74
com 74
cpu 74
cpu@@ 74
fan 74
ferragamo@@ 74
golden 74
gts 74
hermes愛馬仕 74
ie@@ 74
lite@@ 74
longchamp@@ 74
lv女款@@ 74
lv手提包 74
mars 74
shin@@ 74
wallet 74
ン 74
一卡通 74
一家@@ 74
三輪車@@ 74
不挑@@ 74
久 74
乳霜@@ 74
亞馬遜@@ 74
修復 74
出門@@ 74
刀架 74
刷子 74
刺繡logo 74
割破@@ 74
加肥@@ 74
午睡床@@ 74
卸妝水 74
吧凳@@ 74
吸油@@ 74
四色可選 74
回收@@ 74
垢@@ 74
堵@@ 74
塑料 74
壇@@ 74
外觀@@ 74
大出清 74
大門@@ 74
奶器@@ 74
好幫手 74
妞妞@@ 74
妳@@ 74
安琪@@ 74
完整 74
家居の@@ 74
家用電動@@ 74
容 74
寬鬆上衣 74
寶劍@@ 74
寺@@ 74
幻想@@ 74
建筑@@ 74
开@@ 74
情侶套裝 74
愛麗@@ 74
感謝@@ 74
戀與製作人 74
手工製作@@ 74
手珠@@ 74
抗藍光@@ 74
拍攝 74
拖把 74
拚@@ 74
指甲 74
搖搖椅@@ 74
攜帶方便 74
放大鏡 74
整組@@ 74
文玩@@ 74
新年 74
新款女包 74
新款韓版寬松@@ 74
日常百搭@@ 74
春節@@ 74
晴雨傘@@ 74
暈染@@ 74
書桌椅 74
月號 74
東京迪士尼 74
森女@@ 74
止汗@@ 74
正式@@ 74
水晶球@@ 74
油箱@@ 74
泰迪熊 74
海鹽@@ 74
無框@@ 74
熔@@ 74
爆炸@@ 74
牛皮女包 74
特考 74
現貨韓國@@ 74
男士內褲@@ 74
男生包包與配件 74
登山包 74
真牛皮@@ 74
眼影盤@@ 74
睫@@ 74
空心@@ 74
窄版 74
童襪 74
竹子@@ 74
筆記@@ 74
簡約純色@@ 74
細膩@@ 74
編織包 74
纏繞@@ 74
纖 74
羅賓 74
羊毛氈@@ 74
美國直郵@@ 74
美食 74
老爺@@ 74
臟@@ 74
芒@@ 74
菇@@ 74
蛋糕模 74
該@@ 74
譯 74
護耳@@ 74
變頻 74
超顯瘦@@ 74
躍@@ 74
車窗@@ 74
軍迷@@ 74
輕量化 74
迷人@@ 74
酒店大堂@@ 74
針織毛線@@ 74
鈺@@ 74
鏈條斜挎包 74
鐵絲@@ 74
長褲子@@ 74
閉@@ 74
防曬隔熱@@ 74
防止@@ 74
除蟎@@ 74
雄 74
雙面穿@@ 74
零售 74
露臍@@ 74
青蛙 74
韓版潮 74
顏料 74
飛織@@ 74
餐墊 74
餡@@ 74
香奈兒chanel 74
高清夜視@@ 74
魔術貼 74
麗嬰房 74
麵包 74
龍鳳@@ 74
amo@@ 73
apieu 73
bc@@ 73
beauty@@ 73
cp值@@ 73
craft 73
easy 73
fh 73
fresh 73
ink 73
joe 73
jogger 73
ken 73
lux@@ 73
mic@@ 73
over@@ 73
pi 73
pure@@ 73
seed 73
smile 73
team 73
ultra@@ 73
uni 73
urban 73
versace範思哲@@ 73
war@@ 73
woven 73
xw 73
zero@@ 73
一盒@@ 73
三分@@ 73
三星note 73
世代 73
中性 73
交換 73
代買 73
保溫瓶@@ 73
個裝 73
假兩件式@@ 73
催@@ 73
兔耳@@ 73
全新未使用 73
全新未拆封@@ 73
分層@@ 73
刷頭 73
則@@ 73
化妝品收納盒 73
半 73
卡牌 73
厚底鞋@@ 73
古代@@ 73
單入 73
四件@@ 73
四季通用 73
國潮@@ 73
圓弧@@ 73
埃@@ 73
壁貼@@ 73
夜市@@ 73
大屏@@ 73
婕@@ 73
學步車 73
安全褲 73
安娜 73
家用門口@@ 73
小logo 73
小動物@@ 73
展示盒 73
屬@@ 73
床頭柜 73
彤@@ 73
恤 73
恤@@ 73
惠普@@ 73
手賬@@ 73
手電@@ 73
扒@@ 73
承重@@ 73
掃地機器人 73
接收器 73
換鞋凳 73
搖桿 73
收納筐 73
收納罐 73
新品促銷 73
日製@@ 73
時尚復古@@ 73
暖宮@@ 73
望 73
木炭@@ 73
極 73
極新@@ 73
榮耀@@ 73
檀木@@ 73
歌林 73
殿 73
水族箱@@ 73
泳褲@@ 73
洗腳@@ 73
濾網@@ 73
灰白@@ 73
煉@@ 73
煙灰缸 73
煤油@@ 73
燒水壺@@ 73
猫@@ 73
甜點 73
男女運動鞋 73
男寶@@ 73
百貨店@@ 73
皮皮@@ 73
監控 73
短褲套裝 73
磁 73
磁石@@ 73
窄裙 73
紅繩@@ 73
維 73
網面透氣 73
編著 73
繩子@@ 73
置物架壁掛@@ 73
羞@@ 73
老爹 73
聯府 73
腰封@@ 73
自學@@ 73
英倫學院風@@ 73
茶盤 73
茶葉罐@@ 73
蜜粉餅 73
視 73
證書 73
豎版@@ 73
貓罐 73
購物網 73
贴@@ 73
足弓@@ 73
車輪@@ 73
辟邪@@ 73
透白@@ 73
連褲襪@@ 73
進化@@ 73
運動休閑鞋@@ 73
邊櫃 73
醬油@@ 73
金釦 73
閃閃@@ 73
開襠@@ 73
防曬服@@ 73
防踢@@ 73
隨行@@ 73
雕像 73
雙c 73
雙邊@@ 73
雜物 73
雨傘架@@ 73
零 73
韓製@@ 73
魚眼@@ 73
麗嬰房@@ 73
麻吉@@ 73
ana@@ 72
are 72
bw@@ 72
dhc@@ 72
dw手錶 72
hana 72
hui 72
ins風 72
ix@@ 72
jin 72
kids@@ 72
kon@@ 72
lauren@@ 72
lock@@ 72
lw 72
mlb@@ 72
muse 72
nr 72
om@@ 72
project 72
sq 72
tk 72
vivi 72
v型@@ 72
wb 72
zy 72
な@@ 72
下午茶 72
主臥@@ 72
仙氣@@ 72
代購coach 72
低溫@@ 72
佛堂@@ 72
修容 72
做工@@ 72
傢@@ 72
元寶@@ 72
全身鏡@@ 72
公雞@@ 72
凹凸@@ 72
加大尺碼 72
北倉 72
千層@@ 72
博柏利 72
卡座@@ 72
可愛造型@@ 72
史奴比@@ 72
各一 72
吐@@ 72
吸 72
咖啡豆@@ 72
單反相機@@ 72
單肩手提包 72
報 72
墻上置物架@@ 72
多功能防水@@ 72
大學 72
大小 72
大豆@@ 72
好康@@ 72
嬰兒床 72
子的@@ 72
家庭 72
宿@@ 72
實拍現貨@@ 72
實木腿@@ 72
小屋@@ 72
小禮物 72
小飛@@ 72
少女心 72
居家用品 72
幫寶適@@ 72
平底鍋@@ 72
年保固 72
床罩 72
微單@@ 72
心情@@ 72
手竿@@ 72
打亮@@ 72
打卡@@ 72
折疊床@@ 72
拆卸@@ 72
拼皮@@ 72
排氣管 72
推理@@ 72
撞色拼接@@ 72
撫@@ 72
擋板 72
收納架子 72
望遠鏡 72
榻榻米 72
檀@@ 72
櫸木@@ 72
欲@@ 72
水槽 72
法鬥@@ 72
海竿@@ 72
清水套 72
渲染@@ 72
潤色@@ 72
烘干@@ 72
無刷@@ 72
無添加@@ 72
燕窩@@ 72
爆款熱賣@@ 72
現代簡約家用@@ 72
用的@@ 72
男學生@@ 72
男韓版@@ 72
痘痘@@ 72
白雪公主 72
盜@@ 72
直髮@@ 72
眼鏡盒 72
硬碟@@ 72
碰@@ 72
磁吸 72
磨 72
磨腳@@ 72
禮包 72
笛 72
簡約現代家用@@ 72
粉底刷 72
粉紫 72
線器@@ 72
練習 72
翔 72
耳釘女@@ 72
肩挎包 72
胎壓@@ 72
胸墊@@ 72
腰掛@@ 72
臥室床頭燈@@ 72
艾 72
艾莎@@ 72
芮 72
花生 72
范斯@@ 72
落地燈 72
蓬蓬裙@@ 72
袋鼠@@ 72
裱花@@ 72
註@@ 72
負離子 72
資訊@@ 72
走路鞋 72
超優惠 72
超級賽亞人 72
跡@@ 72
軍裝@@ 72
迪士尼公主@@ 72
送女友 72
遠程@@ 72
還有@@ 72
重機 72
重量@@ 72
鋼化@@ 72
鍊帶@@ 72
開光 72
防護欄@@ 72
阿拉@@ 72
雙人沙發 72
雷 72
露營燈 72
靴女@@ 72
鞋女 72
預售 72
頭巾@@ 72
驅動@@ 72
鯨魚@@ 72
黑色牛皮@@ 72
點綴@@ 72
鼠標 72
acs 71
ano@@ 71
bts@@ 71
candy 71
cap@@ 71
che 71
dar@@ 71
dream@@ 71
duo 71
fish 71
fur@@ 71
jc@@ 71
jp@@ 71
km 71
land@@ 71
lf 71
lr 71
mimi@@ 71
pod 71
que@@ 71
rc@@ 71
shine 71
street 71
ul 71
上衣m 71
中壢@@ 71
中褲 71
丹麥@@ 71
側掀 71
僅此@@ 71
內扣@@ 71
全包軟殼 71
全罩 71
割草機@@ 71
創作@@ 71
卡斯@@ 71
可議 71
吊帶背心 71
名牌精品包 71
吧臺桌@@ 71
售完不補 71
國文@@ 71
土豆@@ 71
坐便@@ 71
壹字@@ 71
外出 71
夜場@@ 71
大白@@ 71
太陽花@@ 71
女士腕錶 71
婆@@ 71
實品@@ 71
專櫃品牌 71
小丑@@ 71
小丸子@@ 71
小戶型迷你@@ 71
小櫻@@ 71
小背包@@ 71
帶門@@ 71
年輕@@ 71
恆溫@@ 71
成犬 71
房間 71
手繪 71
捲邊@@ 71
損@@ 71
搶購 71
撿@@ 71
斜 71
日本品牌@@ 71
日牌@@ 71
日語@@ 71
有聲@@ 71
望遠鏡@@ 71
未使用 71
束腰@@ 71
束腳褲@@ 71
桃木@@ 71
框架@@ 71
棉麻 71
標志@@ 71
歐式鐵藝@@ 71
歐美潮流@@ 71
段式@@ 71
毫升 71
水槍 71
泡菜@@ 71
洗手液@@ 71
洗漱包 71
浮雕 71
涵 71
涼墊@@ 71
淇@@ 71
清水@@ 71
滿千@@ 71
潮流個性@@ 71
無 71
無袖背心@@ 71
熨燙@@ 71
物品@@ 71
狀 71
玄關 71
男女生 71
疊疊樂 71
發光 71
白水晶@@ 71
百貨公司@@ 71
盲@@ 71
石英鐘@@ 71
砂輪@@ 71
碗架 71
突@@ 71
第二代 71
簡易衣櫃@@ 71
經濟學 71
線器 71
緬甸玉 71
美品 71
美膚@@ 71
翁@@ 71
考試 71
聲卡@@ 71
肥皂 71
胜肽@@ 71
腰靠@@ 71
自有書 71
舉@@ 71
花茶 71
蓉@@ 71
蓋毯 71
蛇紋 71
衣帽間@@ 71
衣服架@@ 71
装饰@@ 71
計算機 71
託盤@@ 71
詢問 71
調酒@@ 71
貝雷帽 71
賣家 71
超大 71
超彈力@@ 71
軟底 71
輸@@ 71
運動型@@ 71
過濾網 71
遙控車 71
遠投@@ 71
避光墊 71
酒吧椅@@ 71
銹@@ 71
鏈包 71
長版衣 71
門后@@ 71
隔熱墊 71
隔離霜@@ 71
離合器@@ 71
雷霆@@ 71
霍@@ 71
鞋面 71
風琴包 71
風車@@ 71
養殖@@ 71
高達@@ 71
齋 71
龍泉@@ 71
bally 70
bow@@ 70
brand 70
dji 70
ez@@ 70
fer@@ 70
gentle 70
gh 70
google 70
guess@@ 70
kit@@ 70
metal 70
mix@@ 70
mk包包 70
pat@@ 70
pieu 70
plr 70
plus手機殼@@ 70
rj 70
sil@@ 70
splus 70
tcg 70
wei@@ 70
不能@@ 70
主持人@@ 70
人份@@ 70
仙子 70
修護霜 70
健 70
優質現貨 70
克萊@@ 70
六 70
六色@@ 70
刊 70
剩 70
創意卡通@@ 70
創意禮品@@ 70
創新@@ 70
加厚不銹鋼@@ 70
即期品 70
可爱@@ 70
台灣出貨@@ 70
后現代簡約@@ 70
含稅@@ 70
單一@@ 70
噴瓶 70
四驅車 70
國際牌@@ 70
堆@@ 70
填@@ 70
墙@@ 70
外套潮 70
大腿@@ 70
天下 70
女孩公主@@ 70
女性香水 70
女靴@@ 70
富士 70
實戰 70
專屬下單區 70
小咪代購 70
小子 70
小學@@ 70
小布@@ 70
小柜子@@ 70
小腿@@ 70
尾燈@@ 70
層次@@ 70
川 70
工作室@@ 70
工業 70
工裝褲@@ 70
帶胸墊@@ 70
年中@@ 70
幸運草@@ 70
形狀@@ 70
彰化@@ 70
後背 70
復古風 70
愛上@@ 70
感應 70
慢 70
應用@@ 70
懶人桌@@ 70
戲水@@ 70
手工制作@@ 70
手機通用 70
抗過敏 70
抽水@@ 70
挑逗@@ 70
搓澡@@ 70
搞笑@@ 70
收納柜一體@@ 70
教 70
斗篷 70
新款性感@@ 70
新貨 70
日本製造 70
時尚經典@@ 70
書架落地@@ 70
東西@@ 70
楓葉@@ 70
標準 70
沖擊@@ 70
洗菜@@ 70
洛克@@ 70
浪琴@@ 70
海底@@ 70
浸@@ 70
無印@@ 70
熊熊 70
熏@@ 70
爆裂@@ 70
猴 70
現貨商品 70
男神@@ 70
白勾 70
益生菌@@ 70
票據@@ 70
秘 70
空壓殼@@ 70
站立@@ 70
第三代@@ 70
等級 70
糯@@ 70
纏@@ 70
美國代購coach 70
美少女 70
美樂@@ 70
老虎 70
職人@@ 70
膳魔師@@ 70
膽@@ 70
臨摹@@ 70
自拍棒 70
英倫風 70
萊雅@@ 70
蔣@@ 70
蕾 70
蛤蟆鏡@@ 70
衛衣外套 70
質量@@ 70
超硬@@ 70
軟木@@ 70
輕小說 70
迴@@ 70
部落@@ 70
都 70
銷 70
鐵架@@ 70
長版襯衫 70
阿爾@@ 70
陶瓷杯 70
雨天@@ 70
雷霆s 70
露肩 70
面交@@ 70
鞋底@@ 70
韓國直送 70
韓站@@ 70
餅干@@ 70
香檳金 70
香氛蠟燭 70
香薰 70
馬上@@ 70
體重@@ 70
高腳椅 70
魯夫@@ 70
黑水鬼 70
android 69
aqua 69
ate@@ 69
car 69
dear 69
dx@@ 69
flower 69
good@@ 69
jimmy 69
jt 69
lv經典@@ 69
occitane 69
rilakkuma 69
sale 69
sonic 69
sou@@ 69
superdry@@ 69
tods 69
walk 69
wn 69
works 69
上光@@ 69
下殺價@@ 69
不用等 69
亞瑟士@@ 69
仙人掌 69
仿皮@@ 69
低價促銷 69
來圖@@ 69
個裝@@ 69
值 69
假 69
健身器材家用@@ 69
元免運費 69
凈化@@ 69
刀劍神域@@ 69
包達人 69
十二生肖@@ 69
博 69
原價@@ 69
原廠保固 69
去油@@ 69
反摺@@ 69
只裝@@ 69
吸水 69
周年紀念@@ 69
噴漆 69
圖書@@ 69
外套男@@ 69
多功能收納@@ 69
大圓@@ 69
大音量@@ 69
妤@@ 69
姐姐@@ 69
安德@@ 69
完成品 69
寵愛@@ 69
寶緹嘉@@ 69
封面@@ 69
廠家直銷滿千減 69
延伸@@ 69
彎頭@@ 69
律 69
息@@ 69
愛巴黎 69
成人用品 69
戶外休閑@@ 69
折屏@@ 69
拆封@@ 69
捷 69
搞@@ 69
擦手巾 69
支入 69
收集@@ 69
新房@@ 69
新款gucci@@ 69
日單 69
晉@@ 69
杜嘉班納@@ 69
梳妝鏡@@ 69
棒球 69
毛器 69
水晶玻璃@@ 69
汙@@ 69
沿@@ 69
況@@ 69
法式復古@@ 69
波力@@ 69
洗衣袋 69
浴室鏡@@ 69
浴桶@@ 69
海爾@@ 69
海藻@@ 69
溜溜@@ 69
無耳洞@@ 69
燈家用@@ 69
燈座 69
物流@@ 69
特製@@ 69
瓶子@@ 69
生存遊戲 69
男仕@@ 69
男士短袖t恤@@ 69
瘦腰@@ 69
發廊@@ 69
眉毛@@ 69
短上衣 69
研 69
研磨機 69
碗櫃@@ 69
第二版 69
等級@@ 69
糕點@@ 69
網卡 69
縫線@@ 69
美容 69
美甲飾品 69
老公@@ 69
耳機套 69
肌膚 69
胺基酸@@ 69
舔@@ 69
菩薩@@ 69
萃取@@ 69
薇薇@@ 69
蘋果華為@@ 69
蜘蛛俠@@ 69
蟒@@ 69
表帶@@ 69
裝飾燈 69
親膚 69
識@@ 69
貝爾@@ 69
輕 69
遙控飛機@@ 69
邪@@ 69
鈦 69
錄音 69
鍋具@@ 69
鏈子@@ 69
鏢@@ 69
防晒@@ 69
防曬防紫外線@@ 69
防滑墊@@ 69
阿迪@@ 69
限定款@@ 69
限時折扣 69
雙肩包女@@ 69
電子鍋 69
電視機柜@@ 69
電鍋@@ 69
韓國時尚@@ 69
韓國正品@@ 69
韓國童裝 69
駝色@@ 69
鴛鴦 69
鹿角@@ 69
麥昆@@ 69
黑橘 69
ach@@ 68
are@@ 68
blue@@ 68
camo 68
exq 68
far@@ 68
fear 68
gal@@ 68
givenchy@@ 68
goo@@ 68
gy@@ 68
ir 68
kevin 68
key@@ 68
kf 68
laurent@@ 68
lee@@ 68
ler@@ 68
les@@ 68
mimi 68
miyake 68
mn 68
muji 68
nba球衣 68
olympus 68
oversize 68
powder 68
promax 68
sports 68
tar@@ 68
t恤衫@@ 68
una 68
ysl聖羅蘭 68
マ@@ 68
一直被模仿 68
三星a 68
三點式@@ 68
不傷發@@ 68
伯爵@@ 68
俗@@ 68
保羅 68
信用@@ 68
儲物凳@@ 68
光滑@@ 68
全場現貨 68
全電壓 68
六月@@ 68
再生@@ 68
初音未來 68
包腳@@ 68
半簾@@ 68
卡扣@@ 68
厘米@@ 68
原礦 68
可站立 68
史黛拉 68
吉利@@ 68
吸附@@ 68
喂@@ 68
固齒器 68
國產@@ 68
增加@@ 68
夏日 68
外出包 68
大茶几 68
太子@@ 68
太陽 68
套件@@ 68
女士錢包 68
女夏 68
如約 68
妍 68
妖怪@@ 68
学@@ 68
官網 68
寶緹嘉 68
小時 68
小木@@ 68
小板凳@@ 68
居家必備 68
工作燈 68
布面@@ 68
帶抽屜@@ 68
平衡車 68
床上書桌@@ 68
從未被超越 68
微波爐 68
愛美@@ 68
成人男女@@ 68
成犬@@ 68
戶外便攜@@ 68
投影機@@ 68
投資@@ 68
折疊椅@@ 68
抽鬚@@ 68
掃描@@ 68
損 68
收音機@@ 68
放置@@ 68
新款秋冬@@ 68
方塊 68
施工@@ 68
旅行袋@@ 68
旱冰鞋@@ 68
星際大戰@@ 68
昭@@ 68
時刻 68
晚禮服 68
晴天@@ 68
晴雨傘 68
更新 68
果汁 68
栓@@ 68
桃子@@ 68
植村秀@@ 68
楠@@ 68
機械鍵盤@@ 68
正韓貨 68
比熊@@ 68
氣墊跑鞋 68
氣質款@@ 68
汽車座椅@@ 68
沙袋@@ 68
河馬@@ 68
泡茶壺@@ 68
泡面@@ 68
泰 68
消除@@ 68
涼拖鞋女@@ 68
漁夫@@ 68
潮包 68
灰姑娘 68
熨@@ 68
熱銷搶先價@@ 68
爬行墊@@ 68
玻璃門@@ 68
現貨正品@@ 68
理發@@ 68
生活用品 68
疏通@@ 68
登機箱@@ 68
發行 68
白雪公主@@ 68
省電@@ 68
短t恤 68
短袖衣服@@ 68
短途@@ 68
矯正器@@ 68
石英表@@ 68
福利@@ 68
米老鼠 68
粉晶@@ 68
精工 68
精萃 68
精裝 68
紀 68
紡@@ 68
纖長@@ 68
线@@ 68
翻領 68
老二@@ 68
老鷹@@ 68
考 68
耐咬@@ 68
舒服 68
英國next預購代購 68
茵@@ 68
莓果@@ 68
萍 68
薰@@ 68
蘿蔔@@ 68
袍@@ 68
被芯@@ 68
裝扮@@ 68
覆@@ 68
言情小說 68
試衣間@@ 68
豬八@@ 68
貓砂 68
超q@@ 68
跑步運動@@ 68
連續@@ 68
運動休閒 68
運動毛巾 68
遙控車@@ 68
鈎@@ 68
鋼木@@ 68
門票 68
開幕@@ 68
開花@@ 68
關公@@ 68
防撞 68
陳 68
階梯@@ 68
雙usb@@ 68
電子秤 68
電鋸@@ 68
鞋款 68
飛行外套 68
香精 68
香菇@@ 68
馬丁@@ 68
駝@@ 68
高倍@@ 68
魔法 68
鯊@@ 68
鳳 68
麗莎@@ 68
麥片 68
點火@@ 68
ahc 67
bally@@ 67
book@@ 67
creuset 67
dog 67
dou@@ 67
eco 67
ever@@ 67
ez易買日本代購 67
factory 67
fenty 67
furylite 67
g點 67
irving 67
jump 67
kl@@ 67
lg@@ 67
mina 67
moschino@@ 67
pants 67
pei 67
rock@@ 67
stone 67
store@@ 67
tu 67
water 67
wings 67
za@@ 67
ド@@ 67
一瓶 67
上市@@ 67
丸子@@ 67
二次@@ 67
亮彩@@ 67
低調@@ 67
佛具@@ 67
修剪@@ 67
全掌@@ 67
全景@@ 67
全棉 67
兼容@@ 67
刺繡logo@@ 67
半指@@ 67
卡特@@ 67
卸妝油 67
厚底增高@@ 67
去死皮@@ 67
古箏@@ 67
可裝@@ 67
吸汗 67
哈利波特@@ 67
單支@@ 67
嘉義@@ 67
囍@@ 67
國畫@@ 67
垢 67
夏季冰絲@@ 67
大同@@ 67
大大@@ 67
大號加厚@@ 67
天天特價 67
奇異@@ 67
女中長款@@ 67
女用 67
婦 67
字帖@@ 67
家用靜音@@ 67
專櫃正貨 67
小公主@@ 67
尖 67
岡山@@ 67
工作鞋@@ 67
工具包@@ 67
工程車@@ 67
巴士 67
布偶@@ 67
帽踢 67
忍 67
情侶t恤 67
戰隊 67
手機保護套 67
打亮 67
拉鏈式@@ 67
捕蚊@@ 67
揚 67
收納整理@@ 67
救星 67
方向盤 67
日本空運@@ 67
時尚新款@@ 67
時空@@ 67
更換@@ 67
書寫@@ 67
杯組 67
柑仔店 67
柑橘@@ 67
梭@@ 67
梳妝臺 67
棒棒@@ 67
樣板間@@ 67
每包 67
毛衣鏈@@ 67
水漾@@ 67
水藍@@ 67
水蜜桃@@ 67
沐浴精 67
沖浪@@ 67
沙發巾@@ 67
泳圈 67
洗碗池@@ 67
浮標 67
添@@ 67
游泳 67
滅蚊@@ 67
滿鉆@@ 67
烤爐 67
無限 67
爆款熱銷 67
爬行@@ 67
牽引@@ 67
瑪瑙 67
男女皆可穿 67
男錶ar 67
皮具@@ 67
簡版@@ 67
精梳純棉 67
純鈦@@ 67
紙巾 67
絕美@@ 67
緩@@ 67
緩衝@@ 67
繡 67
置物柜@@ 67
翡翠玉@@ 67
耐衝擊@@ 67
膝@@ 67
膝上@@ 67
色紙 67
艾瑪@@ 67
芭蕾舞@@ 67
菈@@ 67
蓋巾@@ 67
薄型@@ 67
蘭花@@ 67
虛@@ 67
蝦皮優選 67
調情@@ 67
調料架@@ 67
護套 67
路由器@@ 67
踝靴 67
躲@@ 67
車標@@ 67
車載手機支架@@ 67
輪轂@@ 67
轉盤@@ 67
透氣吸汗@@ 67
連 67
過濾 67
金士頓 67
釣竿 67
鋁圈 67
鋼鐵俠@@ 67
鎢鋼@@ 67
鐲 67
防水防曬@@ 67
防水防滑@@ 67
防踢被 67
隔熱 67
雙眼皮@@ 67
靠背椅子@@ 67
韓劇 67
韓劇@@ 67
頭燈@@ 67
飯廳@@ 67
餅乾鞋 67
馬車 67
骷髏頭 67
高幫鞋 67
鬆糕@@ 67
鯊魚 67
麻 67
黑檀@@ 67
黑眼圈@@ 67
aape 66
ae@@ 66
alpha 66
amp 66
armani阿曼尼@@ 66
ath 66
bigbang 66
chanel女包 66
dickies@@ 66
dress 66
garden 66
girls 66
gp@@ 66
han 66
koso 66
lan 66
las@@ 66
ler 66
lulu@@ 66
maserati 66
mega 66
mio 66
off@@ 66
opp@@ 66
ou 66
pretty 66
puma彪馬@@ 66
rider 66
sisley 66
sol 66
swift 66
tsu@@ 66
vip 66
wal@@ 66
wr 66
young 66
ー 66
三角褲@@ 66
三針@@ 66
上鋪@@ 66
中大@@ 66
中筒襪@@ 66
主打@@ 66
五折@@ 66
五星@@ 66
代購商城 66
佰@@ 66
便利店@@ 66
信用卡夾 66
內褲女@@ 66
全車@@ 66
冰機 66
凱莉@@ 66
分析 66
刊@@ 66
動物園 66
卡拉@@ 66
厚棉@@ 66
原文書 66
原木 66
可加@@ 66
命 66
咖啡店@@ 66
咖啡桌@@ 66
固定 66
國王@@ 66
塑身衣@@ 66
墊腳@@ 66
墨綠色@@ 66
大戰 66
大靠背@@ 66
奇奇蒂蒂@@ 66
奇幻@@ 66
奢華 66
奶泡@@ 66
家居裝飾@@ 66
寶寶鞋 66
尊 66
小樣@@ 66
小蒼蘭@@ 66
尖端 66
工業級@@ 66
工程車 66
工裝 66
巨無霸 66
干果@@ 66
床裙@@ 66
廣場舞@@ 66
延時@@ 66
心動@@ 66
快感 66
快餐@@ 66
扁平@@ 66
手做@@ 66
手燈 66
指南 66
換季@@ 66
改造@@ 66
攻略 66
教育 66
斗櫃 66
新款潮流@@ 66
日曆 66
昂@@ 66
昆@@ 66
時尚大氣@@ 66
果醬@@ 66
棚 66
機打@@ 66
正常 66
氣質時尚@@ 66
水平@@ 66
汽修@@ 66
汽車內飾@@ 66
油壓@@ 66
法國代購 66
洗發@@ 66
消毒 66
深色@@ 66
滿意寶寶@@ 66
演出服 66
潮流休閒@@ 66
火爆款@@ 66
煎餅@@ 66
煙燻@@ 66
煤@@ 66
煥白@@ 66
熱熔@@ 66
熱銷新品 66
牛仔裙@@ 66
特價優惠 66
特價秒殺 66
玻尿酸保濕@@ 66
甲油膠@@ 66
申@@ 66
畢@@ 66
發帶@@ 66
發熱衣 66
皆可@@ 66
碳粉匣 66
禮物盒 66
秋季新款韓版@@ 66
究極@@ 66
空氣劉海@@ 66
等身抱枕 66
簡約現代實木@@ 66
米桶@@ 66
純銀針@@ 66
紙箱@@ 66
紙膠帶@@ 66
網紗拼接@@ 66
繫@@ 66
續@@ 66
背光@@ 66
舞會@@ 66
花蓮@@ 66
莓 66
菩提@@ 66
蓄@@ 66
號碼@@ 66
螞蟻@@ 66
衛生間置物架@@ 66
表演服 66
裝潢 66
觸感@@ 66
觸控 66
調味罐@@ 66
貼花@@ 66
超商免運 66
輕量慢跑鞋 66
软@@ 66
返@@ 66
速出 66
運動跑鞋 66
運動鞋休閒鞋@@ 66
遮臉@@ 66
酷炫@@ 66
鐵製@@ 66
镜@@ 66
防窺@@ 66
限宅配 66
陰蒂@@ 66
隔層 66
離子夾 66
青年男士@@ 66
頭型@@ 66
顯白@@ 66
香體@@ 66
騰 66
鴨舌@@ 66
鹿皮@@ 66
黑勾 66
黑科技@@ 66
黑面@@ 66
apm 65
ation 65
ato@@ 65
buy@@ 65
color@@ 65
colors 65
del@@ 65
ek 65
fg@@ 65
glow 65
grace 65
hp@@ 65
kymco 65
martens 65
momo 65
mw 65
nf 65
palette 65
panasonic國際牌 65
qq 65
sin@@ 65
sport@@ 65
sta 65
steam@@ 65
s手機殼@@ 65
tennis 65
trail 65
um@@ 65
xxxl碼 65
your 65
し@@ 65
三段@@ 65
不分售 65
丞@@ 65
两@@ 65
主食罐 65
五分袖 65
今天@@ 65
介 65
佛經@@ 65
便簽@@ 65
保存良好 65
光陽@@ 65
免稅@@ 65
免運現貨 65
兒童自行車 65
全包圍@@ 65
全明星 65
兩折錢包 65
切肉@@ 65
加深@@ 65
加購 65
努@@ 65
十一@@ 65
半拖@@ 65
印花短袖 65
原廠電池 65
原料@@ 65
叢林@@ 65
咪 65
哇@@ 65
單字@@ 65
單邊@@ 65
單鞋女 65
喲 65
噴霧器@@ 65
垂感@@ 65
士兵 65
壹灣@@ 65
大眼仔 65
大花@@ 65
天堂 65
奢侈@@ 65
奧 65
奧迪@@ 65
奴@@ 65
好品質 65
媽媽裝@@ 65
學生鞋@@ 65
專櫃貨 65
對開@@ 65
小惡魔@@ 65
小精靈 65
小飛象@@ 65
尺寸m 65
屑@@ 65
巖@@ 65
已保留 65
布書 65
席子 65
平角內褲 65
床頭 65
度假風@@ 65
庫存 65
庫里 65
廷@@ 65
後座@@ 65
復古老爹鞋 65
恐@@ 65
憶@@ 65
打底衫女@@ 65
扣帶@@ 65
抗過敏@@ 65
拉鏈零錢包 65
拐杖@@ 65
捕魚@@ 65
握力@@ 65
摩托車頭盔@@ 65
摸@@ 65
擦拭@@ 65
故@@ 65
數位小兔 65
新北@@ 65
新款現貨@@ 65
施巴 65
日劇 65
春季新款 65
晶晶 65
晶片 65
會社 65
李 65
柑@@ 65
桔梗@@ 65
棠@@ 65
榨@@ 65
榨汁機 65
機械男錶 65
檯@@ 65
正品nike 65
母親節 65
毫安 65
沖繩@@ 65
洗卸@@ 65
洛 65
浴室置物架 65
清理@@ 65
測 65
湛@@ 65
滿千折百 65
烏克麗麗 65
焗@@ 65
無人機@@ 65
然 65
熊本熊@@ 65
熱銷中 65
燈罩@@ 65
燉鍋@@ 65
牙籤@@ 65
珍藏 65
男款短t 65
町@@ 65
畫框@@ 65
白鋼@@ 65
百搭上衣 65
百萬@@ 65
盘@@ 65
短袖polo衫@@ 65
破損@@ 65
礼@@ 65
社團 65
福特@@ 65
第六@@ 65
範思哲 65
籤@@ 65
粘鉤@@ 65
精華霜 65
紀念 65
紙尿褲 65
絲光@@ 65
線組 65
纯@@ 65
羽絨棉@@ 65
翻蓋式@@ 65
老花鏡@@ 65
老闆 65
聖誕節禮物 65
聯盟@@ 65
肚臍@@ 65
育兒@@ 65
膳魔師 65
菁 65
蜘蛛人@@ 65
行車@@ 65
襪套@@ 65
訂購@@ 65
計劃@@ 65
調料盒@@ 65
請看@@ 65
豬豬@@ 65
貝貝@@ 65
超讚 65
跆拳道@@ 65
車燈 65
軟墊@@ 65
輕透@@ 65
辭典 65
速度@@ 65
連身 65
金魚@@ 65
釣蝦@@ 65
鈴鐺 65
鋅@@ 65
鐵藝實木@@ 65
關鍵@@ 65
防水袋 65
限時秒殺 65
際@@ 65
雪地靴 65
電波@@ 65
電流@@ 65
電磁爐 65
露腰@@ 65
韌@@ 65
韓版氣質@@ 65
願 65
顯瘦修身@@ 65
風情@@ 65
風暴@@ 65
飯店 65
飾品盒 65
馬克 65
魚骨@@ 65
ann@@ 64
bask 64
bts防彈少年團 64
cherry 64
denim 64
edp 64
gle 64
gore 64
ina@@ 64
iz 64
jb 64
kiki@@ 64
makita 64
ment@@ 64
mn@@ 64
moon@@ 64
nex@@ 64
op 64
pilot 64
republic 64
rgb@@ 64
salvatore 64
sta@@ 64
stussy@@ 64
sunny 64
sym 64
tas@@ 64
tat@@ 64
ut 64
velvet 64
vios 64
wheels 64
zippo@@ 64
zz 64
ㄚ@@ 64
一件代發 64
一包@@ 64
一字扣帶@@ 64
一條 64
三孔@@ 64
三通@@ 64
不拆賣 64
不鏽鋼帶@@ 64
丫@@ 64
串標 64
之夜 64
交叉 64
什麼@@ 64
休閒短袖 64
便宜出售 64
保潔墊 64
保險櫃@@ 64
倫敦 64
健身運動@@ 64
偶像夢幻祭 64
儀表@@ 64
內里@@ 64
全民@@ 64
全球購@@ 64
兩 64
公牛@@ 64
凉@@ 64
分子@@ 64
初音 64
加厚款@@ 64
北歐茶幾@@ 64
午睡枕 64
半袖體恤@@ 64
卡通兒童@@ 64
可坐可躺@@ 64
可愛貓咪@@ 64
名牌 64
啾@@ 64
國小@@ 64
地攤@@ 64
地柜 64
坐姿 64
壁飾 64
壽 64
大擺@@ 64
天絲 64
夾趾@@ 64
奇奇 64
好物推薦 64
如意 64
威力@@ 64
學測@@ 64
宝@@ 64
宮廷風@@ 64
家用辦公@@ 64
實拍圖 64
寬度 64
寬鬆百搭@@ 64
小黑裙@@ 64
尾戒 64
屎@@ 64
川久保玲 64
帖 64
席夢思@@ 64
平價 64
平日@@ 64
年代@@ 64
情侶對@@ 64
情緒@@ 64
手提單肩@@ 64
技嘉 64
排氣@@ 64
排線 64
擦拭布 64
擺 64
收藏品 64
敗@@ 64
整體@@ 64
文藝 64
新貨@@ 64
时@@ 64
昱@@ 64
時尚款 64
普洱茶@@ 64
晶片@@ 64
書架置物架@@ 64
杖 64
束口袋@@ 64
松鼠 64
棉線@@ 64
極度@@ 64
機械 64
橡膠 64
櫥 64
歐式簡約@@ 64
正韓上衣 64
毛衣外套 64
法蘭絨 64
洋芋片 64
洗護@@ 64
浴衣@@ 64
海棉@@ 64
海邊 64
游泳圈 64
游泳池@@ 64
瀏海夾 64
瀝@@ 64
火山泥@@ 64
熬夜@@ 64
燈管 64
狐貍@@ 64
猿@@ 64
玟@@ 64
珍妮@@ 64
現代簡約北歐@@ 64
瑕疵 64
男短t 64
百搭單品 64
皿 64
眼線@@ 64
石膏@@ 64
石英男錶@@ 64
祛斑@@ 64
秋冬保暖@@ 64
穗@@ 64
童裝男童@@ 64
第四@@ 64
範 64
篇@@ 64
紅花@@ 64
紋眉@@ 64
素t@@ 64
細肩帶 64
組合套裝@@ 64
絨布 64
罪@@ 64
美學@@ 64
美日@@ 64
老 64
聖誕樹 64
聲寶@@ 64
職場@@ 64
聽 64
肖@@ 64
肝@@ 64
能力@@ 64
腳趾@@ 64
船襪@@ 64
范斯 64
蒂芙尼@@ 64
蒼蠅@@ 64
蓋子 64
藕@@ 64
蛇皮@@ 64
螢幕貼 64
衛生間 64
衛生間廁所@@ 64
衣架落地@@ 64
裤 64
訂購 64
議價 64
護手霜@@ 64
護色@@ 64
货@@ 64
质@@ 64
足球鞋 64
輔助器@@ 64
輪滑@@ 64
轉接頭@@ 64
連身短褲 64
鋼鐵人@@ 64
閃光燈@@ 64
门@@ 64
隨身 64
集點@@ 64
雙環@@ 64
雲端@@ 64
雷神@@ 64
電冰箱 64
電吉他@@ 64
鞋架子 64
頭繩@@ 64
飛碟@@ 64
食玩@@ 64
養生 64
骨瓷@@ 64
高跟鞋女@@ 64
黃水晶@@ 64
齒 64
app 63
arc 63
back 63
bit@@ 63
cars 63
costco@@ 63
fire 63
gaming 63
lativ@@ 63
laura 63
micro@@ 63
qposket 63
rel@@ 63
sal@@ 63
shi 63
smith@@ 63
solo 63
thunder 63
togo@@ 63
uc 63
vault 63
vcd 63
wireless 63
yes 63
ッ@@ 63
一本@@ 63
七 63
三洋 63
上班族 63
丶@@ 63
之王 63
二手家具 63
二手精品 63
五月@@ 63
代步車 63
全場特價 63
出水@@ 63
出游@@ 63
分裝盒 63
刷具組 63
加工@@ 63
加送@@ 63
勇者@@ 63
化妝 63
北京@@ 63
升降轉椅@@ 63
半自動@@ 63
博美@@ 63
印象@@ 63
卸甲@@ 63
原色 63
可撕@@ 63
可肩背@@ 63
吃 63
呵護@@ 63
售完@@ 63
噴 63
噴槍 63
基地 63
夏被@@ 63
多功能折疊@@ 63
大馬 63
太空灰 63
套裝男@@ 63
女性 63
女生手錶 63
妻@@ 63
媽媽包@@ 63
嬰兒車 63
官 63
定製@@ 63
宝宝@@ 63
家居飾品@@ 63
寬松直筒@@ 63
封口機 63
封面 63
小叮噹@@ 63
帆船@@ 63
帥 63
平底涼鞋 63
底片 63
座充 63
廣角 63
彪馬puma 63
復仇者聯盟@@ 63
微喇叭@@ 63
心理學 63
想 63
懸浮@@ 63
打蛋@@ 63
托特@@ 63
技 63
折優惠起 63
披@@ 63
抽氣@@ 63
指 63
掃地機器人@@ 63
掃把@@ 63
摩卡@@ 63
摩洛哥@@ 63
改變@@ 63
散粉@@ 63
敬酒服@@ 63
斬@@ 63
新品下殺@@ 63
新生嬰兒@@ 63
时尚 63
春季新款韓版@@ 63
春秋季新款@@ 63
是 63
時尚百搭短袖 63
智能手環@@ 63
曦@@ 63
柜臺@@ 63
桂格@@ 63
桑拿@@ 63
棒壘@@ 63
極淨@@ 63
極潤@@ 63
楷@@ 63
樂團 63
毛領@@ 63
氣墊鞋@@ 63
洗澡桶@@ 63
洛麗塔@@ 63
活塞@@ 63
淋浴房@@ 63
淋雨@@ 63
淘寶@@ 63
清洗 63
溜溜車 63
满 63
漂浮@@ 63
漿 63
澆花@@ 63
無蓋@@ 63
無鋼圈 63
熱水器@@ 63
爺 63
牛仔吊帶褲 63
牛仔短裙 63
物語@@ 63
現貨新款@@ 63
生技 63
男朋友@@ 63
男襪 63
發圈@@ 63
發燒@@ 63
發票@@ 63
百樂 63
皮帶扣@@ 63
盛 63
盥洗包 63
睡墊@@ 63
短踢 63
神器家用@@ 63
福字@@ 63
禮卷 63
立體造型@@ 63
笔@@ 63
第三彈 63
簡 63
簡易經濟型@@ 63
簡約百搭 63
精品屋 63
素材@@ 63
絞肉@@ 63
綁 63
線香@@ 63
细@@ 63
美國進口 63
肌密@@ 63
肚子@@ 63
脫毛膏@@ 63
腰凳@@ 63
腳踝@@ 63
艙@@ 63
芥@@ 63
花童@@ 63
荔枝紋牛皮 63
華為mate 63
蘆@@ 63
蜜蜂 63
蟻@@ 63
補漏@@ 63
裡 63
西門@@ 63
西餐廳@@ 63
訓@@ 63
貓飼料 63
貳@@ 63
越 63
踏板車@@ 63
軟軟 63
較@@ 63
輕便透氣@@ 63
輕巧 63
轉向@@ 63
農場@@ 63
通道@@ 63
那 63
都有@@ 63
針線@@ 63
鈦金@@ 63
鋪棉 63
鍍膜 63
鐵三角 63
闊@@ 63
防塵袋 63
阿迪達斯adidas 63
附cd 63
雷姆 63
韓版兒童@@ 63
頌@@ 63
餐桌椅組合 63
高亮@@ 63
高約 63
髮廊@@ 63
魚子醬 63
黑粉@@ 63
age@@ 62
aq@@ 62
bas@@ 62
bd@@ 62
bj 62
carbon 62
cartier@@ 62
converse@@ 62
coo@@ 62
c型@@ 62
doll 62
fg 62
fragment 62
friends@@ 62
ger@@ 62
guc@@ 62
gucci長夾 62
gw 62
g記憶卡 62
h扣@@ 62
il 62
ion 62
kawasaki 62
kin 62
kiss@@ 62
kor@@ 62
lar@@ 62
lv男女@@ 62
mont 62
only 62
pal@@ 62
pazzo@@ 62
pk@@ 62
pro手機殼@@ 62
ryz 62
t恤女短袖@@ 62
t恤短袖@@ 62
u凸@@ 62
wm 62
yd 62
ク@@ 62
一字拖 62
一片@@ 62
一隻 62
三款@@ 62
不凋花 62
不拆售 62
五件組 62
五斗柜@@ 62
亨@@ 62
京都@@ 62
亮采@@ 62
今年@@ 62
仰臥起坐@@ 62
伴 62
伽@@ 62
佳人 62
依依@@ 62
係@@ 62
保溼@@ 62
保養品 62
修腳@@ 62
倒掛@@ 62
假兩件 62
偏光太陽鏡@@ 62
側開@@ 62
傳輸@@ 62
允@@ 62
內衣褲@@ 62
全新原廠@@ 62
全真皮@@ 62
全配 62
公路車 62
其 62
冰沙@@ 62
冰淇淋 62
凝霜 62
切絲@@ 62
刮鬍刀 62
化妝刷 62
化妝台@@ 62
千 62
半盔@@ 62
印花短袖@@ 62
原料 62
原生@@ 62
古早味@@ 62
可加購@@ 62
可搭@@ 62
可搭配@@ 62
可改@@ 62
可超取@@ 62
史萊姆 62
同 62
告@@ 62
告白@@ 62
呼@@ 62
哈衣 62
哺乳衣 62
問 62
喉@@ 62
喬治@@ 62
四季 62
堅果 62
墨水匣 62
夏裝新款韓版@@ 62
外套m 62
多效@@ 62
大顆粒@@ 62
奧迪 62
奪@@ 62
女生上衣 62
妳 62
威化@@ 62
娛樂@@ 62
娟 62
存 62
學生情侶@@ 62
安撫奶嘴 62
定制logo@@ 62
家用折疊@@ 62
寫字板@@ 62
專業代購 62
對錶 62
小心@@ 62
小怪獸 62
小獅王辛巴 62
屏東@@ 62
巢@@ 62
工具套裝 62
巫@@ 62
平口 62
平民版 62
平頭@@ 62
廚房收納 62
廚房置物架 62
御守 62
成人專區 62
截@@ 62
手創@@ 62
手拉車@@ 62
手拎包 62
手機吊飾 62
手游@@ 62
手腕包 62
扣環 62
抽紙盒 62
拉鏈錢包@@ 62
掛壁@@ 62
推薦款 62
提拉@@ 62
搖控@@ 62
摺疊 62
支援 62
收縮毛孔 62
數量@@ 62
新款休閑@@ 62
新款網紅@@ 62
春夏新品@@ 62
暖 62
條碼@@ 62
極度乾燥@@ 62
榨汁機@@ 62
橘紅 62
欧@@ 62
歐美性感@@ 62
毛毛 62
毛線 62
水杯子 62
泳帽 62
洗漱包@@ 62
清爽型 62
湯碗 62
滑行@@ 62
漱口水 62
灰綠 62
灶臺@@ 62
热销@@ 62
熏香@@ 62
爬蟲@@ 62
牛軋糖@@ 62
物品 62
狂歡大促銷 62
狼牙@@ 62
猜@@ 62
玫瑰金色@@ 62
玻尿酸 62
玻璃貼紙@@ 62
珍藏版 62
瓜子@@ 62
甜甜圈 62
男夾 62
療癒小物 62
發射器 62
皮革材質 62
直郵 62
砲@@ 62
碳纖 62
磨砂皮@@ 62
祝@@ 62
禮品盒@@ 62
穴@@ 62
空瓶 62
窗紗@@ 62
立柱@@ 62
節慶@@ 62
粥 62
純銀針 62
素食@@ 62
結構@@ 62
網購 62
綴@@ 62
縷空@@ 62
羊羔絨@@ 62
美國直郵 62
美臀@@ 62
股東會紀念品 62
胸花@@ 62
臺式機@@ 62
艦 62
花邊 62
芷@@ 62
芽 62
英寸 62
蒲@@ 62
藍芽耳機@@ 62
蘋果手機@@ 62
蘿卜@@ 62
蝶 62
襯衫上衣 62
護欄 62
賽琳@@ 62
超小@@ 62
軍綠色 62
轉接器 62
農場 62
逆齡@@ 62
進門口@@ 62
遊戲書 62
酵@@ 62
量大@@ 62
金冠@@ 62
金融@@ 62
鋼針 62
鑚@@ 62
鑽耳環 62
長頸鹿@@ 62
阪@@ 62
防水台@@ 62
陀@@ 62
陳冠希 62
隔斷柜@@ 62
雜貨館 62
電吉他 62
霓@@ 62
韓款@@ 62
頂級原單 62
項 62
餐車@@ 62
馬牌 62
駕車@@ 62
高空@@ 62
鬍子 62
魚缸 62
鱼@@ 62
鳳梨 62
鸚鵡 62
麥克@@ 62
黑標 62
齡 62
ada 61
asa@@ 61
bebe@@ 61
bobo@@ 61
bx 61
cle@@ 61
daybreak 61
deluxe 61
disruptor 61
giant 61
homme 61
jan@@ 61
lip@@ 61
liu 61
many 61
mks@@ 61
moncler 61
perfect 61
plein@@ 61
pokémon 61
poli 61
porter@@ 61
rosherun 61
sab@@ 61
set@@ 61
stage 61
stuart 61
thea 61
tsum@@ 61
wtaps 61
一體機 61
上身@@ 61
不掉毛@@ 61
丟@@ 61
中型 61
中性筆@@ 61
中藥@@ 61
二手衣@@ 61
交換禮物@@ 61
亮眼@@ 61
介@@ 61
休閑運動鞋@@ 61
保冰@@ 61
保平安 61
保時捷@@ 61
保暖衣 61
儲水@@ 61
光纖@@ 61
全新黑色@@ 61
公主裙 61
公事包@@ 61
冰晶@@ 61
出清特賣 61
刀叉@@ 61
化妝盒 61
化學 61
北 61
午夜@@ 61
厚實@@ 61
古馳gucci@@ 61
可機洗@@ 61
可發貨到付款 61
合金車 61
吸血鬼@@ 61
咖哩 61
咖啡機@@ 61
咬咬@@ 61
品木宣言 61
喬登 61
單身@@ 61
國民@@ 61
地圖@@ 61
地瓜@@ 61
坎@@ 61
垃圾桶家用@@ 61
夏涼被@@ 61
大海@@ 61
大碼女裝 61
大耳狗 61
女生配件 61
好禮 61
嬌蘭 61
學院 61
寬邊@@ 61
對戒 61
小吃 61
小錢包 61
小馬 61
少女時代 61
工具包 61
希臘@@ 61
府@@ 61
強磁@@ 61
彈弓@@ 61
微波爐架@@ 61
性感情趣內衣@@ 61
感應燈 61
慾@@ 61
手圍 61
手槍@@ 61
拉杆@@ 61
拉繩@@ 61
按鍵 61
掌 61
收納桶 61
改色@@ 61
效期@@ 61
效果器 61
新生兒寶寶@@ 61
日本精品 61
智慧型手機 61
書架簡易@@ 61
朋@@ 61
木耳@@ 61
果果@@ 61
格蘭@@ 61
桂圓@@ 61
桌曆 61
棘輪@@ 61
業務@@ 61
概要 61
檜木@@ 61
歲小孩@@ 61
毛器@@ 61
毛絨玩具 61
氟@@ 61
污 61
汽車內@@ 61
沖 61
沖洗@@ 61
泛@@ 61
流浪@@ 61
浴室柜組合@@ 61
浴盆 61
清淨@@ 61
減震 61
演奏@@ 61
漫步@@ 61
潮流時尚 61
片入 61
牙簽@@ 61
牛仔寬褲 61
牛皮錢包 61
玫瑰粉 61
玻璃貼膜 61
瑜珈 61
環境@@ 61
瓣@@ 61
生產@@ 61
男女可穿 61
登山鞋 61
益 61
直送@@ 61
碳化@@ 61
窗簾成品@@ 61
簾子@@ 61
粉紅豬小妹 61
粘貼式@@ 61
精品女鞋@@ 61
紀念品@@ 61
紓困振興 61
純銀戒指 61
紙杯@@ 61
紙膠帶分裝 61
紙袋@@ 61
網球鞋 61
翹臀@@ 61
耐高溫 61
耳勾 61
耳塞式@@ 61
背夾@@ 61
膠鞋@@ 61
膩 61
臥室餐廳@@ 61
自動扣@@ 61
航拍@@ 61
蒙口@@ 61
蔻馳新款@@ 61
藍牙音箱 61
蘋果x手機殼@@ 61
蜥蜴@@ 61
螺 61
蟑螂@@ 61
蠟線@@ 61
行李包@@ 61
襯衫外套 61
親 61
計畫 61
試題@@ 61
護目鏡@@ 61
豐盈@@ 61
象印 61
費雪@@ 61
起泡@@ 61
超能@@ 61
路飛@@ 61
跳跳虎 61
蹲@@ 61
車衣 61
軟糖@@ 61
透氣舒適 61
遮蓋@@ 61
還原@@ 61
都可以@@ 61
金牌@@ 61
銷售 61
鎧@@ 61
長袖包屁衣 61
防彈少年團@@ 61
防風防水@@ 61
陰陽 61
隨便@@ 61
雜貨鋪@@ 61
零碼 61
項鏈女@@ 61
顯示卡 61
體重計 61
高度 61
高手 61
高音質@@ 61
髮梳 61
鬚@@ 61
魚口@@ 61
魚尾裙 61
鴿@@ 61
黑人@@ 61
龍蝦@@ 61
adidas阿迪達斯 60
airpods保護套 60
alo@@ 60
aro@@ 60
bathing 60
bt@@ 60
can 60
code 60
cosplay服裝@@ 60
cou@@ 60
cushion 60
dio 60
don 60
eagle 60
ford@@ 60
god@@ 60
hco@@ 60
hyperdunk 60
jill 60
jojo 60
lv單肩包 60
lv男包 60
lv錢包 60
miumiu@@ 60
panasonic@@ 60
sandisk 60
ster@@ 60
tz 60
well 60
wil@@ 60
く@@ 60
ロ@@ 60
不起@@ 60
之心 60
二用@@ 60
休閒運動鞋@@ 60
伶@@ 60
偏光墨鏡 60
充電傳輸線 60
充電頭 60
光動能@@ 60
內含@@ 60
全新正貨 60
全金屬@@ 60
前列腺@@ 60
加拿大 60
勢 60
华@@ 60
南 60
印花字母@@ 60
卷紙@@ 60
卷邊@@ 60
厚度 60
原始@@ 60
參考 60
古馳gucci 60
古馳皮帶 60
可擦@@ 60
商務正裝@@ 60
喜帖 60
單肩斜跨包@@ 60
單門@@ 60
在家@@ 60
塑形@@ 60
墻畫@@ 60
夏季純棉@@ 60
多人@@ 60
套腳鞋 60
婚宴@@ 60
婷婷@@ 60
家居服套裝 60
家用實木@@ 60
實務 60
寶盒 60
專屬下標區 60
專賣店@@ 60
小冰箱@@ 60
小站 60
小黑板@@ 60
少量現貨 60
居家裝飾@@ 60
崔@@ 60
州 60
巷 60
帶麥@@ 60
干燥@@ 60
平安扣@@ 60
怪物@@ 60
愛迪達三葉草@@ 60
懶人沙發榻榻米@@ 60
戰國@@ 60
戰神@@ 60
手持風扇 60
拉麵 60
挖肩@@ 60
捷運@@ 60
攪拌機 60
收副乳@@ 60
收單 60
文具盒 60
文具盒@@ 60
文藝復古@@ 60
新上市 60
新款夏@@ 60
日本正品 60
日本空運 60
春日@@ 60
棉被 60
樂天@@ 60
櫥櫃 60
正品公司貨 60
此款@@ 60
死皮@@ 60
毫@@ 60
汽車貼紙 60
沙漏@@ 60
油壺@@ 60
泡茶 60
洞洞鞋@@ 60
淨水器 60
漱口杯@@ 60
澡@@ 60
濱@@ 60
為 60
無痛@@ 60
無線遙控@@ 60
煤氣@@ 60
照相機@@ 60
熱賣中@@ 60
牛皮手提包 60
特種兵@@ 60
珪藻土@@ 60
琦 60
琪琪@@ 60
男士手拿包 60
男款手錶 60
痘印@@ 60
發聲@@ 60
直發@@ 60
知識@@ 60
石英女錶 60
石英腕錶@@ 60
碧璽 60
私房@@ 60
空頂@@ 60
第三版 60
糧 60
索 60
絡@@ 60
網兜@@ 60
網紅同款 60
縣@@ 60
總裁@@ 60
織 60
羅馬鞋 60
翻譯@@ 60
老婆@@ 60
耗材 60
耳機麥克風 60
耳飾品 60
背心裙@@ 60
腕帶 60
膩@@ 60
臺灣 60
舒適百搭@@ 60
船型襪 60
英吋 60
英語 60
萊 60
葉子 60
蓬蓬裙 60
藤 60
螺絲刀 60
街頭潮流@@ 60
袖套@@ 60
複製@@ 60
襪子女@@ 60
西藏@@ 60
訊 60
託@@ 60
設計感小眾@@ 60
護照@@ 60
變形金剛@@ 60
豬肉@@ 60
貓玩具 60
購回 60
走心@@ 60
車載香水@@ 60
轉售@@ 60
轉蛋@@ 60
辦公桌面@@ 60
边@@ 60
道路@@ 60
選物 60
醜@@ 60
針織衣 60
鈣 60
鈦合金@@ 60
鑽頭 60
關注@@ 60
防偽@@ 60
防塵塞 60
防摔保護殼 60
防撞條 60
防水尼龍@@ 60
防潮 60
防火@@ 60
防走失@@ 60
集線器 60
雙釦@@ 60
電信@@ 60
電子秤@@ 60
電暖@@ 60
鞋店 60
韓國飾品 60
音樂盒 60
顯瘦遮肚@@ 60
飲品 60
餐桌椅 60
高鐵@@ 60
鮭魚@@ 60
鳥巢@@ 60
alphabounce 59
ant 59
cer@@ 59
ck手錶@@ 59
ck皮帶 59
cotton 59
crazy 59
cre@@ 59
cross 59
dry 59
ee@@ 59
eu@@ 59
eye@@ 59
ez 59
fil@@ 59
flux 59
fuji@@ 59
hifi@@ 59
im 59
just@@ 59
ks@@ 59
legend 59
lego樂高 59
lv包 59
mal@@ 59
mia 59
mit台灣製 59
nat@@ 59
pad@@ 59
pixel 59
playboy 59
social 59
space@@ 59
sportswear 59
tomica@@ 59
uemura 59
vic@@ 59
vjr 59
whoo 59
wm@@ 59
wy 59
yaris 59
zk 59
フ@@ 59
三宅一生@@ 59
三折錢包 59
三眼日曆@@ 59
三陽 59
主持@@ 59
主義 59
乃 59
乾燥花束 59
二手品 59
五月天 59
供燈@@ 59
便利店 59
倍思@@ 59
倩碧 59
值得@@ 59
偽娘@@ 59
免郵 59
八 59
冰冰@@ 59
出售@@ 59
出版@@ 59
刷牙@@ 59
加強版 59
北歐小戶型@@ 59
十年@@ 59
卡哇伊@@ 59
卡車@@ 59
卡通圖案@@ 59
印花短袖t恤 59
厚磅@@ 59
參考@@ 59
另類@@ 59
可愛創意@@ 59
合奏明星 59
周 59
四月@@ 59
四輪滑板@@ 59
圓盤 59
夜店 59
夜店性感@@ 59
大和@@ 59
套頭衫 59
奧運 59
子母包@@ 59
客訂賣場 59
密碼鎖 59
寫生@@ 59
寵物玩具 59
寶寶小孩@@ 59
專科@@ 59
尋寶@@ 59
小仙女@@ 59
小晴 59
小椰子@@ 59
小羊@@ 59
工具車 59
工廠直營 59
巴洛克@@ 59
市價 59
市場 59
帽tee 59
幫 59
序@@ 59
序號 59
復古懷舊@@ 59
微彈@@ 59
快速發貨 59
怎麼@@ 59
恰@@ 59
愛情 59
成套@@ 59
房間臥室@@ 59
手工藝@@ 59
抓夾 59
抱枕靠墊@@ 59
拿鐵@@ 59
排氣管@@ 59
換鞋@@ 59
摘@@ 59
擴充 59
攀爬@@ 59
攤 59
支架式@@ 59
數據@@ 59
新款夏裝@@ 59
新潮@@ 59
昊@@ 59
時尚修身@@ 59
時尚款@@ 59
時尚運動@@ 59
晨 59
最低價@@ 59
有保固 59
条@@ 59
杯袋 59
桌球@@ 59
梅子@@ 59
永生@@ 59
汽車坐墊@@ 59
沙發套罩@@ 59
泡溫泉@@ 59
注水@@ 59
洋氣 59
洗澡 59
浴室柜@@ 59
浴巾架@@ 59
海外限定 59
淡水@@ 59
淨膚@@ 59
湊@@ 59
濕 59
火車 59
無人機 59
無線wifi@@ 59
無鋼圈內衣 59
照片墻@@ 59
爽膚水 59
犬用@@ 59
獲@@ 59
理想@@ 59
琉璃 59
瑜 59
生活用品@@ 59
生理@@ 59
男女通用款 59
男生休閒@@ 59
當天@@ 59
的賣場 59
直角@@ 59
眉筆@@ 59
真愛@@ 59
矢@@ 59
砂鍋@@ 59
票夾 59
秋季新款 59
穴 59
窗貼 59
立領外套 59
第一彈 59
簡約現代小戶型@@ 59
紅外@@ 59
紅心@@ 59
索隆@@ 59
組裝模型 59
綢緞@@ 59
織布@@ 59
繼@@ 59
置物架子@@ 59
置物箱 59
美妝蛋 59
肥皂盒 59
脂肪@@ 59
自來水@@ 59
自動傘 59
自動機械手錶 59
臺式電腦桌@@ 59
舒敏@@ 59
花式@@ 59
花鳥@@ 59
萬事@@ 59
蓬松@@ 59
蕾絲邊@@ 59
薰香@@ 59
藍紅 59
藍芽音響 59
衣柜 59
裝扮 59
褲頭@@ 59
訂單滿 59
試衣鏡@@ 59
識別證 59
購物包@@ 59
超質感@@ 59
趣味 59
軍綠色@@ 59
軸承@@ 59
轎車@@ 59
透氣運動鞋 59
針織帽 59
鈕扣 59
鈦鋼 59
錐形@@ 59
鏈帶包 59
钢@@ 59
長皮夾 59
長褲套裝 59
門檻@@ 59
防曬遮陽@@ 59
防水手錶 59
隨便賣 59
雙頻@@ 59
雨披@@ 59
零錢 59
電子琴@@ 59
電熱水壺@@ 59
電腦臺式桌@@ 59
電鉆@@ 59
頭戴式 59
頻 59
題庫@@ 59
顏色隨機出貨 59
餐券 59
饅頭 59
首飾收納盒@@ 59
馬丁靴女@@ 59
駿@@ 59
高中生@@ 59
高幫鞋@@ 59
鬆緊 59
authentic 58
canvas 58
cbr 58
costco代購 58
ei@@ 58
elle 58
ey@@ 58
field 58
human 58
iphonexs 58
jm@@ 58
kat@@ 58
ker 58
loewe@@ 58
lomo@@ 58
lq 58
mk女包 58
nine 58
nn@@ 58
ons 58
ple@@ 58
princess 58
prophere 58
shoulder 58
smart@@ 58
tai@@ 58
tank 58
tin@@ 58
track 58
u領@@ 58
vivox 58
west 58
wf 58
ww 58
xin 58
xxl@@ 58
ye 58
zd 58
り@@ 58
ん@@ 58
プ@@ 58
一支 58
三眼計時 58
三門@@ 58
不掉@@ 58
九 58
休閒男鞋 58
低音炮 58
佩 58
信封 58
優格@@ 58
光盤@@ 58
克蘭詩 58
內六角@@ 58
內徑 58
內衣收納盒@@ 58
內飾改裝@@ 58
全國@@ 58
全新真品@@ 58
全館滿 58
典雅 58
冰機@@ 58
冰河@@ 58
冷飲@@ 58
創見 58
加厚款 58
加大號@@ 58
十字紋 58
半月@@ 58
卷發棒@@ 58
及膝裙 58
名家@@ 58
吸塵@@ 58
咖啡桌 58
哈衣@@ 58
售完 58
唱片 58
喝水@@ 58
單槽@@ 58
單眼@@ 58
單耳@@ 58
四驅@@ 58
地區@@ 58
地獄@@ 58
垃圾袋 58
壓線@@ 58
夏普 58
大沿@@ 58
大牌 58
大腳@@ 58
天梭@@ 58
天然緬甸@@ 58
夫人@@ 58
夹@@ 58
套裝m 58
如圖@@ 58
始@@ 58
姐 58
娃娃機商品 58
嫁接睫毛@@ 58
安妮@@ 58
宮崎駿@@ 58
家生活館 58
寄送 58
寶藍色@@ 58
射燈@@ 58
小天@@ 58
小朋友 58
小牛@@ 58
小禮品@@ 58
小象@@ 58
少量@@ 58
尺寸s 58
尾牙 58
崁燈 58
左 58
平紋@@ 58
床組 58
床邊桌@@ 58
底盤 58
心理@@ 58
憲@@ 58
戰爭 58
手錶ar 58
打底 58
折疊椅 58
抽繩 58
拆 58
拖鞋男@@ 58
提醒@@ 58
擦手@@ 58
支撐 58
整理架 58
新一代@@ 58
新款男女@@ 58
新款秒殺 58
方巾@@ 58
方法 58
旅行便攜@@ 58
旅行背包@@ 58
旦@@ 58
早期 58
春秋裝@@ 58
晶透@@ 58
暖手@@ 58
暴龍@@ 58
會議桌@@ 58
板材@@ 58
枕頭包@@ 58
染色@@ 58
柚木@@ 58
棉柔@@ 58
棉褲@@ 58
楓木@@ 58
機械錶@@ 58
歐美大牌@@ 58
正版公仔 58
歲兒童@@ 58
母親節禮物 58
氣壓式@@ 58
汝@@ 58
流蘇耳環 58
浴袍 58
涼墊 58
涼席 58
淺灰@@ 58
溜溜車@@ 58
澤 58
無線藍牙音箱@@ 58
無肩帶@@ 58
煥顏@@ 58
熱賣熱搜@@ 58
牙刷架@@ 58
牛仔外套@@ 58
狂 58
狐狸 58
猴子 58
率性@@ 58
玉髓@@ 58
珠子@@ 58
現貨不必等 58
留言板@@ 58
異味 58
疤@@ 58
省電 58
短款錢包@@ 58
矮桌@@ 58
矽膠模 58
砍@@ 58
破盤@@ 58
碗碟架@@ 58
礦泉@@ 58
祝福@@ 58
窄管@@ 58
範斯 58
簡約風@@ 58
簽字筆 58
純手工 58
絕地求生@@ 58
絞@@ 58
網紗 58
網襪 58
緊身衣 58
罐裝@@ 58
羅意威 58
羽絨棉服@@ 58
耶誕節@@ 58
膩子@@ 58
臥室創意@@ 58
臻品@@ 58
萍@@ 58
落地扇@@ 58
蒸煮@@ 58
薩波 58
蘇 58
蛋捲@@ 58
蜜粉@@ 58
觀音 58
詹@@ 58
護墊 58
貓抓板@@ 58
貓砂@@ 58
貝殼包@@ 58
超商 58
足底@@ 58
跟高 58
車充@@ 58
載 58
迪士尼米奇@@ 58
逃@@ 58
速溶@@ 58
造形@@ 58
鄉 58
酒杯 58
釀@@ 58
鋼托@@ 58
鍋寶@@ 58
長髮公主 58
閃燈@@ 58
開拓者@@ 58
防水布 58
陰莖@@ 58
陵@@ 58
陽具@@ 58
隨身聽@@ 58
雙槽@@ 58
雙碟@@ 58
雙顯@@ 58
雪人@@ 58
電力@@ 58
電機 58
電腦臺式@@ 58
露露@@ 58
韓國復古@@ 58
韓國新款@@ 58
韓國製@@ 58
韓版個性@@ 58
音波@@ 58
頭戴@@ 58
领@@ 58
食譜 58
首發@@ 58
馬夾@@ 58
馬鞍@@ 58
駕車鞋@@ 58
鬆緊帶 58
鴨嘴@@ 58
鼠標墊@@ 58
adidas鞋 57
arashi 57
a貨翡翠 57
base 57
bri@@ 57
champion冠軍@@ 57
char@@ 57
diptyque 57
gra@@ 57
gucc 57
hyundai 57
ins超火的@@ 57
iw 57
jbl 57
lala@@ 57
ley 57
mama@@ 57
mel@@ 57
nn 57
nor@@ 57
og@@ 57
palace 57
party@@ 57
petit 57
pn 57
pon@@ 57
prada普拉達 57
puzzle 57
rain@@ 57
sacai 57
sf@@ 57
sgs@@ 57
sto@@ 57
tro@@ 57
t卹@@ 57
uf 57
vespa 57
wear 57
xiaomi 57
か@@ 57
ㄇ@@ 57
三折短夾 57
三款 57
不對稱耳環 57
中和@@ 57
云南@@ 57
五件套@@ 57
井 57
人緣 57
付款 57
休閒女包 57
來福@@ 57
保濕乳 57
做 57
側 57
優質賣場 57
全套包裝 57
全店@@ 57
全球購 57
全透明@@ 57
全館免運價格下殺 57
冬款@@ 57
出行@@ 57
分期 57
制作 57
刷毛外套 57
刺蝟 57
剪裁 57
加厚塑料@@ 57
加州@@ 57
勝利@@ 57
南非@@ 57
卡帶 57
卡爾@@ 57
卡特 57
卡通動物@@ 57
卡通造型@@ 57
原創設計@@ 57
口水@@ 57
古銅色@@ 57
古龍@@ 57
可樂 57
吊帶褲@@ 57
吊帶連衣裙@@ 57
名產 57
吸力@@ 57
吸壁式@@ 57
咖啡廳 57
哆@@ 57
喜字@@ 57
喬遷@@ 57
嘎@@ 57
噴霧瓶 57
均碼 57
墊高@@ 57
多件優惠 57
大碼寬松@@ 57
天然水晶@@ 57
女靴 57
奶油 57
宜興@@ 57
家用迷你@@ 57
封閉式@@ 57
專業級@@ 57
專櫃代購 57
對戰@@ 57
對折錢包 57
小學生 57
小愛@@ 57
小背心@@ 57
崁@@ 57
嵌入式@@ 57
已拆 57
帝王@@ 57
帽女@@ 57
建議@@ 57
強化 57
彥@@ 57
德國進口@@ 57
快速 57
愛運動 57
戀人@@ 57
戰馬 57
抱枕套 57
拆賣 57
按摩儀 57
接口 57
搖滾 57
擺件創意@@ 57
收音機 57
新款女包@@ 57
新郎@@ 57
春秋薄款@@ 57
時尚運動鞋 57
晚霜 57
杉 57
杓 57
條紋襯衫 57
棲@@ 57
機車精品 57
檢 57
歐式客廳@@ 57
正版全新 57
死亡@@ 57
水果蔬菜@@ 57
泡沫 57
洗水@@ 57
消音@@ 57
液晶電視@@ 57
淫@@ 57
深灰色 57
清潔液 57
滑步車 57
漢服女@@ 57
潮流女包 57
澎湖@@ 57
瀝水籃@@ 57
燭臺@@ 57
特價現貨 57
現貨當天@@ 57
生存@@ 57
番 57
瘡@@ 57
白瓷@@ 57
百搭修身@@ 57
皆可 57
盅 57
盲盒@@ 57
直筒 57
矮凳 57
石英手錶@@ 57
碎花洋裝 57
禮品袋 57
私訊 57
簡體@@ 57
粉刺 57
精美 57
糾正@@ 57
網袋 57
綾@@ 57
緊實@@ 57
線圈@@ 57
美容儀 57
老板椅@@ 57
耳罩式耳機 57
聖經 57
肩頸@@ 57
腎@@ 57
腳套@@ 57
臭 57
艇@@ 57
芳香 57
茶包@@ 57
茶幾電視柜組合@@ 57
莫斯奇諾@@ 57
蒸鍋@@ 57
藝品 57
衛生紙 57
裝飾燈@@ 57
訓練器@@ 57
誠信@@ 57
誼@@ 57
諾基亞 57
讀卡機 57
變形 57
豐胸@@ 57
豬年@@ 57
貓包@@ 57
貓用@@ 57
貓窩 57
販售@@ 57
資訊 57
超值組 57
軸承 57
轉盤 57
辦公家用@@ 57
送男友@@ 57
遊戲組 57
運動包 57
達菲熊@@ 57
部分@@ 57
都有 57
醫 57
長夾錢包 57
防指紋 57
防臭 57
降價出清 57
陪@@ 57
障@@ 57
雨棚@@ 57
雪地靴@@ 57
雪花秀 57
電燈@@ 57
電視柜茶幾組合@@ 57
電視背景墻@@ 57
靠背椅子 57
面紙套 57
韓國創意@@ 57
韓貨@@ 57
飆@@ 57
飛行器 57
飾品配件 57
馬鞍包@@ 57
鮮 57
黑紫 57
黛西 57
點心盤 57
aape@@ 56
ala@@ 56
ama 56
ama@@ 56
amy 56
a賞 56
banila 56
bel@@ 56
bm@@ 56
bone 56
cg@@ 56
chan 56
dmv 56
dri 56
jen@@ 56
lancer 56
light@@ 56
lol 56
ls@@ 56
lunarepic 56
mar 56
meier 56
nie 56
ok 56
ora 56
snow 56
tho@@ 56
tom@@ 56
tte@@ 56
utility 56
wk 56
ᴇ@@ 56
七龍珠超 56
三四@@ 56
个性@@ 56
串標@@ 56
主義@@ 56
乞丐@@ 56
二手漫畫 56
二手良品 56
二手近全新 56
以下@@ 56
保濕霜 56
先鋒 56
全牛皮@@ 56
全齡@@ 56
兩用被@@ 56
刀具 56
分享 56
劍麻@@ 56
勞力士手錶 56
十字繡 56
卡通動漫@@ 56
厚款 56
可外穿@@ 56
合金車@@ 56
呢子@@ 56
咒 56
唯一@@ 56
單個 56
單肩斜背包 56
噴槍@@ 56
四川@@ 56
團體服 56
垂墜式耳環 56
外拍@@ 56
多用途 56
天空@@ 56
夸張@@ 56
夾腳拖 56
奧利奧 56
奧地利@@ 56
女士長夾 56
女朋友@@ 56
宥@@ 56
宿 56
宿舍神器@@ 56
實品拍攝 56
實拍nike 56
寫作@@ 56
導軌@@ 56
小品@@ 56
小綠@@ 56
小雞 56
尚品@@ 56
尹@@ 56
展架@@ 56
工廠直銷 56
巧虎 56
巴士@@ 56
布藝沙發 56
布衣柜@@ 56
幅 56
廚房置物架落地多層@@ 56
廣場 56
彈蓋@@ 56
快乾 56
快閃@@ 56
愛迪生 56
戶 56
手帕@@ 56
手握@@ 56
手部@@ 56
手錶男@@ 56
手飾@@ 56
推拿@@ 56
插畫 56
搖椅 56
搗@@ 56
播種@@ 56
擠壓@@ 56
擬真@@ 56
斯卡@@ 56
於 56
旁@@ 56
日行燈 56
日記本@@ 56
日韓風@@ 56
明治@@ 56
時尚舒適@@ 56
晶亮@@ 56
替@@ 56
會計@@ 56
木門@@ 56
機械式@@ 56
機械腕錶 56
機甲@@ 56
檢測 56
歐美風 56
止 56
正韓上衣@@ 56
武術@@ 56
歷史 56
毛孔 56
氣炸鍋 56
水筆@@ 56
水電@@ 56
沙發罩 56
海星@@ 56
海鹽 56
淳@@ 56
清潔器 56
測驗 56
満 56
溜冰鞋@@ 56
溫熱@@ 56
滅菌@@ 56
滋補@@ 56
滿印@@ 56
潮品 56
激情套裝@@ 56
火焰 56
煙盒@@ 56
煞車拉桿 56
燈條 56
牛仔襯衫 56
牛皮皮帶 56
狄@@ 56
玄關裝飾畫@@ 56
玩具屋 56
玻璃奶瓶 56
現貨全新 56
現貨全新@@ 56
現貨出清@@ 56
現貨現貨 56
瓶裝@@ 56
生日禮物女生@@ 56
甲醛@@ 56
男士短袖t恤 56
男女運動@@ 56
的秘密 56
硬 56
磨豆機 56
磯@@ 56
移動式@@ 56
稱重@@ 56
簡約休閑@@ 56
簡約學生@@ 56
精品店@@ 56
糖糖@@ 56
紅酒架@@ 56
紋身貼紙 56
純正@@ 56
絢@@ 56
緒@@ 56
線香 56
繽紛 56
美樂家 56
義大利製 56
聲音@@ 56
脖圍 56
臂章 56
舒 56
花果@@ 56
荳@@ 56
菜盤@@ 56
薩 56
蝸@@ 56
蠶@@ 56
血 56
行政@@ 56
衝鋒衣 56
袍 56
西班牙 56
西裝領@@ 56
訂製款 56
詢問客服 56
請先詢問@@ 56
識 56
變裝 56
貓籠@@ 56
貨車 56
贈送 56
超有@@ 56
超越@@ 56
越野車@@ 56
車標 56
軟裝@@ 56
軟邊@@ 56
輕柔@@ 56
迷 56
逍遙@@ 56
連身褲@@ 56
遊戲墊 56
邊角@@ 56
郡@@ 56
酒器 56
醫院@@ 56
錄音筆 56
鑄@@ 56
長t@@ 56
長短@@ 56
長腿@@ 56
長袖套裝 56
防蚊液 56
附光碟 56
附錄 56
限時優惠@@ 56
限時免運中 56
電鑽@@ 56
霖 56
面紙@@ 56
韩国@@ 56
飛線編織@@ 56
飲料提袋 56
香蕉 56
鬆餅機 56
黃色小鴨 56
黑底 56
bell 55
blaze 55
bridge 55
canmake 55
choo 55
daiwa 55
dre@@ 55
easy@@ 55
est 55
ev@@ 55
excel@@ 55
fendi芬迪 55
fgo@@ 55
figure 55
fleece 55
full 55
gla 55
gps 55
hid 55
honey 55
ht@@ 55
ion@@ 55
kinyo 55
kv 55
lesportsac 55
marcelo 55
money 55
mu 55
nana 55
o型@@ 55
ppsu@@ 55
ru 55
running 55
rv@@ 55
sb@@ 55
show@@ 55
stars 55
style@@ 55
thrasher 55
toshiba 55
tws@@ 55
vga 55
wing 55
woo@@ 55
wow 55
xv 55
ysl女包 55
yun 55
あ@@ 55
バ@@ 55
一拖@@ 55
一直愛着妳 55
丁字褲@@ 55
三角架 55
上網@@ 55
不可 55
不怕@@ 55
之戀 55
乳酪@@ 55
乾燥玫瑰 55
五月天@@ 55
亞絲娜 55
亮皮@@ 55
代購gucci 55
仰@@ 55
供應@@ 55
保濕精華 55
保護膜@@ 55
個一組 55
倩@@ 55
偵探@@ 55
備用@@ 55
優生@@ 55
全館現貨 55
公牛 55
六層@@ 55
兵器@@ 55
出國 55
刀片@@ 55
刀頭 55
切割機@@ 55
初戀@@ 55
刷白@@ 55
刺繡字母@@ 55
功率@@ 55
勿下 55
化妆@@ 55
半截@@ 55
半框@@ 55
原宿風 55
原石@@ 55
可分期 55
后備箱@@ 55
吸管杯@@ 55
吹泡泡@@ 55
商鋪 55
喜宴@@ 55
單顆@@ 55
嗶@@ 55
嚕嚕米 55
圈圈 55
堤@@ 55
壹體@@ 55
夏季新品 55
夏季新款時尚@@ 55
大浴巾 55
大蝴蝶結@@ 55
天氣@@ 55
天然水晶 55
夾層@@ 55
女神款 55
女童洋裝 55
妖 55
姆斯 55
婆 55
嬰兒推車 55
嬰幼@@ 55
學生女@@ 55
宴會 55
實戰籃球鞋 55
寫 55
專屬賣場@@ 55
專櫃同步@@ 55
專櫃品牌@@ 55
對講機 55
小姐姐@@ 55
小百貨@@ 55
尖頭淺口@@ 55
尾巴 55
岳@@ 55
巴利@@ 55
巴黎萊雅 55
市面@@ 55
年級 55
幼兒園 55
循環扇 55
微笑 55
性感v領@@ 55
性感露背@@ 55
愉@@ 55
愛心耳環 55
懷舊 55
手機遠程@@ 55
手術@@ 55
扳@@ 55
抽拉式@@ 55
拖車 55
振動@@ 55
掀@@ 55
排檔@@ 55
揭@@ 55
摺 55
攝像機@@ 55
故障@@ 55
日本正品@@ 55
昆蟲@@ 55
曹@@ 55
有限公司 55
期限 55
木盒 55
杯緣子@@ 55
東西 55
栽@@ 55
桂花@@ 55
椅凳 55
樂美@@ 55
標示@@ 55
欄 55
比亞@@ 55
毛絨 55
氣墊空壓殼 55
水溶@@ 55
沐浴桶@@ 55
沫@@ 55
河 55
法國小眾@@ 55
泡麵@@ 55
波力 55
浪琴 55
液晶 55
漁具 55
漂流@@ 55
漢堡 55
潘多拉@@ 55
潮吹 55
潮品匯 55
炸雞@@ 55
無暇@@ 55
無痕掛勾 55
燒烤架@@ 55
牆壁掛@@ 55
牛頭@@ 55
特價品 55
狠@@ 55
獅子 55
珠子 55
現折 55
環形@@ 55
甲油膠 55
男士時尚@@ 55
男子籃球鞋 55
男段 55
留香@@ 55
畫架@@ 55
病 55
白熊 55
皮褲 55
皺褶@@ 55
真實@@ 55
知道@@ 55
短袖純棉@@ 55
硬式@@ 55
祥 55
秋冬韓版@@ 55
秋裝新款韓版@@ 55
科學 55
穴位@@ 55
空姐包 55
空軍 55
簽 55
籃子 55
精梳棉@@ 55
精靈寶可夢@@ 55
紀念版 55
終結@@ 55
絎縫@@ 55
絨毛玩偶 55
组合@@ 55
置物架客廳@@ 55
美學 55
美甲貼紙 55
耳朵 55
聯盟 55
肚 55
腰枕 55
腳套 55
腳踏 55
腳鍊 55
腳鏈@@ 55
芋@@ 55
芒果 55
茹@@ 55
荷葉領@@ 55
莫斯奇諾 55
葵 55
蓋碗@@ 55
藍綠 55
蝦竿 55
行車記錄儀@@ 55
衛生紙@@ 55
視窗@@ 55
豆沙@@ 55
買二送一@@ 55
質量保證 55
賽琳 55
超閃@@ 55
趴 55
踝@@ 55
車線@@ 55
軟膠囊 55
輸出@@ 55
轟@@ 55
農 55
逢@@ 55
進擊的巨人 55
運動長褲@@ 55
過敏@@ 55
適穿 55
邊夾 55
針式耳環 55
釣竿@@ 55
鈎 55
鏡架 55
鏽@@ 55
長版背心 55
開始@@ 55
開放@@ 55
闇@@ 55
防側翻@@ 55
防寒 55
防曬防雨@@ 55
陌@@ 55
陰道@@ 55
雙人三人@@ 55
雙桿@@ 55
零錢袋@@ 55
鞋柜家用門口@@ 55
預訂@@ 55
餐墊@@ 55
餐廳臥室@@ 55
餐桌墊@@ 55
饰@@ 55
馨 55
驢@@ 55
高級 55
魚鱗@@ 55
鼻毛@@ 55
big@@ 54
cha@@ 54
cooper 54
cz 54
ei 54
essence 54
footscape 54
george 54
gre@@ 54
gucci男款@@ 54
htc@@ 54
internationalist 54
leboy 54
legends 54
los 54
lv皮夾 54
lv短夾 54
medi@@ 54
min 54
modern 54
muji@@ 54
open@@ 54
pigeon 54
plu@@ 54
psp 54
qx 54
remax 54
ren 54
scottish 54
sen 54
sim@@ 54
stella 54
tab@@ 54
tissot天梭@@ 54
tony 54
tta 54
vape 54
vivienne 54
wen@@ 54
work 54
zebra 54
ミ@@ 54
ル 54
一對一@@ 54
一條@@ 54
三節@@ 54
上網卡 54
下標前@@ 54
不銹鋼保溫@@ 54
五十@@ 54
五指@@ 54
交流@@ 54
亮膚@@ 54
任天堂@@ 54
休閑板鞋@@ 54
伸縮折疊@@ 54
佛珠 54
供應 54
儲物箱 54
內裝@@ 54
全彩@@ 54
全盔@@ 54
公共@@ 54
六角 54
創意生日禮物@@ 54
創意陶瓷@@ 54
加碼@@ 54
加絨衛衣@@ 54
化粧@@ 54
北歐臥室@@ 54
十字 54
卡卡@@ 54
卡式@@ 54
厄文 54
口服@@ 54
口金包 54
可做@@ 54
史黛拉@@ 54
吉普@@ 54
吊帶睡裙@@ 54
吸吮@@ 54
呎 54
和室@@ 54
咖啡館@@ 54
單賣 54
單靴@@ 54
噴霧器 54
四件式@@ 54
回彈@@ 54
地圖 54
地板 54
多功能大容量@@ 54
大創 54
大家@@ 54
大底@@ 54
太陽能 54
女時尚@@ 54
女神同款 54
婚鞋@@ 54
字體 54
學步鞋@@ 54
官方旗艦店 54
宣紙@@ 54
家居旗艦店 54
家用大號@@ 54
寢具 54
小宜 54
小櫻 54
小直筒@@ 54
小美代購 54
小臉@@ 54
山地自行車@@ 54
巨無霸@@ 54
布丁狗@@ 54
布袋@@ 54
帶音樂@@ 54
年曆 54
幼幼@@ 54
幾何圖形@@ 54
床包四件組 54
庭院燈@@ 54
念 54
感溫@@ 54
手壓@@ 54
打底衫m 54
扭力@@ 54
护@@ 54
抱枕套@@ 54
抵@@ 54
拐@@ 54
拼插@@ 54
指甲貼 54
按摩油 54
掛籃@@ 54
提籃 54
搶手@@ 54
擴大機 54
支撐架 54
放大鏡@@ 54
數位相機 54
文件夾@@ 54
施華洛@@ 54
易 54
暢銷 54
有氧@@ 54
服套裝 54
朗 54
木子@@ 54
杖@@ 54
東北@@ 54
果醬 54
樓梯 54
標價@@ 54
樹德 54
機油芯 54
櫻桃 54
櫻花粉@@ 54
款式新穎@@ 54
歐膩@@ 54
死飛@@ 54
水乳@@ 54
沙灘包 54
沛納海@@ 54
波希米亞@@ 54
洗澡盆@@ 54
活動特價 54
洽@@ 54
海棉 54
海馬 54
海鷗@@ 54
淡香@@ 54
港式@@ 54
游泳圈@@ 54
漆面@@ 54
潮流印花@@ 54
潮流百搭 54
灰塵@@ 54
烏龍茶 54
煞@@ 54
燃氣灶@@ 54
特效@@ 54
狗飼料 54
現貨不用等@@ 54
球型@@ 54
生日派對@@ 54
男友褲 54
男士女士@@ 54
男士腕錶@@ 54
男女兒童@@ 54
町 54
畢業 54
畫集 54
白鞋 54
百葉@@ 54
百货@@ 54
的一@@ 54
的大@@ 54
皮箱@@ 54
相思@@ 54
真標 54
真皮男士@@ 54
睫毛膏@@ 54
石英男錶 54
確認@@ 54
磨刀@@ 54
禮盒包裝 54
秋冬裝 54
種菜@@ 54
笑臉 54
第三代 54
粉橘 54
粉橘@@ 54
粘土@@ 54
純棉短袖t恤@@ 54
統 54
綁結@@ 54
網面透氣跑步鞋 54
繁殖@@ 54
繁體中文 54
级@@ 54
罩衣@@ 54
美國大媽代購 54
美甲光療@@ 54
耕@@ 54
耳罩@@ 54
耳釘耳環@@ 54
聯想 54
胶@@ 54
胸部@@ 54
膳@@ 54
自動感應@@ 54
自慰棒 54
航 54
艾倫@@ 54
艾斯@@ 54
芭比 54
花襯衫 54
茶漏@@ 54
草莓晶@@ 54
荔枝 54
莫蘭迪@@ 54
菓@@ 54
華倫天奴@@ 54
菲利普 54
蓋子@@ 54
蓮蓬頭@@ 54
蔻馳coach@@ 54
蕾絲性感@@ 54
藍球鞋 54
藍芽音箱 54
蛋白 54
蛋蛋@@ 54
被套床單@@ 54
補習@@ 54
計時器 54
計算@@ 54
詢價 54
試管@@ 54
護外@@ 54
護脊@@ 54
豎條紋@@ 54
象牙@@ 54
賠售 54
路亞 54
身體乳@@ 54
軍工@@ 54
軟質@@ 54
輪子@@ 54
輻射@@ 54
辦公用品 54
農家@@ 54
迷你型@@ 54
逛街包 54
運動外套@@ 54
運動背包 54
過道走廊@@ 54
醬料@@ 54
針織洋裝 54
鋅合金@@ 54
鋰@@ 54
鍍金 54
鐵塔@@ 54
鑽戒 54
陪護@@ 54
陳列架@@ 54
隨手杯 54
隨身聽 54
雙胞胎@@ 54
電暖器 54
電腦臺式桌家用@@ 54
電話機@@ 54
電路@@ 54
電飯煲@@ 54
霞@@ 54
順 54
預約@@ 54
顯 54
顯瘦高腰@@ 54
鬆 54
魔法風雲會 54
鹼@@ 54
麻料@@ 54
黑框@@ 54
黑芝麻@@ 54
黑豆@@ 54
airpods保護套@@ 53
aux 53
books 53
buff 53
clot 53
coffee 53
eg@@ 53
fle@@ 53
hh 53
hoo@@ 53
hotwheels 53
int@@ 53
je 53
jojo@@ 53
kaishi 53
kao 53
lala 53
logo印花@@ 53
lv時尚@@ 53
mk包 53
oem@@ 53
orange 53
outdoor 53
parker 53
pig 53
qi 53
ras 53
ray@@ 53
red@@ 53
rimowa 53
short 53
shu@@ 53
skoda 53
true 53
two@@ 53
usa@@ 53
v紋@@ 53
xf 53
う@@ 53
お@@ 53
き@@ 53
一字夾@@ 53
七分袖 53
不斷@@ 53
丘 53
中小@@ 53
也可以@@ 53
事業 53
亮麗@@ 53
人民@@ 53
伴娘服@@ 53
低敏@@ 53
保溫飯盒@@ 53
保濕滋潤@@ 53
假日@@ 53
側面@@ 53
傳輸線@@ 53
儲物罐@@ 53
儲蓄罐@@ 53
充電座 53
先 53
光影@@ 53
免運免運費 53
兒童電動@@ 53
入耳式 53
兩個 53
冬天 53
冰霸杯 53
刀座@@ 53
列 53
初代@@ 53
加絨衛衣 53
十字架 53
半拖鞋 53
印尼 53
压@@ 53
可拆卸 53
名鞋匯 53
含稅開發票 53
吹風@@ 53
和平@@ 53
單板@@ 53
單片 53
單顆 53
國中@@ 53
圍巾女@@ 53
圓角@@ 53
在台現貨 53
基本 53
墜子@@ 53
夏天必備 53
外傳 53
外帶@@ 53
多孔@@ 53
大風@@ 53
大風力@@ 53
太太@@ 53
太空棉@@ 53
女版@@ 53
奶昔@@ 53
好評@@ 53
好貨@@ 53
委@@ 53
嬰 53
孵化@@ 53
定位 53
定頻@@ 53
室內陽臺@@ 53
家用加厚@@ 53
家用塑料@@ 53
寵物衣服 53
寶寶玩具@@ 53
專櫃新款 53
小時快速出貨@@ 53
小獅王@@ 53
小鴨@@ 53
展示牌@@ 53
山水畫@@ 53
幕 53
平安 53
年代 53
幸運草 53
幼兒童@@ 53
彌月禮 53
怕@@ 53
思考@@ 53
性感露肩@@ 53
恭喜@@ 53
懶人沙發單人@@ 53
懶得出門二手書 53
手表女@@ 53
抽取式@@ 53
拉花 53
拋光 53
拍攝道具 53
拭@@ 53
拳 53
捧花 53
掛包 53
揉捏@@ 53
提袋@@ 53
放大@@ 53
新品現貨上架 53
新款nike 53
新款運動鞋 53
斷貨@@ 53
方型 53
日本購回 53
普洱@@ 53
智能感應@@ 53
暫@@ 53
最終@@ 53
朵朵@@ 53
板扣腰帶時尚商務牛皮材質皮帶寬 53
桌旗@@ 53
桌游@@ 53
椒 53
極效@@ 53
樂購 53
樹德@@ 53
橫條紋@@ 53
毛呢外套 53
氣質甜美@@ 53
水氧機 53
水粉@@ 53
水藍色 53
水陸@@ 53
泊泉雅@@ 53
法器@@ 53
泰銀@@ 53
洗臉機 53
洲 53
活性炭@@ 53
海釣@@ 53
涮@@ 53
淺藍色@@ 53
清潔組 53
清風@@ 53
湯勺@@ 53
漱口杯 53
潮流男生@@ 53
濾紙 53
熱縮@@ 53
營 53
爽 53
特價商品 53
特產 53
獎 53
玻璃罩@@ 53
現代簡約實木@@ 53
瑄 53
產婦@@ 53
男女休閒@@ 53
男生衣著@@ 53
當代@@ 53
疲勞@@ 53
瘦瘦@@ 53
白灰@@ 53
百分百@@ 53
眠@@ 53
眼線液筆 53
碧兒泉 53
種籽@@ 53
糊@@ 53
紫羅蘭 53
結婚禮@@ 53
綁帶洋裝 53
網線@@ 53
線圈 53
绒@@ 53
缺貨 53
罩杯 53
聚合物@@ 53
肌因@@ 53
腰椎@@ 53
臣@@ 53
自粘 53
舍 53
花開@@ 53
花開花落 53
茶具套裝 53
荒@@ 53
薛@@ 53
藤蔓@@ 53
蠟筆@@ 53
行者 53
表演服@@ 53
裝置 53
裝飾品擺件@@ 53
討@@ 53
說話@@ 53
識別證@@ 53
護膚品 53
護髮油 53
賬@@ 53
超彈性@@ 53
跪@@ 53
連線代購 53
連體衣 53
進氣@@ 53
運動錶 53
郊@@ 53
釦式@@ 53
鉗子@@ 53
錠@@ 53
鏈帶@@ 53
镂空@@ 53
長袖毛衣 53
長髮@@ 53
開始 53
防摔保護套 53
防脫@@ 53
防銹@@ 53
阿財@@ 53
附小@@ 53
附收納袋 53
集塵@@ 53
霧燈 53
露背 53
青花瓷@@ 53
題庫 53
飯碗@@ 53
飲水器 53
飾板 53
餅乾模 53
餐巾@@ 53
餵食@@ 53
香薰爐@@ 53
驚喜價@@ 53
高端 53
魔豆@@ 53
鮑@@ 53
鮭魚 53
黃色小鴨@@ 53
黑曜石 53
黑水鬼@@ 53
黑色真皮@@ 53
點讀@@ 53
ami 52
auto 52
b賞 52
cnc 52
colourpop 52
cover 52
creeper 52
dk@@ 52
dm@@ 52
dmc 52
eco@@ 52
ef@@ 52
ever 52
gabrielle 52
green@@ 52
gucci男包 52
gucci男士@@ 52
hair 52
hel@@ 52
her 52
hol@@ 52
jets 52
jing 52
kn@@ 52
lon 52
macbook@@ 52
march 52
mic 52
monarch 52
moo@@ 52
mos 52
mvp 52
n字鞋 52
od@@ 52
pdd@@ 52
pharrell 52
point 52
revolution 52
s型@@ 52
tanjun 52
toreba 52
travel 52
ugg 52
u型枕@@ 52
van 52
v領上衣 52
waffle 52
wet 52
zoom@@ 52
三圈@@ 52
下標用 52
不敗@@ 52
不褪色 52
不鏽鋼真空@@ 52
乐@@ 52
什麼 52
伯賢 52
低跟鞋 52
來襲 52
保濕修護@@ 52
保險櫃 52
健身墊@@ 52
偽@@ 52
兔女郎@@ 52
全自動機械@@ 52
全蓋@@ 52
全館免運@@ 52
兩隻@@ 52
冬瓜@@ 52
刷卡 52
刺蝟@@ 52
則 52
創造@@ 52
加強版@@ 52
動感@@ 52
包子@@ 52
卡位@@ 52
卡鉗 52
卷軸@@ 52
厚外套 52
原理 52
叉子@@ 52
另售 52
叮噹@@ 52
可插@@ 52
吊掛@@ 52
名品 52
后背@@ 52
后視鏡@@ 52
含稅價 52
吸管杯 52
周歲 52
單機身 52
國文 52
夜店洋裝@@ 52
大台北@@ 52
大地色@@ 52
大悲咒@@ 52
契@@ 52
套頭 52
套頭衫@@ 52
女包包@@ 52
女學生韓版@@ 52
女款錢包 52
女版 52
妮妮 52
婆婆@@ 52
存儲@@ 52
學生學習@@ 52
它@@ 52
官方正版 52
客廳書房@@ 52
寵物外出@@ 52
寵物窩@@ 52
對決 52
對話@@ 52
小巧 52
小擺件@@ 52
小柜子 52
小蜜蜂 52
小鎮 52
布魯@@ 52
幹 52
床品@@ 52
廚房浴室@@ 52
廷 52
弓 52
影片@@ 52
征@@ 52
復古工業風@@ 52
快速發貨八五折 52
情侶款男女生 52
惑@@ 52
手冊@@ 52
手工製作 52
手飾品@@ 52
打蛋器 52
技巧 52
拆機@@ 52
招牌@@ 52
拼貼@@ 52
掉 52
搶購@@ 52
據@@ 52
故事書 52
敏感肌@@ 52
散熱器@@ 52
新奇@@ 52
新款上市@@ 52
新款學生@@ 52
時刻@@ 52
晟@@ 52
普拉達prada@@ 52
書櫥@@ 52
木吉他@@ 52
木地板@@ 52
枝 52
染發膏@@ 52
桌面收納盒 52
梓@@ 52
森林家族 52
樹脂 52
機身@@ 52
檢驗@@ 52
歐式實木@@ 52
止滑墊 52
毒 52
水晶球 52
水鑽耳環 52
水鞋 52
沐浴 52
泊@@ 52
泡泡先生@@ 52
波浪紋@@ 52
波蘭@@ 52
注音@@ 52
洗面奶 52
活性碳 52
洽談椅 52
浪 52
消費@@ 52
清晰@@ 52
清洗劑 52
清香@@ 52
溫感@@ 52
滿意寶寶 52
漂白@@ 52
漾 52
炫 52
点@@ 52
烙@@ 52
無葉@@ 52
熊本熊 52
燕 52
片拼圖 52
牽引繩@@ 52
牽繩 52
狂歡@@ 52
狙擊@@ 52
猛男@@ 52
理髮店@@ 52
瑞士 52
瑪莎拉蒂@@ 52
甜品店@@ 52
畢業花束 52
略@@ 52
百元@@ 52
皓@@ 52
盆帽 52
盤扣@@ 52
直 52
直購@@ 52
真皮皮帶@@ 52
睡袍 52
石材@@ 52
福斯@@ 52
穹@@ 52
童裝女童@@ 52
箭頭@@ 52
簡易臥室@@ 52
簽名 52
粗 52
紅底@@ 52
紫光@@ 52
絕緣@@ 52
絲印@@ 52
維納斯@@ 52
綱@@ 52
網狀 52
緋@@ 52
練功@@ 52
羅技@@ 52
羅馬涼鞋 52
美縫@@ 52
翻頁@@ 52
耐穿@@ 52
耳勾@@ 52
肽@@ 52
背心外套 52
腮紅刷 52
腳凳@@ 52
至尊@@ 52
艇 52
艾米@@ 52
茶色@@ 52
菲董 52
蓉 52
薄外套@@ 52
藤條@@ 52
蜻蜓@@ 52
行李箱貼紙 52
行者@@ 52
補水保濕 52
裝飾貼@@ 52
要 52
記憶 52
試用@@ 52
謝謝 52
變色 52
變頻冷暖@@ 52
貝恩@@ 52
買到賺到 52
賤@@ 52
贏@@ 52
超好看@@ 52
超輕量慢跑鞋 52
車燈@@ 52
車系 52
軍刀@@ 52
輕奢 52
辦公椅子@@ 52
退 52
送一 52
運動短t 52
避邪 52
鉛筆盒@@ 52
錘 52
鎖匙@@ 52
鏤空蕾絲@@ 52
鐲@@ 52
鑰匙皮套 52
長項鍊 52
防濺@@ 52
防直吹@@ 52
防脹氣@@ 52
阻力@@ 52
附錄@@ 52
陽臺休閑@@ 52
隔水@@ 52
隨身攜帶@@ 52
雙圈@@ 52
雙肩 52
電腦顯示器@@ 52
電話機 52
霧燈@@ 52
革 52
風情 52
飯碗 52
香港直郵 52
魚線@@ 52
黑黃 52
als 51
ard 51
auto@@ 51
band@@ 51
bike 51
cel@@ 51
combi@@ 51
dell 51
dl@@ 51
ear@@ 51
ec@@ 51
ey 51
family 51
fox 51
gio 51
guerlain 51
hg@@ 51
hsu 51
igo@@ 51
ik@@ 51
kelly@@ 51
keyway 51
laser 51
ling@@ 51
logitech 51
longines 51
lou@@ 51
lucky@@ 51
lv錢夾 51
minkoff 51
moc 51
mod 51
monster@@ 51
mv@@ 51
nine@@ 51
non 51
ox@@ 51
peanuts 51
per 51
p助 51
remix 51
ride 51
rolex@@ 51
sat@@ 51
scott 51
sentra 51
sexy 51
sim 51
skater 51
speed@@ 51
tn@@ 51
t恤衫 51
uncaged 51
var@@ 51
vo 51
wii 51
winnie 51
つ@@ 51
ま@@ 51
ん 51
一腳蹬懶人鞋 51
丈@@ 51
三入組 51
不掉色 51
不繡鋼@@ 51
中款@@ 51
串飾 51
丽@@ 51
之家@@ 51
五彩@@ 51
代購michael 51
休閒短褲@@ 51
优@@ 51
伯 51
佳佳@@ 51
例@@ 51
保溫桶@@ 51
假領@@ 51
儲物 51
元寶 51
光燈@@ 51
兒童三輪車@@ 51
入耳@@ 51
八分@@ 51
八哥@@ 51
冰墊@@ 51
凈水器@@ 51
初級@@ 51
加溫@@ 51
动@@ 51
动漫@@ 51
勇士 51
北極熊@@ 51
半永久@@ 51
印表機 51
去漬@@ 51
口徑@@ 51
可坐人@@ 51
可視@@ 51
可選擇 51
台風行@@ 51
合身 51
名片夾@@ 51
吸乳器 51
哄睡@@ 51
商務男包 51
啡@@ 51
單售@@ 51
四格@@ 51
回饋@@ 51
固定架 51
圓領長袖@@ 51
城市 51
埔@@ 51
域 51
塗層@@ 51
多元@@ 51
大幅@@ 51
大王 51
天然a貨@@ 51
太陽傘 51
女僕@@ 51
女士單肩包 51
女錶mk 51
女鞋子 51
好搭@@ 51
妖怪手錶 51
官網同步 51
家務@@ 51
宿舍寢室@@ 51
審@@ 51
寫真集 51
寬鬆t恤 51
寶寶餐椅@@ 51
導入@@ 51
小戶型家用@@ 51
小海@@ 51
尖頭 51
居家收納 51
屑 51
工作坊 51
巴斯@@ 51
帝國 51
帶支架@@ 51
平安符袋 51
床單人@@ 51
床簾@@ 51
度旋轉 51
廉@@ 51
強力 51
影響@@ 51
得標@@ 51
復古文藝@@ 51
恬@@ 51
悅 51
惡搞 51
懶人椅@@ 51
成功 51
戰爭@@ 51
手掌紋@@ 51
手機夾 51
手機平板@@ 51
打火@@ 51
打碼@@ 51
托德斯@@ 51
扣式 51
技師@@ 51
折起@@ 51
拉拉 51
拍照道具@@ 51
拐角@@ 51
拖尾@@ 51
拱@@ 51
拼接撞色@@ 51
捆綁@@ 51
揉@@ 51
散 51
整理袋@@ 51
文件柜@@ 51
新品上新 51
新款春季@@ 51
日月@@ 51
早教益智@@ 51
旺 51
明星款 51
显瘦@@ 51
時尚手錶 51
更換 51
會所@@ 51
查理@@ 51
格林@@ 51
梨子家@@ 51
樂高積木 51
櫥窗 51
比利時@@ 51
民國 51
氣質手提包 51
氣質簡約@@ 51
氧氣@@ 51
氨@@ 51
水溶性@@ 51
汀 51
汽車模型@@ 51
沐浴乳@@ 51
油煙機@@ 51
泛黃 51
泰拳@@ 51
海綿寶寶 51
涼鞋女夏@@ 51
游戲手柄@@ 51
溢@@ 51
滅蚊燈@@ 51
潤滑液@@ 51
濾杯 51
瀅@@ 51
炫彩 51
無框畫 51
無章釘 51
無線滑鼠 51
熱情@@ 51
燕子@@ 51
牛津布 51
特價下殺@@ 51
特價活動 51
球褲 51
環球影城 51
環繞@@ 51
男女段 51
男褲@@ 51
異味@@ 51
痛 51
瘦肚子@@ 51
皮草@@ 51
直排輪@@ 51
真正@@ 51
睫毛夾 51
破壁@@ 51
破洞牛仔褲 51
破褲 51
磨甲@@ 51
磯釣@@ 51
禮盒套裝@@ 51
穆@@ 51
穩定器 51
空氣芯 51
窗戶玻璃貼 51
窗貼@@ 51
箱包@@ 51
簡易折疊@@ 51
簡歐@@ 51
簡約實木@@ 51
精品手錶 51
精雕@@ 51
紅米@@ 51
紅藍 51
純色百搭@@ 51
組合式@@ 51
經典黑白@@ 51
綠水鬼 51
網帽 51
美女與野獸 51
翰@@ 51
老佛爺@@ 51
聲道@@ 51
肚皮舞@@ 51
胡桃色@@ 51
腐@@ 51
膠條@@ 51
膠鞋 51
臥室掛衣架@@ 51
自動 51
自己的@@ 51
自用@@ 51
艾莉@@ 51
花圈 51
花灑 51
茜@@ 51
茜茜優品 51
荷葉邊 51
萬國@@ 51
蒙古包@@ 51
蒲公英@@ 51
薏仁@@ 51
蘿 51
衛星@@ 51
褲腳@@ 51
觀賞@@ 51
訓練器 51
訓練服 51
說明 51
說明書 51
調速@@ 51
豆腐包 51
貴 51
贈潤滑液 51
赫本@@ 51
超取免運 51
超彈@@ 51
超讚@@ 51
超音波@@ 51
辦公室午睡@@ 51
透氣跑步鞋 51
運動水壺 51
運動鞋跑步鞋慢跑鞋籃球鞋男女鞋 51
達菲熊 51
酒壺@@ 51
醋 51
醫生 51
針管@@ 51
鉛筆褲 51
鋪棉外套 51
鋸齒@@ 51
鎖頭 51
鏈條女包 51
長毛@@ 51
閃光燈 51
閱@@ 51
防曬噴霧 51
防磨@@ 51
防風保暖@@ 51
防風打火機 51
附代購憑證 51
除味@@ 51
陷@@ 51
雕像@@ 51
雨傘桶@@ 51
霓淨思 51
靠牆@@ 51
韩@@ 51
風尚@@ 51
養 51
養成@@ 51
餐椅家用@@ 51
饗@@ 51
首刷 51
體脂@@ 51
高低床@@ 51
高跟 51
鬆糕鞋 51
黑貓 51
黑銀@@ 51
action 50
bao@@ 50
bat@@ 50
bts防彈少年團@@ 50
burlon 50
cab@@ 50
clarins 50
cny 50
cos服 50
cro@@ 50
dark 50
extreme 50
foundation 50
gazelle 50
heart@@ 50
honda@@ 50
hun@@ 50
jam 50
kanye 50
lai 50
l夾 50
melissa 50
miku 50
mouse 50
nano@@ 50
ness 50
nite 50
oli@@ 50
oreo 50
oro@@ 50
pearl 50
poli@@ 50
rabbit 50
rit@@ 50
she@@ 50
shinee 50
tshirt 50
zeus 50
zone 50
る@@ 50
タ@@ 50
一份 50
万@@ 50
三版 50
上托@@ 50
下標賣場 50
世界名@@ 50
之城 50
乾果@@ 50
二手書店 50
亮粉@@ 50
介紹 50
代購正品@@ 50
仿真植物@@ 50
休閒滑板鞋 50
伶 50
促銷中 50
促销 50
保鮮膜@@ 50
們的@@ 50
傑克 50
優惠價@@ 50
儲物柜子@@ 50
儲物罐 50
免脫@@ 50
兒童鞋 50
全新公司貨@@ 50
全新轉賣@@ 50
全館搶購 50
公尺 50
函@@ 50
功夫茶具套裝@@ 50
勇 50
勇士隊 50
化妝水@@ 50
原創設計 50
可分@@ 50
可收納@@ 50
可洗@@ 50
可直接@@ 50
台灣公司貨@@ 50
名字 50
和面@@ 50
唱片@@ 50
啫喱@@ 50
單杠@@ 50
嗨@@ 50
噴射@@ 50
噴泉@@ 50
嚼@@ 50
國內@@ 50
圖畫@@ 50
地磚@@ 50
型男必備 50
增高架@@ 50
墨綠色 50
夜視 50
大中@@ 50
大叔 50
大呎碼@@ 50
大麥@@ 50
天然植物@@ 50
太空艙@@ 50
夾娃娃 50
奇奇@@ 50
套組@@ 50
奧特曼@@ 50
好奇@@ 50
媚比琳 50
孩@@ 50
安娜蘇 50
安撫巾 50
客廳簡約現代@@ 50
家家@@ 50
家家酒 50
寫真書 50
寵物狗狗@@ 50
寵物用品@@ 50
對講機@@ 50
小兔@@ 50
小公仔 50
小時內出貨 50
小皮@@ 50
小豆@@ 50
尾箱@@ 50
巨人 50
差 50
已拆@@ 50
布洛克@@ 50
帆船鞋 50
带 50
帶燈 50
幫寶適 50
年夏季新款@@ 50
床頭靠墊@@ 50
底部@@ 50
庫存出清 50
廠家 50
影印 50
後現代@@ 50
復古時尚@@ 50
必備單品 50
快樂 50
恢復@@ 50
成為@@ 50
手机@@ 50
批發價@@ 50
投射燈 50
拉線@@ 50
拉鍊包 50
拉鍊零錢包 50
按摩床@@ 50
捕夢網@@ 50
捷克@@ 50
排水管@@ 50
探索書店 50
提亮膚色 50
搖桿@@ 50
擰@@ 50
救生@@ 50
教練@@ 50
斜挎女包 50
新加坡 50
新娘飾品 50
新款女裝@@ 50
日本語@@ 50
日產@@ 50
日系原宿@@ 50
日韓潮流@@ 50
晾曬@@ 50
暖手寶@@ 50
更新@@ 50
書屋 50
書畫@@ 50
束腹@@ 50
杯刷 50
柔軟舒適 50
栓 50
格力@@ 50
案 50
案板@@ 50
桌巾 50
梔子@@ 50
森女系@@ 50
楊冪同款@@ 50
楔型@@ 50
樂華 50
機動@@ 50
次元@@ 50
歐美爆款@@ 50
武 50
水銀@@ 50
沙發組合@@ 50
波斯@@ 50
泰式@@ 50
洗手乳 50
洗碗精 50
海洋堂 50
温@@ 50
溫奶器 50
溫馨浪漫@@ 50
滋潤保濕@@ 50
滴水@@ 50
滷@@ 50
濾鏡 50
火腿@@ 50
炎 50
烘乾@@ 50
無鉛@@ 50
煙盒 50
煮面@@ 50
爬行墊 50
牛仔吊帶裙 50
獵人 50
玄關桌@@ 50
玫紅 50
玻璃瓶@@ 50
珠寶盒 50
現代中式@@ 50
球形@@ 50
甘草@@ 50
甜 50
男內褲 50
男士商務休閒@@ 50
眼唇@@ 50
眼袋@@ 50
矮柜@@ 50
石英鐘 50
研究所 50
硅@@ 50
禁 50
稅@@ 50
空拍機 50
策@@ 50
籃球褲 50
米果 50
粹@@ 50
精露 50
統計學 50
經文@@ 50
網咖@@ 50
網鞋@@ 50
緊緻 50
繞頸@@ 50
美式實木@@ 50
羽毛球拍@@ 50
耐熱 50
肛塞 50
肥佬@@ 50
背袋 50
自衛@@ 50
艺@@ 50
艾莎 50
芬迪fendi@@ 50
花之@@ 50
莉卡@@ 50
菠@@ 50
萌寵@@ 50
葫蘆 50
蕙@@ 50
藍底@@ 50
蜂巢 50
裴@@ 50
西褲@@ 50
覺醒 50
訪@@ 50
護頸枕 50
起來@@ 50
起司 50
路易威登lv@@ 50
車庫@@ 50
轉接環 50
辦公家具@@ 50
連身衣@@ 50
運輸@@ 50
遮肚子@@ 50
鄉村風 50
采 50
野營 50
針織上衣@@ 50
鈔票@@ 50
鈔票夾 50
鉤針@@ 50
鋸片 50
钻@@ 50
長靴@@ 50
閱讀燈 50
防黴@@ 50
附盒 50
附贈 50
隔離 50
隱形 50
雀巢@@ 50
雕花 50
雙面膠 50
電光@@ 50
非凡@@ 50
韓國襪子 50
韓版顯瘦@@ 50
音效@@ 50
韻 50
頌 50
頑@@ 50
頭部@@ 50
頰@@ 50
額 50
飾底乳 50
養生茶@@ 50
首發 50
鹿鞭@@ 50
aaa 49
adidas三葉草 49
ano 49
ape@@ 49
armour@@ 49
audio 49
benq 49
brush 49
bwfc 49
chain 49
c字@@ 49
edt 49
fate@@ 49
fran@@ 49
gam@@ 49
gen 49
gri@@ 49
gucci皮夾 49
gymboree 49
hal@@ 49
hola 49
holika 49
hor@@ 49
infinite 49
ips@@ 49
iron 49
jin@@ 49
kolin 49
lit@@ 49
maison 49
mall 49
market 49
maru@@ 49
nrg 49
nyx 49
otg@@ 49
ov@@ 49
pgm 49
qm 49
rayban 49
rf 49
rs@@ 49
shin 49
simple 49
stick 49
tote@@ 49
undercover 49
u形@@ 49
v伏@@ 49
watch@@ 49
wip 49
wx 49
yamaha@@ 49
york 49
yuanroro優質賣場 49
た@@ 49
一支@@ 49
丁香@@ 49
三寶@@ 49
三月@@ 49
三洋@@ 49
三環@@ 49
下單備註尺寸 49
下單專區 49
下巴@@ 49
下的@@ 49
不退@@ 49
不銹鋼廚房置物架@@ 49
乳頭@@ 49
二手書籍 49
五合一@@ 49
仙女裙@@ 49
便攜迷你@@ 49
保險箱 49
信箱 49
修身包臀@@ 49
倉鼠 49
個性簡約@@ 49
假發 49
入式@@ 49
內搭衣 49
全框@@ 49
公主袖@@ 49
公主風 49
冰裂@@ 49
冷水壺@@ 49
出租屋@@ 49
出貨實拍 49
出風口 49
分類 49
前短後長 49
加厚耐磨@@ 49
勃肯@@ 49
勳 49
包大容量@@ 49
包手提@@ 49
北臉 49
匣@@ 49
半掌@@ 49
半透明 49
卡組 49
口交@@ 49
口水巾@@ 49
古典 49
可立@@ 49
吊床 49
名牌皮夾 49
味道 49
哈士奇@@ 49
售出@@ 49
啞鈴 49
單手@@ 49
單肩手提包@@ 49
四代勁戰 49
四分@@ 49
四種@@ 49
固定座 49
圓圓@@ 49
圓桶@@ 49
垂吊@@ 49
堿@@ 49
墬@@ 49
大創@@ 49
天上@@ 49
天線@@ 49
夯 49
奇蹟 49
套盒 49
女t 49
女生包包@@ 49
孫悟空@@ 49
學校 49
學步車@@ 49
安全帶 49
客廳沙發背景墻@@ 49
客廳簡約@@ 49
客房@@ 49
實穿@@ 49
寶寶小@@ 49
寶寶床@@ 49
專櫃購入 49
小吊飾 49
小款@@ 49
小甜甜 49
小貓 49
居家拖鞋 49
居家裝飾廚房收納現貨 49
工場 49
工字@@ 49
布包 49
布簾@@ 49
帕 49
帶飯@@ 49
干濕兩用@@ 49
廠家批發 49
廠家現貨@@ 49
彈力修身@@ 49
情侶外套 49
手機專用@@ 49
手繩@@ 49
抬@@ 49
拍賣@@ 49
拖布@@ 49
拼接蕾絲@@ 49
指環支架 49
挑嘴@@ 49
捏@@ 49
授@@ 49
排扣 49
排汗衫 49
搖籃床@@ 49
播 49
擦車@@ 49
放鬆@@ 49
料理機 49
斯特 49
新娘結婚@@ 49
新款韓版時尚@@ 49
星際@@ 49
時尚館 49
景德鎮@@ 49
晶采@@ 49
晾衣桿@@ 49
曼谷包 49
最低 49
東京 49
枕芯 49
柔軟舒適@@ 49
柳釘@@ 49
條文@@ 49
棉t@@ 49
楦@@ 49
榨汁@@ 49
樂高積木@@ 49
樟@@ 49
機專用@@ 49
機械手錶 49
橡皮筋@@ 49
欄桿@@ 49
歐文@@ 49
正版迪士尼@@ 49
死神@@ 49
殘疾人@@ 49
殺人鯨 49
汙 49
汝窯@@ 49
汽材 49
汽車擺件@@ 49
油瓶@@ 49
流蘇包 49
測驗@@ 49
港版@@ 49
湯米@@ 49
漂移@@ 49
潔面乳@@ 49
濟@@ 49
濟州@@ 49
火爆 49
無色@@ 49
煎鍋 49
熱賣爆款 49
熱賣爆款@@ 49
牆角@@ 49
牆體@@ 49
特定@@ 49
玥@@ 49
玻璃貼膜@@ 49
現拍@@ 49
瑤瑤@@ 49
瑪莎拉蒂 49
瑰@@ 49
甜美氣質@@ 49
生活家 49
男士純棉@@ 49
男士腕表 49
男生包包 49
男生短褲 49
男鞋子 49
留 49
疼@@ 49
登場 49
發繩@@ 49
盤發@@ 49
真皮皮夾 49
眼線液 49
眼膜@@ 49
知性@@ 49
短板@@ 49
短洋 49
短袖連衣裙@@ 49
短髮@@ 49
磷@@ 49
神仙水 49
童書@@ 49
童話 49
第四彈 49
箭 49
簡約修身短袖 49
簡約北歐@@ 49
簡約現代創意@@ 49
米諾@@ 49
精梳棉 49
糾@@ 49
約會 49
素踢 49
絹@@ 49
綁帶上衣 49
經營@@ 49
續 49
聚寶盆@@ 49
腳踏板 49
腸粉@@ 49
自家@@ 49
艾多美@@ 49
芙蓉@@ 49
花梨@@ 49
茶台@@ 49
草寫@@ 49
草編鞋 49
藍芽喇叭@@ 49
蘋果手機殼 49
號機 49
螢光 49
衛衣男@@ 49
裝飾擺件 49
裸睡@@ 49
褲頭 49
要的@@ 49
視頻 49
診@@ 49
調料瓶@@ 49
警 49
護照套 49
護身符@@ 49
買十送一 49
質量 49
購物車 49
超火 49
超透氣@@ 49
跳 49
車罩 49
軌 49
軟軟@@ 49
輯@@ 49
近 49
进口@@ 49
透气@@ 49
透氣運動@@ 49
逐@@ 49
這個@@ 49
遮陽鏡 49
選購 49
配對@@ 49
配送@@ 49
重生@@ 49
量販@@ 49
針織開衫@@ 49
鈞@@ 49
銀鍊@@ 49
鍊條 49
鏡頭貼 49
長款拉鏈@@ 49
長頸鹿 49
門把手@@ 49
閱讀 49
防滑鞋@@ 49
附送@@ 49
限定買家 49
雪地@@ 49
零售@@ 49
青春露 49
青木鋪子 49
鞋子男@@ 49
鞋架多層@@ 49
韓國襪 49
韓妞 49
韓流@@ 49
韓版女童@@ 49
頂夾@@ 49
頸鏈 49
飛人@@ 49
養護@@ 49
餐櫃 49
餐碗 49
香草 49
馬拉松 49
骨頭@@ 49
高校@@ 49
高領 49
髮箍@@ 49
魚尾裙@@ 49
鯊魚夾 49
點煙器 49
ahc@@ 48
amg@@ 48
avent 48
banana 48
bh@@ 48
cgo 48
chang@@ 48
cn@@ 48
doom 48
excel 48
goyard 48
g點按摩棒 48
hey 48
hf@@ 48
h鋼化玻璃保護貼 48
h鋼化玻璃貼 48
if@@ 48
ipx 48
iq@@ 48
iu 48
jacobs@@ 48
jay@@ 48
jh 48
jl 48
kangol 48
kirkland 48
kn 48
labo 48
lay 48
lindy 48
lulu 48
mango 48
mavic 48
ming 48
mir@@ 48
mmx 48
nct 48
nude 48
oni@@ 48
open 48
oro 48
pant 48
part 48
peppa 48
pos@@ 48
qd 48
ri 48
sense 48
shield 48
ski@@ 48
ssa@@ 48
suqqu 48
tec 48
tte 48
undefeated 48
united 48
vel@@ 48
yan@@ 48
zw 48
ら@@ 48
不倒翁 48
不沾鍋 48
世代@@ 48
中幫 48
中間@@ 48
九陽@@ 48
乾洗手 48
乾濕兩用@@ 48
二手非全新 48
人體感應@@ 48
代售 48
保平安@@ 48
保濕噴霧 48
信用卡@@ 48
偏光鏡@@ 48
健美@@ 48
側開叉@@ 48
傑克@@ 48
傘車 48
僅試穿 48
兆@@ 48
光明@@ 48
免手洗@@ 48
內容@@ 48
全友@@ 48
全機@@ 48
公主系列 48
典藏版 48
冰箱貼 48
出租二手書 48
出貨前@@ 48
刀鋒@@ 48
割草機 48
加工 48
勺子 48
勻@@ 48
化妝凳@@ 48
北極熊 48
午後@@ 48
半罩@@ 48
卡樂@@ 48
卷翹@@ 48
原宿bf風@@ 48
去黃@@ 48
參考書 48
受損@@ 48
可掛@@ 48
可站立@@ 48
吃到飽 48
吊櫃@@ 48
和風 48
哈利波特 48
單件 48
噸 48
四款@@ 48
四版 48
圆领@@ 48
圈圈耳環 48
國寶@@ 48
圓桌 48
圓領短袖m 48
土地@@ 48
地鋪@@ 48
塑型@@ 48
壓縮袋 48
夏季防曬@@ 48
夏日必備 48
夏涼@@ 48
夕@@ 48
外蓋 48
大卷@@ 48
大叔@@ 48
大推 48
大童鞋 48
天地@@ 48
天王@@ 48
夹 48
奇妙@@ 48
女短款@@ 48
奶鍋@@ 48
好搭 48
如果@@ 48
媽媽裝 48
學院包 48
宏碁 48
宗教@@ 48
寬口徑@@ 48
寬帶@@ 48
寶典 48
專利 48
小丸子 48
小碼@@ 48
小童鞋 48
小衫 48
尖頭鞋 48
布套 48
平角褲 48
床上四件套@@ 48
床尾@@ 48
度度鳥 48
廚房小@@ 48
廚房水槽@@ 48
引 48
彩屏@@ 48
彩條@@ 48
復古簡約@@ 48
微微@@ 48
快速到貨 48
悠遊@@ 48
愛迪達adidas@@ 48
慈 48
成本@@ 48
托架 48
扣頭 48
投籃@@ 48
抽插@@ 48
拉鏈外套 48
拼 48
拿 48
捕夢網 48
捕蚊燈 48
掃地@@ 48
提 48
提手@@ 48
揮@@ 48
擦地@@ 48
攝像@@ 48
攤@@ 48
收納桶@@ 48
敢@@ 48
新款特價 48
方向燈@@ 48
方向盤套 48
方桌@@ 48
日式簡約@@ 48
日本連線 48
春夏款 48
時尚達人 48
會議椅 48
月曆 48
木盒@@ 48
本合售 48
枕頭套@@ 48
果乾 48
染髮劑 48
桃園以北免運費 48
桌上型 48
桶裝@@ 48
梗@@ 48
條裝 48
棋盤格紋@@ 48
榴@@ 48
正品adidas 48
步鞋 48
毛刷 48
毛線帽@@ 48
民宿 48
水平儀@@ 48
水泥 48
水玉@@ 48
汽車載@@ 48
沙发@@ 48
沙灘裙@@ 48
洗髮精@@ 48
活口@@ 48
活泉@@ 48
涉@@ 48
液晶顯示器 48
淺藍色 48
漁網@@ 48
濃 48
灰橘 48
為什麼@@ 48
焙@@ 48
無雙 48
焰@@ 48
燙 48
燙衣板@@ 48
爆米花桶 48
牌照@@ 48
玩具組 48
現貨adidas 48
現貨日本@@ 48
球迷@@ 48
理膚寶水@@ 48
瓷器@@ 48
男生短袖@@ 48
男生短袖t恤 48
異國@@ 48
當 48
疤痕@@ 48
百寶@@ 48
百搭寬鬆@@ 48
百科 48
的架子@@ 48
皮靴@@ 48
盟@@ 48
盥洗@@ 48
直升機 48
直紋@@ 48
真皮女包@@ 48
真空壓縮袋@@ 48
眼鏡框 48
祈@@ 48
福氣@@ 48
秋冬新品@@ 48
立扇 48
立體聲 48
符管 48
籠子 48
粒面@@ 48
糖果盒 48
紅外線 48
紋身貼@@ 48
紗布巾 48
紳士 48
絕對完美@@ 48
絲柔@@ 48
綠豆@@ 48
編碼 48
繞 48
罐頭@@ 48
美容院專用@@ 48
美肌 48
翠 48
翻譯小說 48
耳針耳環 48
肌底@@ 48
腹部@@ 48
致 48
舟@@ 48
航空 48
般@@ 48
船型@@ 48
色料@@ 48
节@@ 48
英字@@ 48
莉莉@@ 48
莜莜代購 48
菇 48
菜單@@ 48
蒂芙尼 48
蒲團@@ 48
蒸蛋@@ 48
蓁 48
蔻 48
蕎麥@@ 48
藍綠@@ 48
藥師@@ 48
蛇頭@@ 48
表白@@ 48
袜@@ 48
裡的@@ 48
複刻@@ 48
褐@@ 48
襠@@ 48
襯衫女 48
觀 48
解憂@@ 48
誤@@ 48
調教@@ 48
證書@@ 48
貼墻@@ 48
賓館@@ 48
購於@@ 48
贊@@ 48
超人力霸王 48
超保暖@@ 48
超取請聊聊 48
超市 48
超輕便攜@@ 48
車頭@@ 48
轉轉@@ 48
辣椒 48
迷霧@@ 48
透明軟殼 48
透氣網布@@ 48
遛@@ 48
重複@@ 48
金錢@@ 48
金飾 48
釘槍@@ 48
銀灰 48
防潮箱 48
阿泰 48
離合器 48
雨傘架 48
電動螺絲刀@@ 48
電推剪@@ 48
青春 48
青軸@@ 48
靜電玻璃貼 48
鞋袋 48
韓版夏季@@ 48
飄窗墊@@ 48
飛人 48
飲食@@ 48
香薰蠟燭@@ 48
馨馨@@ 48
駱駝@@ 48
高強度@@ 48
高碳@@ 48
高雄可面交 48
鬧@@ 48
鮮花@@ 48
鹿頭@@ 48
黏 48
adilette 47
aero 47
amissa 47
ane 47
ashlee 47
aso@@ 47
bee@@ 47
blade 47
board 47
bred 47
bro@@ 47
burst 47
cha 47
ching 47
climacool 47
compact 47
cup 47
d賞 47
esp@@ 47
fac@@ 47
fast 47
figuarts 47
fn 47
gabbana 47
ger 47
gv 47
hario 47
hybrid 47
ide@@ 47
jessi@@ 47
kiehls 47
kyosho 47
lab@@ 47
lancôme 47
ley@@ 47
lightning@@ 47
long@@ 47
major 47
maserati@@ 47
mask 47
metis 47
miumiu 47
molly 47
msx 47
newbalance 47
rayban@@ 47
sad@@ 47
sandal 47
season 47
solar 47
studio@@ 47
tic 47
town 47
uma 47
usb風扇 47
vd 47
what 47
ying 47
your@@ 47
zp 47
こ@@ 47
み@@ 47
ス 47
一分@@ 47
一洗@@ 47
七分袖上衣 47
七星@@ 47
不議價 47
中信@@ 47
中字 47
乾洗手@@ 47
介面 47
他 47
伊姆斯@@ 47
休閒鞋運動鞋@@ 47
伴手禮@@ 47
低音@@ 47
佛教用品@@ 47
便盆@@ 47
俊 47
保護蓋 47
保貼 47
保障 47
光采@@ 47
克拉 47
兒童房間@@ 47
兒童泳衣@@ 47
全手工@@ 47
全新含吊牌 47
全新正品adidas 47
八代 47
公仔毛絨玩具@@ 47
初代 47
初版 47
別墅 47
剁@@ 47
前開@@ 47
動物園@@ 47
包款 47
包防水@@ 47
化妝盒@@ 47
北美代購 47
半身裙女@@ 47
南瓜 47
卡座 47
卵@@ 47
原木色@@ 47
參 47
及 47
反光貼 47
叢書 47
可口可樂 47
可口可樂@@ 47
可單@@ 47
可手提 47
吊 47
吊柜@@ 47
同學 47
吸汗透氣@@ 47
和田玉@@ 47
喜糖盒 47
單桿式@@ 47
噴劑@@ 47
四門@@ 47
圓餅包 47
垂墜 47
增長@@ 47
夏季新款女裝@@ 47
多件@@ 47
大v領@@ 47
大富 47
大床@@ 47
大戰@@ 47
大禮包 47
大賣場 47
大量現貨 47
天然石@@ 47
太空戰士 47
夾層 47
奏 47
奕@@ 47
套裝組合@@ 47
女單鞋@@ 47
女装@@ 47
女褲 47
娃娃吊飾 47
字體@@ 47
孫芸芸@@ 47
客制@@ 47
家用兒童@@ 47
寵物零食 47
寶寶輔食@@ 47
專屬下標 47
小包裝 47
小宅女 47
小戶型現代簡約@@ 47
小書柜@@ 47
小雛菊 47
小音箱@@ 47
小音響@@ 47
尼康@@ 47
居家廚房生活裝飾現貨 47
屍@@ 47
工作臺@@ 47
布沙發 47
帳號 47
干濕@@ 47
年初版 47
幻 47
底板 47
度假 47
座便@@ 47
廚具 47
彈珠@@ 47
彌月禮盒 47
彩燈@@ 47
復古跑鞋 47
性感包臀@@ 47
手作坊 47
手撕@@ 47
手腳@@ 47
打包袋@@ 47
打氣筒 47
抗老@@ 47
抗藍光 47
抹茶 47
拆洗@@ 47
拉鍊式@@ 47
拎@@ 47
捉@@ 47
捏捏@@ 47
捲尺 47
掃地機 47
搖床@@ 47
搜@@ 47
撐 47
撲滿 47
擴香 47
收款@@ 47
教程@@ 47
數位版 47
新多益@@ 47
新安@@ 47
新款秋季@@ 47
早安@@ 47
時尚斜挎包 47
月光石 47
札@@ 47
李小@@ 47
杏仁酸@@ 47
柜組合@@ 47
格斗@@ 47
桃花 47
植鞣@@ 47
槳@@ 47
樁@@ 47
樣式 47
機迷你@@ 47
歷 47
毛巾桿@@ 47
毛線帽 47
氣墊跑步鞋 47
水母@@ 47
求生@@ 47
決明子@@ 47
沙發巾 47
泰國佛牌@@ 47
洗澡玩具 47
洗衣球 47
浮動@@ 47
淘氣@@ 47
淡斑精華 47
淺灰色 47
清洗機 47
清爽 47
清除@@ 47
無糖 47
無線充電器 47
煞 47
熱敏@@ 47
燥@@ 47
燭@@ 47
爬藤@@ 47
爾斯@@ 47
片式@@ 47
牛筋@@ 47
牽@@ 47
獎勵@@ 47
獎盃@@ 47
珉@@ 47
珍珠耳釘 47
珠珠 47
琪琪 47
瑜珈墊 47
環保購物袋 47
瓢蟲@@ 47
生日派對 47
生物 47
甲片@@ 47
男士短袖@@ 47
男士腰帶 47
男女適用 47
畫家貓 47
畫板 47
瘋 47
發條@@ 47
白紅@@ 47
盒況@@ 47
直排@@ 47
相冊 47
眼鏡架@@ 47
砂紙@@ 47
硬盤@@ 47
碎花雪紡@@ 47
神話 47
祭 47
空氣凈化@@ 47
空瓶@@ 47
穿衣鏡 47
筋 47
筐 47
簿@@ 47
籃球服 47
籃球鞋運動休閒鞋 47
精品錶 47
精巧@@ 47
紀錄@@ 47
紙箱 47
紫外線消毒@@ 47
結緣@@ 47
綜合 47
網紅爆款@@ 47
緹花 47
繡花 47
纱@@ 47
罐子@@ 47
罗@@ 47
置物櫃@@ 47
羅意威@@ 47
美型@@ 47
美睫 47
美背 47
羔@@ 47
老物 47
聞@@ 47
胭脂@@ 47
腳踏墊@@ 47
腳踩@@ 47
臂力@@ 47
臥室裝飾@@ 47
臨 47
臨時停車@@ 47
自取@@ 47
花王@@ 47
花花公子@@ 47
茄@@ 47
荒野@@ 47
菱 47
蔡依林@@ 47
蔬菜 47
薇薇 47
薑黃@@ 47
藍黑 47
行動充 47
西瓜 47
親子鞋 47
訂制@@ 47
調整 47
謙@@ 47
譚@@ 47
護髮乳 47
调@@ 47
貓抓板 47
赫本風@@ 47
輕奢風@@ 47
輕質@@ 47
轉運珠@@ 47
车 47
辣妹@@ 47
迷你風扇 47
逗貓棒 47
連體褲@@ 47
運動板鞋 47
運動風 47
道士@@ 47
遠紅外線@@ 47
遮陽板@@ 47
郵 47
醫師@@ 47
量販 47
金牌 47
鉛筆鞋 47
銳步 47
錄像@@ 47
錄音筆@@ 47
錢幣@@ 47
鍛造@@ 47
鎖精@@ 47
鐘表掛鐘客廳@@ 47
鐵板燒@@ 47
铺 47
長tee 47
長發@@ 47
長褲子 47
闊腿褲女@@ 47
防塵袋@@ 47
防曬帽@@ 47
防水拖鞋 47
防水透氣@@ 47
雞翅木@@ 47
雪白@@ 47
雪肌精@@ 47
雪莉玫@@ 47
電磨@@ 47
電競椅@@ 47
電腦桌臺式家用@@ 47
霧感@@ 47
靠背墊@@ 47
韓國chic@@ 47
韓國空運@@ 47
領劵享優 47
飲水@@ 47
養蜂@@ 47
駐@@ 47
駝 47
騷 47
驚奇@@ 47
高中 47
高透@@ 47
高速 47
鯊 47
鶴 47
黑x@@ 47
黑皮@@ 47
黑綠@@ 47
黛西@@ 47
ain 46
amd 46
anpanman 46
armani阿瑪尼手錶 46
baseus 46
bhm 46
bird 46
bul@@ 46
chin@@ 46
cic@@ 46
cla@@ 46
cola 46
d印花@@ 46
farm 46
hand 46
hip 46
hm@@ 46
kay 46
kh 46
kh@@ 46
loft工業風@@ 46
louis@@ 46
mark@@ 46
mbs 46
mercier 46
mg@@ 46
mom 46
nana@@ 46
neighborhood 46
olivia 46
pap@@ 46
pick 46
pillow 46
real@@ 46
rpm 46
saber 46
sg@@ 46
shorts 46
signature 46
silver@@ 46
superstar@@ 46
swarovski@@ 46
tam@@ 46
tech@@ 46
tescom 46
time@@ 46
tit@@ 46
txt 46
ugg@@ 46
ung 46
vapor 46
v臉@@ 46
wood@@ 46
ykk@@ 46
yl 46
ツ@@ 46
ナ@@ 46
一台 46
一定要@@ 46
一直@@ 46
一秒@@ 46
一顆 46
三件組@@ 46
下水管@@ 46
不二@@ 46
不留@@ 46
丙級@@ 46
中型犬@@ 46
中性款 46
中英@@ 46
中長裙@@ 46
二手機 46
二次元 46
亞克力 46
仙子@@ 46
件套裝@@ 46
休閒上衣@@ 46
休閒跑步鞋 46
伸@@ 46
伸縮桿@@ 46
保固內 46
保濕乳液 46
側翻 46
傘裙 46
億人小鋪@@ 46
優品家居 46
優購 46
充電電池 46
兒童小孩@@ 46
內里 46
全書 46
兩側@@ 46
八寶@@ 46
公交@@ 46
公對@@ 46
冷光@@ 46
出貨前實拍 46
分裝瓶@@ 46
刮刮@@ 46
剃須刀@@ 46
削筆@@ 46
創意家居 46
創意實用@@ 46
加速@@ 46
動物森友會 46
北歐家用@@ 46
十二星座@@ 46
古奇女包 46
可脫 46
号@@ 46
合一 46
吉田@@ 46
吧椅 46
吸引@@ 46
和平精英@@ 46
哲 46
商務男士@@ 46
商務錢包 46
啞@@ 46
喔@@ 46
單人雙人三人@@ 46
單字 46
四季鞋 46
固 46
垫@@ 46
塑身衣 46
填色@@ 46
壓模 46
夏季短袖@@ 46
大碼胖mm@@ 46
天然緬甸玉@@ 46
套腳鞋@@ 46
女款手提包 46
女郎 46
女郎@@ 46
好朋友@@ 46
嬰兒推車可坐可躺@@ 46
學生書桌@@ 46
宛@@ 46
容量大 46
密封條@@ 46
實體店面@@ 46
寬肩@@ 46
封口機@@ 46
專案 46
專櫃新款@@ 46
導 46
少年童書 46
屁@@ 46
山葉@@ 46
布藝沙發小戶型@@ 46
希望@@ 46
帶線@@ 46
年華@@ 46
幼兒園寶寶@@ 46
幽靈 46
床架 46
廁所衛生間@@ 46
引擎 46
後綁帶@@ 46
復活節@@ 46
微鑲@@ 46
快速充電 46
悶燒罐 46
惜@@ 46
感應式@@ 46
慣性@@ 46
手足@@ 46
打字@@ 46
打底裙@@ 46
打折@@ 46
扣子@@ 46
抽真空@@ 46
拇指姑娘 46
持續@@ 46
指尖@@ 46
排汗衣 46
接收器@@ 46
插排@@ 46
握把@@ 46
撥水@@ 46
擁有@@ 46
擺件客廳@@ 46
攪拌機@@ 46
收納儲物@@ 46
救援@@ 46
教科書 46
新品上線 46
新款印花@@ 46
新款牛皮@@ 46
方向@@ 46
方扣@@ 46
方舟@@ 46
施巴@@ 46
日系潮牌@@ 46
明太子 46
春夏新品 46
春夏新款韓版@@ 46
晏@@ 46
書簽@@ 46
木瓜@@ 46
本子@@ 46
束口 46
果凍套 46
梨 46
梳妝凳@@ 46
棉鞋 46
極度誘惑@@ 46
楷書@@ 46
標準盒 46
樺 46
橋 46
機手動@@ 46
機械手感@@ 46
橫式@@ 46
檀香 46
毛衣鏈 46
毫米@@ 46
水果刀 46
水果盤 46
求婚 46
汗 46
沉香 46
油箱蓋 46
泡腳桶@@ 46
波紋@@ 46
泰迪狗@@ 46
洋甘菊@@ 46
洗車 46
浮力@@ 46
浴衣 46
淨透@@ 46
淺 46
渡假風@@ 46
滑滑車 46
漏水@@ 46
漢方@@ 46
潮品@@ 46
潮款 46
火星@@ 46
火星塞 46
火熱@@ 46
灶@@ 46
烏龜 46
無線充電器@@ 46
照片牆@@ 46
熱銷商品 46
爬樓@@ 46
牛仔背帶@@ 46
狀況@@ 46
玉石 46
玩家@@ 46
玩水@@ 46
現貨促銷 46
球包 46
瑄@@ 46
瑩 46
璇@@ 46
環球影城@@ 46
瓊@@ 46
畫筆@@ 46
異色@@ 46
癮@@ 46
發音 46
白光@@ 46
白水晶 46
白襯衫 46
的商品 46
的故事 46
皮紋@@ 46
相簿 46
真皮包包@@ 46
瞬效@@ 46
示 46
程式@@ 46
穿過 46
笑笑@@ 46
第十@@ 46
筆盒 46
米菲@@ 46
粉紫@@ 46
粗跟 46
紓壓@@ 46
細肩帶背心 46
結婚禮物@@ 46
給 46
經典馬車@@ 46
維多利亞的秘密 46
網眼 46
綸@@ 46
緊急@@ 46
緯@@ 46
繡線@@ 46
續航 46
纸 46
羅斯 46
羅馬數字@@ 46
美容儀@@ 46
美甲材料 46
耳罩 46
聖 46
肛@@ 46
背負式@@ 46
脸@@ 46
臀 46
自吸@@ 46
舞會 46
艦娘 46
艾米粒 46
艾美@@ 46
芸 46
苑@@ 46
菜籃子@@ 46
葳@@ 46
蒟蒻@@ 46
蒸臉@@ 46
蓋毯@@ 46
蔬@@ 46
藝術品@@ 46
蛋卷@@ 46
街機@@ 46
裙褲@@ 46
襲@@ 46
解壓@@ 46
貓玩具@@ 46
貓籠子@@ 46
貓耳@@ 46
貝拉@@ 46
貝爾 46
貞 46
貨號@@ 46
販 46
貴人@@ 46
買賣@@ 46
賽季@@ 46
超實用@@ 46
超持久@@ 46
超纖@@ 46
足銀@@ 46
踩腳@@ 46
身體乳液 46
車間@@ 46
轮@@ 46
运@@ 46
迪卡儂@@ 46
送禮自用兩相宜 46
逸 46
運動電子手錶 46
遮陽板 46
酒精 46
酪梨@@ 46
重量 46
金卡 46
金鏈@@ 46
針織毛衣@@ 46
鉤花@@ 46
鉻@@ 46
銀針耳環 46
銀釦@@ 46
銳步@@ 46
鋒 46
鋼板@@ 46
錐 46
長條桌@@ 46
长袖@@ 46
門上@@ 46
門牌@@ 46
防水防潮@@ 46
阿瑪尼armani@@ 46
陽臺 46
陽臺客廳@@ 46
隨身鏡 46
雅芳@@ 46
雙頭 46
電煮鍋@@ 46
電腦椅家用辦公椅@@ 46
青花@@ 46
靖@@ 46
鞋器@@ 46
韓版ins@@ 46
韓版修身顯瘦@@ 46
韓版學院風@@ 46
韓版男士@@ 46
頭箍@@ 46
風火輪@@ 46
飛線編織 46
飲料袋 46
香奈@@ 46
馬桶蓋@@ 46
驅蚊器@@ 46
驗 46
驚喜價 46
骷髏 46
魚油 46
鮪魚 46
鴕鳥@@ 46
鴿子@@ 46
麻糬@@ 46
黃金戒指 46
黃銅材質 46
黑色蕾絲@@ 46
abc@@ 45
acer@@ 45
ais 45
ball@@ 45
bling 45
bobo 45
bot 45
brick 45
cam 45
cb@@ 45
cheng 45
classic@@ 45
clean 45
cli@@ 45
coach女包 45
disney迪士尼@@ 45
diy手作@@ 45
final 45
hand@@ 45
hao@@ 45
hellokitty 45
iwc 45
jj 45
jun 45
last 45
lcd@@ 45
led護眼@@ 45
loft 45
luxgen 45
lv手拿包 45
marmont系列@@ 45
missha@@ 45
monkey 45
nail@@ 45
native 45
nw 45
onitsuka 45
panda 45
rainbow 45
stayreal 45
sunshine 45
suv@@ 45
thom 45
tiida 45
tint 45
tomy@@ 45
val@@ 45
vf 45
volvo 45
yellow 45
zippo 45
zj 45
zy@@ 45
ᴀ@@ 45
一般 45
一隻@@ 45
一顆@@ 45
三抽@@ 45
三段式@@ 45
不到@@ 45
中夾@@ 45
乳酸菌@@ 45
二件組 45
二手衣物 45
亮白 45
仰臥板@@ 45
任天堂switch@@ 45
休閑椅 45
休閑簡約@@ 45
休閒運動褲 45
佳人@@ 45
侧@@ 45
便當 45
保潔@@ 45
保險套 45
修眉@@ 45
健腹@@ 45
健身跑步@@ 45
偽裝@@ 45
傢居 45
優優@@ 45
兒童玩具車@@ 45
內搭衫@@ 45
內頁 45
全專 45
全新日本@@ 45
全素 45
兩件免運 45
兩入 45
公主鞋 45
六一@@ 45
兮@@ 45
冒@@ 45
分售 45
判@@ 45
別 45
刷卡@@ 45
刷破 45
刺客@@ 45
剋星 45
前叉@@ 45
前線 45
剪紙@@ 45
功夫茶具 45
加藤@@ 45
劵 45
十八@@ 45
印第安@@ 45
原廠公司貨michael 45
厨房@@ 45
及膝@@ 45
古龍水 45
只剩@@ 45
只是@@ 45
只有一個 45
只賣 45
可上@@ 45
可伸縮 45
可充電 45
可掛式@@ 45
可變@@ 45
台灣三洋 45
吃貨@@ 45
各大@@ 45
各類@@ 45
含運費 45
周邊商品 45
哨@@ 45
喇叭褲 45
喜美 45
器具 45
固態@@ 45
圓頂@@ 45
圓領衛衣@@ 45
地下@@ 45
坐便器 45
坐椅 45
坐椅@@ 45
堆堆@@ 45
墜感@@ 45
墻紙 45
墻貼紙@@ 45
壁掛式 45
壁掛架 45
夏季兒童@@ 45
外貿 45
多啦a夢 45
多層次@@ 45
大冒險 45
大包裝 45
大鈔夾 45
天然乳膠@@ 45
夾吸@@ 45
女百搭@@ 45
女童鞋 45
女錢包 45
婚禮佈置 45
婭 45
婭@@ 45
子母床@@ 45
孕婦 45
字畫@@ 45
學生男女@@ 45
官方正品@@ 45
家用全自動@@ 45
家用衛生間@@ 45
寬松學生@@ 45
寶寶防摔@@ 45
小傑雜貨 45
小兔子@@ 45
小品 45
小幫手 45
小艾@@ 45
小蘋果@@ 45
小蠻腰@@ 45
尖嘴@@ 45
山茶花 45
工廠直@@ 45
帖@@ 45
平沿@@ 45
床圍欄@@ 45
床邊桌 45
弟 45
彎 45
影像@@ 45
彼得@@ 45
彼得兔@@ 45
復興@@ 45
微風@@ 45
快煮壺 45
情侶短袖 45
愛麗絲夢遊仙境 45
憂@@ 45
懶人支架 45
戶外休閒@@ 45
戶外折疊@@ 45
房子 45
手壓式@@ 45
手錶女@@ 45
抗痘@@ 45
折疊傘 45
抽屜式收納柜@@ 45
抽抽樂 45
抽紙@@ 45
掛燙@@ 45
掛燙機 45
掰@@ 45
播放@@ 45
擋風板 45
攝影道具 45
收納置物架 45
整人@@ 45
新年禮物 45
旺角 45
易拉@@ 45
春夏薄款@@ 45
時尚外穿@@ 45
時尚精品 45
晃@@ 45
曆@@ 45
最新爆款@@ 45
月份@@ 45
服套裝@@ 45
机 45
李寧@@ 45
柜子儲物柜@@ 45
栗子@@ 45
格鬥@@ 45
桌面擺件@@ 45
棉麻布藝@@ 45
棋盤@@ 45
森林系 45
椰子鞋 45
樣式@@ 45
機頂盒@@ 45
櫻桃小丸子 45
毒液 45
民眾代購@@ 45
氣囊 45
氣墊粉餅@@ 45
氣質洋裝 45
氣門@@ 45
水嫩@@ 45
水水@@ 45
水滴 45
決@@ 45
汽車頭枕@@ 45
沙滩@@ 45
油門@@ 45
洛杉磯@@ 45
洽談桌椅組合@@ 45
浴室櫃@@ 45
海綿寶寶@@ 45
海軍藍@@ 45
淨水 45
港 45
游戲周邊@@ 45
游戲機 45
湖南@@ 45
潔牙骨 45
潤滑油 45
潤膚乳液 45
潮帽 45
濾水@@ 45
灰粉 45
災@@ 45
炫光@@ 45
热@@ 45
热卖 45
燈罩 45
牛仔洋裝 45
牛仔褲男士@@ 45
牛奶糖 45
牡丹 45
牢@@ 45
特選@@ 45
狗窩 45
王國@@ 45
瓜子 45
田園 45
田園風@@ 45
甲蟲@@ 45
男士潮流@@ 45
男女尺寸 45
男女童 45
男短袖 45
症@@ 45
白蘭@@ 45
的人@@ 45
皇家 45
皮夾錢包 45
皮繩@@ 45
盒組 45
真心@@ 45
石英 45
石英防水@@ 45
硬筆@@ 45
磚石@@ 45
礦 45
礦石 45
禾聯 45
穗 45
童舖 45
簡易書桌@@ 45
簷@@ 45
米其林@@ 45
糞@@ 45
細胞@@ 45
經典系列 45
綠葉@@ 45
纖體@@ 45
羅馬鞋@@ 45
老虎頭 45
老鼠 45
肉肉@@ 45
胖 45
胡桃木@@ 45
腰身@@ 45
膨@@ 45
自售 45
自有@@ 45
芝麻街 45
花梨木@@ 45
英倫 45
英倫復古@@ 45
茶器 45
華倫天奴 45
菱格鏈條@@ 45
落肩 45
蒂芬妮綠 45
蓋布 45
蔡依林 45
蔡小葵家 45
蕾絲鏤空@@ 45
虛擬@@ 45
蚊子@@ 45
蛋糕盒 45
蛋糕裙 45
行事曆 45
行銷 45
衛生紙盒 45
裱@@ 45
襯衫男@@ 45
訂婚@@ 45
計劃 45
記事@@ 45
護目@@ 45
護膚 45
貓眼石@@ 45
貓罐頭 45
負重@@ 45
赫 45
起子機 45
超人氣 45
路易威登lv 45
車家兩用@@ 45
車衣@@ 45
軟式@@ 45
軟硅膠@@ 45
輕型@@ 45
辛普森@@ 45
辦公用品@@ 45
透明防水@@ 45
連接線 45
逼@@ 45
遊戲機@@ 45
遊戲王@@ 45
運動籃球鞋 45
邊柜 45
都能@@ 45
配送 45
酒具@@ 45
醃@@ 45
鉑@@ 45
銀彈 45
錄影 45
鍵盤鼠標@@ 45
長款皮夾 45
長約 45
長袖襯衣@@ 45
閒@@ 45
閨蜜裝 45
防腐木@@ 45
阿波@@ 45
附蓋 45
階段@@ 45
隔離乳 45
險 45
雙g印花@@ 45
雙筒@@ 45
雙開門@@ 45
零件機 45
電熨斗@@ 45
電競椅 45
電纜@@ 45
霉@@ 45
露娜@@ 45
霸氣貓 45
面額 45
鞋架簡易@@ 45
音質@@ 45
頂上決戰 45
領卷@@ 45
頭髮 45
頸鏈@@ 45
顧客@@ 45
風景 45
飄花@@ 45
餐包 45
馬賽克@@ 45
高質量@@ 45
高音@@ 45
髮晶@@ 45
魔術道具 45
鮪魚@@ 45
麂皮絨@@ 45
麗芙小屋@@ 45
麥芽@@ 45
ale 44
amy@@ 44
ance 44
ani 44
av女優@@ 44
berry 44
bin 44
bonbon 44
charm 44
chris 44
ck內褲 44
clar@@ 44
clinique 44
din@@ 44
dot 44
ear 44
eng@@ 44
epi@@ 44
fal@@ 44
fol@@ 44
fw@@ 44
gro@@ 44
hardy 44
hong 44
hugo 44
hunter 44
hv 44
hz 44
ico 44
joyride 44
kingston 44
led吸頂燈 44
legacy 44
limited 44
lion 44
living 44
lj 44
lone 44
lp@@ 44
l型 44
l號@@ 44
made@@ 44
mamaway 44
mer 44
mother 44
nail 44
nd@@ 44
nh@@ 44
nillkin 44
polo領@@ 44
ryan 44
sand@@ 44
sco@@ 44
solution 44
stay 44
storm 44
strap 44
suga 44
swiss 44
s手機殼 44
tattoo 44
ther@@ 44
tnt 44
typec 44
venus 44
versace凡賽斯@@ 44
vomero 44
wan@@ 44
wel@@ 44
wr@@ 44
yonex 44
yuri 44
yves 44
zenpad 44
は@@ 44
ジ@@ 44
一腳蹬懶人鞋@@ 44
三合@@ 44
三腳@@ 44
上學@@ 44
不暈染@@ 44
不脫色@@ 44
不褪色@@ 44
不過敏 44
中國結@@ 44
中小童 44
主場@@ 44
之星@@ 44
乖@@ 44
九折 44
乾洗@@ 44
交 44
人員 44
人員@@ 44
代發 44
以 44
休閑防水@@ 44
休閒寬鬆@@ 44
休閒潮流@@ 44
休閒運動短袖 44
佛具 44
佛前@@ 44
佩戴@@ 44
佳麗寶 44
來福 44
保暖加厚@@ 44
俱@@ 44
倒流香爐@@ 44
假發女@@ 44
偏光鏡片 44
優美@@ 44
優雅氣質@@ 44
兒代購 44
兒童安全座椅@@ 44
兒童書架@@ 44
全場熱賣 44
全膠 44
公主鞋@@ 44
公園 44
冰雪@@ 44
凌 44
凹槽@@ 44
切割機 44
副食品 44
力士 44
力量@@ 44
功放@@ 44
勇士@@ 44
勳@@ 44
化妝棉@@ 44
十月@@ 44
千年@@ 44
即可@@ 44
只要@@ 44
可愛少女心@@ 44
吃飯桌子@@ 44
吐司 44
咪咪@@ 44
品出清 44
品樂家@@ 44
哈 44
唇露 44
單只@@ 44
喵喵 44
噴壺@@ 44
嚕嚕米@@ 44
四款 44
圓珠 44
地球 44
塑封@@ 44
墨鏡女@@ 44
外牆@@ 44
多益@@ 44
大air@@ 44
大前賣場 44
大檐@@ 44
天使之@@ 44
太陽能燈@@ 44
奧利奧@@ 44
女子 44
女童裝 44
女香 44
妻 44
子線@@ 44
學生包 44
學生成人@@ 44
安全座椅 44
宜家 44
宸@@ 44
寇@@ 44
寫字臺 44
專家@@ 44
專拍 44
小丑 44
小戶型沙發@@ 44
小燈 44
小王子@@ 44
小零錢包 44
小顆粒@@ 44
小館 44
尖頭高跟鞋@@ 44
屈臣氏 44
帝國@@ 44
帶蓋勺@@ 44
干貝@@ 44
幾 44
床頭柜簡約現代@@ 44
廁所洗手間@@ 44
引體向上@@ 44
彩鑽@@ 44
彬@@ 44
微波爐架子@@ 44
微距@@ 44
思思@@ 44
性愛 44
情侶男女@@ 44
情侶衛衣 44
手持 44
手杖@@ 44
手遊@@ 44
打洞@@ 44
扭蛋機 44
批發零售 44
折疊傘@@ 44
抱抱@@ 44
抱枕被子兩用@@ 44
拉手 44
拉提@@ 44
掛表 44
提拉緊致@@ 44
收納凳@@ 44
收納夾 44
收音@@ 44
攻擊@@ 44
放心@@ 44
教程 44
文房四寶@@ 44
新款男生@@ 44
新款男鞋@@ 44
新款韓國@@ 44
新莊@@ 44
方便攜帶 44
方式 44
施工 44
旋轉式@@ 44
日光@@ 44
日牌 44
旱冰@@ 44
春夏秋@@ 44
春秋冬季@@ 44
春聯 44
晚會@@ 44
暈@@ 44
最大@@ 44
有線 44
有點@@ 44
木桶@@ 44
查 44
梳妝鏡 44
棉襪@@ 44
標語@@ 44
櫻桃小丸子@@ 44
歌曲@@ 44
比特@@ 44
毛髮@@ 44
民俗風@@ 44
氣墊殼 44
氣質顯瘦@@ 44
水餃@@ 44
汽機車@@ 44
汽車工具 44
汽車改裝@@ 44
汽車模型 44
汽車鑰匙扣@@ 44
沙拉碗@@ 44
沙發墊四季通用@@ 44
沙發靠墊@@ 44
沙金@@ 44
油煙@@ 44
法器 44
注 44
泫雅風@@ 44
泳衣女 44
泳鏡 44
洋基 44
洛洛精品 44
流線@@ 44
海水@@ 44
滴塑 44
滾筒洗衣機@@ 44
潔顏油 44
潤滑@@ 44
澎袖@@ 44
灣 44
烤 44
無線藍芽@@ 44
照相@@ 44
煩@@ 44
熱水袋@@ 44
牛津鞋 44
玄關櫃 44
玩具兒童@@ 44
玩色@@ 44
现代简约@@ 44
玻璃殼@@ 44
現貨免運費 44
現貨在@@ 44
理財@@ 44
生日禮 44
男包包 44
男友風@@ 44
男士運動@@ 44
男士錢包 44
男士黑色@@ 44
男女情侶 44
男童鞋 44
男運動@@ 44
發現@@ 44
白t 44
百貨專櫃@@ 44
的世界 44
皮鞋男@@ 44
目前@@ 44
相本 44
真發@@ 44
真皮包包 44
眼霜@@ 44
祝福 44
禧@@ 44
禮帽@@ 44
秒 44
秒殺全場 44
秒發 44
空盒 44
空調被 44
穿鞋@@ 44
窗簾布@@ 44
笨@@ 44
第七@@ 44
简易@@ 44
簡易小@@ 44
米桶 44
粗陶@@ 44
精品包 44
精品服飾 44
紅光@@ 44
紐約 44
純銀耳針 44
純銀飾品 44
紫外線 44
綑@@ 44
經濟學@@ 44
經理@@ 44
維他命 44
維他命c 44
維多利亞@@ 44
耳機保護套 44
背板 44
腸 44
腹 44
自動機械 44
自拍 44
與 44
舒壓 44
船錨@@ 44
色現貨 44
色號@@ 44
色鉛筆 44
芭樂@@ 44
苔@@ 44
英雄聯盟 44
英雄聯盟@@ 44
苹果@@ 44
茶器@@ 44
茶道 44
華麗 44
著用款 44
蓋板 44
薄款外套 44
藍海@@ 44
藝品@@ 44
蘆洲@@ 44
蘋果x 44
虎牌 44
行李箱女@@ 44
行李袋@@ 44
行軍床@@ 44
街頭嘻哈@@ 44
街頭風@@ 44
裙褲 44
補丁 44
補充瓶 44
補色@@ 44
裝飾用品@@ 44
裸靴@@ 44
襯衫洋裝 44
西裝外套@@ 44
觀光@@ 44
試衣@@ 44
試衣鏡 44
試題 44
誌@@ 44
調味品@@ 44
調味瓶@@ 44
調節 44
識別@@ 44
議價@@ 44
豬八革 44
超低直購 44
超激@@ 44
超薄透氣@@ 44
車款 44
軟墊 44
辦公家具 44
連體裙式@@ 44
運動用品 44
過年 44
邊條@@ 44
郵寄 44
都可@@ 44
量子@@ 44
金鑽@@ 44
鋁圈@@ 44
鍊包 44
鎏金@@ 44
鏡框@@ 44
鐳射 44
鑑定@@ 44
鑰匙鏈@@ 44
長袖套頭@@ 44
長鴻@@ 44
防滑軟底@@ 44
防腐@@ 44
限量商品 44
陸 44
隔熱墊@@ 44
集市 44
雙g壓花@@ 44
雙人加大@@ 44
雪克@@ 44
雲南@@ 44
電動滑板車@@ 44
電吹風@@ 44
電擊@@ 44
露乳@@ 44
靈動@@ 44
青年 44
韓文@@ 44
韓版女裝@@ 44
頭像@@ 44
餵奶@@ 44
餵食器 44
香料@@ 44
駱@@ 44
高保濕@@ 44
高度@@ 44
高效能@@ 44
鬥 44
魔物獵人 44
鳥籠 44
鳴人@@ 44
黑子的籃球 44
anderson 43
angel@@ 43
ara 43
asics@@ 43
astone 43
benz@@ 43
blanc 43
b群 43
cabas 43
casio卡西歐@@ 43
chane 43
chou 43
col@@ 43
crv@@ 43
dia 43
don@@ 43
fang 43
fifty 43
ful@@ 43
ica 43
impact 43
iope 43
jk制服@@ 43
jw 43
kappa 43
led電子@@ 43
lov@@ 43
makeup 43
mari@@ 43
mono 43
monsta 43
mv 43
nikeairmax 43
now 43
od 43
olive 43
oz@@ 43
peach 43
playboy@@ 43
playmobil 43
pur@@ 43
pvc配皮@@ 43
pvc防水@@ 43
qasa 43
rise 43
rouge 43
sis 43
sneakers 43
sse 43
surface 43
tiguan 43
tnf 43
twist 43
uag 43
ura 43
vu@@ 43
westwood 43
wn@@ 43
zg 43
zl 43
の店 43
テ@@ 43
一人@@ 43
一天@@ 43
一拖二@@ 43
三件式 43
三層 43
三條線 43
三輪車 43
下訂@@ 43
不對稱 43
中老年女裝@@ 43
丹尼@@ 43
二件@@ 43
二手旗艦 43
五谷雜糧@@ 43
亮顏@@ 43
仲@@ 43
休閒購物包 43
便宜賣@@ 43
保健品 43
保羅喬治 43
倪@@ 43
健行@@ 43
偶 43
傢飾 43
傳輸 43
傳輸充電線 43
元免運 43
免打孔衛生間@@ 43
兒童滑板車 43
全新免運 43
全聯@@ 43
兩條@@ 43
其他 43
冒險 43
冰棒@@ 43
冰絲 43
冷熱水龍頭@@ 43
几 43
几@@ 43
列印@@ 43
剛 43
創意歐式@@ 43
加絨加厚 43
動漫二次元@@ 43
動漫抱枕 43
包手提包@@ 43
化妝棉 43
半拖鞋@@ 43
卡娜赫拉的小動物 43
卡洛@@ 43
口氣@@ 43
可手提@@ 43
可拉@@ 43
可挑@@ 43
可移除@@ 43
台灣正版二手dvd 43
台燈 43
右 43
吃飯桌子 43
吧台椅@@ 43
吸濕 43
咖啡廳酒吧@@ 43
商務休閒女包 43
啊 43
問題 43
單人床 43
單柄@@ 43
單眼相機 43
單筒@@ 43
噹噹@@ 43
四代戰 43
坐墊子@@ 43
壁 43
壓褶@@ 43
壹 43
壽司 43
多層落地@@ 43
多用 43
夢境@@ 43
大容量多功能@@ 43
大的@@ 43
大蒜@@ 43
天然翡翠@@ 43
太太 43
太陽鏡女@@ 43
奇肌@@ 43
女上衣 43
女仆@@ 43
女僕 43
妤 43
姓名貼 43
威剛 43
娃娃機夾@@ 43
媽媽餵@@ 43
嬰幼兒童@@ 43
季節@@ 43
孫芸芸 43
安全座椅@@ 43
宵@@ 43
家居生活館 43
家用陽臺@@ 43
寄出前@@ 43
富士山@@ 43
寓@@ 43
小時內@@ 43
小櫃子@@ 43
小狗 43
小白 43
屁屁褲 43
巢 43
左右 43
左手@@ 43
已售 43
希爾@@ 43
年底@@ 43
年曆@@ 43
底褲 43
店長@@ 43
康乃馨@@ 43
彈潤@@ 43
形象@@ 43
彩色筆 43
後照鏡@@ 43
徒@@ 43
徠@@ 43
復健@@ 43
復刻版 43
循環 43
情侶短t 43
情侶運動鞋 43
慾望@@ 43
手搖鈴 43
手機充電@@ 43
手鏈女@@ 43
手電鉆@@ 43
掛牌@@ 43
掛衣鉤@@ 43
描金@@ 43
揹包 43
撞色條紋@@ 43
擴香石 43
敦@@ 43
斑馬紋@@ 43
新款潮韓版百搭@@ 43
新生兒童@@ 43
新茶@@ 43
明裝@@ 43
書籤@@ 43
替代@@ 43
有優惠 43
木材@@ 43
本土@@ 43
板凳 43
果凍包 43
架置物架@@ 43
架落地@@ 43
染料@@ 43
梯子 43
椰棕@@ 43
樂譜@@ 43
權 43
欣欣代購 43
歐美新款@@ 43
正面@@ 43
毛帽@@ 43
毛氈@@ 43
毛衣女 43
民謠@@ 43
氣嘴@@ 43
水彩 43
水星錶系 43
沙包 43
沙發罩@@ 43
波西米亞風@@ 43
洗髮 43
浴帽 43
測試 43
游泳衣女@@ 43
溶解@@ 43
滋養霜 43
滿版玻璃貼 43
漫畫書 43
漬 43
潤唇膏@@ 43
濕紙巾@@ 43
火鍋店@@ 43
炭 43
炸彈@@ 43
烏克麗麗@@ 43
烤爐@@ 43
無油煙@@ 43
無需@@ 43
煮粥@@ 43
熨斗 43
爵 43
特別 43
特技@@ 43
狗頭包 43
玩偶娃娃 43
現代創意@@ 43
現代客廳@@ 43
現貨免等 43
理論與實務 43
瑞典 43
璐@@ 43
生活家居館 43
男士外套@@ 43
疊 43
白色蕾絲@@ 43
白菜@@ 43
直郵@@ 43
相片 43
盾牌@@ 43
眼鏡架 43
睡覺抱枕@@ 43
睫毛蕾絲@@ 43
短袖t恤男 43
短袖女@@ 43
石榴@@ 43
研究 43
碳酸@@ 43
神經@@ 43
種顏色 43
積木玩具 43
端 43
竹纖維@@ 43
答@@ 43
簡易組裝@@ 43
簡約風 43
粉晶 43
粧@@ 43
精粹 43
精華油 43
紅包 43
純棉翻領@@ 43
純黑@@ 43
紗網@@ 43
紙巾架@@ 43
紫藤@@ 43
結單@@ 43
經典時尚 43
經典老花 43
綠水鬼@@ 43
羊肉 43
美勞 43
美男@@ 43
老爹鞋女@@ 43
胡子@@ 43
脆片 43
脊椎@@ 43
臥室內@@ 43
自我@@ 43
自留款 43
花花世界 43
芹@@ 43
萊卡棉@@ 43
葡萄牙@@ 43
蒂蒂 43
蓮花 43
蔥 43
藤席@@ 43
蘋果小舖 43
蘋果無線藍牙耳機@@ 43
蛋捲 43
蝦皮美食外送 43
蝦米@@ 43
蟬@@ 43
裝訂@@ 43
裱 43
裸粉 43
褥@@ 43
訂金 43
設計師款@@ 43
詢 43
詢價@@ 43
試管 43
試香 43
認明@@ 43
語言@@ 43
誠可議 43
調光 43
變成@@ 43
貝克@@ 43
賦@@ 43
賺@@ 43
超商取貨@@ 43
超薄款@@ 43
超長待機 43
足浴盆@@ 43
車內飾品@@ 43
車殼 43
車身貼 43
軟底防滑@@ 43
軟膠吊飾 43
軟裝飾品@@ 43
送給@@ 43
透卡 43
透明塑膠@@ 43
連衣裙子@@ 43
連身裝 43
運動短袖 43
遙控汽車@@ 43
鄉村 43
配件包 43
酥油@@ 43
金光@@ 43
金沙@@ 43
金石@@ 43
鈔@@ 43
鈴木 43
鉛筆褲@@ 43
銀扣@@ 43
銀釦 43
鋁材@@ 43
錄影@@ 43
鍋蓋 43
鎚 43
鏡柜@@ 43
钱包 43
長卷發@@ 43
長度@@ 43
長桌@@ 43
長榮@@ 43
門口小@@ 43
門禁@@ 43
防曬衣女@@ 43
防滑鞋 43
陀螺 43
限量特價 43
除甲醛@@ 43
隨手杯@@ 43
雀斑@@ 43
雙肩帶@@ 43
震動按摩棒 43
霏@@ 43
革命@@ 43
類似@@ 43
風水 43
風鏡 43
飛輪@@ 43
食物 43
飯糰@@ 43
餐車 43
香腸@@ 43
馬戲團@@ 43
高田賢三 43
魔鏡@@ 43
鱈魚@@ 43
麗莎 43
黃水晶 43
龍普@@ 43
act 42
ala 42
anna@@ 42
ariel 42
az 42
bao 42
ben 42
bk@@ 42
bling@@ 42
blossom 42
brown@@ 42
bun@@ 42
camera 42
crocs 42
cube 42
dis@@ 42
dkny 42
dresseum 42
dual 42
dur@@ 42
effect 42
evo@@ 42
fen 42
flo@@ 42
fog 42
france 42
fro@@ 42
harden 42
heritage 42
ini 42
jun@@ 42
kang@@ 42
ld@@ 42
led發光@@ 42
lia 42
lolita 42
look@@ 42
ltd 42
luna 42
mai@@ 42
mann 42
mbm 42
medium 42
minnie 42
msp 42
nic@@ 42
nikeair@@ 42
novo@@ 42
pouch 42
pra@@ 42
qb 42
rbrick 42
sheturwx 42
shot 42
socks 42
soldier 42
stephen 42
sui@@ 42
tfboys@@ 42
t桖@@ 42
ue 42
vga@@ 42
wc 42
yun@@ 42
yung 42
y型@@ 42
zo 42
に@@ 42
一壺@@ 42
一字隔板@@ 42
一拖三@@ 42
一體成型 42
三方@@ 42
不銹鋼水槽@@ 42
不銹鋼真空@@ 42
且@@ 42
世紀 42
主題 42
之子 42
之路 42
乳油木@@ 42
二人@@ 42
二手童裝 42
二次進場 42
二胡@@ 42
五代@@ 42
亭 42
亮鑽@@ 42
代购@@ 42
件式 42
企業 42
伊布@@ 42
伴侶@@ 42
低幫板鞋 42
作者@@ 42
俐@@ 42
修正@@ 42
偉 42
備 42
儂@@ 42
光之@@ 42
免安裝 42
免稅店@@ 42
免運優惠 42
兒童自行車@@ 42
兜兜@@ 42
內搭褲@@ 42
內衣內褲@@ 42
全套裝@@ 42
全新nike 42
全膠@@ 42
八字@@ 42
冬季加厚@@ 42
冰塊 42
冰藍 42
减@@ 42
分褲@@ 42
分體式@@ 42
刮 42
刻度 42
剪發@@ 42
創意廚房@@ 42
劉 42
加濕器家用@@ 42
加熱 42
勇者鬥惡龍 42
北歐簡易@@ 42
北歐風情@@ 42
午安枕 42
半袖上衣 42
卡帶@@ 42
原廠正品@@ 42
厭@@ 42
古著襯衫 42
只能@@ 42
可愛學生@@ 42
可放 42
吊繩 42
同志@@ 42
名器@@ 42
名媛 42
呈@@ 42
呱@@ 42
品質一流 42
哩@@ 42
唱 42
商務皮帶 42
啊@@ 42
因為@@ 42
圓圈耳環 42
培 42
基礎款@@ 42
墻飾@@ 42
夏季新款男士@@ 42
夏新@@ 42
多卡@@ 42
大卡 42
大娃娃 42
大野@@ 42
大黃蜂 42
天地 42
天天出貨 42
天貓@@ 42
奇美 42
套鞋@@ 42
套頭上衣 42
奥@@ 42
女士包 42
女段 42
女涼鞋@@ 42
威爾@@ 42
娜美@@ 42
字典 42
存錢桶 42
孩子 42
宅 42
完結 42
客廳陽臺@@ 42
家庭裝@@ 42
家用宿舍@@ 42
實務@@ 42
寵物窩 42
寶麗來@@ 42
對戒@@ 42
小紅書@@ 42
小鐵@@ 42
尼克@@ 42
尿墊 42
居家收納廚房生活現貨 42
岱@@ 42
工具車@@ 42
布羅利 42
帆布配@@ 42
師傅@@ 42
平底拖鞋 42
幼童 42
床邊小柜子@@ 42
底盤@@ 42
廠家狂歡滿千減 42
強光手電筒@@ 42
强@@ 42
彎管@@ 42
得標 42
復古百搭@@ 42
復合@@ 42
微軟@@ 42
悟吉塔 42
意大利進口@@ 42
懒人@@ 42
懸疑@@ 42
戀愛 42
戶外庭院@@ 42
戶外旅行@@ 42
手動 42
才 42
打氣機 42
抬頭@@ 42
拉麵@@ 42
拼裝玩具@@ 42
指偶 42
指套 42
按摩儀@@ 42
挪@@ 42
挺 42
掀蓋 42
接受@@ 42
推出@@ 42
搏擊@@ 42
擬@@ 42
擴香瓶 42
攝像機 42
攝影棚@@ 42
收據 42
故事機 42
故宮@@ 42
效率@@ 42
敞@@ 42
整理袋 42
文件櫃 42
文件袋 42
新款特賣 42
新配色@@ 42
旅行收納袋@@ 42
旋 42
日式和風@@ 42
日清@@ 42
星星月亮@@ 42
春夏季 42
春天 42
晨光@@ 42
普普熊@@ 42
暑@@ 42
暴力@@ 42
最低@@ 42
有發票 42
有趣@@ 42
木藝@@ 42
果凍底 42
柴 42
柿@@ 42
栗 42
桌上遊戲 42
桑 42
桶裝水@@ 42
梳妝台 42
棉衣外套 42
橘子 42
機械表 42
欧美@@ 42
歐巴@@ 42
正生 42
比亞 42
毛絨絨@@ 42
氣息 42
水晶絨@@ 42
水果籃@@ 42
水質@@ 42
汐@@ 42
沐浴球 42
沙發小戶型@@ 42
波輪@@ 42
洋洋@@ 42
洗衣籃 42
浣熊@@ 42
海灘 42
涼蓆 42
淡香精@@ 42
混紡@@ 42
清倉特價 42
清潔刷@@ 42
減負@@ 42
湖人@@ 42
湯瑪士@@ 42
滋潤型 42
滑鼠墊@@ 42
滿分@@ 42
潔膚乳 42
潮t@@ 42
潮女@@ 42
濕巾@@ 42
濾鏡@@ 42
烏拉圭@@ 42
熨衣板@@ 42
熱感@@ 42
熱風@@ 42
牆上置物架@@ 42
牛乳@@ 42
特價款 42
犀牛 42
狗屋@@ 42
狗年@@ 42
玩具套裝@@ 42
現貨特賣 42
瓷器 42
男女式@@ 42
疾風傳 42
發現 42
白底黑@@ 42
白鞋@@ 42
百合 42
百搭簡約@@ 42
皆可使用 42
皇室@@ 42
皮蓬@@ 42
盃 42
盅@@ 42
眉粉 42
睡枕@@ 42
睡眠 42
短褲女@@ 42
矽膠軟殼 42
碗公 42
碟dvd 42
磨破@@ 42
神奇寶貝tretta 42
神話@@ 42
空調出風口@@ 42
穿越@@ 42
窯@@ 42
窺@@ 42
立架@@ 42
端午@@ 42
第一 42
筋膜@@ 42
管家 42
粉筆@@ 42
精神@@ 42
約定@@ 42
純棉t恤@@ 42
純棉紗布@@ 42
網衣 42
緩解@@ 42
置物盒@@ 42
美容液 42
美津濃@@ 42
美洲@@ 42
美觀@@ 42
翡@@ 42
翻蓋女包 42
耗@@ 42
聖誕禮物@@ 42
聚光@@ 42
聚宝阁 42
背帶褲@@ 42
臺式機電腦@@ 42
舒眠@@ 42
艦隊收藏 42
芝士@@ 42
茶壺茶杯@@ 42
莊園 42
萬家@@ 42
萬用 42
蒜蓉@@ 42
薩克斯@@ 42
薯條 42
藍標 42
藍綠色@@ 42
蘭花 42
蛋黃@@ 42
蜜蠟@@ 42
蝴蝶結髮夾 42
衣機@@ 42
被罩@@ 42
褲架@@ 42
親愛的@@ 42
角川@@ 42
計畫@@ 42
誠 42
護髮膜 42
譽@@ 42
負離子吹風機 42
財神爺@@ 42
超商取貨 42
超夯 42
跟著@@ 42
路飛 42
軟體@@ 42
轉運 42
辣媽@@ 42
迦@@ 42
追加@@ 42
送小@@ 42
逗貓@@ 42
連結@@ 42
運動上衣@@ 42
達特@@ 42
適用iphone 42
遮雨@@ 42
遮風@@ 42
邊幾角幾@@ 42
郵局@@ 42
酵母@@ 42
酷咕鴨 42
醫學@@ 42
重複使用 42
野炊@@ 42
量杯 42
鈴木@@ 42
鉑金包 42
銀白 42
鋼針耳環 42
錄音帶 42
錬@@ 42
鍍銀@@ 42
鑿@@ 42
長袖套裝@@ 42
門廳櫃@@ 42
門鈴 42
開口笑@@ 42
開幕 42
關係 42
防彈 42
防滑防水@@ 42
附背帶 42
降溫 42
雅痞@@ 42
雜志@@ 42
雨鞋女@@ 42
雲台 42
電子琴 42
電競滑鼠 42
電量@@ 42
霏慕@@ 42
青年版 42
青銅@@ 42
面紙 42
韓國帶回@@ 42
韻律@@ 42
頭層皮 42
頭帶@@ 42
頸圈 42
駝背矯正@@ 42
高絲@@ 42
高頻@@ 42
高點 42
魔芋@@ 42
鱗@@ 42
鳴人 42
麗嬰@@ 42
麥昆 42
麻辣燙@@ 42
黑邊@@ 42
黑面 42
黑面膜 42
acg 41
ail 41
anti 41
aqu@@ 41
axis 41
balenciaga@@ 41
batman 41
bb戰士 41
bella 41
brit@@ 41
cen@@ 41
chicago 41
cindy 41
clio 41
clo@@ 41
c數位最潮流 41
dance 41
diy材料@@ 41
doraemon 41
elantra 41
elizabeth 41
elle@@ 41
emma 41
epoch 41
fo 41
freak 41
game@@ 41
goose 41
gopro@@ 41
gucci男女@@ 41
hardy@@ 41
hello@@ 41
hitachi日立 41
icon 41
ins爆款@@ 41
juicy 41
kose@@ 41
laneige@@ 41
leg@@ 41
med 41
mistine 41
nl 41
nv 41
ona 41
otg 41
pas@@ 41
people 41
pooh 41
port 41
posh 41
pper@@ 41
px 41
q彈@@ 41
rac 41
rex 41
ry 41
samsung@@ 41
sli@@ 41
ssa 41
syn@@ 41
tan 41
tc@@ 41
three 41
three@@ 41
timberland@@ 41
toe 41
tur@@ 41
t恤女 41
und@@ 41
victor 41
wan 41
wc@@ 41
winflo 41
wor@@ 41
wow@@ 41
xd 41
zoe 41
ち@@ 41
エ@@ 41
ニ@@ 41
一中@@ 41
一張@@ 41
一百@@ 41
一般版 41
一號@@ 41
七彩 41
三用 41
三聯畫@@ 41
三部曲 41
上網 41
不生@@ 41
专柜@@ 41
並@@ 41
主管@@ 41
也能@@ 41
五件套 41
五款 41
五色可選 41
人蔘@@ 41
仙鶴@@ 41
代客@@ 41
代戰靴 41
伊士達 41
低脂@@ 41
住宿券 41
侯@@ 41
便携@@ 41
便條紙@@ 41
俐落@@ 41
保健品@@ 41
保安@@ 41
保護鏡 41
修枝@@ 41
修邊@@ 41
傘擺@@ 41
僧@@ 41
億家達@@ 41
充电@@ 41
光觸媒@@ 41
光電@@ 41
免燙@@ 41
兒童學習桌@@ 41
兒童帳篷@@ 41
內含 41
內衣套裝 41
內部@@ 41
全新正韓@@ 41
全臉@@ 41
兩人@@ 41
六甲村@@ 41
六色 41
兰@@ 41
凜 41
切割 41
利亞@@ 41
到期 41
刺 41
創意復古@@ 41
創意鐵藝@@ 41
加厚大號@@ 41
加大碼 41
加棉@@ 41
動的@@ 41
包組 41
包覆 41
化油@@ 41
北歐餐椅@@ 41
卡尺 41
卡比@@ 41
卸妝乳 41
原聲帶 41
反光貼紙 41
古董 41
句@@ 41
可肩背 41
可開@@ 41
吃飯桌@@ 41
合購 41
合頁@@ 41
吊式@@ 41
含發票 41
告示牌 41
哭@@ 41
單包 41
單向@@ 41
單圈@@ 41
單曲 41
因 41
图@@ 41
圓領上衣@@ 41
圖解 41
圣羅蘭@@ 41
地藏@@ 41
埋@@ 41
塔羅牌@@ 41
塞爾@@ 41
壁鐘 41
夏季時尚@@ 41
夜店女裝@@ 41
大勾 41
大同 41
大大 41
大學用書 41
大班@@ 41
大理石紋 41
大紅色@@ 41
大馬士革@@ 41
大魚@@ 41
套筒組 41
奧德賽 41
女款單肩包 41
女生衣著@@ 41
女鞋子@@ 41
奶茶色@@ 41
好想@@ 41
好玩@@ 41
媽咪下標 41
嫩 41
子彈頭@@ 41
宇智波@@ 41
客訂區 41
家飾@@ 41
容器 41
寇馳 41
實際@@ 41
專柜正品@@ 41
小圓包 41
小擺件 41
小毛巾 41
小物包 41
小眾設計@@ 41
小野@@ 41
尔@@ 41
尖端@@ 41
山本@@ 41
巡 41
工具袋 41
布丁 41
帆布袋@@ 41
帶鏡子@@ 41
帽子女夏天@@ 41
平光鏡 41
平行@@ 41
年節@@ 41
床尾凳@@ 41
後備箱@@ 41
微波爐烤箱@@ 41
念珠 41
情侶t 41
情侶錶@@ 41
惠普 41
憑證 41
應用 41
懶懶熊@@ 41
懷孕@@ 41
或 41
扭扭@@ 41
抓 41
投影儀 41
折疊餐桌@@ 41
拉桿箱萬向輪@@ 41
指環扣 41
指環扣@@ 41
指甲油膠@@ 41
指紋 41
按摩梳 41
捧花@@ 41
捲髮棒 41
掀蓋式@@ 41
排球@@ 41
排骨@@ 41
掛毯 41
接觸@@ 41
提鍋 41
插電式@@ 41
摳@@ 41
擁抱@@ 41
擺放@@ 41
支撐架@@ 41
敘@@ 41
教練外套 41
散熱 41
數量 41
斐@@ 41
斜挎單肩@@ 41
斧@@ 41
新世紀@@ 41
新古典@@ 41
旋轉升降@@ 41
旗艦 41
日系風 41
時尚休閒運動鞋 41
時尚潮流女包 41
普拉@@ 41
智能手表@@ 41
書架組合@@ 41
最後 41
會計學 41
月牙@@ 41
有口袋 41
末 41
果果 41
柜儲物柜@@ 41
柯南 41
格拉@@ 41
楚@@ 41
橫式 41
正生@@ 41
步梯@@ 41
毅@@ 41
水壺袋 41
水手服@@ 41
水鬼 41
汗蒸@@ 41
汗衫@@ 41
沉水@@ 41
沖孔@@ 41
油漆 41
油瓶 41
泡水@@ 41
泡麵碗 41
波浪架 41
泰國代購 41
泳池@@ 41
洋蔥@@ 41
洗手池@@ 41
洗手盆 41
洗浴@@ 41
洗臉盆 41
浮世繪@@ 41
海藍寶@@ 41
消毒器@@ 41
淩@@ 41
游 41
炭治郎 41
無痕內褲 41
無線充電 41
煙斗 41
煥采@@ 41
熬@@ 41
熱銷現貨 41
燈架@@ 41
燦烈 41
父親節@@ 41
牛奶絲@@ 41
特惠組 41
特賣會 41
現貨批發 41
球紋@@ 41
瑜珈褲 41
環保餐具 41
生化@@ 41
生日蛋糕@@ 41
生活家居 41
生活鋪 41
產地@@ 41
男女成人@@ 41
男版 41
男生款 41
發財包 41
白綠@@ 41
白藍紅 41
皮克斯 41
直板@@ 41
直柄@@ 41
省錢@@ 41
真皮錶帶 41
短夾錢包 41
短柄@@ 41
短袖t恤上衣 41
短袖包屁衣 41
石磨@@ 41
破壞 41
硯@@ 41
碗盤 41
磨機@@ 41
神偷奶爸 41
禁止@@ 41
禦寒@@ 41
禮品盒 41
禮袋 41
立式 41
立體口罩 41
競速@@ 41
笙@@ 41
籌@@ 41
粉藍@@ 41
精品舖 41
精梳@@ 41
精緻牛皮@@ 41
紅勾 41
純棉透氣@@ 41
級別 41
素顏霜@@ 41
組織@@ 41
結束@@ 41
總代理 41
繪本架@@ 41
繽@@ 41
置地@@ 41
翅@@ 41
耳扣@@ 41
耳線@@ 41
肯 41
背帶裙@@ 41
胡 41
胸圍 41
腿毛@@ 41
臘腸@@ 41
臟衣籃@@ 41
自動上@@ 41
自封@@ 41
自帶線@@ 41
臺式 41
舒適潮流 41
茶臺 41
茹 41
莎莉@@ 41
著色@@ 41
蔓越莓 41
蔚@@ 41
蕩@@ 41
薄長袖 41
藏青@@ 41
蘇格蘭@@ 41
蘋果xs 41
蜜餞@@ 41
衛衣套裝 41
衣服女@@ 41
表盤@@ 41
被單@@ 41
裁縫@@ 41
裝飾架@@ 41
裸色 41
褲管@@ 41
視訊盒 41
親自@@ 41
解構@@ 41
訂書@@ 41
設 41
議@@ 41
販@@ 41
買五送一 41
賠本@@ 41
賭@@ 41
超好 41
超好用@@ 41
超重低音炮@@ 41
踏步@@ 41
車罩@@ 41
車車@@ 41
軟陶@@ 41
轉接座 41
轻@@ 41
辦 41
辦公室午休@@ 41
近新 41
近視眼鏡 41
迪斯@@ 41
追求速度 41
送人@@ 41
送閨蜜@@ 41
速效@@ 41
速賣通@@ 41
造型悠遊卡 41
運動跑步鞋@@ 41
達摩 41
達芙妮@@ 41
適配@@ 41
邏輯@@ 41
鄰@@ 41
酒店餐廳@@ 41
重低音炮@@ 41
金泰亨 41
金鋼@@ 41
鈦晶 41
鉛筆袋 41
銀離子@@ 41
鋼珠@@ 41
鍵盤膜 41
鐘表 41
鐵牌 41
鑰 41
镜 41
長盒 41
長袖t恤女@@ 41
長襪@@ 41
防寒保暖@@ 41
阿曼尼 41
阿里@@ 41
附腰帶 41
降噪 41
限定商品 41
限時熱賣 41
陶瓷杯@@ 41
隱藏版 41
雄獅 41
雙北@@ 41
雙層床 41
雜貨店@@ 41
雪紡連衣裙@@ 41
電剪 41
電動自行車@@ 41
電視柜 41
鞋款@@ 41
韓國正品 41
韓版潮流 41
飄帶@@ 41
飛行器@@ 41
飛鏢 41
餓@@ 41
馬來西亞 41
馬來西亞@@ 41
馮@@ 41
馴@@ 41
體驗 41
體驗包 41
體驗組 41
高麗@@ 41
髮器 41
魚子醬牛皮@@ 41
鯽魚@@ 41
黃銅 41
黑底白@@ 41
鼓棒 41
齋@@ 41
armour安德瑪 40
asus@@ 40
ata 40
bang 40
ber 40
bikini 40
bin@@ 40
bit 40
blo@@ 40
bn@@ 40
bounce 40
case@@ 40
circle 40
club@@ 40
coin 40
comp@@ 40
costco好市多代購 40
c賞 40
daisy 40
desert 40
df@@ 40
die 40
diesel 40
duffy@@ 40
d立體墻貼@@ 40
eyeshadow 40
fas@@ 40
faye 40
flash 40
frozen 40
gli@@ 40
grace@@ 40
handle 40
hollister@@ 40
hood 40
hou@@ 40
jac@@ 40
kak@@ 40
led燈泡 40
lei@@ 40
levis@@ 40
mate@@ 40
melody@@ 40
multi 40
neverfull 40
over 40
park 40
pic@@ 40
platinum 40
plus全包@@ 40
pul@@ 40
pv@@ 40
ram@@ 40
rin@@ 40
see@@ 40
shan 40
shirt@@ 40
sor@@ 40
tag 40
tape 40
tina 40
tiny 40
t字@@ 40
versace范思哲@@ 40
vy 40
v格@@ 40
work@@ 40
ws@@ 40
xmart 40
xo@@ 40
xq 40
ybw 40
yn 40
yoyo 40
一本 40
一機@@ 40
一路@@ 40
三兄弟 40
三木@@ 40
三條@@ 40
三眼計時日曆@@ 40
下標前請@@ 40
乾燥 40
京 40
亮絲@@ 40
企@@ 40
佑 40
侃爺@@ 40
保溫壺@@ 40
保溫箱@@ 40
信用卡 40
修甲@@ 40
偵@@ 40
僅試@@ 40
優盤 40
儲物收納@@ 40
免运 40
兒童房 40
兒童書包@@ 40
全封閉@@ 40
全智賢@@ 40
公克@@ 40
六字真言@@ 40
冰激凌@@ 40
冷壓@@ 40
制冰@@ 40
前導@@ 40
前燈 40
剎@@ 40
創意禮品 40
創意禮物@@ 40
劇場 40
加寬 40
助眠@@ 40
動物造型@@ 40
化毛@@ 40
半身裙女 40
卡位 40
原廠貨 40
口金@@ 40
古早味 40
可插卡 40
可機洗 40
可調整 40
合奏@@ 40
名人@@ 40
吧台椅 40
咕@@ 40
咨詢@@ 40
品名 40
哆啦@@ 40
商務手錶 40
喝茶@@ 40
喬登@@ 40
單人學生宿舍@@ 40
單眼 40
嘴唇@@ 40
噹 40
四個@@ 40
四季款@@ 40
四核心 40
四角褲@@ 40
圓領寬松@@ 40
均 40
培林@@ 40
報警@@ 40
墊板 40
墻面裝飾 40
夏季潮牌@@ 40
夏季百搭@@ 40
夏款 40
外出便攜@@ 40
多功能創意@@ 40
多功能廚房@@ 40
夜用@@ 40
夜跑@@ 40
夢露@@ 40
大促銷 40
大氣墊@@ 40
大码@@ 40
大米@@ 40
大翻領@@ 40
大馬標@@ 40
天天特價@@ 40
奎@@ 40
女可愛@@ 40
女士包包@@ 40
女戒 40
女裝t恤 40
好吃 40
好貨秒殺 40
妮絲 40
姊妹@@ 40
娃神器 40
媛@@ 40
嬉@@ 40
嬰兒手推車@@ 40
學生寬松@@ 40
學生襪 40
官方旗艦店@@ 40
官網同步@@ 40
定妝噴霧 40
宣 40
密碼箱 40
富發牌 40
實拍照 40
實用高檔@@ 40
實驗室 40
寬鬆中長款@@ 40
射擊@@ 40
專場 40
專營 40
尊貴@@ 40
導航支架 40
小logo@@ 40
小便@@ 40
小型多功能@@ 40
小孩子@@ 40
小棧 40
小铺 40
屁股 40
履@@ 40
屯@@ 40
嶺@@ 40
巖板@@ 40
工程 40
布衣櫃@@ 40
平安符@@ 40
平底百搭@@ 40
平輸 40
床笠 40
庫裏@@ 40
康復@@ 40
廠家直銷tp 40
廣 40
廣場@@ 40
張入 40
復 40
復古帽 40
復活節 40
德國製 40
怒@@ 40
思維@@ 40
性福@@ 40
愛寶@@ 40
感恩@@ 40
憨@@ 40
懶人支架@@ 40
懶熊 40
戰斗@@ 40
戶外野營@@ 40
戶外露營@@ 40
手工真皮@@ 40
手帳本@@ 40
手袋m 40
打底裙 40
托運@@ 40
承重 40
把套 40
投 40
抖@@ 40
拆封 40
拉筋@@ 40
指紋密碼@@ 40
挑戰最低價 40
挑逗 40
捲髮器 40
推荐@@ 40
換衣@@ 40
搖搖馬@@ 40
搬家出清 40
攜帶 40
整圖@@ 40
文具袋 40
文昌@@ 40
新品特惠e 40
新款春秋@@ 40
新款熱賣@@ 40
新款男鞋 40
日本npg 40
日用品@@ 40
日系軟妹@@ 40
日規@@ 40
星鑽@@ 40
時尚真皮@@ 40
普洱茶 40
景德鎮陶瓷@@ 40
暗黑系@@ 40
替換 40
會議室@@ 40
會議桌 40
有線耳機 40
服務員@@ 40
未拆@@ 40
本月@@ 40
杜嘉班納 40
柏林@@ 40
格格@@ 40
桌椅套裝@@ 40
桔 40
條形@@ 40
椎@@ 40
極美@@ 40
標準版 40
模型玩具 40
模組@@ 40
橙色@@ 40
歐美日韓@@ 40
正廠零件 40
正確@@ 40
正裝 40
氣質耳環 40
氧化@@ 40
水平儀 40
水箱罩 40
汽車遮陽@@ 40
沸@@ 40
泰國進口@@ 40
泰迪比熊@@ 40
泳鏡@@ 40
洋基@@ 40
活氧@@ 40
浦 40
浴室洗澡@@ 40
海外 40
淋浴器@@ 40
深v領@@ 40
混搭 40
測溫@@ 40
滴 40
漏肩@@ 40
漫遊@@ 40
潮流韓版@@ 40
無涂層@@ 40
焦 40
煙酰胺@@ 40
煞車 40
煮 40
煮飯@@ 40
熱水瓶 40
燙髮@@ 40
爆款秒殺 40
爆紅@@ 40
爸 40
牡蠣@@ 40
牧牧家@@ 40
特斯@@ 40
猿 40
獨一無二 40
獨家實拍 40
玉髓 40
玻璃球@@ 40
珈@@ 40
珊瑚絨 40
珍珠流蘇@@ 40
現貨快速出貨 40
璽@@ 40
瓢@@ 40
男士公文包 40
男士單肩包 40
男士韓版@@ 40
男大容量@@ 40
男女手錶 40
男款短袖 40
男錶女錶 40
癢@@ 40
登山車 40
白板 40
白熊@@ 40
白粉@@ 40
百元童裝 40
皆適用 40
皺摺@@ 40
盤組 40
直升機@@ 40
真皮包 40
真花@@ 40
眼唇卸妝液 40
眼線筆@@ 40
睡美人@@ 40
短版外套 40
短袖tee 40
研磨機@@ 40
礦石@@ 40
禹@@ 40
秀禾服@@ 40
秋冬必備 40
秋冬新品 40
租 40
積雪草@@ 40
空調扇@@ 40
穿衣@@ 40
節能 40
簡版 40
簡約落地@@ 40
簽字筆@@ 40
粉碎機 40
紗簾@@ 40
結合@@ 40
結婚禮物 40
結實@@ 40
絕色@@ 40
經典印花@@ 40
經典黑色@@ 40
網球 40
繁中@@ 40
美甲工具 40
耳釘耳環 40
職人 40
肚兜@@ 40
肩部@@ 40
背膠 40
背貼 40
胡迪@@ 40
脾@@ 40
腰掛皮套 40
腰間@@ 40
腸胃@@ 40
臥室小@@ 40
臥室燈 40
自 40
自拍神器@@ 40
臺釣@@ 40
色料 40
花型@@ 40
花環@@ 40
花盆架 40
范冰冰@@ 40
茶室@@ 40
菊花茶@@ 40
菜罩@@ 40
菩薩 40
萬國 40
葉黃素 40
葛根@@ 40
蓋板@@ 40
薄棉@@ 40
薩摩@@ 40
藍紅@@ 40
藥盒 40
蘇菲@@ 40
蘋果x手機殼iphone 40
蛤蟆@@ 40
蜜粉刷 40
螺絲起子 40
衝鋒@@ 40
衣服架 40
衰@@ 40
裁剪 40
裹@@ 40
製冷@@ 40
西裝褲@@ 40
觀察@@ 40
觸摸屏@@ 40
計步@@ 40
訓練鞋@@ 40
調味盒@@ 40
警車 40
護肘 40
變色龍 40
貓屋@@ 40
貝比@@ 40
買賣 40
貼紙書 40
越野車 40
躺 40
軟性@@ 40
軟硬@@ 40
辣味 40
連帽t恤 40
週歲@@ 40
邂逅@@ 40
還是@@ 40
金冠 40
金線@@ 40
金緻@@ 40
針扣 40
針織背心@@ 40
銀字 40
銀魂 40
銅板@@ 40
鋁製@@ 40
鋤@@ 40
鍋鏟@@ 40
鍍鉻 40
鎖水@@ 40
鏽 40
鐵鍋@@ 40
鑲嵌 40
長上衣 40
長袖襯衣 40
門牌 40
閃鑽@@ 40
防刮皮革 40
防摔軟殼 40
防水防霉@@ 40
防狼@@ 40
防雨 40
限制@@ 40
陰陽師 40
陽具 40
隊長 40
雙卡@@ 40
雙開@@ 40
雪寶 40
雪花秀@@ 40
雷根@@ 40
電源線@@ 40
霧黑 40
面條@@ 40
鞋盒@@ 40
鞭 40
韓國東大門 40
韓版潮流男短t 40
頸 40
風鈴 40
飞@@ 40
餐具套裝@@ 40
餐卷 40
馳 40
騎行裝備@@ 40
骰子@@ 40
高畫質@@ 40
高精度 40
鬼洗@@ 40
魔女@@ 40
魔獸@@ 40
魔王@@ 40
魔術 40
魚眼 40
魷魚@@ 40
鮮肉@@ 40
鹵@@ 40
麒麟@@ 40
麻將 40
黑膠 40
黑黃@@ 40
鼻 40
龍眼@@ 40
龙@@ 40
accessories 39
aki 39
ast@@ 39
back@@ 39
banpresto 39
bape@@ 39
bbgo 39
bie@@ 39
bikini@@ 39
bonnie 39
cell 39
charlotte 39
cher@@ 39
chia 39
city系列@@ 39
cloud 39
cover@@ 39
cur@@ 39
das 39
deep 39
doris 39
dsq@@ 39
dun@@ 39
duo@@ 39
eli@@ 39
fashion@@ 39
feel 39
fine 39
fish@@ 39
flap 39
formula 39
ful 39
gba 39
gin@@ 39
goods 39
gti 39
gucci牛皮@@ 39
havaianas 39
heat 39
hills 39
hon@@ 39
kam@@ 39
keds 39
kur@@ 39
leboy@@ 39
lemon 39
lunar@@ 39
lyte 39
madness 39
mandy 39
matte 39
maxi 39
mdr 39
mesh 39
moire 39
n次貼 39
odyssey 39
omega@@ 39
osmo 39
ozweego 39
paris@@ 39
peace 39
rol@@ 39
ron 39
ros@@ 39
saber@@ 39
satin 39
sofina 39
sse@@ 39
stu@@ 39
sup 39
swingman 39
tough 39
typec@@ 39
ultimate 39
u型枕 39
valentino@@ 39
well@@ 39
wol@@ 39
xs號 39
yuanroro高品質@@ 39
サ@@ 39
一日@@ 39
一片 39
三生三世 39
下水 39
不分@@ 39
世家@@ 39
中小型@@ 39
中童@@ 39
中高腰@@ 39
乾衣機 39
二手店 39
五格@@ 39
交易@@ 39
亮澤@@ 39
人人@@ 39
仟@@ 39
代理版@@ 39
代購現貨 39
代购 39
休閒皮鞋 39
休閒鞋運動鞋 39
佛手@@ 39
來店@@ 39
保證正品@@ 39
倩 39
偏光鏡 39
健腹輪@@ 39
儀表臺@@ 39
優惠組 39
儲藏@@ 39
元起 39
兄@@ 39
充氣床@@ 39
免運直售新年大特價 39
兒童床 39
兒童節禮物 39
入墻@@ 39
全新書 39
全新精品 39
全車系@@ 39
兩穿 39
凡賽斯versace@@ 39
刀頭@@ 39
分鐘 39
切片 39
初中學生@@ 39
初音@@ 39
利率 39
制服誘惑 39
刺猬@@ 39
創意北歐@@ 39
劇場版@@ 39
劈@@ 39
力量 39
助 39
十 39
十足@@ 39
半價@@ 39
卸妝液 39
原文@@ 39
去毛@@ 39
口臭@@ 39
口蓋包 39
只裝 39
吃雞 39
合唱@@ 39
合購@@ 39
合集 39
后跟@@ 39
吟 39
呼吸 39
咕咕@@ 39
哈哈@@ 39
哈登 39
商務包@@ 39
商務手提包 39
喊話@@ 39
喪@@ 39
單人沙發 39
單人沙發椅@@ 39
單肩斜挎女包 39
單肩背包 39
噴火@@ 39
噴碼@@ 39
四件套純棉@@ 39
四軸@@ 39
回頭@@ 39
固定器@@ 39
圓片@@ 39
垃圾筒 39
報紙@@ 39
塌@@ 39
塔羅@@ 39
外掛@@ 39
多功能包 39
多種規格 39
大作戰 39
大全套 39
大嘴@@ 39
大禮包@@ 39
天才@@ 39
天藍 39
套房@@ 39
女友 39
奶瓶刷 39
她@@ 39
妮妮@@ 39
嫚@@ 39
嬰兒背帶@@ 39
嬰兒鞋 39
學生褲 39
學習杯 39
宇宙人@@ 39
安全鞋 39
安卓通用@@ 39
客廳吊燈@@ 39
客廳家具@@ 39
客廳電視@@ 39
寄出@@ 39
寒 39
寫字台@@ 39
寬松中長款@@ 39
封口 39
專櫃同款 39
小倉 39
小優@@ 39
小包裝@@ 39
小區@@ 39
小子@@ 39
小孩寶寶@@ 39
小楷@@ 39
小獅王 39
小藍@@ 39
小雅代購 39
小黃鴨@@ 39
居家服@@ 39
展示盒@@ 39
崗@@ 39
平底單鞋@@ 39
平民@@ 39
平頂@@ 39
年中新品促銷 39
年版 39
幻想 39
座套@@ 39
廣東@@ 39
彈力褲 39
彪@@ 39
復刻版@@ 39
復古個性@@ 39
快樂購 39
息 39
愛你 39
我們的@@ 39
戒圍 39
戶外便攜式@@ 39
房間裝飾@@ 39
手帳貼紙 39
手提包單肩包@@ 39
抄@@ 39
抗皺 39
折疊便攜@@ 39
押@@ 39
挖掘機@@ 39
挖耳@@ 39
掏耳@@ 39
掛脖式@@ 39
揹帶 39
搬運@@ 39
摩斯@@ 39
收納儲物柜@@ 39
收藏卡 39
改良旗袍@@ 39
改良版@@ 39
敲打@@ 39
文法 39
文藝小清新@@ 39
斜挎單肩包 39
斜跨女包 39
新款休閒@@ 39
新款免運 39
新款多功能@@ 39
斷 39
日本直送@@ 39
日雜 39
春夏裝@@ 39
時尚女包@@ 39
時尚潮流百搭@@ 39
時尚錶 39
暴風@@ 39
曲面 39
書簽 39
月預購 39
木吉他 39
杯麵 39
果實@@ 39
梅森@@ 39
條紋拼接@@ 39
條起賣 39
棋盤 39
楓晴萬種小姐 39
榜@@ 39
榨汁杯 39
機車貼紙 39
橡皮 39
橡皮筋 39
檀香爐@@ 39
歐萊@@ 39
步搖@@ 39
氛圍@@ 39
氣氛@@ 39
水洗牛仔褲 39
永 39
汪汪@@ 39
汽座 39
汽機車工具 39
汽车@@ 39
法鬥 39
洗脫@@ 39
洗腳盆@@ 39
活化@@ 39
消磁@@ 39
润@@ 39
液晶螢幕 39
測器 39
測距@@ 39
湯勺 39
溯溪@@ 39
滑梯@@ 39
漢服 39
漸變 39
潔廁@@ 39
瀝水籃 39
炊@@ 39
烏龍@@ 39
無影@@ 39
無線運動@@ 39
無耳洞 39
燉鍋 39
父親節 39
爽身@@ 39
獨立包裝 39
獨立筒@@ 39
环@@ 39
現貨在台@@ 39
瑯@@ 39
甜筒@@ 39
生意@@ 39
男m 39
男t@@ 39
男士機械腕錶 39
男女休閒鞋 39
男女孩 39
男版@@ 39
男青年@@ 39
男香 39
留言板 39
異色 39
疏水疏油 39
痘 39
癌@@ 39
百樂@@ 39
百花@@ 39
皮膚衣@@ 39
益智遊戲 39
盔 39
直式@@ 39
盾牌 39
真皮腰帶 39
眼镜@@ 39
眾 39
睡眠面膜 39
矩@@ 39
短項鍊 39
碟子@@ 39
祖 39
祿@@ 39
私密處@@ 39
移動 39
稅 39
空調毯 39
童年@@ 39
等身@@ 39
簡易實木@@ 39
米米@@ 39
粘膠@@ 39
精粹@@ 39
糯米@@ 39
純棉上衣 39
純棉修身@@ 39
純銅 39
純露 39
紙鈔 39
紫外線殺菌@@ 39
紫晶@@ 39
經典格子@@ 39
綺 39
縫紉機 39
繃帶 39
美日韓 39
羽絨背心 39
翻 39
耐磨底 39
耳圈@@ 39
耳骨@@ 39
聊聊上說有 39
聯名系列 39
聯繫客服 39
職員椅@@ 39
肌膚之鑰 39
肽 39
腕力@@ 39
腦 39
腰封 39
舌 39
舒緩 39
艦隊@@ 39
花圈@@ 39
菱格包 39
落地式多層@@ 39
葉黃素@@ 39
蒙娜@@ 39
蓬 39
蕾莉歐 39
藻 39
蘸@@ 39
處方@@ 39
蜂王@@ 39
螢@@ 39
衛生棉@@ 39
衛生間廚房@@ 39
衛生間洗漱臺@@ 39
裝裱@@ 39
裸光@@ 39
製冰@@ 39
褲襪@@ 39
西服 39
覺 39
角落 39
解析@@ 39
訣 39
調教 39
調理機 39
談 39
請先詢問 39
護發@@ 39
豆豆龍 39
買三@@ 39
賠售@@ 39
超便宜 39
超柔軟 39
超濃縮@@ 39
超長續航@@ 39
車尾@@ 39
車衣車罩@@ 39
軍靴 39
軟化@@ 39
迪士尼系列 39
迷宮@@ 39
送潤滑液 39
透膚 39
透視 39
通用款 39
連身泳衣 39
連身泳裝 39
運動內衣@@ 39
運動款@@ 39
過夜包 39
遮光 39
那些@@ 39
部落客@@ 39
配件組 39
配件齊全 39
配電箱@@ 39
酮@@ 39
野獸@@ 39
金属@@ 39
金鏈 39
鈕@@ 39
銅管@@ 39
鋼製@@ 39
錶款 39
鍊條包 39
鍋架@@ 39
鎖扣 39
鑰匙殼@@ 39
長明燈@@ 39
長洋裝@@ 39
門鈴@@ 39
門鎖 39
開合@@ 39
閑@@ 39
防凍@@ 39
防撞條@@ 39
防敏@@ 39
陣 39
陰蒂 39
隱扣 39
雅漾@@ 39
雙扣@@ 39
零嘴 39
雷達@@ 39
電動吸@@ 39
霧面唇膏 39
青檸@@ 39
青蘋果 39
面粉@@ 39
面紙盒@@ 39
靶 39
韓國限定 39
韓版甜美@@ 39
韶涵 39
順滑@@ 39
預防@@ 39
頸枕@@ 39
顯卡@@ 39
顯示屏@@ 39
顯色@@ 39
食堂 39
飲料杯 39
餅乾袋 39
餅機@@ 39
首爾 39
騎行服@@ 39
高硬度@@ 39
高科技@@ 39
髮油 39
鬥士 39
麟@@ 39
黑底白勾 39
黑眼圈 39
黑色白色@@ 39
齒輪 39
aid 38
alex 38
any@@ 38
ashi@@ 38
avi@@ 38
bga 38
bobo精品 38
cable 38
chao 38
cin@@ 38
cmx 38
coleman 38
couture 38
cross@@ 38
crossbody 38
daily 38
days 38
dimotiv 38
dt@@ 38
durant 38
egg 38
eq@@ 38
exchange 38
fitch@@ 38
fj 38
flor@@ 38
food@@ 38
f賞 38
gildan 38
grandline 38
gucci包包 38
gucci經典@@ 38
ham@@ 38
hat 38
hearts@@ 38
huang@@ 38
ih@@ 38
instax 38
ita@@ 38
jy@@ 38
kitty凱蒂貓@@ 38
kiwi@@ 38
kp 38
kr@@ 38
kx 38
lanvin 38
lazy@@ 38
lcd 38
lie 38
maker 38
mary 38
mexico 38
miyuki 38
mms 38
moomin 38
multi@@ 38
nan@@ 38
nina 38
pack@@ 38
peter 38
philips飛利浦 38
pho@@ 38
pig@@ 38
planet 38
pp男生@@ 38
pre 38
psp@@ 38
py@@ 38
reading 38
saddle 38
sexy@@ 38
shopping 38
side 38
snapback 38
spectra 38
standard 38
sugar@@ 38
tencel 38
tk@@ 38
tru@@ 38
tus@@ 38
twice@@ 38
under@@ 38
ure 38
usb小風扇@@ 38
vapor@@ 38
vg 38
vis@@ 38
vol@@ 38
war 38
xf@@ 38
xiii 38
xp@@ 38
ysl包包 38
yt 38
ღ唯一家@@ 38
チ@@ 38
一手@@ 38
一眼就愛上 38
一腳蹬懶人@@ 38
一郎 38
一體成型@@ 38
丁丁@@ 38
上下 38
上下床@@ 38
下標專區 38
下殺好貨 38
不死@@ 38
不沾杯@@ 38
丙@@ 38
中山@@ 38
中青年@@ 38
主人@@ 38
主動@@ 38
也可@@ 38
乳房@@ 38
乾燥玫瑰@@ 38
二十@@ 38
二次元動漫@@ 38
些@@ 38
亞光@@ 38
人字拖鞋 38
人氣 38
人頭@@ 38
代購chanel 38
代購lv 38
代購歐洲 38
休閑跑步鞋 38
休閒帽 38
休閒服 38
佬@@ 38
佳有名品 38
佳麗寶@@ 38
保固中 38
保持@@ 38
保濕化妝水 38
保護皮套 38
側掀保護套 38
傻瓜@@ 38
僅供@@ 38
光動能 38
免卡分期 38
兒童滑板車@@ 38
兒童節@@ 38
內膽包 38
全包防摔 38
全新原廠正品 38
全新含@@ 38
全民k歌@@ 38
全自動多功能@@ 38
公仔玩偶@@ 38
公益@@ 38
冷風機@@ 38
凡塞斯@@ 38
分割@@ 38
切爾西@@ 38
切面@@ 38
刮痕@@ 38
刷頭@@ 38
刺青 38
前扣@@ 38
剔@@ 38
剝皮@@ 38
創意臥室@@ 38
加厚防水@@ 38
加密加厚@@ 38
加護@@ 38
勞力士rolex@@ 38
包中包 38
包含@@ 38
包裝紙@@ 38
北歐時尚@@ 38
北歐梳妝臺臥室@@ 38
匡威converse 38
午後書房 38
半截袖@@ 38
南極@@ 38
博世 38
卷簾@@ 38
厘米 38
原廠配件 38
反應@@ 38
只有 38
只為@@ 38
可斜挎 38
台灣賣家 38
吃雞游戲@@ 38
合輯 38
吊墜耳環 38
吊帶短褲 38
吊帶背心女@@ 38
吊帶連衣裙 38
名媛風@@ 38
周邊同款@@ 38
咖啡壺@@ 38
唇蜜@@ 38
售後@@ 38
售樓處@@ 38
單肩斜跨 38
單鑽@@ 38
喷@@ 38
四星@@ 38
四軸飛行器 38
四軸飛行器@@ 38
固態硬碟 38
國標@@ 38
園丁@@ 38
土司@@ 38
塑料袋@@ 38
塑膠袋@@ 38
壓器 38
士林@@ 38
夏季款@@ 38
多功能可折疊@@ 38
多功能小@@ 38
多口袋 38
大包包@@ 38
大小戶型@@ 38
大框 38
天竺@@ 38
天馬@@ 38
奢侈品@@ 38
女傭@@ 38
女士香水@@ 38
女巫@@ 38
女生皮夾 38
奴 38
奶嘴鍊 38
奶酪@@ 38
妖精@@ 38
娃娃裝@@ 38
婚紗禮服 38
媽咪包@@ 38
媽媽餵 38
嫣@@ 38
字母t 38
宇宙 38
安心 38
宗教 38
定制logo 38
实@@ 38
客廳實木@@ 38
客廳背景墻@@ 38
客廳辦公室@@ 38
宣言@@ 38
室外 38
家樂@@ 38
家用便攜@@ 38
寢室宿舍@@ 38
實拍板鞋 38
實驗室@@ 38
實體店 38
寫真家 38
小床@@ 38
小性感@@ 38
小椅子@@ 38
小茶几@@ 38
小蒼蘭 38
小賣@@ 38
尸@@ 38
居家用@@ 38
展示櫃@@ 38
工作短褲 38
已絕版 38
已預定 38
帆布後背包 38
平台@@ 38
年款 38
幾乎全新 38
廚衛@@ 38
彙@@ 38
彩貼 38
後廂@@ 38
復古印花@@ 38
復古港味@@ 38
徵@@ 38
心理學@@ 38
怪獸大學 38
悍將 38
您 38
情侶手錶@@ 38
愛家@@ 38
成人用品@@ 38
我最便宜 38
手工編織 38
手拿錢包 38
手提單肩斜挎包 38
手提單肩斜跨包 38
手沖壺 38
托德斯 38
抄經@@ 38
抄經本@@ 38
折扣碼 38
拼接雪紡@@ 38
指示牌@@ 38
按鈕@@ 38
捲髮棒@@ 38
排隊@@ 38
搖 38
撲克牌@@ 38
擇@@ 38
擦玻璃@@ 38
擦窗@@ 38
攪拌杯 38
攪拌棒 38
收納掛袋@@ 38
教具@@ 38
整箱 38
文具用品 38
文胸套裝@@ 38
料理機@@ 38
新書 38
新款正品@@ 38
日製 38
明亮@@ 38
春新款@@ 38
時尚優雅@@ 38
時尚套裝@@ 38
普羅@@ 38
暮@@ 38
書況@@ 38
最新版 38
月光石@@ 38
月底@@ 38
月球@@ 38
有領@@ 38
服女@@ 38
期限@@ 38
木器@@ 38
木製 38
果汁杯 38
梭織@@ 38
棉麻上衣 38
榛@@ 38
標識@@ 38
橙子@@ 38
歐洲 38
歐美韓版@@ 38
正韓國@@ 38
正韓童裝 38
歪@@ 38
殺價 38
每天@@ 38
毛怪@@ 38
氣墊床@@ 38
水凝霜 38
水藍色@@ 38
水靴@@ 38
永和@@ 38
決戰@@ 38
汽車材料 38
汽車音響@@ 38
汽車香水@@ 38
沙發床兩用@@ 38
沙盤@@ 38
油蠟@@ 38
泡面碗@@ 38
洋娃娃@@ 38
洗頭床@@ 38
浴室防滑@@ 38
減肚子@@ 38
湖人 38
溫泉泳裝 38
滑行車 38
满@@ 38
漏斗 38
濃香型@@ 38
火柴@@ 38
火速@@ 38
炭治郎@@ 38
無刺激@@ 38
無漆@@ 38
燕尾@@ 38
爆款免運 38
爽膚水@@ 38
特惠免運 38
狐仙@@ 38
狗狗衣服@@ 38
獻@@ 38
現貨丶@@ 38
田宮@@ 38
男夏季@@ 38
男女時尚@@ 38
畫家@@ 38
當季@@ 38
病毒@@ 38
白證@@ 38
百分百 38
百天@@ 38
百摺裙 38
皂液@@ 38
的最愛 38
皮帶手錶 38
皮箱 38
皮膚衣 38
監測 38
監聽@@ 38
直線@@ 38
真皮錢夾 38
真皮長夾 38
眠 38
眼影刷 38
睡褲@@ 38
知 38
短版背心 38
短袖長褲@@ 38
石英機芯 38
砂輪機 38
破洞 38
碼表@@ 38
磊@@ 38
禰豆子 38
空氣清淨機@@ 38
穿過一次 38
窗花@@ 38
築@@ 38
簡約歐式@@ 38
籍@@ 38
粗跟高跟@@ 38
[...]
