現貨 40375
新款 28825
包 25882
全新 21892
鞋 19768
長 17075
錶 16641
簡約 15562
家用 15374
小 15280
日本 15202
款 14491
短袖 14246
的 13762
褲 13466
時尚 13059
男女 13037
背包 12750
女 12724
正品 12523
上衣 12267
二手 12228
復 11961
帶 11625
恤 11511
可 10544
外套 10521
手 10470
韓版 10457
墊 10175
男士 10170
運動 10156
免運 9896
製 9786
兒童 9768
休閒 9737
男 9730
臺 9629
髮 9302
代購 9279
系列 9174
黑色 8997
潮流 8887
情侶 8843
創意 8791
套裝 8661
夏季 8655
閑 8515
防水 8340
新品 8256
韓國 7990
多功能 7751
經典 7698
玩具 7347
鍊 7292
機 7283
貼 7133
型 7050
特價 7035
下 6935
燈 6832
客廳 6831
版 6772
精品 6756
馬 6549
大 6548
不 6465
臥室 6394
書 6330
式 6309
袖 6305
牛仔 6204
黑 6178
迷你 6126
現代 6118
學生 6100
組 5991
便 5990
夾 5860
男鞋 5835
休 5832
加厚 5785
慢跑鞋 5757
短 5751
牛皮 5722
後 5622
殺 5539
運動鞋 5503
古 5468
裙 5458
寬 5353
造型 5281
女士 5264
色 5264
透氣 5248
預購 5234
專用 5211
盒 5188
鬆 5165
真皮 5140
手提包 5116
手機 5114
玻璃 5080
印花 5015
女鞋 4998
拖鞋 4992
台灣 4971
架 4881
裝飾 4869
白色 4856
包包 4848
黃 4839
正版 4832
車 4822
汽車 4821
爆款 4819
斜 4807
百搭 4706
內 4677
卡通 4671
北歐 4628
廚房 4573
修身 4551
短褲 4534
收納 4494
斜挎包 4477
禮物 4474
套 4457
置物架 4451
搭 4447
背心 4438
號 4424
同款 4423
繡 4417
台 4245
性感 4200
手工 4194
紋 4142
生活 4139
限定 4139
茶 4130
家居 4089
女包 4075
美國 4073
男生 4070
秋冬 4069
休閒鞋 4058
送 4020
女生 4019
年 3997
衣服 3988
用品 3977
純棉 3963
襯衫 3939
公司 3934
跑步 3924
防 3895
元 3893
熱賣 3884
人 3872
貨 3860
吋 3849
白 3831
墻 3828
娃娃 3820
風 3802
碼 3777
跟 3767
中 3763
嬰兒 3752
用 3752
神器 3749
透明 3737
手機殼 3672
肩 3630
側 3616
耳環 3606
新 3592
迪士尼 3584
圓領 3566
出貨 3560
藍 3557
公仔 3551
球鞋 3534
單肩包 3526
有 3515
熱銷 3500
防滑 3499
進口 3494
舖 3481
蘋果 3472
金 3464
通用 3411
入 3407
盤 3400
上 3394
大容量 3389
居家 3328
貼紙 3309
成人 3302
電腦 3282
手提 3274
針織 3273
原廠 3269
黑白 3267
小型 3260
鑰匙 3241
潮 3217
杯 3206
米 3204
衫 3180
配件 3159
裝 3136
簡易 3130
商品 3129
香水 3123
枕 3121
個性 3113
高 3100
保暖 3092
眼鏡 3090
玫瑰 3087
鋼 3087
水 3074
棉 3073
刺 3065
舒適 3063
氣質 3059
工具 3041
編織 3030
蕾 3023
皮帶 2998
天然 2993
女童 2992
不銹鋼 2985
單肩 2977
愛迪達 2962
鑽 2961
支架 2946
組合 2946
洋裝 2945
男款 2919
對 2908
網紅 2905
正 2898
咖啡 2893
灣 2887
蝴蝶 2878
必備 2872
愛 2872
金屬 2868
腰 2863
無線 2845
圈 2832
路 2831
限量 2828
衣裙 2827
館 2825
電動 2823
拍 2816
買 2813
個 2805
實拍 2779
全 2778
擺件 2775
皮革 2765
粉 2759
紅 2759
月 2753
無 2751
帽 2747
雙 2743
籃 2715
純 2706
歐式 2702
生日 2700
穿 2693
好 2688
殼 2687
扣 2674
清 2671
連帽 2666
沙發 2638
限時 2636
器 2633
頭 2632
專櫃 2625
水晶 2625
公主 2624
保護套 2619
設計 2606
女款 2597
衣 2594
錢 2593
戶外 2591
陶瓷 2587
少女 2579
香奈兒 2569
清新 2567
王 2563
模型 2562
摔 2559
打底 2552
折疊 2545
收納盒 2539
與 2537
線 2532
店 2520
寶寶 2519
花 2511
賣場 2510
時 2506
精 2497
宿舍 2496
折 2481
顯瘦 2479
鋪 2477
正韓 2471
旅行 2438
粉色 2428
落地 2420
袋 2418
立體 2410
代 2409
卡 2405
寵物 2403
兩用 2394
字母 2390
手拿包 2383
涼鞋 2381
拉 2380
家 2373
美 2371
零錢 2362
吊飾 2346
片 2337
出 2334
可愛 2333
襪 2325
日 2317
尚 2310
拼接 2310
超 2309
連身 2309
珍珠 2307
絲 2281
情趣 2278
鏽 2274
一 2270
浴室 2270
寶 2267
古馳 2265
字 2258
多 2243
快速 2242
易威登 2241
錢包 2228
綁 2204
女裝 2202
適用 2202
椅 2200
皮 2190
棒 2186
自動 2186
尺寸 2167
春夏 2164
藍色 2161
板 2155
小@@ 2152
桶 2139
洗 2139
內衣 2136
歲 2136
合金 2130
床 2120
皮夾 2116
子 2114
我 2102
實木 2097
特惠 2097
攜 2088
定制 2077
智能 2074
品牌 2073
運 2073
促銷 2072
下標 2069
耐吉 2067
未 2063
大號 2061
綠 2059
瓶 2057
毛衣 2051
滿 2050
兒 2045
和 2034
歐美 2031
飾品 2031
耳機 2030
桌面 2029
緻 2028
商務 2025
保濕 2020
柜 2007
薄款 1993
氣墊 1987
辦 1987
優惠 1986
潮牌 1971
家具 1964
雙層 1953
日系 1945
鏈條 1943
兩 1934
紅色 1933
條紋 1931
麵 1928
廳 1920
小米 1914
女孩 1909
寬松 1905
件 1904
抱 1896
美式 1894
公分 1888
帆布 1885
面膜 1878
公室 1876
椅子 1871
沙灘 1868
寸 1865
石英 1865
塑料 1863
碗 1859
彩色 1854
皮套 1848
件套 1847
貓 1847
吊帶 1844
口袋 1835
架子 1830
背 1818
衛衣 1814
內褲 1813
室 1807
周邊 1806
金色 1805
蓋 1793
安全 1792
小包 1792
保護 1786
腕 1784
外 1782
單 1766
大@@ 1762
日式 1761
健身 1760
秒 1755
遊戲 1751
桌 1729
平底 1724
霜 1724
材料 1716
灰 1714
手套 1711
美甲 1706
大碼 1704
腳 1703
格子 1700
小戶 1694
方形 1694
耐克 1694
鏡 1679
批發 1677
箱 1675
隨身 1670
中長 1669
灰色 1667
帽子 1664
米奇 1664
請 1662
機@@ 1659
去 1654
專屬 1653
耳 1651
雙人 1651
錢夾 1647
床頭 1646
項 1645
超薄 1644
服 1643
造 1641
熊 1638
多層 1630
捲 1630
瘦 1629
帆布鞋 1627
收納架 1625
車載 1622
戒指 1620
被 1619
禮盒 1618
專業 1616
連 1614
雙面 1614
賣 1611
餐廳 1610
達 1608
懶人 1607
客訂 1606
童裝 1606
布 1604
手作 1598
睡衣 1593
冬季 1591
客 1590
百貨 1590
羅 1587
包@@ 1583
日版 1582
明星 1578
飾 1578
海賊 1574
巾 1572
電 1572
動漫 1570
免 1567
筆 1563
男童 1561
刀 1560
陳 1560
相機 1557
推薦 1555
防曬 1555
筒 1554
純色 1554
厚底 1547
電池 1546
情人 1544
假 1541
你 1538
刷 1532
輕 1532
三葉草 1529
前 1528
淡 1528
出清 1527
加大 1527
衛生間 1524
電子 1518
古奇 1513
保護殼 1511
膜 1508
衣架 1508
三 1506
三角 1503
原裝 1503
手環 1503
聯名 1502
短款 1500
秋季 1500
單人 1496
水果 1493
狗 1492
全館 1490
三星 1488
金@@ 1488
兩件 1485
裝@@ 1484
桌子 1483
電源 1476
乳 1471
木 1468
短夾 1463
全場 1461
吧 1455
玩偶 1453
現貨免 1453
春秋 1450
學 1449
鞋子 1448
坐 1447
拉鏈 1447
涼 1445
三眼 1441
餐桌 1441
唇膏 1440
銀 1440
甜美 1436
紙 1436
鉆 1435
曬 1434
夏天 1431
護 1431
四季 1427
免運費 1423
香港 1419
拆 1416
喇叭 1411
矽膠 1410
圓形 1407
跑鞋 1404
德國 1399
耐磨 1398
整理 1388
按摩 1387
原單 1384
打孔 1383
緊 1381
春季 1379
彈力 1376
古@@ 1375
風@@ 1375
充電 1374
在 1372
褲子 1372
世界 1363
便宜 1360
海外 1357
幾 1356
可愛@@ 1355
蛋糕 1353
小熊 1346
經濟型 1345
禮品 1342
靴 1342
領 1342
沖 1339
攜式 1338
球 1336
膠 1336
高腰 1335
洗衣 1333
の 1331
反光 1330
小孩 1330
純銀 1328
墨鏡 1325
優品 1321
太陽 1321
本 1318
價 1314
大學 1310
水桶 1305
附 1305
噴霧 1301
掛 1299
拿 1298
機車 1293
毛 1290
頂級 1289
愛心 1287
摺 1285
下單 1283
伸縮 1282
保固 1278
直銷 1277
仿真 1276
可選 1276
餐具 1276
咪 1274
鏈 1269
桌椅 1266
一字 1262
結 1260
品 1257
屋 1253
寫 1251
植物 1250
爐 1250
腰包 1249
條 1248
座 1246
罐 1245
超級 1245
經典款 1242
鐵藝 1240
都 1239
玄關 1238
派 1236
代理 1234
廠家 1228
之 1227
烤 1227
抽屜 1226
背景 1224
圖案 1222
增高 1222
彈 1222
標 1220
學院 1217
清潔 1217
會 1216
棉麻 1216
雙肩包 1215
靜音 1214
自行 1211
高清 1210
泳衣 1206
五分 1204
最新 1202
麂皮 1199
動物 1197
全自動 1196
牌 1193
櫃 1192
全套 1191
地 1191
輪 1185
男裝 1179
百 1179
花朵 1177
保證 1176
保溫 1175
配色 1174
釦 1172
官方 1171
寶貝 1171
級 1169
輕量 1168
香 1168
板鞋 1167
風格 1167
包裝 1162
真 1162
糖果 1161
平板 1159
迷彩 1159
襪子 1158
超大 1158
鋁 1158
挎 1157
收納袋 1155
美國代購 1155
鑲 1155
零食 1153
材質 1152
非 1150
兔 1149
訂 1148
圍巾 1147
持久 1146
毛巾 1145
水洗 1144
藍芽 1144
寶寶@@ 1139
中式 1137
棉質 1137
車@@ 1137
裙子 1134
巴寶莉 1132
青年 1132
燙 1130
韓 1128
學習 1127
購 1127
加絨 1125
吃 1124
等 1123
扭蛋 1121
老花 1117
防風 1114
女性 1112
油 1112
男孩 1112
釘 1112
化妝包 1111
塑膠 1110
星星 1109
神奇 1109
快 1108
車用 1108
鈦 1108
工作 1106
道具 1106
來 1102
系 1101
荔枝 1101
短裙 1100
風扇 1100
發 1098
美容 1097
吊 1096
訓練 1096
女@@ 1094
滑板 1091
儲物 1090
繩 1090
心 1089
精油 1089
優質 1087
泡泡 1084
軟殼 1083
陽 1080
罩 1078
蔻 1075
化 1074
國 1073
藍牙 1072
約 1071
疊 1070
單鞋 1069
水杯 1069
慢跑 1068
腿 1068
流行 1064
無痕 1062
巴黎 1061
購物 1061
低 1060
男包 1058
風衣 1057
露 1053
磨砂 1051
含 1050
凳子 1049
小號 1049
泰國 1047
高檔 1046
無袖 1045
皮鞋 1045
吊燈 1042
女神 1042
龍 1040
素面 1039
老爹 1038
感 1035
眼影 1035
賞 1035
劑 1034
機械 1034
共 1033
大尺 1033
雙@@ 1032
做 1030
到 1030
碎花 1030
素色 1028
肩包 1028
格紋 1025
特賣 1025
已 1023
置 1023
壁掛 1022
奶茶 1022
軟 1018
移動 1015
鍋 1015
三件套 1014
紅@@ 1012
靠 1011
性 1008
使用 1007
泡 1005
枕頭 1004
酒店 1004
直播 1003
紫 1003
厚 1002
鋼化 1002
飯 1002
新生 1001
鏤空 1001
雜貨 1001
樂 1000
魚 1000
素 997
冰箱 996
底 995
角落 995
夏 994
卡片 992
華為 992
拖 990
電視 990
面 990
鉤 988
懶人鞋 987
一組 985
手表 985
高跟鞋 985
氣 984
茶具 984
品質 981
半袖 980
彩虹 979
狗狗 978
漫畫 976
餐椅 975
牙刷 974
小白鞋 973
抖音 973
壺 972
商用 971
實用 971
自 971
行李箱 970
高品質 970
成新 968
文具 968
尺 967
粗 967
夏裝 966
最 963
複 963
小牛皮 962
花@@ 962
彈性 960
摩托 960
綠色 960
張 959
五金 958
水@@ 958
英國 958
機器 957
絨 957
益智 956
羊皮 956
基本 955
馳 955
戶 953
媽媽 952
網面 951
撞色 949
巧克力 946
座椅 946
盒裝 946
網 945
儀 944
口罩 944
改裝 943
絕版 943
貓咪 941
掛件 940
薄 940
行動 940
豆豆 939
服裝 938
靠背 936
高筒 936
歐 934
迪奧 934
九分 932
硅膠 932
刷毛 931
木質 931
法國 931
節 931
雙肩 931
精華 929
床上 928
最新款 926
活動 925
男@@ 925
十字 918
一體 917
芯 917
墜 916
夾克 916
寶可夢 915
收納包 915
紫色 913
愛@@ 912
購物袋 912
釣魚 912
雞 911
強力 909
搭配 909
項鏈 908
乾燥 907
童鞋 905
升降 904
超人 904
托特 903
克 901
盆 901
美@@ 900
中文版 897
卷 897
夢 897
浪漫 897
白@@ 897
魔法 896
大理石 895
布藝 895
推車 895
紫外 895
可@@ 894
加 893
折扣 892
隱形 891
應 890
石 890
空氣 890
櫥 888
青少年 888
裝飾品 887
頸 884
鐵 883
雪紡 883
說 882
啦 881
韓@@ 880
黑@@ 879
現貨實 878
送禮 878
點 878
多色 877
收藏 875
羊毛 875
珠 874
食品 874
棒球帽 873
樂高 872
夾@@ 871
新@@ 871
曆 871
圖 870
跨包 870
辦公 870
拼色 869
現貨供 867
包女 866
米妮 866
愛馬仕 865
螢幕 864
乾 863
格 863
自然 862
餅 862
質感 860
烘焙 859
夏日 858
凳 857
轉 857
壁 853
帶@@ 853
腰帶 853
充電器 852
手鏈 852
聯 852
尚@@ 850
拼圖 849
防塵 848
隻 848
鴨 848
房間 847
翻蓋 845
原價 841
少年 838
粉紅 838
上市 837
盒子 837
臀 837
是 836
扇 833
生物 833
現貨@@ 831
光 830
柔軟 830
游戲 830
夜光 829
書包 828
間 828
音響 828
真品 827
酒吧 821
了 820
包郵 820
幼兒 819
發貨 819
直筒 817
英文 816
門 816
喬丹 814
拍照 814
轉賣 814
香氛 813
洗澡 812
附@@ 812
實 811
束 811
景品 810
環 810
安全帽 808
阿瑪尼 808
鞋柜 807
度 804
機殼 804
亮 803
數位 802
環保 802
七分 801
帶回 801
空調 801
口 800
古著 799
歐洲 799
站 798
毛絨 797
阿迪達斯 796
玩 795
展示 794
授權 794
一@@ 793
健康 793
真空 793
顏色 793
外出 792
音箱 790
背帶 789
衣物 789
仙女 788
智慧 788
款@@ 788
航海王 788
平底鞋 786
套頭 785
杯子 785
燈@@ 785
禮服 784
結婚 784
披肩 783
擋 783
筆記本 783
粒 783
遙控 783
貝殼 782
旋轉 781
水壺 781
深藍 781
皂 780
鳥 778
孕婦 777
萬用 777
藝術 777
高端 777
圓 776
三@@ 775
性@@ 775
糖 775
義 775
特 773
蛋 772
連線 772
除 769
地毯 768
液 768
短靴 768
框 767
銀色 767
良好 766
尖頭 765
打 765
組裝 764
滿版 763
醬 762
電@@ 762
頭@@ 762
草莓 761
兔子 759
分 759
型號 759
款式 759
感@@ 758
無@@ 758
交叉 757
抓 756
書桌 756
翻領 754
韓國代購 753
著 752
計時 752
騎士 750
按摩棒 749
文化 749
初學者 748
作 747
模具 747
補水 747
固定 746
貨@@ 746
普拉 745
空間 745
魔術 745
完美 744
牆 743
窩 743
一件 741
傢 741
四件套 737
幾何 737
超值 737
附發票 737
遮 736
妝 735
發@@ 734
鞋架 734
喵 733
書架 733
電腦桌 733
修 732
隔斷 732
原創 731
質 731
殺價 730
積木 730
細 730
三麗鷗 729
妳 729
金證 729
木@@ 728
棒球 727
海洋 727
高@@ 727
棉@@ 726
椰子 726
化妝品 724
歐@@ 724
英雄 724
二代 723
大利 723
肩帶 723
時尚百 722
原宿 721
瑜伽 721
軍 721
連體 720
全身 719
擺 718
洗手 718
童 718
拉拉 717
跨 716
開 716
號@@ 715
動 714
科技 712
單@@ 711
寶@@ 711
現 711
童@@ 711
籃球 710
老 709
藍牙耳機 708
邊 708
力士 707
雪 707
徽章 706
太空 705
條@@ 705
街頭 705
首飾 705
全包 704
雙色 704
膏 703
掛畫 702
碟 701
音樂 701
吸管 700
太陽鏡 698
家庭 698
購入 698
頭層 698
西裝 697
吸頂 696
法式 696
發票 696
籤 696
近 696
榻榻米 694
王@@ 694
團 693
短版 693
限 693
勾 690
卡夾 690
親子 689
就 688
柜子 688
男子 688
三件 687
低筒 687
充氣 687
掛式 687
茶杯 687
中性 686
手袋 685
手辦 685
新娘 685
日常 685
服飾 684
絲@@ 684
褲@@ 684
超@@ 684
人@@ 683
流蘇 683
配 683
登山 682
全@@ 681
小香 681
照片 681
領@@ 681
收納箱 680
結@@ 680
隔 680
卡西 679
吸水 679
粘 679
雪花 679
乳液 678
后 678
小姐 677
沐浴 677
針織衫 677
工業 673
手推 673
插 673
大氣 672
尺碼 672
牛奶 672
嚴選 671
七龍珠 670
先生 670
手持 670
獨家 669
蝦 669
蝦皮 668
印章 667
顯 667
中@@ 666
槍 666
直 666
梳妝 665
生 665
衣柜 664
勞 662
卡@@ 662
變頻 662
優選 661
可折疊 661
媽 661
微波 661
輕便 661
森林 660
偏光 659
聖誕節 659
加長 658
展示架 658
拆封 658
不銹 657
手提袋 656
原 655
剪刀 654
天 654
燈具 654
公文包 652
畫 651
禮 651
顆 651
比基尼 650
茶几 650
道 650
也 649
尼龍 649
胸包 649
鏡頭 649
天使 648
淺 648
佈 647
老人 647
衣櫃 647
男性 646
運動褲 646
三層 645
藍@@ 645
亮片 644
名媛 642
回 642
正貨 642
儲物柜 641
出版 641
史努比 641
單區 641
圍 641
海報 640
招財 639
秋冬季 639
收納櫃 638
暖 638
夜店 637
完 637
大衣 636
優 635
內@@ 635
升級 635
掛飾 635
美白 635
衣@@ 634
魔鬼 634
種 633
垃圾桶 632
鋼@@ 631
面@@ 631
滑鼠 630
全棉 629
開關 629
底座 628
水器 628
版@@ 628
色@@ 628
果 627
緊身 627
襯衣 627
旅行包 626
韓系 626
小店 625
瑕 625
鏡子 624
剪 622
小說 622
情趣用品 622
鉛 622
制服 621
洋 621
菜 621
毛孔 620
空 620
靠枕 620
保 619
深 619
破洞 619
全白 618
及 618
壓克力 618
多肉 618
小童 618
檯 618
管 617
臉 616
把 615
立式 615
一番 614
聊聊 614
小巧 613
鎖 613
麥克風 613
休閒褲 612
名牌 612
喔 612
收納柜 612
運費 612
奶瓶 611
抽 611
繫 611
化妝 609
彪 609
星空 608
露營 607
高級 607
澳洲 606
種子 606
贈 606
超輕 606
小小 605
體 605
孔 604
花束 604
不@@ 603
力 602
密封 602
幸福 602
獸 602
罩衫 602
花盆 602
中文 601
液晶 601
交換 600
樂@@ 600
節禮物 600
胖 600
工廠 598
日韓 598
聖誕 597
青春 597
氈 596
網紗 596
紙@@ 595
草 594
鉗 594
心@@ 593
擺飾 593
於 593
第 593
付款 592
廠 592
睡 592
聖羅蘭 592
芬迪 592
防彈 591
降價 591
優雅 590
大型 590
小方包 590
奶油 589
兩色 588
民族 588
百搭@@ 588
香薰 588
梳 587
香精 587
充電線 586
可以 585
抗 585
可調 584
櫻花 582
網紅@@ 582
限量版 582
林@@ 581
簾 581
海 580
層 579
維尼 579
螺絲 579
超取 579
開衫 579
韓式 579
標準 578
球衣 578
全黑 577
小桌子 577
星巴克 577
簡單 577
抗菌 576
過 576
集 576
面交 576
桌遊 575
半身裙 574
攝影 574
支 574
游泳 574
輕奢 574
中筒 573
控油 573
橡膠 573
漆 573
躺椅 573
單車 572
泳裝 572
防刮 572
星 571
雨衣 570
床邊 569
擦 569
總動員 568
翡翠 568
彩 567
書房 567
花園 567
世家 566
小時 566
閒 566
信封 565
身體 565
大小 564
安卓 564
怪 564
褲女 563
踢 563
名 562
小物 562
專輯 560
排 560
環@@ 560
筆袋 560
華碩 559
遮陽 559
半 558
蠟燭 558
被套 558
含@@ 557
寬褲 557
婚禮 556
攜帶 556
雜誌 556
綠@@ 555
修護 554
公斤 554
遮陽帽 554
鋼帶 554
飛線 554
天@@ 553
恐龍 553
功夫 552
戰士 552
犬 552
夢幻 551
窗簾 551
唇 550
度假 550
滑板鞋 550
為 550
遮光 550
刮 549
午睡 549
平衡 549
標區 549
毛線 548
針 547
二 546
彩繪 546
辦公桌 546
隨機 546
點點 546
一送 545
吉他 545
方便 545
韓版時 545
串珠 544
冰絲 544
空壓 544
精靈 544
貓@@ 544
防撞 544
零件 544
名款 543
服@@ 543
立 543
菱格 543
調 543
鴨舌帽 543
盆栽 542
東京 541
精美 541
口紅 540
紙膠 540
銀@@ 540
保留 539
浴巾 539
帶蓋 538
毛毛 538
精選 538
網布 538
新年 537
田園 537
跑 537
郵差 537
小卡 536
手動 536
羽絨 535
柄 534
中國 533
口味 533
窄 533
能 533
隊 533
皮@@ 532
韓版潮 532
桌上 531
光@@ 530
味 530
四角 530
手鐲 530
熱 530
生@@ 530
電影 530
擺設 529
話 529
霧 529
多款 528
張@@ 528
果汁 528
眼睛 528
包屁衣 527
台北 527
時鐘 527
發光 527
國際 526
蛋白 526
蹬 526
一次性 525
勿下 525
印 525
含稅 525
壓 525
指甲 525
防@@ 525
凈 524
布@@ 524
掛鐘 522
北 521
不用 519
奶嘴 519
笑 519
之@@ 517
耳釘 517
專區 516
方向 516
洗漱 516
珊瑚 516
粉餅 516
飲料 516
平 514
紅米 514
鞋@@ 514
劍 513
管理 513
原版 512
吸塵器 512
花卉 512
雨鞋 512
高幫 512
桿 511
泡沫 511
相框 511
週年 511
紀念 510
魚@@ 510
冷氣 509
故事 509
樂器 509
歡迎 509
適 509
誘惑 508
廁所 507
生間 507
萬聖節 507
露背 507
三色 506
售 506
方 506
爆米花 506
衣著 506
麋鹿 506
克杯 505
成 505
提袋 505
薇 505
魔 505
坊 504
文胸 504
蝙蝠 504
電鍍 503
非@@ 503
充電式 502
可用 502
放 502
明信片 502
網@@ 502
迷 502
被子 501
閨蜜 501
冰 500
墊子 500
女學生 500
法 500
自由 500
葉 500
主機 499
出售 499
咖啡色 499
粉@@ 499
自慰 499
花架 499
凝膠 498
特大 498
飲 498
一套 497
偶像 497
料理 497
三合一 496
外@@ 496
清倉 496
運@@ 496
傘 495
大人 495
奇 495
容量 495
小屋 495
潤 495
裝飾畫 495
古典 494
手@@ 494
拆洗 494
名片 493
毛@@ 493
瑞士 493
鋼彈 493
嬰幼兒 492
室外 492
感應 492
形@@ 491
機能 491
石@@ 491
卡包 490
排汗 490
空@@ 490
買二送 490
膠帶 488
刻 487
舞 487
金剛 487
功能 486
打火 486
俱 485
合 485
插卡 485
鋰 485
鏤 485
定 484
睫毛 484
專賣店 483
秋裝 483
裝備 483
鑽石 483
海綿 482
白金 482
置物 482
美妝 482
老虎 482
詢問 482
小花 481
帳篷 481
毛呢 481
蒂 481
補 481
踏板 481
速 481
酵素 481
韓版百 481
小學生 480
按摩器 480
氣@@ 480
烤箱 480
再 479
娜 479
洋氣 479
軟底 479
床單 478
鄉村 478
食物 478
小夜 477
泡茶 477
數字 476
消毒 476
帆布包 475
幼兒園 475
文件 475
筆@@ 474
釉 474
冊 473
卡龍 473
吊牌 473
中國風 472
大象 472
平口 472
皮質 471
調節 471
器@@ 470
掛鉤 470
文藝 470
竹 469
送@@ 469
適合 469
阿@@ 469
多@@ 467
旗袍 467
皮卡丘 467
立領 467
衣帽架 467
韓版@@ 467
一個 466
人偶 466
區 466
庭院 466
轉@@ 466
門口 466
卡位 465
抽繩 465
李@@ 465
萬能 465
野餐 465
保溫杯 464
躺 464
沙 463
帥氣 462
靠背椅 462
大功率 461
攝 461
溫 461
防潮 461
鏡面 460
品@@ 459
潮鞋 459
磁性 459
家居服 458
一年 457
者 457
超火 457
午休 456
台灣現 456
實體 456
本@@ 456
轉蛋 456
酥 456
防護 456
龍@@ 456
只 455
熱@@ 455
清洗 454
畫@@ 454
竿 454
變 454
面料 454
香@@ 454
戰 453
史迪奇 452
看 452
硬殼 452
行 452
代@@ 451
牙膏 451
堂 450
得 450
投影 450
藝@@ 450
九成新 449
翻 449
黑紅 449
氣球 448
霧面 448
鞋櫃 448
桌@@ 447
軟@@ 447
震動 447
好市 446
燈飾 446
盤@@ 446
睡眠 446
肩背 446
記本 446
附購證 446
紋@@ 445
褲裙 445
調料 445
餐桌椅 445
布料 444
浮雕 444
爆品 444
聯盟 444
赫拉 444
三折 443
潔 443
悟空 442
熊@@ 442
筷子 442
龍頭 442
水槽 441
運動休 441
大師 440
有@@ 440
水龍頭 440
玫瑰花 440
表演 440
配方 440
泥 439
淨 439
潮@@ 439
韓國@@ 439
飛機 439
吹 438
范思哲 438
特@@ 437
幫 436
紋身 436
維修 436
耐用 436
身 436
鉛筆 436
騎行 436
凱蒂貓 435
工程 435
把手 435
收 435
最低 435
韓風 435
七彩 434
微 434
橘 434
變形 434
手機套 433
早餐 433
高爾夫 433
大包 432
短襪 432
精華液 432
顯示 432
夾子 431
極 431
櫻 431
爾 431
物 431
衛生 431
冰雪 430
尾 430
朵 430
絨毛 430
萬 430
除臭 430
保養 429
安德瑪 429
官網 429
平角 429
手柄 429
旅行箱 429
模 429
頭飾 429
超低 428
黏土 428
可開 427
扣@@ 427
粉底液 427
實木@@ 426
插座 426
窗 426
餐 426
分裝 425
售出 425
女友 425
聚攏 425
襪套 425
門@@ 425
二次元 424
任選 424
四 424
園 424
旅遊 424
鬍 424
眼 423
設計師 423
鍵盤 423
鐘 423
女式 422
男女生 422
自取 422
鐵@@ 422
段 421
箍 421
舒 421
邊@@ 421
台風行 420
壁畫 420
干 420
樹 420
清爽 420
圓@@ 419
現代@@ 419
海@@ 418
衛 418
亞克力 417
含運 417
吸盤 417
開口 417
飼料 417
休閒長 416
四色 416
鬼 416
書籍 415
桌布 415
皆 415
編號 415
佳 414
地墊 414
天天 414
定做 414
小腳 414
量 414
兜 413
枕套 413
柔 413
深層 413
紗 413
要 413
加@@ 412
篇 412
花瓶 412
薄荷 412
袖@@ 412
餅乾 412
婚紗 411
神 411
工裝 410
師 410
比 410
膠@@ 410
蘭 410
骷髏 410
亞 409
瑜珈 409
甲 409
全家 408
六角 408
四@@ 408
小羊皮 408
房 408
有線 408
漆皮 408
同步 407
平安 407
棉衣 407
流 407
畢業 407
秤 407
重 407
套組 406
美女 406
銅@@ 406
雅@@ 406
低價 405
哥 405
西 405
公事包 404
很 404
格@@ 404
煙 404
用@@ 404
肌 404
電腦椅 404
公升 403
蕾絲 403
街 403
雅 403
仿 402
原木 402
攜@@ 402
牛 402
吊墜 401
春夏季 401
縫 401
纖維 401
耳針 401
自己 401
錠 401
開@@ 401
限定版 401
丁靴 400
台@@ 400
夏@@ 400
收腰 400
爬 400
肉 400
安@@ 399
朋友 399
當盒 399
壓花 398
晚宴 398
橘色 398
濾網 398
盒@@ 398
磁鐵 398
贈品 398
電動車 398
包單 397
又 397
古風 397
德 397
能量 397
袖套 397
防油 397
飛 397
亞@@ 396
冠 396
勁戰 396
壓紋 396
太陽能 396
夾式 396
舊 396
避震 396
另有 395
指甲油 395
樂園 395
煮 395
線@@ 395
藝 395
蘇@@ 395
二@@ 394
二合一 394
從 394
正@@ 394
皇冠 394
質@@ 394
家@@ 393
彩@@ 393
華 393
表 393
鼠 393
匡威 392
玻 392
葉@@ 392
易 391
春裝 391
深藍色 391
落地式 391
蔬菜 391
蚊帳 391
四輪 390
小鋪 390
絲襪 390
奇緣 389
密碼 389
日貨 389
服裝店 389
筆電 389
蠟 389
雙頭 389
一般 388
低幫 388
刷卡 388
哆 388
托 388
星@@ 388
玻璃杯 388
雕刻 388
女王 387
子@@ 387
棉花 387
洞洞 387
照明 387
衛浴 387
角 387
優惠價 386
拉@@ 386
收納@@ 386
斤 386
滑 386
穀 386
角色扮演 386
鍍 386
五@@ 385
宜家 385
拼 385
春 385
稱 385
臻 385
資生堂 385
三代 384
壁燈 384
漁夫帽 384
組@@ 384
美樂蒂 384
膝 384
兵 383
淺口 383
耐 383
防潑 383
靴子 383
大牌 382
情侶裝 382
男用 382
一腳 381
勺 381
城市 381
寢室 381
掛@@ 381
襯 381
豬 381
運動長 381
麗 381
健身器材 380
商務休 380
媽咪 380
小豬 380
文字 380
洗臉 380
玉 380
膠囊 380
龍貓 380
ㄧ 379
佛牌 379
超長 379
小可 378
小香風 378
熱銷款 378
现货 378
百搭款 378
蠟筆 378
認證 378
雕花 378
四件 377
波浪 377
瑪 377
艾@@ 377
英倫風 377
卡其 376
茶桌 376
貝 376
雨傘 376
體@@ 376
中號 375
店面 375
接頭 375
油@@ 375
特別 375
冬天 374
地板 374
尿布 374
文 374
藍光 374
電風扇 374
一起 373
棉褲 373
商店 372
有機 372
讓 372
仿古 371
單品 371
尿酸 371
角質 371
鏡片 371
晶 370
老@@ 370
英倫 370
華@@ 370
電視柜 370
高雄 370
卡娜 369
商城 369
屏風 369
粉底 369
螢光 369
鑽@@ 369
飛利浦 369
妮 368
歌 368
銀針 368
壓@@ 367
淑女 367
漸層 367
配飾 367
可議價 366
時間 366
福袋 366
節@@ 366
草@@ 366
裏 366
咖啡杯 365
紫@@ 365
起 365
閒鞋 365
一字領 364
充 364
方巾 364
熱賣款 364
奢華 363
枚 363
棕色 363
毯 363
薰衣草 363
香皂 363
保鮮盒 362
吸汗 362
圖騰 362
垂 362
成品 362
櫃@@ 362
版本 362
茶壺 362
蜂蜜 362
趣味 362
魅力 362
黑金 362
兩@@ 361
北歐風 361
女夏 361
工作服 361
皇家 360
賓士 360
足球 360
跳 360
吸 359
山 359
快充 359
懶 359
ー 358
套餐 358
武士 358
真@@ 358
缸 358
鉚釘 358
樹脂 357
神@@ 357
粉紅色 357
細肩 357
記憶 357
養生 357
清潔劑 356
一盒 355
嘴 355
耳朵 355
開車 355
全皮 354
強 354
東大門 354
電話 354
傳輸線 353
房@@ 353
科比 353
簽名 353
料 352
碳 352
舒緩 352
護理 352
鍋@@ 352
上架 351
價格 351
室內 351
灰@@ 351
經 351
里 351
鏡@@ 351
閱讀 351
中古 350
公路 350
吳@@ 350
安裝 350
手帳 350
掛架 350
早教 350
省 350
系帶 350
繪本 350
趴 350
寶石 349
布鞋 349
染 349
精@@ 349
耳夾 349
雨 349
余文樂 348
充電@@ 348
半@@ 348
第一 348
腕表 348
隔板 348
倍 347
文@@ 347
滋潤 347
潘朵拉 347
燒 347
米白 347
貨到 347
ღ 346
中大童 346
史密斯 346
夜 346
时尚 346
更 346
花花 346
波 345
自拍 345
設備 345
飄窗 345
奧 344
拉桿 344
掛繩 344
海邊 344
章 344
貝殼頭 344
傳 343
凡賽斯 343
床上用品 343
溫泉 343
音@@ 343
包手 342
園藝 342
波士 342
盔 342
練習 342
貼片 342
新貨 341
球@@ 341
筆記 341
維 341
荷葉邊 341
賽車 341
起子 341
一次 340
向 340
手繪 340
挎包 340
歐美@@ 340
清@@ 340
特殊 340
男友 340
繽紛 340
胸 340
超商 340
越野 340
輕薄 340
點@@ 340
布丁 339
春秋季 339
月亮 339
洗面乳 339
濾 339
緩震 339
飛@@ 339
亮面 338
俠 338
包袋 338
百@@ 338
倉庫 337
台南 337
圓頭 337
塗鴉 337
增高鞋 337
手把 337
火 337
美容院 337
乳膠 336
人體 336
山@@ 336
廣告 336
現貨出 336
荷葉 336
鋸 336
高速 336
專 335
扶手 335
海灘 335
米@@ 335
絨@@ 335
緹 335
羽毛 335
讚 335
閃 335
韓妞 335
高領 335
全球 334
家家 334
廚 334
揹 334
斯 334
日@@ 334
灰白 334
特典 334
玉@@ 334
當天 334
織 334
腳@@ 334
良品 334
超強 334
陀螺 334
器材 333
提 333
空運 333
純@@ 333
美少女 333
一對 332
壁紙 332
折疊@@ 332
溫馨 332
菲 332
豆 332
優@@ 331
分@@ 331
研磨 331
仇者 330
克@@ 330
學@@ 330
安 330
秀 330
釣具 330
方@@ 329
木工 329
檸檬 329
睡裙 329
舞蹈 329
買家 329
走廊 329
隔熱 329
刻字 328
施華洛世奇 328
標@@ 328
用具 328
自慰器 328
闆 328
頂 328
本田 327
湯匙 327
獨角獸 327
腳踏車 327
貔貅 327
貼布 327
哺乳 326
屏 326
蜜 326
豹紋 326
超高 326
冰@@ 325
副 325
星球 325
蛋黃哥 325
人生 324
便利 324
塊 324
林 324
極度 324
價@@ 323
兄弟 323
叉 323
宅配 323
封口 323
新版 323
牙 323
耳飾 323
配@@ 323
入耳式 322
大方 322
或 322
練 322
蜜蜂 322
雜物 322
首選 322
口水 321
拖把 321
槽 321
水管 321
軟膠 321
雪@@ 321
拼裝 320
時尚@@ 320
會議 320
輕@@ 320
切 319
四代 319
微型 319
戰靴 319
旗 319
百搭時 319
防震 319
包頭 318
癒 318
資料 318
近視 318
鬼滅 318
原味 317
奶粉 317
火爆 317
眼@@ 317
鍵 317
大童 316
好看 316
布置 316
搶 316
毛毯 316
琉璃 316
花紋 316
衣櫥 316
透視 316
魯夫 316
分體 315
合身 315
國際牌 315
女長 315
客服 315
尚百搭 315
盤子 315
米色 315
迴 315
冰淇淋 314
延長 314
形 314
水瓶 314
游泳衣 314
細@@ 314
線條 314
肩@@ 314
變色 314
辦公椅 314
銀飾 314
防爆 314
像 313
台式 313
微@@ 313
榨汁 313
活力 313
熊貓 313
草本 313
電器 313
上下 312
丸 312
任天堂 312
扳手 312
桃紅 312
秘密 312
網路 312
茶@@ 312
蜜粉 312
即 311
同 311
意大利 311
愛麗絲 311
漫威 311
縮口 311
鋼化膜 311
飯盒 311
管@@ 310
絲巾 310
附購 310
人物 309
只有 309
沐浴露 309
牛津布 309
療 309
皮面 309
身@@ 309
過道 309
達@@ 309
選 309
面板 309
好物 308
油畫 308
花邊 308
芳香 308
虎 308
選擇 308
周年 307
城 307
整套 307
繪 307
貼@@ 307
套@@ 306
數碼 306
綜合 306
調@@ 306
超市 306
透 306
雷射 306
夾腳 305
家族 305
蛇 305
鋼圈 305
閣 305
原@@ 304
數 304
止 304
甜心 304
甜甜 304
系@@ 304
鏟 304
利 303
化妝鏡 303
旋 303
理 303
防盜 303
制作 302
創@@ 302
搶購 302
早春 302
架@@ 302
箱@@ 302
籠 302
走 302
鋼琴 302
面霜 302
鱷 302
é 301
之刃 301
女潮 301
好@@ 301
洗車 301
網紅款 301
語 301
陽台 301
售完 300
外貿 300
晾衣架 300
歐美風 300
超美 300
奇奇 299
步鞋 299
水滴 299
白黑 299
立牌 299
森 298
檔 298
毛球 298
滿額 298
眼霜 298
老帽 298
裝女 298
規則 298
養 298
香蕉 298
基礎 297
天星 297
寄出 297
寶格麗 297
打@@ 297
抹 297
提亮 297
棋盤格 297
膠原 297
黑武士 297
下殺 296
坐墊 296
情 296
惡 296
手感 296
最愛 296
桃園 296
激光 296
西@@ 296
貨架 296
電磁爐 296
黑灰 296
先 295
印@@ 295
女子 295
工藝品 295
手包 295
未來 295
樣 295
瑞@@ 295
產品 295
胸針 295
袋子 295
音 295
光療 294
山地 294
拍@@ 294
收腹 294
書@@ 294
自@@ 294
雙人床 294
鹿 294
到貨 293
多用途 293
松@@ 293
水族 293
洗碗 293
百搭休 293
背@@ 293
閃亮 293
宇宙 292
工業風 292
時光 292
沐浴乳 292
火@@ 292
燒烤 292
稀有 292
純銀@@ 292
胸罩 292
趾 292
金標 292
露肩 292
伴娘 291
入門 291
唯美 291
好貨 291
果凍 291
耐熱 291
職業 291
處 291
酒柜 291
不規則 290
怪獸 290
懷舊 290
手串 290
棉布 290
窗戶 290
護@@ 290
踏 290
領長 290
人氣 289
儲物櫃 289
劉@@ 289
吉@@ 289
學園 289
換 289
數據線 289
港風 289
糕 289
給 289
負離子 289
輪胎 289
鏈@@ 289
點心 289
付 288
內飾 288
團購 288
櫃子 288
泰@@ 288
版型 288
男式 288
進門 288
儀@@ 287
君 287
哦 287
片@@ 287
磅 287
釣 287
銅 287
飯店 287
元素 286
刺激 286
化妝桌 286
可可 286
專賣 286
微笑 286
法蘭絨 286
涼感 286
第二 286
繁體 286
魚子 286
兒@@ 285
冷 285
切割 285
烤肉 285
热销 285
玉米 285
防臭 285
高質 285
上@@ 284
代步 284
公克 284
婚禮小物 284
托盤 284
抹胸 284
簡 284
褲襪 284
貝@@ 284
超好 284
顯示器 284
儲物架 283
分類 283
圍裙 283
塑身 283
紙袋 283
資料夾 283
門簾 283
仔 282
六@@ 282
椅@@ 282
歐美時 282
幾@@ 281
手珠 281
控@@ 281
範思哲 281
英 281
茶道 281
蓋@@ 281
輪@@ 281
酷 281
ン 280
別墅 280
力@@ 280
喜 280
夢@@ 280
愛情 280
手機架 280
指定 280
挖 280
柱 280
熊熊 280
秋 280
膚色 280
雷霆 280
化妝水 279
場 279
床@@ 279
床罩 279
招 279
支撐 279
框@@ 279
磁吸 279
紫砂 279
肌膚 279
船 279
色系 279
蘇 279
購買 279
鋼筆 279
高中 279
卡套 278
國@@ 278
子女 278
營養 278
美背 278
萬@@ 278
訂單 278
設計款 278
作者 277
可拆卸 277
和服 277
床包 277
插頭 277
板@@ 277
煞車 277
爆 277
補充 277
親膚 277
豹 277
零 277
居 276
指環 276
明 276
老師 276
門廳 276
限@@ 276
中型 275
伊@@ 275
休閒百 275
具 275
南瓜 275
狼 275
直@@ 275
風機 275
骨 275
麗@@ 275
原子 274
多種 274
束口 274
棉服 274
櫻桃 274
用于 274
箱子 274
綠茶 274
輕巧 274
類 274
鯊魚 274
具@@ 273
匯 273
收縮 273
方型 273
潔面 273
直郵 273
花灑 273
高潮 273
冬 272
哈倫褲 272
娃 272
時代 272
權志龍 272
法@@ 272
洗手盆 272
洗菜 272
物@@ 272
皺 272
碼@@ 272
腮紅 272
護手 272
車內 272
壹 271
孫 271
旗艦店 271
棉長 271
毫安 271
淋浴 271
至 271
茶盤 271
青@@ 271
光碟 270
公@@ 270
女用 270
忍者 270
掀 270
日期 270
極@@ 270
減震 270
炫彩 270
睡覺 270
芙 270
阿甘鞋 270
食 270
高效 270
存錢 269
工坊 269
工藝 269
影音 269
戒 269
日文 269
水波 269
玉石 269
藤原 269
購@@ 269
以上 268
參考 268
塔 268
所 268
通 268
防雨 268
三菱 267
倒 267
典雅 267
前@@ 267
破 267
聽 267
計 267
豐田 267
鬧鐘 267
一包 266
低腰 266
側背 266
六 266
出口 266
寬版 266
春@@ 266
洗@@ 266
潛水 266
簡@@ 266
薑 266
號店 266
行李 266
運動服 266
重@@ 266
餐盒 266
多用 265
帽@@ 265
皮包 265
睡袋 265
髒 265
麻花 265
中心 264
吸濕 264
套筒 264
環保@@ 264
草帽 264
賽 264
隔離 264
預 264
領帶 264
不含 263
外殼 263
大學生 263
旅游 263
東@@ 263
眼罩 263
遊 263
入@@ 262
圖@@ 262
平價 262
播放器 262
無毒 262
珠光 262
過濾 262
代言 261
動@@ 261
奧@@ 261
孔@@ 261
書店 261
溫@@ 261
滿千減 261
牌@@ 261
肩斜 261
設 261
車貼 261
丹寧 260
平@@ 260
德@@ 260
思@@ 260
棉被 260
護膚 260
野@@ 260
九@@ 259
侶 259
充電寶 259
創 259
博士 259
啾 259
想 259
活 259
砂 259
福@@ 259
軟妹 259
免洗 258
別針 258
加拿大 258
單處 258
大全 258
奇@@ 258
季 258
戰@@ 258
斯@@ 258
粉刺 258
絲光 258
丹尼 257
傳統 257
加強 257
天下 257
平光 257
強化 257
打印 257
當 257
紙盒 257
透@@ 257
合@@ 256
宴會 256
專柜 256
戀 256
晶@@ 256
絲絨 256
聲 256
胎 256
通用型 256
酒杯 256
套件 255
梨 255
水泥 255
硬 255
福 255
葡萄 255
開叉 255
雨靴 255
雲 255
分期 254
妹妹 254
效期 254
板凳 254
機油 254
沙@@ 254
演唱 254
瘦身 254
耐高溫 254
行車 254
證 254
辦公@@ 254
餐盤 254
分格 253
墨水 253
燈泡 253
站立 253
萬代 253
詹姆斯 253
贈@@ 253
足 253
入組 252
包時 252
只要 252
康@@ 252
桃花 252
極致 252
波@@ 252
直出 252
精致 252
索尼 252
茶水 252
酒紅 252
阿曼尼 252
合售 251
女人 251
師@@ 251
聖 251
蘭蔻 251
軟糖 251
一生 250
佛 250
保護膜 250
備 250
標誌 250
正常 250
漢服 250
磨 250
窗@@ 250
臉@@ 250
蠶絲 250
蹟 250
轉角 250
鐳 250
乳霜 249
保守 249
匙 249
巴@@ 249
支持 249
磁扣 249
網眼 249
蝶 249
規格 249
電競 249
一代 248
二件 248
元@@ 248
全掌氣 248
各 248
嘻哈 248
小洋 248
按 248
明@@ 248
歐風 248
美體 248
衣帽 248
記 248
圈圈 247
大燈 247
安撫 247
川 247
手腕 247
散 247
殺菌 247
演出服 247
激情 247
特級 247
王者 247
竹@@ 247
肌@@ 247
花瓣 247
轉換器 247
阿 247
餐巾 247
魂 247
黏 247
不可 246
全銅 246
噴頭 246
孩子 246
小茶 246
引擎 246
教學 246
正裝 246
武器 246
波西 246
納@@ 246
繩@@ 246
鱷魚 246
克斯 245
出風口 245
包組 245
喬 245
園@@ 245
外穿 245
密 245
店長 245
庫 245
火鍋 245
牛津 245
盆@@ 245
航空 245
薄@@ 245
面部 245
高壓 245
魚缸 245
五 244
免@@ 244
小沙發 244
工作室 244
松糕 244
毛帽 244
納 244
觸 244
輔助 244
針@@ 244
魔力 244
主題 243
大頭 243
小朋友 243
方塊 243
條包 243
紫水晶 243
花草 243
萬向 243
變@@ 243
達菲 243
飛行 243
體恤 243
傳說 242
免運@@ 242
古董 242
嚕 242
擠 242
斜肩 242
相片 242
立@@ 242
翹 242
花茶 242
蘭@@ 242
財@@ 242
貼畫 242
齊 242
千@@ 241
吸@@ 241
咖 241
妹 241
尚休 241
接待 241
整理盒 241
早期 241
永生 241
無鋼圈 241
西餐 241
販售 241
超輕量 241
創意@@ 240
創意個 240
奢@@ 240
客人 240
換鞋 240
旅行袋 240
直接 240
老式 240
靜 240
鞋休 240
預定 240
反 239
寶馬 239
小怪 239
小腳褲 239
彩妝 239
慕斯 239
抽紙 239
校園 239
花色 239
佳@@ 238
切片 238
南@@ 238
平滑 238
快樂 238
排扣 238
收納筐 238
正生 238
牆壁 238
百貨店 238
立得 238
紙巾盒 238
羽 238
翅膀 238
腰@@ 238
臉部 238
調式 238
八 237
冷水 237
利@@ 237
加肥 237
古巴 237
回@@ 237
天空 237
東立 237
湯 237
軍綠 237
速@@ 237
顏@@ 237
中年 236
人字拖 236
人家 236
堅果 236
王子 236
百變 236
緬甸玉 236
錄音 236
電線 236
韓版休 236
三葉 235
字@@ 235
抽象 235
搞 235
根 235
機芯 235
水彩 235
登月 235
蛤蟆 235
貼膜 235
運動@@ 235
飛機杯 235
鹽 235
保健 234
內裡 234
八@@ 234
冷熱 234
售價 234
圍欄 234
地@@ 234
掛袋 234
撲 234
日立 234
暗黑 234
楊@@ 234
漆@@ 234
煎 234
碳纖維 234
膚 234
裙@@ 234
墊@@ 233
夾錢 233
拉格 233
永久 233
減 233
獨立 233
禮@@ 233
節能 233
紅白 233
緞帶 233
重低音 233
雲@@ 233
高品 233
黑膠 233
休閒@@ 232
內置 232
加粗 232
掛勾 232
羊 232
超亮 232
儀器 231
原宿風 231
另 231
圈@@ 231
小鹿 231
成長 231
潤滑液 231
牆面 231
田 231
萱 231
逼真 231
高低 231
劇場 230
加固 230
名品 230
咬 230
唐老 230
布偶 230
扣式 230
拼布 230
板手 230
歐洲代購 230
系統 230
西班牙 230
跳蛋 230
鸚鵡 230
凍 229
子母 229
帶鎖 229
店@@ 229
悠遊卡 229
掃 229
新手 229
書柜 229
木頭 229
發椅 229
皮衣 229
砧板 229
社團 229
紳士 229
美麗 229
花粉 229
造景 229
鋯 229
附贈 229
哈 228
圓盤 228
歐米 228
王國 228
盾 228
美食 228
西瓜 228
貨號 228
閒@@ 228
飄 228
黛 228
之家 227
台中 227
土 227
婷 227
小吃 227
後@@ 227
接@@ 227
絕對 227
艦店 227
軌道 227
預訂 227
魔@@ 227
黑頭 227
亞瑟士 226
仙 226
保@@ 226
凱@@ 226
包斜 226
十@@ 226
如 226
森系 226
熱褲 226
筆盒 226
編@@ 226
耳塞 226
表@@ 226
部落 226
鞋潮 226
麻 226
兔兔 225
其他 225
小風扇 225
戰鬥 225
橡木 225
簡體 225
粉紅@@ 225
蔬果 225
防燙 225
靈 225
三腳架 224
兔@@ 224
加濕器 224
史 224
吐司 224
您 224
控制 224
收納籃 224
日記 224
期 224
班 224
白底 224
短@@ 224
硬碟 224
絨布 224
背蓋 224
蒸汽 224
虎頭 224
轉接頭 224
部 224
七@@ 223
主播 223
五色 223
出版社 223
刀架 223
圖書 223
契爾氏 223
次 223
沒 223
純銅 223
色可選 223
連@@ 223
青 223
面具 223
面盆 223
項圈 223
預購款 223
餃子 223
假@@ 222
士 222
恤衫 222
手電筒 222
添加 222
緣 222
萌@@ 222
萬寶龍 222
蒸 222
鋁@@ 222
零碼 222
丁 221
加熱 221
尺@@ 221
推 221
星際大戰 221
書櫃 221
毛巾架 221
浩 221
皮膚 221
碗碟 221
精工 221
防寒 221
防漏 221
降 221
傘@@ 220
別 220
底@@ 220
接 220
替換 220
檀香 220
水鬼 220
痘 220
發床 220
組合@@ 220
赤足 220
係 219
出@@ 219
多多 219
天堂 219
奶 219
工 219
慕 219
深@@ 219
牛仔裙 219
總 219
艾 219
茶葉 219
視 219
警示 219
幹 218
樂福鞋 218
爾@@ 218
紗裙 218
胖子 218
酒精 218
面紙 218
面罩 218
上班族 217
低音炮 217
保存 217
免費 217
分享 217
可樂 217
小狗 217
拌 217
比@@ 217
獅子 217
粉嫩 217
莉 217
超可愛 217
鎖@@ 217
勿 216
單件 216
小魚 216
折疊桌 216
榮耀 216
泡澡 216
狐狸 216
竹炭 216
經@@ 216
課 216
調整 216
遙控器 216
金扣 216
陽光 216
體育 216
三人 215
優惠中 215
刀具 215
初 215
周@@ 215
單人床 215
坡 215
垂墜 215
幼稚 215
戰術 215
時@@ 215
柜@@ 215
柴犬 215
樓 215
菱格紋 215
觸控 215
證明 215
降噪 215
兩款 214
宮廷 214
打包 214
梳子 214
港版 214
火影忍者 214
異 214
紀念品 214
美版 214
開運 214
隔音 214
餵 214
匣 213
升 213
哈@@ 213
塞 213
壁貼 213
寸@@ 213
床頭櫃 213
暢銷 213
書本 213
棕 213
橘子 213
母 213
浴盆 213
浴缸 213
證件 213
口@@ 212
叮噹 212
安娜 212
庭 212
短筒 212
茉莉 212
親子裝 212
貝親 212
鐘@@ 212
雙子星 212
下@@ 211
側@@ 211
制冷 211
印度 211
即期 211
命 211
單層 211
小馬 211
店鋪 211
慵 211
抽@@ 211
東 211
比賽 211
水箱 211
爪 211
舒@@ 211
藍白 211
襪@@ 211
七 210
中老年 210
全能 210
出租 210
博柏利 210
商務@@ 210
扇子 210
支援 210
無限 210
科學 210
簡約@@ 210
藏 210
蜘蛛 210
阿甘 210
一片 209
傳奇 209
印良品 209
威@@ 209
憑證 209
搖滾 209
昇 209
湯鍋 209
照 209
繪畫 209
美國隊 209
色彩 209
蘑菇 209
貓頭鷹 209
透膚 209
防塵罩 209
香爐 209
中夾 208
依@@ 208
信用卡 208
呼吸 208
小眾 208
尼 208
工具箱 208
歐美代購 208
民宿 208
水性 208
空軍一號 208
試 208
透光 208
進 208
野生 208
雞肉 208
麥@@ 208
佩佩豬 207
可動 207
坪 207
實物 207
射 207
小蜜蜂 207
康 207
棍 207
款號 207
毛料 207
涼席 207
濃縮 207
珠@@ 207
睫毛膏 207
絨面 207
花香 207
袖衛衣 207
褲潮 207
角@@ 207
通勤 207
鐲 207
雅詩蘭 207
雷@@ 207
風水 207
駕車 207
鬚 207
凡 206
出國 206
去污 206
均 206
導航 206
批 206
掉 206
易@@ 206
法拉利 206
滾 206
潮人 206
精準 206
紀梵希 206
纖維@@ 206
羊羔 206
美人 206
色號 206
袋裝 206
酷@@ 206
闊 206
乾@@ 205
房子 205
打磨 205
搞怪 205
枕@@ 205
桃 205
樹@@ 205
水池 205
源 205
滾筒 205
特價@@ 205
省空間 205
紗@@ 205
菲利普 205
見 205
註 205
跳舞 205
酒 205
鐵盒 205
面包 205
魚紋 205
黑底 205
各種 204
員 204
壓式 204
婚慶 204
床墊 204
心形 204
恩 204
拆@@ 204
放@@ 204
機套 204
海鷗 204
滑@@ 204
灣@@ 204
福利品 204
胸前 204
逛街 204
鉑 204
鯊 204
乳@@ 203
企鵝 203
倫 203
優雅@@ 203
劵 203
名@@ 203
嘉@@ 203
夜燈 203
大框 203
威 203
小丸子 203
推拉 203
文學 203
晾 203
棒棒糖 203
汙 203
沾 203
泰迪 203
混 203
瀝水架 203
爬行 203
爸爸 203
琴 203
瓷磚 203
甜品 203
白紅 203
科 203
紅茶 203
紙巾 203
葫蘆 203
西服 203
香草 203
ス 202
修@@ 202
唷 202
場景 202
嬰 202
年@@ 202
手指 202
方頭 202
普@@ 202
月光 202
杏仁 202
樂購 202
男潮 202
耳@@ 202
舒服 202
褲帶 202
車身 202
遮肚 202
開光 202
防走光 202
雙向 202
麥 202
事 201
假面 201
包郵@@ 201
台灣@@ 201
喬巴 201
寄 201
平面 201
控 201
提花 201
玩家 201
福特 201
籠子 201
脫 201
腳架 201
電視櫃 201
韓貨 201
高精度 201
佛@@ 200
信 200
假睫毛 200
大底 200
定位 200
導 200
抗皺 200
掃地 200
搭扣 200
松 200
毯子 200
漂亮 200
漾 200
焦糖 200
爆@@ 200
甜蜜 200
眉筆 200
芯@@ 200
莎 200
萌 200
袖帽 200
通@@ 200
關 200
阿瑪尼手 200
靈@@ 200
青蛙 200
音樂@@ 200
佛教 199
促銷價 199
俏皮 199
券 199
城堡 199
封 199
島 199
綿 199
英語 199
華萊士 199
蜘蛛人 199
轉椅 199
倉鼠 198
刷子 198
宅 198
寶貝@@ 198
手臂 198
杏色 198
母乳 198
滋養 198
滿@@ 198
烘培 198
直送 198
相容 198
精鋼 198
肚子 198
花生 198
英寸 198
螺旋 198
許@@ 198
饅頭 198
鳥@@ 198
麻辣 198
作品 197
公 197
地中海 197
套装 197
支@@ 197
星座 197
玫 197
當袋 197
直購 197
矮凳 197
童書 197
考試 197
肥皂 197
齒 197
上班 196
不傷 196
亞麻 196
印刷 196
妙 196
尾牙 196
山茶花 196
巴西 196
強@@ 196
意@@ 196
星光 196
木床 196
濕 196
牛@@ 196
磚 196
納米 196
素材 196
美國@@ 196
護膚品 196
防曬衣 196
電壓 196
龜 196
丁字 195
內外 195
太陽帽 195
奢華@@ 195
就是 195
帥 195
廚師 195
星辰 195
沙發邊 195
渡假 195
白光 195
直徑 195
穿鞋 195
童話 195
藥 195
螺紋 195
視頻 195
計@@ 195
豆腐 195
象 195
防霧 195
隨手 195
仙人掌 194
仿@@ 194
全系列 194
周歲 194
囊 194
夾縫 194
實@@ 194
改良 194
樓梯 194
歐文 194
清淨機 194
營 194
瘋狂 194
秋千 194
米家 194
蜂巢 194
蟲 194
適@@ 194
雙排 194
雪地 194
電熱 194
電玩 194
非常 194
孕 193
寬口 193
寬松顯 193
幼童 193
拆售 193
桖 193
梯 193
橫條 193
牛角 193
瘦@@ 193
碧 193
磨毛 193
耳罩 193
肌肉 193
背斜 193
葉子 193
觀音 193
角色 193
鮮 193
麻@@ 193
鼠標 193
卡其色 192
取貨 192
握把 192
智@@ 192
淨化 192
美人魚 192
聖@@ 192
藝品 192
藤 192
褲休 192
過@@ 192
鋁箔 192
頓包 192
顆粒 192
顏 192
企業 191
刺青 191
地球 191
小美人 191
展 191
帶燈 191
技術 191
抹布 191
斗篷 191
村 191
核心 191
正廠 191
特色 191
甜點 191
百褶 191
碎 191
茄 191
蒂蒂 191
越南 191
隱 191
風味 191
高手 191
包裝袋 190
大地 190
定型 190
惠 190
手幅 190
指紋 190
新店 190
桌上型 190
梯子 190
洞 190
真絲 190
秀@@ 190
腋下 190
酒架 190
雞@@ 190
不易 189
側邊 189
制 189
屋@@ 189
工作鞋 189
彎 189
必備款 189
抗@@ 189
提供 189
晚安 189
楊 189
泰迪熊 189
磁力 189
穿衣 189
芭比 189
蠟@@ 189
變壓器 189
酒紅色 189
電瓶 189
代籃 188
全民 188
刀劍 188
十字架 188
啞光 188
壁掛式 188
學校 188
捏 188
攝影機 188
新百倫 188
新色 188
水冷 188
滾輪 188
私密 188
粘@@ 188
貓咪@@ 188
貿易 188
車門 188
週邊 188
全店 187
助 187
奈米 187
放大 187
教育 187
旗艦 187
果@@ 187
森@@ 187
火焰 187
留香 187
社 187
社會 187
竹節 187
維@@ 187
羊絨 187
胸@@ 187
貨限時 187
速乾 187
防身 187
偵探 186
卡地亞 186
各式 186
喜@@ 186
妝前 186
彈@@ 186
意 186
折@@ 186
收音 186
深灰 186
滑液 186
漢@@ 186
瑪@@ 186
筆筒 186
精品店 186
美好 186
美術 186
英@@ 186
英倫@@ 186
蚊 186
鍾 186
中大尺 185
冷@@ 185
大款 185
手冊 185
手帕 185
改 185
木制 185
泫 185
滾邊 185
物語 185
眼線 185
籃@@ 185
菈 185
諾@@ 185
譜 185
鋼鐵人 185
集@@ 185
韓版學生 185
頓 185
典藏 184
凝露 184
哈娜 184
坐姿 184
將 184
教室 184
暖手 184
流沙 184
減壓 184
狂歡 184
玲 184
變裝 184
轉售 184
遙 184
電動@@ 184
坐便器 183
姓名 183
懶人沙 183
排@@ 183
文青 183
波點 183
漁具 183
漫@@ 183
潮款 183
產 183
甩 183
直條 183
籃子 183
罐@@ 183
罩杯 183
菱形 183
試用 183
軒 183
部品 183
重磅 183
頁 183
風車 183
保鮮 182
全效 182
動畫 182
富士 182
尼@@ 182
度@@ 182
漫 182
田@@ 182
美的 182
美美 182
膠水 182
菸 182
迪@@ 182
鋪子 182
閃光 182
閃電 182
顏料 182
食@@ 182
冬@@ 181
冷藏 181
包裝盒 181
提@@ 181
效果 181
整 181
活@@ 181
瀝水 181
瓦斯 181
秋@@ 181
科@@ 181
種@@ 181
積 181
童車 181
翻新 181
莎拉 181
電扇 181
電瓶車 181
霹靂 181
馬桶 181
高腳 181
吊@@ 180
娃娃鞋 180
嫩 180
搬家 180
收@@ 180
數量 180
最@@ 180
油漆 180
紐約 180
置物櫃 180
蔡@@ 180
諾 180
透氣@@ 180
邊框 180
野 180
麻布 180
下午茶 179
咖啡豆 179
壺@@ 179
小柜子 179
峰 179
心理 179
托@@ 179
斐樂 179
智慧型 179
梅花 179
磁 179
聖誕@@ 179
護眼 179
豪華 179
趣 179
車頭 179
鐘表 179
鐵藝@@ 179
霸王 179
飯桌 179
加高 178
勺子 178
圓點 178
型@@ 178
塗 178
娘 178
小禮服 178
布娃娃 178
沙拉 178
泰 178
游 178
漸變 178
緞 178
縮 178
美津濃 178
花器 178
同@@ 177
推@@ 177
換@@ 177
散裝 177
木板 177
爐@@ 177
物袋 177
男褲 177
編 177
表情 177
遇見 177
七夕 176
健 176
儲物盒 176
冷凍 176
博@@ 176
唇彩 176
密封罐 176
小樣 176
小車 176
帆布袋 176
拋光 176
按鍵 176
控器 176
氣動 176
當@@ 176
白藍 176
直購價 176
眼部 176
票 176
简约 176
籠@@ 176
粧 176
紗布 176
線器 176
脖 176
託 176
豬@@ 176
質量 176
走秀款 176
雕 176
電繡 176
分隔 175
切菜 175
加密 175
卹 175
壓力 175
專利 175
小學 175
小鳥 175
指 175
攝像頭 175
敏感 175
消光 175
湖水 175
無敵 175
發飾 175
筐 175
純金 175
索隆 175
蓮花 175
記憶卡 175
針式 175
香味 175
保濕@@ 174
厚@@ 174
可當 174
可超取 174
噴@@ 174
囉 174
墨@@ 174
大特價 174
好吃 174
安心 174
打造 174
教 174
日發 174
梅 174
模特 174
正方形 174
淡化 174
男休 174
男表 174
純銀手 174
緊致 174
美肌 174
花架子 174
英文字母 174
華麗 174
蓮 174
術 174
超細 174
那 174
鮮@@ 174
鴛鴦 174
供佛 173
全包防 173
全罩 173
原液 173
古休 173
品下 173
山水 173
布朗 173
戴式 173
搖椅 173
柏@@ 173
海苔 173
灰黑 173
灶 173
煙@@ 173
牛排 173
琪 173
眼膜 173
碗筷 173
筆電包 173
精萃 173
胸章 173
臉盆 173
自用 173
軍@@ 173
鄭@@ 173
靜電 173
鞋凳 173
馬克杯 173
妍 172
小貓 172
布衣 172
布袋 172
成@@ 172
珍藏 172
短後長 172
空姐 172
胡桃 172
花漾 172
防霉 172
養@@ 172
兩個 171
初音 171
半身 171
圍兜 171
墊片 171
套裝@@ 171
孔雀 171
實戰 171
對@@ 171
幾組合 171
挑色 171
族 171
梨花 171
檸檬@@ 171
湯@@ 171
白粉 171
自制 171
艾米家 171
鋅 171
休闲 170
冒險 170
化器 170
圓圈 170
墜子 170
大眼 170
完整 170
左右 170
折疊床 170
斷 170
止滑 170
沙發床 170
港 170
煞 170
熨斗 170
瓶@@ 170
神域 170
繞 170
過濾器 170
野外 170
針扣 170
降溫 170
韓站 170
飲水機 170
麻將 170
黑粉 170
塔@@ 169
富@@ 169
小妹 169
小站 169
層@@ 169
打亮 169
技 169
攪 169
新竹 169
極簡 169
概論 169
橙 169
煲 169
燃氣 169
物理 169
特價下 169
穆勒 169
視鏡 169
謝@@ 169
遮陽傘 169
香香 169
騎 169
位 168
儲物箱 168
刀@@ 168
團@@ 168
小胸 168
應@@ 168
掛布 168
歌@@ 168
瘋 168
純白 168
網卡 168
調光 168
辣椒 168
錄 168
鑒 168
開業 168
鷹 168
仙@@ 167
合一 167
喜歡 167
壽司 167
太@@ 167
干@@ 167
捕 167
桃紅色 167
沙發套 167
海軍藍 167
百褶裙 167
緞面 167
耳麥 167
聖誕禮物 167
賣家 167
過年 167
健身房 166
兔毛 166
出差 166
新鮮 166
最高 166
木耳 166
桿@@ 166
楠竹 166
永@@ 166
流蘇@@ 166
熨 166
燒@@ 166
狗@@ 166
瑞 166
私訊 166
群 166
脖@@ 166
語音 166
遠 166
采@@ 166
鞋板 166
頭套 166
ト 165
串 165
供奉 165
出租房 165
唱歌 165
塑 165
墨 165
學生@@ 165
小女孩 165
弦 165
影 165
戴 165
杏 165
植村秀 165
殺手 165
油箱 165
片裝 165
留言 165
第二代 165
粒@@ 165
約會 165
紅酒 165
素@@ 165
總成 165
胸墊 165
腳踏墊 165
腹肌 165
裙式 165
通話 165
選@@ 165
開衩 165
久 164
佛珠 164
吊床 164
單個 164
如意 164
小雛菊 164
拳擊 164
毛邊 164
清涼 164
犀牛 164
男長 164
縫隙 164
衛褲 164
讀 164
起司 164
雲朵 164
三用 163
亂 163
仔@@ 163
單售 163
基@@ 163
大馬 163
托架 163
杯@@ 163
機架 163
水潤 163
登機箱 163
紮 163
蜜桃 163
螺絲刀 163
試題 163
鑰 163
響 163
馬@@ 163
上海 162
世@@ 162
創意園 162
合作 162
吉拉 162
噴 162
帽衫 162
恩@@ 162
業 162
水鞋 162
液@@ 162
漢 162
白灰 162
紅外線 162
維他 162
膠條 162
蛋@@ 162
詩@@ 162
迪 162
壹@@ 161
夜@@ 161
女士香水 161
妖怪 161
嫁接 161
寶藍 161
小雞 161
巴斯 161
抽水 161
拉手 161
掉色 161
接口 161
斗 161
時髦 161
柔@@ 161
淨@@ 161
減肥 161
漸 161
現貨速發 161
璀璨 161
男人 161
發售 161
白板 161
監控 161
相@@ 161
粗@@ 161
肩上 161
落 161
蜂 161
記錄 161
鋯石 161
集中 161
雜 161
修容 160
倫敦 160
克羅心 160
兜兜 160
兩折 160
古老 160
可充 160
太 160
專家 160
廣場 160
愛的 160
懶懶 160
戲@@ 160
折起 160
旺 160
木紋 160
柯南 160
清潔@@ 160
清潔刷 160
測 160
溜溜 160
濾心 160
炒 160
燙金 160
猴子 160
益生菌 160
私人 160
莫代爾 160
薄長 160
藤椅 160
血@@ 160
裝店 160
裹 160
酸 160
零售 160
餐邊 160
高彈 160
供 159
全明星 159
出清價 159
创意 159
化妝刷 159
去除 159
土@@ 159
定價 159
客@@ 159
屬 159
布包 159
我們 159
拖地 159
拼@@ 159
爆裂 159
牆@@ 159
禪意 159
糖@@ 159
糧 159
羅@@ 159
老鼠 159
臥 159
補@@ 159
速出 159
金箔 159
鎖頭 159
頭戴式 159
頻@@ 159
一直 158
中小 158
五代 158
全氣 158
古裝 158
必買 158
拉桿箱 158
數學 158
梅@@ 158
極速 158
正宗 158
母親 158
睡袍 158
經典雙 158
藤@@ 158
設計@@ 158
超仙 158
道教 158
鈴鐺 158
防蚊 158
隔層 158
電筒 158
需要 158
五角星 157
他 157
勁 157
勇士 157
動力 157
化@@ 157
婚 157
專@@ 157
插花 157
清水 157
潔@@ 157
火車 157
牡丹 157
琳 157
耳洞 157
自動@@ 157
藍寶石 157
雙耳 157
韩版 157
魔女 157
切@@ 156
另售 156
如圖 156
存 156
小麥 156
工@@ 156
彈簧 156
批發價 156
文創 156
斑馬 156
根@@ 156
檢測 156
流浪 156
演出 156
真皮包 156
石英表 156
網絡 156
走路 156
郵 156
領結 156
風情 156
鹹 156
齊全 156
三宅 155
僅 155
八成新 155
剪裁 155
南 155
吉祥 155
夫 155
完全 155
小心 155
強光 155
成功 155
搭@@ 155
求生 155
玩@@ 155
硬@@ 155
童房 155
紋長 155
花苞 155
都市 155
鈎 155
イ 154
丁@@ 154
互動 154
加贈 154
原色 154
姐妹 154
擺@@ 154
支裝 154
棉床 154
消防 154
潤@@ 154
祛痘 154
簧 154
縮@@ 154
纖@@ 154
美腿 154
膳 154
蘭芝 154
蠟線 154
貼身 154
野營 154
量化 154
鈴 154
隨行杯 154
馬車 154
黃@@ 154
低胸 153
使 153
側翻 153
副食品 153
劉海 153
包巾 153
北海道 153
半罩 153
卡牌 153
史萊姆 153
單色 153
回收 153
小兔 153
小動物 153
屁屁 153
數@@ 153
普 153
枕芯 153
煙灰缸 153
牆貼 153
環球 153
碳素 153
調理 153
贈送 153
零@@ 153
頭燈 153
黑曜石 153
ル 152
主 152
刀片 152
小夥伴 152
小款 152
小白 152
幫手 152
庫存 152
扮 152
新加坡 152
智力 152
歐舒丹 152
燈籠 152
珍品 152
省力 152
美味 152
肉@@ 152
護照 152
車充 152
重型 152
雪茄 152
需 152
飛人 152
黑魂 152
三洋 151
佛像 151
全面 151
凱 151
厚款 151
叫 151
尾燈 151
巨人 151
應援 151
戴@@ 151
提升 151
撲克牌 151
早秋 151
棉襪 151
潔膚 151
濾@@ 151
端子 151
結單 151
袖珍 151
超軟 151
駝色 151
們 150
免安裝 150
包皮 150
包覆 150
史奴比 150
單頭 150
垃圾袋 150
多代 150
姆 150
宮 150
情侣 150
撐 150
整@@ 150
杯緣子 150
東方 150
棉外套 150
濕紙 150
甜@@ 150
目 150
空白 150
舊@@ 150
豐@@ 150
跑車 150
軟管 150
全網 149
初學 149
包休 149
十 149
味@@ 149
商場 149
報 149
壓縮 149
字帖 149
尾@@ 149
屁股 149
指@@ 149
排水 149
摩登 149
月@@ 149
松鼠 149
梳妝台 149
水平 149
液態 149
溫度 149
漢堡 149
甲@@ 149
籽 149
緬甸 149
興 149
菊花 149
邦 149
閃粉 149
雪莉 149
黑藍 149
包潮 148
叉子 148
呎 148
嗎 148
娜娜 148
学生 148
廚具 148
手持式 148
探索 148
旅 148
春款 148
水餃 148
泳褲 148
漁夫鞋 148
生肖 148
男短 148
福斯 148
空機 148
聯想 148
舞@@ 148
補光燈 148
褶皺 148
軸 148
雨@@ 148
鞋底 148
鞋面 148
鴻 148
ラ 147
勾@@ 147
包鞋 147
卡比 147
吧台 147
商務手 147
天絲 147
寬@@ 147
市場 147
才 147
擴充 147
時尚潮 147
條紙 147
死 147
漏 147
玻璃瓶 147
琥珀 147
直流 147
破壞 147
祕 147
聲寶 147
街舞 147
豐 147
超靜音 147
踩 147
轉換 147
邊桌 147
重機 147
低@@ 146
冬裝 146
分析 146
分離式 146
刨 146
多彩 146
大作 146
寶寶兒 146
小手 146
屏幕 146
找 146
拆式 146
拇指 146
掀蓋 146
會@@ 146
材 146
棉鞋 146
濕@@ 146
炒菜 146
物品 146
用款 146
碳粉 146
褲長 146
課本 146
豆@@ 146
踝 146
軟包 146
邊櫃 146
酒櫃 146
鈕扣 146
鑽耳環 146
主@@ 145
主食 145
今日 145
以 145
仿舊 145
伊 145
值 145
光陽 145
兒童@@ 145
初中 145
刻度 145
十二 145
商 145
如@@ 145
層架 145
帳 145
御 145
招財貓 145
擊 145
晾衣 145
機包 145
機械手 145
沉香 145
沙發椅 145
液體 145
理膚 145
生命 145
螨 145
行@@ 145
衩 145
護具 145
車牌 145
酒器 145
除@@ 145
頭巾 145
體驗 145
鹿@@ 145
中款 144
休閒包 144
充@@ 144
化妝@@ 144
反@@ 144
壁飾 144
天梭 144
姬 144
手掌 144
朱@@ 144
杜蘭特 144
池 144
獨特 144
童趣 144
耳墜 144
萬斯 144
郵票 144
鍍膜 144
鎖骨 144
防汗 144
阿贊 144
集點 144
頭盔 144
高音 144
倉 143
公牛 143
冷暖 143
勝@@ 143
多件 143
妞 143
子彈 143
小方 143
希@@ 143
披風 143
斑 143
方格 143
桌墊 143
淡香 143
炒鍋 143
特產 143
珠珠 143
石頭 143
絕版品 143
胡迪 143
蔔 143
袖洋裝 143
親 143
記事本 143
重工 143
音樂盒 143
騎車 143
髪 143
鼠年 143
保險 142
傳@@ 142
加寬 142
女時 142
富 142
寫字桌 142
懶人@@ 142
松木 142
板房 142
檔@@ 142
水槍 142
測量 142
烏龍 142
燈光 142
禾 142
秋款 142
紓 142
聯@@ 142
臂 142
芳 142
荷 142
蓬 142
袖長 142
軟套 142
轉接 142
面裝飾 142
下水 141
不同 141
中褲 141
亞曼尼 141
享 141
修飾 141
其 141
冷淡 141
剩 141
名器 141
大量 141
尿 141
幫鞋 141
廊 141
徐@@ 141
惡魔 141
戴妃 141
房客 141
拼貼 141
控制器 141
教師 141
春天 141
期限 141
極新 141
溜冰鞋 141
眉 141
真的 141
筷 141
精英 141
莫@@ 141
菜刀 141
蒸氣 141
速干 141
酒@@ 141
銷售 141
門市 141
電工 141
風景 141
風琴 141
飾@@ 141
骨@@ 141
黑板 141
丹 140
免運中 140
全屏 140
八五折 140
出貨前 140
北@@ 140
可愛小 140
喝水 140
夜間 140
奇哥 140
宮崎駿 140
小黑 140
尖 140
影片 140
快@@ 140
戰馬 140
拆賣 140
招財@@ 140
最佳 140
沒有 140
瑕疵 140
瑞典 140
碗柜 140
管道 140
老板 140
自達 140
萊@@ 140
袋@@ 140
裝潢 140
親筆 140
認明 140
鋼針 140
開發票 140
雙人@@ 140
霸氣 140
麥當勞 140
黏@@ 140
三線 139
三輪車 139
世代 139
仕 139
休閒板 139
分鐘 139
刮痧 139
唱片 139
密@@ 139
巨無霸 139
循環 139
志@@ 139
手霜 139
插畫 139
智 139
棋盤 139
殺@@ 139
洗面奶 139
混合 139
溫柔 139
白鐵 139
白雪公主 139
相冊 139
真標 139
米老鼠 139
絕地 139
蜜@@ 139
迷@@ 139
開門 139
韓國帶 139
題 139
黏貼 139
い 138
ア 138
傑 138
剎車 138
喬@@ 138
基 138
奧迪 138
妃 138
家電 138
左@@ 138
志 138
提拉 138
榮 138
樂樂 138
浴 138
照相 138
爾惠靈頓 138
琪琪 138
純銀項 138
胡@@ 138
脖子 138
范 138
行者 138
賦活 138
賺 138
超柔 138
迷人 138
遊戲片 138
雷朋 138
鴉@@ 138
什麼 137
便捷 137
倒車 137
儿童 137
冠軍@@ 137
周 137
唐@@ 137
大型犬 137
尾巴 137
思 137
攻略 137
木盒 137
本子 137
模擬 137
港味 137
簍 137
紡@@ 137
美睫 137
聲光 137
臀@@ 137
英國代購 137
蛙 137
詩 137
越 137
軟皮 137
進口@@ 137
銀行 137
閥 137
便利店 136
刷破 136
剛 136
國家 136
國旗 136
土耳其 136
夏款 136
大大 136
夾層 136
女寶寶 136
宇@@ 136
寵物@@ 136
少 136
嵐 136
川@@ 136
巧@@ 136
影@@ 136
戀@@ 136
普卡 136
汽油 136
滑行 136
租房 136
芝麻 136
芬 136
記@@ 136
調味 136
貝兒 136
路@@ 136
路由器 136
邊柜 136
亮@@ 135
人份 135
作@@ 135
入裝 135
司 135
吹風機 135
噴漆 135
增壓 135
多利 135
學步 135
安瓶 135
小禮物 135
山葉 135
手提式 135
接收器 135
插@@ 135
攪拌 135
方框 135
松緊 135
櫥櫃 135
欣@@ 135
洪@@ 135
淺@@ 135
猴 135
益 135
而 135
艾斯 135
萬年 135
超美@@ 135
身衣 135
鄉 135
鐵板 135
關節 135
餌 135
骨鏈 135
三種 134
云@@ 134
倒流 134
化妝箱 134
可愛動物 134
圓型 134
寶藍色 134
小飛象 134
幻彩 134
德國@@ 134
拍攝 134
方包 134
時尚休 134
有貨 134
框架 134
款長 134
歷史 134
氣囊 134
滿意 134
無盒 134
硅 134
穿@@ 134
胖胖 134
范@@ 134
蟎 134
貓砂 134
貨鋪 134
運動手 134
醫生 134
雙拉鏈 134
霸 134
鞋盒 134
黑貓 134
半透明 133
卡扣 133
噴劑 133
圓桌 133
圓臉 133
小汽車 133
心率 133
必@@ 133
惠@@ 133
曼 133
欄 133
深藍@@ 133
狐 133
男運動 133
直營 133
第五 133
簽@@ 133
給@@ 133
耐吉@@ 133
腰部 133
舌 133
航@@ 133
藝沙發 133
規 133
視@@ 133
記憶體 133
超越 133
釣@@ 133
鞋套 133
鞋女 133
黑水 133
一體式 132
三角形 132
九 132
冊@@ 132
冰種 132
初@@ 132
友 132
吉 132
四方 132
塵 132
夏威夷 132
實務 132
實心 132
挑戰 132
整裝 132
日出 132
書法 132
泥@@ 132
活性碳 132
流水 132
海盜 132
玩具店 132
百搭長 132
米亞 132
繪@@ 132
肥 132
解析 132
跨境 132
銀扣 132
錘 132
防疫 132
零錢袋 132
順@@ 132
不倒翁 131
再生 131
分裝瓶 131
唐裝 131
商務包 131
國外 131
垃圾 131
士@@ 131
幻@@ 131
廠商 131
心型 131
慢 131
戲 131
抓包 131
敏@@ 131
曲面 131
服務 131
椅背 131
水藍 131
煤油 131
熊本 131
現代小戶 131
琺瑯 131
田宮 131
祭 131
素描 131
聚會 131
芒果 131
莉@@ 131
藤編 131
輕奢@@ 131
遊@@ 131
重量 131
隆 131
隨@@ 131
鞭 131
鳳梨 131
鼓 131
一家 130
三款 130
丹@@ 130
倍思 130
公桌 130
典款 130
升@@ 130
可愛貓 130
四層 130
墜@@ 130
奶奶 130
小丑 130
幸運 130
懸掛 130
折疊式 130
效@@ 130
極品 130
橢圓 130
母親節 130
浴袍 130
滑雪 130
男女皆可 130
相 130
簡易書架 130
羽絨服 130
裡 130
貴妃 130
超萌 130
連帽長 130
達人 130
鞍包 130
頭皮 130
食堂 130
一條 129
修剪 129
全部 129
割草 129
咖@@ 129
壓縮袋 129
奢 129
小人 129
希 129
怡 129
成年 129
拉力 129
挑款 129
接器 129
日單 129
普通 129
柚子 129
歌林 129
沛納海 129
油性 129
減齡 129
狀 129
綠植 129
維生素 129
能@@ 129
良 129
花蕾 129
荷蘭 129
血 129
西裝褲 129
貴 129
路亞 129
人手 128
信@@ 128
公文 128
剪@@ 128
四合 128
尖端 128
手機@@ 128
抖 128
搖頭 128
擴 128
擺攤 128
收銀 128
教材 128
橘@@ 128
深海 128
滾珠 128
珍 128
瓦@@ 128
瓷 128
百搭顯 128
神秘 128
精裝 128
美杜莎 128
蓬蓬裙 128
螃蟹 128
裸色 128
語@@ 128
調味料 128
調情 128
鈕 128
閃卡 128
防輻射 128
黃色 128
個裝 127
冰塊 127
削肩 127
勇者 127
包邊 127
取 127
合成 127
小圓 127
帆船 127
幫@@ 127
快感 127
抑菌 127
指甲剪 127
搖 127
摩@@ 127
散熱 127
望 127
步 127
求婚 127
發小戶 127
石榴 127
美學 127
膏@@ 127
蒙古包 127
袖連 127
褲頭 127
豔 127
軍事 127
這 127
避震器 127
關@@ 127
防水布 127
陰陽 127
霜@@ 127
中童 126
健@@ 126
儂 126
克拉 126
包膜 126
午餐 126
合奏 126
吸盤式 126
婕 126
寶水 126
工具包 126
巴 126
平民 126
彌月 126
應用 126
抽取 126
攜帶式 126
晴雨傘 126
晶片 126
束腰 126
松大碼 126
武@@ 126
母@@ 126
油炸 126
浴室柜 126
滅 126
濕巾 126
烘 126
班服 126
產@@ 126
穿過 126
紐巴倫 126
綺 126
置物盒 126
虎@@ 126
這@@ 126
鈣 126
鑫 126
雙門 126
三角架 125
久保 125
公園 125
勝 125
卡卡 125
可折 125
和@@ 125
女帝 125
巧虎 125
底片 125
快乾 125
扁 125
摸 125
撕 125
水晶球 125
洛@@ 125
潑 125
潮品 125
烏@@ 125
無法 125
現場 125
生用 125
空專 125
罐裝 125
義@@ 125
舒壓 125
荳 125
菜板 125
蓮蓬頭 125
裸 125
貓窩 125
費 125
賽@@ 125
迪奧@@ 125
魔方 125
黑眼圈 125
リ 124
五件 124
優惠@@ 124
儲 124
卡夢 124
古鞋 124
地柜 124
夜視 124
夾手 124
奧運 124
姿@@ 124
婚宴 124
富貴 124
射@@ 124
巨@@ 124
布藝@@ 124
年代 124
愛買 124
慕@@ 124
掌 124
椎 124
橫@@ 124
決戰 124
浣熊 124
牙@@ 124
牛肉 124
生存 124
白熊 124
百科 124
磚@@ 124
紅黑 124
絲花邊 124
耐@@ 124
芝麻街 124
英倫學院 124
處理 124
衣女 124
言情 124
訊 124
酒神 124
隨意 124
音量 124
風格@@ 124
飯@@ 124
鵝 124
一箱 123
任 123
何@@ 123
假花 123
全集 123
冠希 123
单肩 123
印尼 123
名字 123
咖哩 123
大叔 123
大眾 123
天線 123
松糕鞋 123
氏 123
潑墨 123
燉 123
珮 123
百年 123
穿戴 123
窗簾@@ 123
羽@@ 123
脫@@ 123
臉書 123
誠品 123
賣@@ 123
賴@@ 123
運動板 123
防蟲 123
電源線 123
ッ 122
之星 122
伴 122
保羅 122
內襯 122
力量 122
加購 122
北歐@@ 122
原料 122
單面 122
嘻哈@@ 122
季@@ 122
山本 122
帶長 122
心機 122
恒溫 122
慶@@ 122
新勁戰 122
方領 122
曉@@ 122
曲線 122
果蔬 122
樂活 122
江@@ 122
照@@ 122
登 122
發器 122
白證 122
破@@ 122
神仙 122
紀 122
絲綢 122
維尼@@ 122
藥@@ 122
速度 122
郭@@ 122
金邊 122
針織長 122
閃@@ 122
附錄 122
陶瓷杯 122
露@@ 122
首刷 122
鯉魚 122
傳輸 121
充線 121
匠 121
可口 121
可議 121
吉士 121
多美小汽車 121
太陽傘 121
女表 121
完成 121
少量 121
巴士 121
影城 121
戰神 121
折疊椅 121
木雕 121
母子 121
汗 121
活膚 121
漱口杯 121
無人機 121
無縫 121
發邊 121
百搭潮 121
皮筋 121
網鞋 121
總@@ 121
肽 121
背巾 121
萌萌 121
葡萄酒 121
藏式 121
裝扮 121
谷 121
鍋具 121
閒運動 121
ん 120
ㄇ 120
三明治 120
九折 120
全省 120
六色 120
出品 120
務 120
印象 120
即食 120
圓珠 120
壁@@ 120
家家酒 120
實品 120
慾 120
扭扭 120
拋棄式 120
拖車 120
挑 120
採用 120
搖@@ 120
效 120
景 120
晴 120
棉圓領 120
淡斑 120
淺灰 120
潘多拉 120
燕麥 120
牛仔布 120
狂 120
現代客 120
理@@ 120
百合 120
碧璽 120
磯 120
福利 120
私處 120
網格 120
蒂@@ 120
變速 120
貨車 120
農場 120
運動套 120
采用 120
金牌 120
錬 120
長條 120
魔師 120
一分 119
保平安 119
元免 119
光年 119
分褲 119
卸 119
壁式 119
外線 119
大王 119
天鵝絨 119
夫妻 119
奈 119
娃衣 119
小金 119
庫洛 119
廁所@@ 119
折免 119
改裝@@ 119
整箱 119
汽材 119
淨白 119
皇@@ 119
盆帽 119
直立式 119
硫化 119
第三 119
等級 119
紀念版 119
純銀針 119
細節 119
腰掛 119
腳墊 119
色素 119
菓 119
趙 119
運動襪 119
過敏 119
醋 119
醫療 119
錦@@ 119
雕像 119
類@@ 119
驅 119
高貴 119
代餐 118
保險箱 118
刷具 118
卡拉 118
咩 118
單反 118
單寧 118
壹家 118
女寶寶@@ 118
實驗 118
封面 118
小書架 118
小火 118
愛上 118
拉絲 118
搓 118
播放 118
槍@@ 118
泉 118
流@@ 118
滴 118
潤膚 118
無紡布 118
燻 118
狗頭 118
獅 118
白綠 118
第三代 118
粉紅豬 118
精華@@ 118
組合包 118
網狀 118
繃 118
背膠 118
自有 118
芸芸 118
菊 118
記錄器 118
貨店 118
購物車 118
赤@@ 118
載 118
速發 118
配送 118
鋼絲 118
錦 118
韓劇 118
首 118
高爾夫球 118
鬼@@ 118
一支 117
人魚 117
入戶 117
兩面 117
初版 117
坐@@ 117
增@@ 117
大台北 117
套鞋 117
妞妞 117
小個子 117
屏@@ 117
工裝褲 117
彼得 117
扣頭 117
接線 117
教具 117
時裝 117
棉襖 117
水杯子 117
浪琴 117
漬 117
火烈 117
界 117
畫板 117
畫畫 117
眼皮 117
箱包 117
紅豆 117
經濟 117
耳塞式 117
舞台 117
萬圣節 117
蟲@@ 117
遠@@ 117
防風@@ 117
隨便 117
è 116
代發 116
侖 116
刮@@ 116
吊籃 116
吹@@ 116
商@@ 116
單支 116
复古 116
女外 116
市集 116
帕@@ 116
幹@@ 116
得力 116
插電 116
文具盒 116
曲 116
更新 116
最強 116
朋克 116
杆 116
楦 116
毛怪 116
油瓶 116
洋基 116
海馬 116
游@@ 116
滑輪 116
烏龜 116
現@@ 116
用書 116
發行 116
盃 116
碧@@ 116
神明 116
簍空 116
翔 116
苗 116
草坪 116
超可愛@@ 116
超夯 116
輕盈 116
連接 116
重力 116
金戒指 116
鎖骨鏈 116
雪紡@@ 116
風板 116
風火輪 116
高雅 116
鴨@@ 116
黑糖 116
侃爺 115
依 115
典 115
刷@@ 115
原礦 115
單前 115
嘉 115
外接 115
大臉 115
婦@@ 115
媽咪包 115
崁 115
巖 115
工場 115
斯特 115
時尚手 115
歐美潮牌 115
毛筆 115
汁 115
波力 115
淡@@ 115
無糖 115
熒光 115
牆紙 115
獵人 115
百分百 115
直發 115
老爺 115
訂購 115
超顯 115
農@@ 115
運動風 115
開瓶器 115
離子 115
雨刷 115
頂@@ 115
一批 114
仙境 114
保時捷 114
分離 114
單眼 114
四葉草 114
圍@@ 114
填充 114
墬 114
御@@ 114
慧 114
搖搖椅 114
整型 114
整組 114
毛刷 114
沙包 114
淺色 114
熊大 114
甜 114
發套 114
皮皮 114
看@@ 114
礦 114
簡易@@ 114
羽球 114
舞會 114
莎@@ 114
計算機 114
護欄 114
護腕 114
貨免 114
貼花 114
遮擋 114
鍍金 114
陶@@ 114
駝 114
一雙 113
三重 113
中腰 113
主持人 113
亮白 113
人造 113
兵@@ 113
凳@@ 113
削 113
動漫@@ 113
卡特 113
可放 113
合格 113
吊扇 113
嘴@@ 113
回饋 113
圓框 113
大戰 113
姿 113
寬松休 113
幼 113
廣角 113
影樓 113
心情 113
成犬 113
日牌 113
標處 113
機械腕 113
水母 113
汗衫 113
沐 113
游泳圈 113
潛 113
濃 113
爽膚 113
皇后 113
織帶 113
美甲店 113
花藝 113
萊 113
蓬蓬 113
藏@@ 113
豪@@ 113
購回 113
車燈 113
零開始 113
電機 113
顯瘦@@ 113
食玩 113
食用 113
麗嬰房 113
ク 112
三輪 112
不是 112
中華 112
伊布 112
全方位 112
冠@@ 112
南極人 112
可貨到 112
問題 112
地圖 112
外賣 112
奶@@ 112
宮@@ 112
專業@@ 112
小美 112
尚手 112
干花 112
幼犬 112
徒步 112
戀人 112
指南 112
搖擺 112
摩洛哥 112
改善 112
敷 112
施工 112
水泵 112
波波 112
海豚 112
湯碗 112
濃@@ 112
火山 112
灰姑娘 112
牧田 112
珠子 112
生活用品 112
男生女生 112
真無線 112
精密 112
羊@@ 112
船襪 112
英文版 112
賽琳 112
跳跳 112
軍綠色 112
辟邪 112
酷奇 112
鋼管 112
鍛煉 112
鐵架 112
領巾 112
高溫 112
黑綠 112
一張 111
一體機 111
七天 111
三入 111
丸子 111
佩@@ 111
兔裝 111
凍@@ 111
化妝台 111
卡座 111
可到 111
可單 111
同人誌 111
哈利波 111
唯一 111
唱 111
噴霧器 111
坎肩 111
太極 111
女朋友 111
宣言 111
小衫 111
建築 111
恐怖 111
成型 111
排球 111
敏 111
水袋 111
海棉 111
登山鞋 111
眉@@ 111
碼數 111
競@@ 111
簡潔 111
粘鍋 111
美國帶 111
茶樹 111
菜@@ 111
蓆 111
蚊燈 111
蚊香 111
足浴 111
軟毛 111
透亮 111
進@@ 111
過膝 111
錐 111
闊腿 111
魔幻 111
云 110
亞洲 110
人大 110
仁 110
仿真花 110
來@@ 110
停車 110
八折 110
六月 110
化學 110
北京 110
北極 110
參@@ 110
同名 110
君@@ 110
品味 110
城@@ 110
套書 110
婚鞋 110
字紋 110
寄送 110
寵 110
恤@@ 110
情@@ 110
日用 110
時刻 110
暗@@ 110
椅墊 110
橡皮 110
歡樂 110
水手 110
沙發@@ 110
澤@@ 110
牙音 110
獎 110
瓦 110
盤套 110
粥 110
老二 110
范斯 110
蘆薈 110
蝸牛 110
行銷 110
買@@ 110
足@@ 110
車兒童 110
軸@@ 110
野獸 110
鈴@@ 110
雙拉 110
雪糕 110
領露 110
驚喜價 110
高山 110
高絲 110
一本 109
不要 109
中秋 109
全台 109
剃須 109
包長 109
十足 109
同學 109
后@@ 109
報@@ 109
墜耳環 109
大顆 109
寶緹嘉 109
封@@ 109
小獅 109
指針 109
掛牆 109
日產 109
檢驗 109
涼@@ 109
滴膠 109
激@@ 109
濕器 109
炫@@ 109
純銀耳環 109
自留 109
芬妮 109
蒙@@ 109
表帶 109
褪色 109
誠 109
護腰 109
貓眼 109
邱@@ 109
雄 109
顆@@ 109
風長 109
魚尾 109
黑面 109
三個 108
下巴 108
二次 108
亞馬遜 108
人形 108
保冷 108
先@@ 108
光板 108
內膽 108
刀劍亂 108
制@@ 108
喬登 108
單片 108
圓筒 108
太郎 108
女寶 108
家飾 108
小林 108
屬@@ 108
工作桌 108
工學 108
干濕 108
拖@@ 108
捆 108
日系@@ 108
時尚個 108
晚禮服 108
普洱茶 108
替 108
李 108
柔膚 108
楊冪 108
模@@ 108
模式 108
泡面 108
活頁 108
浴衣 108
測試 108
火箭 108
熱售 108
燈條 108
犬@@ 108
番茄 108
登山包 108
百搭單 108
皂@@ 108
神話 108
童床 108
節日 108
緊@@ 108
羽毛球 108
艾草 108
荷花 108
菲@@ 108
萃 108
蘿 108
豪 108
貝雷帽 108
身高 108
轉盤 108
酒瓶 108
釣竿 108
錄器 108
鏡框 108
鞋款 108
二色 107
俱樂部 107
光學 107
卷@@ 107
合式 107
吊椅 107
品特 107
商業 107
夏涼 107
外銷 107
姐 107
娟 107
宇 107
左 107
已@@ 107
幫寶適 107
我@@ 107
手巾 107
扣環 107
抓@@ 107
掌上 107
擋板 107
服女 107
機柜 107
每日 107
沙袋 107
洗頭 107
滿千免 107
烤盤 107
爵士 107
現貨下 107
祈福 107
罐頭 107
翻蓋包 107
聖誕樹 107
膠底 107
自拍桿 107
自粘@@ 107
興@@ 107
艾灸 107
著@@ 107
蝟 107
輪子 107
辣 107
醒 107
金盞 107
雜貨店 107
靜@@ 107
高腳凳 107
不織布 106
五月天 106
休息 106
伸 106
來電 106
假發 106
儲蓄 106
元氣 106
初生 106
媽@@ 106
嬰兒車 106
工地 106
待 106
必 106
悅 106
搖桿 106
改@@ 106
柔光 106
桃子 106
歡 106
水蜜桃 106
混@@ 106
澤 106
瓶子 106
磨@@ 106
磨刀 106
礦物 106
船型 106
花開 106
蓋毯 106
裝飾@@ 106
解@@ 106
賽亞人 106
金絲 106
雕塑 106
需@@ 106
順 106
三分 105
二層 105
促销 105
八卦 105
凝霜 105
刻@@ 105
劍@@ 105
大阪 105
女上衣 105
山居 105
帶洋裝 105
微景觀 105
德斯 105
懸 105
有限 105
植@@ 105
植萃 105
概念 105
牙齒 105
玖 105
球球 105
甘@@ 105
監視器 105
直升 105
磁鐵@@ 105
禮券 105
粉白 105
羅馬 105
艾莎 105
衛生紙 105
質感@@ 105
車標 105
韓國直 105
頻 105
中國@@ 104
丶 104
五件套 104
人緣 104
傘架 104
兩種 104
兼容 104
剛@@ 104
啤酒 104
噴槍 104
團體 104
大力 104
大同 104
大堂 104
妖 104
對折 104
帝 104
挺 104
日雜 104
杖 104
桃@@ 104
植 104
水墨 104
泰國@@ 104
渲染 104
潔淨 104
炸 104
燭 104
球拍 104
白水晶 104
盥洗 104
磁@@ 104
磨牙 104
絕@@ 104
老年人 104
色料 104
袖口 104
誠信 104
車架 104
鉚釘@@ 104
閃光燈 104
防曬@@ 104
院 104
雙用 104
電鍋 104
飽 104
魯@@ 104
鳥籠 104
鳳 104
人類 103
印字 103
厘米 103
取@@ 103
墨綠 103
導@@ 103
小西 103
席子 103
廣@@ 103
彩膜 103
成套 103
挑逗 103
新潮 103
方桌 103
柯@@ 103
橋 103
橡皮擦 103
橫款 103
款拉鏈 103
汽車@@ 103
沙漏 103
煙器 103
熏香 103
環保袋 103
白勾 103
精梳棉 103
美品 103
聲控 103
腰顯 103
蓁 103
螺 103
證件夾 103
識別 103
轉運 103
除菌 103
顯@@ 103
黃銅 103
黑銀 103
一鍵 102
倩 102
典@@ 102
冰絲@@ 102
喂奶 102
囍 102
夢想 102
夾鏈 102
奇妙 102
女襪 102
好好 102
好禮 102
婷婷 102
定@@ 102
寬袖 102
小宅 102
帶式 102
幽靈 102
幾客 102
庫@@ 102
心耳 102
怡@@ 102
急速 102
承重 102
收納桶 102
晴雨 102
會場 102
樹葉 102
水草 102
浴@@ 102
烏 102
營@@ 102
白玉 102
監測 102
真人 102
紋路 102
細紋 102
繩子 102
背袋 102
薔薇 102
蛇紋 102
褥子 102
試管 102
豪華@@ 102
起泡 102
退 102
鏟子 102
防曬霜 102
離@@ 102
離合器 102
雪紡衫 102
靴@@ 102
靶 102
之心 101
分層 101
列 101
前後@@ 101
十一 101
卯 101
可機 101
史@@ 101
向日葵 101
和尚 101
和平 101
單人沙 101
培訓 101
堡 101
大家 101
夾板 101
女休 101
宜 101
家居生活 101
小提琴 101
幅 101
日光 101
枸杞 101
柑橘 101
染色 101
核桃 101
模組 101
欣欣 101
氨基酸 101
江 101
沒@@ 101
治 101
洽談 101
灰藍 101
炫 101
炫酷 101
甲片 101
簿 101
米粒 101
粉碎 101
紡 101
絕 101
纯棉 101
翻@@ 101
胎@@ 101
胖@@ 101
腳褲 101
自助 101
莫斯奇諾 101
蓋子 101
薰香 101
裝長 101
車車 101
醣 101
鏈帶 101
開發 101
雙耳@@ 101
食器 101
シ 100
中空 100
偏 100
做@@ 100
億@@ 100
出門 100
剃 100
千鳥格 100
卡貼 100
吾 100
單排 100
固@@ 100
圖解 100
女夏@@ 100
寧 100
小品 100
小新 100
小燈 100
小錢 100
廳@@ 100
強效 100
恐龍@@ 100
應中 100
拎包 100
指尖 100
救援 100
明日 100
時尚單 100
月子 100
桌書架 100
梳妝鏡 100
機械鍵 100
櫻@@ 100
毛皮 100
無味 100
犬貓 100
異味 100
登機 100
短洋裝 100
翼 100
衣板 100
計時腕 100
護士 100
豆漿 100
运动 100
逸 100
鋁圈 100
門鎖 100
隊@@ 100
雷 100
韓版長 100
韓版顯 100
領口 100
魚線 100
三條 99
事業 99
五星 99
人力 99
份 99
光面 99
兩入 99
六件 99
刮刀 99
功夫茶 99
包小包 99
化妝盒 99
可發 99
吻 99
啟動 99
單顆 99
四款 99
坑條 99
坦克 99
增強 99
姐姐 99
嫩白 99
寫字 99
寶寶嬰兒 99
展架 99
島@@ 99
巧 99
惠普 99
戰爭 99
拍拍 99
曲奇 99
木柄 99
木馬 99
條紋@@ 99
標示 99
清香 99
熱帶 99
瓜子 99
畫冊 99
發泡 99
盆景 99
益@@ 99
確認 99
禮物@@ 99
秘 99
舔 99
芥末 99
花布 99
角度 99
貓狗 99
赫本 99
起@@ 99
遮@@ 99
配器 99
金手 99
防塵袋 99
陽具 99
隨 99
雙孔 99
預售 99
餐飲 99
TM 98
保溫袋 98
出貨@@ 98
分子 98
力車 98
包側 98
卧室 98
古風@@ 98
商務皮 98
啞鈴 98
地區 98
埃及 98
塑@@ 98
外置 98
官 98
嵌 98
幻想 98
床圍 98
投@@ 98
掛表 98
擊@@ 98
操作 98
數顯 98
景@@ 98
曜 98
更換 98
有效 98
染@@ 98
海鹽 98
涵 98
滿滿 98
潘@@ 98
濃密 98
男朋友 98
登@@ 98
筆記型 98
粉彩 98
網球 98
脖圍 98
膠鞋 98
草編 98
蓋布 98
藝沙 98
裂 98
貨下 98
遠程 98
鐵皮 98
開襟 98
電飯 98
食指 98
館@@ 98
上線 97
佛具 97
佳人 97
佳能 97
保冷袋 97
古運動 97
問@@ 97
墨綠色 97
夾心 97
女優 97
女裝@@ 97
小子 97
巴利 97
布面 97
手寫 97
挂 97
收纳 97
斜@@ 97
新貨下 97
日用品 97
木色 97
机 97
母女 97
每@@ 97
水面 97
然 97
煙盒 97
物盒 97
玉髓 97
理論 97
瑜 97
男手 97
疏通 97
百搭女 97
百搭運動 97
皇 97
盅 97
祝福 97
稱@@ 97
空瓶 97
符 97
精梳 97
絲帶 97
絲洋裝 97
經濟學 97
芭蕾 97
菜瓜布 97
蒸@@ 97
薄型 97
裱 97
豆子 97
貴婦 97
遮瑕膏 97
鎖扣 97
開始 97
開店 97
閒褲 97
除塵 97
陸 97
電力 97
風休 97
驚喜 97
一天 96
一瓶 96
乾濕 96
休閒椅 96
便當 96
保險櫃 96
個@@ 96
刷牙 96
可爱 96
右 96
吸附 96
哲@@ 96
回力 96
地面 96
墜飾 96
大批 96
容 96
席 96
幼@@ 96
微電腦 96
愛馬仕皮 96
懶風 96
按扣 96
杜嘉班納 96
海綿@@ 96
深度 96
混色 96
滿千折 96
漿 96
炮 96
無雙 96
球員卡 96
男學生 96
痘痘 96
瘦小 96
瘦高 96
白鞋 96
百元 96
盛 96
粉橘 96
脂@@ 96
臭 96
花圈 96
藍牙@@ 96
裁剪 96
褲套 96
誰 96
講機 96
護頸 96
輝 96
進擊 96
那@@ 96
部@@ 96
酸奶 96
闊腿褲 96
頸部 96
高密度 96
高度 96
麥片 96
五月 95
便盆 95
儲存 95
充包 95
冰河 95
刺繡@@ 95
原花 95
可移動 95
吸乳器 95
告白 95
國文 95
增 95
壞 95
女學 95
宏@@ 95
寫@@ 95
將@@ 95
尼龍@@ 95
尾翼 95
布套 95
幸運草 95
建@@ 95
弓 95
意威 95
應器 95
暖@@ 95
曼@@ 95
歐手 95
民謠 95
水感 95
汽修 95
泡@@ 95
洗澡盆 95
浮@@ 95
游泳池 95
滑步 95
滷 95
燈芯絨 95
现代 95
班@@ 95
球桿 95
瓶裝 95
生書包 95
眼線筆 95
砲 95
禮物盒 95
級@@ 95
終極 95
菌 95
衛@@ 95
裸@@ 95
財務 95
費@@ 95
避光 95
還@@ 95
鋼托 95
鎂 95
防塵套 95
防藍光 95
鞋店 95
鞋運動 95
高倍 95
高光 95
黑檀木 95
ㄉ 94
世 94
主機板 94
交@@ 94
享@@ 94
仙子 94
休眠 94
伴手禮 94
充氣床 94
內里 94
前置 94
化妝椅 94
卡帶 94
口紅@@ 94
古時 94
四月 94
女靴 94
宜@@ 94
尚女 94
帝@@ 94
带 94
懂 94
折下 94
掛毯 94
攝@@ 94
放置 94
旺旺 94
朗 94
束縛 94
柳 94
法器 94
洋@@ 94
焊接 94
焦 94
留言板 94
皮具 94
目鏡 94
簡版 94
米蘭 94
素食 94
紫羅蘭 94
綴 94
羊肉 94
耐穿 94
聯府 94
背面 94
若 94
萊雅 94
藍莓 94
蟹 94
行器 94
行李包 94
裝組 94
視覺 94
財神 94
透氣休 94
這樣 94
金冠 94
隔@@ 94
雪靴 94
電熱@@ 94
電鑽 94
韓款 94
頭柜 94
飾條 94
首@@ 94
馨 94
驚 94
魚竿 94
一級 93
三通 93
五折 93
住宿 93
保濕滋潤 93
倫@@ 93
做工 93
半截 93
台椅 93
固體 93
塑鋼 93
壹灣 93
寵@@ 93
小圓桌 93
幕 93
年級 93
廖@@ 93
拍賣 93
拎 93
按壓 93
掛耳式 93
敬酒 93
斗@@ 93
新春 93
新疆 93
梳@@ 93
機械機 93
機箱 93
沛@@ 93
清潔器 93
漁夫 93
熱門 93
矮 93
穩定 93
簽 93
細膩 93
美顏 93
考@@ 93
腳凳 93
良@@ 93
苦 93
著用 93
蒸籠 93
蓉 93
薯條 93
衣架子 93
補丁 93
裝修 93
言 93
訓練器 93
試@@ 93
談 93
賞@@ 93
超輕@@ 93
輸出 93
迎賓 93
逗貓 93
連褲 93
道@@ 93
酸@@ 93
金屬@@ 93
銷@@ 93
飛行員 93
餐@@ 93
首發 93
カ 92
タ 92
三圈 92
不掉 92
中控 92
中袖 92
串標 92
亞麻@@ 92
傑@@ 92
全實 92
兩穿 92
共@@ 92
刷色 92
加工 92
午 92
友@@ 92
口腔 92
可換 92
唯@@ 92
坐椅 92
夫人 92
女版 92
孫@@ 92
實木質 92
寧@@ 92
小顆 92
屁衣 92
床頭燈 92
底板 92
彎頭 92
徑 92
愛心@@ 92
愛戀 92
愛運動 92
慧@@ 92
捷@@ 92
撈 92
早 92
春節 92
木炭 92
校服 92
桌長 92
梯@@ 92
楓 92
橫式 92
欄@@ 92
欣 92
池@@ 92
泉水 92
流量 92
涂鴉 92
涼爽 92
火辣 92
烤架 92
燈管 92
癮 92
直排 92
硬幣 92
碳纖 92
童男 92
簡約北 92
縫@@ 92
縫紉機 92
蔘 92
薄紗 92
衝評價 92
角川 92
貍 92
超硬 92
足球鞋 92
轉接線 92
鋁框 92
鑲嵌 92
閃燈 92
閃耀 92
防過敏 92
離霜 92
電式 92
非滿版 92
香膏 92
香菇 92
驅蚊 92
一款 91
不會 91
交通 91
伯爵 91
俄羅斯 91
內有 91
全實木 91
初秋 91
刻版 91
原文 91
吊卡 91
單雙人 91
土豆 91
學測 91
宽松 91
寶盒 91
專櫃貨 91
帶手 91
待機 91
微星 91
思思 91
悅@@ 91
手排 91
拉花 91
排氣 91
搞笑 91
斜口 91
斜紋 91
時尚款 91
曼谷 91
柾 91
機場 91
機械表 91
泳圈 91
消@@ 91
燜 91
用水 91
用餐 91
男神 91
異形 91
白銀 91
矯正 91
研究 91
私@@ 91
空中 91
笠 91
管家 91
經典@@ 91
網紗@@ 91
綿@@ 91
編織@@ 91
美發 91
聚寶盆 91
能力 91
腳底 91
膚@@ 91
臉包 91
自帶 91
致 91
衝浪 91
補漏 91
襦 91
資訊 91
踏@@ 91
軟軟 91
遠鏡 91
遮陽板 91
醬@@ 91
釣蝦 91
鋪@@ 91
鎮 91
防護@@ 91
電腦@@ 91
震 91
香包 91
香料 91
一拖 90
倉價 90
出清@@ 90
出行 90
勁@@ 90
卸妝 90
原裝@@ 90
哄 90
器具 90
圓凳 90
塞@@ 90
大腿 90
套腳 90
小音響 90
希米 90
帶連 90
年度 90
府 90
快樂@@ 90
悠@@ 90
慶 90
木吉他 90
柴油 90
椅凳 90
樂天 90
權 90
洗手液 90
溫杯 90
烘干 90
特曼 90
狀@@ 90
現貨現 90
產后 90
疊@@ 90
矯正器 90
磁石 90
簡約風 90
紐西蘭 90
綠蘿 90
網袋 90
習 90
習@@ 90
背部 90
自來 90
航拍 90
艦隊 90
艾多美 90
藍牙耳 90
西裝夾 90
觀@@ 90
議價 90
賓館 90
通道 90
達爾 90
陽@@ 90
雙效 90
雷神 90
飲@@ 90
馬甲 90
魚骨 90
キ 89
ロ 89
三陽 89
作業 89
優購 89
免釘 89
內衣@@ 89
凹凸 89
加絨衛衣 89
卡尺 89
同人 89
圖片 89
地漏 89
塗料 89
奈@@ 89
女郎 89
學者 89
射燈 89
小沙 89
座@@ 89
廠商直 89
性潮 89
攝像 89
收納罐 89
書坊 89
杜@@ 89
東西 89
板橋 89
柯 89
條紋長 89
橙@@ 89
機械@@ 89
橢圓形 89
款連 89
此 89
汪汪 89
沙漠 89
浮標 89
海底 89
清淨 89
測驗 89
演奏 89
無煙 89
照鏡 89
牆上 89
率 89
玥 89
珍藏版 89
環繞 89
發廊 89
皮箱 89
粉刷 89
精選@@ 89
續 89
翻斗 89
翻糖 89
翻譯 89
背光 89
腸 89
臟 89
英國@@ 89
蒜 89
蔡 89
蜜糖 89
袖子 89
賢 89
跳跳虎 89
车 89
辰 89
農用 89
遙控車 89
金毛 89
銳步 89
鎮宅 89
開檔 89
閨蜜裝 89
陳@@ 89
飲品 89
餐車 89
鮪 89
低幫鞋 88
佑 88
保養品 88
公家 88
出遊 88
列@@ 88
初回 88
刮胡刀 88
助@@ 88
古工業 88
圍脖 88
圓球 88
圓環 88
太太 88
妮妮 88
宋@@ 88
寶寶防 88
專用@@ 88
小黑板 88
幸運@@ 88
床尾 88
影像 88
性用品 88
戲團 88
撿 88
改造 88
教程 88
散打 88
機頂 88
水上 88
浪 88
消臭 88
清夜 88
烏克麗麗 88
焦@@ 88
狂@@ 88
珠寶@@ 88
瓷器 88
疊疊樂 88
皮靴 88
索 88
索@@ 88
臥室陽 88
花童 88
蕊 88
薰 88
装 88
裸妝 88
觀 88
認知 88
警察 88
豪華版 88
貓貓 88
車上 88
造形 88
郎 88
醫@@ 88
鋸@@ 88
阿卡 88
陰蒂 88
雛菊 88
高達 88
魔王 88
黑人 88
コ 87
以@@ 87
傘狀 87
公寓 87
六針 87
劇 87
包裝@@ 87
北欧 87
博 87
厚度 87
古銅 87
可外 87
唇蜜 87
喜帖 87
圣誕節 87
奇女 87
好用 87
小櫃子 87
小直 87
尚潮 87
尚運動 87
幻影 87
幾角 87
床品 87
很@@ 87
得@@ 87
排氣管 87
掛衣 87
料@@ 87
柵欄 87
桑@@ 87
棒@@ 87
椅套 87
樂扣 87
洗衣袋 87
溫度計 87
烘乾 87
燈座 87
猿人 87
痕 87
礦@@ 87
糰 87
紐扣 87
聲@@ 87
胡桃木 87
腳套 87
藍紅 87
許 87
豆沙 87
貴@@ 87
超質 87
運動籃 87
金魚 87
間@@ 87
離 87
香檳金 87
高彈力 87
魅惑 87
三頭 86
主管 86
以下 86
任意 86
低調 86
信箱 86
值得 86
刃 86
劑@@ 86
功率 86
加壓 86
包入 86
包零錢 86
千層 86
卸妝水 86
古文 86
吹泡泡 86
呢 86
妤 86
客厅 86
小櫻 86
小禮品 86
展示柜 86
怪物 86
慵懶 86
所@@ 86
打蛋器 86
新型 86
日語 86
最大 86
柏 86
梯形 86
榮@@ 86
樹德 86
泳帽 86
測@@ 86
滴塑 86
漁@@ 86
煙機 86
犬用 86
琴@@ 86
瑄 86
瑙 86
瓷@@ 86
米床 86
紙箱 86
縫線 86
義式 86
胸花 86
花果 86
范冰冰 86
蔡依林 86
行政 86
袋鼠 86
誌 86
調味罐 86
車線 86
輔助器 86
鎢 86
關鍵 86
雪人 86
非洲 86
飛織 86
黑暗 86
レ 85
伯@@ 85
倉@@ 85
凋花 85
劉 85
十二生肖 85
古早 85
只裝 85
可愛的 85
咖啡店 85
商行 85
單孔 85
妝@@ 85
宴 85
帶款 85
弧形 85
心靈 85
意式 85
扇形 85
拉長 85
擴音器 85
文豪 85
斷@@ 85
景德鎮 85
查理 85
極光 85
機電腦 85
檔案 85
毫升 85
水族箱 85
法國@@ 85
泳 85
洛 85
浮潛 85
湯姆 85
滿版@@ 85
潛航者 85
物櫃 85
王辛巴 85
珂 85
珠寶 85
現代輕 85
甲油膠 85
程式 85
章魚 85
笛 85
第四 85
筋膜 85
筱@@ 85
簾@@ 85
紙杯 85
綜合@@ 85
纖 85
耗材 85
胺基酸 85
茶海 85
菁 85
萊卡 85
落@@ 85
蚊@@ 85
蚊器 85
蛇@@ 85
補光 85
補水@@ 85
褲時 85
設計感 85
証 85
起標 85
過濾網 85
達菲熊 85
金鏈 85
鐵灰 85
防塵@@ 85
隨行 85
雨披 85
電容 85
韓版學 85
韻 85
魚嘴 85
麥昆 85
麻繩 85
一定 84
下水道 84
五斗 84
但 84
位@@ 84
兩輪 84
列印 84
勃肯 84
可掛 84
四驅車 84
士兵 84
太陽花 84
奇幻 84
嬌蘭 84
孕婦裝 84
字裙 84
安卓@@ 84
尚氣質 84
尤 84
帳@@ 84
所有 84
搖籃 84
摔@@ 84
收集 84
文房 84
晶鑽 84
朵朵 84
桃木 84
樂高積 84
汽機車 84
泡菜 84
焦點 84
痛 84
發光@@ 84
百搭學生 84
瞬間 84
碳纖維@@ 84
紀念款 84
美國直 84
美白@@ 84
聚 84
臍 84
芽 84
落肩 84
蔓越莓 84
薩 84
詢價 84
豬豬 84
路易 84
車業 84
近@@ 84
連續 84
配皮 84
鋼架 84
鏤空@@ 84
開學 84
防曬防 84
雯 84
電源供 84
鞋百搭 84
韓流 84
風鈴 84
體重 84
鬧 84
鳳@@ 84
點數 84
鼻 84
ド 83
七件 83
中幫 83
俊 83
保溫壺 83
全透明 83
六字 83
凌@@ 83
創作 83
動物@@ 83
可穿 83
哈衣 83
噪音 83
圖鑑 83
太陽@@ 83
女單 83
嬰兒童 83
宗教 83
寺 83
小黑裙 83
帖 83
干果 83
床架 83
彎@@ 83
扎 83
抗藍光 83
指環扣 83
掌@@ 83
提籃 83
散@@ 83
斗柜 83
春日 83
曾@@ 83
有蓋 83
樂團 83
權誌 83
法國代購 83
活節 83
海軍風 83
淡水 83
源@@ 83
滿鋪 83
潮吹 83
瀝水籃 83
無油 83
熟 83
熱器 83
營業 83
爐架 83
牌照 83
物流 83
特考 83
牽 83
玟 83
琦 83
生態 83
砂@@ 83
砸 83
秋衣 83
竹子 83
符@@ 83
簾子 83
紅棗 83
純淨 83
結構 83
絕版@@ 83
老鷹 83
耶誕節 83
腳鏈 83
花樣 83
茲 83
西亞 83
親@@ 83
覺@@ 83
論 83
護膝 83
貴賓 83
途 83
遮肚顯 83
鋸齒 83
鍋蓋 83
雷姆 83
鞋帶 83
韓版大碼 83
餅@@ 83
馬達 83
黑子 83
鼻子 83
不敗 82
供應 82
兒園 82
全包邊 82
刮皮 82
刷頭 82
刺客 82
包錢 82
北美 82
卡斯 82
卡龍@@ 82
只賣 82
可斜 82
同人本 82
哈士奇 82
商務錢 82
喜糖 82
單人@@ 82
國語 82
坑 82
女百搭 82
奶昔 82
婦 82
字體 82
小百貨 82
工房 82
平行 82
康是 82
悠遊 82
戶型 82
承@@ 82
抄 82
抽獎 82
教練 82
服長 82
柚木 82
條裝 82
椒 82
極限 82
概要 82
橘紅 82
橡皮筋 82
水溶性 82
活動@@ 82
爹鞋 82
珍@@ 82
生理 82
眉毛 82
磁吸式 82
紅藍 82
肥皂盒 82
臀連 82
英文字 82
薩@@ 82
藍綠 82
號碼 82
蜂膠 82
蜥蜴 82
裙長 82
觸屏 82
輔食 82
通訊 82
部分 82
錫 82
降@@ 82
雙重 82
韓時 82
鮭魚 82
黑標 82
一卡通 81
一顆 81
企鵝@@ 81
保護@@ 81
保障 81
光滑 81
全膠 81
割破 81
區@@ 81
印表 81
參 81
喜宴 81
嗨 81
因 81
壽 81
大紅 81
安妮 81
完整版 81
客戶 81
射器 81
小雅 81
帶輪 81
懶@@ 81
戒子 81
拆卸 81
拉伸 81
挖土 81
排毒 81
推理 81
收口 81
救星 81
旅@@ 81
晶晶 81
本人 81
朵色 81
束@@ 81
梁@@ 81
機全 81
櫻花@@ 81
民俗 81
水手服 81
活塞 81
淋雨 81
溪 81
炎 81
特種 81
生成 81
病 81
發現 81
皮褲 81
目@@ 81
盲盒 81
直立 81
睡@@ 81
硬度 81
窗貼 81
竹制 81
素顏霜 81
美妝@@ 81
螞蟻 81
裝潮 81
證@@ 81
護身 81
超重低音 81
軍裝 81
輸入 81
辣@@ 81
運動包 81
金絲絨 81
鈔 81
銷 81
鋼鐵俠 81
鑲@@ 81
集合 81
零錢夾 81
靚@@ 81
題庫 81
騷 81
魅@@ 81
鯉 81
鹽@@ 81
一號 80
七成 80
三格 80
中老年人 80
五行 80
亨 80
任何 80
伸縮@@ 80
修補 80
傘車 80
儀表 80
克蘭詩 80
全配 80
兩年 80
具組 80
列架 80
包商 80
包屁 80
原理 80
各@@ 80
哥@@ 80
售@@ 80
四腳 80
回彈 80
圓餅 80
圖形 80
基地 80
外防 80
奕 80
女手 80
好玩 80
如何 80
威力 80
宿 80
寬松@@ 80
尋@@ 80
常@@ 80
度旋轉 80
廚@@ 80
廠@@ 80
微單 80
悟 80
戲機 80
手機座 80
手飾 80
投 80
拉松 80
拉繩 80
拐杖 80
撕拉 80
明治 80
晴天 80
有型 80
枝 80
柳@@ 80
桃心 80
植絨 80
每 80
氣壓 80
沙發凳 80
法鬥 80
湖 80
滾@@ 80
漏@@ 80
無聲 80
熊抱哥 80
番 80
發聲 80
的@@ 80
相宜 80
紙尿褲 80
经典 80
羅賓 80
美衣 80
脂 80
腿部 80
臥室掛 80
花王 80
英式 80
蒙 80
蒜泥 80
蛋白粉 80
裙洋裝 80
裙連 80
裤 80
褶 80
賠售 80
蹦迪 80
載@@ 80
辦@@ 80
運動型 80
配免 80
醫用 80
錢@@ 80
隱藏 80
雞蛋 80
難 80
電暖器 80
鞋厚底 80
韓版個 80
駕駛 80
騰 80
黑橘 80
鼠@@ 80
一口 79
一台 79
不到 79
中學生 79
乾爽 79
京都 79
來令片 79
俏 79
保健品 79
保貼 79
俠@@ 79
先詢 79
勾勾 79
原木色 79
反折 79
叔叔 79
可肩 79
史黛拉 79
噴瓶 79
壁挂 79
夾心餅 79
夾零錢 79
學生用 79
安德森 79
宏 79
寶寶鞋 79
幾桌 79
彩妝@@ 79
愛迪生 79
打結 79
拆裝 79
捷 79
搭衫 79
新鮮貨 79
日月 79
曲@@ 79
本命年 79
桂花 79
框畫 79
梨子 79
樺 79
機電動 79
氣氛 79
深灰色 79
深色 79
煎蛋 79
爆炸 79
珊 79
皺@@ 79
福音 79
粉藍 79
精粹 79
絲滑 79
美麗@@ 79
艙 79
芙@@ 79
芮 79
菊@@ 79
萃取 79
螺絲@@ 79
裝置 79
褶@@ 79
解 79
計畫 79
訓練@@ 79
講義 79
貴族 79
購證 79
超厚 79
軟邊 79
逆 79
鉗子 79
鏈子 79
鑽戒 79
門牌 79
電烤 79
霧@@ 79
高街 79
龍婆 79
ㄚ 78
不補 78
之戀 78
二版 78
五斗柜 78
京 78
亮光 78
代购 78
冰涼 78
劃 78
加送 78
勞@@ 78
味道 78
單雙 78
國畫 78
大耳狗 78
套套 78
奧利奧 78
女褲 78
寶寶學 78
尚品 78
幣 78
幸 78
幾電視柜 78
序號 78
引@@ 78
惡@@ 78
抗過敏 78
拔 78
捧 78
捷克 78
掃@@ 78
排線 78
收藏品 78
星月 78
晨 78
暗 78
曾 78
杰@@ 78
果果 78
條單 78
棋 78
棘輪 78
每包 78
氣炸鍋 78
水貂 78
沈@@ 78
泡水 78
海鮮 78
濾鏡 78
火星塞 78
為止 78
煎鍋 78
燈戶 78
璐 78
町 78
異@@ 78
異色 78
百搭鞋 78
破褲 78
祥 78
禮包 78
秋天 78
積木@@ 78
窗紗 78
糬 78
終@@ 78
絎 78
統 78
繃帶 78
罐子 78
老年 78
船@@ 78
荒野 78
莊@@ 78
袖連帽 78
規@@ 78
證書 78
貓罐 78
選物 78
酥油 78
醬料 78
防掉 78
電子琴 78
韓版學院 78
音波 78
飛行器 78
魚眼 78
鳳凰 78
龍泉 78
さ 77
三年 77
三點式 77
之戰 77
二用 77
五層 77
全彩 77
初代 77
劃痕 77
北歐輕 77
半盔 77
古銅色 77
哈倫 77
啊 77
固態 77
大出 77
如約 77
妙@@ 77
寶寶嬰 77
彩繪@@ 77
手圍 77
手机 77
探險 77
攪拌機 77
數字@@ 77
書套 77
校 77
桑 77
死神 77
油壺 77
浴簾 77
淺藍色 77
無損 77
爽 77
瑞克 77
環境 77
瓜 77
發夾 77
短外套 77
研 77
碟片 77
立體@@ 77
筆褲 77
範斯 77
紀念@@ 77
紐 77
網美 77
群@@ 77
聲波 77
職員 77
胸聚攏 77
舍 77
茶器 77
藻 77
裝套 77
謝謝 77
走@@ 77
越@@ 77
蹤 77
車系 77
車衣 77
軸承 77
這款 77
還有 77
采 77
野狼 77
金泰 77
開運@@ 77
陶 77
集線器 77
雪紡連 77
音頻 77
高腳椅 77
魚尾裙 77
麗嬰 77
黑格 77
あ 76
プ 76
一樣 76
三國 76
丸@@ 76
主打 76
乃 76
他命 76
信號 76
儲物罐 76
充電寶@@ 76
光盤 76
冷風機 76
划算 76
加熱@@ 76
卡車 76
呂@@ 76
單入 76
地利 76
地瓜 76
堂@@ 76
夜市 76
大床 76
大波浪 76
婚慶@@ 76
婚房 76
宣傳 76
專櫃@@ 76
小惡 76
小禮 76
尾戒 76
弓形 76
影印 76
御守 76
忍 76
感恩 76
手搖 76
折屏 76
探@@ 76
散熱器 76
整人 76
柯基 76
梅子 76
棕@@ 76
楔型 76
模仿 76
機動 76
正式 76
比利 76
水藍色 76
游戲機 76
満 76
牛筋 76
珪 76
畫筆 76
發店 76
百货 76
知@@ 76
硬盤 76
磨粉 76
筋 76
糖果盒 76
紅繩 76
絲質 76
網拍 76
緩 76
美妝蛋 76
美樂家 76
翠@@ 76
胖達 76
臭氧 76
芳@@ 76
萬國 76
蒙口 76
衝擊 76
調教 76
豎款 76
貂 76
貘 76
賓@@ 76
車款 76
辣味 76
迷你型 76
避邪 76
邊夾 76
醉 76
金包 76
金項 76
門票 76
陰@@ 76
顏霜 76
高質量 76
と 75
不必 75
不沾鍋 75
交流 75
以北 75
保潔 75
先鋒 75
光澤@@ 75
內頁 75
全電壓 75
包肩 75
十月 75
千 75
古代 75
古鐵藝 75
合家 75
吉塔 75
吸血鬼 75
哈雷 75
國王 75
場@@ 75
壓器 75
多媒體 75
天鵝@@ 75
夾長 75
媛 75
定時 75
專櫃代購 75
小刀 75
小牛 75
屈臣氏 75
工業級 75
床笠 75
底盤 75
心經 75
懷 75
戀愛 75
戒@@ 75
手機袋 75
手繩 75
扣子 75
招牌 75
推拿 75
施巴 75
旋@@ 75
易買 75
月號 75
杠 75
果醬 75
棉線 75
棒棒 75
橙色 75
櫥窗 75
櫻桃@@ 75
毛圈 75
氣質款 75
決 75
洋芋片 75
洽詢 75
海藻 75
準@@ 75
溫控 75
玉手 75
環保杯 75
男仕 75
疏水 75
百樂 75
盛@@ 75
知名 75
禮盒裝 75
移動@@ 75
紅木 75
純日版 75
網購 75
纖長 75
美樂蒂@@ 75
耳環@@ 75
胞胎 75
腹 75
膝蓋 75
荷@@ 75
菱 75
虧本 75
蜂@@ 75
行李袋 75
衣褲 75
褲大碼 75
西點 75
蹭 75
車模 75
遊戲機 75
銀河 75
除草 75
雙卡 75
霓淨思 75
青木 75
风 75
飛鏢 75
鯨魚 75
黑框 75
鼓@@ 75
鼻毛 75
齡 75
な 74
マ 74
三人位 74
三民 74
世紀 74
中央 74
亞的 74
仁@@ 74
今天 74
仙氣 74
佩戴 74
光感 74
兵器 74
冰袋 74
初中生 74
動物園 74
吊頂 74
吸吮 74
問 74
喬遷 74
固定器 74
壽@@ 74
夏秋 74
外觀 74
大豆 74
守護 74
專業級 74
尚個性 74
尚百搭@@ 74
局 74
居@@ 74
師款 74
延伸 74
忘 74
急 74
性時 74
應急 74
手拉車 74
抗敏 74
拉姆 74
摩卡 74
擴香 74
景觀 74
毛器 74
泳池 74
流星 74
海螺 74
燈罩 74
特效 74
獸@@ 74
癢 74
發帶 74
發熱 74
知道 74
短版@@ 74
碗盤 74
私 74
程 74
米其林 74
精華露 74
糖糖 74
組裝@@ 74
線上 74
織@@ 74
纏 74
美顏@@ 74
耐衝擊 74
耳飾品 74
職人 74
芸 74
茜茜 74
華倫天奴 74
蓋巾 74
藍綠色 74
覺醒 74
計時器 74
誘 74
課@@ 74
跳@@ 74
車材 74
輯 74
遮陽@@ 74
釘@@ 74
銀手 74
鋒@@ 74
鎚 74
鐵塔 74
鑚 74
隆@@ 74
隙 74
雜糧 74
電燈 74
霏 74
領針織 74
餡 74
鯨 74
龐克 74
し 73
る 73
三世 73
丹麥 73
之王 73
于 73
五金工具 73
京@@ 73
付@@ 73
仿皮 73
休閒時 73
佛堂 73
免稅 73
全景 73
六甲 73
前后 73
包子 73
包退 73
半月 73
半高領 73
卸妝油 73
唐 73
啟@@ 73
單人學生 73
坤 73
嬰幼 73
子表 73
存@@ 73
學步車 73
實木茶 73
專利@@ 73
小蠻 73
布藝沙 73
幾小戶 73
戲水 73
扁@@ 73
手作@@ 73
扭 73
技巧 73
投射 73
掛燙 73
搓澡 73
撞 73
收單 73
施@@ 73
日空版 73
書局 73
木桶 73
杏@@ 73
東元 73
板式 73
櫸 73
正反 73
歷@@ 73
水機 73
河馬 73
泵 73
漱口水 73
烊 73
玻璃罩 73
理療 73
瑪瑙@@ 73
男版 73
男襪 73
畫框 73
瘋@@ 73
碳@@ 73
碼表 73
程@@ 73
粉晶 73
糖盒 73
細帶 73
絞肉機 73
絲長 73
編著 73
繪圖 73
羽毛球拍 73
翻蓋式 73
聚@@ 73
肥@@ 73
臨時 73
荷葉袖 73
蚊子 73
蜻蜓 73
螢 73
裝夏裝 73
評價 73
軍靴 73
速幹 73
速食 73
運動款 73
遮陽鏡 73
釘珠 73
鍛 73
鐵牌 73
防寒保暖 73
防止 73
雪肌精 73
電棒 73
韓國飾品 73
頭櫃 73
頸椎 73
風百搭 73
首爾 73
鬥 73
魏@@ 73
黑豆 73
七色 72
來襲 72
保桿 72
傷 72
儲物凳 72
充電頭 72
兔女郎 72
八角 72
刷白 72
刷街 72
剋 72
前叉 72
加油 72
加絨@@ 72
半價 72
卸妝液 72
可攜式 72
呢大衣 72
品木 72
哲 72
單槽 72
大促 72
小姐姐 72
布書 72
愛馬仕@@ 72
慕絲 72
戰隊 72
戶@@ 72
户外 72
打卡 72
打折 72
扭結 72
捕夢網 72
故障 72
文玩 72
方法 72
早@@ 72
普利 72
月餅 72
東芝 72
機甲 72
機身 72
洗碗池 72
洽 72
浩@@ 72
热卖 72
煤氣 72
熱敷 72
燒水壺 72
現金 72
發財 72
盾牌 72
矮桌 72
祛 72
禰 72
簽字筆 72
精華乳 72
紅包 72
美觀 72
育@@ 72
腮 72
艾瑪 72
若@@ 72
萍 72
藝術品 72
蘋 72
蘭花 72
虛擬 72
街@@ 72
衝 72
西褲 72
計師 72
誠@@ 72
讀@@ 72
財 72
走秀 72
迪通 72
金石 72
開拓者 72
附背 72
雅漾 72
雕@@ 72
雙翹 72
非樂高 72
頭發 72
飛翔 72
鬥@@ 72
鳳梨@@ 72
鹿皮 72
鹿角 72
齊@@ 72
ᴇ 71
一流 71
中壢 71
人員 71
優盤 71
光動能 71
兩層 71
凝@@ 71
凸@@ 71
出水 71
勝利 71
包百搭 71
包鏈 71
北臉 71
卡哇伊 71
去死皮 71
單字 71
單靴 71
地理 71
垃圾筒 71
增加 71
媒體 71
嫩膚 71
定妝 71
容器 71
實驗室 71
小窩 71
小紅@@ 71
小美代購 71
小雨 71
床底 71
廣告牌 71
彙 71
彩燈 71
彰化 71
恆溫 71
手提箱 71
手燈 71
拆機 71
提手 71
擦拭 71
旱冰鞋 71
明子 71
暴力 71
未@@ 71
村@@ 71
杯架 71
板材 71
柑 71
極淨 71
極細 71
櫥柜 71
水星 71
水晶玻璃 71
水果刀 71
求 71
沐浴精 71
沙發巾 71
河 71
消毒器 71
漏斗 71
無印 71
無線鍵 71
無蓋 71
無限@@ 71
煥膚 71
燃脂 71
爬服 71
片式 71
狼@@ 71
獨 71
現貨速 71
理器 71
瑪瑙 71
璇 71
生技 71
畫架 71
疏油 71
禮袋 71
空心 71
童襪 71
粘貼 71
精雕 71
紀@@ 71
純銅@@ 71
緣子 71
繡花 71
考 71
聖物 71
胸口 71
腳踏 71
芙尼 71
菩薩 71
落地扇 71
藍底 71
蛇頭 71
蝦@@ 71
蟑螂 71
變焦 71
貓用 71
貨實 71
買到 71
足療 71
蹲 71
醫院 71
鈴木 71
鉻@@ 71
開刃 71
電鋸 71
面皮 71
響@@ 71
預@@ 71
預約 71
風水@@ 71
飛輪 71
騎@@ 71
骨瓷 71
黛@@ 71
一步 70
不能 70
中學 70
主人 70
令 70
佐@@ 70
佳麗 70
優惠起 70
內建 70
八音盒 70
助力 70
包款 70
包被 70
可裝 70
可配 70
喲 70
嘻 70
她 70
姑娘 70
字型 70
季節 70
密碼鎖 70
寢具 70
小氣 70
小腿 70
尖@@ 70
尚個 70
市 70
心動 70
感應燈 70
感謝 70
抓夾 70
拋@@ 70
按摩床 70
挺版 70
揚 70
文藝@@ 70
新穎 70
日文版 70
旺@@ 70
晚餐 70
梵@@ 70
殿 70
沙發罩 70
清理 70
減@@ 70
漏水 70
潘 70
碟子 70
禁 70
符袋 70
紗窗 70
練@@ 70
耀@@ 70
耐看 70
育 70
腳鞋 70
茶茶 70
著色 70
行車紀 70
許願 70
譯 70
象印 70
賽斯 70
軍刀 70
輔 70
錄音筆 70
防指紋 70
防過 70
阿贊@@ 70
雙邊 70
雙頻 70
雲端 70
雷根 70
電子鍋 70
震@@ 70
驅@@ 70
魷魚 70
黑勾 70
く 69
ジ 69
三口 69
上網 69
不斷 69
不暈染 69
主臥 69
久@@ 69
之城 69
亞絲娜 69
保鮮膜 69
優生 69
儲物@@ 69
先森 69
內裝 69
別@@ 69
包貓 69
十年 69
卓@@ 69
口徑 69
古懷舊 69
只為 69
司@@ 69
呵護 69
喜美 69
四軸飛 69
國際@@ 69
大風力 69
大黃蜂 69
天地 69
奔馳 69
女運動 69
姬@@ 69
嬌@@ 69
实木 69
小床 69
小資 69
層次 69
平輸 69
性愛 69
手飾品 69
扣腰 69
掛籃 69
擱板 69
斑@@ 69
新世紀 69
桌球 69
檢@@ 69
毒@@ 69
泳鏡 69
活性 69
浴桶 69
漂浮 69
無框 69
版衣 69
獨家實 69
玄@@ 69
現代北 69
現貨限時 69
生手 69
生日蛋糕 69
由 69
甲醛 69
發凳 69
盤組 69
真集 69
研究所 69
碧兒泉 69
禾聯 69
窯 69
箭頭 69
範 69
粘土 69
絲器 69
緣@@ 69
翻玩 69
聚合物 69
聰明 69
肛塞 69
背板 69
脫色 69
腹@@ 69
臂力 69
色紙 69
茵 69
莫代爾@@ 69
華麗@@ 69
葛@@ 69
蓮@@ 69
藕 69
蛋蛋 69
褲腰 69
說明 69
購物網 69
超優惠 69
跟@@ 69
轉運@@ 69
追加 69
運直 69
郵@@ 69
金士頓 69
針織@@ 69
防曬帽 69
電焊 69
電視機 69
露營燈 69
鞋鞋 69
顯瘦長 69
風尚 69
餐墊 69
三合 68
三針 68
上色 68
中小型 68
乳酸菌 68
介面 68
供@@ 68
保溼 68
充電座 68
光圈 68
全車 68
全車系 68
兩條 68
八分 68
冬款 68
凍膜 68
刺@@ 68
加深 68
加溫 68
動感 68
包機 68
厄文 68
可重 68
吳 68
吸力 68
單款 68
固齒器 68
堵漏 68
大廳 68
大馬標 68
天窗 68
天鵝 68
姜@@ 68
媚比琳 68
實木腿 68
寶石@@ 68
專案 68
導入 68
小兔子 68
小圓@@ 68
尚單 68
屋頂 68
座充 68
康乃馨 68
成貓 68
指示牌 68
捨 68
掛牌 68
推荐 68
文法 68
日劇 68
晶手 68
更@@ 68
最好 68
有氧 68
木地板 68
木瓜 68
松百搭 68
桔梗 68
森友會 68
檀木 68
毒液 68
沉@@ 68
油污 68
淇 68
淋浴房 68
淑 68
清爽型 68
湯勺 68
漂白 68
灯 68
無刷 68
煮茶 68
玳瑁 68
理想 68
瘦腿 68
發棒 68
睡美人 68
短項 68
祛斑 68
移動式 68
移門 68
競技 68
篩 68
精品屋 68
綠光 68
美工刀 68
老佛爺 68
耶誕 68
自動傘 68
舊機 68
蒸鍋 68
藍黑 68
褲裝 68
記事 68
賴 68
走失 68
跆拳道 68
身洋裝 68
輕小說 68
辭典 68
遠射 68
選購 68
里@@ 68
鉗@@ 68
銘 68
銘@@ 68
鏈式 68
限宅配 68
陰莖 68
離子夾 68
霸@@ 68
頂上 68
風時 68
飄@@ 68
高幫鞋 68
高景觀 68
魚油 68
き 67
亮眼 67
人字 67
修護@@ 67
充氣@@ 67
凉鞋 67
出游 67
初級 67
加州 67
包雙 67
叢林 67
吉利 67
咪@@ 67
噸 67
國潮 67
壹號 67
夏普 67
外露 67
夜場 67
套頭衫 67
女装 67
妹@@ 67
寶寶床 67
專業代購 67
尚可 67
尚大氣 67
巴洛克 67
幫浦 67
房燈 67
抱抱 67
拿@@ 67
摩斯 67
擦拭布 67
改色 67
數據 67
新一代 67
木梳 67
杰 67
棉套 67
棉短 67
民 67
水電 67
治@@ 67
注水 67
泰迪@@ 67
浮 67
涂 67
涉水 67
淑@@ 67
濕機 67
物柜 67
牽繩 67
獅@@ 67
男寶寶 67
瘦瘦 67
百搭板 67
盧@@ 67
眉粉 67
紅色@@ 67
美勞 67
腿@@ 67
臂章 67
航 67
芯絨 67
花子 67
花梨木 67
莓 67
虎牌 67
謎 67
謝 67
貼式 67
資源 67
超短 67
輸線 67
銳@@ 67
閃充 67
除濕機 67
雙槽 67
雨傘架 67
雲台 67
電熱水壺 67
露露 67
骨頭 67
魔物 67
黑皮 67
黛西 67
點綴 67
龍珠 67
こ 66
上身 66
乳清 66
今年 66
伯 66
保濕霜 66
偏@@ 66
側開 66
偽娘 66
僅試 66
內含 66
公椅 66
冷光 66
刀叉 66
前列腺 66
勞保 66
北倉 66
南極 66
博物 66
卡納 66
及@@ 66
單曲 66
嘟嘟 66
夾棉 66
女仆 66
奶爸 66
孟@@ 66
宣@@ 66
寬松大碼 66
小咪代購 66
小獅王 66
平日 66
庫里 66
形狀 66
恒@@ 66
愛麗絲夢遊 66
打氣筒 66
拼皮 66
支入 66
新郎 66
旅充 66
日夜 66
明亮 66
暴龍 66
桌學生 66
條機 66
樓@@ 66
止癢 66
永恆 66
海星 66
清晰 66
滿月 66
濾杯 66
濾紙 66
濾芯 66
火速 66
無章 66
無葉 66
玩水 66
瑪莉 66
發圈 66
盈@@ 66
硬式 66
祖@@ 66
神偷 66
秘書 66
管褲 66
紡衫 66
紫光 66
絹 66
繁殖 66
缺貨 66
翻頁 66
脆 66
腕帶 66
臉巾 66
艦娘 66
色卡 66
芝加哥 66
蒲公英 66
蒲團 66
蕭@@ 66
蘿莉 66
處@@ 66
蜜餞 66
衛衣@@ 66
衝鋒 66
裕 66
裝褲 66
西藏 66
覺 66
足弓 66
跨@@ 66
車庫 66
辛@@ 66
追@@ 66
透氣輕 66
遊戲@@ 66
邊條 66
釉@@ 66
錫@@ 66
鑽頭 66
铺 66
開式 66
附小 66
陰陽師 66
階 66
雄@@ 66
雙顯 66
鞋學生 66
鞋時 66
鞍 66
音源 66
風暴 66
風鏡 66
香辣 66
高中生 66
鹿晗 66
麥飯 66
鼎@@ 66
う 65
一份 65
一洗 65
來圖 65
偉@@ 65
儲@@ 65
全盔 65
兩雙 65
凡@@ 65
剝 65
古箏 65
可旋轉 65
右@@ 65
吊繩 65
向@@ 65
單邊 65
培@@ 65
塑形 65
境 65
外運動 65
大屏 65
大降價 65
太空棉 65
夾包 65
娛樂 65
官@@ 65
寬度 65
專營 65
尊 65
小鞋 65
嵌入式 65
帝國 65
幫板 65
幾邊 65
循環扇 65
恤潮 65
戰國 65
抽抽 65
抽插 65
指套 65
換季 65
擦@@ 65
收納凳 65
教@@ 65
新茶 65
旋風 65
晚禮 65
會員 65
朝 65
束腳褲 65
桌學習 65
桌寫 65
樹枝 65
比例 65
沃@@ 65
沙金 65
液筆 65
淘 65
渦輪 65
湖人 65
源氏 65
漂@@ 65
潮包 65
炭治郎 65
烈 65
煥 65
爆乳 65
玄 65
率性 65
生平 65
生產 65
生百搭 65
發熱衣 65
白鐵@@ 65
百貨@@ 65
知 65
磨砂玻璃 65
福字 65
種植 65
空盒 65
端 65
筆芯 65
簡約現 65
紫晶 65
維尼熊 65
网红 65
置物籃 65
耀司 65
耳扣 65
背後@@ 65
胡椒 65
胸部 65
脈 65
脫毛膏 65
腳踏@@ 65
臉機 65
與@@ 65
艷@@ 65
茶色 65
草寫 65
蓋板 65
衛星 65
褲運動 65
訓練服 65
設@@ 65
超彈力 65
銅材質 65
錢幣 65
防護欄 65
雪紡長 65
風口 65
骰子 65
體感 65
高亮 65
高空 65
魚皮 65
み 64
り 64
下垂 64
乳房 64
亭 64
介紹 64
仕@@ 64
仰 64
修訂 64
先價 64
免運特價 64
全職 64
全金屬 64
全銅@@ 64
包拉鏈 64
午夜 64
半指 64
名家 64
啃 64
單桿 64
噴壺 64
圣 64
圣@@ 64
在家 64
地獄 64
塑封 64
夹 64
夾克@@ 64
女寶@@ 64
妖精 64
娃@@ 64
子代 64
宅@@ 64
小晴 64
小紅帽 64
小羊 64
市價 64
建議 64
彌月禮 64
形象 64
得利 64
念珠 64
急救 64
情緒 64
憤怒 64
握 64
方式 64
時空 64
晏 64
晚霜 64
晨@@ 64
晴@@ 64
有限公司 64
束帶 64
柔順 64
柱@@ 64
核 64
桃色 64
案 64
桌辦 64
森女 64
款手 64
毯@@ 64
民國 64
氣泡 64
水氧機 64
汀 64
汪 64
沙龍 64
河@@ 64
無極 64
熱賣@@ 64
牛軋 64
玉鐲 64
現代時 64
瑞拉 64
生書 64
畫集 64
痕@@ 64
省電 64
石榴石 64
磁吸@@ 64
秘@@ 64
範思 64
簪 64
精華霜 64
細菌 64
統@@ 64
經絡 64
網襪 64
老公 64
職場 64
股東會 64
腳踝 64
苹果 64
茗 64
莊 64
葉黃素 64
蒼蠅 64
虹 64
規劃 64
計劃 64
設定 64
請@@ 64
護照夾 64
變身 64
谷@@ 64
豎 64
超彈 64
足部 64
輝@@ 64
辛普森 64
迪卡儂 64
追 64
遮光罩 64
邁@@ 64
金蔥 64
銳 64
鋼板 64
錄@@ 64
錄影 64
門鈴 64
開心 64
開花 64
閒百搭 64
閒長 64
防刮@@ 64
防塵塞 64
防晒 64
防曬服 64
防曬衫 64
附蓋 64
陸@@ 64
集市 64
雙折 64
露趾 64
領衛衣 64
風學生 64
香氣 64
高田賢 64
鴻@@ 64
黃金 64
黑桃 64
か 63
ら 63
二家 63
五合一 63
井 63
修護霜 63
僅此 63
內徑 63
八代 63
冰晶 63
南非 63
卸甲 63
原生 63
双@@ 63
只@@ 63
哈登 63
噠 63
均碼 63
夏目 63
头 63
女防 63
威化 63
宝宝 63
寫字板 63
專車 63
小方桌 63
帆 63
帳號 63
床組 63
思考 63
攤 63
放心 63
方舟 63
日行 63
書況 63
最新版 63
有聲 63
束身 63
樂金 63
機頭 63
歐風格 63
此款 63
汽車頭 63
法蘭 63
清潔液 63
潔牙 63
潤色 63
澆花 63
瀏海 63
熙 63
燕 63
獨@@ 63
獨顯 63
玄關櫃 63
瑩 63
男夾 63
眼袋 63
瞬@@ 63
禪 63
穩定器 63
簡約個 63
米果 63
組合小戶 63
繁花 63
腿毛 63
莓果 63
裝休 63
襬 63
襯@@ 63
試衣鏡 63
調色 63
貳 63
超火@@ 63
軟質 63
輻射 63
進化 63
遮陽防 63
配套 63
重生 63
金融 63
鑽飾 63
防側 63
阿瑪尼@@ 63
雀巢 63
雙圈 63
韓代購 63
韓風@@ 63
香型 63
魚夾 63
ナ 62
ミ 62
三聯 62
二館 62
五入 62
五谷 62
住 62
依依 62
側肩包 62
冰霸杯 62
切肉 62
包達人 62
口交 62
名產 62
向上 62
吳亦凡 62
咪咪 62
商務短 62
喜字 62
單位 62
噗 62
國產 62
套子 62
套裝組 62
好奇 62
妮@@ 62
宏碁 62
富士山 62
實惠 62
寬邊 62
小王子 62
小甜甜 62
小香@@ 62
尚款 62
屌 62
展@@ 62
層板 62
州 62
帝王 62
帶門 62
建筑 62
弘@@ 62
彭@@ 62
微彈 62
快手 62
戰場 62
扇@@ 62
手賬 62
扭力 62
搭褲 62
摩 62
擁有 62
改變 62
旅遊@@ 62
昌 62
昕 62
最愛@@ 62
朝@@ 62
束腳 62
杠@@ 62
杯套 62
格力 62
桂格 62
業@@ 62
水漾 62
派@@ 62
湯米 62
溫和@@ 62
滑梯 62
炭 62
烤@@ 62
煎餅 62
熬夜 62
狀況 62
玫@@ 62
瑤瑤 62
環耳釘 62
男裝@@ 62
白鋼 62
百搭短 62
眼唇 62
知識 62
祥@@ 62
禮品袋 62
空氣濾 62
窗簾布 62
立體聲 62
簡約長 62
精巧 62
紙機 62
絨長 62
維納斯 62
罩衣 62
翅 62
聯合 62
聲卡 62
胡須 62
腰身 62
膠套 62
茶包 62
蔓 62
藍色@@ 62
藝術@@ 62
裝時 62
裸靴 62
褲顯 62
西洋 62
護套 62
賠本 62
車頂 62
逆齡 62
運動帽 62
鋒 62
鋰電 62
鏈長 62
附原廠 62
雙輪 62
領子 62
頭型 62
頭衛衣 62
龜@@ 62
ち 61
ツ 61
フ 61
ム 61
三孔 61
三段 61
三部曲 61
井@@ 61
代買 61
低溫 61
俏麗 61
保護蓋 61
僅@@ 61
元祖 61
充電傳 61
內衣褲 61
冰棒 61
刀頭 61
加持 61
卻 61
去屑 61
可擦 61
司機 61
名鞋 61
品名 61
啟蒙 61
單手 61
四星 61
困振興 61
圓柱 61
垂直 61
多拉 61
多格 61
大富 61
夾皮夾 61
奇美 61
奢侈 61
奶器 61
完@@ 61
寒@@ 61
寶劍 61
專櫃款 61
山羊皮 61
帽檐 61
得標 61
感小眾 61
戴爾 61
扎@@ 61
折疊沙 61
拓@@ 61
挖@@ 61
描述 61
提醒 61
攝像機 61
整體 61
新書 61
旻 61
木桌 61
未開 61
本色 61
柔霧 61
栗子 61
案板 61
椅辦 61
極潤 61
槳 61
標語 61
歡樂@@ 61
毛絨@@ 61
氛 61
洋甘菊 61
海水 61
消除 61
溼 61
漂 61
潛水@@ 61
澳@@ 61
激 61
父親 61
狐仙 61
猛男 61
猴@@ 61
獵@@ 61
玧 61
珠寶盒 61
球型 61
男段 61
疲勞 61
登場 61
矽 61
禪@@ 61
私房 61
穴 61
空氣@@ 61
筆套 61
精神 61
純色@@ 61
美型 61
老婆 61
耳釘@@ 61
股 61
腰果 61
自學 61
芬迪@@ 61
菜盤 61
華泰 61
蒟 61
蒻 61
蓬松 61
薩波 61
藤蔓 61
衝鋒衣 61
被罩 61
觸摸 61
赫@@ 61
超柔軟 61
軟墊 61
迷宮 61
送客 61
道路 61
郵局 61
量@@ 61
金銀 61
銀魂 61
開岔 61
開幕 61
防脹氣 61
隔熱@@ 61
雄獅 61
雙子 61
雙語 61
霾 61
青花瓷 61
面盤 61
騰@@ 61
高點 61
三月 60
上下床 60
下訂 60
世一 60
中藥材 60
主義 60
之光 60
五款 60
人工 60
伏 60
伯奇 60
伶 60
優格 60
克洛伊 60
全掌 60
公尺 60
凸 60
創見 60
勵志 60
喜慶 60
噴水 60
固定架 60
圓形@@ 60
土豪 60
婦裝 60
孩童 60
宜興 60
宮廷風 60
小傑 60
少@@ 60
岩@@ 60
帶蓋@@ 60
平台 60
幻 60
床頭@@ 60
店家 60
式@@ 60
影集 60
性感女 60
戀愛@@ 60
批發@@ 60
抓絨 60
拖布 60
招@@ 60
指甲刀 60
掀式 60
推出 60
搭手 60
收納掛 60
是否 60
會區 60
會計學 60
月份 60
服套 60
柴 60
桃紅@@ 60
條碼 60
機械式 60
每個 60
洗護 60
潤澤 60
瀏海夾 60
灰綠 60
焊@@ 60
燙@@ 60
牛奶糖 60
特價品 60
男純 60
留@@ 60
盜@@ 60
目錄 60
破損 60
章@@ 60
童學習 60
筆電@@ 60
糖霜 60
紅底 60
網衣 60
纸 60
纹 60
美膚 60
荷葉@@ 60
菊花茶 60
菩提 60
蒸煮 60
血壓 60
裁 60
裝連 60
訂@@ 60
評@@ 60
調速 60
象@@ 60
負 60
超模 60
超聲波 60
車可 60
車殼 60
車罩 60
軟體 60
邂逅 60
部屋 60
酷咕 60
野犬 60
金卡 60
金字 60
針管 60
針織衣 60
銀樓 60
鍍@@ 60
門簾@@ 60
開叉@@ 60
闇 60
防黴 60
阿迪達 60
香檳 60
高枝 60
高雄@@ 60
魚網 60
鳥巢 60
鶴@@ 60
點煙器 60
鼻@@ 60
三生 59
之夜 59
九成 59
五彩 59
人格 59
伍@@ 59
作坊 59
修正 59
倍@@ 59
假日 59
健走 59
光彩 59
分裝盒 59
剩@@ 59
原聲 59
可愛兒 59
合購 59
吉斯 59
咬咬 59
員工 59
啫喱 59
單包 59
土城 59
圣羅蘭 59
塗@@ 59
壓線 59
外送 59
外野 59
大卡 59
天氣 59
太子 59
好品質 59
姆斯 59
它 59
安安 59
实惠 59
客制 59
宣紙 59
宿@@ 59
小書 59
小海 59
小象 59
小鎮 59
小零錢 59
屏東 59
帶線 59
年會 59
延時 59
影視 59
性百搭 59
恆@@ 59
手搖@@ 59
技嘉 59
抗震 59
折叠 59
折扣店 59
拉線 59
排水管 59
探照 59
接受 59
損@@ 59
搬 59
撕@@ 59
效果器 59
文具用品 59
日歷 59
星際 59
普考 59
晶亮 59
梵 59
樂譜 59
標志 59
橢圓@@ 59
母包 59
毫米 59
活性炭 59
洽談椅 59
浪@@ 59
海綿寶寶 59
消音 59
清風 59
湖@@ 59
满 59
潤澤@@ 59
瀝 59
火器 59
火腿 59
灰粉 59
炸鍋 59
無痛 59
燈北 59
燈架 59
燕窩 59
物美 59
猫 59
玫紅 59
皇室 59
皙 59
皮克斯 59
監 59
研@@ 59
碗櫃 59
碳化 59
範@@ 59
籠袖 59
編鞋 59
繡@@ 59
翻蓋@@ 59
肚 59
肚皮舞 59
花語 59
茶罐 59
莊園 59
葉邊 59
衣掛 59
裝水 59
襯衫@@ 59
警車 59
足底 59
趴姿 59
踏步 59
踏車 59
軌 59
軍迷 59
週@@ 59
野炊 59
金銀@@ 59
銀項 59
鏡架 59
鐲@@ 59
鑽手 59
門墊 59
阿迪達斯@@ 59
陪 59
階段 59
電競椅 59
電話機 59
韓潮 59
鮮花 59
三腳 58
主場 58
之國 58
乙@@ 58
仰臥 58
低音 58
佳佳 58
光亮 58
免運價格 58
免運免 58
六一 58
其@@ 58
務@@ 58
千鳥 58
印泥 58
即可 58
吃@@ 58
合頁 58
吊柜 58
命@@ 58
唇@@ 58
單床 58
堆堆 58
夢境 58
大中小 58
大創 58
女中長 58
實戰籃 58
寬松長 58
專科 58
小館 58
岩 58
布貼 58
床套 58
庭@@ 58
廁所衛 58
懶人椅 58
手拿@@ 58
手禮 58
手繪@@ 58
按鈕 58
挑選 58
掛簾 58
擋@@ 58
斷電 58
有趣 58
栓 58
桌小戶 58
桌游 58
棚 58
椰@@ 58
樂享 58
機充 58
機手 58
款休 58
正確 58
武 58
毛領 58
水精 58
沛 58
浴帽 58
液壓 58
潛水服 58
澄@@ 58
炸@@ 58
爆價 58
爽@@ 58
男內褲 58
皂模 58
皮繩 58
盒況 58
直式 58
眼鏡@@ 58
破盤 58
礦石 58
祐 58
端午 58
節慶 58
籃球服 58
米桶 58
粘膠 58
紙巾架 58
綢緞 58
罩子 58
耀 58
而@@ 58
聲音 58
肌密 58
腰凳 58
腰椎 58
芭@@ 58
茶寵 58
茶花 58
蒼蘭 58
薏仁 58
蛋糕盒 58
訂制 58
誇張 58
護色 58
豬八革 58
費雪 58
贈潤 58
赫 58
趴@@ 58
身長 58
車鎖 58
近新 58
通風 58
銀白 58
銀飾品 58
鐵鍋 58
防火 58
陰 58
階@@ 58
雅芳 58
零嘴 58
電纜 58
霧化 58
顯白 58
風罩 58
高約 58
黑邊 58
七個 57
串燈 57
乞丐 57
人造花 57
代售 57
任@@ 57
併 57
保護鏡 57
傑克 57
傷@@ 57
價錢 57
光影 57
兒童床 57
全手工 57
全鋼 57
冷熱@@ 57
勒 57
化妝棉 57
北面 57
半圓 57
博世 57
可愛創意 57
可脫 57
台燈 57
咖色 57
噹噹 57
四個 57
圣誕 57
地方 57
壁鐘 57
大海 57
大白 57
大紅色 57
好康 57
婆婆 57
婚禮@@ 57
嫁 57
嬌 57
安撫巾 57
小書柜 57
小蒼蘭 57
尤@@ 57
尼康 57
巡 57
巢 57
店主 57
廁紙 57
彈簧@@ 57
彩屏 57
從@@ 57
微距 57
微軟 57
微風 57
懶熊 57
戽 57
房水 57
拾 57
振@@ 57
揉捏 57
擴展 57
收納置 57
放大器 57
文件袋 57
斗櫃 57
新多益 57
日禮物 57
暴@@ 57
曼秀雷敦 57
有品 57
桌巾 57
桌旗 57
桌書桌 57
橙子 57
死亡 57
比熊 57
泰迪狗 57
洛洛 57
渣 57
溶 57
滅@@ 57
澎湖 57
炮@@ 57
爪@@ 57
牛油果 57
現在 57
电@@ 57
當日 57
百搭個 57
直售 57
直角 57
相簿 57
睡褲 57
砂鍋 57
磨豆機 57
稱耳環 57
第三版 57
細條 57
緩衝 57
置物袋 57
脂肪 57
脫毛 57
自售 57
自產 57
致@@ 57
花式 57
花花世界 57
茶葉罐 57
莫代爾純 57
蒂手 57
蔥 57
蛇皮 57
蝦米 57
補水儀 57
裸睡 57
裸粉 57
褲學生 57
褲小腳 57
資@@ 57
走心 57
超聲 57
踏墊 57
農 57
追逐 57
逆@@ 57
速溶 57
過濾@@ 57
遠紅 57
邊幾 57
酒具 57
金光 57
針線 57
鐘客 57
鑄鐵 57
鑽石@@ 57
阁 57
防腐 57
附盒 57
附紙袋 57
陰道 57
階梯 57
隨性 57
雜@@ 57
雨天 57
電波 57
靜音@@ 57
革命 57
韩国 57
須 57
頭長 57
餅乾鞋 57
馳@@ 57
高校 57
魯 57
ô 56
个性 56
之水 56
仕女 56
代戰 56
仿實 56
休閒套 56
兩張 56
功@@ 56
化妝凳 56
半自動 56
厚實 56
原石 56
号 56
呢子 56
喝茶 56
單賣 56
噴墨 56
嚼 56
四格 56
國內 56
女僕 56
威利 56
嬰兒@@ 56
宇航 56
安琪 56
寇馳 56
寵物貓 56
專場 56
小碼 56
小精靈 56
幫休 56
彥 56
怎麼 56
愛尚 56
感情 56
手縫 56
打擊 56
折疊傘 56
拔@@ 56
拚 56
拜 56
挎側 56
提包 56
搭衣 56
新奇 56
日誌 56
明書 56
晚 56
期@@ 56
木框 56
末 56
杯水 56
杯袋 56
欄桿 56
民@@ 56
氣息 56
水光 56
水分 56
水鑽@@ 56
波斯 56
洛杉磯 56
海爾 56
海軍@@ 56
清透 56
溝通 56
滑鞋 56
炎@@ 56
無塵 56
熱門款 56
燕@@ 56
片入 56
特價款 56
特產@@ 56
獎勵 56
瓢蟲 56
甜品店 56
男青年 56
睿 56
石手 56
禁@@ 56
穴位 56
第一本 56
筒式 56
箭 56
純正 56
紙自 56
縮腰 56
繼電器 56
續航 56
组合 56
缺@@ 56
美人@@ 56
臉器 56
華夫 56
葡萄牙 56
薩爾達 56
蜜妮 56
表白 56
袖圓領 56
装饰 56
褲純 56
親節 56
識別證 56
超實用 56
辣媽 56
進門口 56
遮陽簾 56
鈞 56
鑽石畫 56
隨心 56
隱@@ 56
隱扣 56
隱藏版 56
雛菊@@ 56
雨棚 56
雪肌粹 56
額 56
風雲會 56
食譜 56
馨@@ 56
駱駝 56
高效能 56
麥克 56
齒@@ 56
ま 55
不怕 55
丨 55
主持 55
乳酪 55
事務 55
二入 55
交 55
人床 55
人間 55
代工 55
仿真植物 55
伏@@ 55
低敏 55
余@@ 55
佬 55
俊@@ 55
保管箱 55
倒@@ 55
免郵 55
入耳 55
六層 55
共用 55
凱莉 55
分售 55
制冰 55
前燈 55
反斗 55
可超商 55
台版 55
吉普 55
和田玉 55
品茗 55
商鋪 55
啞 55
啟 55
嘴唇 55
四面 55
國度 55
土司 55
在@@ 55
地機 55
壳 55
夏裝@@ 55
多孔 55
夢幻@@ 55
大勾 55
女氣質 55
女涼鞋 55
學生書 55
宥 55
實木兒 55
專營店 55
小艾代購 55
左手 55
巨大 55
市@@ 55
希望 55
希臘 55
帽潮 55
弓@@ 55
微米 55
愛你 55
愛着 55
懶人桌 55
懸掛式 55
戰車 55
手握 55
手杖 55
打坐 55
打氣 55
打蠟 55
扮演 55
拉夫 55
搜尋 55
攀爬 55
收納盤 55
政@@ 55
施 55
旗@@ 55
松石 55
松顯 55
桌電腦 55
棠 55
歐膩 55
武術 55
汽座 55
油壓 55
油管 55
泰拳 55
洛麗塔 55
浮世 55
溫暖 55
滅蚊燈 55
滋@@ 55
漁網 55
潮女 55
焊 55
熱賣熱 55
燈串 55
球花 55
生長 55
畫家貓 55
發音 55
百搭高 55
皮紋 55
石磨 55
石膏 55
矽膠模 55
碟盤 55
科克 55
積@@ 55
米格 55
粉霜 55
糖色 55
納智捷 55
線控 55
線香 55
耳機套 55
腦 55
色款 55
花落 55
菇 55
葵 55
藥盒 55
蛋卷 55
螺母 55
試衣間 55
課程 55
調理機 55
講@@ 55
貞 55
質長 55
車家 55
軟硬 55
連衣 55
酵母 55
量杯 55
鈔票 55
銼 55
錯 55
鎖匙 55
鎮@@ 55
鏈女 55
閃電@@ 55
防直 55
雙桿 55
電子@@ 55
青蘋果 55
面巾 55
面粉 55
韓國襪 55
音效 55
領襯 55
餅乾@@ 55
高畫質 55
高筒靴 55
齋 55
つ 54
一下 54
一手 54
一點 54
三能 54
丟@@ 54
中信 54
中島 54
久坐 54
二胡 54
五指 54
企劃 54
作文 54
傘桶 54
傘裙 54
全蓋 54
創新 54
升級款 54
半框 54
卡夢@@ 54
卡式 54
吉祥物 54
吊掛 54
哭 54
善@@ 54
單間 54
噴射 54
垂@@ 54
垮 54
塵@@ 54
墊板 54
多特 54
多益 54
大媽代購 54
大氣@@ 54
天伯倫 54
天才 54
奇異 54
女純 54
奶酪 54
婚@@ 54
婚紗@@ 54
字鞋 54
宜居 54
宿風 54
實穿 54
寶可夢@@ 54
專拍 54
對決 54
小家 54
小椅子 54
尚長 54
崎 54
巧連智 54
平紋 54
彩貼 54
影子 54
快餐 54
怪@@ 54
慈 54
房屋 54
手部 54
拜@@ 54
掛包 54
掛脖@@ 54
揚@@ 54
擴大機 54
收納櫃子 54
新光 54
明太子 54
明燈 54
星期五 54
時器 54
會計 54
月底 54
杯蓋 54
棉質長 54
樁 54
樣式 54
橫 54
水培 54
水盆 54
海神 54
淨水 54
溜 54
滑車 54
潮帽 54
灌籃 54
無色 54
熟@@ 54
燕子 54
球包 54
球池 54
球迷 54
環女 54
留 54
發酵 54
白瓷 54
真書 54
真絲@@ 54
真言 54
短柄 54
矮@@ 54
石墨 54
石耳環 54
磨破 54
禮卷 54
移除 54
種顏色 54
童寶寶 54
筆鞋 54
簡易書 54
米亞@@ 54
紅外 54
紡洋裝 54
網紅時 54
红 54
缺 54
耐高 54
腰圍 54
膝@@ 54
膝上 54
臨 54
自訂款 54
至尊 54
芬@@ 54
花花公子 54
莉莉 54
萬種 54
蒼@@ 54
蟒蛇 54
行事 54
衝@@ 54
袖連身 54
裝下 54
褲架 54
解構 54
請先 54
諾基亞 54
變色龍 54
貞@@ 54
貨源 54
赤 54
透气 54
進場 54
酒壺 54
金線 54
鋸片 54
鑽項 54
閔 54
防敏 54
阻力 54
阿爾法 54
附腰 54
隔水 54
靚 54
非凡 54
音質 54
頭像 54
頭板 54
风@@ 54
食材 54
魔豆 54
黎@@ 54
黑黃 54
鼎 54
一眼 53
乳油 53
二重 53
亮粉 53
令片 53
休閒涼 53
保鮮袋 53
俱@@ 53
健美 53
價值 53
光明 53
內附 53
典藏版 53
内衣 53
凝乳 53
出貨實 53
初戀 53
劍橋 53
加碼 53
包頭層 53
各一 53
呆 53
哥哥 53
單身 53
四檔 53
圓桶 53
地磚 53
垂感 53
堿 53
塑膠@@ 53
外休 53
外掛 53
夜用 53
大悲咒 53
好運 53
姊妹 53
婭 53
寬口徑 53
小倉 53
尼克 53
帶帽 53
念 53
恢 53
托里 53
抓皺 53
指示 53
挑@@ 53
掛脖 53
文件柜 53
斷貨 53
普普熊 53
晶石 53
最後@@ 53
木花 53
果實 53
格格 53
棉圓 53
棉柔 53
棒壘 53
橄欖@@ 53
機罩 53
歷屆 53
水水 53
永遠 53
沐@@ 53
洗刷 53
洲 53
灸 53
煙斗 53
爬蟲 53
爸 53
獎品 53
現代門 53
琳@@ 53
疤痕 53
皇帝 53
短洋 53
矮柜 53
碎@@ 53
碎冰 53
神像 53
福神 53
穎 53
童年 53
筒@@ 53
精露 53
紅光 53
紙架 53
絕美 53
絨毛@@ 53
緊實 53
翻轉 53
耳圈 53
脊椎 53
臘 53
苗@@ 53
裔 53
詹姆士 53
警@@ 53
貓籠 53
貓頭 53
貝印 53
賀@@ 53
超合金 53
超商取 53
超音波 53
車子 53
辣妹 53
迎@@ 53
退換 53
這個 53
達摩 53
適穿 53
還 53
邱 53
銀鏈 53
鍋架 53
鍛造 53
防潮箱 53
附代購 53
除濕 53
隨身@@ 53
雜貨館 53
靈魂 53
鞋坊 53
顯臉 53
飄帶 53
騎士@@ 53
骨架 53
高亮度 53
高腳杯 53
鴨子 53
お 52
た 52
ダ 52
一千 52
三段式 52
中級 52
中華@@ 52
之子 52
事@@ 52
云南 52
人字梯 52
今@@ 52
佛經 52
偉 52
優雅氣質 52
內陽 52
全素 52
兩用@@ 52
公車 52
凱莉包 52
刀鋒 52
前線 52
剪紙 52
割 52
包含 52
匯@@ 52
卡龍色 52
友人 52
另類 52
可加購 52
同志 52
員@@ 52
商務腕 52
喝 52
因@@ 52
固 52
圓弧 52
圓環@@ 52
團隊 52
基德 52
塑料袋 52
塗層 52
增長 52
壓模 52
外傳 52
大嘴 52
大禮包 52
大陸 52
天平 52
套房 52
妮可 52
姜 52
威剛 52
媽媽@@ 52
宅急 52
小宜 52
小毛 52
小白兔 52
小葉 52
帶腕 52
幾乎 52
座套 52
彩條 52
影版 52
得出 52
愛瑪仕 52
成本 52
扁平 52
折扇 52
抽拉式 52
挖掘 52
掀蓋式 52
擴香石 52
攝影@@ 52
斬 52
新婚 52
旋轉@@ 52
易化 52
曬@@ 52
木門 52
東京@@ 52
條桌 52
櫥@@ 52
歐客 52
此@@ 52
比特 52
泥板 52
注音 52
泰式 52
洋娃娃 52
洗腳 52
活動價 52
海豹 52
港式 52
牙線 52
牛蒡 52
特潤 52
球形 52
球紋 52
環形 52
生化 52
由@@ 52
盔甲 52
短板 52
短裤 52
石材 52
矽膠@@ 52
碗公 52
禮帽 52
符管 52
紅心 52
網線 52
置物箱 52
美日 52
老公公 52
職 52
肚兜 52
育兒 52
胭脂 52
脆片 52
腦@@ 52
臥@@ 52
芙蓉 52
芝@@ 52
莉卡 52
菱格@@ 52
落地窗 52
蕾絲@@ 52
衣夾 52
補給 52
裝盒 52
覆蓋 52
觸感 52
計時碼 52
調味盒 52
談@@ 52
講 52
購價 52
起來 52
超導 52
超細@@ 52
超進化 52
跟包 52
輪滑鞋 52
进口 52
運動衫 52
遞 52
配戴 52
針織洋裝 52
門窗 52
閱 52
除甲醛 52
陶瓷餐具 52
雙扣 52
雪白 52
青瓷 52
頓@@ 52
顯卡 52
風潮 52
馨馨 52
驚@@ 52
马@@ 52
鯽 52
麻料 52
黑手 52
黑芝麻 52
點心盤 52
丁丁 51
三門 51
伐木 51
休閒帽 51
休閒款 51
似 51
保險套 51
偶 51
優先 51
優惠下 51
光澤 51
全國 51
公雞 51
六款 51
冬夏 51
冰桶 51
列車 51
利器 51
刮板 51
加濕 51
千年 51
千璽 51
卵磷脂 51
口服 51
古龍 51
可加 51
可戴 51
史黛拉兔 51
吊帶連 51
含稅價 51
呢子大衣 51
咨詢 51
唇膜 51
唯 51
單門 51
四分 51
四川 51
四種 51
夢夢 51
大幅 51
女夏外 51
女巫 51
如果 51
妝品 51
字典 51
寒 51
實拍圖 51
小孩子 51
崔@@ 51
布洛克 51
帶護 51
幾臥室 51
延@@ 51
感應@@ 51
手動@@ 51
拋光機 51
捕魚 51
掛壁 51
搖鈴 51
播 51
操 51
攝影棚 51
攻@@ 51
散粉 51
新房 51
旅人 51
早安 51
春聯 51
時報 51
書簽 51
服裝@@ 51
期間 51
杓 51
松本 51
果盤 51
架免 51
柒 51
染發劑 51
格子裙 51
桌臥室 51
橄欖油 51
機型 51
機專用 51
款時 51
氈@@ 51
洋洋 51
流線 51
淋浴器 51
清除 51
減震@@ 51
溫奶器 51
炫彩@@ 51
無臉 51
燦烈 51
特定 51
獅王 51
珍妮 51
甩@@ 51
甲蟲 51
當包 51
發價 51
白面 51
盜 51
真空袋 51
矯正帶 51
碼牌 51
磁磚 51
票卡夾 51
票夾 51
禎 51
私藏 51
第四代 51
筆機 51
籐 51
米亞風 51
約定 51
紋理 51
紐@@ 51
純露 51
素顏 51
紫檀 51
組合套 51
編碼 51
耐吉運動 51
聽力 51
胎壓 51
胡 51
莎莉 51
菠蘿@@ 51
菲董 51
蔓@@ 51
蔣@@ 51
讀卡機 51
貓爪 51
貓爬架 51
貝爾 51
超彈性 51
跳台 51
速乾@@ 51
連接線 51
道士 51
酰胺 51
量販 51
金字塔 51
金鋼 51
金飾 51
銀灰 51
鋼頭 51
錯過 51
鎏金 51
鏈款 51
鑷子 51
钱包 51
防濺 51
防腐木 51
雀 51
離式 51
電流 51
電量 51
鞋籃 51
頭部 51
香皂盒 51
騷@@ 51
黑管 51
ウ 50
バ 50
三刀 50
不分售 50
不敗款 50
中字 50
之前 50
乳頭 50
二輪 50
代收 50
伍 50
休閒服 50
伴侶 50
俗 50
保濕乳 50
保羅@@ 50
健行 50
傳動 50
元起 50
充氣泵 50
全書 50
再@@ 50
創業 50
包圍 50
包金 50
半簾 50
半高 50
即@@ 50
古小 50
君子 50
哈特 50
啤酒杯 50
回家 50
園林 50
培 50
基礎款 50
報紙 50
塑型 50
塑膠袋 50
多樣 50
大花 50
大蒜 50
大門 50
大飛 50
天珠 50
好友 50
孕期 50
孝@@ 50
寶貝球 50
尊@@ 50
對戒 50
小圓包 50
小男孩 50
小鬼 50
尚腕 50
工作坊 50
席@@ 50
干燥 50
年款 50
底部 50
引體 50
想@@ 50
感器 50
懸浮 50
戰鬥@@ 50
戴森 50
手環@@ 50
打孔器 50
托腹 50
承 50
抓板 50
折疊車 50
描金 50
插排 50
擰 50
攜折疊 50
放松 50
效率 50
教科 50
旺角 50
書畫 50
會社 50
本土 50
枕護 50
格拉 50
格斗 50
梗 50
棉被套 50
橄欖 50
步車 50
殭 50
民眾代購 50
水粉 50
求@@ 50
油桶 50
泰國代購 50
浮力 50
港@@ 50
漫步 50
灰塵 50
灰橘 50
無暇 50
熱墊 50
燈客 50
燈箱 50
父親節 50
牛乳 50
現貨當 50
瓜@@ 50
男帽 50
男潮牌 50
畫家 50
病@@ 50
發墊 50
發片 50
發繩 50
百搭學 50
百搭皮 50
皮件 50
皮藝 50
真實 50
真正 50
知性 50
砂紙 50
破壁 50
硯 50
碁 50
窗型 50
第二季 50
精華油 50
純銀飾品 50
紗布巾 50
統計學 50
絲邊 50
綁@@ 50
美肌@@ 50
聚光 50
職棒 50
舒敏 50
英倫時 50
董@@ 50
薦 50
藍風鈴 50
行動充 50
護外 50
買十送 50
車廂 50
軟裝 50
迷霧 50
遮蓋 50
邏輯 50
酒紅@@ 50
酪 50
針織連 50
鍍金@@ 50
鍍鉻 50
鐵絲 50
門檻 50
阿財 50
隊長 50
雙裝 50
離乳 50
電腦鍵 50
霖 50
霸氣貓 50
青山 50
飛龍 50
飲食 50
香體 50
鳴 50
鶴 50
黑色素 50
黨 50
鼠尾草 50
ᴀ 49
ャ 49
三步 49
下水管 49
不二 49
中間 49
伯賢 49
俐落 49
億 49
全可 49
兩瓶 49
凌志 49
出租屋 49
分袖 49
刮痕 49
力推 49
包套 49
包學生 49
卷邊 49
口臭 49
可伸 49
合體 49
名匠 49
后背 49
吸塵 49
吸收 49
咒 49
單桿式 49
單機身 49
四葉 49
圓片 49
土除 49
執事 49
培林 49
壯@@ 49
大前 49
太平洋 49
夯 49
奔 49
字樣 49
安室 49
宗 49
寫作 49
寶銀樓 49
小吊飾 49
小紅書 49
小蘇 49
小邊 49
小飾品 49
尼泊爾 49
差 49
平頭 49
廷 49
強光手 49
微光 49
手槍 49
手游 49
手镯 49
扣帶 49
扭蛋機 49
批@@ 49
投資 49
拐角 49
挑嘴 49
掀@@ 49
摆件 49
撥 49
收據 49
收納夾 49
新世界 49
日系風 49
明天 49
時尚腕 49
暈染 49
會客 49
木材 49
材@@ 49
染料 49
桂@@ 49
桌邊 49
梳妝凳 49
椅休 49
歐美日 49
永不 49
油封 49
流明 49
滴水 49
滿分 49
漢娜 49
瀅 49
灣現貨 49
熱款 49
燈頭 49
物件 49
獨一無二 49
理線器 49
琺瑯@@ 49
瑪利歐 49
環保購 49
生機 49
皮蓬 49
知名品牌 49
神獸 49
空蕾絲 49
空頂 49
筆組 49
糯米 49
綠蘿@@ 49
線材 49
緩解 49
羊奶 49
翰林 49
聲道 49
肉片 49
胸背 49
自家 49
舉 49
芭比娃娃 49
萌寵 49
葉片 49
蘿@@ 49
衣長 49
袖防 49
裝大碼 49
褐色 49
襯衫洋裝 49
親子款 49
訓 49
誕節 49
調味瓶 49
豬年 49
貓抓板 49
貨附 49
買五送 49
貼標 49
蹦蹦 49
軌@@ 49
軟式 49
軟膜 49
輕型 49
轎車 49
農村 49
逢甲 49
適合@@ 49
銀字 49
鍵@@ 49
镂空 49
閒手 49
防污 49
阿波 49
附收納袋 49
除毛 49
雙入 49
雙碟 49
雪紡紗 49
零件盒 49
面試 49
鞋器 49
鞋袋 49
韓版兒 49
領卷 49
頭花 49
頻震動 49
顯微鏡 49
香榭 49
驗 49
魅 49
魔神 49
鯰魚 49
鯽魚 49
α 48
๑ 48
一中 48
一秒 48
之旅 48
九尾狐 48
代購@@ 48
伊士 48
佐 48
便器 48
便鞋 48
做舊 48
儲米箱 48
光控 48
光源 48
光采 48
兒童節 48
全自動@@ 48
兩側 48
冪 48
冬瓜 48
冰絲涼席 48
到期 48
前衛 48
加水 48
勇@@ 48
包帶 48
包腳 48
博文 48
反向 48
受損 48
叢書 48
可旋 48
后備 48
單杠 48
回憶 48
圆领 48
圓頂 48
堵塞 48
塔羅牌 48
壹字 48
壹腳 48
壼 48
外帶 48
大米 48
天幕 48
奐 48
套管 48
媽咪@@ 48
家居用品 48
宸 48
容@@ 48
富發牌 48
小書包 48
小桃 48
小馬標 48
屍 48
帶頭 48
年貨 48
幽@@ 48
志光 48
悠悠 48
惡靈 48
感應式 48
慈@@ 48
慕斯@@ 48
持續 48
指考 48
振動 48
摔手 48
摩天 48
播種 48
攜碼 48
散步 48
斑馬紋 48
斯凱奇 48
新機 48
曦 48
柏林 48
校@@ 48
核@@ 48
樑 48
檢定 48
歐美款 48
歐美潮 48
歐美熱賣 48
歐美風格 48
毒 48
水乳 48
汗衣 48
沙发 48
波蘭 48
洗顏 48
活口 48
淺粉 48
湯瑪士 48
溝 48
滋 48
潔牙骨 48
火線 48
炒@@ 48
燈殼 48
燈長 48
燦@@ 48
牡蠣 48
獨特@@ 48
珍珠白 48
生寫 48
產婦 48
男孩子 48
白霜 48
直柄 48
相本 48
眼線液 48
眾多 48
短篇 48
祖馬龍 48
秦@@ 48
穩 48
穿著 48
精靈@@ 48
糧@@ 48
終局 48
結束 48
絕緣 48
網帽 48
網紅化 48
織布 48
翔@@ 48
翻蓋單 48
耐熱@@ 48
聖經 48
肌因 48
肩頸 48
脆@@ 48
腮紅刷 48
腹部 48
菌@@ 48
蘇菲亞 48
補習 48
解答 48
計步 48
訓@@ 48
貿@@ 48
超透氣 48
車手 48
車掛 48
轉印 48
连衣裙 48
追劇 48
這裡 48
運動裝 48
遙控@@ 48
選宅配 48
郁@@ 48
配合 48
釣箱 48
鉅 48
銷量 48
鍋寶 48
防靜 48
防靜電 48
附掛 48
雙鏡頭 48
電源適 48
震動@@ 48
面機 48
鞦 48
頰 48
香水瓶 48
鷹@@ 48
鹿頭 48
黑灰@@ 48
➋ 47
チ 47
七星 47
三天 47
不再 47
不議價 47
串@@ 47
乒乓球 47
交易 47
亦 47
享優 47
仔店 47
伴郎 47
伸縮桿 47
保鮮@@ 47
傾@@ 47
優選@@ 47
充液 47
兜@@ 47
公民 47
冰裂 47
出生 47
切割器 47
切面 47
削皮 47
劉海@@ 47
动漫 47
包裝紙 47
北方 47
卡文 47
古長 47
古龍水 47
含發票 47
哈密瓜 47
商務時 47
地攤 47
外盒 47
外蓋 47
失@@ 47
夾女 47
妻 47
威德 47
娘娘 47
容易 47
對杯 47
小尺 47
小拉車 47
小桌 47
小臉 47
小醜 47
小鏡子 47
巾@@ 47
度度 47
廁 47
彭于 47
影碟 47
掃地機 47
控車 47
握力 47
搏擊 47
搖擺@@ 47
搗 47
擬真 47
收款 47
新北 47
方程式 47
普洱 47
查@@ 47
柳丁 47
格林 47
格紋@@ 47
格雷 47
桶裝 47
棉繩 47
楓@@ 47
樂華 47
機櫃 47
權@@ 47
歐小戶 47
殺人鯨 47
母嬰 47
比亞 47
水靴 47
泊泉雅 47
洞@@ 47
消 47
滋味 47
灑@@ 47
烏拉圭 47
熒 47
牡丹花 47
牧場 47
現折 47
理發店 47
生潮 47
甦 47
用布 47
白起 47
盒免 47
真心 47
眼睫毛 47
磨砂膏 47
禦寒 47
窺 47
立柱 47
米粉 47
粉盒 47
粘鉤 47
紀錄 47
紅標 47
紅線 47
紋洋裝 47
結實 47
經營 47
編包 47
耐重 47
耳釘耳環 47
肌底 47
自身 47
色粉 47
花蜜 47
薄被 47
藍白條 47
蜜袋 47
裕@@ 47
解憂 47
該 47
貓裝 47
路燈 47
車套 47
車間 47
軍綠@@ 47
透氣速 47
速效 47
道祖 47
金粉 47
銀離子 47
銷款 47
鋼珠 47
鑄鐵鍋 47
鑫@@ 47
門后 47
閉@@ 47
防蚊@@ 47
阻@@ 47
阿拉丁 47
阿泰 47
陀 47
隔音棉 47
隼 47
雀斑 47
雙線 47
電競@@ 47
霧燈 47
非新書 47
韓版純 47
韓范 47
韻@@ 47
領蕾絲 47
頭繩 47
飯廳 47
餅機 47
馆 47
高透 47
髦 47
鬥惡龍 47
ʀ 46
ω 46
は 46
ィ 46
一字夾 46
三采 46
丹寧@@ 46
主板 46
亞版 46
休閒手 46
來福 46
便@@ 46
保羅喬治 46
光觸 46
全智賢 46
全框 46
全真 46
六代 46
刨冰 46
剃毛器 46
創意北 46
勞保鞋 46
勞倫 46
勢 46
包小 46
包錢夾 46
卡樂 46
卸妝棉 46
原盒 46
古奇@@ 46
古百搭 46
可愛學生 46
可收納 46
可立 46
台塑 46
售樓 46
善 46
單板 46
圓領長 46
圖樣 46
坐凳 46
坐式 46
垂墜式 46
塞斯 46
填色 46
墨西哥 46
外衣 46
套防 46
女夏裝 46
妖@@ 46
嬰@@ 46
安全鞋 46
宋 46
宗@@ 46
實木鐵藝 46
寬版@@ 46
寶典 46
寶寶輔 46
封膜 46
射擊 46
小楷 46
小電風 46
小黃 46
尚街 46
尼斯 46
尼龍布 46
年終 46
幼福 46
度旋 46
廟 46
建 46
彌勒佛 46
彤 46
彩蛋 46
得意 46
徠 46
悍將 46
悠 46
愛彼 46
戰機 46
打字 46
抗氧化 46
抗老 46
拉杆箱 46
拜拜 46
拭 46
拳 46
挂件 46
採@@ 46
換裝 46
擴@@ 46
擴香瓶 46
放碗 46
文青@@ 46
斜掛 46
方盒 46
春酒 46
暖宮 46
朗@@ 46
未開刃 46
松下 46
果凍@@ 46
果香 46
桌筆 46
棉片 46
極簡@@ 46
歌手 46
歌曲 46
正規 46
正面 46
死角 46
段變 46
治療 46
洗手池 46
洗面 46
派克 46
浮動 46
淨膚 46
滲透 46
漸變色 46
濾器 46
炭@@ 46
焊工 46
煥白 46
煮粥 46
玉墜 46
玫紅色 46
玻璃球 46
球褲 46
瑋 46
環球代購 46
瓶罐 46
男寶寶@@ 46
白星 46
白雪 46
百摺裙 46
盈 46
眾 46
矽@@ 46
碼鎖 46
磨刀石 46
礎 46
神龍 46
秋褲 46
究極 46
童裝@@ 46
第一代 46
第三方 46
簡約款 46
米缸 46
紗網 46
統一 46
綉 46
經典馬車 46
美胸 46
美金 46
老花眼 46
肝 46
背式 46
舒眠 46
艷 46
芭蕾舞 46
莜 46
莜代購 46
葉罐 46
葡萄柚 46
薯 46
藍灰 46
衣車 46
褲束 46
言@@ 46
訂婚 46
計步器 46
訊號 46
誠可議 46
象牙白 46
財經 46
賓 46
贊 46
車騎行 46
輔料 46
輕質 46
轉運珠 46
迷你版 46
透卡 46
進氣 46
部隊 46
醫 46
重覆 46
金框 46
銀耳環 46
鋼鐵 46
鍋蓋架 46
长袖 46
附送 46
際 46
隨身鏡 46
雅痞 46
雅風 46
雙層@@ 46
韓星 46
韓系@@ 46
領無袖 46
頸鏈 46
飄逸 46
飯碗 46
飾板 46
餃包 46
魚口 46
鳴@@ 46
ニ 45
一壺 45
一字@@ 45
一拖二 45
三本 45
中華職 45
之一 45
九陽 45
亮麗 45
人民 45
休閒衛衣 45
促 45
保濕水 45
信紙 45
修眉刀 45
偷@@ 45
優優 45
充充 45
克萊 45
免手 45
內袋 45
公益 45
六段 45
切切 45
勺@@ 45
包卡包 45
危機 45
原住民 45
原始 45
可訂 45
合集 45
吊式 45
吹風 45
告知 45
告示牌 45
啡 45
喂 45
器械 45
噴火龍 45
四人 45
四版 45
四門 45
四驅 45
壘 45
外拍 45
外星人 45
大疆 45
大賣場 45
夾吸 45
夾頭 45
奢侈品 45
女戒 45
女薄款 45
小擺件 45
小老鼠 45
屑 45
布防 45
常 45
廂 45
廣 45
影響 45
往 45
後背 45
懸@@ 45
懸疑 45
打氣機 45
打蛋 45
技@@ 45
抗痘 45
按@@ 45
搖床 45
搖搖馬 45
搶@@ 45
撥@@ 45
擁抱 45
據 45
故宮 45
文昌 45
新莊 45
方凳 45
旭@@ 45
昌@@ 45
星期 45
晚會 45
木偶 45
木子 45
杵 45
枕頭護 45
桑拿 45
構造 45
樸 45
橙花 45
橡樹 45
殿堂 45
氛圍 45
水印 45
活露 45
液器 45
清潔組 45
溫泉泳裝 45
滋潤型 45
漂流 45
漆面 45
漏勺 45
演@@ 45
灑 45
火影 45
炸彈 45
爺 45
瑪麗 45
璽 45
甄 45
甄@@ 45
畫沙發 45
瘦百搭 45
百搭氣質 45
監聽 45
真金 45
矢 45
矮櫃 45
秸稈 45
移@@ 45
空濾 45
窗花 45
粒面 45
紅寶石 45
紗巾 45
結緣 45
絞@@ 45
絲印 45
絲綢@@ 45
緊急 45
红@@ 45
肩長 45
肯@@ 45
胸圍 45
腹帶 45
腿短 45
膠筆 45
自信 45
自我 45
花鞋 45
苦@@ 45
茶漏 45
萊恩 45
蓓@@ 45
藍海 45
蝶@@ 45
蟻 45
襠 45
襯衫長 45
貼飾 45
超仙@@ 45
超贊 45
距離 45
車兒 45
軍訓 45
輕柔 45
輪圈 45
轉轉 45
農家 45
追求 45
通過 45
連結 45
週年慶 45
運車 45
重要 45
重訓 45
鉤針 45
长裤 45
門貼 45
開放式 45
陣 45
陣@@ 45
隊服 45
雙人沙 45
雪紡洋裝 45
靜電@@ 45
韆 45
韓童裝 45
順豐 45
風筒 45
餐櫃 45
騎士隊 45
驚奇 45
高碳 45
魔獸 45
魔芋 45
鴕鳥 45
麒麟 45
黑豹 45
テ 44
三四 44
三條線 44
丟 44
乐 44
乾淨 44
乾衣機 44
人像 44
修枝剪 44
倒掛 44
偏遠 44
停@@ 44
健腹輪 44
儲物袋 44
光色 44
兒子 44
入門@@ 44
全華 44
八哥 44
八字 44
冰墊 44
刀座 44
剁 44
創造 44
力克 44
功 44
加藤 44
包男包 44
化石 44
北歐布 44
博古架 44
占卜 44
卡子 44
卡紙 44
卷發 44
卸妝@@ 44
受 44
古玩 44
只能 44
可接 44
各類 44
合輯 44
吉米 44
命運 44
圖騰@@ 44
團體服 44
城邦 44
大紅@@ 44
太宰 44
女香 44
安耐曬 44
宣 44
寄件 44
寥寥 44
寵愛 44
小不點 44
小吊燈 44
崎@@ 44
嶺 44
川崎 44
已售 44
布羅利 44
年前 44
廚房@@ 44
彩盒 44
德曼 44
性福 44
愛用 44
扣皮 44
技師 44
折短 44
指偶 44
掌機 44
接收 44
提籠 44
擱 44
收購 44
教學@@ 44
敬@@ 44
昆蟲 44
晨光 44
最終 44
月球 44
杉 44
李寧 44
株 44
桌北 44
桌燈 44
棉毛 44
機打 44
檜木 44
氬 44
永恆@@ 44
污 44
沁@@ 44
沿@@ 44
泰亨 44
洛克 44
淘@@ 44
混紡 44
湘@@ 44
準安裝 44
漂移 44
瀨@@ 44
灬 44
燭台 44
特技 44
狂野 44
狐@@ 44
王頂 44
現代辦 44
現貨代購 44
現貨馬 44
甜筒 44
產地 44
男寶 44
發射 44
發展 44
發電機 44
百寶箱 44
百香果 44
皮沙發 44
盒損 44
破裂 44
硬挺 44
租 44
穿越 44
窗器 44
立即 44
競標 44
第六 44
简易 44
紅綠 44
紅蘿 44
紫紅 44
結綁 44
綠葉 44
羅馬@@ 44
美縫 44
耀西 44
背殼 44
芮@@ 44
花型 44
花店 44
花環 44
茶托 44
茹 44
菠蘿 44
菲律賓 44
萃@@ 44
蕃茄 44
藍粉 44
藕色 44
藥局 44
蝕 44
表面 44
裝運動 44
褲闊 44
襯衣@@ 44
襯裙 44
親愛的 44
詠 44
誘@@ 44
豎條 44
軟性 44
輩 44
輪框 44
轉接環 44
送潤 44
透白 44
運免 44
達芙妮 44
遮臉 44
酮 44
鈦晶 44
鋼手 44
鐘表掛 44
鑿 44
閃光@@ 44
閃閃 44
限制 44
雙色@@ 44
難@@ 44
露得清 44
韓國時 44
韓洋裝 44
頌 44
領純 44
領連 44
頭枕 44
頭鷹 44
風茶 44
飛科 44
餐碗 44
高硬度 44
高顏值 44
鬼冢虎 44
黑紅@@ 44
默@@ 44
に 43
三版 43
专柜 43
主演 43
之作 43
五金配件 43
交通工具 43
代訂 43
企管 43
佳品 43
俏@@ 43
保濕化妝水 43
保鮮蓋 43
修補@@ 43
健腹器 43
兒代購 43
全包@@ 43
全家福 43
兩盒 43
公交 43
凹槽 43
切菜板 43
刺猬 43
割@@ 43
劇@@ 43
匠心 43
卡布 43
卡盒 43
原著 43
口氣 43
古曼 43
可側 43
可觸 43
吹雪 43
品樂家 43
商務長 43
喬治 43
噴霧機 43
國小 43
國際代購 43
圓珠筆 43
圖畫 43
坦@@ 43
埠 43
境內 43
增大 43
外罩 43
大亂鬥 43
大圖 43
大學用 43
大盒 43
大號@@ 43
天藍 43
天貓 43
女段 43
好評 43
子板 43
孕@@ 43
完結 43
導軌 43
小球 43
小美樂 43
尖嘴 43
尚好 43
居室 43
已訂 43
巴寶利 43
帕 43
彼@@ 43
微積分 43
快樂購 43
急@@ 43
想想 43
戒圍 43
手搖鈴 43
手足 43
拓 43
持 43
排油 43
排隊 43
推子 43
搖搖杯 43
攜戶 43
改夾 43
改裝車 43
斜立 43
旅程 43
旭 43
昱 43
晨曦 43
暢@@ 43
最美 43
望遠鏡 43
木木 43
桔 43
梳妝@@ 43
棉內 43
樂高@@ 43
機杯 43
機種 43
歡樂購 43
死侍 43
殘疾人 43
殻 43
水潤@@ 43
水陸 43
油光 43
注@@ 43
泰國帶 43
滴油 43
滿月禮 43
漁輪 43
瀝水@@ 43
熱品 43
熱水壺 43
燃 43
爬梯 43
爽身粉 43
球星 43
甯 43
男時 43
畢@@ 43
發條 43
發水 43
盒組 43
直筒長 43
相關 43
砂輪機 43
砍 43
硬頁 43
礼物 43
神牛 43
稀少 43
穩固 43
童防 43
笑@@ 43
笑笑 43
第@@ 43
第二件 43
簡歐 43
系類 43
紅款 43
紅花 43
純銀耳針 43
細肩帶 43
結合 43
絨床 43
絨衛衣 43
綑 43
總裁 43
繆繆 43
缽 43
美工 43
美日韓 43
美樂 43
美規 43
羽球拍 43
翠 43
腸@@ 43
臣 43
自帶線 43
艦 43
芝 43
英倫休 43
葡眾 43
蒜蓉 43
蓋碗 43
蘆洲 43
螺@@ 43
裝純 43
褲褲 43
視窗 43
親親 43
計款 43
評 43
調溫 43
護片 43
護理@@ 43
豎版 43
貓抓 43
貝恩 43
財神爺 43
貨出 43
貴人 43
超能 43
跨單 43
路飛 43
車型 43
車窗 43
軟膏 43
較 43
运动鞋 43
退@@ 43
逃 43
道家 43
醬油 43
量子 43
金沙 43
金錢 43
錘子 43
鏈包 43
鏡櫃 43
閣樓 43
防風衣 43
電子式 43
電視@@ 43
電車 43
霜淇淋 43
露臍 43
鞋系 43
頂燈 43
領內 43
頭手 43
飛天 43
驗貨 43
高鐵 43
黑線 43
黑褲 43
ノ 42
一百 42
七代 42
三節 42
下載 42
不正 42
不見 42
不退 42
中藥 42
串飾 42
之花 42
二人 42
亮度 42
人頭 42
佛前 42
你@@ 42
保溫@@ 42
價出 42
充電盒 42
全長 42
公共 42
公式 42
冰絲席 42
冰藍 42
冷風扇 42
凜 42
凹 42
功放 42
包小學生 42
南方 42
卷紙 42
去@@ 42
可愛風 42
可掛式 42
可樂@@ 42
名畫 42
呀 42
哈哈 42
嘉年華 42
噴泉 42
嚴 42
圓角 42
地縛 42
堅固 42
境內版 42
多層次 42
多邊 42
大學熊 42
奇異果 42
奏 42
女真 42
婉@@ 42
學會 42
定頻 42
客房 42
實木書 42
實木沙 42
專供 42
尤加利 42
工字 42
巴寶莉@@ 42
市區 42
師傅 42
帶露 42
帶麥 42
座便器 42
廁@@ 42
廳陽 42
很仙 42
得偉 42
御用 42
想要 42
感光 42
感溫 42
慕之恬 42
懒人 42
懷@@ 42
扒 42
扶手箱 42
拉杆 42
拍板 42
掛旗 42
改良版 42
救@@ 42
敲 42
旅館 42
无@@ 42
映 42
時尚店 42
書本式 42
替代 42
有間 42
木器 42
朴@@ 42
果凍底 42
棉短褲 42
椅陽 42
楓葉 42
檜 42
歐風@@ 42
正牌 42
歷 42
氣質@@ 42
氣質長 42
水凝膜 42
水筆 42
水貨 42
水質 42
沙龍級 42
沿帽 42
流行色 42
涵@@ 42
淩 42
混水 42
溫妮 42
滋潤@@ 42
漩 42
濃郁 42
為@@ 42
無邊 42
熱情 42
燈北歐 42
燙機 42
爛 42
版洋裝 42
特价 42
王牌 42
環手 42
甘草 42
用人 42
男香 42
異性 42
疊傘 42
白爛貓 42
白藍紅 42
皮草 42
皿 42
盡 42
盤格 42
目前 42
直上 42
直供 42
省錢 42
短途 42
石鹼 42
碰 42
礦物質 42
空軍@@ 42
突@@ 42
童帽 42
競 42
競技@@ 42
竹席 42
竿@@ 42
策略 42
篆刻 42
粉底霜 42
紋針 42
紳 42
網紅椅 42
羊毛衫 42
耳線 42
肩部 42
背側 42
胺 42
膜@@ 42
舞鞋 42
花木 42
英字 42
莎莎 42
莫 42
萬畫素 42
葵@@ 42
蒸蛋 42
蕩 42
藍光@@ 42
藍條 42
虛@@ 42
袖扣 42
裝學生 42
西雅圖 42
親子@@ 42
解剖 42
解壓 42
訂金 42
試香 42
誕@@ 42
調酒 42
證套 42
豆漿機 42
豹@@ 42
貢@@ 42
賢@@ 42
軍規 42
軟裝飾品 42
轉角@@ 42
造@@ 42
連帽衫 42
逸@@ 42
運送 42
遠流 42
邁克 42
邪 42
鄧@@ 42
配備 42
酷酷 42
釀 42
重點 42
金品 42
鈔票夾 42
鉤子 42
銀彈 42
鎬 42
鐵道 42
鑄鐵@@ 42
长@@ 42
閃耀@@ 42
閉式 42
防磨 42
除垢 42
雙面@@ 42
雪寶 42
雪松 42
電炸鍋 42
電腦標 42
電阻 42
面鏡 42
鞋館 42
韓國個 42
韓妞@@ 42
音符 42
須@@ 42
頭紗 42
頸掛 42
顧客 42
風女 42
風箏 42
飛碟 42
飯圍 42
飲水 42
養殖 42
高保濕 42
高統 42
高蛋白 42
鬱 42
黑卡 42
鼯 42
エ 41
三盒 41
三聯畫 41
三越 41
不良 41
中原 41
中青年 41
乾果 41
五南 41
亮彩 41
代客 41
休閒館 41
佩奇 41
便携 41
假一 41
側面 41
傻瓜 41
免运 41
共三色 41
冰機 41
冰激凌 41
出货 41
削皮刀 41
加絨長 41
包小號 41
半包 41
卡爾 41
发 41
古單 41
古堡 41
古銅@@ 41
只是 41
可愛便 41
可折疊@@ 41
可當@@ 41
可視 41
含運費 41
咖啡因 41
哲學 41
單冷 41
單圈 41
器皿 41
圓鏡 41
壁柜 41
多人 41
夜跑 41
大卷 41
大廠 41
大腳 41
大魚 41
大麥 41
夾片 41
奇諾 41
妝包 41
嫣兒 41
存放 41
家樂福 41
實價 41
實圖 41
小太陽 41
小户型 41
小野 41
小铺 41
尚外 41
尿盆 41
山羊 41
左旋 41
巴寶莉手 41
市面 41
床褥 41
廢@@ 41
彌 41
忍@@ 41
忠@@ 41
恭喜 41
愛購 41
成形 41
手電 41
折刀 41
拳套 41
提鍋 41
插線 41
撒@@ 41
整圖 41
新式 41
新車 41
方扣 41
暢 41
木家具 41
木質@@ 41
本草 41
板間 41
柔滑 41
柔美 41
格鬥 41
桃粉 41
桑蠶絲 41
梳妝桌 41
棉紗布 41
椰子油 41
楓晴 41
樂趣 41
模塊 41
樣@@ 41
機用 41
欧美 41
歐巴 41
死@@ 41
毛茸茸 41
汽車載 41
沉 41
沙盤 41
油墨 41
油脂 41
洗浴 41
海尼根 41
涼墊 41
湖南 41
準 41
滴@@ 41
潮時 41
澡盆 41
炕桌 41
烘烤 41
熱推 41
熱銷@@ 41
牆體 41
牛牛 41
狄@@ 41
獵 41
玩樂 41
玩物 41
玫瑰色 41
珈 41
球架 41
球袋 41
瑞獅 41
生醫 41
產業 41
疾風傳 41
發燒 41
發財包 41
白皙 41
白菜 41
白領 41
百達 41
盘 41
盤鼠標 41
眠 41
砂輪 41
磨機 41
神燈 41
禁止 41
禮物袋 41
移 41
穗 41
空拍機 41
空調毯 41
童衣 41
竹編 41
筆架 41
簡約書 41
紋手 41
紡車 41
紫米 41
紫藤 41
絕色 41
繁 41
羅馬鞋 41
美特 41
耶 41
聖衣 41
聚宝 41
職員椅 41
肖楠 41
胸肌 41
胸貼 41
腰長 41
腰間 41
臭@@ 41
舒爽 41
航模 41
色長 41
艾莉絲 41
芝士 41
花仙子 41
花枝 41
苑 41
范倫鐵諾 41
蔡小葵 41
薏米 41
藍寶堅尼 41
藥材 41
虎皮 41
處方 41
蛋殼 41
裁切 41
裙裝 41
裡@@ 41
裸裝 41
褲套裝 41
西柚 41
見@@ 41
調味品 41
護目鏡 41
豐田@@ 41
貝拉 41
買三送 41
車輕 41
迪奥 41
通通 41
速霸陸 41
運動護 41
遮雨 41
邁 41
還原 41
酒桶 41
鋼印 41
鏡女 41
鐺 41
鑽尾 41
閃爍 41
開機 41
防溢 41
防窺 41
阿迪 41
阿里山 41
雪兒 41
韋@@ 41
風洋裝 41
養成 41
餐袋 41
鴿子 41
麗莎 41
龍婆@@ 41
ハ 40
一入 40
一對裝 40
不過敏 40
世界杯 40
丙級 40
二手店 40
五期 40
享受 40
人人 40
仿實木 40
伊伊代購 40
伊萊 40
佳美 40
修邊 40
停車牌 40
健身器 40
億人小鋪 40
儲值 40
充電風 40
光臨 40
免卡 40
內飾品 40
全專 40
公館 40
冷壓 40
几 40
凱迪 40
剃頭 40
剪標 40
創意掛 40
加速 40
勳 40
包化妝包 40
化妝舞會 40
十三 40
半掌氣 40
单@@ 40
卡登 40
印第安 40
厨房 40
叉@@ 40
古帽 40
古眼鏡 40
可能 40
可選擇 40
台中@@ 40
吊架 40
咕咕 40
哥倫比亞 40
單機 40
嘴夾 40
嚴選@@ 40
回來 40
回頭 40
因為 40
國中 40
墊紙 40
墜式 40
士林 40
多元 40
多效 40
大學@@ 40
大码 40
大胸 40
大腸圈 40
天王 40
天花板 40
奇兵 40
女涼 40
媽媽裝 40
安枕 40
安然 40
定量 40
客訂區 40
家庭影院 40
寄@@ 40
寒流 40
寶媽 40
小喇叭 40
小猴子 40
小窗 40
小蝦 40
尚朋堂 40
屎 40
工藝@@ 40
帶掛 40
幕布 40
干貝 40
年底 40
床簾 40
弗@@ 40
後視鏡 40
恨 40
惠而浦 40
手壓 40
拋 40
拍桿 40
拼色@@ 40
拿包 40
揉 40
搖搖@@ 40
擠@@ 40
攝影包 40
救生衣 40
晚@@ 40
晶鑽@@ 40
月刊 40
月牙 40
本月 40
村上 40
柴@@ 40
格紋長 40
桐@@ 40
椅學生 40
樟木 40
機器貓 40
橡@@ 40
款百搭 40
歡@@ 40
毅 40
毛膏 40
氣管 40
永和 40
汽水 40
油門 40
涮 40
淡粉 40
深藍白 40
清器 40
清潔布 40
滑冰鞋 40
滿足 40
漢方 40
潤滑 40
特賣會 40
獨家@@ 40
現代床 40
現代沙 40
球帽 40
瑟 40
生意 40
病毒 40
發卡 40
白山 40
白麝香 40
百搭舒適 40
百花 40
百葉 40
皮料 40
皮毛 40
直紋 40
瞬效 40
碰@@ 40
競速 40
符號 40
第三季 40
篩@@ 40
籃球@@ 40
糙米 40
素雅 40
終結 40
網吧 40
綾 40
繳費 40
翁 40
聽@@ 40
聽歌 40
肥料 40
脚@@ 40
膠片 40
膠防 40
臥起 40
自然色 40
舞光 40
芭蕾舞鞋 40
茶室 40
茶碗 40
菱格包 40
蕾莉歐 40
薄餅 40
藏青 40
藝術家 40
虎眼石 40
蜂王乳 40
蟾蜍 40
蠱 40
袍 40
袖大學 40
褲短褲 40
西施 40
豎@@ 40
象棋 40
貓罐頭 40
貓飼料 40
財貓 40
賈@@ 40
超百搭 40
距 40
蹄 40
身上 40
軌道車 40
軍床 40
軍旅 40
轉動 40
送給 40
速成 40
遊樂園 40
那些 40
鋼項 40
鏡柜 40
鐘表@@ 40
關注 40
陵 40
雙倍 40
雙鏡片 40
電信 40
露營@@ 40
青文 40
青軸 40
鞣 40
顔 40
風力 40
風鐵藝 40
飛機@@ 40
飛盤 40
飛飛 40
鬼怪 40
魔鏡 40
麝香 40
黏袋 40
黑檀 40
鼓棒 40
ᴏ 39
オ 39
サ 39
デ 39
一袋 39
七號 39
丅 39
三方 39
不沾杯 39
中山 39
九色 39
九號 39
乳牛 39
二年 39
五年 39
亮膚 39
仿羊絨 39
休閒風 39
保護罩 39
值@@ 39
假一罰 39
停車場 39
傾城 39
僅供 39
內戶 39
全聯 39
六分 39
冷氣@@ 39
冷氣機 39
凝 39
出貨免 39
利其爾 39
前台 39
前開 39
創意壁 39
劃@@ 39
動態 39
動手 39
包裝機 39
南洋 39
博美 39
原廠貨 39
口琴 39
古款 39
可來 39
可免 39
含標 39
吸睛 39
呈 39
咬@@ 39
啵 39
嚴@@ 39
四入 39
地櫃 39
增量 39
壓條 39
夏新 39
大意 39
大鈔夾 39
天生 39
奧德賽 39
女主角 39
女人味 39
女冬 39
女細 39
女顯 39
奴@@ 39
奶鍋 39
妝水 39
姆@@ 39
守 39
寶麗來 39
小天使 39
小文 39
小書桌 39
小標 39
小電鍋 39
小風 39
小馬@@ 39
尾箱 39
屍@@ 39
展板 39
岸 39
嵌@@ 39
布簾 39
布長 39
希爾思 39
年末 39
年版 39
幼貓 39
幾墊 39
張入 39
彎管 39
影票 39
微微 39
徽 39
怕 39
性價 39
惡魔@@ 39
愛莎 39
戰記 39
戰鬥機 39
手創 39
扭@@ 39
抓破 39
折疊凳 39
抽油 39
拐 39
搭長 39
擕 39
據線 39
文青風 39
新增 39
新居 39
新幹線 39
新秘 39
時尚長 39
暴雨 39
書架@@ 39
架掛 39
柜北 39
柜北歐 39
案@@ 39
桐 39
梭織 39
棋@@ 39
款潮 39
歐貨 39
步@@ 39
殺菌燈 39
每天 39
氧@@ 39
水嫩 39
水溶 39
油罐 39
泉@@ 39
法律 39
法萊絨 39
泳@@ 39
漆彈 39
烤漆 39
無人 39
牧草 39
獎@@ 39
王冠 39
玩色 39
玻@@ 39
球頭 39
環扣 39
產後@@ 39
畫家帽 39
白花 39
百搭小白鞋 39
皮手 39
直飲 39
相思 39
真家 39
真愛密碼 39
福氣 39
窄管 39
窩@@ 39
竹木 39
算 39
節約會 39
粉筆 39
紀念冊 39
紅鶴 39
紋單 39
純色長 39
紗簾 39
紙簍 39
紙質 39
紡長 39
細胞 39
絲絨@@ 39
綠尾 39
綠聯 39
緞@@ 39
縣 39
纖體 39
网 39
耀眼 39
老件 39
老板桌 39
耶@@ 39
肝@@ 39
腕力 39
腰靠 39
膠布 39
船用 39
色情 39
艾迪 39
芊 39
花蓮 39
芷@@ 39
草皮 39
萬聖 39
藍橘 39
藕粉 39
行政法 39
行李架 39
行為 39
袋泡茶 39
裱花 39
褲外 39
褲薄款 39
要@@ 39
觀賞 39
認@@ 39
說@@ 39
護目 39
變化 39
豆花 39
豆袋 39
負式 39
貨清倉 39
賬 39
起球 39
超跑 39
足銀 39
車箱 39
車隊 39
边 39
過膝長 39
遛 39
避@@ 39
醫學 39
金亮 39
銅管 39
鋼扣 39
鋼珠筆 39
鐵片 39
門後掛 39
門板 39
關東 39
防蚊液 39
防駝 39
阿姨 39
附實 39
陪護 39
雨具 39
電剪 39
電推 39
電煮鍋 39
電燒 39
電蚊 39
電表箱 39
靈動 39
韓版厚底 39
領休 39
領條 39
頸椎@@ 39
願 39
顯色 39
風景@@ 39
飾底 39
餐券 39
香腸 39
香道 39
馬鞍包 39
高科技 39
鶯 39
鷹眼 39
麗人 39
麻油 39
ˊ 38
れ 38
ガ 38
メ 38
一斤 38
一杯 38
丁香 38
不帶 38
不爛 38
丞@@ 38
丫 38
主廚 38
亂@@ 38
五格 38
亮皮 38
保濕護 38
保護包 38
信誼 38
像素 38
優兒 38
儸 38
充電款 38
兒童防 38
內容 38
全封 38
全日 38
全網通 38
冰冰 38
刺绣 38
削@@ 38
剎 38
功服 38
加重 38
包中包 38
包卡 38
包實 38
包戶 38
包裹 38
北歐式 38
千斤 38
午後書房 38
卡鉗 38
印圖 38
卸妝乳 38
口袋妖怪 38
古裝@@ 38
可移 38
台上 38
合法 38
吊車 38
名人 38
品盒 38
嘻哈帽 38
四核 38
固定式 38
圍巾@@ 38
土地 38
地墊門 38
地平線 38
地燈 38
塔克 38
壘球 38
壽屋 38
大聯盟 38
女兒 38
女系 38
奴 38
嫩@@ 38
字幕 38
宴會@@ 38
實拍@@ 38
寫生 38
寶寶襪 38
射手 38
小星星 38
小時候 38
小狗狗 38
岡山 38
崴 38
巫婆 38
差@@ 38
巷 38
幼兒童 38
床裙 38
彈珠 38
彩印 38
念佛 38
恆 38
意見 38
戶外@@ 38
手牌 38
手紙 38
折疊室 38
折紙 38
披薩 38
抬頭 38
拉絲@@ 38
拱辰享 38
按摩椅 38
採購 38
探 38
搖籃床 38
搶手 38
撞色@@ 38
文物 38
新人 38
日版@@ 38
日規 38
星人 38
星際寶貝 38
書寫 38
木塞 38
木箱 38
果乾 38
果凍套 38
枝@@ 38
柑仔店 38
柜邊 38
查 38
梓@@ 38
條文 38
棉紗 38
機便 38
櫻花瑪 38
武俠 38
氛@@ 38
氣墊@@ 38
氣壓式 38
氣門 38
汝窯 38
決定 38
波輪 38
注意 38
流蘇包 38
海藍 38
消磁 38
涼感@@ 38
淘氣 38
深紫 38
渡 38
滿印 38
澎袖 38
濕氣 38
灘 38
火熱 38
灰黑色 38
炸雞 38
烈@@ 38
燦 38
爺爺 38
牌底 38
牧牧家 38
猿 38
獨角 38
玻璃罐 38
珍珠粉 38
現代餐 38
瓢 38
生酮 38
白橘 38
百天 38
百搭涼 38
盎司 38
直線 38
相機@@ 38
真絲絲巾 38
碟@@ 38
碳酸 38
祛濕 38
立扇 38
立架 38
第四版 38
篷 38
簡易書桌 38
米蘭@@ 38
紅木@@ 38
紋款 38
紙套 38
綠谷 38
綻 38
編制 38
羅紋 38
美樂@@ 38
習講義 38
翻翻 38
職@@ 38
肩洋裝 38
腰鏈 38
舘 38
艾杜紗 38
英倫風@@ 38
茂@@ 38
荷包蛋 38
莫代爾棉 38
菜車 38
菱格鏈 38
萊爾富 38
蒂蒂@@ 38
藤條 38
蘆薈膠 38
蘇菲 38
蘿卜 38
蛋頭 38
衝評 38
視訊盒 38
角柜 38
解題 38
詹@@ 38
語言 38
豐盈 38
貓屋 38
負@@ 38
買菜 38
超小 38
超舒適 38
超酷 38
蹦 38
輕巧@@ 38
輕熟 38
輕珠 38
退色 38
逍遙 38
透視@@ 38
途@@ 38
過夜 38
道奇 38
還是 38
金銀花 38
釘子 38
鈦@@ 38
銀幣 38
錐形 38
鐘靜音 38
鐵路 38
開模 38
防身武器 38
阿米 38
除味 38
集團 38
雙口 38
雙頭@@ 38
雨褲 38
雯@@ 38
雷達 38
韓版女 38
順滑 38
領收 38
領顯 38
顆入 38
饗 38
首飾品 38
高強度 38
高階 38
高飛 38
魔術@@ 38
魚鉤 38
鮮食 38
麻吉 38
龍鳳 38
C 37
ɴ 37
ズ 37
ブ 37
一只 37
一周 37
一律 37
一桌 37
一罐 37
三日 37
三木 37
且 37
乖乖 37
云朵 37
五等 37
任務 37
休@@ 37
佳有 37
供燈 37
修改 37
修腳 37
優尚 37
優惠組 37
優質@@ 37
充電電池 37
克星 37
全臉 37
全鋁 37
凹@@ 37
出清品 37
分線器 37
刊 37
加熱器 37
勵 37
化妝櫃 37
卓 37
卸@@ 37
原宿@@ 37
原汁 37
口哨 37
古金屬 37
古銀 37
可愛小@@ 37
可改 37
吉田 37
吊櫃 37
呦 37
咖啡粉 37
哇 37
唇部 37
商周 37
均衡 37
垫 37
域 37
壓花@@ 37
外貿@@ 37
大吉 37
大禮 37
大買家 37
奔騰 37
女厚底 37
客廳陽 37
宮廷@@ 37
寵物床 37
寶寶純 37
導線 37
小玩意 37
小辣椒 37
尾款 37
屁@@ 37
工作台 37
幫籃 37
平均 37
平頂 37
年份 37
底托 37
康寧 37
康軒 37
引繩 37
影院 37
志祥 37
性感美 37
情挑 37
慶生 37
懶妹 37
成語 37
折疊梯 37
抱@@ 37
拉斯 37
拋光@@ 37
拾@@ 37
排骨 37
控耳機 37
搞定 37
撒 37
播@@ 37
擺飾品 37
收納筒 37
改版 37
攻擊 37
放手 37
政治 37
方圓 37
施華蔻 37
星願 37
會員禮 37
木椅 37
木語 37
木鞋 37
束胸 37
条 37
松果 37
染發膏 37
柜門 37
梅森 37
棉休 37
棉料 37
棉衛衣 37
棗@@ 37
橘紅色 37
機手動 37
機關 37
檀 37
歐斯 37
正義聯盟 37
氏@@ 37
汽 37
汽@@ 37
沾油 37
泡泡浴 37
泵浦 37
洋裝@@ 37
洗潔 37
淚 37
混凝土 37
測速 37
游標 37
溶解 37
漿機 37
瀑布 37
灰紅 37
焗 37
無袖連 37
煥@@ 37
燉鍋 37
燒罐 37
物籃 37
現代茶 37
男寶@@ 37
男館 37
疤 37
瘦長 37
白天 37
監控器 37
真爆 37
硅藻土 37
祛@@ 37
空氣淨 37
窩貓 37
笔 37
笛子 37
等待 37
簡約布 37
米娜 37
精細 37
精裝版 37
紅勾 37
紅同款 37
絲緞 37
綠化 37
綠豆 37
編織線 37
红色 37
美商 37
美姬 37
美洲 37
胡子 37
膳食 37
臥式 37
自在 37
舊款 37
色塊 37
芋 37
花籃 37
花蝴蝶 37
蓮花燈 37
蕾@@ 37
藍牙鍵 37
行星 37
衣撐 37
表盤 37
裙褲 37
褲管 37
西卡 37
親簽 37
解鎖 37
詞 37
詢 37
詳解 37
課用 37
護頭 37
貓包 37
賀卡 37
賣款 37
質料 37
超時 37
跡 37
車輪 37
軒@@ 37
迷幻 37
週 37
運轉 37
還願 37
醇 37
重計 37
重金 37
金属 37
金玉 37
金香 37
針孔 37
鈺 37
鉛@@ 37
鉸 37
銥 37
防磁 37
阿拉伯 37
隔珠 37
隱形@@ 37
雅軒 37
雙星 37
雙穴 37
零基 37
震動器 37
青梅 37
青花 37
靠椅 37
韓襪 37
音筆 37
韻律 37
順暢 37
領券 37
領洋裝 37
領雪紡 37
頭衫 37
風管 37
風衣@@ 37
飄逸@@ 37
養護 37
首爾@@ 37
高磅數 37
鮭 37
鳴人 37
黑熊 37
一線 36
三檔 36
中指 36
主推 36
之翼 36
乳牙 36
二次方 36
二號 36
五十 36
亞光 36
亨利 36
今生 36
仿生 36
免持 36
免提 36
內扣 36
全包圍 36
全友 36
全額貸 36
八八 36
公道 36
冥@@ 36
凉 36
凌 36
動人 36
北卡 36
北大 36
千免 36
半圓@@ 36
半碼 36
口金 36
古港味 36
可愛時 36
可愛毛絨 36
可放@@ 36
可行 36
史上 36
名片盒 36
吸排 36
和紙 36
單寧@@ 36
四口 36
國考 36
坂@@ 36
坦 36
堅 36
堤 36
塑料杯 36
塔扇 36
塔香 36
壓殼 36
外牆 36
夢露 36
大哥大 36
大班 36
夸張 36
套袖 36
女大童 36
好人 36
始祖 36
威士忌 36
婉儀 36
嫚 36
子服 36
存錢桶 36
安卓主機 36
實木貓 36
實物實 36
寶寶車 36
小掛 36
小白@@ 36
小胖 36
小麥@@ 36
尚套 36
岡@@ 36
巴特 36
帶身 36
年節 36
年華 36
幼教 36
幾沙 36
序 36
弘 36
弟 36
彈力@@ 36
心跳 36
念@@ 36
情境 36
慢回彈 36
截止 36
手办 36
手機夾 36
打光 36
抗痕 36
掌握 36
排風扇 36
摩根 36
擦擦 36
收銀@@ 36
收銀機 36
散熱@@ 36
散貨 36
斑比 36
斑點 36
施華洛 36
旋鈕 36
旱冰 36
昂 36
昭@@ 36
显瘦 36
晴雨窗 36
杉木 36
桌懶 36
桔@@ 36
條免 36
棍@@ 36
標本 36
橄欖綠 36
機台 36
橫桿 36
款雙 36
歲@@ 36
段@@ 36
毛背心 36
氣墊殼 36
水下 36
汪@@ 36
注 36
洛特 36
消費 36
淡雅 36
深夜 36
游戲@@ 36
漫步者 36
漫漫 36
濾掛 36
瀝水碗 36
無傷 36
無鋼 36
煉 36
熔@@ 36
燈帶 36
爵 36
特工 36
王公 36
玻璃水 36
珍珠奶茶 36
琵琶 36
瑩@@ 36
瑪利 36
甲油 36
画 36
畫布 36
畫本 36
發劑 36
發熱@@ 36
發箍@@ 36
發財@@ 36
白紫 36
白黑紅 36
百搭日系 36
百搭純 36
盛馨 36
真人版 36
破壞袋 36
硅胶 36
硬筆 36
硬質 36
碧玉 36
祛斑霜 36
突破 36
立燈 36
競賽 36
管子 36
糕點 36
糯@@ 36
紀念幣 36
素體 36
絞 36
絨服 36
絲連 36
經本 36
經濟@@ 36
經理 36
維修@@ 36
編程 36
繡線 36
美圖 36
美眉 36
美語 36
翰@@ 36
老爸 36
耳道 36
聖保羅 36
聖母 36
肌研 36
肘 36
肚@@ 36
股@@ 36
肩膀 36
腰側 36
膨脹 36
臘@@ 36
花插 36
花筒 36
茶樹@@ 36
荷葉領 36
菁英 36
落葉 36
蕎麥 36
薄床 36
蘇打 36
蘇耳環 36
衣鏡 36
褲型 36
褲腳 36
襪女 36
角幾 36
角櫃 36
計感 36
識 36
警 36
豬肉 36
賊 36
賦 36
賽季 36
超多 36
超廣角 36
跨年 36
跳跳床 36
車拉桿 36
辮子 36
迅 36
週歲 36
運動衣 36
遠近 36
遮陽網 36
還在 36
邦@@ 36
郵寄免 36
配飾品 36
醫師 36
野蠻 36
金幣 36
金莎 36
鈴薯 36
鋒衣 36
链条 36
開襠 36
防偷 36
防偽 36
阻燃 36
陪伴 36
陰影 36
陸龜 36
雙手 36
雙缸 36
雷蛇 36
電路 36
霓 36
露娜 36
鞋氣 36
音樂鈴 36
頓枕頭 36
風氣質 36
飲杯 36
馬卡龍 36
駕駛@@ 36
骷 36
體恤@@ 36
高幫@@ 36
高頻 36
魔音 36
魚片 36
麗麗 36
黎 36
黑曼巴 36
이 36
➊ 35
め 35
ピ 35
七月 35
上光 35
中床 35
亨@@ 35
伊之助 35
伊麗莎 35
伽 35
佩 35
侧 35
保溫箱 35
修容盤 35
修甲 35
停 35
偽@@ 35
儲水 35
先科 35
光燈 35
免膠 35
免運限時 35
內鞋 35
全機 35
六折 35
内@@ 35
再版 35
勇 35
勒@@ 35
勤@@ 35
包購 35
化妝鏡子 35
十代 35
十八 35
卡冊 35
取代 35
口感 35
口金包 35
古着 35
古著@@ 35
另外 35
可刷 35
可愛女 35
可達 35
可食用 35
台湾 35
台灣出 35
右手 35
呂 35
周边 35
喂食 35
單張 35
單肩側 35
嗮 35
囧 35
園藝@@ 35
圓夢 35
圓孔 35
圣誕@@ 35
地上 35
垢 35
基隆 35
填@@ 35
墜項 35
壹體 35
多重 35
大圓 35
大手 35
大網 35
大馬士革 35
天河石 35
女內 35
婚床 35
婴儿 35
媲美 35
字畫 35
完售 35
客場 35
客杯 35
家事 35
家務 35
寶可夢卡牌 35
寶寶可 35
寶藏 35
對戰 35
小區 35
小吊帶 35
小帽 35
小棧 35
小票 35
小語 35
小隊 35
小雞@@ 35
小飛俠 35
尚衣 35
尼龍包 35
崛起 35
巔峰 35
帶子 35
平價@@ 35
平口@@ 35
床護欄 35
引 35
後庭 35
微晶 35
心包 35
心怡 35
急單 35
恒 35
悶 35
悶燒 35
愛麗兒 35
慕思卡莉 35
慣性 35
成分 35
成熟 35
我要 35
戰將 35
技法 35
抱式 35
招財進 35
掛鏡 35
控溫 35
提示 35
搖控 35
摟 35
擋風 35
救生 35
斜角 35
斯汀 35
旅遊包 35
星型 35
松梅 35
果子 35
柔軟@@ 35
柜陽 35
柴犬@@ 35
桌腳 35
棗 35
極效 35
樂福 35
歐賽車 35
歐鐵藝 35
止@@ 35
毛刀 35
毛孩 35
氣墊床 35
水中 35
水垢 35
水晶泥 35
油煙 35
油頭 35
法國小眾 35
泡湯 35
波紋 35
泰山 35
洛神 35
流蘇耳環 35
淳 35
減肥@@ 35
減負 35
湘 35
溫感 35
滅菌 35
滿減 35
潮酷 35
灌@@ 35
点 35
烹飪 35
無外 35
熱感 35
熱敏 35
燈燈 35
燕麥片 35
爐子 35
牧@@ 35
牽引繩 35
狗床 35
現實 35
現貨北 35
瑞斯 35
瑪麗貓 35
申@@ 35
男靴 35
當季 35
痕跡 35
白線 35
百優 35
百搭圍 35
皮箱子 35
皺紋 35
盆洗 35
盆花 35
盟 35
社@@ 35
福利社 35
科學@@ 35
空力 35
空運來 35
穿式 35
第一季 35
筆型 35
筷架 35
簇 35
糖果屋 35
紅管 35
純手 35
緊膚 35
线 35
翼@@ 35
老坑 35
考克 35
耐吉籃 35
耳式 35
胃@@ 35
胸衣 35
脖套 35
脚 35
腋毛 35
腰闊 35
腳皮 35
腳部 35
膽 35
臉型 35
自愛器 35
自然光 35
自選 35
草地 35
菲娜 35
著衣 35
蒙田 35
蔬菜水果 35
蕾丝 35
薄膜 35
藝坊 35
蘿莉塔 35
號電池 35
虹@@ 35
蝴蝶结 35
蠶絲@@ 35
衛衣長 35
衣袋 35
裸石 35
西方 35
評量 35
調色盤 35
豐胸 35
貝母 35
貢緞 35
貨供 35
貨熱賣 35
賀 35
資材 35
賽克 35
超特價 35
路卡 35
車四輪 35
車寶寶 35
車帶 35
軍規防 35
轟 35
辣條 35
逍 35
逗@@ 35
遊戲組 35
運動版 35
遠傳 35
避孕套 35
鄭 35
金絲@@ 35
金門 35
銅線 35
鋁材 35
鋁膜 35
鋼琴@@ 35
鏡前 35
閃電麥 35
防曬長 35
防脫 35
雙環 35
雙開 35
雞游戲 35
雲南 35
電吹風 35
電寶 35
電擊 35
電燉 35
電餅 35
霍@@ 35
鞋透氣 35
韓小 35
領套 35
頸@@ 35
風水簾 35
風網 35
飛馬 35
餅乾袋 35
香熏 35
香菱 35
駕駛證 35
體脂 35
體驗組 35
高容量 35
高考 35
鬃毛 35
魚池 35
鵝@@ 35
麗兒 35
麥芽 35
麻麻 35
黑尾 35
黑珍珠 35
黑盤 35
黑胡椒 35
ゆ 34
一日 34
一期 34
丁鞋 34
三環 34
上方 34
不倒 34
不脫 34
丝 34
中英文 34
中音 34
之森 34
乘@@ 34
乳器 34
二款 34
五條 34
亮條 34
介 34
他人 34
以色列 34
体 34
侏羅紀 34
保冰 34
保持 34
保鮮碗 34
偵測 34
傲@@ 34
儀式 34
元年 34
光纖 34
克里 34
內燈 34
全組 34
凡士林 34
分割 34
分解 34
刷洗 34
則 34
剎@@ 34
勛 34
古氣質 34
台壓 34
台灣恩善 34
吉卜力 34
名模 34
吸頭 34
哈倫@@ 34
唇筆 34
單人椅 34
嘉義 34
嘜 34
國標 34
基因 34
報刊 34
報架 34
報警器 34
墨綠@@ 34
外出服 34
多線 34
夢想家 34
大塊 34
大腦 34
大謙 34
天壇 34
天藍色 34
夾具 34
夾燈 34
夾皮 34
套罩 34
奢風 34
妲 34
媚@@ 34
子線 34
家具店 34
實習 34
寶寶圍 34
小三美日 34
小單 34
小妞 34
小文代購 34
小新@@ 34
小董 34
小袋 34
展場 34
山楂 34
巡@@ 34
已有 34
布章 34
希思黎 34
帶半碼 34
帶套 34
帶潮 34
帽防 34
幕@@ 34
幾茶 34
底褲 34
廣播 34
思維 34
感應器 34
感覺 34
所欲 34
打碼 34
抓周 34
抗過 34
折抵 34
披巾 34
拉門 34
掌氣 34
掛軸 34
推桿 34
搖搖 34
搭載 34
摔角 34
摹 34
教師節 34
整卷 34
易購 34
春夏秋冬 34
書本套 34
木架 34
杆@@ 34
村風 34
杜邦 34
杯緣 34
柒柒 34
柯瑞 34
格拉芙 34
桌帶 34
楊丞琳 34
楠木 34
楷書 34
標簽 34
標記 34
橋@@ 34
橡 34
檔車 34
次@@ 34
款運動 34
歐規 34
正方 34
步伐 34
武神 34
殼@@ 34
毛巾布 34
气质 34
氧 34
水解 34
法師 34
洗脫 34
活泉 34
浦@@ 34
浴櫃 34
海浪 34
淘寶@@ 34
淘淘 34
清新自然 34
潛@@ 34
澎裙 34
濤 34
無印風 34
熊野 34
燈壁 34
燈組 34
燈餐 34
爽爽 34
特攻 34
王手 34
現貨到 34
球手 34
理線 34
男單 34
男大童 34
發貨@@ 34
白紗 34
白邊 34
百利 34
百搭條 34
皮沙 34
直销 34
眼鏡廠 34
眾@@ 34
石項 34
矽藻 34
碗@@ 34
祖母 34
神經 34
票@@ 34
穩@@ 34
空氣鳳 34
窗台 34
竈 34
童學生 34
符咒 34
簡易門口 34
籬笆 34
精彩 34
紅唇 34
紅白機 34
純銀珠 34
綁頭 34
綠紅綠 34
網格@@ 34
網紅涼 34
綺@@ 34
緣來 34
縷空 34
老山 34
聖羅蘭@@ 34
聚酯 34
膩子 34
臉儀 34
臨@@ 34
自銷 34
興隆 34
舌@@ 34
芒果乾 34
花材 34
苔蘚 34
茲@@ 34
草機 34
菜菜 34
華語 34
菲兒 34
萬年惠 34
藍黃 34
藻土 34
蘸 34
虐戀 34
蛇姬 34
蜂窩 34
袖雪紡 34
被@@ 34
被褥 34
裝洋氣 34
裝版 34
西德 34
訓練褲 34
護脊 34
護臂 34
讀物 34
象牙 34
貓碗 34
負重 34
貨代購 34
超霸 34
趴睡 34
軌跡 34
軍品 34
配有 34
金耳環 34
鋼木 34
鋼耳環 34
錐@@ 34
錳 34
鍬 34
鐵藝床 34
鑑定 34
開合 34
閒時 34
阻 34
限購 34
陽極 34
雅同款 34
雙開門 34
電卷 34
霓虹 34
露肩@@ 34
韶涵 34
領針 34
頻道 34
顱頭 34
風小 34
飲機 34
駱馳 34
駿 34
鱈魚 34
麟 34
黏膠 34
黛珂 34
龍德 34
ɪ 33
も 33
ゃ 33
グ 33
ョ 33
ㄟ 33
一路 33
三色@@ 33
下襬 33
不一樣 33
不油膩 33
中底 33
乃@@ 33
乘 33
五帝 33
五種 33
仰臥板 33
休闲鞋 33
伸展 33
低脂 33
侏 33
保湿 33
保齡球 33
假期 33
偉士牌 33
傅@@ 33
催眠 33
傷發 33
優派 33
光療機 33
免運速發 33
兒寶寶@@ 33
入手 33
內存 33
全頭 33
兩顆 33
公用 33
内 33
冰沙 33
冷媒 33
凝凍 33
凱婷 33
出清小館 33
刑法 33
刨刀 33
刮傷 33
刺穿 33
包小方包 33
包架 33
包現 33
千兆 33
卡匣 33
厚道 33
厝 33
友情 33
双 33
取暖器 33
另計 33
可上 33
可彎曲 33
吉它 33
吊耳 33
后排 33
后視鏡 33
含安裝 33
吸引 33
單柄 33
單用 33
嘎 33
回到 33
坐墊子 33
垃圾箱 33
堅@@ 33
壓槍 33
夏装 33
外設 33
多角度 33
夜晚 33
大夫 33
大褲 33
大貨車 33
天出 33
天竺鼠 33
夾扣 33
夾耳環 33
套環 33
套盒 33
奧運倫敦 33
女蕾絲 33
如來 33
媽祖 33
孕媽 33
孵化 33
安裝@@ 33
家小 33
寄賣 33
密宗 33
富豪 33
實感 33
實木腳 33
實木長 33
專業型 33
專門店 33
尊爵 33
對策 33
小伙 33
小布 33
小幫手 33
小毅 33
小空調 33
尿@@ 33
山口 33
布沙發 33
布蕾絲 33
帥氣@@ 33
床雙 33
康貝 33
廣東 33
延 33
弓箭 33
彭 33
微信 33
德國代購 33
心盤 33
思域 33
愛神 33
慶典 33
戈@@ 33
成為 33
手上 33
手作飾品 33
手竿 33
手遊 33
打手 33
打粉 33
扣款 33
扶手椅 33
把@@ 33
抗刮 33
折疊刀 33
拉力器 33
拉娜 33
拓展 33
拼豆 33
捕@@ 33
捷運 33
掛鎖 33
摳 33
散珠 33
敲打 33
文兒 33
斧 33
新開幕 33
書屋 33
書立 33
有效期限 33
有點 33
服装 33
望眼 33
木片 33
本合售 33
朵@@ 33
李子 33
松學生 33
果樹 33
柏金包 33
柔和 33
框女 33
桌書 33
條形 33
條本 33
梵文 33
榻 33
槌 33
樂隊 33
標套 33
機座 33
機車@@ 33
檢查 33
欲 33
歐樂 33
歐美街 33
歐莎 33
止汗 33
母床 33
毛絨絨 33
氣體 33
汽球 33
沃 33
法印 33
法蘭@@ 33
泡腳 33
波特 33
洋行 33
洗器 33
津 33
洪 33
活化 33
海南 33
湯姆貓 33
滿屋 33
澤澤代購 33
濃湯 33
濟州 33
炫光 33
烘@@ 33
烙 33
無框畫 33
無油煙 33
煥顏 33
熱壓 33
熱薦 33
燒杯 33
爬山 33
爵士鼓 33
牌框 33
特南 33
狐臭 33
獎牌 33
王俊凱 33
珠友 33
珠手 33
瑪琪朵 33
環遊 33
甲殼蟲 33
界@@ 33
異國 33
白條 33
百代 33
百搭圓領 33
百搭純色 33
的魚 33
皮球 33
盤架 33
眼淚 33
睡床 33
睿@@ 33
硃砂 33
硼 33
碩 33
神力 33
神社 33
福士 33
積雪草 33
空壓機 33
立方 33
競椅 33
第五代 33
簪子 33
籽@@ 33
粉機 33
粗細 33
粗陶 33
粹 33
精心 33
約@@ 33
純白@@ 33
紳士@@ 33
終 33
結婚慶 33
結耳環 33
絨布@@ 33
經書 33
綠植@@ 33
網路線 33
縷 33
總統 33
罩@@ 33
美英 33
肉色 33
肖戰 33
肩袖 33
腮紅@@ 33
膚質 33
自訂 33
花栗鼠 33
茂 33
茶樓 33
菱@@ 33
蓝@@ 33
藍天 33
藍芽@@ 33
蜂箱 33
螢光筆 33
螢幕@@ 33
街機 33
裁@@ 33
裙潮 33
裝手 33
裝訂 33
裝韓版 33
西裝@@ 33
記憶@@ 33
記者 33
誕禮物 33
變成 33
貝斯 33
货 33
超濃縮 33
超窄 33
越莓 33
軍工 33
軍用 33
輪拉桿 33
迎 33
透扇 33
透氣網 33
遊戲書 33
運動館 33
適配 33
遮肉 33
邊幾@@ 33
邊緣 33
郡 33
野馬 33
金水 33
針織面 33
鈺@@ 33
銀耳針 33
鋼鐵@@ 33
鏢 33
鐵金剛 33
門店 33
開張 33
閨蜜@@ 33
防蛀 33
阿甘@@ 33
雅柏 33
零配件 33
電飯鍋 33
靶@@ 33
韓日 33
韓范@@ 33
頑皮豹 33
領取 33
頸圈 33
顯瘦連 33
風速 33
風靡 33
餐包 33
馥@@ 33
馬尾 33
骨骼 33
高濃度 33
高積 33
魚骨鞋 33
鴛鴦鍋 33
麥克@@ 33
黛安芬 33
龍蝦 33
ぃ 32
え 32
ュ 32
ㄅ 32
一切 32
一品 32
一大 32
一面 32
三彩 32
下雨 32
不介意 32
不留 32
不锈钢 32
乳墊 32
乳木果 32
亮色 32
人中 32
人性 32
代謝 32
休閒襪 32
佐助 32
保護盒 32
修容餅 32
修護露 32
倒立 32
倪 32
備@@ 32
備箱 32
優店 32
儲錢 32
儷 32
充電盤 32
兆@@ 32
內部 32
全豬 32
全齡 32
兩本 32
八角帽 32
出包 32
刀割 32
切爾西 32
副@@ 32
創意館 32
力學 32
包路 32
化工 32
南部 32
厚棉 32
原单 32
去皮 32
口蓋包 32
古手 32
古撞色 32
古方 32
召喚 32
可洗 32
可疊加 32
可變 32
台北市 32
台東 32
周周 32
周杰倫 32
哨子 32
唱@@ 32
商務型 32
商務褲 32
商務鞋 32
問庫存 32
善逸 32
單一 32
單耳 32
噴水@@ 32
回禮 32
圓裙 32
圖書@@ 32
團子 32
埃@@ 32
塗裝 32
墩 32
壞@@ 32
外用 32
大下標 32
大冒險 32
大檐 32
大熊 32
大空間 32
大賣家 32
大陸劇 32
天文 32
天竺葵 32
太阳镜 32
奇趣 32
奇跡 32
奈子 32
奔@@ 32
套腳鞋 32
女秋 32
好事 32
好運來 32
妍@@ 32
姊姊 32
姐@@ 32
威秀 32
媽包 32
子瑜 32
守@@ 32
宏興 32
宜蘭 32
寶寶手 32
專卡 32
對話 32
對開 32
小東西 32
小草 32
小蟻 32
小電扇 32
小頭 32
屋子 32
岁 32
巨 32
巨星 32
帥@@ 32
帳本 32
帶扣 32
常用 32
平織 32
幾床 32
廚師服 32
強力@@ 32
強森 32
彈潤 32
形蟲 32
徒 32
心心相印 32
快干 32
性餐 32
懷孕 32
戰警 32
折合 32
抱抱熊 32
拉链 32
掌櫃 32
接觸 32
描@@ 32
插銷 32
插電@@ 32
搭腰 32
摩比 32
撲滿 32
操@@ 32
攤@@ 32
收藏版 32
效能 32
救 32
新北市 32
日霜 32
昆布 32
映@@ 32
時尚館 32
暖水袋 32
暢享 32
曉婷 32
曬衣 32
朋@@ 32
服套裝 32
杜 32
東北 32
東野圭 32
枕巾 32
枕頭@@ 32
果然 32
架壁 32
架子鼓 32
柔嫩 32
柜小戶 32
柜書架 32
桂 32
桌兒 32
桌角 32
棉全 32
榆木 32
榛果 32
標識 32
橘裡 32
機燈 32
檸檬黃 32
櫻桃紅 32
櫻桃飾品 32
款純 32
正規@@ 32
毛機 32
毛躁 32
沃奇 32
沙棘 32
油膏 32
派大星 32
浩克 32
海竿 32
淺綠 32
清價 32
溜滑梯 32
滅蚊 32
滋補 32
滌綸 32
滑油 32
漆黑 32
演 32
漢字 32
潔顏 32
潤滑油 32
無涂層 32
無證 32
煌 32
熏@@ 32
燈兒 32
燭@@ 32
爆乳@@ 32
父母 32
版長 32
物業 32
物箱 32
特選 32
猛@@ 32
猜 32
玄鳳 32
玩美 32
現代北歐 32
現貨兒 32
瑪卡 32
瓦楞 32
生日礼物 32
生鮮 32
痛@@ 32
瘦臉 32
白白 32
盤客 32
盧 32
省@@ 32
眉刷 32
短簾 32
短衫 32
研究室 32
硨磲 32
碎肉 32
碼器 32
碼女 32
磨光 32
禧 32
科幻 32
秘帖 32
種籽 32
空氣加 32
童子 32
竹纖維 32
第一@@ 32
算盤 32
箭@@ 32
簡易掛 32
簽到 32
簽名照 32
精靈球 32
糯種 32
約翰 32
紋板 32
純粹 32
細腰 32
組合價 32
組合櫃 32
結長 32
絲柔 32
絲裙 32
綜 32
綠白 32
總部 32
繪本架 32
群加 32
老品 32
聞 32
肉肉 32
肚圍 32
肛交 32
肯 32
胜肽 32
脆餅 32
腰洋裝 32
腳位 32
自動筆 32
舞音響 32
船錨 32
色調 32
芋頭 32
芽@@ 32
茄子 32
萬歲 32
蕓 32
行動@@ 32
衍生 32
衣機 32
補貨 32
裝裙 32
詳情 32
課桌 32
貓糧 32
貝比 32
貨熱銷 32
賠 32
賠錢 32
質款 32
購買前 32
贈禮 32
贴 32
超過 32
超閃 32
車票 32
車腳 32
車鑰匙 32
車飾 32
軋 32
軍帽 32
軟毛@@ 32
輔助@@ 32
轉向 32
退貨 32
這是 32
逛 32
遠端 32
郊遊 32
郭 32
配到 32
野獸國 32
金版 32
銀飾代購 32
鋼防 32
鐵血 32
鐵質 32
阿爾@@ 32
隔油 32
雅致 32
雪莉梅 32
電子鐘 32
電子點 32
電箱 32
電風 32
面壁 32
韋 32
韓國耳環 32
韓語 32
風味@@ 32
風行 32
食品袋 32
餃@@ 32
香檳@@ 32
香檳色 32
香甜 32
駕 32
駕駛鏡 32
體重計 32
高配 32
魂@@ 32
黑玫瑰 32
鼓風機 32
鼬 32
一元 31
一米 31
一組@@ 31
三人@@ 31
三寶@@ 31
三支 31
不破 31
专用 31
並@@ 31
中國結 31
主臥室 31
乃木坂 31
之路 31
互@@ 31
五門 31
交鋒 31
人情 31
人沙發 31
代用 31
休閒單 31
作家 31
供桌 31
供水 31
保健用品 31
保卡 31
偏大 31
偏小 31
健身球 31
側拉鏈 31
儒 31
兒童室 31
兒童款 31
兔籠 31
全一冊 31
全美 31
凱蒂 31
初夏 31
副牌 31
助行器 31
動電源 31
包裙 31
十分 31
卡槽 31
厚片 31
双肩包 31
口褲 31
古實 31
古格 31
古風格 31
古高腰 31
只限 31
可取 31
可手 31
名創 31
吸鐵石 31
味覺 31
品種 31
哥德式 31
喜氣 31
單杯 31
單買 31
噢 31
四孔 31
回台 31
園區 31
圓扣 31
圖書館 31
墩布 31
多圈 31
大盤 31
大眼怪 31
大鳥 31
天竺 31
天藍小 31
太古 31
夾克衫 31
夾扇 31
夾拉鏈 31
女警 31
女超人 31
女錢 31
妊娠 31
媚 31
媽咪下 31
孤@@ 31
宋仲基 31
宛@@ 31
宝@@ 31
实拍 31
宣傳@@ 31
室@@ 31
家具城 31
家車 31
寶寶洗 31
寶格麗@@ 31
小乖 31
小瓶 31
小皮 31
小盒 31
尼克斯 31
尾夾 31
山田 31
帶休 31
帶鏡子 31
庭園 31
开@@ 31
彈簧夾 31
彎檐 31
很大 31
快艇 31
情令 31
愛台灣 31
愛家 31
愛車 31
愛麗絲@@ 31
態@@ 31
或@@ 31
房裝飾 31
扁線 31
手術 31
手袖 31
扶桑 31
投光燈 31
折價 31
拉丁舞 31
拉菲 31
拜佛 31
拜年 31
拼盤 31
挪威 31
捷安特 31
掛耳 31
插牌 31
搜 31
撐桿 31
攝影燈 31
攪拌器 31
支付 31
支組 31
收錄 31
改款 31
改耳夾 31
政 31
教養 31
敢 31
敷@@ 31
斤裝 31
方案 31
日清 31
日落 31
昀 31
昆 31
晟 31
普普風 31
晴空 31
最多 31
最後出 31
月相 31
木果 31
束腹 31
枕邊 31
格子布 31
桑葚 31
梁 31
楓木 31
極佳 31
極地 31
樂敦 31
模板 31
機洗 31
橫紋 31
次氯酸 31
款學生 31
歐美風@@ 31
歐輕 31
比克 31
比得 31
民法 31
气垫 31
永恒 31
汝 31
沙滩 31
法規 31
泰銀 31
洋氣@@ 31
洗衣粉 31
洛可可 31
活水 31
海鮮@@ 31
淋@@ 31
溫熱 31
滋補品 31
潮人@@ 31
潮哥 31
濾材 31
灘@@ 31
火星 31
火柴 31
火鍋店 31
灶門 31
焊機 31
無名 31
無肩 31
煙霧 31
熊大@@ 31
熏 31
熏蒸 31
熱血 31
熱銷品 31
燈框 31
爆棚 31
牆畫 31
牛頭 31
特價免 31
特斯拉 31
狗屋 31
玉器 31
玉山 31
王卡 31
珍寶 31
珮@@ 31
理發 31
琪@@ 31
瑞德 31
瑪麗@@ 31
環耳飾 31
生兒 31
生書桌 31
産 31
用品店 31
男圓領 31
男皮 31
男連帽 31
畫客 31
畫書 31
登威 31
登山扣 31
百搭厚底 31
百搭斜 31
百搭氣 31
百搭系 31
百搭褲 31
盒袋 31
眼燈 31
石首 31
碳刷 31
磁貼 31
禪修 31
禾@@ 31
立体 31
童便 31
笙 31
等@@ 31
簡易布 31
簡易床 31
簽紙 31
粉末 31
粉條 31
粉絲 31
粒積 31
紅銅 31
組織 31
絨毯 31
絲切 31
綠色@@ 31
網紅小 31
緋 31
緒 31
線圈 31
線組 31
緩@@ 31
緬甸玉@@ 31
美家 31
美居 31
美惠 31
羔羊 31
翡麗 31
老光 31
老天 31
老店 31
考勤 31
考級 31
耳掛 31
耳骨 31
聚財 31
聯系 31
聯網 31
背夾 31
腳休 31
腳桶 31
臉盆架 31
色任 31
艾倫 31
英國直 31
茜 31
茶台 31
茶葉@@ 31
菜籃 31
菩薩@@ 31
華碩@@ 31
葆 31
蓋亞 31
蓝 31
蓮花@@ 31
薄片 31
藍標 31
蛋黃 31
蜂王 31
蝦幣 31
街景 31
補助 31
補漆筆 31
裝飾條 31
褐 31
詳閱 31
課外 31
護網 31
護罩 31
變臉 31
豐富 31
豪邁 31
豬排 31
貓窩貓 31
貨特價 31
賭@@ 31
起毛 31
超優質 31
超夢 31
跳球 31
跳蚤 31
身材 31
輪轂@@ 31
轟@@ 31
辛巴 31
迷迭香 31
逃@@ 31
逆時 31
連帽@@ 31
進門@@ 31
逸品 31
配電箱 31
重建 31
金屬色 31
金黃色 31
鉻 31
銀色@@ 31
錢母 31
鐵線 31
长款 31
開叉長 31
開學季 31
開片 31
防雨布 31
防飛沫 31
阻尼 31
附綁 31
降落 31
陰毛 31
陶陶 31
集線 31
雕刻刀 31
雙待 31
雙魚 31
雨傘桶 31
雨林 31
電寶@@ 31
電影@@ 31
電熱鍋 31
露趾@@ 31
靜電貼 31
靴女 31
鞋學 31
韓空運 31
風手 31
餓 31
饒舌 31
香酥 31
驗@@ 31
高機 31
鳳凰@@ 31
黄@@ 31
黑花 31
默 31
龜頭 31
三叉 30
上代 30
不失 30
丟繩 30
中網 30
中裙 30
丹丹 30
之龍 30
乳霜@@ 30
于@@ 30
五個 30
亞歷 30
人學生 30
以及 30
低幫板 30
佰@@ 30
保安 30
修理 30
優優代購 30
優家 30
優惠券 30
優雅時 30
克特 30
兔耳 30
全世界 30
全開 30
八核 30
公里 30
冠希@@ 30
出久 30
剝@@ 30
剝皮 30
加绒 30
勇敢 30
勤 30
勻 30
包便 30
千金 30
南投 30
印地安 30
原創@@ 30
原型 30
受@@ 30
口杯 30
可選@@ 30
可養 30
吃貨 30
合唱 30
單腳 30
嚴選代購 30
四寶@@ 30
土黃 30
型態 30
報警 30
墜飾品 30
墨镜 30
壁櫃 30
壯 30
外徑 30
外翻 30
夠 30
夥伴 30
大棚 30
天內 30
夫@@ 30
夯夯 30
夾組 30
夾電池 30
奢品 30
女腕 30
姵 30
宇智波 30
安全套 30
家紡 30
寶兒 30
寶寶專用 30
寶馬牌 30
封箱 30
對子 30
小佳 30
小便 30
小卷 30
小吃店 30
小喬 30
小箱子 30
小齊 30
少見 30
尚板 30
尹@@ 30
尾標 30
尿片 30
屁桃 30
居樂 30
展覽 30
峰@@ 30
巴哥 30
巴爾曼 30
幔 30
平裝 30
座鐘 30
廚衛 30
建宏 30
弧 30
強版 30
彎帽 30
徐坤 30
得豬 30
循環@@ 30
徹 30
恤長 30
愛麗思 30
憂傷 30
憶 30
懶人床 30
我家 30
戳戳 30
抗寒 30
折傘 30
折現 30
折疊輕 30
拐棍 30
拼音 30
揚聲器 30
握力器 30
損 30
搪瓷 30
摘 30
撥片 30
擴香@@ 30
攀岩 30
放鍋 30
救生圈 30
敗家 30
整塊 30
新安怡 30
旅行者 30
旋律 30
日日 30
日月潭 30
明裝 30
易種 30
春茶 30
時來 30
時崎狂 30
智旻 30
暫 30
曹@@ 30
最後賞 30
有線鍵 30
服務員 30
木屑 30
木沙發 30
木藝 30
本店 30
本通 30
李佳琦 30
林子 30
果漾 30
柯爾斯 30
桌下 30
桌大學生 30
條長 30
榖 30
槓 30
橋橋家 30
機上 30
機線 30
機袋 30
橡膠底 30
檐 30
款衛衣 30
款過 30
歐版 30
歸@@ 30
毛巾被 30
氣嘴 30
水霧 30
永 30
汽車車 30
法棍 30
波朗 30
洗手台 30
洗水 30
洗發水 30
流理台 30
浪板 30
海釣 30
涂@@ 30
涵涵 30
深棕色 30
深綠色 30
湖人隊 30
溢乳墊 30
滿膠 30
澎澎@@ 30
澎澎裙 30
火機 30
火神 30
炫耀 30
無矽靈 30
無釘章 30
熱搜 30
爆閃燈 30
爭@@ 30
版帽 30
牛仔衣 30
牛油 30
特裝版 30
特調 30
犯罪 30
猩猩 30
猴年 30
玻璃碗 30
珠簾 30
現代書 30
球服 30
琳瑯 30
男大碼 30
發出 30
發巾 30
發豆袋 30
發財樹 30
白襯 30
百家 30
百搭學院 30
皮手套 30
皮拉 30
盤手 30
盤鼠 30
直通 30
真愛 30
破盤價 30
磚塊 30
禮儀 30
秘境 30
穆@@ 30
立地 30
站姿 30
童長 30
端@@ 30
竹北 30
笛@@ 30
筆器 30
筑 30
簡約化 30
粒裝 30
糾正 30
純綿 30
紙牌 30
經文 30
網紅百 30
線筆 30
繞線器 30
纯色 30
羅馬涼 30
美夢成 30
老料 30
聖品 30
聯名@@ 30
胡椒粉 30
腰線 30
腳椅 30
腳踏式 30
腳長 30
腸胃 30
膠框 30
膽@@ 30
舒潔 30
舞曲 30
航線 30
色拉 30
艾條 30
芭樂 30
花椒 30
茄@@ 30
萬代@@ 30
葡萄籽 30
蒸架 30
蕙 30
薄紗@@ 30
薇@@ 30
薛@@ 30
薯片 30
藍球 30
藜 30
藻@@ 30
蘇蘇家 30
號機 30
蜜蠟 30
蟲蟲 30
行走 30
衣桿 30
衣簍 30
袁@@ 30
補丁@@ 30
裴 30
西松屋 30
解決 30
觸摸屏 30
詳細 30
認識 30
調音器 30
議@@ 30
變光 30
變型 30
豆乳 30
貓掌 30
財神@@ 30
販 30
貴氣 30
貼心 30
趴娃 30
路亞@@ 30
身貼 30
車體 30
軍人 30
軍風 30
輪椅 30
轉式 30
農會 30
送到 30
這麼 30
通信 30
連身泳裝 30
逼 30
遊艇 30
遛狗 30
邊角 30
郁 30
酒水 30
野外求生 30
金山 30
金花 30
針頭 30
鈕@@ 30
鋸子 30
鋼炮 30
鋼絲@@ 30
鍋鏟 30
鍍膜劑 30
鍛@@ 30
鐲子 30
鐵板燒 30
长 30
開罐器 30
附件 30
附帶 30
電光 30
電池@@ 30
霞 30
露華濃 30
靖@@ 30
靛 30
非貫通 30
革@@ 30
鞋匯 30
韓氣質 30
音同款 30
項@@ 30
領荷 30
頭圍 30
題@@ 30
類似 30
風範 30
飄花 30
餅乾模 30
餘 30
馮@@ 30
驛 30
體積 30
高箱 30
高邦 30
高雄青 30
魏 30
魔聲 30
魚鱗 30
鵬 30
鹼 30
鹼性 30
麥克風話 30
麥田 30
黑瑪瑙 30
齒輪 30
龍王 30
龍鳳@@ 30
ˋ 29
➌ 29
➏ 29
で 29
セ 29
一對價 29
一拳 29
一歲 29
一郎 29
三雙 29
上學 29
下午 29
不散 29
不沾@@ 29
中长款 29
主婦 29
主線 29
主義@@ 29
之眼 29
乳貼 29
乾衣 29
二件套 29
五號 29
亮亮 29
人型 29
今 29
仙鶴 29
代幣 29
伊人 29
伊曼 29
伴手 29
佐料 29
佐藤 29
佛燈 29
供電 29
保密 29
保鮮罐 29
修容刷 29
假餌 29
側裙 29
優惠免 29
光唇 29
光罩 29
兒童長 29
兩人 29
八色 29
公母 29
公爵 29
六入 29
六合一 29
六孔 29
六斗 29
六面 29
共和 29
再見 29
冰底 29
分體式 29
利率 29
前實 29
前戲 29
剖腹 29
剝線 29
包學院 29
包經典 29
包軟 29
十五 29
占 29
即發 29
发@@ 29
口香糖 29
古個 29
古包 29
古厚底 29
古墨鏡 29
古潮 29
可宅 29
可愛兔 29
可愛手 29
可愛日系 29
吟 29
吮吸 29
命理 29
哪 29
商標 29
喊 29
喜慶@@ 29
喜鵲 29
喝@@ 29
單貨 29
嘉義@@ 29
四步 29
四軸 29
圓圓 29
坐墊@@ 29
培羅娜 29
基金 29
壓頭 29
多肉@@ 29
大三 29
大仙 29
大明 29
大衛 29
太樂芬 29
夾趾 29
奇譚 29
套裙 29
女套 29
女小胸 29
女斜 29
媒 29
孔器 29
學習機 29
客制化 29
家宅 29
家私 29
寂寞 29
寧靜 29
寶來 29
小卡組 29
小腳長 29
小艾 29
小蜜 29
小衣 29
小貝 29
小賣 29
尺床 29
尼爾 29
岡 29
峇 29
崩壞 29
布褲 29
幫助 29
年秋冬 29
幹花 29
幼幼 29
幽默 29
床邊櫃 29
廣角鏡 29
廳櫃 29
式側 29
彈弓 29
心意 29
性長 29
戈雅 29
戚風 29
房門 29
所以 29
手壓式 29
手腳 29
扎頭 29
找@@ 29
抗壓 29
护@@ 29
招人緣 29
拳@@ 29
拳擊@@ 29
搜@@ 29
收到 29
收纳盒 29
斤@@ 29
新材質 29
新裝 29
斷貨款 29
日份 29
明火 29
時計 29
晨露 29
晴光 29
晶采 29
更衣室 29
書報 29
李敏 29
李董 29
東南亞 29
東風 29
林森 29
果脯 29
桌北歐 29
梧桐 29
棉絨 29
椅會議 29
楚@@ 29
機濾網 29
機鏡 29
歐實木 29
歐尼 29
歐式@@ 29
止滑@@ 29
殺肉 29
殺蟲劑 29
殿下 29
每盒 29
比高 29
氣囊防 29
水汽 29
水車 29
汽车 29
沙丁魚 29
泡椒 29
泡腳桶 29
泰勒 29
津@@ 29
洽談桌 29
浦 29
消暑 29
清潔機 29
潔牙@@ 29
潮男@@ 29
澀 29
烙餅 29
無卡 29
無線@@ 29
無頭 29
煞@@ 29
營養@@ 29
爭 29
牌子 29
牙粉 29
牛皮鞋 29
特別款 29
牽@@ 29
猫咪 29
珊@@ 29
球棒 29
琳娜 29
男裝長 29
男透氣 29
畫眉 29
異聞錄 29
發陽 29
白巧克力 29
白米 29
百搭小 29
百獸 29
皮带 29
監獄 29
盤香 29
盾@@ 29
睫@@ 29
石黑 29
碎石 29
碟剎 29
碩@@ 29
碼洋裝 29
礦燈 29
窗桌 29
童女 29
童装 29
等等 29
箱購 29
節送 29
精裝本 29
精选 29
紋防 29
純素 29
純金@@ 29
索爾 29
結洋裝 29
網紅抖 29
網紅潮 29
綾@@ 29
線長 29
繁@@ 29
繁星 29
绒 29
缺貨中 29
置物@@ 29
美包 29
美國購 29
翹@@ 29
翻蓋鏈 29
老大 29
而已 29
耳套 29
肉感 29
肥大 29
脖圈 29
臉款 29
臉譜 29
臨摹 29
自助餐 29
自衛 29
至@@ 29
興興代購 29
舉@@ 29
舒柔 29
艾多 29
花盒 29
花禮 29
花種 29
花鳥 29
苔 29
若素家 29
茶養 29
茶香 29
華歌爾 29
萌物 29
萬用袋 29
葛根 29
蒸飯 29
蓬@@ 29
薩克 29
藥師 29
號線 29
蚊蟲 29
蛋面 29
螢光@@ 29
螺帽 29
衣間 29
衫@@ 29
裙款 29
補漆 29
裝兒 29
裝禮盒 29
裡面 29
褲子潮 29
褲彈力 29
褲直 29
褲速 29
褲高腰 29
西門 29
觀世音 29
觀光 29
誤@@ 29
調理@@ 29
護士服 29
護肘 29
變態 29
豆機 29
豆芽 29
豹紋@@ 29
貓樹 29
超強力 29
超薄型 29
超靜 29
跑@@ 29
身褲 29
車床 29
車輛 29
輕款 29
轉蛋屋 29
辮 29
農藥 29
逐@@ 29
連網 29
運動戶 29
運動會 29
達人館 29
醉@@ 29
金情侶 29
釣竿@@ 29
釦子 29
銀珠 29
鋼杯 29
鋼索 29
錢箱 29
錨 29
門口@@ 29
門後@@ 29
開光@@ 29
開窗 29
開箱 29
關公@@ 29
關於 29
防銹 29
阿迪@@ 29
雀@@ 29
雅詩蘭黛@@ 29
集夢 29
雜貨@@ 29
雨刷@@ 29
電商 29
電火鍋 29
震撼 29
露天 29
青檸 29
面單 29
面額 29
韓國版 29
韓妮 29
韓連線 29
頂級@@ 29
頭組 29
顧@@ 29
風搖滾 29
風鈴@@ 29
飞@@ 29
餌料 29
香奈儿 29
馬克 29
駿@@ 29
體聲 29
高幫板 29
魚桿 29
魚鱗@@ 29
黄 29
黑紅色 29
鼻貼 29
龍紋 29
す 28
や 28
ケ 28
ワ 28
一價 28
三只 28
三張 28
三排 28
三聯@@ 28
上冊 28
上誼 28
两件套 28
中統 28
中英 28
中部 28
之間 28
二維碼 28
五角 28
交錯 28
伸@@ 28
促銷款 28
保健食品 28
保水 28
保養油 28
修服 28
假山 28
儀表板 28
億家達 28
優勝 28
優惠出 28
優惠卷 28
克裝 28
免運現 28
兔代購 28
內用 28
六種 28
共有 28
其它 28
再現 28
冰格 28
冷兵器 28
冷凍@@ 28
冷凍櫃 28
冷藏箱 28
凱文克萊 28
初學@@ 28
初榨 28
刪減 28
前擋 28
劃線 28
劉海假 28
劉海夾 28
助眠 28
努@@ 28
包掛 28
包車 28
包送 28
千元 28
半全 28
印花布 28
印記 28
卵石 28
卷尺 28
卸除 28
卿 28
反絨 28
古雙 28
古馳@@ 28
可分 28
可愛長 28
各色 28
同款@@ 28
哄娃 28
商務辦 28
啟蒙@@ 28
單罐 28
嘎@@ 28
噴水壺 28
國風 28
地帶 28
坂 28
坐地 28
報童 28
報表 28
堵 28
塢 28
壇 28
壓接 28
外型 28
多美 28
多頭 28
大字 28
大樹 28
大特賣 28
大神 28
大肚 28
大補 28
大賞 28
大賽 28
天上 28
天馬 28
夾物 28
夾耳針 28
奔跑 28
套頭長 28
女帽 28
女裝店 28
如假 28
妙蛙 28
妞@@ 28
委 28
婚紗照 28
嬰童 28
孩之寶 28
學生兒 28
學生潮 28
安信 28
安寶 28
安東尼 28
家人 28
寢飾 28
實際 28
寬盒 28
寶寶小 28
寶寶的 28
寶寶腳 28
寶島 28
寶貝卡 28
寶貝鋪 28
專注力 28
尋找 28
小巷 28
小度 28
小粉 28
小褲 28
小韻 28
小黃@@ 28
工匠 28
巴斯夫 28
带@@ 28
帶涼鞋 28
平方 28
平盤 28
幸@@ 28
幾米 28
座機 28
廣告@@ 28
廣角@@ 28
彈片 28
彌@@ 28
彎曲 28
彩球 28
微透 28
快捷 28
性能 28
愛國者 28
愛迪達@@ 28
愛閃耀 28
慢@@ 28
戈 28
戴爾@@ 28
手中 28
手推式 28
手洗 28
托鞋 28
扣側 28
扣長 28
投籃 28
披@@ 28
披薩@@ 28
拉克 28
拍圖 28
拯救 28
挂衣架 28
指緣 28
振 28
掛墜 28
接地 28
揉面 28
提高 28
插手 28
插板 28
摔紋 28
擺放 28
收納套 28
收納置物 28
攻 28
效應 28
數學@@ 28
料號 28
旅遊鞋 28
旋轉式 28
旗下 28
時代@@ 28
時計屋 28
晶瑩 28
晶體 28
暴 28
書卡 28
曼黛瑪璉 28
會員@@ 28
月桂 28
木心 28
末日 28
机@@ 28
東海 28
東販 28
枕心 28
枕辦 28
林小@@ 28
果園 28
柜衛 28
柜門廳 28
梓 28
棉簽 28
棗紅 28
植物性 28
樣品 28
橫濱 28
檢測儀 28
櫃門 28
款款 28
款流 28
歐美新 28
歸 28
氧氣 28
沙發小戶 28
油彩 28
法則 28
洋蔥 28
洗米 28
浮排 28
浮潛@@ 28
海草 28
海龜 28
深綠 28
混裝 28
添@@ 28
清潔錠 28
港風@@ 28
溝@@ 28
溢 28
滑冰 28
滑劑 28
滑滑車 28
潛水艇 28
炊具 28
烤面包 28
焙 28
煙具 28
煞車拉桿 28
熊電玩 28
熬 28
熱狗 28
燃油 28
燈臥室 28
爆閃 28
爲 28
牙科 28
牙膠 28
牛爾 28
特力屋 28
犄角 28
狀態 28
現代新 28
現代門廳 28
現貨款 28
現貨直 28
瓊@@ 28
瓜果 28
瓶蓋 28
用過 28
當家 28
登高 28
發箍 28
百搭包 28
百日 28
百萬 28
相遇 28
看看 28
短套 28
碎片 28
碳纖@@ 28
碼頭 28
示 28
神腦 28
稀@@ 28
空運@@ 28
空運直 28
穿洞 28
窈窕 28
立鏡 28
第五版 28
第六代 28
筷籠 28
節慶@@ 28
簍@@ 28
簡約掛 28
簽名板 28
粉粉 28
粉紅兔 28
精典 28
精油瓶 28
精華水 28
糯 28
紅酒櫃 28
純水機 28
紙書 28
紫紅色 28
紫金 28
細款 28
終特價 28
給皂機 28
網眼@@ 28
緊器 28
羅盤 28
美劇 28
耐力 28
聰明球 28
聲器 28
背膜 28
脆皮 28
脊 28
脖式 28
腳器 28
臘腸 28
般若 28
花梨 28
茉莉花 28
莉雅 28
莓@@ 28
菜園 28
萊特 28
葡萄糖 28
藍星 28
藍調 28
藍面 28
藤席 28
蘇泊爾 28
蠔式 28
行軍床 28
街五號 28
街頭風 28
衝浪褲 28
衣櫃@@ 28
裂@@ 28
裕隆 28
補水滋潤 28
裝甲 28
裝衛衣 28
襪靴 28
解憂雜 28
觸控式 28
詮國 28
誕生 28
譚@@ 28
議室 28
豌豆 28
豬皮 28
貓耳 28
貝緹 28
貝貝 28
財富 28
販@@ 28
資 28
走線 28
超小@@ 28
超帥 28
超有 28
車行 28
車電動 28
軟陶 28
轉珠 28
轻奢 28
迪賽 28
送掛 28
透視裝 28
連身裝 28
遇 28
遞袋 28
郵筒 28
都@@ 28
鄉@@ 28
配線 28
酷玩街 28
醋瓶 28
采家 28
釋 28
重新 28
野球 28
金典 28
金正 28
釣椅 28
鎖邊 28
鐵床 28
鑄 28
鑑 28
閒板 28
防塵布 28
防爆膜 28
防皺 28
阿亮 28
阿信 28
院@@ 28
陰陽@@ 28
雅閣 28
雙管 28
雜志架 28
雞翅木 28
雷標 28
電吹風機 28
電源@@ 28
電磨 28
露腰 28
青草 28
靠得住 28
韓系飾品 28
領袖 28
頭模 28
顏油 28
風吟 28
飛旋 28
飾邊 28
養顏 28
饅 28
馬丁 28
高分 28
高彈性 28
高爾夫@@ 28
高階@@ 28
鬼王 28
魅影 28
魏無羨 28
鯊@@ 28
鴨舌 28
麥法蘭 28
黑彩 28
黑莓 28
龕 28
て 27
一尺 27
一抹 27
一武道 27
一物 27
一見 27
七匹狼 27
万@@ 27
三千 27
上帝 27
不修邊 27
世勳 27
中大 27
中樣 27
中華民國 27
中邦 27
主機@@ 27
之歌 27
予 27
京甫 27
仙杜 27
代理商 27
代表 27
佛朗基 27
保濕防 27
保齡 27
俞@@ 27
做飯 27
健步 27
側標 27
側肩 27
偷 27
偽裝 27
傑尼龜 27
備用 27
傷口 27
優惠特價 27
優油 27
元件 27
元出 27
光大 27
克萊@@ 27
克雅 27
免脫 27
內裝飾 27
全包式 27
全頻 27
兩段 27
冰櫃 27
出入 27
切換 27
初見 27
刺繡款 27
刺繡蕾絲 27
剪子 27
加厚型 27
助手 27
動漫迷 27
動腦 27
包多 27
化妝袋 27
北歐實 27
區免 27
半拉 27
半裙 27
卓越 27
危險 27
反射 27
反應 27
反轉 27
古個性 27
古皮 27
台灣檜 27
吉娃娃 27
名著 27
吐血 27
吸油 27
呆呆 27
咖波 27
品质 27
唇萃 27
啞鈴凳 27
單瓶 27
喰 27
嘍 27
四大 27
土星 27
坽 27
報告 27
堵@@ 27
塑膠杯 27
塚 27
墜感 27
壓力鍋 27
大圓@@ 27
大富翁 27
大紅袍 27
大長 27
大鼻子 27
太妃糖 27
夯@@ 27
夾卡 27
奇葩 27
女傭 27
女大碼 27
女夾 27
女嬰 27
女日 27
女飾品 27
好萊塢 27
妏 27
妮維雅 27
妻善 27
姍姍 27
威威 27
威康 27
婆 27
學生長 27
守護者 27
安麗 27
宙斯 27
客定 27
家俱 27
家教 27
密胺 27
密語 27
實戰@@ 27
實木掛 27
實木換 27
寶寶帽 27
小咪 27
小將 27
小恐龍 27
小愛@@ 27
小版 27
小雪 27
小黃瓜 27
小龍 27
層層 27
山椒 27
巴克 27
布魯斯 27
帥哥 27
帶雪紡 27
帶飯 27
幅@@ 27
年春夏 27
廠家現 27
延遲 27
建構 27
弧焊 27
強度 27
強悍 27
彪馬@@ 27
循 27
德國百靈 27
必備品 27
快門線 27
性車 27
恕 27
惑 27
惹火 27
愛美 27
愛麗@@ 27
懶人休 27
戲片 27
手指套 27
打洞 27
扶梯 27
折出 27
抽風機 27
拉桿車 27
拉環 27
拉筋 27
拉面 27
拍手 27
拍打 27
拼板 27
持@@ 27
挂@@ 27
挺@@ 27
捌 27
掃描 27
排鉤 27
探測 27
推推 27
搖籃椅 27
搖臂 27
擦鞋 27
擱@@ 27
擼 27
教條 27
敲@@ 27
文明 27
斐樂@@ 27
新瑞興 27
日子 27
日間 27
昆@@ 27
昭彰 27
時光@@ 27
暖光 27
曉曉 27
書出 27
書盒 27
有實 27
有盒 27
服務@@ 27
服禪 27
服裙 27
服連 27
木馬人 27
朱 27
李澤言 27
板壁 27
果酸 27
染眉膏 27
柔情 27
柚 27
栗 27
桂圓 27
條凳 27
梨@@ 27
棉大碼 27
棉帽 27
棉條 27
棗丫買 27
森田藥 27
楠楠 27
極限@@ 27
榨 27
樹屋 27
機構 27
機無線 27
機票 27
橫線 27
檔板 27
欧式 27
款大碼 27
款耳環 27
歐實 27
歐床 27
歐意 27
歐蕾 27
歐雅 27
歡季 27
正原廠 27
武裝 27
殘@@ 27
毛氈 27
氣功 27
氣百搭 27
水凝露 27
水球 27
水過 27
汎 27
沐沐屋 27
油面 27
泛 27
泛@@ 27
洗發 27
洗顏粉 27
海姆 27
液化 27
涼風扇 27
深紫色 27
渡邊 27
溫泉@@ 27
演講 27
澄 27
濾水 27
無接 27
煙缸 27
熱氣球 27
燈過 27
爬@@ 27
爱@@ 27
父 27
爽身 27
牛頭牌 27
特別彈 27
王一博 27
王女 27
王妃 27
玻璃窗 27
現代實 27
現代間 27
現拍 27
瑤 27
甜橙 27
甩干 27
男商務 27
異想 27
症 27
發膏 27
白泥 27
白玫瑰 27
白蘭氏 27
白點 27
百折 27
百貨館 27
百货店 27
皮長 27
皮雕 27
盤式 27
直尺 27
睫 27
短發 27
短衛褲 27
碳纖紋 27
確@@ 27
磨頭 27
社長 27
祖 27
票卡 27
福壽 27
秀氣 27
秀美 27
稅@@ 27
稱體 27
窗簾桿 27
第四季 27
筆刷 27
筋@@ 27
精華素 27
紅薯 27
紙鈔 27
紡連 27
細針 27
終身 27
組合裝 27
經銷 27
網片 27
網紗裙 27
綿羊 27
繞@@ 27
纸@@ 27
罪 27
羊角 27
美国 27
美心 27
翡@@ 27
老牌 27
耍 27
耐打 27
耐酸 27
耳耳環 27
耳鉤 27
联名 27
聖誕帽 27
聚點 27
職員辦 27
胃 27
背貼 27
臉盆@@ 27
臥房 27
艦@@ 27
色入 27
色男 27
艾米麗 27
芯片 27
花果茶 27
花洋裝 27
范特西 27
茶桶 27
茶藝 27
荒@@ 27
莉亞 27
菇菇 27
萊姆 27
萌萌@@ 27
葡@@ 27
蒙娜麗莎 27
蒸格 27
薄棉 27
蘋果@@ 27
蘿拉蜜思 27
處女 27
號小鋪 27
號色 27
蝙蝠衫 27
融 27
蠅 27
行包 27
街頭@@ 27
衣包 27
衬衫 27
袖休 27
袖條 27
裁判 27
裙女 27
補色 27
裝機 27
覆@@ 27
角架 27
許路兒 27
認 27
謙 27
譯@@ 27
護踝 27
讀好 27
讀書花園 27
豐原 27
豬頭 27
貓草 27
貞德 27
財運 27
貼合 27
資料櫃 27
賜 27
購物@@ 27
購網 27
贈小禮品 27
超七 27
超緊 27
跳舞毯 27
身手 27
車布 27
車機 27
車漆 27
車用@@ 27
軸心 27
輕人 27
輕透 27
輕食 27
輸 27
辨識 27
農莊 27
送書套 27
透明化 27
透氣款 27
運用 27
過期 27
達特 27
邊柱 27
酷炫@@ 27
醫美 27
野餐盒 27
金曲 27
金管 27
鈑 27
銀布 27
銀管 27
銅鍍 27
鋒利 27
鎖具 27
鎖心 27
鎳 27
钱 27
镜 27
開孔 27
開放 27
開門@@ 27
阿爾 27
附禮盒 27
雅琳 27
集美 27
雙料 27
雞尾 27
離器 27
雷克薩斯 27
電充 27
電腦筆 27
靠@@ 27
鞋頭 27
韓版氣 27
韓版洋氣 27
頂級款 27
領花 27
顧 27
風化妝 27
風炮 27
風連 27
飛鼠 27
食碗 27
餃 27
養樂多 27
餐館 27
馬拉松 27
驅動 27
鬧鈴 27
魅族 27
魚尾@@ 27
鯛 27
鳄 27
鳶 27
鴿@@ 27
鹽罐 27
麥當 27
黎明 27
黑字 27
黑條 27
黑盒 27
龍眼 27
龍門 27
ψ 26
➎ 26
ビ 26
一哥 26
一店 26
一族 26
一碼 26
三倍 26
三軸 26
三面 26
不吃 26
中分 26
中油 26
之情 26
之神 26
九代 26
书 26
事件 26
二個 26
亞風 26
仙草 26
仙貝 26
令牌 26
仲@@ 26
件裝 26
伊姆斯 26
低幫@@ 26
佐羅 26
余 26
來店 26
便利商店 26
便袋 26
俐 26
保證@@ 26
保養組 26
信仰 26
修補膏 26
倉儲 26
倪@@ 26
側掛 26
僅限 26
元旦 26
充電倉 26
兔家電 26
入禮盒 26
全功能 26
全覆蓋 26
兩包 26
兩組 26
八心 26
六邊 26
共生 26
冬日 26
冰透 26
冷感 26
刮水器 26
到底 26
制定 26
前土除 26
前輪 26
割愛 26
勇氣 26
勳章 26
包防 26
化油器 26
北意 26
北斗 26
卉 26
半杯 26
半簾@@ 26
協@@ 26
協會 26
南小鳥 26
博基尼 26
卡詩 26
反派 26
古學院 26
叭 26
可供 26
可愛個 26
可愛創 26
台中市 26
史蒂芬 26
各大 26
名鑑 26
后座 26
咒@@ 26
品高 26
喚醒 26
喜樂居 26
喬伊絲 26
單肩@@ 26
回購 26
土豆泥 26
地下 26
地下室 26
地墊@@ 26
壇子 26
外六角 26
外文 26
大哥 26
大姨 26
大耳環 26
大聲 26
大野 26
奥@@ 26
女星 26
女衣 26
女裝長 26
好書 26
姊 26
威尼斯 26
嬰兒學 26
孑 26
學生款 26
安祺兒 26
完工 26
定妝粉 26
客滿來 26
室内 26
實木書桌 26
實木辦 26
寬松百 26
寶寶連 26
寶工 26
寶瓶 26
寶藍@@ 26
寸衫 26
專業版 26
專為 26
尊貴 26
導演 26
小口袋 26
小澤 26
小盒子 26
小盤 26
小菜 26
小萱 26
小鍋 26
小阿呆 26
小雛菊@@ 26
小黃人 26
尖叫 26
尚購 26
就@@ 26
尺子 26
屋貓 26
展柜 26
山姆 26
崖柏 26
工裝@@ 26
左邊 26
巨型 26
巫@@ 26
己 26
布沙 26
布質 26
布魯克 26
布魯克林 26
帆布背包 26
帶型 26
帶蕾絲 26
帽戶 26
帽沿 26
幡 26
幫運動 26
年糕 26
幾凳 26
幾北 26
店禮 26
座式 26
廂@@ 26
廖 26
廢 26
廣袖 26
弄 26
張藝興 26
強磁 26
待@@ 26
心購 26
必讀 26
思議 26
性情 26
性愛@@ 26
恆久 26
悠活 26
情趣内衣 26
惡名 26
愛心款 26
愛購物 26
愛麗 26
戲書 26
手拉@@ 26
手銬 26
批發館 26
技能 26
抓樂霸 26
拉車 26
拍視頻 26
招考 26
拳皇 26
拾音器 26
排檔 26
掛式免 26
掛扣 26
插孔 26
插電式 26
揪 26
搗蒜器 26
擠壓 26
支長 26
收納框 26
故 26
散件 26
整合 26
新制 26
新甲蟲 26
新限時 26
日常生活 26
旼 26
星塵 26
星河 26
晉@@ 26
晶洞 26
暑假 26
暮光 26
曙光 26
書齋 26
有人 26
杉@@ 26
東方@@ 26
架式 26
架貓 26
柑@@ 26
柯比 26
桂冠 26
桔紅 26
梔子 26
楔形 26
樂纖 26
樣板間 26
樱花 26
機兒童 26
橡膠@@ 26
檀@@ 26
欧@@ 26
歌劇 26
歐陽 26
每組 26
水溫 26
江南 26
江湖 26
江詩丹頓 26
決@@ 26
河畔 26
油膜 26
油蠟 26
沾@@ 26
泡泡糖 26
泥膜 26
泰利斯 26
洗淨 26
洗衣盆 26
流光 26
海桿 26
深型 26
添興 26
清單 26
清洗器 26
減脂 26
源頭 26
溶@@ 26
滑面 26
滾珠瓶 26
潛水衣 26
澎澎 26
濾水壺 26
灌 26
灌溉 26
灯@@ 26
灰指甲 26
灰白色 26
烤模 26
烤爐 26
烽火 26
無膠 26
無車 26
煙花 26
煮@@ 26
熱式 26
燈王 26
燕尾 26
燕麥@@ 26
爆擊 26
爪子 26
牙齦 26
特卡 26
特油 26
狗籠 26
獎杯 26
玉佩 26
玲兒 26
珀 26
現代布 26
現代風 26
現貨中 26
現貨批 26
瑕疵品 26
瑪莉貓 26
甘蔗 26
用學生 26
用油 26
田中 26
电脑 26
男戶 26
異端 26
痕修 26
瘋馬皮 26
發型師 26
發夾@@ 26
發簪 26
發茶 26
白牙 26
白茶 26
百搭防 26
皮團購 26
盆衛 26
盆貓 26
盒套 26
盛香珍 26
盡@@ 26
監@@ 26
盤香爐 26
直刀 26
相架 26
相紙 26
真花 26
眼圈 26
眼彩盤 26
瞳 26
石畫 26
码 26
破解 26
磅秤 26
票券 26
祺 26
稅 26
穿孔 26
童學 26
童寶寶@@ 26
童款 26
符合 26
筆刀 26
筍 26
筷@@ 26
節省 26
簡約手 26
簸箕 26
米勒 26
米線 26
粗線 26
紅藍@@ 26
紅軸 26
紅黃 26
純水 26
純銀材質 26
細版 26
細長 26
結石 26
絡 26
絲圈 26
絲衫 26
經典長 26
網架 26
總共 26
續@@ 26
置@@ 26
美術@@ 26
耕@@ 26
耳環耳 26
職業裝 26
肉球 26
肥胖 26
脫水機 26
腊 26
膝長 26
膠槍 26
膩 26
臟@@ 26
自封袋 26
自行车 26
臭味 26
航海 26
艾斯@@ 26
花火 26
花精 26
芸@@ 26
苗栗 26
苦瓜 26
茉@@ 26
荷蘭@@ 26
華納 26
萊卡@@ 26
萌系 26
葡萄乾 26
蕭 26
藝床 26
藥品 26
蘆薈@@ 26
蘇格蘭 26
虎紋 26
虧 26
蛇形 26
蝦標 26
蝸牛@@ 26
螺栓 26
螺紋@@ 26
衛生@@ 26
衣閣 26
补水 26
袖蕾絲 26
裝男 26
褲百搭 26
褲短 26
襯衫式 26
西式 26
觸@@ 26
計學 26
諮 26
護墊 26
讀卡器 26
變速箱 26
豚 26
豬八 26
貨櫃 26
賦@@ 26
質地 26
質美輕 26
起亞 26
蹄@@ 26
車服 26
車護 26
軍團 26
軟彈 26
軟木@@ 26
軟面 26
輕便@@ 26
輕盈@@ 26
輕薄款 26
輝柏 26
輸@@ 26
轉生 26
软 26
送人 26
速騰 26
進階 26
進階@@ 26
遞@@ 26
遠距 26
選手 26
遺@@ 26
邊長 26
酥脆 26
酷企鵝 26
重秤 26
金龍 26
鈴鐺@@ 26
錢袋 26
錯@@ 26
鍋子 26
鏈袋 26
鏟@@ 26
鏡箱 26
鑽款 26
門碗 26
閉口 26
開衫@@ 26
閒套 26
閥門 26
防凍 26
防蚊門 26
阿瑪 26
阿迪达斯 26
附電池 26
除霧 26
陶藝 26
隔離@@ 26
雅頓 26
雜物@@ 26
雞湯 26
雲豹 26
電容式 26
電焊機 26
電磁@@ 26
電表 26
電貝斯 26
電陶爐 26
電電池 26
靜物 26
面碗 26
鞋跟 26
韋德 26
韓熱賣 26
韓飾品 26
頂天 26
預付 26
顆裝 26
風光 26
風床 26
飛利浦@@ 26
飽滿 26
飽腹 26
餅干 26
餐廚 26
香火 26
香片 26
香粉 26
香脆 26
驚魂 26
骨折 26
體式 26
體服 26
高大 26
鬼火 26
鬼精 26
鴿 26
黒 26
龐克@@ 26
ʟ 25
ᴛ 25
じ 25
ふ 25
ㄆ 25
一小 25
一身 25
一輯 25
七七 25
七種 25
三瓶 25
不求人 25
不透光 25
不過 25
中考 25
么 25
乳夾 25
乳酸 25
五大 25
五版 25
亮晶晶 25
亮澤@@ 25
优品 25
低卡 25
作品集 25
俄羅斯方塊 25
保修 25
保養液 25
信用 25
修眉 25
倆 25
倒數 25
倒模 25
假毛 25
偏財 25
健力 25
偵測器 25
優純 25
充电 25
光感@@ 25
光波 25
光電 25
全包手 25
全蝦 25
兩支 25
八箭 25
公職 25
六金 25
冥想 25
冰山 25
冰鎮 25
凳長 25
出領 25
分邦 25
分配器 25
刻印 25
劇院 25
加倍 25
包古馳 25
包收納包 25
包男 25
十色 25
十週 25
半導體 25
半成品 25
卡組 25
即將 25
古錢 25
可愛動 25
可愛粉 25
可批 25
可通話 25
史丹利 25
史迪仔 25
吊環 25
吊襪 25
同心 25
吞@@ 25
含水 25
吸油紙 25
味精 25
和田 25
哥特 25
唐嫣 25
商务 25
問有 25
問號 25
單獨 25
噴式 25
四張 25
國民 25
地藏王 25
均@@ 25
坎@@ 25
型掛 25
場刊 25
境界 25
增訂 25
夏薄款 25
外沙 25
夢思 25
大學帽 25
大張 25
大片 25
大表盤 25
大鏡子 25
天花 25
失 25
夾短 25
奧迪@@ 25
奧運@@ 25
女伶 25
女夏時 25
女大 25
女孩子 25
女洋氣 25
女裝潮 25
奶油色 25
好喝 25
妙妙貓 25
姿勢 25
婚戒 25
婚禮洋裝 25
媒@@ 25
字褲 25
字領 25
學生板 25
安利 25
安居 25
實木小 25
實木沙發 25
寮 25
寶寶長 25
小方@@ 25
小松 25
小格 25
小脚 25
小資女 25
小鋼炮 25
小鬧鐘 25
尖頭@@ 25
尚商務 25
就要 25
局部 25
山形 25
山野 25
峻 25
崑 25
工業@@ 25
希爾頓 25
幣@@ 25
幻境 25
幾布 25
床床 25
床邊毯 25
彈跳 25
彩光 25
彩圖 25
彩帶 25
微景 25
微縮 25
怡麗絲爾 25
怪手 25
恰@@ 25
恰恰 25
悅詩 25
愛美@@ 25
感超 25
手勢 25
手卷 25
扭傷 25
扭曲 25
批发 25
投竿 25
抖抖 25
抽氣 25
指紋鎖 25
捂 25
捆@@ 25
掃帚 25
排水口 25
排輪 25
掛帶 25
推剪 25
插頁 25
換氣 25
搟 25
摩擦 25
撐子 25
擇 25
攪@@ 25
收納椅 25
收邊 25
收銀台 25
文學@@ 25
斐@@ 25
新升級 25
新番 25
新聞 25
日巡 25
时@@ 25
星海 25
暢銷款 25
曉 25
書衣 25
會員卡 25
有些 25
服飾店 25
木屋 25
木桿 25
木頭@@ 25
本命 25
李聖經 25
杜蕾斯 25
林書豪 25
林氏 25
果仁 25
果木 25
果油 25
果糖 25
株式会社 25
桌可 25
桐木 25
梅開 25
條起 25
棉純 25
棉絮 25
棉透氣 25
極美 25
機盒 25
櫃邊 25
款冬 25
款蕾絲 25
款選 25
歐美個 25
正日版 25
正義 25
步步高 25
歸來 25
水悅 25
水酷 25
水龜 25
汀@@ 25
汗@@ 25
污垢 25
汽缸 25
沁涼 25
泊 25
泥面膜 25
洗卸@@ 25
浮板 25
海岸 25
消毒液 25
淘米 25
淚@@ 25
渡@@ 25
湊@@ 25
湯桶 25
溫室 25
滑軌 25
滴劑 25
漁 25
漫朵 25
漫游 25
澳 25
澳門 25
濃厚 25
濃縮@@ 25
濱 25
瀨 25
灣出貨 25
烈焰 25
烏魚子 25
焗油 25
煉@@ 25
煙嘴 25
熙@@ 25
燒壺 25
燒鍋 25
燭光 25
爐燒 25
爛@@ 25
牆飾 25
牙缸 25
牧馬人 25
特賣@@ 25
犀利 25
獺 25
玲@@ 25
珞 25
現代寫 25
現代長 25
現貨大 25
琦琦代購 25
瑛 25
瑟@@ 25
瑤瑤代購 25
瓦奇菲爾德 25
甕 25
甘丫店 25
生死 25
田徑 25
男低 25
男個 25
男百搭 25
畫餐 25
當下 25
登堡 25
發亮 25
發光鞋 25
發動 25
發卡@@ 25
白兔 25
白棋 25
白水 25
百事 25
百搭連 25
百草 25
的貓 25
皆宜 25
皮裙 25
盆器 25
盛夏 25
盲@@ 25
直板 25
真發 25
眨眼 25
眼石 25
眾星雲集 25
矯正@@ 25
社區 25
福岡 25
禮贈品 25
租@@ 25
稱重 25
穿線 25
童書架 25
第一次 25
筆筆 25
筏 25
管器 25
簡潔@@ 25
粉綠 25
粵語 25
糞 25
紅白@@ 25
紋側 25
純銀耳釘 25
紗門 25
紙品 25
紙雕 25
紡紗 25
紳士帽 25
組合衛 25
組套 25
絞肉 25
統計 25
絲花 25
絲雪紡 25
維達 25
網兜 25
網紅輕 25
練習生 25
繩手 25
羊絨衫 25
美化 25
美娜 25
美時 25
美產 25
美男 25
美瞳 25
美華 25
翁@@ 25
翠絲 25
老王 25
耳環女 25
耳钉 25
耳骨夾 25
聊天 25
聲寶@@ 25
肉包 25
肉棒 25
肥瘦 25
肩連 25
胜 25
脫落 25
腎 25
腰带 25
臀洋 25
臀褲 25
臥香 25
舉重 25
舊時光 25
舌頭 25
舒特膚 25
舒適@@ 25
舞板 25
航架 25
艾莉 25
花兒 25
花溪 25
萬寶優品 25
落水 25
葳 25
蒲@@ 25
蓋式 25
藍色長 25
藝門簾 25
藥用 25
蛙式 25
螢光粉 25
螨蟲 25
蠟繩 25
蠶@@ 25
行程 25
衣潮 25
袖衫 25
袖顯 25
補土 25
裝初 25
裝袋 25
裝裱 25
裝飾布 25
裸妝@@ 25
褲夾 25
襪子@@ 25
襯衣潮 25
角鋼 25
解密 25
計量 25
詠@@ 25
誕 25
說話 25
論@@ 25
講課 25
證照 25
護唇 25
變器 25
设计 25
豬巴革 25
豬豬家 25
貝蒂 25
貝蕾帽 25
財源 25
貨幣 25
貨現 25
貸款 25
費雪@@ 25
質洋裝 25
贏 25
走秀@@ 25
起源 25
超優 25
超新 25
超精 25
超自然 25
超輕盈 25
路易斯 25
車專用 25
車載@@ 25
車鏡 25
軟木 25
軟萌 25
輪車 25
輪轂 25
轉筆 25
轉角架 25
车@@ 25
轮 25
辛 25
还 25
迷情 25
通風扇 25
運動護具 25
過季 25
遮陽棚 25
還愛 25
酋雷姆 25
醜比頭 25
醯 25
金殼 25
金牛座 25
金碩珍 25
金金 25
金額 25
釘書機 25
銀戒 25
銅色 25
銑 25
錘@@ 25
鎖鏈 25
钻 25
門擋 25
門欄 25
開啟 25
關公 25
防割 25
防禦 25
防蚊蟲 25
防衛 25
附原 25
除溼 25
陶土 25
隕石 25
隨書 25
雙人牌 25
雙勾 25
雙筒望 25
雙翹板 25
雙蓋 25
電水壺 25
電池式 25
電炸爐 25
電玩@@ 25
電話線 25
霉@@ 25
露肚 25
靈性 25
靈感 25
青菜 25
青金石 25
青雉 25
面裝飾品 25
革 25
韓漾 25
韓耳環 25
韓長 25
領排 25
領百搭 25
領衫 25
頭包 25
頭頂 25
頻線 25
顯瘦款 25
風單 25
風純色 25
飛鼠袖 25
食盆 25
香座 25
香茅 25
香菸 25
體質 25
高橋盾 25
高級@@ 25
高雄市 25
鬥士 25
鬥牛犬 25
鬥陣 25
鬼屋 25
魚兒 25
魚尾洋裝 25
鮑@@ 25
鹽味 25
麥克筆 25
黑銀@@ 25
黛妃 25
點讀 25
N 24
❶ 24
➒ 24
そ 24
パ 24
モ 24
一機 24
一粒 24
一體@@ 24
七武海 24
三號 24
三顆 24
三點 24
下冊 24
下鋪 24
不死 24
丫丫 24
主編 24
主角 24
乐@@ 24
乙女 24
九尾 24
九牧王 24
乳膏 24
二哥 24
二店 24
五千元 24
亞培 24
亦@@ 24
人座 24
人心 24
人沙 24
人鞋 24
介意 24
仟 24
会 24
伸縮式 24
伺服器 24
位數 24
低糖 24
佩佩 24
使@@ 24
俄羅斯@@ 24
俊雅 24
俏麗@@ 24
保護劑 24
修臉 24
倒三角 24
倾心 24
健達 24
傘防 24
催情 24
優哈 24
元山 24
充電手 24
充頭 24
光學@@ 24
光頭 24
免煮 24
免運開 24
兒寶寶 24
兒童房 24
兔八哥 24
入浴劑 24
入荷 24
入門款 24
內膽包 24
內車 24
全年 24
全效@@ 24
公制 24
公頭 24
六芒 24
兵馬俑 24
典禮 24
冉 24
冰上 24
冰川 24
冰棍 24
冰沙機 24
冰火 24
冰球 24
冷專 24
冷敷 24
冷風 24
凋 24
凜@@ 24
分裝@@ 24
切換器 24
刨絲器 24
前下 24
前保桿 24
前扣 24
剩下 24
力保 24
加裝 24
千趣 24
半磅 24
半透 24
卜@@ 24
卡司 24
卫生间 24
即插即用 24
古圓 24
古拉 24
古曼麗 24
古氣 24
古英倫風 24
古金 24
古馳雙 24
可愛車 24
可愛韓版 24
可拍照 24
吃喝 24
合機 24
吊带 24
吊蘭 24
同時 24
吸入式 24
吸嘴 24
吸式 24
吸鼻器 24
周刊 24
呼啦圈 24
咖旗 24
哈瓦仕 24
商務單 24
啞@@ 24
喬丹@@ 24
單價 24
單冷@@ 24
單椅 24
單穿 24
單組 24
嘰 24
噹 24
嚮 24
四期 24
固全 24
國家隊 24
園寶寶 24
圓滿 24
墊布 24
壓蒜器 24
夏秋季 24
外放 24
外貌 24
多格@@ 24
多芬 24
大便 24
大口徑 24
大帝 24
大狗 24
大瓶 24
大腸 24
大道 24
大面積 24
大頭@@ 24
天神 24
天絲@@ 24
夾卡夾 24
夾多 24
女裙 24
妝桌 24
嫻 24
嬉皮 24
字長 24
孤兒 24
安卓手 24
家電@@ 24
密封圈 24
寢 24
實力 24
實拍現 24
實踐 24
寧寧 24
寵物店 24
寵物籠 24
專人 24
專用機 24
尋 24
小格子 24
小狐 24
小賣場 24
尖頭細 24
尾門 24
展鷹 24
工兵 24
布魯托 24
幹濕 24
幾何@@ 24
床兒 24
店洋裝 24
強勁 24
強磁@@ 24
彈蓋 24
彩旗 24
徐 24
心房 24
悠然 24
惟@@ 24
愛子 24
態 24
態度 24
戟 24
戰艦 24
戲劇 24
戳 24
手链 24
打獵 24
扣褲 24
扭轉 24
把握 24
披 24
拉美 24
拱門 24
拼圖@@ 24
拼裝@@ 24
挪車 24
挽回 24
掀保護套 24
掀蓋@@ 24
掛機 24
掛簾@@ 24
控飛機 24
提示牌 24
換貨 24
摩艾 24
撲克 24
擀 24
擬 24
擺長 24
收納桌 24
攻隊 24
整盒 24
文庫 24
文教 24
新奇特 24
新貨到 24
旁@@ 24
日本狗 24
日系潮 24
旭硝子 24
星戰 24
晾@@ 24
暖心 24
暫@@ 24
暫售 24
最小 24
服貼 24
木板床 24
朴志訓 24
李易峰 24
杯杯 24
東雨 24
林內 24
柔潤 24
柜門口 24
栽培 24
條案 24
棉連帽 24
森永 24
椅墊@@ 24
椅高 24
極限運動 24
樂樂@@ 24
樹林 24
檢 24
欄柱 24
權力 24
次元 24
欣宏 24
歐根紗 24
歷險記 24
殺戮 24
母嬰店 24
民揚樂器 24
民用 24
氟 24
氣場 24
氣泵 24
氫@@ 24
水光針 24
汗巾 24
汝@@ 24
汰 24
沙色 24
波蘭陶 24
洛斯 24
流理 24
浮夢 24
海外版 24
海爾@@ 24
消失 24
深情 24
溯 24
滑蓋 24
滑順 24
滴管 24
漸變@@ 24
潮褲 24
澆水 24
火柴盒 24
火鍋@@ 24
炸蝦 24
焊槍 24
無患子 24
無障礙 24
無香 24
焰 24
煤@@ 24
照後鏡 24
煮壺 24
熱敷@@ 24
燈鏡 24
營養素 24
燦爛 24
爵@@ 24
牙具 24
牽引 24
牽念 24
狠 24
狼人 24
獵鷹 24
玉兔 24
玲玲 24
玲瓏 24
珂潤 24
珉@@ 24
珠寶首飾 24
現貨區 24
球泡 24
理財 24
瑕筆 24
瑪莉歐 24
瑾 24
瓶塞 24
瓷盤 24
甚平 24
生姜 24
生活馆 24
男装 24
画@@ 24
畫北 24
疊式 24
瘦腰 24
瘦連 24
白斑 24
白日 24
白酒 24
盆子 24
盔@@ 24
直銷@@ 24
省水 24
看板 24
眼镜 24
硅油 24
碎紙機 24
碩珍 24
確 24
確定 24
磁場 24
礼品 24
福爾 24
科大 24
科目 24
種菜 24
空軍壹號 24
窄櫃 24
童書繪本 24
第二部 24
筆式 24
筆電桌 24
箴言 24
節特價 24
節購 24
篷布 24
簡約實 24
簫 24
粉塵 24
粒子 24
精准 24
精華化妝水 24
糊塗 24
紅盒 24
紅綠@@ 24
紋皮 24
純黑 24
經銷商 24
綜合維 24
綱 24
網紗長 24
綸 24
綻放 24
線防 24
編織款 24
繡球 24
繼@@ 24
细 24
美妝百貨 24
美歐 24
美玲 24
美鞋 24
習慣 24
考古 24
耐吉休 24
耳掛式 24
耳麥@@ 24
肩套 24
胎毛 24
胯 24
胶@@ 24
脂機 24
脫毛儀 24
膠囊@@ 24
膠球 24
膠皮 24
膽包 24
臀洋裝 24
自修 24
自動車 24
自律 24
自殺 24
自然美 24
興業 24
色光 24
艾米 24
芭 24
花旗 24
花田 24
英檢 24
茱@@ 24
茶油 24
草席 24
莫蘭迪 24
菜單 24
菲斯 24
菲菲 24
萌貓 24
蒸汽熨斗 24
藝人 24
藥水 24
蛋器 24
蛋黃@@ 24
螺絲批 24
衛衣套 24
裂縫 24
装@@ 24
補習袋 24
裝禮服 24
褲高 24
西堤 24
西西 24
覆盆子 24
許墨 24
許愿 24
試鞋 24
護理液 24
護盾 24
變形蟲 24
豆糕 24
貂@@ 24
貓床 24
貓眼石 24
貨聯 24
販賣機 24
貪@@ 24
賀寶芙 24
超殺 24
超騷 24
越野跑 24
趣@@ 24
蹦床 24
車站 24
軟硅膠 24
輕松 24
輥 24
轉換頭 24
農心 24
迅@@ 24
迷你裙 24
逍遙椅 24
這邊 24
通知 24
速乾衣 24
速干@@ 24
連鎖 24
週刊 24
遙椅 24
郵箱 24
酸甜 24
醃 24
醋酸 24
金喜 24
金墜子 24
金時 24
鈴蘭 24
鉄 24
銀勾 24
鋼機械 24
鋼鏈 24
錫紙 24
錯題 24
鍵帽 24
鎧 24
鐵壺 24
鐵櫃 24
鐵觀音 24
鑄@@ 24
鑽耳釘 24
門把 24
閃光輪 24
開水機 24
閒皮 24
閱@@ 24
防砸防 24
防裂 24
防風罩 24
阿彌陀佛 24
阿膠 24
阿飛 24
除塵器 24
除油 24
陪護床 24
險 24
雙側 24
雙碟剎 24
雙鏈 24
雪山 24
雪納瑞 24
電筆 24
電腦架 24
電芯 24
電視劇 24
電購 24
鞋業 24
鞋舌 24
韓版大尺 24
韓版板 24
韓風館 24
順本 24
預防 24
領吊帶 24
頭休 24
頭帶 24
頭帽 24
風刺 24
風北歐 24
飾界 24
餡機 24
饰 24
驢 24
魔術師 24
魚燒 24
魚竿@@ 24
魚竿手 24
鮮肉 24
鱼 24
鴉片 24
麗質 24
麻豆 24
黏性 24
黑寡婦 24
黑曜 24
黑米 24
黑藍@@ 24
黑陶 24
龍牌 24
が 23
ひ 23
ㄒ 23
ㄛ 23
ㄨ 23
一發 23
一種 23
一色 23
三人座 23
三元 23
不換 23
不漏水 23
丙烯 23
两用 23
中厚 23
串串香 23
主動 23
主動式 23
主圖款 23
久久 23
之手 23
九宮格 23
乾洗 23
二戰 23
二折 23
交領 23
京劇 23
人位 23
人氣@@ 23
代低 23
仲夏 23
伶@@ 23
低幫休 23
侍@@ 23
促銷@@ 23
保冷瓶 23
偶@@ 23
充行動 23
充電板 23
光芒 23
克羅@@ 23
兒童圍 23
兒童過 23
內衣套 23
內鍋 23
全護 23
兩台 23
兩天 23
八款 23
八里 23
公子 23
六格 23
冰包 23
凝珠 23
凡賽 23
出色 23
刀模 23
刃@@ 23
初高中 23
利亞 23
券@@ 23
剂 23
前導 23
創意車 23
創鬥者 23
勵志@@ 23
包床 23
包電腦 23
化妝柜 23
北海 23
匯款 23
匹 23
十二@@ 23
千里 23
午茶 23
半封 23
協調 23
单 23
南一 23
南美 23
卫衣 23
印染 23
即時 23
压 23
厚切 23
友友 23
古耳環 23
古銅金 23
古驰 23
另開 23
叮 23
可兒 23
可愛情 23
可愛臥室 23
台灣版 23
吃飯 23
同軸 23
品格 23
哈佛 23
哈利 23
哈姆 23
商務必 23
單向 23
嘴套 23
器館 23
噴霧劑 23
四斗 23
四盒 23
回歸 23
因賦 23
國民@@ 23
圖訂 23
團團 23
土色 23
地式 23
地鎖 23
坐人 23
坤平 23
型環 23
埋 23
培根 23
培樂多 23
培養 23
塩 23
墓 23
壓印 23
壓夾 23
夕@@ 23
外代 23
外接式 23
外陽 23
多功 23
多國 23
大碗 23
大罐 23
大風量 23
大馬@@ 23
天份 23
天高 23
太妍 23
奢客 23
女鎖 23
妖姬 23
妮子 23
威爾@@ 23
娃用 23
娜@@ 23
婦女 23
媽裝 23
学 23
守望 23
守護神 23
安卓機 23
安定 23
定位器 23
客棧 23
家有 23
密室 23
密集 23
富力 23
寵愛@@ 23
寵愛之名 23
寵愛物語 23
寶劍@@ 23
寶寶包 23
寶箱 23
小丫頭 23
小圓鏡 23
小愛 23
小桃時 23
小燕子 23
小紅 23
小葵 23
小藍@@ 23
小鋼 23
小飛 23
尚皮 23
尚顯 23
尼亞 23
居優 23
屏風@@ 23
岳 23
巢@@ 23
巫師 23
帽女 23
干裂 23
幼館 23
幽靈@@ 23
幾毯 23
幾組 23
康佳 23
弧@@ 23
強化@@ 23
彈頭 23
形態 23
彩購 23
很多 23
微調 23
德式 23
忠 23
快煮壺 23
快購 23
性休 23
性格 23
怪盜 23
情緣 23
愛兒 23
愛馬 23
感統 23
感闊 23
憶@@ 23
懶骨頭 23
成份 23
戲服 23
戶門 23
房頂 23
所羅門 23
手抄本 23
手機膜 23
打開 23
扣時 23
抗疲勞 23
拉圾 23
拉直 23
拖拉 23
拚色 23
拼布@@ 23
持色 23
挖洞 23
挖耳勺 23
掛免 23
接單 23
接送 23
提醒器 23
插扣 23
撞@@ 23
擇木 23
攜包 23
攜學生 23
放氣 23
效型 23
敏耳環 23
教主 23
敬 23
斌 23
斬@@ 23
新秀 23
斷櫃 23
旅拍 23
无线 23
日貨@@ 23
普麗 23
暖壺 23
暖意 23
曲集 23
更衣 23
書夾 23
木屐 23
本體 23
朴智 23
板子 23
柚@@ 23
柳釘 23
桌經濟型 23
條肩 23
梳妝椅 23
棉運動 23
棉馬甲 23
棒球棒 23
森女系 23
椰棕 23
楞 23
業務 23
業務員 23
極細@@ 23
樂來 23
樂兒 23
樂奇 23
樂豆 23
標用 23
標識牌 23
機免 23
機加 23
機筆 23
機維修 23
機辦 23
檔位 23
檸檬片 23
櫃台 23
欄杆 23
款板 23
歐卡 23
歐司朗 23
歐布 23
歐意朗 23
歐盟 23
歐美連線 23
毅@@ 23
毛線@@ 23
氣墊防 23
氧化 23
水凝@@ 23
水果糖 23
油亮 23
油煙機 23
洗劑 23
活用 23
浩瀚 23
海利 23
消音器 23
涼水壺 23
淡紫 23
淳@@ 23
清心 23
渠道 23
渦@@ 23
溜冰 23
溫柔@@ 23
滅蚊器 23
滾輪式 23
潮休 23
潮網 23
澎@@ 23
濃度 23
濃香 23
灶台 23
焦鏡 23
煮蛋 23
熒幕 23
熱縮 23
熱靴 23
燃@@ 23
燈芯 23
燈裝飾 23
燈護 23
燒肉 23
爆款@@ 23
牆布 23
牆裝飾 23
牆角 23
版手 23
特霧 23
犀牛皮 23
狩獵 23
狼牙 23
玉容 23
玩意 23
玻璃@@ 23
珍貴 23
現代個 23
現貨熱 23
琴音 23
瑀 23
環飾品 23
男籃 23
男表@@ 23
畜牧 23
當代 23
癡 23
發晶 23
發素 23
發靠 23
白皮 23
白雅頓 23
皂盒 23
盜墓 23
盤長 23
盤點 23
盲 23
看到 23
看書 23
真姬 23
眼珠 23
眼鏡架 23
短途旅行 23
硬底 23
硬派 23
硬皮 23
碟裝 23
磁鐵書 23
磚紋 23
磷@@ 23
示器 23
禮首選 23
秀禾 23
秘笈 23
空座 23
站@@ 23
童三輪車 23
童心 23
筆管 23
筆電散 23
算@@ 23
算器 23
簷 23
米諾 23
米長 23
粒紋 23
粘合 23
糖機 23
糖粉 23
紅瑪瑙 23
紐曼 23
紫羅蘭@@ 23
紫薯 23
組合北 23
組禮盒 23
結帳 23
絲連身 23
絶 23
維多莉亞 23
維度 23
網紗連 23
綿綿 23
編輯 23
緯 23
織物 23
繽@@ 23
纏@@ 23
罐組 23
网@@ 23
美強生 23
美菱 23
義乳 23
義美 23
老款 23
耐特 23
耳環耳釘 23
耽美 23
聚焦 23
股票 23
背靠 23
腳線 23
臉池 23
艾莉兒 23
花帽 23
花球 23
花見 23
茵@@ 23
茹@@ 23
莫蘭迪色 23
萊雅@@ 23
萬能@@ 23
萬象 23
蓼 23
薩諾斯 23
藍綠@@ 23
蘇迪蔓 23
蜜柚 23
蝦餅 23
衛生衣 23
衛衣女 23
衝刺 23
衣裳 23
衣領 23
袖圓 23
袜 23
裝飾花 23
裝魚 23
裡的 23
褲學 23
西裝領 23
西部 23
覆膜 23
解碼 23
訂書機 23
記號 23
訣 23
訴訟法 23
話@@ 23
誘惑@@ 23
調音 23
謀 23
譚 23
護板 23
诱惑 23
貝思奇 23
貝果 23
負擔 23
貨柜 23
販包 23
買賣 23
貼條 23
賣萌 23
質純 23
赤道 23
起夜 23
超持 23
超清 23
超熱賣 23
超頻 23
趕@@ 23
跳床 23
蹣 23
蹼 23
車前 23
車尾 23
車折疊 23
車改裝 23
車汽車 23
車縫 23
車騎 23
軟蟲 23
軟頂 23
輔@@ 23
輕薄@@ 23
輝煌 23
轉角書 23
轉身 23
近視@@ 23
迪奇 23
送禮@@ 23
透氣板 23
這運動 23
速開 23
連發 23
進攻 23
運輸 23
適百搭 23
選網 23
邦尼 23
酷炫 23
釋@@ 23
重慶 23
重油 23
野原 23
金元 23
金勾 23
金桔 23
金牛 23
金珠 23
銅板價 23
銅錢 23
鋏 23
鋼免 23
鎖圈 23
鎧甲 23
鏡潮 23
鏡防 23
鑽孔 23
門號 23
開心購 23
開長 23
门 23
防雷 23
陶笛 23
隧道 23
隨機出 23
雙帶 23
雙模 23
雙耳運動 23
雙鉤 23
雙錄 23
雨傘牌 23
雨罩 23
零度 23
雷朋@@ 23
電動理 23
電競耳機 23
電競鍵 23
電視牆 23
靠山 23
鞋材 23
鞋涼鞋 23
鞋輕 23
韓壓 23
韓版涼 23
韓韓 23
韓飾 23
音器 23
音速 23
頂尖 23
領大學 23
領導 23
顯影 23
風輕 23
飆@@ 23
飛袖 23
飯團 23
飾飾品 23
餐卷 23
餘@@ 23
香芋 23
騎行服 23
驅車 23
骨盆 23
骷髅 23
體重機 23
高密 23
高性能 23
高檔@@ 23
高款 23
高麗菜 23
魚盤 23
魯路 23
鮮奶 23
鮮果 23
鯨@@ 23
鴉 23
鹽燈 23
鹿紋 23
麴 23
黏式 23
黛絲 23
點心@@ 23
龍普@@ 23
龍波 23
っ 22
ユ 22
一刷 22
一木良品 22
一致 22
一頁 22
三峽 22
三效 22
三杠 22
上免 22
上掛 22
上面 22
下雨天 22
不住 22
不想 22
个 22
中大碼 22
之物 22
之美 22
九州 22
事件簿 22
二宮 22
五匹 22
五新 22
亞米 22
今治 22
介@@ 22
仕掛 22
仙度 22
伸縮票 22
伸缩 22
低价 22
低價@@ 22
低幫籃 22
佔 22
佛心 22
佛手 22
侍 22
依品 22
依然 22
便携式 22
保單 22
保色 22
假人頭 22
傳真 22
僅剩 22
僕 22
優然 22
優良 22
克拉克 22
免稅店 22
免費@@ 22
兒樂 22
兒童裝 22
兔兔@@ 22
內胎 22
內藏 22
全场 22
全封閉 22
全尺 22
全指 22
全白@@ 22
全皮@@ 22
全蕾絲 22
兩套 22
兩棲 22
兩片 22
兩門 22
八方 22
八重 22
公事 22
六勝 22
六層紗 22
六期 22
兮 22
兼@@ 22
册 22
冰袖 22
冰霜 22
冰點 22
凡賽斯@@ 22
出價 22
出擊 22
分裝包 22
列傳 22
刺繡布 22
刻花 22
劉雯 22
勃@@ 22
動森 22
勾花 22
包大 22
包夾 22
包歐 22
包邮 22
匹@@ 22
半年 22
半斤 22
半球 22
南法 22
南陽 22
卡羅 22
卡菲 22
卡貝 22
卵 22
卸妝膏 22
原作 22
原來 22
厲害 22
叉叉 22
古物 22
古經典 22
古高 22
可小議 22
可愛立體 22
可愛簡 22
可愛網 22
可開立 22
台中青 22
台鹽 22
吉特 22
吸音 22
周棋洛 22
咘 22
品優小鋪 22
品架 22
哨 22
哪裡 22
喜洋洋 22
喬治傑生 22
單只 22
單車館 22
單鑽 22
嘻哈潮 22
噗@@ 22
噴碼 22
四本 22
四爪 22
回憶錄 22
固力果 22
國代購 22
國產@@ 22
國際版 22
圓滾 22
地鼠 22
坐月子 22
型師 22
型陽 22
報器 22
場合 22
塊@@ 22
墨汁 22
壁掛免 22
壓閥 22
多层 22
多美卡 22
大亨 22
大公 22
大台 22
大工 22
大田 22
大福 22
大貓 22
大鈔 22
大雨 22
大飯 22
大黑 22
天王星 22
天眼 22
夾時 22
夾頭飾 22
奇怪 22
奢華絲絨 22
奢華緞 22
女僕裝 22
女項 22
好夥伴 22
妄想 22
嫁衣 22
子彈頭 22
字形 22
字連 22
宇治 22
害 22
宴@@ 22
家室 22
家裝 22
實車 22
寶特瓶 22
寶貝屋 22
封閉 22
對照 22
小中 22
小側 22
小女生 22
小女警 22
小幅 22
小愛心 22
小折 22
小樹 22
小海豚 22
小麥色 22
小鼠 22
少兒 22
尚學生 22
尚館 22
尺衣 22
尼祿 22
局@@ 22
屏屋 22
山大 22
崇迪 22
工商 22
巧思 22
帳篷@@ 22
帶厚底 22
帶龍頭 22
常春藤 22
帽長 22
干透 22
幼兒@@ 22
床板 22
床辦 22
底價 22
庫柏 22
廁所紙 22
引力 22
弦@@ 22
征@@ 22
律師 22
微甜 22
微鑲 22
徵 22
徵@@ 22
徽@@ 22
必敗 22
志高 22
忙 22
快遞 22
性款 22
性氣質 22
性藝術 22
恩典 22
悟飯 22
惹 22
感防 22
慈善 22
憑 22
憲 22
戀愛魔鏡 22
戰馬手 22
手作圍 22
手機臂 22
打奶 22
打擊@@ 22
打氣@@ 22
打霧 22
扣扣 22
把玩 22
折領 22
抵台 22
抽盒 22
拋網 22
捕捉 22
提神 22
搖粒 22
搖粒絨 22
搖馬 22
搶眼 22
撞款 22
撫子 22
撫紋 22
擾 22
改裝飾 22
敦@@ 22
文書 22
新賣場 22
方便面 22
旅游包 22
旗幟 22
日程 22
易清洗 22
時尚外 22
時尚套 22
暗扣 22
暗裝 22
曲柄 22
曼哈頓 22
最火 22
有緣 22
有領 22
朝日 22
木珠 22
本書 22
李小@@ 22
束褲 22
松休 22
松圓領 22
林心如 22
枸杞茶 22
柏油 22
柜置 22
标@@ 22
栓@@ 22
栗@@ 22
根雕 22
格蘭@@ 22
栽花 22
桌扇 22
桌書柜 22
梔子花 22
條紋洋裝 22
梟 22
梳妝鏡子 22
棉兒童 22
棉內褲 22
棉學生 22
棉棒 22
棉百搭 22
棉舒適 22
椅電腦 22
椅高腳 22
槓片 22
樂事 22
樂拼 22
機切 22
機夾 22
檸檬紅 22
歌德 22
歐正 22
歐珀 22
正貨代購 22
武士刀 22
每本 22
毛绒 22
民百 22
氣閥 22
水化 22
水嘴 22
水泡 22
水牌 22
水美媒 22
水轉 22
水銀@@ 22
油工 22
沾水 22
泓 22
法米納 22
波音 22
注音版 22
洗腳盆 22
洩@@ 22
活潑 22
海賊團 22
涂色 22
消化 22
淫@@ 22
深口 22
淵 22
温@@ 22
測溫 22
渴望 22
湯淺 22
溪流 22
滿額禮 22
潔顏@@ 22
潔顏乳 22
潤浸 22
激瘦 22
火漆 22
灰狼 22
灰藍色 22
無線電 22
無釘 22
焦凍 22
煥采 22
熱轉 22
熱風槍 22
燈書房 22
燈陽 22
爆丸 22
爆款韓 22
爾斯 22
牆式 22
牙機 22
物包 22
物料 22
特價代購 22
特優 22
狙擊 22
玄幻 22
王品 22
王樣 22
玩沙 22
現代學 22
現貨古奇 22
現貨時 22
球球館 22
球類 22
琳子 22
瑪瑙手 22
瓶組 22
瓶身 22
生板 22
生款 22
生氣 22
生紙 22
生豆 22
用房 22
用紙 22
男夏 22
男小腳 22
男薄款 22
男裝休 22
男防 22
畫質 22
病人 22
發水@@ 22
發罩 22
白字 22
百信 22
百搭低 22
皂材 22
盒車 22
盤扣 22
直入 22
真珠 22
真相 22
知恩 22
砂石 22
硅@@ 22
硫 22
碼速 22
磁療 22
祝@@ 22
秀款 22
科普 22
秦 22
穗@@ 22
穿法 22
窗椅 22
立大功 22
童音 22
竹片 22
第一名 22
第一集 22
第七 22
篮球鞋 22
簍空@@ 22
簽盒 22
米字旗 22
米拉 22
米爾 22
米特 22
米菲兔 22
粗大 22
精補 22
紅金 22
紋拉鏈 22
紋時 22
納盒 22
純銀飾 22
紙染家 22
紡織 22
組立 22
經典格 22
綠籬 22
綠鈕 22
綠黑 22
網椅 22
網站 22
網課 22
緊腰 22
線夾 22
罪愛 22
置物桶 22
羊油 22
美利 22
美唇 22
美夢 22
美感 22
美男戰國 22
美發店 22
老化 22
考試院 22
考題 22
耳機線 22
耳環耳針 22
耶穌 22
聚氨酯 22
聰 22
肯爺 22
背法 22
脫妝 22
脸 22
腳輪 22
膝護 22
自創 22
自吸 22
自排 22
自攻 22
自駕 22
舟 22
色組 22
艾比 22
艾麗卡 22
芒@@ 22
芙尼@@ 22
英漢 22
范思蓮恩 22
范戴克 22
草原 22
草綠色 22
董 22
蒐 22
薄板 22
薯@@ 22
藍氣球 22
藝匠 22
藝妓 22
號倉 22
蛋白石 22
蛙@@ 22
螢石 22
蟲鞋 22
蠻 22
血滴 22
行旅 22
衣飾 22
袖純 22
裙套 22
裝瓶 22
裝秋裝 22
裝連身 22
褲中 22
褲兒 22
褲哈倫褲 22
褲組 22
西斯 22
西裝鞋 22
設店 22
詹 22
認證@@ 22
誘餌 22
調衫 22
談椅 22
護發 22
豆包 22
貓奴 22
貝克漢 22
貨架@@ 22
貨物 22
質感佳 22
購區 22
走步 22
超戰士 22
趨勢 22
足印 22
足貼 22
跨側 22
身機 22
車寶寶@@ 22
車種 22
軟綿綿 22
軸承@@ 22
软@@ 22
辦公收 22
适用 22
這件 22
通販 22
速賣 22
運動潮 22
避免 22
郡氏 22
郵政@@ 22
酯 22
酷樂 22
酷龍 22
醃@@ 22
釋出 22
野性 22
金星 22
金毛狗 22
金紙 22
金萃 22
金銀色 22
金雞 22
金鬼 22
金鼠 22
釜 22
釣線 22
鈔機 22
鈣片 22
銀證 22
鍺 22
鏈飾品 22
鐵人 22
鐵網 22
鑑@@ 22
鑽圓盤 22
鑽愛心 22
鑽白 22
長@@ 22
門禁 22
閒包 22
防壓 22
防抖 22
防沙 22
防狼 22
防蚊褲 22
防雨罩 22
防風防 22
阿曼 22
阿松 22
阿瑪尼時 22
降低 22
降速 22
除毛器 22
除異味 22
陶瓷器 22
陷阱 22
雅雅 22
雅馬哈 22
集成 22
雙組 22
雙耳無線 22
雙肩@@ 22
雙龍 22
雜志 22
雞腿 22
雪帽 22
雪平鍋 22
雪梨 22
電子熒 22
電磨機 22
電轉 22
電通 22
震動環 22
露西 22
青色 22
青銅 22
靖 22
鞋包 22
鞋油 22
韓版防 22
頑@@ 22
領域 22
領隊 22
頭燙 22
頻率 22
風個 22
風耳環 22
風裝飾 22
飛鏢@@ 22
飯匙 22
養蜂 22
馬夾 22
馬銜 22
駭客 22
騎士帽 22
高橋 22
高齡 22
魔道 22
麻棉 22
黑紫@@ 22
黑黃@@ 22
龙 22
ξ 21
ᴍ 21
わ 21
ㄌ 21
一夏 21
一格 21
一版 21
一週 21
丈 21
三七 21
三叶草 21
三百 21
三相 21
三開門 21
上托 21
丙@@ 21
中壢鴻海 21
中高 21
之密 21
之石 21
九把刀 21
乾式 21
乾模 21
产商 21
人全 21
人氣款 21
仇 21
今夏 21
代購級 21
任選@@ 21
休閒束 21
伯特 21
伸縮梯 21
似@@ 21
佛手柑 21
佛系 21
作工 21
侯@@ 21
俗@@ 21
信譽店 21
修車 21
假牙 21
假領 21
側拉 21
傑克@@ 21
傑利鼠 21
像框 21
儲存袋 21
儲物床 21
兄妹 21
充電孔 21
光動 21
兌換券 21
免綁 21
內容物 21
全名 21
全單 21
全屋 21
全紅 21
兩截式 21
兩次 21
兩用傘 21
公轉 21
出廠 21
切頁 21
初春 21
到府 21
剃@@ 21
則@@ 21
剛鏈 21
剪影 21
加入 21
加購區 21
動能 21
勞作 21
包學 21
包寵物 21
包屁褲 21
包式 21
包掛件 21
包運動 21
包魚 21
匯樂 21
十里 21
千華 21
半金 21
南亞 21
博客 21
卡丁車 21
卡通人物 21
印台 21
卸妝巾 21
原力 21
叉奇 21
古圓框 21
古奇雙 21
古琦 21
可堆 21
可愛萌 21
可樂帽 21
可貼 21
可領 21
台幣 21
台面 21
史迪 21
史迪奇@@ 21
各車系 21
合版 21
吊墜@@ 21
后庭 21
吸奶器 21
吸鐵 21
吸音棉 21
和諧 21
咕嘰咕 21
品出 21
品尚館 21
哉 21
哞 21
哩 21
哪@@ 21
商代 21
喉@@ 21
喚@@ 21
單拍 21
單本 21
單筒 21
嗶 21
四椅 21
圓頭@@ 21
圖解@@ 21
地墊子 21
地形 21
地表 21
執@@ 21
基多 21
堂課 21
塔羅 21
墨盒 21
墨鏡@@ 21
壁毯 21
壓瓶 21
壓表 21
壹品 21
壽命 21
夕 21
外加 21
外景 21
多寶街 21
多少 21
夢遊 21
大器 21
大四 21
大安 21
大將 21
大抱 21
大金 21
天到貨 21
天大 21
夸 21
夾卡包 21
奕奕 21
套包 21
套袋 21
套裝手 21
女側 21
女內褲 21
女明星 21
女短 21
女連 21
女連體 21
奶牛 21
好裝 21
妆 21
妝鏡 21
威爾 21
娘@@ 21
娘子 21
婷@@ 21
媚點 21
嫣 21
子母扣 21
存卡 21
存在 21
孤品 21
安親 21
家代購 21
寇 21
富岡義勇 21
富貴@@ 21
實木多層 21
寬帶 21
寶獅 21
寸學生 21
專屬@@ 21
對應 21
小哥 21
小敏 21
小時光 21
小港 21
小猪 21
小璇店 21
小綠 21
小綠@@ 21
小賈 21
小賴 21
小高領 21
尚耳環 21
尚鐵藝 21
尤里 21
尾單 21
展現 21
山崎 21
屹耳 21
崇@@ 21
工學椅 21
布希鞋 21
布拉 21
布罩 21
帝君 21
帶板 21
帶護欄 21
平水 21
平躺 21
年輕 21
幹燥 21
床頭板 21
底料 21
廁所馬桶 21
廉@@ 21
延續 21
引領 21
弱@@ 21
形襪 21
彩盤 21
彬 21
彰 21
影視@@ 21
律 21
後扣 21
微針 21
德州 21
必須 21
怡棒壘 21
恋 21
悠閒 21
情調 21
愛媽 21
愛貓 21
感測器 21
感知器 21
戰術@@ 21
房事 21
扁頭 21
手托 21
手抄 21
手搖杯 21
手機散 21
扣包 21
扶@@ 21
批頭 21
抓餅 21
投影幕 21
折疊兒 21
抽繩@@ 21
拆箱 21
拋竿@@ 21
拱辰 21
拼色長 21
持妝 21
指標 21
指環@@ 21
挽 21
捕手 21
掏耳朵 21
採 21
探房禮 21
接環 21
提琴 21
換式 21
撐@@ 21
撥水 21
支駕 21
收納層 21
收納本 21
收藏家 21
敏品 21
散熱風 21
新衣 21
旅游鞋 21
日默瓦 21
星芒 21
時尚側 21
晉 21
景福珠 21
景軒 21
晶透 21
書室 21
書法@@ 21
曹 21
最後一 21
最時 21
會動 21
會話 21
有底 21
有感 21
木乃伊 21
木天 21
木村 21
木棒 21
木紋@@ 21
李小龍 21
杯刷 21
東區 21
東大門代購 21
松露 21
板夾 21
板扣 21
板栗 21
林俊傑 21
柯拔 21
柴柴 21
柿子 21
标 21
核桃仁 21
格式 21
桶@@ 21
梅片 21
梵希 21
棉墊 21
棉時 21
棉質@@ 21
棧 21
極萃 21
榨油 21
槓@@ 21
樂業 21
樸@@ 21
樹脂@@ 21
樹葉@@ 21
機單 21
機油濾 21
橡皮艇 21
櫻井翔 21
櫻雜 21
欣閱 21
欸 21
款雪紡 21
歌詞 21
歐普 21
歐派 21
歐餐 21
止水 21
死皮 21
毛球機 21
水彈 21
水網 21
水著 21
沐浴液 21
沙龍@@ 21
沫 21
泛黃 21
洗衣服 21
洗面盆 21
洗鞋 21
洛伊 21
派对 21
浪凡 21
浴鏡 21
深盤 21
清洗液 21
清甜 21
減光鏡 21
渦鳴 21
測距儀 21
湊 21
湯姆@@ 21
溫袋 21
滿身 21
潑漆 21
潮衣 21
潮鋪 21
灑水壺 21
火雞 21
炕 21
炸醬 21
烏木 21
烏鴉 21
無孔 21
無盡 21
無縫線 21
無輻射 21
然@@ 21
照夾 21
煩惱 21
熊二館 21
熊寶寶 21
熟食 21
熱熔 21
熱風 21
燈圓形 21
燈大氣 21
燙布 21
營燈 21
爆紅 21
爆豪勝己 21
爵士舞 21
版連帽 21
版連身 21
牧 21
物園 21
物架 21
特厚 21
犯 21
狂潮 21
狼牙棒 21
玉米粒 21
現況 21
現貨廠 21
琳琳 21
瑪榭 21
瑪麗珍 21
環保筷 21
瓶免 21
瓷碗 21
用包 21
用心 21
男內 21
男腕 21
畢業@@ 21
番外 21
畫像 21
畫線 21
異型 21
疤克 21
痣 21
發型 21
發洩 21
發育 21
白珍珠 21
白紅藍 21
白貓 21
百搭太陽 21
百搭舒 21
百潔布 21
皮椅 21
皮爾 21
盆龍頭 21
盤帶 21
直卷 21
相信 21
看關 21
睡椅 21
矢@@ 21
砂糖 21
破冰 21
硅藻 21
磚紅 21
磨腳 21
磨豆 21
祝 21
神褲 21
福克斯 21
福義軒 21
秋田 21
稍 21
究 21
穿刺 21
突出 21
窄款 21
童謠 21
竹筷 21
第七版 21
第二@@ 21
筆書法 21
筆電電池 21
筷筒 21
管套 21
節回饋 21
節慶王 21
節款 21
節禮品 21
範例 21
簡易學 21
米兒 21
粗布 21
粘板 21
紅尾 21
紅格 21
紋眉 21
納架 21
細口壺 21
組套裝 21
統一@@ 21
絲紋 21
網友 21
練功 21
縫紉 21
繞線 21
纯@@ 21
细@@ 21
美國代 21
美格 21
美白防 21
美術館 21
美風 21
美麗諾 21
群組 21
義大 21
翎 21
翻蓋長 21
老姜 21
肉丸 21
股份 21
背蓋@@ 21
脈衝 21
脣 21
腕@@ 21
腳環 21
膨@@ 21
臟衣籃 21
自拍@@ 21
舒心 21
色差 21
色帶 21
艾森絲 21
艾爾 21
芬蘭 21
芭蕉 21
花季 21
花種子 21
苧蘿 21
茉 21
茴香 21
荷包 21
荷荷 21
荷葉裙 21
莫莫日貨 21
菜機 21
華人 21
菲比 21
萬用夾 21
萬用表 21
蒨 21
蒸箱 21
蓄@@ 21
蓝牙 21
蓬頭 21
蓮子 21
蔡司 21
蕾絲連 21
藍寶@@ 21
藍牙自 21
藍金 21
虐 21
號現貨 21
蚤 21
融合 21
螺口 21
蠟機 21
蠶 21
蠶絲紋 21
街角 21
衛浴鏡 21
補牆 21
裝兒童 21
裝飾鏡 21
裴代購 21
褲子@@ 21
觀念 21
角磨機 21
計型 21
計算 21
記得 21
詞@@ 21
語言學習 21
調味架 21
調毯 21
調頻 21
諾亞 21
謊言 21
謎@@ 21
警示牌 21
護肚 21
護齒 21
貝多芬 21
貝涵 21
財務@@ 21
費洛蒙 21
質手 21
購物節 21
賽克@@ 21
超仙森系 21
超可愛的 21
超透 21
跑跑 21
跳棋 21
身份 21
車防 21
軍一號 21
輔導 21
輪盤 21
轎 21
辦公電腦 21
農園 21
返@@ 21
连帽 21
迦@@ 21
迪爵 21
逆襲 21
透氣長 21
速寄 21
連身洋 21
週末 21
進寶@@ 21
遊戲床 21
運輸車 21
遮光板 21
邁騰 21
郎@@ 21
配盒 21
配置 21
酥@@ 21
醫療級 21
野人 21
野營@@ 21
野菜 21
量身 21
金工 21
金滿屋 21
金蔥@@ 21
金黃 21
釣傘 21
銀光 21
銅板 21
鋼屋 21
鋼掛 21
鎖精環 21
鏈手 21
鐵絲@@ 21
钢@@ 21
門縫 21
門頭 21
閃店 21
閉 21
開水 21
開襠@@ 21
閒短 21
閥@@ 21
防暴 21
防曬網 21
防曬露 21
防水表 21
阿富汗 21
阿瘦 21
附證書 21
陶瓷工 21
隨時 21
雅典娜 21
雅婷 21
雅集 21
雙心 21
雙筒 21
雙綁 21
雙鏡 21
雪之屋 21
雪球 21
雲谷 21
雲購 21
電子鎖 21
電梯 21
電池組 21
電磁閥 21
露營椅 21
霸气 21
静音 21
鞍@@ 21
韓品 21
韓組 21
音遇 21
預留 21
預計 21
預購禮 21
顆粒@@ 21
願@@ 21
顯瘦洋裝 21
風全 21
風學 21
風水招 21
風燈 21
風純 21
風險 21
風餐 21
飛俠 21
飛兒 21
飛魚 21
飛鳥 21
飛鼠褲 21
食玩@@ 21
飯鍋 21
飾館 21
餐厅 21
餐邊櫃 21
馬口 21
駝@@ 21
騎兵 21
騙人布 21
驅動器 21
骨幹 21
骷顱 21
髓 21
體位 21
體恤潮 21
高幫籃 21
高架 21
魔戒 21
魚店 21
魚護 21
魚鱗膠 21
魯邦 21
鰭 21
鳥園 21
鵝黃色 21
麂 21
麥麥 21
麻雀 21
黏扣 21
黏毛器 21
黑坑 21
黑胡桃 21
黑鋼 21
齡@@ 21
龍騰 21
➇ 20
ね 20
ろ 20
ゲ 20
ネ 20
䄂 20
一堆 20
一夜 20
三井 20
三層@@ 20
三組 20
上人 20
上山 20
上腳 20
上鎖 20
不起 20
不起眼 20
中崙 20
中文字幕 20
之道 20
之門 20
九新 20
乾性 20
事務@@ 20
二三 20
二節 20
五十道 20
五月花 20
五步 20
交響 20
京商 20
人防 20
令@@ 20
休閒戶 20
佐雅 20
体@@ 20
你好 20
佳兒 20
供墨 20
俄@@ 20
俊逸 20
保冷杯 20
保濕露 20
保護袋 20
修長 20
俱網 20
假貨 20
停車號 20
傘女 20
傳動蓋 20
僅有 20
儀表@@ 20
優代購 20
優品購 20
優美@@ 20
儲存@@ 20
儲物籃 20
充滿 20
充電版 20
先詢問 20
光學鏡 20
光手 20
光敏 20
光球 20
光纖@@ 20
光華 20
克筆 20
克羅 20
免燙 20
免組裝 20
免運送 20
全實體 20
全球通 20
全額 20
兩針 20
八月 20
公社 20
六哥 20
共舞 20
冠王 20
冰溫 20
冰爽 20
冰磚 20
分割器 20
切割刀 20
列柜 20
刨@@ 20
刷鍋 20
刺繡長 20
刻鞋 20
剃刀 20
前衛@@ 20
剪線 20
劍盾 20
勃 20
動式 20
務休 20
勸敗 20
勾式 20
勿忘我 20
包免 20
包古奇 20
包小方 20
包扣 20
包材 20
包經 20
包輕 20
包飾 20
北歐沙 20
北汽 20
十大 20
半版 20
原標 20
取悅 20
叢 20
古家 20
古收 20
古板 20
古洋 20
古街 20
古餐 20
句 20
另購 20
只用 20
可串 20
可愛單 20
可愛熊 20
可樂牌 20
台斤 20
吉吉 20
吊掛式 20
名流 20
吾@@ 20
告別 20
咚咚 20
品相 20
品項 20
唇露 20
商事法 20
商務腰 20
商家 20
喉 20
喉糖 20
喬巴@@ 20
喬治@@ 20
單件價 20
單耳@@ 20
單雙@@ 20
噌 20
噴霧式 20
嚐 20
四尺 20
四條 20
四面佛 20
因子 20
国@@ 20
圆@@ 20
國學 20
國小@@ 20
國旗@@ 20
圍燈 20
圓牌 20
圓點點 20
圖卡 20
地藏 20
地鋪 20
坐墩 20
型夾 20
墊圈 20
墊子@@ 20
墨片 20
壁纸 20
壓片 20
外壁 20
多口 20
夢羅 20
大孔 20
大容 20
大戰@@ 20
大會 20
大板 20
大桶 20
大法 20
大肚子 20
大自然 20
大都 20
大門@@ 20
大雙 20
大餐 20
天團 20
天龍 20
太歲 20
夾趾涼 20
奈良 20
契@@ 20
套機 20
奢華大氣 20
奧利 20
奧斯卡 20
奪@@ 20
女主播 20
女生宿舍 20
女連帽 20
始@@ 20
姓 20
姚@@ 20
姻 20
威廉 20
子震 20
字板 20
學習@@ 20
學齡 20
安德瑪@@ 20
完為止 20
宝 20
客家 20
宣傳照 20
室女 20
家而適 20
家裡 20
密度 20
實惠@@ 20
實木北 20
實木小戶 20
實木書架 20
實木餐 20
寫真 20
寬領 20
寶寶學步 20
寶寶推車 20
寶寶滿 20
寶寶粥 20
封層 20
專門 20
尋寶@@ 20
小優 20
小和代購 20
小天地 20
小婷子 20
小抽 20
小斜 20
小櫻@@ 20
小石 20
小立領 20
小霸王 20
小飾 20
少潮品 20
尖尾 20
尚鏈 20
尹 20
尺電視櫃 20
尼龍線 20
尾花 20
屠@@ 20
層紗 20
岑 20
岡本 20
巧兒 20
巴厘 20
帝益 20
帶洋 20
帽衛衣 20
平胸 20
底色 20
店到 20
建盞 20
弧邊 20
弱 20
強尼拍 20
強震 20
彩妝盤 20
彩棉 20
律動 20
微胖 20
快來 20
怒 20
思捷 20
思薇爾 20
急售 20
性化 20
恐懼 20
恤連 20
悠品 20
惡作劇 20
愛將 20
憲法 20
戀戀 20
戰鬥服 20
手搖式 20
手球 20
手霜@@ 20
扭蛋@@ 20
扳 20
批發王 20
折疊包 20
抵用 20
抽帶 20
拉德 20
拉架 20
拉珠 20
拒絕 20
拖尾 20
拼色款 20
捷豹 20
掃碼 20
授 20
掛燈 20
掛腰 20
掩面 20
握@@ 20
搖滾@@ 20
擴音 20
教鞭 20
敵 20
斑馬@@ 20
斗笠 20
斜邊 20
新作 20
新天鵝堡 20
新鮮@@ 20
方盤 20
方糖 20
旗子 20
旗舰店 20
无 20
旺德 20
星夜 20
昭和 20
時候 20
晃@@ 20
晞 20
晶漾 20
暖冬 20
暖色 20
暗影 20
暨 20
暴走 20
書柜書架 20
最熱銷 20
會館 20
月季 20
望@@ 20
木匠 20
木碗 20
本鋪 20
杜卡迪 20
杭州 20
板屋 20
柏木 20
柔緞 20
柱形 20
格菱 20
桌沙 20
桌簡約 20
桌鐵藝 20
桿套 20
桿子 20
梯凳 20
棉包 20
棕櫚蠟 20
棚@@ 20
森活 20
棲@@ 20
椅北歐 20
椿 20
榮耀@@ 20
構@@ 20
槍型 20
樓梯@@ 20
模型材料 20
橘朵 20
橘黃 20
機掛 20
機靜音 20
橡皮泥 20
檸檬蘇 20
檸檬酸 20
歐碼 20
歐美劇 20
歐貨@@ 20
歐雅俱樂部 20
正統 20
武者 20
歷年 20
比亞@@ 20
毛球@@ 20
民間 20
氣墊籃 20
氣墊粉 20
氣款 20
氣燈 20
氣筒 20
水易 20
水晶板 20
水晶鞋 20
水貼 20
水頭 20
永康 20
江戶 20
汽車點 20
沁 20
沉水 20
沉睡 20
油刷 20
油皮 20
油蠟皮 20
沾手 20
法蘭克 20
泡酒 20
泰迪比 20
洛奇 20
活動式 20
活體 20
浴簾布 20
海島 20
消毒柜 20
淡紫色 20
淫 20
混搭@@ 20
混紡@@ 20
淺灰@@ 20
溪@@ 20
溫器 20
滄海 20
滋潤護 20
滑道 20
潤滑劑 20
潮本 20
潮男時 20
潮購 20
濕潤 20
火拳 20
灰熊 20
灰黃 20
炸豬 20
炸雞@@ 20
烘碗機 20
烙印 20
無塵@@ 20
無漆 20
無限之戰 20
煞車盤 20
熒光@@ 20
熟茶 20
燈車 20
燒餅 20
燙夾 20
爆烈 20
爆表 20
爾東 20
版大 20
版畫 20
牙器 20
牙垢 20
牙套 20
特力 20
特務 20
特卖 20
特展 20
特斯 20
特警 20
狗碗 20
狗貓 20
狼毫 20
猛 20
獨具 20
獻 20
王建民 20
玩耍 20
珊珊 20
現代大氣 20
現代裝飾 20
現金@@ 20
琉@@ 20
瑰@@ 20
環保材質 20
環耳針 20
生椅 20
生茶 20
电动 20
男個性 20
留學 20
畫玄關 20
當代@@ 20
瘡 20
瘤 20
發團購 20
發網 20
白深 20
白盤 20
白褲 20
白身 20
白鳥 20
白鹿 20
百搭衛衣 20
百諾 20
百魅 20
皓@@ 20
皮床 20
皮質@@ 20
盜鎖 20
盡顯 20
睛 20
瞄@@ 20
矯姿帶 20
石原 20
石花 20
矽膠防 20
砥石 20
硅膠防 20
硒鼓 20
硫磺 20
硬糖 20
碑 20
碰碰 20
碳纖維紋 20
碼女裝 20
磚頭 20
祈願 20
神起 20
票根 20
祭祀 20
禁忌 20
福星 20
禦@@ 20
禮佛 20
秋水伊人 20
秤@@ 20
稅店 20
稻草人 20
穩壓 20
穹妹 20
空調@@ 20
窗裝飾 20
窯變 20
童節 20
童褲 20
童運動 20
競游戲 20
竹籃 20
筆桿 20
策 20
節奏 20
簽字 20
簾布 20
米餅 20
粉紅豹 20
粉絲@@ 20
粉蕊 20
精湛 20
精質 20
精選集 20
糊 20
紅格紋 20
紅綠條 20
紋頭層 20
納袋 20
純皮 20
純銀鍍 20
紙巾@@ 20
紙張 20
紡裙 20
細跟@@ 20
紹@@ 20
絆 20
結衣 20
絨連 20
絲巾@@ 20
絲線 20
絲袖 20
經典色 20
綠幽靈 20
綠水 20
綢@@ 20
網咖@@ 20
網狀@@ 20
網頁 20
線太陽 20
線套 20
緩降 20
練習@@ 20
縮口長 20
縱@@ 20
纯银 20
署 20
美品購 20
美國入 20
美妝代購 20
美妝小 20
美宜佳 20
美顏嫩膚 20
羽翼 20
習器 20
老犬 20
耳勺 20
耳機@@ 20
耳機頭 20
耳釘女 20
聖邏蘭 20
聚可愛 20
肉桂 20
肛門 20
肩側 20
肩雪紡 20
胶 20
脹 20
腦力 20
腳盆 20
膠墊 20
自動彈 20
自拍架 20
自貼 20
致富 20
舍@@ 20
航空箱 20
般 20
船長 20
色違 20
艾柱 20
艾菲兒 20
芬迪小怪 20
花娜 20
花生糖 20
花田@@ 20
花籽 20
花耳環 20
花蓮@@ 20
花長 20
苡 20
英倫潮 20
英國帶 20
茶濾 20
草綠 20
草運動 20
莫比 20
菁@@ 20
華倫天 20
萬寶龍手 20
著名 20
董聯名 20
葳@@ 20
蒙古 20
蒸盤 20
蓓蕾 20
蕨 20
薄荷糖 20
藏青色 20
藤架 20
虎斑 20
蚊液 20
蜜汁 20
融@@ 20
衛生套 20
衣流 20
衣籃 20
衣索 20
衣著@@ 20
衣雪 20
袖薄款 20
裁縫 20
裝春裝 20
裝積 20
褲衩 20
襲 20
西外 20
解放 20
訂價 20
記本@@ 20
設品 20
設施 20
診斷 20
詳 20
調味@@ 20
請詢 20
講台 20
講義@@ 20
警報器 20
護理師 20
護角 20
讀書 20
豪泰 20
貝爾@@ 20
貨品 20
販賣 20
貼牌 20
賬@@ 20
購買@@ 20
贴纸 20
超四 20
超大型 20
超寬 20
超極 20
超聖 20
超萌@@ 20
趕快 20
足膜 20
足金 20
距@@ 20
跪 20
路障 20
跳繩 20
身器 20
身心 20
車內飾品 20
車包 20
車品 20
車尾燈 20
車紀 20
車衣車 20
車長 20
車門@@ 20
車雙 20
車雙輪 20
辦公杯 20
迎新 20
迎賓@@ 20
退款 20
透氣護 20
通常 20
速发 20
連帽拉鏈 20
進行 20
進門門 20
進階版 20
運代購 20
道袍 20
達菲@@ 20
遮陽罩 20
邀請 20
邊防 20
酸梅 20
酸菜 20
醒目 20
醜娃 20
鈷 20
銅器 20
銹 20
鋼制 20
鋼木@@ 20
鋼燒 20
鋼瓶 20
鋼色 20
鍋寶@@ 20
鍋煲 20
鏈夾 20
鏡頭@@ 20
鐵管 20
鐵罐 20
鐵鍬 20
鐵鏈 20
鑄造 20
铺子 20
閃閃@@ 20
防毒面具 20
防風沙 20
附收據 20
附收納盒 20
附輪 20
附近 20
降魔 20
限时 20
陸續 20
陽傘 20
隈 20
隔間 20
隨貨 20
險@@ 20
雙掛 20
雙核 20
雙格 20
雙桶 20
雙眼 20
雙節 20
雞排 20
雞肉@@ 20
雨傘@@ 20
零式 20
電包 20
電暖 20
電視盒 20
電話@@ 20
電錘 20
靈瓏 20
面皂 20
靴潮 20
鞋大碼 20
鞋襪 20
韌 20
韓版套 20
韓版手 20
韓版露 20
頂級貨 20
頑 20
頑童 20
頭家 20
顯胸 20
项链 20
風學院 20
風槍 20
風神 20
風網紅 20
飛翼 20
飛車 20
食盒 20
飼養 20
餅乾盒 20
養身 20
餐飲@@ 20
饰品 20
首張 20
香木 20
香精油 20
香耐兒 20
駐車 20
驅蚊器 20
體態 20
高產 20
高腰闊 20
高階版 20
鬥櫃 20
鱼@@ 20
麥克風@@ 20
麻將@@ 20
黑晶 20
黑軸@@ 20
點子 20
點讀筆 20
點長 20
點震動 20
點點@@ 20
龍龜 20
ö 19
х 19
々 19
ェ 19
ボ 19
一開 19
一體鍋 19
七折 19
三包 19
三家 19
三角旗 19
上佳 19
上游 19
上課 19
不織 19
专@@ 19
丘 19
丫@@ 19
乒乓球拍 19
乾坤 19
了解 19
二合 19
五片 19
亞曼尼手 19
亞洲樂器 19
享優惠 19
亭@@ 19
亮絲 19
亮麗@@ 19
人仔 19
人文 19
代替 19
令人 19
仪 19
伊甸 19
伊聖詩 19
休閒洋裝 19
伺服 19
佑@@ 19
佛供 19
佩佩@@ 19
供貨 19
便條 19
修容@@ 19
個入 19
偵@@ 19
催@@ 19
傳記 19
僧@@ 19
儀綠光 19
優比 19
優酪 19
優雅休 19
儿 19
元氣@@ 19
充瓶 19
兌換 19
免插電 19
免稅代購 19
全程 19
全貼 19
兩樣 19
公對 19
公雞@@ 19
六年 19
六爪 19
军@@ 19
冰絲防 19
冷氣毯 19
凱特 19
凱特@@ 19
凳式 19
出奇 19
分管 19
分開 19
切刀 19
初学者 19
刮樂 19
前進 19
剪草 19
創紙 19
加上 19
加價購 19
加棉 19
加菲貓 19
助步車 19
努 19
動漫次 19
包內 19
包型 19
包大號 19
包筆 19
包身 19
北投 19
十一大 19
单人 19
南北 19
南風 19
博美@@ 19
卦 19
卷軸@@ 19
厂家 19
厄文戰 19
原畫 19
參號 19
反叛 19
口红 19
古女 19
古學生 19
古曼童 19
古郵差 19
另@@ 19
可愛包 19
台大 19
台灣質 19
司法 19
各款 19
吊櫃@@ 19
同捆 19
同軸@@ 19
名稱 19
吸盤@@ 19
告 19
味王 19
咚 19
品袋 19
品酒 19
哈雷@@ 19
哥窯 19
哲理 19
唐詩 19
唯品 19
唸 19
啟動@@ 19
啪 19
啪啪 19
喀什 19
喜特麗 19
單單 19
單扣 19
單片裝 19
單車@@ 19
嘿 19
噴漆@@ 19
噴漆槍 19
四分之三 19
四寶 19
四杯 19
國營 19
國行 19
國防 19
國隆 19
圍布 19
圓底 19
圓融 19
團康 19
基隆市 19
堆 19
塑料布 19
塔羅@@ 19
填充物 19
墊床 19
壁虎 19
壓機 19
壓計 19
壓面 19
外圈 19
外流 19
外胎 19
外贸 19
多卡 19
多層@@ 19
多美@@ 19
夜店裝 19
夜空 19
夢網 19
大優惠 19
大刀 19
大圓領 19
大彈 19
大杯 19
大清 19
大賀屋 19
大輪 19
大門口 19
大開口 19
大陸原 19
天鵝項 19
夾款 19
夾腿 19
奈斯 19
奏@@ 19
奕@@ 19
女家 19
女雙 19
妙兒 19
妮塔 19
妹子 19
威克 19
威登 19
婚紗禮 19
嬌家電 19
孔夾 19
孔孝真 19
字標 19
季後賽 19
學生裝 19
安卓華為 19
安神 19
安納 19
实用 19
客百貨店 19
害羞 19
家樂 19
富麗雅 19
察@@ 19
寬松闊 19
寶寶吃飯 19
寶寶學習 19
寶寶幼兒 19
寶寶絨 19
寶寶護 19
封條 19
封邊 19
封鎖 19
尋香 19
導遊 19
小卡@@ 19
小如 19
小書櫃 19
小樂 19
小清 19
小物@@ 19
小空 19
小立 19
小軒 19
小鐵 19
小飯 19
小香款 19
小魯 19
小鯨魚 19
尖峰 19
尚風 19
尤西 19
尬 19
局限 19
屁 19
展廳 19
山治 19
岳@@ 19
已經 19
巴巴 19
布紋 19
布魯@@ 19
帆@@ 19
師父 19
帶側 19
帶殼 19
常識 19
干衣 19
干貨 19
平安夜 19
幸運手 19
床加 19
床掛 19
床行 19
床頭桌 19
庫存品 19
廖掌櫃 19
廠家代購 19
廣州 19
式樣 19
弗利 19
張小@@ 19
強烈 19
彈力布 19
彈簧床 19
彩釉 19
彪馬蕾 19
影棚 19
影機 19
後蓋 19
後視 19
微生物 19
微醺 19
微雕 19
德比 19
快樂小鋪 19
性酷 19
恭@@ 19
意中 19
意外 19
意樂 19
愛傑 19
感長 19
憂鬱 19
戲組 19
戴帽 19
房車 19
手偶 19
手挽包 19
手竿@@ 19
手編 19
打線 19
投幣 19
折式 19
抵@@ 19
抵用券 19
拆板 19
拉布拉多 19
拉式 19
拉提 19
拖特包 19
掌紋 19
掛桿 19
探險活 19
接桿 19
掬 19
描器 19
提克 19
提把 19
提盒 19
插件 19
揭@@ 19
搖蜜機 19
搽 19
摩兒 19
摩配 19
摯愛 19
撞球 19
擋水條 19
操控 19
擦洗 19
擺盤 19
擺連 19
收副 19
收納車 19
教師用 19
教授 19
敞篷 19
散文 19
敲琴 19
數控 19
斜面 19
新元素 19
新宿 19
新時 19
新科 19
新穎時 19
新論 19
旗袍裙 19
昇@@ 19
明清 19
昏 19
易活 19
星期四 19
星野 19
時尚衛衣 19
時期 19
普利司通 19
普拉提 19
普普 19
普萊@@ 19
暗紅 19
暴風 19
更價廉 19
書袋 19
最後現貨 19
有嘻哈 19
木棉花 19
木盆 19
木盤 19
木筷 19
木馬@@ 19
杆式 19
李仔串 19
束口長 19
枕毯 19
枕長 19
林先生 19
果味 19
果干 19
柒@@ 19
柴燒 19
桃樂絲 19
桌陽 19
桌靠 19
梭 19
梭@@ 19
棉護 19
棒壘球 19
棕櫚@@ 19
棗紅色 19
楊洋 19
楠子 19
榫 19
樂雅 19
標配 19
樟@@ 19
機紙 19
機遠程 19
機電 19
橡皮圈 19
橫版 19
檸@@ 19
檸檬糖 19
櫃組 19
欄室 19
欽@@ 19
款防 19
歌唱 19
歐鉉 19
正夯 19
母線 19
每份 19
每款 19
比比 19
气@@ 19
水塔 19
水條 19
水楊酸 19
水玉 19
水玉點點 19
水花 19
水補 19
永益 19
沙發毯 19
油布 19
法蘭絨毯 19
泵@@ 19
洗卸 19
洗顏@@ 19
洗顏皂 19
洩 19
流蘇長 19
浮水 19
浮游 19
浴簾@@ 19
海上 19
涂料 19
涼涼 19
淡香學生 19
淨白@@ 19
深邃 19
淺口@@ 19
清潔球 19
清潔車 19
清特價 19
測速器 19
湯包 19
湯杯 19
湯煲 19
滲 19
漁線 19
演繹 19
漢劍 19
漫画 19
漫趣 19
潔齒 19
潛艇 19
潮個 19
潮學生 19
激戰 19
火力 19
火燒 19
火鍋鍋 19
火龍 19
灰底 19
灰綠色 19
炫色 19
炸薯 19
烙@@ 19
無污 19
無火 19
無盒裝 19
無籽 19
無袖長 19
無針 19
煙味 19
煙灰@@ 19
煮面 19
熱杯 19
熱防 19
燈床 19
燈書 19
燈珠 19
燈眉 19
爆亮 19
爱 19
牆壁掛 19
版鞋 19
牌套 19
牌組 19
牢固 19
物超所值 19
特濃 19
特輯 19
特選@@ 19
狂人 19
獨賣 19
玄關@@ 19
王座 19
玩具狗 19
玩樂趣 19
玹 19
珀@@ 19
珉 19
珠光粉 19
珠項 19
現貨全 19
現貨快 19
琴琴 19
琴袋 19
瑪特 19
瑪莉@@ 19
璧 19
環保無毒 19
環衛 19
瓷杯 19
甘 19
甘油 19
生班服 19
生皮 19
用筆 19
用車 19
男女朋友 19
男板 19
男錢 19
留痕 19
畫眉@@ 19
畫紙 19
當家雜 19
疏@@ 19
痕掛 19
瘋館 19
瘦大碼 19
發北 19
白化 19
白淡斑 19
白膠 19
百搭流 19
百搭闊 19
百萬@@ 19
皂章 19
皓 19
皮單 19
盆架 19
直筒闊 19
硬板 19
硼砂 19
碰撞 19
神助 19
票據 19
禁書 19
禦 19
租屋 19
稿 19
積家 19
穴道 19
窟 19
立農 19
童電動 19
竹碳 19
第一波 19
筋肉 19
範本 19
籃臟 19
粉晶@@ 19
粉膚色 19
粉藍色 19
粗毛 19
粽子 19
紀梵 19
紅櫻桃 19
紅龍 19
純原 19
紙壁紙 19
紙片 19
紙筒 19
級別 19
紫外线 19
紫菜 19
紫龍晶 19
細軟 19
組合書 19
結手 19
結晶 19
結襯 19
絢@@ 19
絢麗 19
絲內 19
絲攻 19
綠底 19
綠能 19
綠野 19
維特 19
網帶 19
網紅抖音 19
網紅沙發 19
網罩 19
緁 19
緹@@ 19
繭 19
纏繞 19
缺口 19
羊駝 19
美嘉 19
美好生活 19
美妍 19
美妝館 19
美安 19
美材 19
美濃燒 19
美睫@@ 19
美霞 19
羽絨衣 19
習本 19
翻玩@@ 19
翻蓋手 19
耐嘉 19
耐油 19
耳帽 19
耶誕@@ 19
職業@@ 19
肖像 19
肤 19
肥佬@@ 19
背影 19
胎盤素 19
胡蘿 19
脈@@ 19
腰封 19
腳感 19
腹褲 19
膠袋 19
臉部@@ 19
自动 19
自動斷 19
自由人 19
自粘型 19
致然 19
艙@@ 19
色膠 19
艾米尼 19
芊芊 19
芒 19
芬奇 19
花禮盒 19
花臂 19
花袋 19
芳華 19
苓 19
英制 19
英特 19
茱麗葉 19
茶晶 19
茶餅 19
草茉莉 19
荼 19
菩提子 19
菱利 19
萬次 19
蓝色 19
蔡電器 19
蕉 19
蕎@@ 19
薄料 19
藍寶 19
藍白@@ 19
藍色款 19
藍花 19
藏傳 19
藏香 19
藥丸 19
蘇打餅 19
蘿莉@@ 19
虎牙 19
蚊褲 19
蛙鞋 19
蜜麗 19
螢火蟲 19
蟎蟲 19
蟬 19
蠟布 19
行服 19
衣舍 19
袖露 19
補丁貼 19
裝圓領 19
裝套裝 19
裝批 19
裝閨蜜裝 19
褲大尺 19
襯衫連 19
覆盆 19
記號筆 19
診 19
試紙 19
試衣 19
詳@@ 19
誕樹 19
語文 19
課堂 19
調扇 19
調節器 19
諾貝達 19
警報 19
護衣 19
讀本 19
貓耳@@ 19
貝殼@@ 19
貝貝@@ 19
財金 19
買大送 19
買家下 19
買鞋 19
貼耳 19
賠十 19
賤貓 19
賽斯@@ 19
贏家 19
走道 19
起免 19
超保濕 19
超硬@@ 19
超纖 19
超高速 19
跪@@ 19
躍@@ 19
身邊 19
車后 19
車座 19
車貼紙 19
車電動車 19
車電瓶車 19
軍事風 19
軟布 19
軟骨雨刷 19
載重 19
輕鋼架 19
輪滑 19
輪組 19
轉書架 19
轉木馬 19
辰@@ 19
迎賓燈 19
迪奧女 19
迪芙妮 19
迪麗熱巴 19
連衣褲 19
連體@@ 19
進化版 19
遊樂場 19
達利 19
達新牌 19
達洋 19
遠東 19
遮肚@@ 19
遮風板 19
避 19
還真 19
那年 19
鄧紫棋 19
酥麻 19
金鑲 19
金鑽 19
金雙 19
針款 19
釹 19
鈉 19
銅鑼燒 19
鋁質 19
鋁鎂 19
鏡壁 19
鐵器 19
鐵架床 19
鐵藝壁 19
鐵藝沙 19
鐵金鋼 19
鑰匙環 19
鑲邊 19
門上 19
門簾布 19
閃花 19
閃靈 19
開叉連 19
開口@@ 19
開孔器 19
開荒 19
間掛 19
防黴@@ 19
阳台 19
阿傑 19
阿勇 19
阿奈 19
阿瑪尼休 19
阿美 19
阿里 19
附皮 19
附遙 19
陌@@ 19
降臨 19
隱密 19
雙人座 19
雙效@@ 19
雙輸出 19
雙電壓 19
雛 19
雜貨鋪 19
雞蛋@@ 19
離型紙 19
雪紡裙 19
雷諾瓦 19
電加 19
電弧 19
電料 19
電暖爐 19
霸氣@@ 19
靈活 19
青島 19
青青 19
青鳥 19
青龍 19
靡 19
面儀 19
面鍋 19
靴長 19
鞋兒 19
鞋網 19
鞘 19
韓國大創 19
韓國款 19
韓國長 19
韓實 19
音樂耳機 19
音頻線 19
風套 19
風景畫 19
風條 19
風水閣 19
風華 19
風衣女 19
風連身 19
飄飄@@ 19
飄香 19
飛船 19
飛行@@ 19
飛行員@@ 19
飯繪 19
餌@@ 19
餐吊燈 19
餛飩 19
香調 19
香頌 19
馨點 19
馬甲@@ 19
馴鹿 19
駕照 19
駱@@ 19
驅蚊@@ 19
骨傳導 19
體乳 19
體操 19
高難度 19
高音喇叭 19
鬥魚 19
魚器 19
魚牌 19
鷗 19
鹵素 19
麥穗 19
黑瓶 19
黑綠@@ 19
黑藍紅 19
黑貞德 19
黑長 19
黛瑪 19
點火 19
鼻膜 19
龍族 19
한 19
E 18
ü 18
ஐ 18
ぁ 18
ぎ 18
せ 18
ぶ 18
ギ 18
ゴ 18
ヤ 18
ㄦ 18
一廳 18
一月 18
上好佳 18
上層 18
上手 18
上蓋 18
下座 18
不出 18
不悶熱 18
不會@@ 18
丘比特 18
丞 18
中包 18
中蜂 18
中野 18
中高腰 18
久興 18
之丘 18
之選 18
二輯 18
五包 18
五孔 18
五趾襪 18
交織 18
交通卡 18
人兒童 18
人用 18
人臉 18
人體潤 18
仔文藝 18
仕輪 18
仙人 18
代保護套 18
代號 18
仿木 18
企@@ 18
企業社 18
休閒潮 18
伽@@ 18
低壓 18
佛化 18
佛家 18
佳睿 18
促@@ 18
促全館 18
促進 18
俐@@ 18
保濕型 18
保真 18
保管 18
保羅衫 18
保養@@ 18
修補劑 18
倉鼠籠 18
倒角 18
值高 18
偉士 18
備長 18
储@@ 18
價購 18
儒@@ 18
優佳 18
優化 18
優美 18
光輝 18
免疫力 18
兒床 18
兒車 18
入侵 18
內層 18
內牆 18
內衣女 18
內貓 18
內野 18
全包殼 18
全員 18
全覆式 18
全賣場 18
全齡貓 18
公告 18
公沙 18
六個 18
其實 18
具包 18
内褲 18
农雅舍 18
冰杯 18
冰糖 18
冰絲涼 18
减@@ 18
几@@ 18
凱莉@@ 18
凱薩 18
凱西 18
凳沙 18
刀板 18
分段 18
分類櫃 18
切絲 18
刑事 18
刑具 18
利民 18
到位 18
刺身 18
前程 18
剪毛 18
創心 18
創意手 18
創意紅 18
創新@@ 18
力作 18
办公室 18
加斯 18
加糖 18
加護 18
加護靈 18
努力 18
勁媽媽 18
勇利 18
勾線 18
包化妝 18
包布 18
包殼 18
包膠 18
包色 18
包頭巾 18
包香奈兒 18
化煞 18
化空氣 18
升高 18
午@@ 18
半熟 18
华@@ 18
单鞋 18
南糖村 18
卡口 18
即品 18
卷軸 18
厚料 18
厚紙 18
厚薄 18
原装 18
叁拾 18
双人 18
双面 18
取暖 18
古刺 18
古宮廷 18
古田 18
古裝飾 18
可談 18
各樣 18
名師 18
吸壁 18
吸濕@@ 18
吸震 18
吸黑頭 18
吹水 18
命運@@ 18
咲 18
品冠 18
品茶 18
品館 18
售款 18
啞鈴@@ 18
啟動馬達 18
喆 18
喚 18
喜樂達 18
喫 18
單個價 18
單卡 18
單相 18
單開門 18
器手動 18
噴嘴 18
噴繪 18
四片 18
圆形 18
國立 18
園婦 18
埔里 18
塑鋼@@ 18
墊護 18
增粗 18
墩子 18
外國 18
多段 18
多米 18
夢夢@@ 18
大佬 18
大傘 18
大城 18
大戶 18
大拍 18
大樓 18
大物 18
大禮盒 18
大約 18
大裙 18
大靠 18
天主教 18
天出貨 18
天富 18
太和 18
太極@@ 18
头@@ 18
套式 18
套手 18
套桿 18
套鍋 18
奢小戶 18
女中 18
女春 18
女耳環 18
好孩子 18
好康@@ 18
好感 18
好麗友 18
始 18
威特 18
娅 18
子長 18
存儲 18
存條 18
学@@ 18
守宮 18
安德瑪庫 18
安撫椅 18
宋慧喬 18
宏典 18
宏富 18
宮燈 18
宴客 18
家具行 18
富勒烯 18
寛 18
實惠裝 18
實拍代購 18
實木布 18
審@@ 18
寫字@@ 18
寶寶必備 18
寶寶椅 18
寶寶涼 18
寶寶爬 18
射線 18
專用筆 18
小個 18
小偷 18
小全 18
小兵 18
小商品 18
小夕代購 18
小妮子 18
小安 18
小愛百貨 18
小木 18
小狸 18
小碗 18
小腹 18
小薇 18
小號@@ 18
小表盤 18
小謙 18
小護型 18
小迷妹 18
小鍵盤 18
小雯 18
小電 18
小飛@@ 18
小香家 18
尚側 18
尚圓領 18
尚新 18
层 18
居社 18
岔 18
峯 18
崩@@ 18
嵐@@ 18
工作站 18
巾圍 18
布幕 18
席滿客 18
帳篷戶 18
帶膠 18
帶防 18
常品 18
年式 18
幸運星 18
幾北歐 18
幾現 18
幾鐵藝 18
幾陽 18
床前 18
床頭片 18
底膠 18
廚櫃 18
廟會 18
引器 18
強制 18
強勢 18
彩繪筆 18
彭政閔 18
彼 18
後綁 18
徑@@ 18
徽標 18
快掛 18
快發 18
怡然 18
急凍 18
性冷淡 18
性手 18
怪人 18
愛普生 18
感官 18
感性 18
懶人毯 18
戀曲 18
我會 18
戰地 18
戰士@@ 18
戰線 18
所示 18
手續費 18
手膜 18
打氣泵 18
打火石 18
托福 18
扣夾 18
扶 18
抓柱 18
折疊防 18
抵 18
抽水泵 18
拆分 18
拉旗 18
拉花@@ 18
拓荒者 18
拖涼鞋 18
拷貝 18
捉 18
捉@@ 18
掏耳 18
排單 18
排行榜 18
探測器 18
控光後衛 18
掰掰 18
提帶 18
揪團 18
揮@@ 18
援@@ 18
搖搖床 18
搖擺車 18
搖鈴@@ 18
撫 18
攜行 18
收納床 18
收納省 18
收納鞋 18
放水 18
敏耳針 18
敦煌 18
敲敲 18
整頂 18
敵@@ 18
敷料 18
新安 18
新星 18
新月 18
新海 18
新西蘭 18
新谷 18
族@@ 18
旗艦館 18
日志 18
早味 18
明人 18
易北 18
显 18
時尚包 18
晃 18
晏@@ 18
晚上 18
普羅旺斯 18
普萊 18
智積 18
智能家居 18
暫時 18
曠野之息 18
曼巴 18
最夯 18
最後一個 18
有劃記 18
有章 18
服休 18
期待 18
期貨 18
木作 18
木兒童 18
木刀 18
木器漆 18
木業 18
本特 18
朱雀 18
杜拜 18
東京食 18
東大 18
板車 18
枕沙 18
果茶 18
架衛 18
染燙 18
柔紗 18
柔護 18
桂圓紅棗 18
桃花心木 18
桌單 18
桌遊@@ 18
桐人 18
桑椹 18
桑葉 18
梅花鹿 18
條小方包 18
條紋款 18
梨山 18
棍子 18
棧板 18
森系@@ 18
森藍 18
楠@@ 18
業成 18
極薄 18
榮獲 18
槽@@ 18
樂美 18
標價 18
樹形 18
機會 18
機防 18
檔案夾 18
檢測器 18
檸萌 18
櫃北 18
櫃組合 18
櫃置 18
櫻花牌 18
歐幣 18
歐美休 18
歐萊德 18
歡歡 18
歡迎@@ 18
正台 18
正大 18
正貨@@ 18
此為 18
步搖 18
死海 18
每件 18
毛精 18
氣球@@ 18
氯 18
水仙 18
水位 18
永信 18
沈 18
沉月 18
沙窗 18
油嘴 18
油紙 18
油膠 18
泊@@ 18
法學 18
波段 18
泥土 18
洋气 18
洋裝長 18
洗杯 18
洗白 18
洗舊 18
洗車機 18
洛克人 18
洛基 18
活氧 18
海竿@@ 18
海釣@@ 18
淨色 18
淨透 18
淺綠色 18
清晨 18
清潔露 18
清衣櫃 18
減速 18
減重 18
温 18
港味@@ 18
游樂園 18
湯圓 18
溜娃 18
溶劑 18
滋養液 18
滑溜溜 18
滑翔 18
滾石 18
漢方@@ 18
漫手 18
漫遊 18
漿@@ 18
潮百搭 18
澎澎袖 18
濕度 18
灰銀 18
烤機 18
無聊 18
無需 18
焦慮 18
熱風扇 18
燈個性 18
爐具 18
片語 18
牌架 18
牛奶瓶 18
牧羊女 18
特區 18
狗牌 18
獻上 18
玻璃珠 18
現代布藝 18
現代電腦 18
現貨買 18
球隊 18
理化 18
瑰 18
環氧樹脂 18
環組 18
環項 18
瓢鞋 18
瓶器 18
甜寵 18
生學習 18
生日卡 18
生理期 18
男大 18
男必備 18
男戒 18
男沙灘 18
男涼鞋 18
畢業季 18
異材質 18
疲勞@@ 18
發卷 18
發哥 18
發長 18
白夜 18
白桃 18
白沙 18
白綠@@ 18
白話 18
百合花 18
百夫長 18
百家姓 18
百搭耳環 18
百貨旗 18
皮帶頭 18
益菌 18
盒裝@@ 18
盤格紋 18
盤櫃 18
盤發 18
省電@@ 18
眼貼 18
睡籃 18
短大衣 18
短線 18
石珍珠 18
石鍋 18
石面 18
硝化 18
硬地 18
碎紙 18
碼箱 18
磁化 18
磨甲器 18
礦泉 18
礼盒 18
社群 18
票據法 18
私物 18
種植箱 18
稻 18
積木組 18
窄@@ 18
笨@@ 18
第六版 18
筆學生 18
節禮 18
範兒 18
篦子 18
簡易型 18
簡約陽 18
籍 18
籠褲 18
米學生 18
粉器 18
粉紫@@ 18
粉膚 18
精制 18
糊@@ 18
糖漿 18
紀梵希@@ 18
紅妍 18
紅樓 18
紅牛 18
紉 18
紗布@@ 18
紗質 18
紙包 18
紙抽盒 18
素顏@@ 18
紫檀木 18
紫白 18
終出 18
絕版書 18
絨質 18
統測 18
綁結 18
綁馬尾 18
維持 18
網美@@ 18
線性 18
線衣 18
縫紉@@ 18
縮機 18
繽 18
繽紛樂 18
罕見 18
罪@@ 18
置物柜 18
美乳 18
美人頭 18
美津 18
美馨 18
美麗購 18
美麗閣 18
羚 18
羽絲絨 18
羽織 18
翊@@ 18
翻毛 18
老師@@ 18
耐久 18
耐吉空 18
耐寒 18
聖誕交換 18
聖誕夜 18
聖誕裝飾 18
聖鬥士星 18
肉機 18
肥佬 18
肩連身 18
肯德基 18
能源 18
脫水 18
脱@@ 18
腎臟 18
腐@@ 18
腮紅盤 18
腰連 18
腳板 18
腸粉 18
膠傘 18
膠劑 18
膠台 18
臟衣 18
臥室@@ 18
臨床 18
舒芙蕾 18
舞者 18
色斑 18
色筆 18
艾瑟儿 18
艾蜜莉 18
花之舞 18
花冠 18
花刺 18
花房 18
英國梨小 18
茯苓 18
草包 18
草板 18
荒 18
萊兒 18
萊肯 18
萌妹 18
萬向輪 18
萬用@@ 18
萬磁王 18
落腳點 18
葉茶 18
葳爾登 18
蔗糖 18
蔥@@ 18
蕎 18
蕭邦 18
薰@@ 18
藍弧 18
藝術畫 18
藥妝 18
藥箱 18
蘇聯 18
蘿拉 18
虹吸式 18
蛋型 18
蜡 18
蝶舞 18
蝶飛 18
行充 18
行書 18
術@@ 18
衣鉤 18
袖雪紡衫 18
補貨中 18
裝夏 18
裝學 18
裝茶 18
裝薄款 18
裝顯 18
裴@@ 18
裴珍映 18
褲沙灘 18
襖 18
襪帶 18
襪襪 18
襯衫洋 18
西裝長 18
視聽 18
視訊 18
親吻 18
觀察 18
討@@ 18
訪 18
許願@@ 18
謝師宴 18
證券 18
警戒 18
護耳 18
變換 18
變聲器 18
變色@@ 18
變身器 18
豬巴 18
貓女 18
貢 18
貨原廠 18
買太多 18
賈 18
賤 18
質保 18
賬本 18
賴冠霖 18
走珠 18
超商@@ 18
超級@@ 18
超纖@@ 18
超輕薄 18
趙@@ 18
跩 18
路亞竿 18
路路通 18
車三輪車 18
車器 18
車拖車 18
車用頭 18
車鞋 18
軍規@@ 18
軟化 18
軟床 18
軟骨 18
輕奢北 18
轉換線 18
近視鏡 18
送杯 18
送長 18
途觀 18
通路 18
通風@@ 18
速賣通 18
進水 18
遍 18
遙@@ 18
遷 18
選用 18
邊幾角 18
邏@@ 18
那麼 18
部門 18
郵寄@@ 18
鄭號 18
配以 18
醫藥箱 18
重瓣 18
重裝 18
重車 18
野穹 18
金戒 18
金曜石 18
金球 18
金磚 18
金箍棒 18
釣魚線 18
銀吊 18
銅扣 18
銅質 18
鋁制 18
鋁管 18
鋁線 18
鋼絲球 18
錦囊 18
錫箔 18
鍋墊 18
鍋蓋@@ 18
鏈鎖 18
鏢@@ 18
鐵環 18
鐵皮@@ 18
鐵粉 18
鐵藝邊 18
鐵藝長 18
银@@ 18
門邊 18
開闢 18
闖關 18
间 18
阪 18
防刮套 18
防勾絲 18
防斷 18
防曬速 18
防盜門 18
防眩 18
防蠅 18
防護殼 18
防護網 18
防貓 18
防風傘 18
防飛濺 18
阿拉斯加 18
附上 18
附湯匙 18
附長 18
附防塵袋 18
陪@@ 18
隔臟 18
隨插 18
雙人長 18
雙電弧 18
雙面鏡 18
雙馬達 18
雛@@ 18
雜志@@ 18
雜物袋 18
雜貨小鋪 18
雞汁 18
雞皮 18
雨水 18
零錢@@ 18
雷公 18
電瓶@@ 18
電腦書 18
青鳥集 18
靜化論 18
非官方 18
面折 18
面會 18
鞋低 18
鞋櫃@@ 18
鞋涼 18
韓國學生 18
韓服 18
韓標 18
韓百搭 18
韓範 18
韩 18
音效卡 18
頌@@ 18
領中長 18
領套頭 18
領綁 18
領連身 18
風客 18
風日系 18
風褲 18
颱 18
飛炫 18
養生@@ 18
饃 18
饭@@ 18
香囊 18
香濃 18
香花 18
駒 18
驅蟲 18
骨牌 18
高壓線 18
高夠 18
鬼頭 18
魔人 18
魚具 18
魚條 18
魚頭 18
魚餌 18
魯士 18
鶴丸 18
鹵@@ 18
麗舍 18
麗車坊 18
麥兜 18
麻煩 18
黑底白字 18
黑染 18
黑殼 18
黑茶 18
點火線 18
鼠籠 18
齊地 18
龍柱量 18
ʙ 17
ˇ 17
ᴘ 17
け 17
へ 17
ァ 17
一出 17
一枚 17
一生一世 17
七八 17
七日 17
丈青 17
三光 17
三寶 17
三階 17
下飯 17
不夠 17
不拘 17
不接 17
不行 17
世足 17
中世紀 17
中島敦 17
中盒 17
中西 17
中鋼 17
串串 17
丹寧褲 17
主機架 17
乖@@ 17
九萬有 17
九龍 17
乳暈 17
乳白色 17
乳香 17
事務機 17
二胎 17
互動@@ 17
五福 17
五香 17
交換機 17
京城 17
人工智能 17
人桌 17
他@@ 17
仟@@ 17
代蘋果 17
代購網 17
份@@ 17
伊勢 17
伊卡 17
伊索 17
休閒衫 17
休閒裝 17
伽利略 17
位鎖 17
低帮 17
何 17
何首 17
佛由心 17
佳樺 17
佳音 17
使者 17
來往 17
例 17
俗俗 17
保時 17
保温 17
保潔@@ 17
保護圈 17
保防 17
保險學 17
保險絲 17
信報 17
修繕 17
倫理 17
做桌 17
側燈 17
傳統@@ 17
像@@ 17
僵尸 17
價格@@ 17
優惠價格 17
優樂 17
儲存盒 17
儲藏@@ 17
元寶@@ 17
元帥 17
充足 17
先確 17
光子 17
克林 17
克里斯 17
免治馬桶 17
免過 17
兔耳@@ 17
內墨片 17
內掛 17
內版 17
內長 17
全優坊 17
兩腳 17
八大 17
八度 17
八爪 17
八珍 17
公關 17
六輪 17
共享 17
兵工 17
其他人 17
典格紋 17
内裤 17
冰島 17
冰柜 17
冰絲綢 17
冷凍袋 17
准 17
凰 17
凱德 17
凳換 17
分母 17
切割片 17
初代@@ 17
判@@ 17
剪定 17
剪枝 17
創世神 17
創意省 17
創意長 17
創意陽 17
劉掌櫃 17
劍俠 17
力加 17
力歐 17
功效 17
動作 17
包吊飾 17
包媽 17
包日 17
包男@@ 17
包簡約 17
化妝師 17
化解 17
北島 17
北歐時 17
匡威@@ 17
十全 17
十六 17
千燈 17
千葉 17
半掌 17
協 17
南俊 17
卸妝霜 17
原封 17
原產 17
发货 17
口才 17
口碑 17
古實木 17
古茗 17
另議 17
叫床 17
可內 17
可彈 17
可愛大 17
可愛日 17
可超 17
台布 17
台機 17
吉兒 17
同仁堂 17
同性 17
同樂 17
同色 17
吐@@ 17
君君 17
含片 17
呢帽 17
周易 17
周瑤瑤 17
周邊@@ 17
呱呱 17
咕@@ 17
哈倫長 17
哺 17
唐尼樂器 17
唐裝漢服 17
售後無憂 17
商務表 17
商務運動 17
商務電腦 17
喊話器 17
喜多 17
喜酒 17
喪@@ 17
單壺 17
單幅 17
單方 17
單筒望 17
單缸 17
單速車 17
嗆 17
嘉玲 17
嘴平 17
器電動 17
噴火槍 17
噴霧@@ 17
嚴選外 17
四溝 17
四軸@@ 17
困@@ 17
固特異 17
國粵 17
圍腰 17
圍邊 17
圖板 17
圖紙 17
土地公 17
地藏小王 17
坤@@ 17
培育法 17
堅威 17
堆@@ 17
堇 17
報箱 17
塞子 17
墨耘 17
夕陽 17
外框 17
多容安@@ 17
多酚 17
大單 17
大格 17
大瓶裝 17
大通 17
大陸@@ 17
大陸代購 17
大鵬 17
天后 17
天晴 17
天母 17
天秤 17
奈兒 17
奈米@@ 17
奈米坊 17
奉@@ 17
奢餐 17
奧運版 17
女情侶 17
女春裝 17
女板 17
女皇 17
女高 17
奶香 17
好吉市 17
好質 17
如新 17
如此 17
妃@@ 17
娜璉 17
婦嬰 17
媞 17
嬰店 17
孵化器 17
學業 17
學生服 17
宇智 17
安迪 17
家里 17
家長 17
富福里 17
寬松學 17
寬肩 17
寶寶傘車 17
寶寶幼 17
寶寶衣 17
寶寶電動 17
寸拉桿 17
封印 17
將牌 17
專柜@@ 17
專注 17
導光 17
導游 17
導風板 17
小便器 17
小勾 17
小号 17
小四外 17
小圓凳 17
小女 17
小婷 17
小岑 17
小彩燈 17
小愛同學 17
小梅 17
小泉 17
小烏龜 17
小禮帽 17
小籠 17
小苑 17
小萌 17
小資@@ 17
小跑 17
小飛機 17
小餅 17
小鮮肉 17
少穿 17
尔 17
尚經典 17
尤克 17
尻 17
尼龍帶 17
尿褲 17
展會 17
屜 17
山型 17
岔@@ 17
岡山@@ 17
州@@ 17
左右手 17
巧拼 17
巧虎@@ 17
布藝門 17
师 17
希捷 17
師椅 17
帶氣 17
帶褲 17
帽款 17
平時 17
幾創 17
幾電視櫃 17
床子 17
床幔 17
店用 17
店铺 17
座位 17
座圈 17
庭塞 17
建築@@ 17
引流 17
弗 17
弛 17
強韌 17
彌尚 17
彤@@ 17
彩雲百貨 17
往@@ 17
很漂亮 17
後拉 17
後現 17
御姐 17
微高領 17
必修 17
必备 17
忠狗 17
快門 17
性學生 17
性玩具 17
性裝飾 17
恩賜 17
悅悅代購 17
悟天 17
情色 17
惜時 17
意境 17
愛人 17
愛寶百貨 17
愛手作 17
愛迪 17
愛迪達斯 17
感百搭 17
愿 17
成新@@ 17
戰利品 17
戰損 17
戰甲 17
戰略 17
手拿錢 17
才能 17
打旋風 17
打架 17
打泡 17
扣鎖 17
扭腰 17
扮@@ 17
抑@@ 17
投線 17
投資學 17
抗指紋 17
折款 17
抱毯 17
抹@@ 17
抹刀 17
押@@ 17
拆除 17
拌@@ 17
招正 17
指壓 17
捆扎 17
捶 17
掀套 17
掃除 17
掌柜 17
排風機 17
接著劑 17
推土 17
插圖 17
換器 17
換機 17
援手 17
搓@@ 17
搓衣板 17
搜羅 17
摇@@ 17
擦車 17
擺件@@ 17
擺台 17
擺洋裝 17
擺鐘 17
擾流 17
攜手 17
收副乳 17
收割 17
收拾 17
收涎餅 17
放傘 17
放光 17
放課 17
政府 17
救護車 17
敗 17
教師@@ 17
教父 17
文鳥 17
方管 17
施巴@@ 17
旨 17
时 17
易油網 17
昕@@ 17
星期天 17
映象 17
普烏 17
景天 17
景點 17
智高 17
暖爐 17
暫停 17
暴君 17
暴雪 17
更加 17
更好 17
書架書柜 17
書椅 17
書機 17
書櫥 17
曼特寧 17
有售 17
有度 17
服潮 17
木之本 17
木材行 17
末@@ 17
朱正廷 17
机械 17
李掌櫃 17
松原 17
板橋區 17
林家 17
框膠 17
案例 17
桌圍 17
桌實 17
桌書架組 17
桌板 17
桌機 17
桿免 17
條款 17
條珠 17
梢 17
梨卡 17
棉紙 17
棉靴 17
棕熊 17
棻 17
椅戶 17
椅鐵藝 17
楓葉@@ 17
業務@@ 17
極有家 17
極輕量 17
榛 17
榜 17
榨@@ 17
構 17
樂客 17
樂美雅 17
標志@@ 17
標牌 17
樹苗 17
橄欖石 17
機棉 17
機油心 17
機組 17
機能@@ 17
機長 17
檔次 17
次方 17
次郎 17
欣怡 17
歐娜 17
歐尚 17
歐日 17
歐沙 17
歐燈 17
歐美外 17
歐茶 17
止血 17
正山小種 17
正負 17
步步 17
死飛 17
殘膠 17
毛衫 17
氙氣 17
氣動@@ 17
氣潮 17
水劑 17
水幫浦 17
水性漆 17
水深 17
水滴形 17
水療 17
水系 17
水豚 17
污@@ 17
決勝 17
沙子 17
沙發桌 17
油水 17
油缸 17
油護 17
泡壺 17
波佐助 17
波羅蜜 17
泰坦 17
泰瑞 17
洗照片 17
洗鍋 17
活圍 17
活膚露 17
流蘇單 17
浪花 17
浮圈 17
浮床 17
浮漂 17
浴簾桿 17
海康 17
海棠 17
海陸 17
浸@@ 17
润@@ 17
淘寶之家 17
淡藍 17
深紅 17
混音器 17
清涼@@ 17
清貨 17
減少 17
減糖 17
減肥稱 17
港仔 17
游戲屋 17
渼 17
溫暖@@ 17
溫濕度計 17
满@@ 17
滴漏式 17
滾珠@@ 17
漁鄉 17
漢蘭達 17
漫展 17
漾@@ 17
漾潤 17
潘婷 17
潤色護 17
潮派 17
潮襪 17
潮長 17
澡 17
澳佳 17
濟慈閣 17
濱@@ 17
火之歌 17
火紅 17
炫光@@ 17
炮手 17
炮機 17
炳 17
烤串 17
热@@ 17
烯 17
無劃記 17
無度 17
無段 17
無油@@ 17
無菌 17
焦鏡頭 17
熊包 17
熨@@ 17
熱膜 17
燁 17
燈板 17
營柱 17
營繩 17
營養液 17
爆漿 17
爆笑 17
爐戶 17
版西裝 17
牙杯 17
牛犬 17
牛羊 17
特拼貼 17
特立 17
狂想曲 17
王源 17
珍愛@@ 17
珠片 17
班尼頓 17
現代休 17
現代玄 17
現代玄關 17
現貨北歐 17
現貨泰國 17
現貨特 17
球組 17
理財@@ 17
琦@@ 17
琺瑯杯 17
琺瑯蛇頭 17
瑞亞 17
瑩潤 17
瑩瑩 17
璃 17
環耳 17
環長 17
瓏 17
甘菊 17
甜蜜蜜 17
生涯 17
生產@@ 17
男包單 17
男短夾 17
男裝潮 17
略 17
畫室 17
畫面 17
異次 17
異象 17
疼痛 17
瘦休 17
療@@ 17
發布 17
白標 17
白貝母 17
白鐵鍍 17
百大 17
百搭側 17
百搭潮牌 17
百香 17
盆水龍頭 17
盖 17
盛世 17
盧卡 17
盪 17
直筒@@ 17
直驅 17
省電燈 17
真治 17
眼鏡框 17
短皮夾 17
矯色 17
碟版 17
碼連 17
祛疤 17
神劍 17
神通 17
禹@@ 17
私服 17
科士威 17
秒@@ 17
稀釋 17
穩根 17
突擊隊 17
窗玻璃 17
窺@@ 17
立減 17
童休 17
童書包 17
第三@@ 17
第二次 17
筆學 17
等候 17
筠 17
简@@ 17
管徑 17
篩檢 17
簡易式 17
簡易陽 17
簽本 17
籃球員 17
米卡 17
籽油 17
精通 17
糖精 17
糸 17
紅條 17
紅色長 17
紅蓮 17
紅點 17
納帕 17
純淨@@ 17
純真 17
純銀耳 17
純鋼 17
紙板 17
紙海報 17
紛@@ 17
索愛 17
細縫 17
組合沙 17
組床 17
結婚@@ 17
結項 17
絕美@@ 17
經機 17
綠蘿吊蘭 17
維護 17
維雅@@ 17
綱@@ 17
網紅主播 17
網防 17
編織袋 17
編輯部 17
縱橫 17
織紋 17
繞頸 17
纯 17
置放 17
置物盤 17
羅斯 17
羊城 17
美國國旗 17
美熙 17
翻譯機 17
老爺車 17
老物 17
而成 17
耐吉王 17
耐臟 17
耗@@ 17
耳環耳飾 17
耿鬼 17
聖誕襪 17
聲卡套 17
聽聲 17
肆 17
胚 17
胸肉 17
能恩 17
脣膏 17
脫毛器 17
腎@@ 17
腔 17
腰托 17
膠印 17
膠手 17
膠水@@ 17
膠紙 17
膠膜 17
臉盆柜 17
臥板 17
自噴漆 17
臭臭 17
舊版 17
舒俱徠 17
舒活 17
色板 17
色澤@@ 17
色膏 17
艾惟諾 17
艾爾@@ 17
艾瑪@@ 17
艾薇 17
芃芃 17
芥 17
芬尼 17
花之語 17
花箱 17
花絮 17
芹 17
英倫小 17
茨 17
茶粉 17
莊子 17
菊苣 17
菲詩 17
萬斯@@ 17
萬用鍋 17
蒜頭 17
蓋頭 17
蔬@@ 17
薛 17
薪 17
藍尾 17
藍白紅 17
藍針 17
藍鬼 17
藤球 17
蘆 17
號長 17
蝕刻 17
蝶型 17
蟑@@ 17
蟬@@ 17
蟾 17
蠟菊 17
行楷 17
街車 17
街頭潮 17
衛衣潮 17
衣套 17
衣罩 17
袋中 17
袋入 17
袜子 17
補胎 17
裝免 17
裝小@@ 17
裝米 17
裤@@ 17
裸紗 17
褲個性 17
褲內褲 17
襯墊 17
西華 17
西門子 17
計程車 17
記帳 17
試驗 17
話題 17
誇 17
誼 17
調拉桿 17
調長 17
談戀 17
談桌 17
護腳 17
護膚膏 17
變徑 17
變裝@@ 17
谷歌 17
豐盈@@ 17
象神 17
豹子 17
貓廁 17
貓樹貓 17
貓籠子 17
貝克漢姆 17
貨緬甸玉 17
販百貨 17
貿 17
資格 17
賽巴 17
超微 17
超涼 17
超療 17
超絕 17
超肌能 17
趴兔 17
路克 17
身服 17
躲藏 17
車內@@ 17
車單 17
車後@@ 17
車組 17
輕時 17
輩@@ 17
轉機 17
轉角櫃 17
轉讓 17
车载 17
转@@ 17
辦公櫃 17
迅速 17
迪奧妮 17
迪斯 17
迷彩服 17
迷戀 17
退役 17
退換貨 17
送禮物 17
送電池 17
逃生 17
這檔 17
速乾褲 17
速熱 17
逢 17
逼@@ 17
遊戲屋 17
運動護腕 17
運動速 17
達爾文 17
達菲雪莉 17
遮蔽 17
部份 17
郵原廠 17
鄉民 17
配頭層 17
醇@@ 17
醒膚 17
醫生@@ 17
野之旅 17
野兔 17
金響鐘 17
針器 17
銀耳釘 17
銀鍍 17
鋤 17
鋼骨 17
鍋電磁爐 17
鎖定 17
鏡帶 17
鏡衛 17
鏡頭轉 17
鐵塔@@ 17
鐵藝燈 17
鐵藝陽 17
鐵門 17
鑄鋁 17
鑽時 17
鑽石光 17
针 17
针织 17
钛 17
門簾子 17
開叉包 17
閱昇書 17
防塵蓋 17
附保證 17
附杯 17
陌 17
陷 17
陽光@@ 17
随身 17
障 17
隱藏@@ 17
雙人布 17
雙動圈 17
雙桿式 17
雙條 17
雙機 17
雙碗 17
雙絲光 17
雙震動 17
雜物盒 17
離霜@@ 17
雪克杯 17
雯雯代購 17
雷朋太陽 17
電台 17
電氣 17
電焊@@ 17
電無線 17
電熱毯 17
電熱飯 17
電玩屋 17
電貼 17
電音 17
露趾涼 17
青峰 17
青眼 17
靜心 17
面相 17
鞋白 17
鞋舒適 17
韓國兒 17
韓國大 17
韓熱銷 17
韓版夏裝 17
韓版連 17
韓版高 17
韓直 17
韓蕾絲 17
韓衣 17
音色 17
頑皮 17
領短 17
領素 17
頭嘻哈 17
頭潮 17
頸帶 17
頸紋 17
顏值 17
類單 17
類型 17
领 17
風個性 17
風涼鞋 17
飆 17
飛舞 17
飯桶 17
飲料機 17
養殖@@ 17
館長 17
香奈兒@@ 17
香盒 17
馬油 17
騏 17
騷粉 17
驢家 17
高功率 17
高幫休 17
高標 17
魔卡 17
魚板 17
魚腥 17
魷 17
鯉@@ 17
鱈 17
鱗@@ 17
鴛鴦@@ 17
鴨肉 17
鹿鞭 17
麥坤 17
麥子 17
麩 17
麻紗 17
麻衣 17
黏鍋 17
黑點 17
點酷 17
龍珠超 17
龍頭@@ 17
龍魚 17
龐克風 17
국 17
à 16
ä 16
φ 16
ᴡ 16
び 16
を 16
一刀 16
一加 16
一字涼 16
一層 16
一現 16
一車份 16
一進 16
七大罪 16
七巧板 16
七里 16
三人沙 16
三套 16
三斗 16
三期 16
三次 16
三道 16
三鐵 16
三防 16
上鏡 16
下蛋 16
不了 16
不加價 16
不重 16
与 16
世茂 16
世貿 16
中華電信 16
丰@@ 16
串燒 16
丹尼斯 16
丽 16
之巔 16
之書 16
之源 16
乙 16
书架 16
乾花 16
乾裂 16
事本 16
二月 16
二補 16
五寶茶 16
五本 16
五段 16
五雙 16
亞美 16
亮彩@@ 16
亮燈 16
什錦 16
仗 16
仿藤編 16
企業倫理 16
伊莎@@ 16
伍柒 16
伏地挺身 16
休旅車 16
休閒側 16
低統 16
佐登妮 16
作戰 16
作用 16
佰 16
佳斯捷 16
佳琳 16
依晨 16
保冷@@ 16
保护套 16
俠盜 16
信義計劃 16
修复 16
修枝 16
假書 16
偏頭 16
停車位 16
健身椅 16
傑米 16
傘布 16
傘戶 16
傲嬌 16
價免 16
優益 16
優衣庫 16
優逅 16
兄@@ 16
充氣沙 16
充電便 16
充電動 16
充電組 16
免疫 16
免費安裝 16
免運到 16
兒時 16
兒歌 16
兒禮盒 16
內建@@ 16
內牙 16
內門 16
全圖 16
全境 16
全攻略 16
八件 16
六芒星 16
共讀 16
共鳴 16
兵長 16
兼具 16
冒@@ 16
冠希同款 16
冰冷 16
冰枕 16
冰模 16
冰涼@@ 16
冰茶 16
冲@@ 16
冷帽 16
凱爾 16
凶@@ 16
出力 16
出場 16
出清款 16
出發 16
刀柄 16
制造 16
前傳 16
創傑 16
創想 16
創意兒 16
創意家 16
劇集 16
功能性 16
动 16
助步 16
勝利@@ 16
包個 16
包洋氣 16
包相機 16
包韓版 16
包頭@@ 16
北歐戀 16
千家 16
千尋@@ 16
午後紅 16
半開 16
南京 16
卡利 16
卡林巴 16
危@@ 16
卷材 16
去核 16
反光板 16
变@@ 16
口中 16
口長 16
古仿 16
古壁 16
只價 16
叫@@ 16
叮叮 16
可可粉 16
可帶 16
可愛圖案 16
可愛網紅 16
可愛軟 16
可愛點點 16
可放長 16
可選購 16
可食 16
台糖 16
台酒 16
台風 16
合友 16
合歡 16
吉麗絲朵 16
吊飾@@ 16
同屏 16
后掛 16
呆@@ 16
呼@@ 16
命運之夜 16
咔 16
品勝 16
哆@@ 16
哈飾 16
哥德 16
唱機 16
啞光唇 16
啥 16
喜馬拉雅 16
喬丹籃 16
單一@@ 16
單拉 16
單支價 16
單條 16
單槓 16
單純 16
單衣 16
單鉤 16
噴射@@ 16
噴筆 16
四冊 16
四折 16
四邊 16
固化 16
圍棋 16
園兒 16
圓穴 16
圓通 16
團購價 16
土鍋 16
地布 16
地板革 16
型染板 16
型護 16
埋@@ 16
培林@@ 16
堅達 16
塔式 16
塞爾 16
境@@ 16
墜珠 16
墾丁 16
壁架 16
壓力@@ 16
壓板 16
壓縮機 16
壓著 16
壓褶 16
壹灣陽光 16
外匯 16
外機 16
多寶閣 16
多年生 16
大口 16
大心 16
大翻 16
大霧量 16
天官 16
天梭手 16
天河 16
天目 16
天絲床 16
天鋼 16
天降 16
天鵝絨@@ 16
太鼓達 16
失敗 16
失眠 16
夾子@@ 16
夾腳@@ 16
奇石 16
奇肌 16
奇遇 16
奎@@ 16
套票 16
套頭@@ 16
奢華時 16
奪 16
女分體 16
女絲巾 16
女裝時 16
女裝連 16
奶糖 16
奶素 16
好多 16
妙妙 16
威斯 16
娛樂@@ 16
娜拉 16
媽咪袋 16
嫁@@ 16
嬉@@ 16
嬌聯 16
孔曉振 16
孔機 16
孕產婦 16
字桌 16
安卓充 16
安德@@ 16
安睡 16
宋慧 16
宏達電 16
定下 16
定時器 16
客來 16
室掛 16
家里人 16
宽 16
富士通 16
富邦 16
寤 16
實作 16
實驗@@ 16
寬松潮 16
寶寶滑 16
寶寶童車 16
寶寶褲 16
寶藍白 16
寸筆 16
對表 16
對襟 16
小件 16
小卡包 16
小夏屋 16
小奶鍋 16
小寵 16
小弟 16
小慧 16
小抱 16
小明 16
小智 16
小枕頭 16
小湯 16
小種子 16
小耳環 16
小豆 16
小資族 16
小開 16
小馬桶 16
小高 16
少爺 16
尚感 16
尚洋氣 16
尚美 16
尚肩 16
尷尬 16
尿壺 16
尿道 16
居酒 16
屈@@ 16
山林 16
岛 16
岱 16
嵌入 16
巡航 16
工資 16
巨石 16
已過 16
市售 16
布依 16
布屋 16
布條 16
希子 16
希爾@@ 16
席夢思 16
帶時 16
帶細 16
帶著 16
常溫 16
帽套 16
帽時 16
干爽 16
平凡 16
平版 16
年老 16
幸來 16
幾小茶 16
床兒童 16
床墊子 16
床帶 16
床笠款 16
床護 16
底特律 16
廠牌 16
廣志 16
強光頭 16
強者 16
彌勒 16
彤彤 16
彩妝刷 16
彩膠 16
往事 16
後備 16
後開 16
得利卡 16
微商 16
心中 16
心智 16
心法 16
心臟 16
必勝 16
必達 16
急救包 16
怦然 16
性別 16
性金屬 16
怪味 16
恩斯 16
恬恬 16
悍 16
惚 16
惡犬 16
意式極 16
意者 16
愛爾蘭 16
愛美麗 16
愛迪達長 16
愛飛翔 16
感耳環 16
愷 16
憨 16
憲@@ 16
成員 16
成行 16
戲水@@ 16
扙 16
扣手 16
投手 16
抖音@@ 16
折長 16
抱哥 16
拉帝 16
拉斯卡 16
拌勺 16
拍機 16
拚@@ 16
挖肩 16
挪客 16
挺版@@ 16
授@@ 16
掛勾@@ 16
掛板 16
掛柜 16
掛耳@@ 16
掛鏈 16
掛飾@@ 16
採藥 16
探頭 16
控式 16
提案 16
插式 16
換頭 16
搬運 16
搭外 16
摘@@ 16
摘果 16
摺@@ 16
擦汗 16
擴展器 16
擴鞋 16
擺地 16
擺頭 16
攬 16
收納架免 16
收車 16
收錢 16
改機 16
故@@ 16
整式 16
整裝@@ 16
文化城 16
文版 16
文藝百 16
斑馬牌 16
斜側 16
新活 16
新潮流 16
斷碼 16
斷路器 16
施德樓 16
施肥 16
旁 16
旋鎖 16
旗標 16
日向 16
日本料理 16
日清@@ 16
日版景品 16
旦 16
昂@@ 16
昆蟲@@ 16
明哥 16
明月 16
明洞 16
明鏡 16
星期日 16
星燦@@ 16
星艦 16
春光 16
晚晚 16
晝行 16
晨晨 16
晾衣服 16
暖呼呼 16
暖氣 16
暗夜 16
暗紋 16
暴走鞋 16
曝光 16
書名 16
書柜@@ 16
最近 16
月星 16
有大尺 16
有孔 16
有意 16
木凳 16
木子李 16
木斗 16
木林 16
未滅菌 16
本賣場 16
東店 16
板帽 16
极@@ 16
枕車 16
果肉 16
架陽 16
柔順@@ 16
柜儲物 16
校車 16
格紋洋裝 16
格長 16
桌床 16
桌省 16
條側 16
條枕 16
條線 16
條貼 16
梳妝盒 16
棉兒 16
棉底 16
棋格 16
椅北 16
椅餐 16
極光@@ 16
榴 16
槍頭 16
樂佩 16
樂章 16
樂糕 16
樟 16
機學 16
機導航 16
機槽 16
機水龍頭 16
機能性 16
機車載 16
機過 16
檸檬衣舍 16
款側 16
款單 16
款顯 16
歐妮 16
歐姆龍 16
歐藝優 16
正妹 16
武夷山 16
死庫 16
每顆 16
毒藥 16
比較 16
毛穴 16
毛長 16
水合 16
水庫 16
水果汁 16
水泉 16
水碗 16
水銀電池 16
水閥 16
汝歡 16
汽油桶 16
沙沙 16
沙皮狗 16
沢 16
油條 16
油機 16
沿 16
法令 16
法典 16
波比 16
波麗@@ 16
洋蔥@@ 16
洗車@@ 16
洗頭床 16
洗顏乳 16
活動櫃 16
活源 16
流動 16
流氓 16
流金 16
海信 16
海力士 16
海天 16
海帶 16
海景 16
海港 16
海獅 16
海王星 16
淋 16
淘寶 16
淡藍色 16
淨化@@ 16
淨妍 16
淨重 16
深古巷 16
深層潔 16
添柏嵐 16
清庫存 16
清明 16
清酒 16
測試儀 16
湛@@ 16
湯底 16
源自 16
溫箱 16
滅蠅 16
滌@@ 16
滑動 16
滑皮 16
滑輪@@ 16
滿堂 16
滿點 16
漏油 16
漢來 16
漸層色 16
潔膚露 16
潔顏油 16
潛水套 16
潤唇 16
潤白 16
潮店 16
潮男裝 16
潮范 16
潮館 16
澆 16
澎 16
濕疹 16
濟@@ 16
濟州島 16
濺 16
瀝青 16
灣現 16
灶@@ 16
炒年糕 16
烤火 16
焙@@ 16
無事牌 16
無尾熊 16
無農藥 16
煎@@ 16
煙管 16
照亮 16
熊手 16
熊掌 16
熔膠 16
熱火 16
燃燒 16
燈小夜 16
爺@@ 16
牆壁紙 16
牌價 16
牙周 16
牙間 16
特價現 16
特福 16
猿@@ 16
獨立@@ 16
王柏融 16
王菲 16
玩伴 16
玩具箱 16
現代化 16
現代掛 16
現代風格 16
現貨正 16
現貨美國 16
球器 16
理念 16
理查 16
琇 16
瑪奇朵 16
環型 16
環耳墜 16
生堂 16
生裝 16
用小戶 16
用手 16
用護 16
用途 16
甲板 16
男工 16
男用@@ 16
男短褲 16
男褲子 16
町@@ 16
畢業禮 16
畫新 16
異域 16
疊加 16
疙瘩 16
癱瘓 16
登山服 16
發休 16
發假 16
發明 16
白幫 16
白搭 16
白晶 16
白衣 16
白銀@@ 16
百搭內 16
百搭大碼 16
百搭太陽鏡 16
百搭細 16
皂袋 16
皮劃艇 16
皮機 16
皮款 16
皮蛋 16
皺褶 16
盒書 16
盞 16
目的 16
相卡 16
相間 16
眉眼 16
看圖 16
看過 16
真理 16
真碳 16
睡窩 16
睪 16
瞬潔 16
短毛 16
短直 16
短節 16
矯正鞋 16
石灰 16
石頭@@ 16
破音 16
硬盒 16
碳鋼 16
碼機 16
碼胖 16
碼衣著 16
磁帶 16
磁片 16
磚紅色 16
磡 16
磨甲機 16
祖師 16
神樂 16
神油 16
祭典 16
福祿 16
福箱 16
禮小物 16
禮物卡 16
秀禾服 16
租借 16
稚 16
窗外 16
窗戶@@ 16
窗陳列 16
立雅壁 16
童小 16
童巾 16
童椅 16
笔@@ 16
笛音 16
符布 16
第七代 16
筆畫 16
答@@ 16
箔 16
管夾 16
節水 16
篩子 16
簡易書柜 16
簽名球 16
籌碼 16
米克 16
米加 16
米羅 16
米黃色 16
粗針 16
粘扣 16
精環 16
精華膠 16
精選輯 16
糧食 16
紅人 16
紅刷 16
紅星 16
紅素 16
紅龍柱 16
純萃 16
紗洋裝 16
紗禮服 16
紗線 16
紙拼貼 16
紙本 16
紙畫 16
紡連身 16
紫泥 16
紫銅 16
結婚禮 16
結蕾絲 16
絲床 16
經文@@ 16
經濟包 16
綠紅 16
綠蘿多肉 16
綢 16
網圍 16
網孔 16
網紅假 16
網紅女 16
緊顏 16
線女 16
緣分 16
緩衝@@ 16
緩釋 16
緩震@@ 16
緬甸玉翠軒 16
練臂 16
總冠 16
總則 16
總動員@@ 16
總裁桌 16
繩防 16
纖維布 16
绒@@ 16
绿 16
绿@@ 16
美元 16
美到 16
美容店 16
美縫劑 16
美腰 16
美麗家 16
羽絨@@ 16
翠綠 16
翰 16
翻邊 16
老繭 16
耕 16
聊 16
聚夢 16
聚餐 16
聯強 16
職員@@ 16
聽筒 16
肉器 16
股東 16
背上 16
胖虎 16
胡麻 16
胸顯 16
脊@@ 16
脫皮 16
腳座 16
腳氣 16
自動機 16
自立 16
至上 16
臻@@ 16
興修繕 16
舍利 16
舒适 16
舞力 16
舞動 16
色套 16
艷后 16
艾葉 16
艾薇@@ 16
芙妮 16
芬杯 16
花心 16
花戀 16
花椰菜 16
花舞 16
花車 16
芳療 16
英國倫敦 16
英文原版 16
英檢@@ 16
茄手 16
茶巾 16
茶席 16
茶盞 16
草草 16
莓莓 16
菁華 16
菠菜 16
華杏 16
華洛世奇 16
華航 16
菲爾 16
萌趣 16
萬事興 16
萬里 16
蒂巴蕾 16
蓋杯 16
蓝弦小铺 16
蔚 16
薛之謙 16
藍忘機 16
藍線 16
藍藻 16
蘊@@ 16
蘚 16
蘭芝@@ 16
蝸 16
螢幕架 16
蠟海綿 16
街道 16
衛士 16
衛浴@@ 16
衡@@ 16
表殼 16
袖西裝 16
裁紙 16
補品 16
裝衛 16
裝貓 16
裝送 16
裸光 16
裸娃 16
褲加絨 16
褲連 16
褲防 16
襪長 16
襪鞋 16
西子 16
要塞 16
覓 16
覓@@ 16
視力 16
親膚@@ 16
覽 16
角燈 16
角質@@ 16
角鐵 16
觸摸@@ 16
訂書針 16
訊@@ 16
訊息 16
誘光水 16
語法 16
誠信代購 16
諮詢 16
識@@ 16
譜@@ 16
議 16
護頸@@ 16
譽 16
變速器 16
豎版@@ 16
豪華型 16
貝恩@@ 16
貨緬甸 16
貼圖 16
賀禮 16
賠@@ 16
質時 16
購實 16
購物籃 16
贈好禮 16
起士 16
起家 16
超短裙 16
足部按摩 16
跟細 16
路邊 16
跳板 16
車把 16
車擋 16
車棚 16
車記 16
輸碼 16
轉燈 16
農業 16
農純鄉 16
迎客松 16
迎接 16
迎面 16
透氣潮 16
透水 16
透紗 16
逗 16
通行 16
速寫 16
連帽帽 16
連身@@ 16
進貨 16
遊泳 16
運動頭 16
運勢 16
過保 16
過去 16
達手 16
達斯 16
遙遙 16
遮陽布 16
邊毯 16
邪神 16
邵@@ 16
郵寄 16
郵電 16
配對 16
配禮盒 16
酒粕 16
酵 16
采賦 16
里島 16
里斯 16
野山 16
針耳環 16
鈣@@ 16
銅牌 16
鋸機 16
鋼筋 16
錄儀 16
錄音器 16
鍋燃氣 16
鎧@@ 16
鏡掛 16
鐵藝雨 16
鑽圈 16
鑽石紋 16
鑽飾品 16
铁艺 16
閃發 16
開罐 16
開閉 16
間免 16
閨蜜手 16
關門 16
阪神 16
防咬@@ 16
防尘 16
防曬傘 16
防水材料 16
防灰塵 16
防蜂 16
阿嬤@@ 16
阿拉蕾 16
阿羅拉 16
阿芙 16
阿贊力 16
限免 16
除毛刀 16
除氯 16
陰器 16
陳列 16
隔尿墊 16
隨手杯 16
隨草憶境 16
隱私 16
雅居 16
雙充 16
雙北市 16
雙向@@ 16
雙尖 16
雙拼 16
雙槓 16
雙肩書包 16
雙葉 16
雙門@@ 16
雙風扇 16
雪鐵龍 16
雲林 16
零粉 16
零配 16
雷曼 16
電烙 16
電王 16
電腦手 16
電視遙 16
霸道 16
靈符 16
靈芝 16
青檸羅勒 16
靚白 16
面條 16
面漆 16
鞋路 16
韓妝 16
韓文 16
韓版夏 16
韓版帥氣 16
響紙 16
頂夾 16
順利 16
領拉鏈 16
領純色 16
頭刺 16
頭桌 16
頭皮護理 16
頭罩 16
顯高 16
風水畫 16
風超 16
風金屬 16
飛兔 16
飛度 16
飯菜 16
飲用 16
養生館 16
饞 16
首爾場 16
首爾連線 16
馨兒 16
馬燈 16
駕馭 16
驚喜包 16
驛站 16
驰 16
體內 16
體機 16
體驗@@ 16
高上 16
高品质 16
高纖 16
高腰長 16
高貴@@ 16
鬼手 16
鬼鬼 16
鰹魚 16
鸚鵡@@ 16
麗絲 16
麥芒 16
麻灰 16
黑發 16
黑碧璽 16
黑筆 16
黑籃 16
黑紅白 16
黑腳 16
黑鬼 16
黴@@ 16
鼓式 16
鼻影 16
齒盤 16
아 16
ʏ 15
τ 15
к 15
۵ 15
ぐ 15
だ 15
ヒ 15
ペ 15
ㄋ 15
一共 15
一副 15
一對@@ 15
一心 15
一整 15
一檔 15
一目 15
七層 15
三十 15
三哥 15
三多 15
三才 15
三片 15
三箭牌 15
三級 15
三輯 15
上穩 15
下方 15
不管 15
不錯 15
丘@@ 15
两款 15
中標 15
中版 15
中醫 15
串旗 15
丹爸 15
丽@@ 15
之劍 15
之夏 15
九魚 15
书包 15
二分之一 15
二張 15
二星 15
二杯 15
二門 15
五路 15
亞克 15
亞培@@ 15
交貨 15
交車 15
人兒 15
人聲 15
人際關 15
仔小 15
代儲 15
代加工 15
代編織 15
代駕 15
以衣著 15
任何人 15
伊娃 15
位置 15
低噪音 15
佛由 15
佛頭 15
作飾品 15
佳趣 15
侵@@ 15
侶裝 15
保冰杯 15
保濕潔面 15
保護器 15
保險@@ 15
信件 15
信使 15
修護潤 15
修護護 15
倍力 15
停產 15
停電 15
側綁 15
傘雨傘 15
傻@@ 15
僅穿過 15
像頭 15
價廉 15
億家 15
優居 15
優月 15
允@@ 15
允兒 15
元特價 15
充版 15
充蕊 15
充電線器 15
充電遙 15
光屏 15
光燦@@ 15
克洛克 15
克蘭 15
免穿 15
免運有 15
免釘免 15
免頭款 15
兒童學 15
兒童護 15
內桶 15
全包沙 15
全窩端 15
全麥 15
兩件連 15
兩地 15
八仙 15
公雞漢堡 15
六門 15
共二色 15
冊合售 15
冰丝 15
凋@@ 15
凱撒 15
凳布藝 15
凳時 15
出清中 15
函授 15
刀子 15
刀手 15
刀組 15
分手 15
分明 15
分水 15
切角 15
到@@ 15
制熱 15
前蓋 15
前輩 15
剪發 15
創客 15
創漢服 15
劇本 15
力表 15
功德 15
加勒比海 15
加寬@@ 15
助人 15
劫 15
勒斯 15
勝樂 15
勳風 15
包位 15
包保護套 15
包書 15
包狗 15
包盒 15
包萬用 15
包郵差 15
包館 15
化妆 15
化毛 15
北極星 15
北極絨 15
北歐休 15
北歐后 15
十九 15
十件 15
半畝 15
南海岸 15
卡地 15
卡爾@@ 15
卡達 15
即熱式 15
厂家直销 15
压@@ 15
厕所 15
厚型 15
厚雪紡 15
原罪 15
參片 15
叉車 15
及第 15
叛逆 15
古埃及 15
古大框 15
古奇手 15
古奇長 15
古眼 15
古純色 15
古著長 15
古裝漢服 15
古鄉 15
可代購 15
可居 15
可愛學 15
可愛汽車 15
可愛百 15
可愛超萌 15
可愛軟妹 15
可愛防 15
可愛雙 15
可折疊沙 15
可拉 15
可拉@@ 15
台中翔 15
台主 15
台哥 15
台尺 15
史黛拉@@ 15
右邊 15
各國 15
合小戶 15
合賣 15
合適 15
吉姆 15
名古屋 15
含蓋 15
含運@@ 15
吸塵機 15
吹氣 15
吹球 15
呂布 15
呆萌 15
告訴 15
呼 15
呼拉圈 15
品店 15
哇@@ 15
哈林 15
哺兒 15
唐卡 15
啞光@@ 15
喜客 15
喜樂 15
單人休 15
單人陽 15
單盆 15
單盒 15
單輪 15
單速 15
喷雾 15
喻@@ 15
嗚 15
噗浪 15
噴罐 15
嚕嚕 15
囊袋 15
四射 15
四段 15
四等 15
四耳 15
因斯 15
固拉多 15
圃 15
國小眾 15
圓角@@ 15
圖代購 15
圖案@@ 15
團購網 15
圣水 15
地亞 15
型錄 15
型鎖 15
堤@@ 15
堪@@ 15
塗色 15
墊加 15
增氧泵 15
壁布 15
壓泵 15
売 15
夏利 15
夏時 15
夏洛特 15
外地 15
外面 15
外飾 15
多佛 15
多士爐 15
多心 15
多色@@ 15
多雜 15
夜色 15
夜行 15
大享 15
大和@@ 15
大奔 15
大媽 15
大寶 15
大展 15
大師@@ 15
大廈 15
大提琴 15
大數 15
大是 15
大標 15
大毛領 15
大溪 15
大版 15
大耳@@ 15
大英 15
大電流 15
大電量 15
天成 15
天掌 15
天狗 15
天際 15
太鼓 15
失落 15
夾潮 15
夾短夾 15
夾角 15
奇士 15
奇特 15
奇藝 15
奈奈 15
契約 15
套床 15
女個性 15
女加絨 15
女圓臉 15
女拉桿 15
女方 15
女服 15
女秋裝 15
女裝夏 15
女騷 15
女高腰 15
妖狐 15
妻@@ 15
姨媽 15
威向 15
威猛 15
婆@@ 15
婚卡 15
媗 15
嫵媚 15
孔雀石 15
字扣 15
孝素 15
学院 15
宗近 15
官帽 15
宠物 15
客單 15
客廳@@ 15
客椅 15
宣傳單 15
宵夜 15
家務@@ 15
家禽 15
實境 15
實木紋 15
實木高 15
實況 15
實體店 15
寫板 15
寵貓 15
寶寶可愛 15
寶寶吃 15
寶寶彌月禮 15
寶熊 15
寶物 15
封閉式 15
將軍@@ 15
專單 15
專科超 15
對入 15
導航架 15
導論 15
導讀 15
小三角 15
小兒 15
小圖 15
小寶寶@@ 15
小惠 15
小木屋 15
小歆 15
小獅子 15
小玫瑰 15
小白花 15
小碎 15
小碟 15
小禮盒 15
小絲巾 15
小綿羊 15
小露 15
小首爾 15
少數 15
少男 15
尚禾 15
尚純色 15
尚飾品 15
尸 15
尺單 15
尼莫 15
屑@@ 15
山丘 15
山海 15
岡山戀 15
嶋 15
巡邏 15
工人 15
工學@@ 15
工裝鞋 15
左衛門 15
巴比 15
布斯 15
帝牙 15
帳蓬 15
帶書架 15
帶涼 15
帶雙 15
幫套 15
干貝@@ 15
幸運繩 15
幹細胞 15
床折疊 15
康朋 15
弘德 15
弟弟 15
強生 15
弹@@ 15
弹力 15
彥@@ 15
彩妝師 15
彩色玻璃 15
影燈 15
往生 15
征服者 15
很少 15
律@@ 15
後座 15
得到 15
德化 15
心生 15
心電圖 15
必備@@ 15
忠犬 15
怒@@ 15
性百搭@@ 15
怪怪 15
恆溫@@ 15
恐 15
恩靜雜 15
恬 15
悶@@ 15
情景 15
惠宜 15
愉耳樂器 15
愛你@@ 15
愛愛@@ 15
愛紗 15
愛與 15
感動 15
慕皮 15
慶祝 15
憂 15
應援@@ 15
懿 15
成年人 15
成願 15
截 15
戰斗 15
戰斗@@ 15
戲耳機 15
扁平足 15
手拿長 15
手捧花 15
手搖磨 15
手札 15
手枕 15
手機用 15
手眼 15
手織 15
手繪風 15
手鼓 15
扒@@ 15
打拳 15
打掃 15
打鼓 15
批發團 15
投光 15
抽繩束 15
拉丁 15
拉貨 15
拉頭 15
拋竿 15
招財樹 15
掉落 15
掌廚 15
掛包架 15
掛架@@ 15
掛脖式 15
掛衣桿 15
掛表@@ 15
描 15
提前 15
提問 15
提提 15
提梁 15
插頭@@ 15
摔球 15
摔護 15
摸@@ 15
摺扇 15
撒野 15
撕貼 15
撫觸 15
撲@@ 15
操盤 15
擦色 15
收納多層 15
收銀箱 15
敦 15
斯圖西 15
方枕 15
方頂 15
日本公司 15
日空 15
早熟 15
昊 15
明前 15
明德 15
明白 15
明顯 15
春裝@@ 15
時區 15
時尚閣 15
時標 15
時裝秀 15
晨練 15
普普@@ 15
景泰 15
晴寶寶 15
晶鎮 15
晾衣杆 15
暈染刷 15
書櫃@@ 15
替換@@ 15
有家 15
有禮 15
服團 15
服防 15
朗逸@@ 15
期刊 15
木南 15
木書桌 15
木皮 15
木质 15
木香 15
朱砂 15
李維斯 15
束線 15
杠鈴@@ 15
条纹 15
来 15
杯口 15
東東 15
東條 15
松子 15
板桌 15
枕沙發 15
林大 15
架書 15
染發 15
柔性 15
柔柔 15
柚柚 15
柜掛 15
柜省 15
柯南@@ 15
柳宗理 15
柿 15
栽 15
桃桃 15
桃膠 15
桌可折 15
桌客 15
桌戶 15
桌組合 15
梗@@ 15
條女 15
條燈 15
梦 15
梦@@ 15
梵谷 15
棉圍 15
棉薄款 15
棋牌 15
森寶 15
森百貨 15
椅單 15
植物油 15
植絨@@ 15
椰 15
椰棕床 15
椰殼 15
楠 15
極上 15
榕 15
槤 15
樂佛 15
樂家 15
樂盒 15
標準@@ 15
樹懶 15
樹枝@@ 15
橘果 15
機不銹鋼 15
機學生 15
機獸 15
機耳機 15
機遙 15
機防塵 15
橫杆 15
橫須賀 15
檸檬香 15
櫃恒溫 15
櫻花杯 15
欄寶寶防 15
欠 15
欣兒 15
歐單 15
歐斯@@ 15
歐洲@@ 15
歐系 15
歐美百 15
歐蕙 15
歐陸 15
歡樂本 15
正碳 15
武道 15
歲兒 15
殺菌@@ 15
母座 15
母頭 15
每張 15
每瓶 15
毛象 15
毫克 15
毫安培 15
民國風 15
气 15
氣休 15
氣密 15
氣密@@ 15
氧吧 15
水兵 15
水原 15
水床 15
水瓢 15
水畫 15
水盒 15
水盤 15
水芙蓉 15
汁@@ 15
求售 15
污漬 15
沁園 15
沙灘@@ 15
沙灘車 15
法國帶 15
法學緒論 15
法會 15
法蕊 15
法蘭美妝 15
波羅 15
波霸 15
注塑 15
注射 15
泰閣 15
泳装 15
洽談@@ 15
派機 15
浮水印 15
浴網 15
海倫@@ 15
海克 15
海納 15
海綿套 15
海貍 15
海軍領 15
海馬@@ 15
消臭@@ 15
液晶屏 15
深入 15
深黑 15
混沌 15
添 15
清仓 15
清洁 15
清淨@@ 15
清潔袋 15
渔夫帽 15
渝 15
溫潤 15
滋養@@ 15
滲透@@ 15
漂唇 15
潘朵 15
潛能 15
潮媽 15
潮寶寶童 15
濕分 15
濾掛式 15
瀏海@@ 15
瀝@@ 15
火燒石 15
火花 15
火輪 15
火雞肉 15
灰金 15
烟@@ 15
無底 15
無影 15
無扣 15
無標 15
無水 15
無袖@@ 15
無領 15
熊寶貝 15
熊懶 15
熊抱 15
熱水 15
熱熔@@ 15
熱狗@@ 15
熱碗 15
熱遮陽 15
熹 15
燃氣@@ 15
燈夜 15
燈大廳 15
燈鞋 15
爆發 15
爆纖錠 15
爆賣 15
爬樓 15
父子 15
片盒 15
版友 15
牛仔裤 15
牛姐 15
特包 15
特注 15
特濃@@ 15
特貨 15
特點 15
犬夜叉 15
狙擊槍 15
狠貨 15
獅子頭 15
獅頭 15
獨步 15
獲@@ 15
獵殺 15
玉子 15
玉蘭 15
玉露 15
王下 15
王哥 15
珠扣 15
現代化妝桌 15
現代邊 15
現代鐵藝 15
現貨有 15
球場 15
琥珀色 15
瑟夫 15
瓣 15
甜甜的 15
甜點@@ 15
生休 15
生帽 15
生書柜 15
生食 15
田園@@ 15
电 15
男人味 15
男套裝 15
男腰 15
留聲機 15
略@@ 15
番@@ 15
番薯 15
畫壁畫 15
畫廊 15
當天出 15
疊杯 15
疼 15
疾病 15
瘋手機 15
發單 15
發生器 15
發頭 15
發飾品 15
白兵 15
白彈 15
白格 15
白水泥 15
白洋 15
白藜 15
白蘭 15
白頭 15
百搭圓 15
百搭套 15
百貨行 15
皮斯摩特 15
皮錢 15
盆長 15
盒手 15
盤腕 15
直身 15
直郵@@ 15
相思豆 15
省油 15
眉膏 15
看書架 15
看護 15
眼膠 15
睫老 15
知優 15
短版長 15
石板 15
石牌 15
石紋 15
石雕 15
硫@@ 15
碧素堂 15
磁鐵掛 15
磨具 15
示@@ 15
神舟 15
福包 15
私模 15
私訊@@ 15
秋秋百貨 15
秋裝長 15
秋鞋 15
秘書@@ 15
秘訣 15
程程 15
種球 15
積木班長 15
空包 15
穿照 15
窄版 15
窯@@ 15
立柱式 15
立香 15
童書柜 15
童玩 15
童禮物 15
笤帚 15
第八版 15
筆尖 15
筆槽 15
答 15
答案 15
管長 15
箱套 15
節氣門 15
範圍 15
簡約質 15
簡約門 15
簽筒 15
米動手 15
米蟲 15
粉美肌 15
粉金 15
粗糙 15
粗高 15
粘性 15
精純 15
精鋼@@ 15
精鋼手 15
糖蜜 15
約克夏 15
紅燒 15
紅筆 15
紅藜 15
紋繡@@ 15
紋雙 15
納豆 15
紐約@@ 15
紐頓 15
純情 15
純欖護 15
純銀吊 15
紙器 15
紙巾套 15
紙幣 15
紛 15
紫丁香 15
紫粉 15
紫葡萄 15
紫藍 15
細網 15
細肩@@ 15
組入 15
組盆 15
結果 15
結緣@@ 15
絞菜 15
絲絨霧 15
維京 15
維斯 15
網布@@ 15
網布椅 15
網紅休 15
網紅化妝品 15
網紅長 15
網路@@ 15
網通 15
綵 15
線式 15
線裝 15
編織面 15
緹花 15
縣市 15
縮時 15
縮袋 15
繪本@@ 15
红星 15
线@@ 15
羊絨@@ 15
羊羊 15
美吾 15
美術生 15
美鋪 15
美麗代購 15
羞羞 15
習作 15
翻糖模 15
老池 15
老皮 15
考耳 15
耐克鞋 15
聯保 15
肌活 15
肖 15
肖@@ 15
背後大 15
背手 15
背長 15
胎教 15
胗 15
胚芽 15
胡蘿卜 15
脫毛機 15
腳印 15
腸機 15
膜力 15
膠貼 15
膳@@ 15
臉束 15
臍帶 15
臥床 15
自拍器 15
自救 15
自鎖 15
舌帽 15
舒暢 15
舒緩@@ 15
舞衣 15
色織 15
艾瑪絲 15
艾莉@@ 15
芬芳 15
芯子 15
花丸 15
花園@@ 15
花款 15
花鼓 15
苔@@ 15
英倫百 15
茉莉花茶 15
茶會 15
茶渣 15
莉娜 15
莖 15
莫斯科 15
菁萃 15
華立 15
萊法 15
萌兔 15
萌娃 15
萬代高達 15
萬家易購 15
萬變 15
葉修 15
著作 15
蒂娜 15
蒔@@ 15
蒙特 15
蒙面 15
蓋器 15
蓓 15
蔻@@ 15
蕾絲邊 15
薪@@ 15
藍波刀 15
藍牙頭 15
蘇菲@@ 15
蘿卜褲 15
蘿蘭 15
虱目 15
蚊扣 15
蛋盒 15
蜂毒 15
蝶谷 15
蝸@@ 15
蝸蝸 15
融化 15
螢@@ 15
蟑 15
蠍子 15
衍紙 15
衛隊 15
衣廚 15
衣社 15
衣繩 15
补@@ 15
衫長 15
衰@@ 15
袖大碼 15
裂紋 15
装饰品 15
裝帶 15
裝掛 15
裝百搭 15
裳 15
裸感 15
裸機 15
裸空 15
裸膚 15
褲內 15
褲吊帶 15
褲寬 15
襯衫套 15
襯衫潮 15
西亞@@ 15
觀葉 15
觀賞魚 15
角蛋白 15
觸控@@ 15
觸控筆 15
設計長 15
詛咒 15
詢@@ 15
調乳器 15
調查 15
調理包 15
談判 15
請問 15
諾特電子 15
謎擬 15
警器 15
護玄 15
讀機 15
變速@@ 15
豬八戈 15
貓項 15
貝克@@ 15
負壓 15
貨現貨 15
販團購 15
貪睡 15
貫 15
貼兒 15
貼防 15
賣家@@ 15
質感長 15
質美優 15
超亮頭 15
超時空 15
超棒 15
超濾@@ 15
超省 15
路西 15
跳動 15
跳樓 15
跳色 15
踢@@ 15
身裙 15
身裝 15
躲貓貓 15
車位 15
車兩輪 15
車小@@ 15
車居 15
車況 15
車輪@@ 15
軟頭 15
輕便式 15
轉向燈 15
轉環 15
轮@@ 15
轻@@ 15
轻便 15
辦公書 15
辯位 15
迪雅 15
迫降 15
退坑 15
送餐 15
透氣籃 15
透氣防 15
速降 15
逢@@ 15
連桿 15
連衣長 15
進修 15
進入 15
進口版 15
遊卡 15
運中 15
運動束 15
運北 15
運費免 15
運輸@@ 15
過敏@@ 15
過道陽 15
過頭 15
達文西 15
達爾膚 15
遠離 15
適中 15
遮白 15
遮陽擋 15
選賣 15
還原劑 15
邊伯賢 15
邊蕾絲 15
配重 15
酒袋 15
酵@@ 15
酸辣 15
酸辣粉 15
醜 15
野戰 15
金台 15
金城 15
金安 15
金材質 15
金豬 15
金頭 15
釣餌 15
鉤@@ 15
銀杏葉 15
銀邊 15
銅雕 15
銷售@@ 15
鋼托@@ 15
鋼貼 15
錄音師 15
錄音機 15
鍋燉 15
鍍銀 15
鍍銀@@ 15
鎖水 15
鎖精 15
鎭 15
鏡台 15
鏡子@@ 15
鏡組 15
鏡試 15
鐵圈 15
鐵套 15
鐵甲 15
鐵皮畫 15
鐵藝書架 15
鑫鑫 15
鑽耳針 15
锅 15
開鎖 15
開關@@ 15
閒短褲 15
闖 15
门口 15
防刺 15
防曬霜@@ 15
防狼@@ 15
防盜鎖 15
防護鞋 15
防风 15
阿波羅 15
阿福 15
阿贊公 15
附書套 15
附海報 15
限張 15
限買家 15
除味劑 15
除菌@@ 15
除霉 15
陶器 15
陶盆 15
陽光潮 15
陽炎 15
隔熱碗 15
雁@@ 15
雅典 15
雅姿 15
雅高 15
集完 15
雕工 15
雙拍 15
雙環@@ 15
雙雙 15
雙震 15
雜物店 15
雜物架 15
離線 15
離防 15
雯雯 15
雷柏 15
電加熱 15
電容@@ 15
電工@@ 15
電板 15
電解 15
電話號 15
電鋼琴 15
電鏈 15
需求 15
霄 15
霓@@ 15
露比 15
露營趣 15
青竹 15
青軸@@ 15
靚麗 15
靜靜家 15
非賣品 15
面上 15
面筋 15
鞋會 15
鞭@@ 15
鞭子 15
韌@@ 15
韓國氣 15
韓國頭飾 15
韓嬋 15
韓版大 15
韓範@@ 15
韓簡約 15
韓范兒 15
韓非子 15
音乐 15
音樂器 15
音樂節 15
頂桿 15
順通 15
領氣質 15
領體 15
頭皮@@ 15
顏露 15
風中長 15
風化 15
風北 15
風小戶 15
風水門 15
風草 15
風雙 15
風雲@@ 15
風露 15
風顯 15
食機 15
飼養箱 15
飾蓋 15
餅人 15
養護@@ 15
餘文樂 15
首批 15
香奈 15
香米 15
馬牌 15
馬頭 15
駐 15
騎馬 15
騙 15
驟@@ 15
骑行 15
骨灰 15
骨項 15
骰 15
高僧 15
高純度 15
鬼臉 15
魔眼 15
魚尾連 15
魯魯修 15
鴉板 15
鴨鵝@@ 15
鴨黛西 15
鹼@@ 15
麗仁堂 15
麗穎 15
麥精 15
麥迪遜 15
麻吉@@ 15
黑款 15
黑白棋 15
黑蕾絲 15
黑貓宅 15
黑頭@@ 15
默默 15
鼎文公職 15
龍柱 15
龍袍 15
龜牌 15
á 14
ʜ 14
➑ 14
ず 14
よ 14
一世 14
一人 14
一人@@ 14
一卷 14
一圖 14
一星 14
一筆 14
一輩子 14
一體化 14
七十二 14
七段 14
七龍 14
三峽貓 14
三環@@ 14
三花 14
三角型 14
三郎 14
三麗歐 14
下半身 14
下架 14
不分 14
不可@@ 14
不合 14
不撞款 14
不收邊 14
不變 14
不買 14
不賣 14
不透 14
世界名著 14
两@@ 14
中一電工 14
中大@@ 14
中度 14
中秋月 14
中筒@@ 14
中藥@@ 14
丹妮 14
主體 14
之舞 14
之谷 14
乙丙 14
乙級 14
二創 14
二十 14
二盒 14
互動式 14
五子棋 14
五成新 14
五眼 14
亞竿 14
交換器 14
交直流 14
亮橘 14
人才 14
人本 14
人款 14
人長 14
人際 14
人飯 14
什錦@@ 14
仇@@ 14
仔仔 14
代無線 14
代網面 14
代耳機 14
代買代購 14
代金 14
件@@ 14
任性 14
任我行 14
企尚 14
伊朗 14
伊莉莎白 14
休閒桌 14
休閒純 14
伞 14
估價 14
估價單 14
你家 14
來意 14
例@@ 14
供選 14
依時 14
便簽 14
保內 14
保溫桶 14
保護板 14
保護框 14
修腳器 14
修護液 14
倍速 14
倒勾 14
偉力 14
健腹 14
偽裝學 14
傘洋 14
傘繩 14
催麥 14
傾心 14
優勢 14
優惠多 14
優格@@ 14
優米 14
優速 14
優雅款 14
儲水式 14
元交車 14
充電殼 14
兆 14
先創 14
光伏 14
光光 14
光速 14
光鏡 14
光韻 14
克利 14
免用 14
免驅動 14
兔絨 14
內存卡 14
內機 14
全碳 14
兩冊 14
兩罐 14
八寶 14
八泰郎 14
八面 14
公對公 14
共同 14
具套 14
兼 14
再次 14
冏 14
冠軍購物 14
冬粉 14
冬蟲 14
冰柱 14
冰皮 14
冰花 14
冷熱水 14
凍肉 14
凍鞋 14
凝脂 14
凯@@ 14
凱文 14
凸面 14
出國@@ 14
分床 14
分裝罐 14
分趾器 14
切模 14
初等 14
利斯 14
制品 14
制度 14
刷刷 14
刷舊 14
剌 14
剪雲者 14
創代購 14
創意免 14
創意雨 14
創藝 14
創飾品 14
創館 14
劃記 14
劇照 14
劈柴 14
劉家 14
加利 14
加強@@ 14
加絨款 14
助事業 14
勞保@@ 14
勾絲 14
勿標 14
包兒 14
包收納 14
包有 14
包橫款 14
包翻 14
包迷 14
包附 14
包飯 14
化妝套 14
化學@@ 14
化裝 14
匡 14
十二月 14
十周年 14
十四 14
十字花 14
十方 14
半墊 14
協貿國際 14
南棗 14
博寶兒 14
博柏利@@ 14
博越 14
卡及 14
卡塔 14
印鑑 14
卷筒 14
卸妝潔 14
原價@@ 14
原點 14
叉匙 14
及其 14
古人 14
古奇休 14
古小@@ 14
古布 14
古紅 14
古網 14
古英倫 14
古著屋 14
只售 14
可反 14
可夾 14
可惜 14
可替 14
可直 14
可背 14
可視@@ 14
可麗餅 14
台語 14
合作社 14
合記 14
吉祥如意 14
吊蘭@@ 14
名仕 14
名城 14
呈現 14
周轉 14
呷 14
咕嚕 14
咯 14
咸@@ 14
哈尼 14
哺乳期 14
唇刷 14
唇紋 14
商務太陽帽 14
啟示錄 14
單人小戶 14
單夾 14
單桶 14
單行本 14
單體 14
嘉儀 14
嘉琪 14
四季春 14
回機票 14
圈套 14
圈椅 14
國寶品 14
園丁 14
圓包 14
圓椅 14
圖章 14
圖騰長 14
團媽 14
土壤 14
圣誕樹 14
地板刷 14
地鐵@@ 14
地震 14
坐床 14
坑@@ 14
坡@@ 14
坯 14
垂釣 14
埃 14
培訓@@ 14
基格爾德 14
填縫劑 14
墊長 14
墓@@ 14
壹代 14
壹致 14
外星 14
外門 14
多個 14
多卡層 14
多美小車 14
多美車 14
多角 14
多賢 14
多項 14
大五金 14
大号 14
大屏幕 14
大沿帽 14
大粒 14
大谷 14
大輝 14
大閘蟹 14
大麻 14
大黃靴 14
天命 14
天國 14
天行者 14
夹@@ 14
夾充 14
夾克防風 14
夾發飾 14
夾腳涼 14
奢北歐 14
奢床 14
女個 14
女免 14
女冬@@ 14
女圓 14
女用機 14
女百搭@@ 14
女表@@ 14
奶白 14
好握 14
好質量 14
妮娜 14
婉婷 14
婕@@ 14
婦幼 14
婦科 14
媽咪家 14
嬌生 14
子母@@ 14
子金 14
子陽 14
孔劉 14
孔徑 14
孔明 14
孟 14
學書籍 14
學苑 14
宅媽 14
宅窩 14
安徽 14
安素 14
完全版 14
宙@@ 14
定妝@@ 14
定性 14
宜蘭@@ 14
实@@ 14
家園 14
密花園 14
富山 14
實例 14
實木圓 14
實木折 14
寫給 14
寬松速 14
寶僑 14
寶寶夏裝 14
寶寶版 14
寶緹嘉@@ 14
寸民謠 14
射精 14
尋寶記 14
小七 14
小便斗 14
小天 14
小姊姊 14
小学生 14
小徑 14
小手帕 14
小新樂 14
小木@@ 14
小本 14
小杯 14
小煙 14
小玉@@ 14
小盾 14
小確幸 14
小組 14
小罐 14
小腳休 14
小達 14
小鋼琴 14
小鎖頭 14
小香耳釘 14
尚氣 14
尚鞋 14
尼爾@@ 14
尼羅河 14
尿不濕 14
居士 14
屋優品 14
山大麥 14
山石 14
山脈 14
山茶 14
山莊 14
島嶼 14
川歐 14
巴拿馬 14
布布 14
布帽 14
布床 14
布景 14
布配 14
希少 14
帕瑪氏 14
帝安諾 14
帳篷室 14
帶娃 14
帶鎖@@ 14
帶點 14
常青 14
帽圍 14
帽夾 14
帽盒 14
干磨 14
干膠 14
幸运 14
幽 14
幾小圓桌 14
幾次 14
床件 14
床簾@@ 14
床雙人 14
底漆 14
庚 14
度數 14
庫裡 14
廚房掛 14
廸 14
張雅@@ 14
強光@@ 14
強效@@ 14
彈丸論 14
彈力球 14
彈潤@@ 14
彈跳@@ 14
彩泥 14
彩筆 14
彩紙 14
彩色版 14
彰化市 14
征服 14
後照 14
後空 14
御彩 14
御菁書坊 14
德國美 14
德魯納 14
心手 14
必收 14
必考 14
必選 14
志效 14
志訓 14
思佳 14
思優 14
怡君 14
急店 14
急配 14
性鐵藝 14
恒濕 14
恬@@ 14
患子 14
悲傷 14
情感 14
情書 14
情迷 14
惠子 14
愉悅 14
意個 14
愛不釋 14
愛品質 14
愛玩 14
愛瘋潮 14
愛美神 14
愛藏版 14
愛蜜 14
感手 14
懸空 14
戈壁 14
房陽 14
手印 14
手快 14
手拿鏡 14
手桿 14
手环 14
手環手 14
手術帽 14
手風琴 14
才子 14
扎染 14
打球 14
打電話 14
托帕石 14
扣休 14
扣飾 14
承諾 14
投訴 14
投資@@ 14
抗屑 14
抗暈 14
披薩盤 14
抽濕 14
拆盒 14
拆開 14
拉帶 14
拉桿@@ 14
拔罐 14
拖潮 14
拘束 14
拳王 14
拼經濟 14
按動 14
挎@@ 14
挑染 14
捕蠅 14
捕鼠 14
捷運@@ 14
排便 14
掛櫃 14
掛環 14
掛飾品 14
探險家 14
接袖 14
控筆 14
控自 14
插入式 14
換物 14
損傷 14
搖曳 14
搞@@ 14
搭款 14
搶先 14
撕式 14
撕裂 14
撞色款 14
撩 14
擎天柱 14
擔 14
擬@@ 14
擱腳 14
擴音機 14
收折 14
改編 14
放在 14
敏弱 14
教堂 14
敞口 14
整器 14
整車 14
數字鍵 14
文斯莫克 14
文本 14
斐 14
斜坡 14
斯伯丁 14
新爾 14
新舊 14
新雅 14
斷裂 14
施華 14
旅行家 14
旅遊書 14
旋转 14
旋風@@ 14
日象 14
明緯 14
春雨 14
時尚板 14
時腕 14
時裝手 14
晴晴 14
智旻@@ 14
智荷 14
暈染@@ 14
暴風@@ 14
曠野 14
書架兒 14
書適 14
曼尼 14
最愛影視 14
會長 14
月付 14
有事 14
有源 14
朗明哥 14
木座 14
本廟 14
本架 14
本週 14
札@@ 14
李先生 14
杏桃 14
材质 14
杜桑 14
束腳長 14
杰克 14
東晶電 14
析 14
枕側 14
枕头 14
枕孕婦 14
果器 14
果皮 14
果盒 14
架組 14
柜燈 14
柠檬 14
柯基@@ 14
柱貓 14
格蘭仕 14
格西 14
格調 14
格魯特 14
栽種 14
框掛 14
框眼鏡 14
桌化妝 14
桌牌 14
桿室 14
條防 14
械 14
棄 14
棉裙 14
棉頭 14
棉體 14
森森 14
椅室 14
楊桃 14
楚 14
槍套 14
槍色 14
樂樂童 14
樂積 14
樂聚 14
樓頂 14
標章 14
模擬器 14
樹燈 14
樹皮 14
樹莓 14
橘貓 14
機兒 14
機續 14
機觸 14
檳@@ 14
檸檬茶 14
檸檬草 14
權威 14
欲@@ 14
欲望 14
款圓 14
款客 14
款氣 14
款洋裝 14
款皮 14
歐室 14
歐式陽 14
歐掛 14
歐美經典 14
歐萊雅 14
歐都納 14
歡樂頌 14
正式版 14
步器 14
步驟 14
武海 14
武藏 14
歪@@ 14
殘留 14
殼子 14
毛連帽 14
氣缸 14
氣質連 14
氫 14
水光@@ 14
水玉@@ 14
水產 14
水磨 14
水蒸 14
水藍@@ 14
水表 14
水袖 14
水量 14
水養 14
水龍 14
池釣 14
汽車門 14
沙士 14
沙雕 14
河流 14
油杯 14
油膩膩 14
法事 14
法衣 14
泡綿 14
波加曼 14
泰国 14
泳裝@@ 14
洋裝連 14
洗頭膏 14
活氧@@ 14
流蘇耳 14
浅@@ 14
海味 14
海綿床 14
消臭劑 14
涼席@@ 14
涼椅 14
淑曉倩 14
淡香@@ 14
淨痘 14
深層護 14
深藍紅 14
混批 14
測器 14
游戏 14
游戲電 14
湛 14
湯盤 14
湯罐 14
溢@@ 14
溫灸 14
滋润 14
滌 14
滑門 14
滾軸 14
演講台 14
漲 14
漸@@ 14
潔淨@@ 14
潛水式樣 14
潮客 14
潮汐 14
澆水壺 14
激鬥 14
濕式 14
濾油 14
灌裝機 14
災@@ 14
炫客族 14
点@@ 14
烯@@ 14
無光 14
無味@@ 14
無字 14
無效 14
無煙@@ 14
無異味 14
無紡 14
無肩帶 14
無腿 14
焦版 14
焰@@ 14
煙斗@@ 14
煙袋 14
照護 14
煲湯 14
熊寶寶@@ 14
熊美 14
熊麻吉 14
熨衣板 14
熱火隊 14
熾 14
燈款 14
燈牌 14
燙染 14
爆款區 14
爾頓 14
版洋 14
版風衣 14
牌篇 14
牛肚 14
牛蛙 14
物情 14
特勤 14
特性 14
特攝 14
特裝 14
狗柵欄 14
狸貓 14
猛毒 14
猛獸 14
獨愛 14
獻@@ 14
玄关 14
玉化 14
王卡組 14
王朝 14
王金證 14
玩轉 14
玫紅@@ 14
珠地 14
現代兒 14
現代換 14
現代書架 14
現代設 14
現品 14
現狀品 14
現磨 14
球耳環 14
琴弦 14
琴架 14
琺瑯彩 14
瑪德蓮 14
璞 14
環島 14
甜菜 14
用球 14
用量 14
男全 14
男加絨 14
男套 14
男底 14
男日系 14
男網 14
畔 14
畢卡索 14
畫免 14
異度 14
當個 14
疑@@ 14
疝 14
疾風 14
病床 14
瘦闊 14
發泄 14
發泡@@ 14
發酵@@ 14
發電 14
白大褂 14
白布 14
白樹 14
白毛 14
白發 14
白石 14
白管 14
白蛇 14
百世 14
百搭彩膜 14
百搭沙灘 14
百搭洋氣 14
百搭雙 14
百百貨 14
皮丘 14
皮卡 14
皮膚@@ 14
皺皺 14
盆柜 14
益昌 14
盒架 14
盒蛋 14
盒長 14
盛宴 14
目木 14
直噴 14
直銷價 14
相似 14
眉型 14
真貨 14
眼妝 14
眼球 14
眼鏡布 14
矩形 14
短錢 14
矮個子 14
石像 14
石茶 14
硬漢 14
礼 14
祖先 14
祝壽 14
神戶 14
神隱 14
神鬼 14
私櫃 14
私語 14
秉@@ 14
秋日 14
秒速 14
移动 14
積木人 14
穎@@ 14
空愛心 14
穿厚 14
穿長 14
窄邊 14
立體馬車 14
童小學生 14
童手 14
童涼鞋 14
童顏 14
競技版 14
第一部 14
筆頭 14
筐@@ 14
管束 14
篆 14
簡便 14
簡報 14
簡約邊 14
簡風 14
簪@@ 14
簾免 14
籠屜 14
籠貓 14
籬 14
米斯 14
米森 14
米琪家飾 14
米諾諾 14
米雅 14
粉勾 14
粉專 14
粗框 14
粗款 14
精裝@@ 14
紀念杯 14
紅玉 14
紅色款 14
紅豆@@ 14
紅邊 14
紋布 14
紋眉@@ 14
納福 14
純潔 14
紙貼 14
紫標 14
紫界 14
紫黃 14
累 14
細格 14
細致 14
細高 14
組裝衣 14
結包 14
結系 14
結緣價 14
結裝飾 14
絕佳 14
絢麗@@ 14
絲款 14
絲滑@@ 14
絲美背 14
絹花 14
經理桌 14
綠林 14
綠黃 14
維尼小豬 14
維莎 14
網店 14
網紅自 14
網紅運動 14
網紅防 14
網絡@@ 14
線路 14
線遮陽 14
線頭 14
編織籃 14
編織長 14
縱 14
總長 14
繁中 14
繽紛@@ 14
纖紋 14
纱 14
经济型 14
绳 14
羅馬桿 14
美國免 14
美妙 14
美日代購 14
美月 14
美極客 14
美機 14
美潮 14
美耐皿 14
美胸@@ 14
美軍@@ 14
美閣 14
美馳 14
美麗無限 14
群光 14
習題 14
翔平 14
翡 14
翱翔 14
翹板 14
翻滾 14
翻身 14
老司 14
而生 14
耳屎 14
耳環項 14
耳釘耳飾 14
聯盟@@ 14
聯絡 14
聯經 14
聯通 14
肚臍 14
肥貓 14
肩吊帶 14
胸墊@@ 14
腋臭 14
腰大碼 14
腰夾 14
腰束 14
腰褲 14
腳墊門 14
腳趾 14
膠掛 14
膠間 14
臀顯 14
臉刷 14
臨門 14
自粘式 14
興雲網購 14
舊書 14
舞獅 14
般的 14
舵 14
色澤 14
色選 14
艾倫比亞 14
艾希 14
艾果果 14
芥川 14
花之@@ 14
花圃 14
花巷 14
花托 14
花白 14
花線 14
花露 14
范斯@@ 14
茶機 14
茶袋 14
草木 14
草種子 14
草貝殼頭 14
莉薇 14
莉迪佳 14
莊大氣 14
莫卡辛 14
莫桑石 14
華貴 14
萌品購 14
著夜 14
葛 14
葫蘆@@ 14
蒂斯 14
蒸氣@@ 14
蓄電池 14
蓋布@@ 14
蓮蓬 14
蔚藍 14
蔣 14
蔻丹 14
蕾絲長 14
薄絨 14
薇薇安 14
藏私 14
藕@@ 14
藝小戶 14
藤藝 14
藥膳 14
蘆@@ 14
蘇包 14
蘇州 14
處理@@ 14
號半 14
號球 14
蚊防 14
蛋紙 14
蜜蜜家 14
螢光劑 14
蟹@@ 14
蠟皮 14
蠶豆 14
行員 14
街頭嘻哈 14
衛龍 14
衝擊@@ 14
袋款 14
袖白 14
袖百搭 14
袖運動 14
裘@@ 14
裙洋 14
補妝 14
補妝鏡 14
補貨到 14
裝出 14
裝夾 14
裝式 14
裝板 14
裝洋裝 14
裝組合 14
裸卡 14
褲款 14
褲純色 14
褶衣 14
西川 14
西海岸 14
西游 14
西裝套 14
西西里 14
要來點 14
視界 14
視野 14
觀察@@ 14
觀花 14
解讀 14
訪@@ 14
診器 14
診所 14
詞典 14
詩集 14
誘吻 14
誘捕 14
語錄 14
調皮 14
調羹 14
諭 14
講桌 14
證書框 14
譙韻堂 14
議桌 14
護甲@@ 14
護眼@@ 14
讀書架 14
讀筆 14
變色潤 14
谷物 14
豎笛 14
象鼻 14
豪華組 14
貂絨 14
貓別墅 14
貓款 14
貓沙 14
貝蒂@@ 14
貝貝家 14
貢丸 14
貨單 14
貨屋 14
貨有 14
貨櫃@@ 14
貨正 14
貨運 14
貴州 14
買家@@ 14
貼壁 14
資生 14
資訊@@ 14
賣出 14
質蕾絲 14
質連 14
購品 14
購店 14
購淨 14
賽爾 14
贝@@ 14
起售 14
起床 14
超可動 14
超有型 14
超氣質 14
超洋氣 14
超激 14
超立體 14
超經典 14
超速 14
超高亮 14
足量 14
路基 14
踢踢 14
躍 14
躲 14
車坐 14
車場 14
車女 14
車小拉車 14
車廠 14
車男 14
車膜 14
車褲 14
車趟 14
車遙 14
車鋁 14
車門防 14
軟矽膠 14
輕乳感 14
輕奢后 14
輕奢風 14
辣椒粉 14
辦公全 14
辦公寫 14
辦公游戲 14
近代 14
迪斯@@ 14
送禮品 14
透氣時 14
透視蕾絲 14
造船 14
連結@@ 14
遇见 14
運動腕 14
運動臂 14
運動表 14
遙控船 14
遜 14
遺失 14
遼@@ 14
邁阿密 14
邊款 14
郁金香 14
郊@@ 14
郝@@ 14
配布 14
酒店客房 14
酷樂@@ 14
酷派 14
酷涼 14
酷碼 14
醜@@ 14
量具 14
金塊 14
金庸 14
金條 14
金皮 14
金術師 14
金證@@ 14
金銀扣 14
金電鍍 14
針筒 14
針織帽 14
鈔@@ 14
鈞@@ 14
鈴鼓 14
鉚 14
鉤織 14
銀箔 14
銀線 14
銀行學 14
銅頭 14
銜扣 14
鋼管舞 14
錡 14
鍍晶 14
鍵鼠 14
鎖骨項 14
鏡布 14
鐘掛 14
鐵夾 14
鐵盤 14
鐵腳 14
鐵藝休 14
鑰匙櫃 14
鑽腕 14
镜子 14
門型 14
門底 14
門檻條 14
閃電俠 14
開口戒 14
開年 14
開心果 14
開水壺 14
開衫拉鏈 14
開跑 14
關注@@ 14
防塵盒 14
防墜 14
防盜器 14
防纏 14
防蚊罩 14
防蚤 14
防護套 14
防銹@@ 14
防霧劑 14
阿德 14
阿朗 14
阿瓦 14
附中 14
附憑證 14
附紙 14
附肩 14
附胸 14
附螺絲 14
附鑰匙 14
限位器 14
陽台@@ 14
隔壁 14
隔音板 14
雅依 14
雅美 14
雅菲代購 14
集乳器 14
雙三人 14
雙杯 14
雙槍 14
雙肩帶 14
雙腳 14
雞尾酒 14
雞肉條 14
雨刷片 14
雪印 14
雪寶@@ 14
雪尼爾 14
雪梅 14
雪芙蘭 14
雪黛屋 14
雷雕 14
雷鳥 14
電子體 14
電摩 14
電暖@@ 14
電暖氣 14
電源板 14
電熱開 14
電腦散 14
電茶壺 14
電路板 14
露台 14
靈異 14
青春痘 14
青海 14
青茶 14
靓@@ 14
面海 14
面爐 14
鞋一腳 14
鞋型 14
鞋城 14
鞋平 14
鞋托 14
鞋身 14
韓哈代購 14
韓單 14
韓國免 14
韓國境 14
韓國潮 14
韓國純 14
韓國語 14
韓國風 14
韓涼鞋 14
韓版圓 14
韓版秋裝 14
韓版超 14
韓版鞋 14
韓現 14
韓超 14
韓都 14
韩@@ 14
頁@@ 14
項墜 14
預購@@ 14
預購區 14
頒獎 14
領夾式 14
領時 14
領短版 14
領系 14
頭戴 14
頭箍@@ 14
頸椎枕 14
頸繩 14
頸霜 14
額@@ 14
顏乳 14
顛 14
顯瘦休 14
顯腿長 14
風中 14
風包 14
風口@@ 14
風正韓 14
風琴@@ 14
風設 14
風辦 14
風隔斷 14
飛智 14
飛越 14
飯勺 14
飯盤 14
飲店 14
養魚 14
餐叉 14
餐柜 14
饅頭社 14
首款 14
香橙 14
香盤 14
香醇 14
馭 14
馴@@ 14
驟 14
高叉 14
高圓圓 14
高樓 14
高等 14
高腳桌 14
高鐵@@ 14
魅藍 14
魔手 14
魚尾長 14
鮮雞 14
鳥兒 14
鳩 14
鵬@@ 14
鸚鵡籠 14
麥可@@ 14
麻布袋 14
麻線 14
麻葉 14
黑夜 14
黑天 14
黑鞋 14
黛拉 14
鼻頭 14
龜派 14
H@@ 13
O@@ 13
დ 13
ლ 13
ど 13
ば 13
一帆 13
一打 13
一把 13
一整套 13
一朵 13
一汽 13
一轉 13
三一樂器 13
三人布 13
三對 13
三清 13
三等 13
上汽 13
上部 13
下身 13
下酒菜 13
不取 13
世偉 13
世達 13
两件 13
中午 13
中国 13
中國紅 13
中日 13
中柱 13
中醫@@ 13
串口 13
丹寧布 13
丼 13
之三 13
之下 13
之島 13
之愛 13
乒乓 13
乖 13
九天 13
九妹 13
乳化 13
乳癌 13
乾果機 13
乾糧 13
二戰@@ 13
五股 13
五芒 13
亞曼尼@@ 13
亞特蘭 13
交往 13
亦可 13
享券 13
享樂 13
亮澤 13
人小戶 13
仕達 13
代男鞋 13
仰@@ 13
仰望 13
价 13
份量 13
企 13
休足 13
休閒腕 13
伯賢@@ 13
低藍光 13
住@@ 13
佛祖 13
你妹 13
佩珊 13
佳藝 13
來而康 13
依芝 13
保稅 13
保養劑 13
保養廠 13
保鮮機 13
信差 13
修顏@@ 13
俯臥撐 13
倉鼠@@ 13
倫敦@@ 13
假樹 13
偏心 13
側睡 13
傑森 13
傘抗 13
傘擺 13
傘長 13
傘雨 13
備品 13
傳承 13
傳明酸 13
傻 13
僕@@ 13
優百貨 13
優鋪 13
元照 13
兄 13
充氣式 13
充電小風 13
克里夫 13
免運下 13
免運起 13
免運附 13
免電池 13
免驅 13
兒童籃 13
兔寶寶 13
兔龍 13
入場 13
入式 13
內多層 13
內文 13
內著 13
全包套 13
全圖解 13
全天候 13
全棉純 13
全滿版 13
全犬 13
全聯點數 13
全華圖 13
八卡 13
八號 13
八道 13
公務 13
公務包 13
六尾 13
六扇 13
六版 13
六道 13
兮兮 13
兵人 13
冰糕 13
冷暖箱 13
冷泡 13
冷熱風 13
凍包 13
凱蒂@@ 13
凳套 13
凳布 13
凸內褲 13
出來 13
函@@ 13
刀削 13
刀剪 13
分叉 13
分泵 13
分線 13
切削 13
切絲機 13
初始 13
初語 13
利曼 13
制霸 13
刷組 13
刷絨 13
刷車 13
刺隊 13
刻磨機 13
刻錄 13
前端 13
剔透 13
剛剛 13
剩飯 13
剪接 13
剪頭 13
副食 13
創意燈 13
創美 13
創藝店 13
劇情 13
劈 13
劍士 13
劍網 13
加濕機 13
加蓋 13
動動 13
動圈 13
動物頭 13
勻@@ 13
勾子 13
包可 13
包屁@@ 13
包店 13
包廂 13
包手機 13
包掛飾 13
包短夾 13
包組合 13
包網 13
包腳衣 13
包芯紗 13
化妆@@ 13
化妆品 13
化身 13
北歐書 13
北部 13
十個 13
十全十美 13
千值 13
千手 13
千歲 13
千羽 13
升科 13
南希 13
南港 13
占星 13
卡洛馳 13
卡貝@@ 13
卡鞋 13
印紙 13
原切 13
原配 13
去垢 13
又@@ 13
友品 13
双子星 13
双肩 13
取杯器 13
古原 13
古圓形 13
古客 13
古曼@@ 13
古潮牌 13
古琴 13
古褶 13
古銀@@ 13
古馳長 13
可安裝 13
可愛休 13
可愛風個 13
可疊 13
可門市 13
台卡 13
台桌 13
台灣車 13
台盆 13
台達 13
台鈴 13
各廠 13
合同 13
合壁 13
吉爾登 13
吊墜珠 13
吊桿 13
吊瓶 13
同人@@ 13
同盟 13
含椅 13
含線 13
含芯 13
含郵 13
含量 13
吳世勳 13
吳建豪 13
吸允 13
吸合 13
吸水性 13
吸鐵@@ 13
吻@@ 13
告@@ 13
告示 13
周董 13
呲 13
呼叫器 13
咀嚼片 13
咖喱 13
品熱賣 13
品高袋 13
員林 13
唐采 13
商務百 13
商務禮品 13
啟示 13
喊麥 13
喬丹鞋 13
單條價 13
嘉韻 13
嘟 13
嘴巴 13
嘴帽 13
噴砂 13
噴頭@@ 13
囊@@ 13
囚@@ 13
四出 13
四排 13
四輪@@ 13
四重奏 13
国 13
图 13
圈口 13
圈型 13
圈款 13
圈環 13
國永 13
園書包 13
園遊會 13
園風 13
圓圓@@ 13
圓條 13
圓盒 13
圖示 13
土豆片 13
地產 13
地直 13
地藏經 13
地鐵 13
坐板 13
垂墜感 13
基拉 13
堆高 13
堡@@ 13
報時 13
報號 13
報館 13
場地 13
場景@@ 13
塑料@@ 13
塑氣 13
塔卡 13
塘 13
填 13
填縫 13
塵紙 13
墊防 13
墙贴 13
壁面 13
壓縮@@ 13
壹款 13
壺套裝 13
复@@ 13
夏亞 13
外科 13
多格層 13
多片 13
多肽 13
多選 13
多點 13
夢想@@ 13
夢斯 13
大圍 13
大寫 13
大廚 13
大掃除 13
大排 13
大數據 13
大沿 13
大湯 13
大然 13
大葉 13
大西洋 13
大雄 13
天師 13
天涯 13
天發 13
天龜 13
太刀 13
夫婦 13
失格 13
头层 13
夾套 13
夾邊 13
奇亞 13
奇威 13
奇物語 13
奈森克林 13
契 13
套頭帽 13
套馬桶 13
奧爾@@ 13
女兵 13
女圓領 13
女團 13
女夏純 13
女學院 13
女工 13
女帶 13
女歌手 13
女遮肚 13
奶泡機 13
奶酥 13
妘 13
妞代購 13
威傑士 13
威視 13
娜斯 13
嬰兒圍 13
子游 13
子潮 13
孔活 13
字牌 13
字面 13
學姐 13
學廚 13
學霸 13
宇星 13
安溪 13
安馨 13
宏佳騰 13
宏基 13
官式 13
定向 13
実 13
客訂款 13
宮寒 13
宴王 13
家中 13
家樂樂居 13
家良品 13
寢@@ 13
實心@@ 13
實時 13
實木壁 13
實木客 13
實木玄關 13
實木邊 13
寫樂 13
寫筆 13
寬長 13
寵物衣 13
寶寶周 13
寶寶安撫 13
寶寶帶 13
寶寶成長 13
寶寶汽車 13
寶寶沙 13
寶寶洋裝 13
寶寶背 13
寶寶衣櫃 13
寶蓮 13
專櫃購 13
專科@@ 13
尋寶 13
對裝 13
導向 13
導航@@ 13
小三@@ 13
小不点 13
小企鵝 13
小兔兔 13
小升家 13
小孔 13
小寶貝 13
小希百貨 13
小平頭 13
小新家 13
小昊昊 13
小棕瓶 13
小狼 13
小穎 13
小美@@ 13
小耳釘 13
小肥龍 13
小腳架 13
小船 13
小農 13
小霖 13
小青 13
小飛馬 13
小香時 13
尚舒適 13
尚連 13
尚防 13
尚露 13
尾管 13
尾飾管 13
尿墊 13
尿袋 13
屆 13
屏線 13
屏風柜 13
展示台 13
山包 13
山區 13
山姆大叔 13
山核桃 13
岐 13
島風 13
巧手 13
巨神 13
巨蛋 13
巴塞 13
巴布 13
巴油 13
市面上 13
帛 13
帳棚 13
帶蓋勺 13
帶話 13
平口洋裝 13
平廣 13
年终 13
幾電視 13
床下 13
床鈴 13
床雙層 13
底妝 13
底妝@@ 13
店內 13
店洋 13
康斯坦 13
廁所免 13
廚師帽 13
廠家@@ 13
廣式 13
廷@@ 13
張力 13
強型 13
彈性@@ 13
彈跳床 13
彗星 13
彩石 13
彪马 13
後車 13
從前 13
御古齋 13
御守@@ 13
微動 13
微影 13
微整 13
微粒 13
微音樂 13
德拉 13
心儀 13
心全 13
快餐店 13
怎樣 13
思波 13
怠速馬達 13
性佳 13
性圓 13
怪奇 13
息 13
悅刻 13
悍馬 13
悠客 13
悲@@ 13
情懷 13
情歌 13
惠奈 13
惠安 13
愉快 13
意思 13
愛寵 13
愛廚 13
愛心項 13
愛戀@@ 13
愛我 13
愛文 13
感唇 13
慮 13
應該 13
懶人布 13
懶人書桌 13
成像 13
我愛買 13
截@@ 13
戰斗機 13
戲鍵 13
房辦 13
手幅組 13
手扶 13
手拉式 13
手游@@ 13
手藝 13
手貨 13
打擊樂器 13
打火机 13
打版 13
打理 13
打窩@@ 13
托高 13
扣雙 13
批量 13
抄@@ 13
抄經 13
抓板貓 13
抓週 13
抗噪 13
抗敏@@ 13
抗老化 13
抗風 13
折中 13
折特價 13
折疊帶 13
折疊手 13
折疊陽 13
押 13
抽屜鎖 13
抽濕機 13
抽煙 13
拉扣 13
拉胡 13
拍燈 13
拓者 13
拔毛 13
拔罐器 13
拖箱 13
拜金 13
拿手 13
持妝@@ 13
指令 13
指導 13
指引 13
指揮棒 13
指紋@@ 13
按鍵@@ 13
挑剔 13
捷通 13
掛圖 13
掛頸 13
探險者 13
接管 13
控手 13
推車@@ 13
提摩西 13
提斯 13
提燈 13
提蓋器 13
插旗 13
揭面 13
搏@@ 13
搖控器 13
搖錢樹 13
撕邊 13
撩@@ 13
擇@@ 13
擋車 13
擔@@ 13
擺動 13
擺放@@ 13
攜車 13
攜首飾 13
支線 13
收腰連 13
改二 13
攻擊@@ 13
敗@@ 13
敘@@ 13
教學用 13
教本 13
教益 13
文集 13
斑馬團 13
斗牛犬 13
料理店 13
斜線 13
斧頭 13
新之助 13
新料 13
新新 13
新日檢 13
新百倫@@ 13
施耐德 13
旗桿 13
旗艦@@ 13
日專 13
日東 13
日產@@ 13
旭日 13
旺來 13
昊@@ 13
明日香 13
明昊 13
星期@@ 13
星期八 13
昭 13
昴 13
時光海 13
時尚拉鏈 13
時尚純 13
時尚輕 13
晚裝 13
景天科 13
晶工牌 13
晶球 13
暗殺 13
暗紅色 13
暗袋 13
曇花 13
曰 13
替@@ 13
最後生 13
月夜 13
有個 13
服連帽 13
木刻 13
木葉 13
未滿 13
本季 13
本筆 13
札 13
朱泥 13
朵花 13
李佳琪 13
李小姐 13
李現 13
杜蘭 13
東亞 13
東成 13
松田 13
松長 13
板床 13
枕頭巾 13
林小姐 13
林彥 13
林糖 13
果汁瓶 13
果粉 13
枝條 13
架多層 13
架室 13
枸杞子 13
柏格 13
柏霖 13
染唇露 13
染布 13
柔棉 13
柜兒 13
柜辦 13
柱子 13
柳橙 13
校正 13
校色 13
栩@@ 13
格斯 13
框鏡 13
框防 13
框風 13
桌休 13
桌墊@@ 13
桌折疊 13
桌柜 13
桌用 13
桌面上 13
桑塔納 13
桑拿浴 13
桔子 13
條文@@ 13
梯室 13
梯椅 13
棉單 13
棉夏 13
棉夏涼 13
棉款 13
棉沙 13
棉潮 13
棉純色 13
棉防 13
棕瓶 13
棲姬 13
椅時 13
楊木 13
極簡風 13
極美@@ 13
楹 13
榆 13
槍箱 13
樂兜 13
樂嘉百貨 13
樂嘉雜 13
樂視 13
樓道 13
標準款 13
標車 13
模機 13
樹木 13
橄欖球 13
橘皮 13
機創 13
機可 13
機夾物 13
機攪 13
機景品 13
機架@@ 13
機況 13
機甲@@ 13
機耳麥 13
機蓋 13
機運動 13
機防風 13
機馬桶 13
橫幅 13
檜木@@ 13
檢測@@ 13
櫃簡約 13
欧洲 13
款宴 13
[...]
